{
  "</s>": 0,
  "<unk>": 1,
  ",": 2,
  ".": 3,
  "'": 4,
  "\u2581die": 5,
  "\u2581de": 6,
  "\u2581\"": 7,
  "\u2581en": 8,
  "\u2581het": 9,
  "\u2581-": 10,
  "\u2581la": 11,
  "\u2581van": 12,
  "\u2581n": 13,
  "\u2581'": 14,
  "\u2581\u00e0": 15,
  "\u2581et": 16,
  "\u2581is": 17,
  "\u2581les": 18,
  "\u2581l": 19,
  "\u2581in": 20,
  "\u2581te": 21,
  "\u2581nie": 22,
  "\u2581le": 23,
  "?": 24,
  "\u2581wat": 25,
  "s": 26,
  "\u2581des": 27,
  "\u2581d": 28,
  ":": 29,
  "\u2581om": 30,
  "\u2581que": 31,
  "\u2581se": 32,
  "\u2581hulle": 33,
  "\u2581ons": 34,
  "\u2581a": 35,
  "\u2581dit": 36,
  "\u2581qui": 37,
  "\u2581dat": 38,
  "\u2581un": 39,
  "\u2581dans": 40,
  "\u2581du": 41,
  "\u2581pour": 42,
  "\u2581nous": 43,
  "\u2581op": 44,
  "\u2581sy": 45,
  "\u2581vir": 46,
  "\u2581pas": 47,
  "\u2581": 48,
  "\u2581une": 49,
  "\u2581met": 50,
  "\u2581est": 51,
  "\u2581il": 52,
  "\u2581word": 53,
  "\u2581qu": 54,
  "\u2581Die": 55,
  "\u2581as": 56,
  "\u2581was": 57,
  "\u2581ce": 58,
  "\u2581aan": 59,
  "\u2581kan": 60,
  "\u2581vous": 61,
  "\u2581ne": 62,
  "\u2581.\"": 63,
  "e": 64,
  "\u2581sal": 65,
  "\u2581hy": 66,
  "\u2581God": 67,
  "\u2581J\u00e9hovah": 68,
  "\u2581Jehovah": 69,
  "\u2581Dieu": 70,
  "est": 71,
  "\u2581s": 72,
  "\u2581au": 73,
  ";": 74,
  "\u2581plus": 75,
  "\u2581par": 76,
  "\u2581sur": 77,
  "\u2581of": 78,
  "\u2581my": 79,
  "\u2581ek": 80,
  "!": 81,
  "\u2581jy": 82,
  "a": 83,
  "\u2581[": 84,
  "\u2581deur": 85,
  "\u2581(": 86,
  "\u2581hierdie": 87,
  "\u2581sont": 88,
  "\u2581na": 89,
  "\u2581jou": 90,
  "\u2581son": 91,
  "\u2581ont": 92,
  "\u2581avec": 93,
  "il": 94,
  ")": 95,
  "\u2581En": 96,
  "\u2581ou": 97,
  "\u2581leur": 98,
  "\u2581moet": 99,
  "\u2581Dit": 100,
  "\u2581oor": 101,
  "un": 102,
  "\u2581,\"": 103,
  "\u2581Il": 104,
  "\u2581wees": 105,
  "\u2581mense": 106,
  "\u2581lui": 107,
  "\u2581Jesus": 108,
  "\u2581sa": 109,
  "\u2581ses": 110,
  "\u2581s\u00ea": 111,
  "\u2581aux": 112,
  "\u2581tot": 113,
  "\u2581La": 114,
  "\u2581je": 115,
  "\u2581by": 116,
  "\u2581ander": 117,
  "]": 118,
  "\u2581J\u00e9sus": 119,
  "\u2581Les": 120,
  "\u2581hom": 121,
  "\u2581ook": 122,
  "\u25811": 123,
  "\u2581uit": 124,
  "\u2581ils": 125,
  "\u2581Maar": 126,
  "\u2581Le": 127,
  "\u2581\u00e9t\u00e9": 128,
  "\u2581baie": 129,
  "\u2581comme": 130,
  "\u2581Ek": 131,
  "\u2581\u00eatre": 132,
  "\u2581maar": 133,
  "\u2581fait": 134,
  "\u2581toe": 135,
  "\u2581daar": 136,
  "une": 137,
  "n": 138,
  "\u2581soos": 139,
  "\u2581cette": 140,
  "\u2581al": 141,
  "\u2581notre": 142,
  "\u2581m\u00eame": 143,
  "\u2581lewe": 144,
  "\u2581Bible": 145,
  "\u2581elle": 146,
  "ai": 147,
  "\u2581ges\u00ea": 148,
  "\u2581C": 149,
  "\u2581mais": 150,
  "\u2581doen": 151,
  "\u2581t": 152,
  "\u2581een": 153,
  "\u2581ces": 154,
  "\u2581L": 155,
  "\u2581peut": 156,
  "\u2581vie": 157,
  "\u2581tout": 158,
  "\u2581Hy": 159,
  "\u2581julle": 160,
  "\u2581faire": 161,
  "\u2581meer": 162,
  "\u2581In": 163,
  "\u2581on": 164,
  "\u2581Bybel": 165,
  "\u2581\u00e9tait": 166,
  "\u2581si": 167,
  "\u2581j": 168,
  "\u2581Wat": 169,
  "\u2581net": 170,
  "\u2581Hoe": 171,
  "\u2581hoe": 172,
  "\u2581so": 173,
  "\u2581leurs": 174,
  "\u2581bien": 175,
  "\u2581Ons": 176,
  "\u2581maak": 177,
  "\u2581sou": 178,
  "\u2581c": 179,
  "-": 180,
  "\u2581/": 181,
  "en": 182,
  "\u2581haar": 183,
  "\u2581aussi": 184,
  "\u2581gebruik": 185,
  "\u2581m": 186,
  "\u2581Mais": 187,
  "r": 188,
  "\u2581temps": 189,
  "\u2581monde": 190,
  "\u2581avait": 191,
  "\u2581kom": 192,
  "ils": 193,
  "\u2581wanneer": 194,
  "on": 195,
  "\u2581tous": 196,
  "\u2581As": 197,
  "\u2581wil": 198,
  "...": 199,
  "\u2581tyd": 200,
  "\u2581jaar": 201,
  "\u2581laat": 202,
  "\u2581y": 203,
  "\u2581gaan": 204,
  "\u2581Hulle": 205,
  "er": 206,
  "\u2581me": 207,
  "\u2581begin": 208,
  "\u2581w\u00eareld": 209,
  "\u2581ceux": 210,
  "\"": 211,
  "\u2581groot": 212,
  "\u2581Getuies": 213,
  "\u2581kon": 214,
  "de": 215,
  "\u2581votre": 216,
  "\u2581werk": 217,
  "\u2581Je": 218,
  "\u2581ma": 219,
  "\u2581voor": 220,
  "\u2581help": 221,
  "y": 222,
  "\u2581T\u00e9moins": 223,
  "\u2581kinders": 224,
  "\u2581onder": 225,
  "\u2581J": 226,
  "\u2581bladsy": 227,
  "\u2581gee": 228,
  "\u2581nog": 229,
  "\u2581sans": 230,
  "\u2581page": 231,
  "ont": 232,
  "\u2581sien": 233,
  "\u25812": 234,
  "\u2581o\u00f9": 235,
  "\u2581h\u00ea": 236,
  "\u2581\u00c0": 237,
  "\u2581D": 238,
  "\u2581mens": 239,
  "\u2581terre": 240,
  "\u2581nos": 241,
  "\u2581ans": 242,
  "\u2581dinge": 243,
  "\u2581Nous": 244,
  "\u2581goeie": 245,
  "\u2581Et": 246,
  "\u2581nou": 247,
  "\u2581deux": 248,
  "\u2581af": 249,
  "\u2581daardie": 250,
  "\u2581gehad": 251,
  "\u2581enfants": 252,
  "\u2581man": 253,
  "\u2581De": 254,
  "\u2581mon": 255,
  "autres": 256,
  "\u2581donc": 257,
  "\u2581jour": 258,
  "\u2581chr\u00e9tiens": 259,
  "\u2581Un": 260,
  "\u2581Si": 261,
  "\u2581Comment": 262,
  "\u2581teen": 263,
  "\u2581quand": 264,
  "\u2581waar": 265,
  "\u2581dag": 266,
  "\u2581aarde": 267,
  "t": 268,
  "\u2581Dans": 269,
  "die": 270,
  "\u2581selfs": 271,
  "\u2581tu": 272,
  "\u2581autres": 273,
  "\u2581leer": 274,
  "\u2581dus": 275,
  "\u2581Par": 276,
  "\u2581Paulus": 277,
  "\u2581Toe": 278,
  "\u2581Paul": 279,
  "\u2581choses": 280,
  "\u2581saam": 281,
  "\u2581Ils": 282,
  "\u2581000": 283,
  "es": 284,
  "\u2581_": 285,
  "ait": 286,
  "\u2581personnes": 287,
  "\u2581hou": 288,
  "\u2581dont": 289,
  "\u2581toute": 290,
  "\u2581eerste": 291,
  "te": 292,
  "nt": 293,
  "\u2581ainsi": 294,
  "\u2581Christus": 295,
  "\u2581Hierdie": 296,
  "\u2581Au": 297,
  "\u2581beaucoup": 298,
  "\u2581omdat": 299,
  "\u2581geen": 300,
  "\u2581Christ": 301,
  "\u2581non": 302,
  "\u258115": 303,
  "\u2581avons": 304,
  "\u2581huis": 305,
  "\u2581Waarom": 306,
  "\u2581pays": 307,
  "ant": 308,
  "\u2581cela": 309,
  "\u2581moi": 310,
  "\u2581avoir": 311,
  "\u2581dan": 312,
  "\u2581S": 313,
  "\u2581Daar": 314,
  "ons": 315,
  "\u2581bly": 316,
  "\u2581dalk": 317,
  "\u2581twee": 318,
  "\u2581gemaak": 319,
  "\u2581\u00e9taient": 320,
  "ment": 321,
  "\u2581encore": 322,
  "\u2581Christene": 323,
  "\u2581lank": 324,
  "\u2581On": 325,
  "\u2581soit": 326,
  "\u2581tr\u00e8s": 327,
  "\u2581gegee": 328,
  "\u2581Pourquoi": 329,
  "\u2581suis": 330,
  "\u2581&": 331,
  "\u2581contre": 332,
  "\u2581famille": 333,
  "\u2581foi": 334,
  "\u2581toutes": 335,
  "hui": 336,
  "\u2581elke": 337,
  "\u2581Satan": 338,
  "\u2581Ce": 339,
  "jourd": 340,
  "\u2581fois": 341,
  "\u2581Une": 342,
  "\u2581geloof": 343,
  "\u2581autre": 344,
  "elle": 345,
  "\u2581dood": 346,
  "\u2581car": 347,
  "\u2581mort": 348,
  "\u2581Pour": 349,
  "\u2581eux": 350,
  "\u2581gens": 351,
  "\u2581nuwe": 352,
  "\u2581woorde": 353,
  "\u00e0": 354,
  "\u2581neem": 355,
  "b": 356,
  "\u2581Royaume": 357,
  "\u2581liefde": 358,
  "\u2581gedoen": 359,
  "\u2581weet": 360,
  "\u2581exemple": 361,
  "\u2581apr\u00e8s": 362,
  "\u2581alors": 363,
  "\u2581moontlik": 364,
  "d": 365,
  "z": 366,
  "\u2581Sy": 367,
  "\u2581G": 368,
  "\u2581dire": 369,
  "\u2581T": 370,
  "\u2581vrou": 371,
  "\u25813:": 372,
  "\u2581parents": 373,
  "\u2581l\u00e0": 374,
  "\u2581alle": 375,
  "\u2581nom": 376,
  "aient": 377,
  "ez": 378,
  "\u2581geword": 379,
  "\u2581c\u0153ur": 380,
  "\u2581sous": 381,
  "\u00eatre": 382,
  "esprit": 383,
  "\u2581toujours": 384,
  "\u2581femme": 385,
  "\u2581hommes": 386,
  "\u2581Watter": 387,
  "\u00e9": 388,
  "\u2581sodat": 389,
  "\u2581avant": 390,
  "\u2581hele": 391,
  "\u2581want": 392,
  "l": 393,
  "\u2581vos": 394,
  "\u2581di\u00e9": 395,
  "\u2581naam": 396,
  "\u2581moes": 397,
  "\u25812:": 398,
  "\u2581jamais": 399,
  "\u2581almal": 400,
  "\u2581toon": 401,
  "\u2581Que": 402,
  "\u2581certains": 403,
  "\u2581ni": 404,
  "\u2581vind": 405,
  "\u2581daarvan": 406,
  "\u2581goed": 407,
  "\u2581vers": 408,
  "\u2581mal": 409,
  "\u2581deel": 410,
  "\u00e9tait": 411,
  "\u2581Quand": 412,
  "\u2581elles": 413,
  "\u2581nodig": 414,
  "\u2581Wanneer": 415,
  "\u2581mes": 416,
  "\u25818": 417,
  "\u2581peuvent": 418,
  "\u2581entre": 419,
  "\u2581ouers": 420,
  "S": 421,
  "\u2581hart": 422,
  "le": 423,
  "\u2581peu": 424,
  "\u2581Qu": 425,
  "\u2581homme": 426,
  "\u2581Elle": 427,
  "\u2581\u00e9galement": 428,
  "\u2581.": 429,
  "\u2581celui": 430,
  "\u2581probeer": 431,
  "\u2581weer": 432,
  "\u25814:": 433,
  "\u2581geestelike": 434,
  "\u2581fils": 435,
  "\u2581congr\u00e9gation": 436,
  "\u2581sera": 437,
  "\u2581iemand": 438,
  "\u2581nouvelle": 439,
  "\u2581bonne": 440,
  "\u2581gees": 441,
  "\u2581Koninkryk": 442,
  "\u2581stel": 443,
  "\u2581iets": 444,
  "\u2581vandag": 445,
  "\u2581Des": 446,
  "\u2581jours": 447,
  "\u2581comment": 448,
  "\u2581dink": 449,
  "\u2581u": 450,
  "\u25811:": 451,
  "\u2581Jy": 452,
  "\u2581dikwels": 453,
  "\u25813": 454,
  "\u2581ware": 455,
  "homme": 456,
  "\u2581eie": 457,
  "\u2581wie": 458,
  "\u2581terwyl": 459,
  "\u2581keer": 460,
  "amour": 461,
  "\u2581\u25a1": 462,
  "\u2581maison": 463,
  "\u2581grand": 464,
  "\u2581A": 465,
  "\u2581gekom": 466,
  "\u2581Quelle": 467,
  "\u2581grande": 468,
  "\u2581parce": 469,
  "\u2581weg": 470,
  "\u2581fa\u00e7on": 471,
  "\u2581jeunes": 472,
  "\u25815:": 473,
  "\u2581%": 474,
  "\u2581pourquoi": 475,
  "\u2581Prent": 476,
  "\u2581geskryf": 477,
  "\u2581jusqu": 478,
  "\u2581humains": 479,
  "\u2581cet": 480,
  "),": 481,
  "\u2581sommes": 482,
  "\u2581ontvang": 483,
  "\u2581personne": 484,
  "\u2581livre": 485,
  "la": 486,
  "\u2581nooit": 487,
  "\u2581boek": 488,
  "\u2581diegene": 489,
  "\u2581Quel": 490,
  "\u2581\u00e9crit": 491,
  "\u2581volk": 492,
  "\u2581b": 493,
  "\u2581souvent": 494,
  "\u2581voel": 495,
  "\u2581land": 496,
  "\u2581dien": 497,
  "\u2581ann\u00e9es": 498,
  "\u2581avaient": 499,
  "\u2581Illustration": 500,
  "\u2581v\u00e9rit\u00e9": 501,
  "\u25816:": 502,
  "\u2581Vous": 503,
  "\u2581sonder": 504,
  "\u2581alles": 505,
  "\u2581watter": 506,
  "\u2581ton": 507,
  "\u2581point": 508,
  "\u2581manier": 509,
  "\u2581Israel": 510,
  "\u2581cas": 511,
  "\u2581godsdiens": 512,
  "\u2581tog": 513,
  "se": 514,
  "\u2581party": 515,
  "\u2581beteken": 516,
  "\u2581voir": 517,
  "\u2581faut": 518,
  "\u2581ten": 519,
  "\u2581bon": 520,
  "\u2581chez": 521,
  "\u2581moins": 522,
  "\u2581fr\u00e8res": 523,
  "\u2581gesien": 524,
  "\u2581fin": 525,
  "\u2581B": 526,
  "\u2581HERE": 527,
  "\u2581enige": 528,
  "\u2581tussen": 529,
  "\u2581sulke": 530,
  "\u2581beskou": 531,
  "\u258120": 532,
  "in": 533,
  "\u2581paar": 534,
  "\u2581roi": 535,
  "ing": 536,
  "\u2581eu": 537,
  "\u2581besoin": 538,
  "\u2581waarheid": 539,
  "\u2581*": 540,
  "\u2581nombre": 541,
  "\u25815": 542,
  "\u258110": 543,
  "\u2581paroles": 544,
  "\u2581altyd": 545,
  "\u2581Jean": 546,
  "\u2581N": 547,
  "\u2581gesin": 548,
  "\u2581praat": 549,
  "\u2581kry": 550,
  "\u2581genoem": 551,
  "\u2581staan": 552,
  "\u2581quelques": 553,
  "\u2581nouveau": 554,
  "\u258112": 555,
  "\u2581koning": 556,
  "\u2581'.": 557,
  "\u2581manne": 558,
  "\u2581depuis": 559,
  "\u2581donn\u00e9": 560,
  "\u2581quelque": 561,
  "\u2581chose": 562,
  "\u2581My": 563,
  "\u2581peuple": 564,
  "\u2581trois": 565,
  "Cette": 566,
  "\u25814": 567,
  "\u2581lieu": 568,
  "\u2581Comme": 569,
  "\u2581geniet": 570,
  "\u2581volgende": 571,
  "\u2581Is": 572,
  "\u2581woord": 573,
  "\u2581partie": 574,
  "\u2581disciples": 575,
  "\u2581p\u00e8re": 576,
  "\u2581Johannes": 577,
  "\u2581lees": 578,
  "_": 579,
  "\u2581dae": 580,
  "\u2581vraiment": 581,
  "\u2581M": 582,
  "\u2581drie": 583,
  "ent": 584,
  "\u2581Ja": 585,
  "\u2581New": 586,
  "\u2581gevind": 587,
  "\u2581gevolg": 588,
  "\u2581bibliques": 589,
  "\u2581paix": 590,
  "\u2581gemeente": 591,
  "\u2581David": 592,
  "\u2581werklik": 593,
  "\u2581broers": 594,
  "\u2581tard": 595,
  "\u2581chaque": 596,
  "ste": 597,
  "\u2581prendre": 598,
  "\u2581later": 599,
  "Die": 600,
  "heid": 601,
  "eau": 602,
  "\u2581rien": 603,
  "\u258118": 604,
  "\u2581ouer": 605,
  "\u2581vra": 606,
  "c": 607,
  "\u2581einde": 608,
  "\u2581quoi": 609,
  "\u25816": 610,
  "\u258114": 611,
  "\u2581Een": 612,
  "\u2581Om": 613,
  "\u2581verander": 614,
  "\u2581reg": 615,
  "\u2581Hoewel": 616,
  "\u2581pendant": 617,
  "\u2581waarom": 618,
  "\u2581geleer": 619,
  "\u2581byvoorbeeld": 620,
  "\u2581devant": 621,
  "J": 622,
  "\u2581verduidelik": 623,
  "\u2581dieselfde": 624,
  "\u258122": 625,
  "\u2581The": 626,
  "\u2581Ces": 627,
  "\u25817": 628,
  "\u2581artikel": 629,
  "\u2581Dawid": 630,
  "\u2581travail": 631,
  "\u2581nombreux": 632,
  "\u2581raison": 633,
  "\u2581seun": 634,
  "\u2581question": 635,
  "\u2581vertel": 636,
  "\u2581ville": 637,
  "au": 638,
  "\u2581sens": 639,
  "\u2581bring": 640,
  "\u2581Na": 641,
  "\u2581hoop": 642,
  "\u2581water": 643,
  "\u2581cours": 644,
  "\u258117": 645,
  "\u2581quelqu": 646,
  "\u2581egter": 647,
  "\u2581Woord": 648,
  "\u2581bestaan": 649,
  "\u2581service": 650,
  "\u2581meeste": 651,
  "dat": 652,
  "\u2581m\u00e8re": 653,
  "\u2581doit": 654,
  "\u2581apostel": 655,
  "o": 656,
  "\u2581persoon": 657,
  "\u2581mekaar": 658,
  "\u2581gedurende": 659,
  "\u2581gevra": 660,
  "\u2581effet": 661,
  "\u2581sowel": 662,
  "\u258111": 663,
  "\u2581kyk": 664,
  "or": 665,
  "ap\u00f4tre": 666,
  "\u2581wou": 667,
  "\u2581pouvons": 668,
  "\u2581seulement": 669,
  "\u2581gebeur": 670,
  "\u2581toi": 671,
  "\u2581part": 672,
  "\u2581Christelike": 673,
  "\u2581K": 674,
  "\u2581compte": 675,
  "\u2581voorbeeld": 676,
  "\u2581lei": 677,
  "k": 678,
  "\u2581font": 679,
  "\u2581self": 680,
  "\u2581Parole": 681,
  "\u2581voorsien": 682,
  "\u2581mis": 683,
  "\u2581hulp": 684,
  "\u2581besluit": 685,
  "\u2581woon": 686,
  "\u2581raad": 687,
  "\u2581krag": 688,
  "\u2581donne": 689,
  "\u2581joie": 690,
  "\u2581plek": 691,
  "\u2581probleme": 692,
  "Ek": 693,
  "\u2581besoek": 694,
  "\u2581parler": 695,
  "\u2581vrede": 696,
  "\u2581selon": 697,
  "\u2581Bien": 698,
  "\u258130": 699,
  "\u2581R": 700,
  "\u2581femmes": 701,
  "\u2581quel": 702,
  "\u2581stad": 703,
  "\u2581cause": 704,
  "\u2581biblique": 705,
  "\u2581yeux": 706,
  "\u25811,": 707,
  "\u2581verstaan": 708,
  "\u2581Op": 709,
  "\u258124": 710,
  "\u25819": 711,
  "\u2581Pierre": 712,
  "\u2581serviteurs": 713,
  "\u2581besef": 714,
  "\u2581vrai": 715,
  "\u2581Petrus": 716,
  "\u2581kind": 717,
  "autre": 718,
  "\u2581millions": 719,
  "\u2581Baie": 720,
  "\u2581P": 721,
  "\u2581sujet": 722,
  "\u2581Cela": 723,
  "\u2581situation": 724,
  "\u2581ci": 725,
  "\u2581quelle": 726,
  "\u2581geneem": 727,
  "\u2581jeune": 728,
  "\u2581seul": 729,
  "\u2581U": 730,
  "\u2581d\u00e9j\u00e0": 731,
  "\u2581lig": 732,
  "\u2581questions": 733,
  "\u2581moment": 734,
  "\u2581afin": 735,
  "\u258116": 736,
  "\u2581nuus": 737,
  "\u2581lande": 738,
  "is": 739,
  "\u2581Apr\u00e8s": 740,
  "\u2581geld": 741,
  "\u2581[...]": 742,
  "\u2581volg": 743,
  "\u2581connaissance": 744,
  "\u2581raak": 745,
  "\u2581steeds": 746,
  "\u2581\u00c9critures": 747,
  ").": 748,
  "\u2581Matthieu": 749,
  "\u2581Job": 750,
  "\u2581teenoor": 751,
  "\u2581jong": 752,
  "\u2581eeu": 753,
  "\u2581maintenant": 754,
  "\u2581membres": 755,
  "\u2581middel": 756,
  "/": 757,
  "\u2581klein": 758,
  "\u2581n\u00e1": 759,
  "\u2581geval": 760,
  "Name": 761,
  "\u2581pris": 762,
  "\u2581Psalm": 763,
  "\u2581o\u00eb": 764,
  "\u2581seront": 765,
  "\u2581heilige": 766,
  "\u2581bekend": 767,
  "\u2581glo": 768,
  "\u2581jare": 769,
  "\u2581savoir": 770,
  "C": 771,
  "\u2581hemel": 772,
  "\u258125": 773,
  "\u2581Party": 774,
  "\u2581vue": 775,
  "\u2581premier": 776,
  "avoir": 777,
  "G": 778,
  "ne": 779,
  "\u2581Vader": 780,
  "\u2581Verenigde": 781,
  "\u2581gehou": 782,
  "\u2581kennis": 783,
  "\u2581serait": 784,
  "\u2581premi\u00e8re": 785,
  "\u2581mag": 786,
  "A": 787,
  "\u2581sang": 788,
  "\u2581antwoord": 789,
  "\u2581mois": 790,
  "\u2581donner": 791,
  "\u2581\"'": 792,
  "\u258121": 793,
  "L": 794,
  "\u2581eerder": 795,
  "\u2581beter": 796,
  "\u2581Toutefois": 797,
  "\u2581possible": 798,
  "\u2581confiance": 799,
  "\u2581duidelik": 800,
  "\u2581vol": 801,
  "\u2581volgens": 802,
  "\u2581chr\u00e9tien": 803,
  "\u2581lors": 804,
  "\u258112:": 805,
  "re": 806,
  "\u2581ge": 807,
  "\u2581tant": 808,
  "\u2581vroue": 809,
  "\u2581plusieurs": 810,
  "\u2581P\u00e8re": 811,
  "i": 812,
  "\u2581avez": 813,
  "\u2581message": 814,
  "\u2581gehelp": 815,
  "\u2581veroorsaak": 816,
  "\u2581conna\u00eetre": 817,
  "\u2581Cependant": 818,
  "\u2581vivre": 819,
  "\u2581doivent": 820,
  "\u2581ta": 821,
  "les": 822,
  "City": 823,
  "\u2581va": 824,
  "\u2581pr\u00e8s": 825,
  "\u2581Christen": 826,
  "al": 827,
  "\u2581celle": 828,
  "\u2581gebied": 829,
  "\u2581Ne": 830,
  "\u2581pu": 831,
  "\u2581veral": 832,
  "\u2581Unis": 833,
  "\u2581J\u00e9rusalem": 834,
  "\u2581Jerusalem": 835,
  "\u2581justice": 836,
  "\u2581amour": 837,
  "\u2581aider": 838,
  "\u2581mani\u00e8re": 839,
  "Isra\u00ebl": 840,
  "\u2581lyk": 841,
  "\u2581\u00c9tats": 842,
  "\u2581gevoel": 843,
  "as": 844,
  "\u2581lorsque": 845,
  "\u2581culte": 846,
  "\u2581aanvaar": 847,
  "\u2581weens": 848,
  "\u2581pouvoir": 849,
  "\u2581persent": 850,
  "\u25814.": 851,
  "\u2581anciens": 852,
  "avais": 853,
  "\u2581dissipels": 854,
  "\u2581ciel": 855,
  "\u2581ver": 856,
  "\u2581groter": 857,
  "f": 858,
  "\u2581propos": 859,
  "\u2581Volgen": 860,
  "\u2581trouver": 861,
  "P": 862,
  "\u2581mieux": 863,
  "\u2581Tout": 864,
  "\u2581gestel": 865,
  "\u2581Psaume": 866,
  "\u2581syst\u00e8me": 867,
  "\u2581beslis": 868,
  "\u2581rede": 869,
  "\u2581servir": 870,
  "\u2581force": 871,
  "\u2581Soos": 872,
  "\u00c9ternel": 873,
  "\u2581fr\u00e8re": 874,
  "\u2581waarop": 875,
  "\u2581juste": 876,
  "\u2581parfois": 877,
  "\u2581mari": 878,
  "\u2581nombreuses": 879,
  "\u2581Ainsi": 880,
  "\u2581bediening": 881,
  "\u2581terug": 882,
  "\u2581Abraham": 883,
  "\u2581Het": 884,
  "\u2581\u00e9poque": 885,
  "\u2581religion": 886,
  "Selon": 887,
  "\u2581soek": 888,
  "\u2581minist\u00e8re": 889,
  "\u2581mensdom": 890,
  "\u258110:": 891,
  "\u2581Adam": 892,
  "\u2581niks": 893,
  "\u258111:": 894,
  "\u2581nadat": 895,
  "\u2581hier": 896,
  "\u2581guerre": 897,
  "\u2581vu": 898,
  "\u2581enfant": 899,
  "\u2581demand\u00e9": 900,
  "\u2581H": 901,
  "\u2581State": 902,
  "\u2581plupart": 903,
  "\u25812.": 904,
  "\u2581vrees": 905,
  "\u2581fut": 906,
  "\u2581bewys": 907,
  "\u2581eers": 908,
  "\u2581vreugde": 909,
  "\u2581feit": 910,
  "\u00e8s": 911,
  "\u2581puis": 912,
  "\u2581p\u00e9ch\u00e9": 913,
  "\u2581pass\u00e9": 914,
  "\u2581sagesse": 915,
  "\u2581Jesaja": 916,
  "\u2581*.": 917,
  "\u00e9tais": 918,
  "\u2581per": 919,
  "\u2581diens": 920,
  "\u2581bereik": 921,
  "\u2581getoon": 922,
  "\u2581anders": 923,
  "g": 924,
  "\u2581bespreek": 925,
  "ais": 926,
  "\u2581explique": 927,
  "\u2581dra": 928,
  "\u2581sommige": 929,
  "argent": 930,
  "\u2581vier": 931,
  "\u2581sant\u00e9": 932,
  "\u2581sit": 933,
  "aide": 934,
  "\u2581boodskap": 935,
  "\u2581place": 936,
  "\u2581bloed": 937,
  "\u2581broer": 938,
  "\u2581ken": 939,
  "\u2581lorsqu": 940,
  "\u2581porte": 941,
  "\u2581grond": 942,
  "\u2581name": 943,
  "\u2581beweeg": 944,
  "\u2581hoof": 945,
  "\u25817:": 946,
  "\u2581hoor": 947,
  "\u2581vriende": 948,
  "\u2581(...)": 949,
  "\u2581soort": 950,
  "\u2581parmi": 951,
  "elles": 952,
  "\u2581moyen": 953,
  "\u2581Here": 954,
  "\u258113": 955,
  "\u2581aucun": 956,
  "\u2581daarop": 957,
  "\u258110.": 958,
  "\u2581Certains": 959,
  "\u2581aandag": 960,
  "\u2581gehoor": 961,
  "\u2581Al": 962,
  "\u2581moeilik": 963,
  "ende": 964,
  "\u2581trop": 965,
  "\u2581seker": 966,
  "\u2581vrae": 967,
  "\u2581l\u00ea": 968,
  "\u2581saint": 969,
  "\u2581parole": 970,
  "\u2581gr\u00e2ce": 971,
  "\u2581laaste": 972,
  "\u2581verband": 973,
  "\u2581Seun": 974,
  "\u2581laquelle": 975,
  "\u2581voordat": 976,
  "\u2581corps": 977,
  "\u2581genoeg": 978,
  "\u2581wyse": 979,
  "\u2581quatre": 980,
  "\u2581aide": 981,
  "\u258113:": 982,
  "\u2581nasies": 983,
  "entre": 984,
  "\u2581Seigneur": 985,
  "\u2581nations": 986,
  "\u2581ongeveer": 987,
  "\u2581Fils": 988,
  "\u2581m\u00eames": 989,
  "\u2581skryf": 990,
  "\u2581vorm": 991,
  "\u2581fid\u00e8les": 992,
  "E": 993,
  "\u2581beskryf": 994,
  "\u2581Met": 995,
  "ur": 996,
  "\u2581So": 997,
  "\u2581Qui": 998,
  "\u2581commenc\u00e9": 999,
  "eux": 1000,
  "\u2581chr\u00e9tienne": 1001,
  "\u2581Alors": 1002,
  "\u2581E": 1003,
  "\u2581petit": 1004,
  "\u2581amis": 1005,
  "\u2581verantwoordelik": 1006,
  "\u25815.": 1007,
  "\u2581Omdat": 1008,
  "\u2581rendre": 1009,
  "\u2581#160;:": 1010,
  "\u2581hand": 1011,
  "\u2581erken": 1012,
  "\u2581York": 1013,
  "\u2581Juda": 1014,
  "\u2581devons": 1015,
  "\u2581tye": 1016,
  "\u2581doute": 1017,
  "\u2581Ma": 1018,
  "apr\u00e8s": 1019,
  "\u2581inligting": 1020,
  "\u258140": 1021,
  "\u2581certaines": 1022,
  "avait": 1023,
  "\u2581Wagtoring": 1024,
  "\u2581I": 1025,
  "\u2581Deur": 1026,
  "\u2581Van": 1027,
  "\u2581volont\u00e9": 1028,
  "\u2581jongmense": 1029,
  "\u2581the": 1030,
  "\u2581plein": 1031,
  "\u2581mettre": 1032,
  "\u2581relations": 1033,
  "\u2581pa": 1034,
  "\u2581soient": 1035,
  "\u2581omtrent": 1036,
  "\u2581#160;": 1037,
  "\u2581verloor": 1038,
  "\u2581sterk": 1039,
  "\u2581verkondig": 1040,
  "\u2581suite": 1041,
  "\u2581pourrait": 1042,
  "us": 1043,
  "\u2581aanbidding": 1044,
  "\u2581knegte": 1045,
  "\u2581vertroue": 1046,
  "\u2581F": 1047,
  "\u2581daarna": 1048,
  "\u2581sekere": 1049,
  "\u2581esprit": 1050,
  "\u2581O": 1051,
  "ge": 1052,
  "\u2581appris": 1053,
  "\u2581wel": 1054,
  "\u2581mesure": 1055,
  "\u2581eet": 1056,
  "\u2581r\u00e9unions": 1057,
  "\u2581pr\u00e9sent": 1058,
  "\u25818.": 1059,
  "\u2581d\u00e9clare": 1060,
  "\u25817.": 1061,
  "\u2581\u00eates": 1062,
  "\u2581comprendre": 1063,
  "\u2581pouvez": 1064,
  "an": 1065,
  "\u2581geleentheid": 1066,
  "article": 1067,
  "\u2581verhouding": 1068,
  "\u2581bo": 1069,
  "\u2581mariage": 1070,
  "\u2581heureux": 1071,
  "\u2581pr\u00e9dication": 1072,
  "\u2581kort": 1073,
  "\u2581sonde": 1074,
  "\u2581belangrik": 1075,
  "\u2581loi": 1076,
  "\u2581main": 1077,
  "\u2581lire": 1078,
  "\u2581envers": 1079,
  "\u2581tel": 1080,
  "\u2581grootste": 1081,
  "\u2581Sa": 1082,
  "\u2581verlaat": 1083,
  "\u2581devenir": 1084,
  "\u2581geweet": 1085,
  "\u258114.": 1086,
  "it": 1087,
  "\u2581Spreuke": 1088,
  "\u2581toekoms": 1089,
  "\u2581situasie": 1090,
  "\u2581waarin": 1091,
  "\u258111.": 1092,
  "\u2581gestuur": 1093,
  "\u2581aangesien": 1094,
  "\u2581langue": 1095,
  "m": 1096,
  "\u2581Jode": 1097,
  "\u2581ewige": 1098,
  "\u2581signifie": 1099,
  "\u2581probleem": 1100,
  "M": 1101,
  "\u2581verkry": 1102,
  "\u2581waarskynlik": 1103,
  "\u2581reeds": 1104,
  "\u2581natuurlik": 1105,
  "\u2581M\u00eame": 1106,
  "\u2581Moses": 1107,
  "\u2581getroue": 1108,
  "\u2581Tu": 1109,
  "\u2581mot": 1110,
  "\u2581reste": 1111,
  "\u2581verskillende": 1112,
  "\u2581Puis": 1113,
  "\u2581trouve": 1114,
  "\u25813.": 1115,
  "\u2581regte": 1116,
  "O": 1117,
  "\u258123": 1118,
  "\u2581vergaderinge": 1119,
  "\u2581liggaam": 1120,
  "\u2581Kan": 1121,
  "\u2581vader": 1122,
  "\u2581persoonlike": 1123,
  "\u2581maklik": 1124,
  "\u2581min": 1125,
  "\u2581studie": 1126,
  "\u2581gewoonlik": 1127,
  "ie": 1128,
  "origine": 1129,
  "\u2581s\u00fbr": 1130,
  "\u2581gedink": 1131,
  "\u2581Wie": 1132,
  "\u2581mondiale": 1133,
  "\u258150": 1134,
  "\u2581lit": 1135,
  "ra": 1136,
  "\u25819.": 1137,
  "\u258112.": 1138,
  "\u2581luister": 1139,
  "\u2581huwelik": 1140,
  "\u2581bied": 1141,
  "\u2581mans": 1142,
  "\u2581druk": 1143,
  "\u2581Proverbes": 1144,
  "gr\u00e9": 1145,
  "\u2581talle": 1146,
  "\u2581naby": 1147,
  "\u2581wysheid": 1148,
  "\u2581valeur": 1149,
  "\u2581Isra\u00e9lites": 1150,
  "\u2581plut\u00f4t": 1151,
  "\u2581d\u00e9but": 1152,
  "\u2581d\u00e9clar\u00e9": 1153,
  "p": 1154,
  "\u258113.": 1155,
  "\u2581beste": 1156,
  "\u2581uiteindelik": 1157,
  "\u2581tydskrif": 1158,
  "\u2581pri\u00e8re": 1159,
  "\u2581',": 1160,
  "\u00e9poque": 1161,
  "\u2581Matteus": 1162,
  "\u258127": 1163,
  "\u2581behoort": 1164,
  "\u2581genre": 1165,
  "\u2581onthou": 1166,
  "\u2581rapport": 1167,
  "%": 1168,
  "\u25818:": 1169,
  "\u2581Juifs": 1170,
  "\u2581principes": 1171,
  "\u2581skool": 1172,
  "\u2581Ander": 1173,
  "\u2581rester": 1174,
  "h": 1175,
  "D": 1176,
  "\u258119": 1177,
  "\u2581berig": 1178,
  "u": 1179,
  "\u2581daarin": 1180,
  "\u2581Openbaring": 1181,
  "\u2581beskouing": 1182,
  "\u2581T\u00e9moin": 1183,
  "\u2581verwag": 1184,
  "\u2581gepraat": 1185,
  "\u2581staat": 1186,
  "\u258116.": 1187,
  "\u2581pages": 1188,
  "B": 1189,
  "\u25813,": 1190,
  "\u2581Hom": 1191,
  "\u2581important": 1192,
  "\u2581montre": 1193,
  "\u258117.": 1194,
  "\u2581maladie": 1195,
  "\u2581Car": 1196,
  "\u2581gebring": 1197,
  "\u2581siekte": 1198,
  "\u2581forme": 1199,
  "\u258115:": 1200,
  "\u25816.": 1201,
  "\u2581Afrika": 1202,
  "\u2581bid": 1203,
  "\u2581difficult\u00e9s": 1204,
  "\u2581sterf": 1205,
  "\u2581ondersoek": 1206,
  "\u2581soms": 1207,
  "ions": 1208,
  "\u2581spirituelle": 1209,
  "\u2581Mo\u00efse": 1210,
  "ou": 1211,
  "\u2581oorlog": 1212,
  "\u2581heeltemal": 1213,
  "\u2581Corinthiens": 1214,
  "\u2022": 1215,
  "\u25819:": 1216,
  "\u2581Plus": 1217,
  "\u2581oud": 1218,
  "\u2581bou": 1219,
  "\u258115.": 1220,
  "\u2581telle": 1221,
  "\u2581V": 1222,
  "T": 1223,
  "\u2581hemelse": 1224,
  "\u2581daaraan": 1225,
  "\u2581lief": 1226,
  "\u2581Trouens": 1227,
  "\u2581gebed": 1228,
  "\u2581beskerm": 1229,
  "\u2581morts": 1230,
  "\u2581Cr\u00e9ateur": 1231,
  "\u2581tes": 1232,
  "\u2581chacun": 1233,
  "\u2581\u2022": 1234,
  "\u2581Luc": 1235,
  "\u2581saak": 1236,
  "\u258128": 1237,
  "\u2581R\u00e9v\u00e9lation": 1238,
  "\u2581plan": 1239,
  "\u2581droit": 1240,
  "ation": 1241,
  "el": 1242,
  "\u2581seule": 1243,
  "R": 1244,
  "\u2581venir": 1245,
  "\u2581bevat": 1246,
  "\u2581Skrif": 1247,
  "\u2581Dan": 1248,
  "\u00e8rent": 1249,
  "\u2581DIE": 1250,
  "\u2581bonheur": 1251,
  "\u2581nuit": 1252,
  "\u2581fid\u00e8le": 1253,
  "\u2581Laat": 1254,
  "\u2581fille": 1255,
  "\u2581asof": 1256,
  "\u2581loin": 1257,
  "\u0153uvre": 1258,
  "\u2581gegaan": 1259,
  "\u2581pouvait": 1260,
  "\u2581elkeen": 1261,
  "\u2581nourriture": 1262,
  "\u2581Daarom": 1263,
  "\u2581Aangesien": 1264,
  "\u00c9glise": 1265,
  "\u2581Israeliete": 1266,
  "\u2581Skepper": 1267,
  "ig": 1268,
  "\u258131": 1269,
  "Je": 1270,
  "\u2581veut": 1271,
  "\u2581verslag": 1272,
  "\u2581wet": 1273,
  "\u2581belangrike": 1274,
  "\u2581parle": 1275,
  "\u2581but": 1276,
  "\u2581mer": 1277,
  "\u2581nader": 1278,
  "\u2581gedrag": 1279,
  "na": 1280,
  "\u2581binne": 1281,
  "\u2581uns": 1282,
  "\u2581lumi\u00e8re": 1283,
  "\u2581vernietig": 1284,
  "\u2581diere": 1285,
  "erwyl": 1286,
  "\u2581conseils": 1287,
  "\u2581faveur": 1288,
  "\u2581Avec": 1289,
  "\u2581preuve": 1290,
  "I": 1291,
  "\u2581ann\u00e9e": 1292,
  "\u2581wonderlike": 1293,
  "\u2581graag": 1294,
  "\u2581d\u00fb": 1295,
  "\u2581werklikheid": 1296,
  "\u2581heures": 1297,
  "ver": 1298,
  "\u2581pad": 1299,
  "\u2581minder": 1300,
  "\u2581c\u00f4t\u00e9": 1301,
  "\u2581uur": 1302,
  "\u2581Vir": 1303,
  "\u2581t\u00eate": 1304,
  "\u00e9s": 1305,
  "ce": 1306,
  "\u2581Kom": 1307,
  "om": 1308,
  "\u2581re\u00e7u": 1309,
  "\u2581\u00e8re": 1310,
  "\u2581pr\u00eacher": 1311,
  "\u2581ait": 1312,
  "\u2581kerk": 1313,
  "\u2581probl\u00e8mes": 1314,
  "\u2581maande": 1315,
  "\u2581stelsel": 1316,
  "\u2581ooit": 1317,
  "\u2581slegs": 1318,
  "\u2581conseil": 1319,
  "\u2581taal": 1320,
  "\u2581Sal": 1321,
  "\u2581gesterf": 1322,
  "\u2581vient": 1323,
  "\u2581\"?": 1324,
  "\u2581and": 1325,
  "\u2581soveel": 1326,
  "\u2581Samuel": 1327,
  "\u25819,": 1328,
  "\u2581royaume": 1329,
  "H": 1330,
  "\u2581gedoop": 1331,
  "\u2581v": 1332,
  "\u2581vertrou": 1333,
  "@": 1334,
  "\u2581Timoth\u00e9e": 1335,
  "\u2581volle": 1336,
  "exemple": 1337,
  "\u258126": 1338,
  "\u2581semble": 1339,
  "\u2581cinq": 1340,
  "Les": 1341,
  "\u2581ai": 1342,
  "\u2581NW": 1343,
  "\u2581conscience": 1344,
  "\u2581doel": 1345,
  "\u2581conduite": 1346,
  "\u2581Lukas": 1347,
  "v": 1348,
  "\u2581gedagte": 1349,
  "\u2581versterk": 1350,
  "\u2581sake": 1351,
  "\u2581waarvan": 1352,
  "\u2581DE": 1353,
  "\u2581aurait": 1354,
  "\u2581geraak": 1355,
  "\u2581gevaar": 1356,
  "\u2581aucune": 1357,
  "\u2581leiding": 1358,
  "\u2581davantage": 1359,
  "\u2581demande": 1360,
  "\u2581gelede": 1361,
  "\u2581article": 1362,
  "\u2581sentiments": 1363,
  "\u2581Want": 1364,
  "\u2581efforts": 1365,
  "\u25815,": 1366,
  "\u2581permet": 1367,
  "\u2581verwys": 1368,
  "\u2581vermy": 1369,
  "\u2581loop": 1370,
  "\u2581devrait": 1371,
  "\u2581spirituel": 1372,
  "\u2581wys": 1373,
  "\u2581Net": 1374,
  "\u2581face": 1375,
  "\u2581Son": 1376,
  "\u2581algemeen": 1377,
  "\u2581compris": 1378,
  "\u2581difficile": 1379,
  "\u2581kos": 1380,
  "\u2581long": 1381,
  "\u2581sluit": 1382,
  "\u2581gesindheid": 1383,
  "\u2581100": 1384,
  "\u2581autant": 1385,
  "\u2581premiers": 1386,
  "\u2581gesondheid": 1387,
  "\u2581voedsel": 1388,
  "\u2581behandel": 1389,
  "\u2581vyf": 1390,
  "\u2581gelees": 1391,
  "\u2581passer": 1392,
  "\u2581liefdevolle": 1393,
  "\u2581plaaslike": 1394,
  "humanit\u00e9": 1395,
  "\u2581\u00e9tude": 1396,
  "\u2581Est": 1397,
  "\u2581visite": 1398,
  "\u2581vervul": 1399,
  "\u2581Oui": 1400,
  "\u2581alleen": 1401,
  "\u2581groep": 1402,
  "\u2581milieu": 1403,
  "\u2581seuns": 1404,
  "\u2581environ": 1405,
  "\u2581miskien": 1406,
  "\u2581trouv\u00e9": 1407,
  "\u2581\u00e9ternelle": 1408,
  "\u2581outre": 1409,
  "\u2581verder": 1410,
  "\u2581eienskappe": 1411,
  "\u2581gevoelens": 1412,
  "\u2581gehoorsaam": 1413,
  "\u2581beheer": 1414,
  "\u2581siel": 1415,
  "man": 1416,
  "\u2581divine": 1417,
  "\u2581besoins": 1418,
  "mi": 1419,
  "\u2581geskiedenis": 1420,
  "\u00e9tude": 1421,
  "\u2581propre": 1422,
  "\u2581kilom\u00e8tres": 1423,
  "\u2581Katolieke": 1424,
  "\u25816,": 1425,
  "\u2581tempel": 1426,
  "\u2581c\u00e9leste": 1427,
  "\u2581temple": 1428,
  "particuli\u00e8rement": 1429,
  "\u2581religieux": 1430,
  "\u2581ag": 1431,
  "\u2581koninkryk": 1432,
  "\u2581partir": 1433,
  "\u2581voorspel": 1434,
  "\u2581Rome": 1435,
  "\u2581d\u00e9sir": 1436,
  "\u2581probl\u00e8me": 1437,
  "\u2581Selfs": 1438,
  "\u2581beveel": 1439,
  "\u2581Non": 1440,
  "\u2581Romeine": 1441,
  "\u2581voie": 1442,
  "\u2581groupe": 1443,
  "\u2581ensuite": 1444,
  "\u2581Or": 1445,
  "\u2581veel": 1446,
  "\u2581\u00e9tant": 1447,
  "\u2581haut": 1448,
  "\u2581v\u00e9ritable": 1449,
  "\u2581maniere": 1450,
  "abord": 1451,
  "edurende": 1452,
  "\u2581dis": 1453,
  "be": 1454,
  "\u2581hande": 1455,
  "\u2581getrou": 1456,
  "\u2581Celui": 1457,
  "\u2581dix": 1458,
  "\u2581moeder": 1459,
  "\u25812,": 1460,
  "\u2581suivre": 1461,
  "\u2581Tour": 1462,
  "\u2581pratique": 1463,
  "\u2581cieux": 1464,
  "ter": 1465,
  "\u2581vraag": 1466,
  "\u2581nation": 1467,
  "\u2581ernstige": 1468,
  "\u2581gelei": 1469,
  "op": 1470,
  "\u2581devait": 1471,
  "\u2581s\u0153urs": 1472,
  "\u2581rendu": 1473,
  "\u2581montrer": 1474,
  "\u2581kilometer": 1475,
  "\u2581passe": 1476,
  "\u2581sorte": 1477,
  "\u2581Romains": 1478,
  "\u2581openbaar": 1479,
  "\u2581plaas": 1480,
  "\u2581vroe\u00eb": 1481,
  "\u2581ewig": 1482,
  "\u2581ici": 1483,
  "\u2581Pourtant": 1484,
  "\u2581spesiale": 1485,
  "angl": 1486,
  "\u25814,": 1487,
  "\u258118.": 1488,
  "\u2581mauvais": 1489,
  "\u2581entendu": 1490,
  "\u2581aantal": 1491,
  "\u2581col\u00e8re": 1492,
  "\u2581verskyn": 1493,
  "\u2581t\u00e9moignage": 1494,
  "\u2581montr\u00e9": 1495,
  "\u2581terme": 1496,
  "\u2581penser": 1497,
  "\u2581peur": 1498,
  "\u2581r\u00e9ponse": 1499,
  "\u2581stem": 1500,
  "\u2581gekry": 1501,
  "\u2581Illustrations": 1502,
  "\u2581longtemps": 1503,
  "\u2581betrokke": 1504,
  "\u2581aura": 1505,
  "\u2581termes": 1506,
  "\u2581ontstaan": 1507,
  "\u2581spreek": 1508,
  "\u2581uitwerking": 1509,
  "\u2581bont\u00e9": 1510,
  "\u2581voorneme": 1511,
  "\u2581Ontwaak": 1512,
  "\u2581blykbaar": 1513,
  "\u2581humaine": 1514,
  "U": 1515,
  "ma": 1516,
  "\u2581gebou": 1517,
  "\u2581mots": 1518,
  "\u2581presque": 1519,
  "\u2581nasie": 1520,
  "\u258118:": 1521,
  "\u2581\u0153uvre": 1522,
  "\u2581begeerte": 1523,
  "\u2581sorg": 1524,
  "\u2581sin": 1525,
  "Notre": 1526,
  "\u2581Kyk": 1527,
  "\u2581ter": 1528,
  "\u2581compagnons": 1529,
  "\u2581tydens": 1530,
  "\u2581produit": 1531,
  "\u2581lequel": 1532,
  "\u2581ongetwyfeld": 1533,
  "\u2581enigste": 1534,
  "\u2581diep": 1535,
  "\u2581se\u00ebn": 1536,
  "2": 1537,
  "\u2581Lorsque": 1538,
  "\u2581milliers": 1539,
  "\u2581rol": 1540,
  "\u00e9e": 1541,
  "ci": 1542,
  "\u2581raisons": 1543,
  "\u2581Isra\u00ebl": 1544,
  "\u2581ontwikkel": 1545,
  "\u2581wag": 1546,
  "\u2581organisasie": 1547,
  "\u2581Mon": 1548,
  "ers": 1549,
  "\u2581verkeerd": 1550,
  "\u2581slegte": 1551,
  "\u00e9taient": 1552,
  "\u2581coup": 1553,
  "\u2581proph\u00e8te": 1554,
  "\u2581dade": 1555,
  "\u2581Handelinge": 1556,
  "\u2581waarde": 1557,
  "N": 1558,
  "\u2581celles": 1559,
  "\u2581dessus": 1560,
  "\u2581Actes": 1561,
  "\u2581besig": 1562,
  "\u2581s\u00e9curit\u00e9": 1563,
  "\u2581contraire": 1564,
  "\u2581trek": 1565,
  "\u2581r\u00e9gion": 1566,
  "\u2581vas": 1567,
  "\u2581voorkom": 1568,
  "\u2581Daniel": 1569,
  "....": 1570,
  "\u2581profeet": 1571,
  "\u2581feu": 1572,
  "\u2581oordeel": 1573,
  "\u2581Griekse": 1574,
  "\u2581W": 1575,
  "\u2581ayant": 1576,
  "\u2581laisser": 1577,
  "\u2581\u00e9tat": 1578,
  "\u2581demander": 1579,
  "\u2581eer": 1580,
  "\u2581tweede": 1581,
  "\u2581faisant": 1582,
  "\u2581parl\u00e9": 1583,
  "\u2581r\u00e9cit": 1584,
  "\u2581see": 1585,
  "\u2581niemand": 1586,
  "\u25818,": 1587,
  "\u2581gou": 1588,
  "ro": 1589,
  "\u2581gebore": 1590,
  "\u2581predikingswerk": 1591,
  "\u2581?": 1592,
  "\u2581p\u00e9riode": 1593,
  "\u2581faites": 1594,
  "\u2581miljoen": 1595,
  "\u2581grands": 1596,
  "\u2581kwaad": 1597,
  "\u2581r\u00f4le": 1598,
  "\u2581Garde": 1599,
  "\u2581Venster": 1600,
  "\u2581voix": 1601,
  "\u2581sentiment": 1602,
  "\u2581lede": 1603,
  "\u2581puissance": 1604,
  "aux": 1605,
  "like": 1606,
  "\u258119.": 1607,
  "\u2581oints": 1608,
  "\u2581valse": 1609,
  "\u2581aller": 1610,
  "\u2581mate": 1611,
  "\u2581durant": 1612,
  "vous": 1613,
  "\u2581devenu": 1614,
  "\u2581chef": 1615,
  "\u2581respect": 1616,
  "x": 1617,
  "\u2581suivant": 1618,
  "het": 1619,
  "1": 1620,
  "\u2581beeld": 1621,
  "\u2581faisait": 1622,
  "\u2581devrions": 1623,
  "\u258116:": 1624,
  "\u2581geluk": 1625,
  "\u2581herstel": 1626,
  "\u2581eertydse": 1627,
  "\u2581gereeld": 1628,
  "\u2581garde": 1629,
  "\u2581gebly": 1630,
  "\u2581verstand": 1631,
  "\u2581Tous": 1632,
  "\u2581ly": 1633,
  "\u2581mains": 1634,
  "der": 1635,
  "\u2581Beaucoup": 1636,
  "\u2581n\u00e9cessaire": 1637,
  "\u2581programme": 1638,
  "\u2581beoefen": 1639,
  "\u2581agter": 1640,
  "\u2581Leur": 1641,
  "\u2581Prente": 1642,
  "\u2581buite": 1643,
  "\u2581getuig": 1644,
  "\u2581apprendre": 1645,
  "\u2581cons\u00e9quent": 1646,
  "\u2581petite": 1647,
  "\u2581hedendaagse": 1648,
  "\u2581habitants": 1649,
  "\u258120:": 1650,
  "\u2581onderwerp": 1651,
  "\u2581Loi": 1652,
  "\u2581vroe\u00ebr": 1653,
  "\u2581Voici": 1654,
  "\u2581Salomo": 1655,
  "\u2581libert\u00e9": 1656,
  "\u2581gloire": 1657,
  "\u2581voort": 1658,
  "\u2581plaisir": 1659,
  "\u2581ensemble": 1660,
  "\u2581r\u00e9surrection": 1661,
  "La": 1662,
  "\u2581vermo\u00eb": 1663,
  "\u2581verskil": 1664,
  "\u2581discours": 1665,
  "\u258137": 1666,
  "\u2581nature": 1667,
  "\u2581peine": 1668,
  "\u2581existe": 1669,
  "\u2581500": 1670,
  "\u2581petits": 1671,
  "\u2581geskep": 1672,
  "\u2581kant": 1673,
  "\u2581o": 1674,
  "\u2581chr\u00e9tiennes": 1675,
  "\u258119:": 1676,
  "\u2581vis": 1677,
  "Il": 1678,
  "\u2581revue": 1679,
  "\u2581direction": 1680,
  "\u2581ondervinding": 1681,
  "\u2581simplement": 1682,
  "\u2581chair": 1683,
  "\u00e9cole": 1684,
  "\u2581asook": 1685,
  "\u2581Vandag": 1686,
  "\u2581risque": 1687,
  ":\"": 1688,
  "\u2581Peut": 1689,
  "\u2581cependant": 1690,
  "\u2581six": 1691,
  "\u258120.": 1692,
  "\u25817,": 1693,
  "\u2581totdat": 1694,
  "\u2581Dink": 1695,
  "\u2581an": 1696,
  "\u2581susters": 1697,
  "\u2581violence": 1698,
  "\u2581facile": 1699,
  "\u2581bonnes": 1700,
  "\u258121.": 1701,
  "\u2581lettre": 1702,
  "ke": 1703,
  "\u2581betref": 1704,
  "\u2581eenvoudig": 1705,
  "\u2581geestelik": 1706,
  "\u2581noem": 1707,
  "\u2581Aan": 1708,
  "\u258170": 1709,
  "\u2581aangaande": 1710,
  "\u2581omstandighede": 1711,
  "\u2581qualit\u00e9s": 1712,
  "\u2581geregtigheid": 1713,
  "\u2581ondersteun": 1714,
  "\u2581val": 1715,
  "\u2581groei": 1716,
  "ul": 1717,
  "\u2581Joodse": 1718,
  "we": 1719,
  "des": 1720,
  "\u2581surtout": 1721,
  "\u2581soleil": 1722,
  "\u2581homself": 1723,
  "\u2581recevoir": 1724,
  "\u2581stryd": 1725,
  "\u2581ondervind": 1726,
  "agit": 1727,
  "\u2581bladsye": 1728,
  "\u2581volgelinge": 1729,
  "\u2581speel": 1730,
  "\u2581Salomon": 1731,
  "\u2581byna": 1732,
  "Comment": 1733,
  "\u2581ryk": 1734,
  "\u2581Of": 1735,
  "\u2581Encadr\u00e9": 1736,
  "\u2581N\u00e1": 1737,
  "\u2581bienfaits": 1738,
  "\u2581gelyk": 1739,
  "\u2581qualit\u00e9": 1740,
  "et": 1741,
  "Dit": 1742,
  "\u2581simple": 1743,
  "\u2581meter": 1744,
  "\u2581familie": 1745,
  "\u2581Wet": 1746,
  "\u2581foule": 1747,
  "\u2581r\u00e9alit\u00e9": 1748,
  "\u2581plekke": 1749,
  "\u2581goddelose": 1750,
  "\u2581vereis": 1751,
  "im": 1752,
  "\u25aa": 1753,
  "\u2581sowat": 1754,
  "\u2581\u00e9tudier": 1755,
  "\u2581\u25aa": 1756,
  "\u2581tels": 1757,
  "\u2581bloot": 1758,
  "\u2581\u00e7a": 1759,
  "\u2581voer": 1760,
  "\u2581werke": 1761,
  "\u2581choix": 1762,
  "ann\u00e9e": 1763,
  "\u258135": 1764,
  "\u2581entier": 1765,
  "\u2581Voir": 1766,
  "\u2581pri\u00e8res": 1767,
  "\u2581dossier": 1768,
  "\u2581Koning": 1769,
  "\u258160": 1770,
  "\u2581dernier": 1771,
  "\u2581Genesis": 1772,
  "\u2581garder": 1773,
  "\u2581lug": 1774,
  "\u2581mode": 1775,
  "\u2581tien": 1776,
  "\u2581sol": 1777,
  "\u2581John": 1778,
  "\u2581bevorder": 1779,
  "\u2581eenheid": 1780,
  "\u2581dessein": 1781,
  "\u2581trou": 1782,
  "\u2581vriend": 1783,
  "\u258110,": 1784,
  "\u2581Maria": 1785,
  "\u2581slaap": 1786,
  "\u2581publications": 1787,
  "\u2581Joseph": 1788,
  "\u2581attention": 1789,
  "\u2581lang": 1790,
  "\u2581gelukkig": 1791,
  "\u2581sacrifice": 1792,
  "\u2581EN": 1793,
  "\u2581Mal": 1794,
  "\u258116,": 1795,
  "\u2581sept": 1796,
  "\u2581verseker": 1797,
  "\u2581Pendant": 1798,
  "\u2581week": 1799,
  "\u2581apostels": 1800,
  "\u258114,": 1801,
  "\u2581train": 1802,
  "\u2581Note": 1803,
  "lik": 1804,
  "\u2581Nee": 1805,
  "\u2581brebis": 1806,
  "\u2581sait": 1807,
  "\u2581texte": 1808,
  "\u2581chercher": 1809,
  "\u2581Sien": 1810,
  "tu": 1811,
  "\u2581Elles": 1812,
  "r\u00e9": 1813,
  "\u2581ailleurs": 1814,
  "\u258111,": 1815,
  "\u2581gevolge": 1816,
  "\u2581humain": 1817,
  "\u2581ap\u00f4tres": 1818,
  "\u2581Cet": 1819,
  "\u2581pens\u00e9es": 1820,
  "\u2581Hebre\u00ebrs": 1821,
  "\u2581minste": 1822,
  "\u2581r\u00e9guli\u00e8rement": 1823,
  "Le": 1824,
  "\u2581aanbid": 1825,
  "\u2581\"%": 1826,
  "\u2581verskeie": 1827,
  "\u2581cr\u00e9ation": 1828,
  "\u2581nag": 1829,
  "ir": 1830,
  "\u2581verlede": 1831,
  "\u2581Dani\u00ebl": 1832,
  "\u2581By": 1833,
  "\u2581Mense": 1834,
  "\u2581stuur": 1835,
  "\u2581skape": 1836,
  "\u2581vinnig": 1837,
  "ag": 1838,
  "\u2581betaal": 1839,
  "\u2581invloed": 1840,
  "\u2581Jacques": 1841,
  "ch": 1842,
  "\u2581gedagtes": 1843,
  "\u2581si\u00e8cles": 1844,
  "\u2581soi": 1845,
  "\u2581Gen\u00e8se": 1846,
  ",\"": 1847,
  "\u2581artikels": 1848,
  "\u2581activit\u00e9s": 1849,
  "\u2581pyn": 1850,
  "\u2581Amerikaanse": 1851,
  "\u2581Timoteus": 1852,
  "\u2581Isi\u00e8cle": 1853,
  "\u2581Korinti\u00ebrs": 1854,
  "image": 1855,
  "\u2581perdu": 1856,
  "\u2581conditions": 1857,
  "\u2581versprei": 1858,
  "F": 1859,
  "\u2581ho\u00eb": 1860,
  "\u2581proph\u00e9tie": 1861,
  "\u2581wonder": 1862,
  "\u2581naissance": 1863,
  "\u2581quelles": 1864,
  "\u2581fichier": 1865,
  "\u2581geweld": 1866,
  "\u2581verwerp": 1867,
  "\u2581toegelaat": 1868,
  "\u2581berg": 1869,
  "\u2581suster": 1870,
  "\u2581Depuis": 1871,
  "\u2581H\u00e9breux": 1872,
  "\u2581geslag": 1873,
  "\u2581prix": 1874,
  "\u2581opstanding": 1875,
  "\u2581telles": 1876,
  "\u2581reis": 1877,
  "\u2581congr\u00e9gations": 1878,
  "\u2581Nou": 1879,
  "\u2581dele": 1880,
  "\u2581omgewing": 1881,
  "\u2581grandes": 1882,
  "\u2581miljoene": 1883,
  "\u2581d\u00e9cision": 1884,
  "histoire": 1885,
  "\u2581Nuwe": 1886,
  "\u2581g\u00e9n\u00e9ralement": 1887,
  "\u2581moderne": 1888,
  "\u2581Ceux": 1889,
  "\u2581permis": 1890,
  "\u2581position": 1891,
  "\u258122:": 1892,
  "\u2581Sur": 1893,
  "\u258115,": 1894,
  "\u2581heel": 1895,
  "\u2581allait": 1896,
  "\u2581laiss\u00e9": 1897,
  "\u2581proche": 1898,
  "\u2581tenir": 1899,
  "\u2581toestand": 1900,
  "\u2581France": 1901,
  "\u2581waardeer": 1902,
  "\u2581probablement": 1903,
  "\u2581vergelyk": 1904,
  "\u2581bestudeer": 1905,
  "\u2581haat": 1906,
  "\u2581soutien": 1907,
  "\u2581p": 1908,
  "\u2581crainte": 1909,
  "\u2581recherche": 1910,
  "\u2581beskikbaar": 1911,
  "\u2581s\u0153ur": 1912,
  "\u2581villes": 1913,
  "\u2581pogings": 1914,
  "\u2581eens": 1915,
  "\u2581Moenie": 1916,
  "\u2581regering": 1917,
  "\u2581waardering": 1918,
  "\u2581ancien": 1919,
  "\u2581bietjie": 1920,
  "\u2581gouvernement": 1921,
  "\u2581engele": 1922,
  "\u2581oorspronklike": 1923,
  "optional": 1924,
  "\u2581Ge": 1925,
  "\u2581rend": 1926,
  "\u2581toelaat": 1927,
  "\u2581sein": 1928,
  "\u2581Diable": 1929,
  "\u2581Getuie": 1930,
  "\u2581Re": 1931,
  "ry": 1932,
  "\u2581baat": 1933,
  "\u2581regverdige": 1934,
  "\u2581f": 1935,
  "\u2581gemeentes": 1936,
  "\u2581faits": 1937,
  "\u2581kies": 1938,
  "\u2581oog": 1939,
  "\u2581\u0153uvres": 1940,
  "\u258112,": 1941,
  "\u2581Voor": 1942,
  "\u2581USA": 1943,
  "\u2581bout": 1944,
  "\u2581verduur": 1945,
  "\u258133": 1946,
  "\u2581liste": 1947,
  "\u2581langues": 1948,
  "avenir": 1949,
  "\u2581animaux": 1950,
  "\u2581sewe": 1951,
  "\u2581jugement": 1952,
  "os": 1953,
  "\u2581pragtige": 1954,
  "\u2581gebede": 1955,
  "\u2581vryheid": 1956,
  "\u2581koerant": 1957,
  "\u258129": 1958,
  "\u2581Isa\u00efe": 1959,
  "\u2581behoeftes": 1960,
  "iese": 1961,
  "\u2581gevalle": 1962,
  "\u2581pourtant": 1963,
  "\u2581Babylone": 1964,
  "\u2581Times": 1965,
  "\u2581re": 1966,
  "\u2581r\u00e9pondu": 1967,
  "\u2581continuer": 1968,
  "\u2581oui": 1969,
  "ak": 1970,
  "\u2581voltydse": 1971,
  "\u2581croire": 1972,
  "\u2581promesse": 1973,
  "\u2581bewaar": 1974,
  "\u2581hul": 1975,
  "\u2581200": 1976,
  "Ons": 1977,
  "\u2581Parce": 1978,
  "\u2581Nie": 1979,
  "\u2581m\u00e8tres": 1980,
  "\u2581eeue": 1981,
  "aider": 1982,
  "\u2581pr\u00e9sence": 1983,
  "\u2581Jakobus": 1984,
  "\u2581LA": 1985,
  "\u2581derniers": 1986,
  "\u2581Cr\u00e9dit": 1987,
  "\u2581Daarbenewens": 1988,
  "\u2581livres": 1989,
  "\u2581soci\u00e9t\u00e9": 1990,
  "\u2581hoewel": 1991,
  "\u2581voorreg": 1992,
  "\u2581expliqu\u00e9": 1993,
  "\u2581Duiwel": 1994,
  "\u2581envoy\u00e9": 1995,
  "\u2581vorige": 1996,
  "\u2581Europa": 1997,
  "\u2581ami": 1998,
  "\u2581baptiser": 1999,
  "\u2581persone": 2000,
  "\u2581obtenir": 2001,
  "\u2581Voetnoot": 2002,
  "\u2581daarom": 2003,
  "\u2581rapidement": 2004,
  "\u2581devraient": 2005,
  "\u2581Gevolglik": 2006,
  "\u2581mise": 2007,
  "\u2581Ses": 2008,
  "enseignement": 2009,
  "\u2581bas": 2010,
  "\u2581wandel": 2011,
  "\u2581Impossible": 2012,
  "\u2581\u00e2me": 2013,
  "\u2581brief": 2014,
  "esp\u00e9rance": 2015,
  "\u2581spirituels": 2016,
  "pe": 2017,
  "\u2581nouvelles": 2018,
  "\u2581articles": 2019,
  "\u2581appel\u00e9": 2020,
  "\u2581betoon": 2021,
  "\u2581R\u00e9veillez": 2022,
  "K": 2023,
  "\u2581gesag": 2024,
  "\u2581Nog": 2025,
  "\u2581gerus": 2026,
  "\u2581beweer": 2027,
  "\u2581disant": 2028,
  "\u2581musiek": 2029,
  "\u2581aupr\u00e8s": 2030,
  "\u2581lois": 2031,
  "4": 2032,
  "w": 2033,
  "\u2581certain": 2034,
  "\u2581e": 2035,
  "\u2581disent": 2036,
  "ailleurs": 2037,
  "\u2581vergeet": 2038,
  "to": 2039,
  "\u2581es": 2040,
  "\u2581lecture": 2041,
  "id\u00e9e": 2042,
  "\u2581chefs": 2043,
  "\u2581prys": 2044,
  "\u2581manque": 2045,
  "\u2581profesie": 2046,
  "\u2581klere": 2047,
  "\u2581Moet": 2048,
  "\u2581venu": 2049,
  "\u2581\u25cf": 2050,
  "\u258123.": 2051,
  "\u2581\u00e9v\u00e9nements": 2052,
  "\u2581arriv\u00e9": 2053,
  "\u2581chemin": 2054,
  "\u2581matin": 2055,
  "\u2581fisiese": 2056,
  "\u2581Matthe\u00fcs": 2057,
  "me": 2058,
  "\u2581huise": 2059,
  "\u2581prier": 2060,
  "\u2581d\u00e9cid\u00e9": 2061,
  "\u2581g\u00e9n\u00e9ral": 2062,
  "\u2581fruit": 2063,
  "\u2581semaine": 2064,
  "\u2581sage": 2065,
  "\u258122.": 2066,
  "\u2581Soci\u00e9t\u00e9": 2067,
  "\u2581belofte": 2068,
  "\u2581vergadering": 2069,
  "\u2581Ou": 2070,
  "\u2581Y": 2071,
  "3": 2072,
  "\u2581vlees": 2073,
  "\u2581skep": 2074,
  "\u2581liefhet": 2075,
  "\u2581connu": 2076,
  "\u2581tale": 2077,
  "\u2581\u00a9": 2078,
  "\u2581Teen": 2079,
  "\u2581verbeter": 2080,
  "\u2581Bybelstudie": 2081,
  "\u2581belangstelling": 2082,
  "\u2581fort": 2083,
  "\u2581p\u00e9ch\u00e9s": 2084,
  "\u2581spirituelles": 2085,
  "\u2581volmaakte": 2086,
  "iez": 2087,
  "\u00e2ge": 2088,
  "\u2581bang": 2089,
  "son": 2090,
  "\u2581ajoute": 2091,
  "\u2581vuur": 2092,
  "\u2581Suid": 2093,
  "ordre": 2094,
  "\u2581hulleself": 2095,
  "\u2581gedien": 2096,
  "\u2581gewerk": 2097,
  "\u2581manger": 2098,
  "\u2581siek": 2099,
  "\u2581ouderdom": 2100,
  "\u2581veranderinge": 2101,
  "\u2581professeur": 2102,
  "\u2581Waar": 2103,
  "\u2581albei": 2104,
  "\u2581ouere": 2105,
  "\u2581Marie": 2106,
  "\u2581r\u00e9ellement": 2107,
  "\u2581Hebreeuse": 2108,
  "\u2581heen": 2109,
  "\u2581huidige": 2110,
  "\u2581\u00e9tudes": 2111,
  "\u2581boeke": 2112,
  "\u2581autour": 2113,
  "\u2581route": 2114,
  "\u2581respek": 2115,
  "\u2581Canada": 2116,
  "\u2581arrive": 2117,
  "\u2581goedhartigheid": 2118,
  "\u2581Foto": 2119,
  "\u2581accept\u00e9": 2120,
  "\u2581r\u00e9": 2121,
  "\u2581catholique": 2122,
  "\u2581gebiede": 2123,
  "\u258132": 2124,
  "\u2581vergewe": 2125,
  "\u2581salut": 2126,
  "voir": 2127,
  "\u2581fid\u00e9lit\u00e9": 2128,
  "\u2581Se": 2129,
  "\u2581Voil\u00e0": 2130,
  ".)": 2131,
  "\u2581politieke": 2132,
  "\u2581g": 2133,
  "\u2581anges": 2134,
  "\u2581IN": 2135,
  "\u2581maladies": 2136,
  "\u2581soortgelyke": 2137,
  "age": 2138,
  "air": 2139,
  "\u2581drink": 2140,
  "\u2581titre": 2141,
  "do": 2142,
  "\u258113,": 2143,
  "\u2581bron": 2144,
  "\u2581Kerk": 2145,
  "lo": 2146,
  "\u2581%1": 2147,
  "\u2581heerlikheid": 2148,
  "\u2581sondes": 2149,
  "\u2581voit": 2150,
  "werk": 2151,
  "\u258134": 2152,
  "\u2581Egipte": 2153,
  "\u2581gemeenskap": 2154,
  "\u2581notamment": 2155,
  "\u2581nouveaux": 2156,
  "\u2581aand": 2157,
  "\u2581Lees": 2158,
  "enfant": 2159,
  "\u2581mediese": 2160,
  "\u2581Jeremia": 2161,
  "\u2581devaient": 2162,
  "\u2581Erkenning": 2163,
  "\u2581gesalfde": 2164,
  "\u2581ooreenstemming": 2165,
  "\u2581familles": 2166,
  "\u2581voorbeelde": 2167,
  "um": 2168,
  "\u2581pens\u00e9e": 2169,
  "\u2581belle": 2170,
  "\u2581retour": 2171,
  "\u2581openbare": 2172,
  "ar": 2173,
  "\u2581Josef": 2174,
  "\u2581destruction": 2175,
  "\u2581be\u00efnvloed": 2176,
  "\u2581nord": 2177,
  "\u2581oop": 2178,
  "\u2581gesit": 2179,
  "end": 2180,
  "\u2581classe": 2181,
  "\u2581physique": 2182,
  "\u2581pratiques": 2183,
  "gene": 2184,
  "\u2581daarvoor": 2185,
  "\u2581harte": 2186,
  "\u2581bons": 2187,
  "\u2581dogter": 2188,
  "\u2581teken": 2189,
  "ja": 2190,
  "\u2581studeer": 2191,
  "\u2581Ver": 2192,
  "\u2581lu": 2193,
  "\u2581se\u00ebninge": 2194,
  "avons": 2195,
  "\u2581Japan": 2196,
  "\u2581ontmoet": 2197,
  "\u2581moed": 2198,
  "\u2581victimes": 2199,
  "\u2581Noag": 2200,
  "\u2581kop": 2201,
  "\u2581mede": 2202,
  "\u2581moyens": 2203,
  "\u2581Pas": 2204,
  "As": 2205,
  "\u2581assez": 2206,
  "\u2581langs": 2207,
  "\u2581voulait": 2208,
  "\u2581chapitre": 2209,
  "\u2581waarlik": 2210,
  "\u2581r\u00e9pondre": 2211,
  "\u2581cons\u00e9quences": 2212,
  "\u2581num\u00e9ro": 2213,
  "\u2581activit\u00e9": 2214,
  "\u2581daaroor": 2215,
  "\u00e9es": 2216,
  "\u2581meilleur": 2217,
  "\u2581Duitsland": 2218,
  "\u2581Later": 2219,
  "\u2581bewus": 2220,
  "\u2581bereid": 2221,
  "6": 2222,
  "\u2581duisende": 2223,
  "\u2581verkoop": 2224,
  "V": 2225,
  "ia": 2226,
  "\u2581soin": 2227,
  "\u2581journal": 2228,
  "\u258123]": 2229,
  "\u2581derni\u00e8re": 2230,
  "\u2581filles": 2231,
  "\u2581sais": 2232,
  "\u2581vrugte": 2233,
  "\u2581concernant": 2234,
  "bare": 2235,
  "\u2581reageer": 2236,
  "\u2581tydperk": 2237,
  "\u2581missionnaires": 2238,
  "\u2581travailler": 2239,
  "\u2581@": 2240,
  "\u2581ernstig": 2241,
  "organisation": 2242,
  "\u2581peux": 2243,
  "aan": 2244,
  "\u2581pense": 2245,
  "importance": 2246,
  "\u2581mourir": 2247,
  "\u2581hard": 2248,
  "\u2581source": 2249,
  "\u2581posisie": 2250,
  "\u25817]": 2251,
  "\u2581bouche": 2252,
  "\u2581gebid": 2253,
  "\u2581importante": 2254,
  "avaient": 2255,
  "\u2581Romeinse": 2256,
  "\u2581bedoel": 2257,
  "\u2581forte": 2258,
  "\u2581hoofstuk": 2259,
  "\u2581lewens": 2260,
  "\u2581presies": 2261,
  "\u2581prend": 2262,
  "\u2581\u00e9preuves": 2263,
  "\u2581changer": 2264,
  "\u2581motor": 2265,
  "\u2581J\u00e9r\u00e9mie": 2266,
  "\u2581ding": 2267,
  "\u2581aangespoor": 2268,
  "\u2581behels": 2269,
  "\u2581bel": 2270,
  "\u2581stede": 2271,
  "\u2581propres": 2272,
  "ad": 2273,
  "\u2581couple": 2274,
  "\u2581courage": 2275,
  "\u2581raconte": 2276,
  "\u2581tour": 2277,
  "if": 2278,
  "\u2581Grande": 2279,
  "\u2581enseignements": 2280,
  "\u2581geboorte": 2281,
  "\u2581menslike": 2282,
  "qu": 2283,
  "\u2581Christendom": 2284,
  "\u2581lecteurs": 2285,
  "\u2581vision": 2286,
  "\u2581slaan": 2287,
  "\u2581bient\u00f4t": 2288,
  "\u2581Avant": 2289,
  "\u2581Geen": 2290,
  "--": 2291,
  "\u258124.": 2292,
  "\u2581gids": 2293,
  "\u2581fera": 2294,
  "\u2581mauvaise": 2295,
  "\u2581Babilon": 2296,
  "\u2581koop": 2297,
  "\u2581Eva": 2298,
  "\u2581getuienis": 2299,
  "\u2581redes": 2300,
  "\u2581Sulke": 2301,
  "\u2581teks": 2302,
  "\u2581verwyder": 2303,
  "\u2581sedert": 2304,
  "\u2581danger": 2305,
  "\u2581begrip": 2306,
  "\u2581r\u00e9union": 2307,
  "\u2581byeenkoms": 2308,
  "\u2581gewete": 2309,
  "\u2581glad": 2310,
  "\u2581verskaf": 2311,
  "\u2581grec": 2312,
  "\u2581inderdaad": 2313,
  "\u2581messages": 2314,
  "\u2581prot\u00e9ger": 2315,
  "\u2581tirer": 2316,
  "\u2581don": 2317,
  "\u2581gebrek": 2318,
  "\u2581musique": 2319,
  "\u2581vont": 2320,
  "\u2581armes": 2321,
  "Sien": 2322,
  "\u2581B\u00e9thel": 2323,
  "\u2581quant": 2324,
  "\u2581\u00c9": 2325,
  "\u2581Watch": 2326,
  "que": 2327,
  "\u00c9tat": 2328,
  "\u2581esp\u00e9rance": 2329,
  "\u2581Sans": 2330,
  "\u2581actions": 2331,
  "\u2581prochain": 2332,
  "\u2581bois": 2333,
  "\u2581beklemtoon": 2334,
  "\u2581derde": 2335,
  "\u2581exemples": 2336,
  "\u2581conjoint": 2337,
  "\u2581regverdigheid": 2338,
  "\u2581Sommige": 2339,
  "\u2581faux": 2340,
  "\u2581fit": 2341,
  "\u2581vite": 2342,
  "\u2581Tower": 2343,
  "Y": 2344,
  "\u2581erkenning": 2345,
  "\u2581Hou": 2346,
  "geag": 2347,
  "\u2581Maak": 2348,
  "\u258117]": 2349,
  "haque": 2350,
  "\u2581behou": 2351,
  "\u2581montrent": 2352,
  "\u2581gewone": 2353,
  "\u2581malade": 2354,
  "\u2581bepaal": 2355,
  "\u2581lyding": 2356,
  "\u2581politique": 2357,
  "\u2581prison": 2358,
  "\u2581fonction": 2359,
  "\u2581behandeling": 2360,
  "\u2581droite": 2361,
  "\u2581profit": 2362,
  "\u2581standaarde": 2363,
  "\u2581justes": 2364,
  "\u2581vyande": 2365,
  "\u2581porter": 2366,
  "di": 2367,
  "\u2581clairement": 2368,
  "\u2581onmiddellik": 2369,
  "\u2581noodsaaklik": 2370,
  "\u2581beginsels": 2371,
  "\u2581population": 2372,
  "\u2581mond": 2373,
  "\u2581vertaal": 2374,
  "\u2581siektes": 2375,
  "Christengemeente": 2376,
  "\u258117,": 2377,
  "\u2581bedrywighede": 2378,
  "\u2581Uit": 2379,
  "\u2581chr\u00e9tient\u00e9": 2380,
  "\u2581oortuig": 2381,
  "\u2581300": 2382,
  "\u2581Be": 2383,
  "\u2581heerskappy": 2384,
  "\u2581rykdom": 2385,
  "\u2581punt": 2386,
  "\u2581Sud": 2387,
  "\u2581Stel": 2388,
  "\u2581moeilike": 2389,
  "\u2581voltooi": 2390,
  "\u2581marcher": 2391,
  "\u2581meen": 2392,
  "\u00c9": 2393,
  "\u2581scientifiques": 2394,
  "\u2581vrais": 2395,
  "wat": 2396,
  "\u2581beantwoord": 2397,
  "\u2581fais": 2398,
  "\u2581No\u00e9": 2399,
  "\u2581be": 2400,
  "\u2581eiland": 2401,
  "\u2581Internet": 2402,
  "\u258124:": 2403,
  "\u2581voyage": 2404,
  "\u00e9r": 2405,
  "\u2581enigiets": 2406,
  "\u2581journ\u00e9e": 2407,
  "\u2581opsigte": 2408,
  "\u2581vaste": 2409,
  "\u2581jarige": 2410,
  "\u2581r\u00e9v\u00e8le": 2411,
  "\u2581vivent": 2412,
  "\u2581geopenbaar": 2413,
  "\u2581pionnier": 2414,
  "\u25811914": 2415,
  "\u2581moedig": 2416,
  "nie": 2417,
  "\u2581certainement": 2418,
  "\u2581croyances": 2419,
  "\u2581Elke": 2420,
  "\u2581wette": 2421,
  "\u2581hoef": 2422,
  "\u258180": 2423,
  "\u2581geantwoord": 2424,
  "\u2581voeg": 2425,
  "\u2581n\u00e9": 2426,
  "\u2581pr\u00e9sente": 2427,
  "\u2581veux": 2428,
  "\u2581red": 2429,
  "\u2581denke": 2430,
  "\u2581belowe": 2431,
  "\u2581Julle": 2432,
  "isme": 2433,
  "\u2581soir": 2434,
  "\u258145": 2435,
  "\u2581ennemis": 2436,
  "\u2581ja": 2437,
  "\u2581diff\u00e9rentes": 2438,
  "\u2581lewer": 2439,
  "\u2581Byvoorbeeld": 2440,
  "\u2581gepas": 2441,
  "\u2581program": 2442,
  "\u2581certaine": 2443,
  "\u2581renseignements": 2444,
  "\u2581voortdurend": 2445,
  "\u258119,": 2446,
  "\u2581public": 2447,
  "\u2581seraient": 2448,
  "\u2581gepaste": 2449,
  "\u2581Kon": 2450,
  "\u2581bapt\u00eame": 2451,
  "\u2581betekenis": 2452,
  "\u2581domaine": 2453,
  "impression": 2454,
  "\u2581ligne": 2455,
  "\u2581particulier": 2456,
  "\u258115]": 2457,
  "\u2581Onder": 2458,
  "\u2581\u00e9tions": 2459,
  "\u0153il": 2460,
  "\u2581Saul": 2461,
  "\u2581date": 2462,
  "\u2581m\u00e9decin": 2463,
  "\u2581photographique": 2464,
  "\u2581priesters": 2465,
  "\u2581grave": 2466,
  "\u2581pr\u00eatres": 2467,
  "\u2581domination": 2468,
  "\u2581travers": 2469,
  "\u2581k": 2470,
  "\u2581vasbeslote": 2471,
  "\u2581deuxi\u00e8me": 2472,
  "\u258114:": 2473,
  "\u2581gewees": 2474,
  "rait": 2475,
  "\u258117:": 2476,
  "\u2581Hier": 2477,
  "\u2581aardse": 2478,
  "\u2581ferme": 2479,
  "\u2581meilleure": 2480,
  "tandis": 2481,
  "\u2581furent": 2482,
  "\u2581binnekort": 2483,
  "Jehovah": 2484,
  "\u2581X": 2485,
  "\u2581Testament": 2486,
  "God": 2487,
  "\u2581Marc": 2488,
  "\u2581St": 2489,
  "\u2581voulu": 2490,
  "\u2581Salle": 2491,
  "\u2581besluite": 2492,
  "\u2581Gr\u00e2ce": 2493,
  "\u2581gevolglik": 2494,
  "ine": 2495,
  "\u2581voordeel": 2496,
  "\u2581personnalit\u00e9": 2497,
  "\u2581tellement": 2498,
  "\u2581venster": 2499,
  "art": 2500,
  "\u2581changements": 2501,
  "\u2581contact": 2502,
  "\u2581duur": 2503,
  "\u2581fichiers": 2504,
  "\u2581responsabilit\u00e9": 2505,
  "at": 2506,
  "\u2581boodskappe": 2507,
  "\u2581puisse": 2508,
  "\u2581Jou": 2509,
  "\u2581sud": 2510,
  "\u2581quels": 2511,
  "\u2581aimer": 2512,
  "\u2581paradis": 2513,
  "\u2581Wees": 2514,
  "\u2581hoeveel": 2515,
  "\u2581tans": 2516,
  "\u2581redding": 2517,
  "co": 2518,
  "land": 2519,
  "\u2581exacte": 2520,
  "\u2581verkeerde": 2521,
  "\u2581Wel": 2522,
  "\u2581pensent": 2523,
  "\u2581Kort": 2524,
  "\u2581derni\u00e8res": 2525,
  "\u2581konings": 2526,
  "ed": 2527,
  "\u2581entendre": 2528,
  "\u2581we\u00eb": 2529,
  "\u2581onkreukbaarheid": 2530,
  "\u2581optree": 2531,
  "\u2581gewoon": 2532,
  "\u2581Koninkryksaal": 2533,
  "\u2581maand": 2534,
  "\u2581montagne": 2535,
  "\u2581eweneens": 2536,
  "\u2581l\u00eaer": 2537,
  "\u2581herinner": 2538,
  "\u2581d\u00e9": 2539,
  "\u2581rapporte": 2540,
  "\u2581opregte": 2541,
  "\u2581belang": 2542,
  "\u2581dois": 2543,
  "\u2581gekies": 2544,
  "\u2581r\u00e9sultats": 2545,
  "\u2581laisse": 2546,
  "\u2581verset": 2547,
  "\u2581bevestig": 2548,
  "\u2581doop": 2549,
  "\u2581onderrig": 2550,
  "\u2581Name": 2551,
  "\u2581aanhou": 2552,
  "\u2581los": 2553,
  "\u2581jeu": 2554,
  "\u2581w\u00eareldwye": 2555,
  "\u2581trouvent": 2556,
  "\u2581vervulling": 2557,
  "ka": 2558,
  "th": 2559,
  "\u2581spoor": 2560,
  "\u2581Du": 2561,
  "\u2581contient": 2562,
  "\u2581vernietiging": 2563,
  "\u2581actes": 2564,
  "\u2581donn\u00e9es": 2565,
  "id": 2566,
  "\u2581skepping": 2567,
  "\u2581opdrag": 2568,
  "\u2581verrig": 2569,
  "\u2581pourraient": 2570,
  "\u2581vit": 2571,
  "\u2581swaar": 2572,
  "5": 2573,
  "\u2581hoog": 2574,
  "\u2581antwoorde": 2575,
  "ga": 2576,
  "\u2581(22": 2577,
  "\u2581vaut": 2578,
  "\u2581gesig": 2579,
  "\u2581membre": 2580,
  "\u2581dankbaar": 2581,
  "\u2581terrestre": 2582,
  "\u2581uitgegee": 2583,
  "ol": 2584,
  "\u2581materi\u00eble": 2585,
  "\u2581pos": 2586,
  "\u2581gebeure": 2587,
  "\u2581gesinne": 2588,
  "qui": 2589,
  "\u2581lesers": 2590,
  "\u2581opgewek": 2591,
  "\u2581t\u00e2che": 2592,
  "\u2581baba": 2593,
  "\u2581base": 2594,
  "\u2581Onthou": 2595,
  "\u2581\u25c6": 2596,
  "\u2581boom": 2597,
  "\u2581plante": 2598,
  "\u2581ontdek": 2599,
  "\u2581minute": 2600,
  "\u2581pionniers": 2601,
  "\u2581semaines": 2602,
  "\u2581formation": 2603,
  "\u2581pionier": 2604,
  "\u2581goddelike": 2605,
  "\u2581quantit\u00e9": 2606,
  "\u258190": 2607,
  "\u2581beau": 2608,
  "\u2581bygewoon": 2609,
  "\u2581veiligheid": 2610,
  "\u2581vin": 2611,
  "action": 2612,
  "go": 2613,
  "\u2581besit": 2614,
  "\u2581construction": 2615,
  "\u2581Daarna": 2616,
  "\u2581eeuse": 2617,
  "\u2581onlangs": 2618,
  "\u2581voordele": 2619,
  "\u2581d\u00e9couvert": 2620,
  "\u2581ondersteuning": 2621,
  "regoor": 2622,
  "\u2581Amerika": 2623,
  "uit": 2624,
  "\u2581aime": 2625,
  "\u2581annonc\u00e9": 2626,
  "\u2581Lorsqu": 2627,
  "\u2581derhalwe": 2628,
  "\u258126]": 2629,
  "\u2581produits": 2630,
  "\u2581verbond": 2631,
  "ton": 2632,
  "\u2581fallait": 2633,
  "\u2581verklaar": 2634,
  "\u2581v\u00eatements": 2635,
  "\u2581utiliser": 2636,
  "\u2581hoofsaaklik": 2637,
  "\u2581papier": 2638,
  "\u2581responsabilit\u00e9s": 2639,
  "\u2581skoon": 2640,
  "\u2581verdien": 2641,
  "\u2581protection": 2642,
  "\u2581pr\u00e9cieux": 2643,
  "assembl\u00e9e": 2644,
  "avez": 2645,
  "\u2581utile": 2646,
  "existence": 2647,
  "\u2581eaux": 2648,
  "\u2581gawe": 2649,
  "\u2581inwoners": 2650,
  "\u2581rois": 2651,
  "\u2581daartoe": 2652,
  "\u2581diff\u00e9rents": 2653,
  "\u2581verbaas": 2654,
  "\u2581Peu": 2655,
  "\u2581World": 2656,
  "\u2581facilement": 2657,
  "\u2581verdrukking": 2658,
  "\u2581uitdaging": 2659,
  "RE": 2660,
  "\u258118,": 2661,
  "\u2581centaines": 2662,
  "\u2581chang\u00e9": 2663,
  "occasion": 2664,
  "\u2581sedelike": 2665,
  "\u2581suivi": 2666,
  "\u2581vertaling": 2667,
  "\u2581viennent": 2668,
  "Si": 2669,
  "\u2581Kies": 2670,
  "\u2581uiters": 2671,
  "\u2581r\u00e9pond": 2672,
  "\u2581utilis\u00e9": 2673,
  "\u2581participer": 2674,
  "\u2581Groot": 2675,
  "heure": 2676,
  "\u2581Roi": 2677,
  "\u2581hemele": 2678,
  "ann\u00e9es": 2679,
  "\u2581biens": 2680,
  "hede": 2681,
  "\u2581int\u00e9r\u00eat": 2682,
  "\u2581aangebied": 2683,
  "\u2581weke": 2684,
  "\u2581klas": 2685,
  "\u2581sukses": 2686,
  "\u2581m\u00e9chant": 2687,
  "\u2581consid\u00e9rer": 2688,
  "\u2581sortir": 2689,
  "\u2581proph\u00e9ties": 2690,
  "\u2581rook": 2691,
  "ns": 2692,
  "\u2581behaag": 2693,
  "\u2581fond": 2694,
  "o\u00f9": 2695,
  "st": 2696,
  "\u2581Guerre": 2697,
  "\u2581Naam": 2698,
  "\u2581comportement": 2699,
  "\u2581tree": 2700,
  "able": 2701,
  "\u2581Dis": 2702,
  "\u2581onlangse": 2703,
  "\u2581regverdig": 2704,
  "ph": 2705,
  "\u2581aid\u00e9": 2706,
  "\u2581soorte": 2707,
  "\u2581fout": 2708,
  "\u2581religions": 2709,
  "\u2581N\u00e9anmoins": 2710,
  "\u2581gebruike": 2711,
  "je": 2712,
  "\u2581ho\u00ebr": 2713,
  "\u2581psalmis": 2714,
  "\u2581douleur": 2715,
  "\u2581nietemin": 2716,
  "ri": 2717,
  "\u2581promis": 2718,
  "\u2581teruggekeer": 2719,
  "\u258125.": 2720,
  "\u2581taille": 2721,
  "\u2581W\u00eareldoorlog": 2722,
  "expression": 2723,
  "\u258125]": 2724,
  "\u2581gered": 2725,
  "\u2581plan\u00e8te": 2726,
  "\u2581d\u00e9cisions": 2727,
  "\u2581signe": 2728,
  "En": 2729,
  "mo": 2730,
  "\u258120,": 2731,
  "\u2581gereed": 2732,
  "\u2581vivant": 2733,
  "\u2581ontwerp": 2734,
  "\u2581voies": 2735,
  "\u2581serviteur": 2736,
  "\u2581daarmee": 2737,
  "em": 2738,
  "\u2581Society": 2739,
  "\u2581privil\u00e8ge": 2740,
  "\u2581unique": 2741,
  "\u2581gel\u00ea": 2742,
  "\u2581spesifieke": 2743,
  "Lees": 2744,
  "\u2581Australi\u00eb": 2745,
  "\u2581christianisme": 2746,
  "\u2581m\u00e9decins": 2747,
  "\u2581voire": 2748,
  "\u2581voiture": 2749,
  "\u2581discipline": 2750,
  "\u2581condition": 2751,
  "\u2581influence": 2752,
  "\u2581moeite": 2753,
  "\u2581II": 2754,
  "\u2581natuurlike": 2755,
  "\u2581centre": 2756,
  "\u2581rus": 2757,
  "\u2581swak": 2758,
  "\u2581toespraak": 2759,
  "am": 2760,
  "\u2581dokter": 2761,
  "\u2581verteenwoordig": 2762,
  "\u2581Efesi\u00ebrs": 2763,
  "\u2581seuls": 2764,
  "\u2581Tog": 2765,
  "\u2581beperk": 2766,
  "\u2581Bybelse": 2767,
  "\u2581z\u00e8le": 2768,
  "\u2581Japon": 2769,
  "\u2581mille": 2770,
  "\u2581\u00e9ternellement": 2771,
  "\u2581action": 2772,
  "\u2581remarquer": 2773,
  "\u2581\u00c9sa\u00efe": 2774,
  "ER": 2775,
  "\u2581finalement": 2776,
  "\u2581vry": 2777,
  "\u2581x": 2778,
  "\u2581Aussi": 2779,
  "\u2581religieuse": 2780,
  "\u2581asseblief": 2781,
  "\u2581behoefte": 2782,
  "\u2581tevore": 2783,
  "\u2581pain": 2784,
  "\u2581capable": 2785,
  "\u2581mission": 2786,
  "autorit\u00e9": 2787,
  "\u2581dur": 2788,
  "\u2581gagner": 2789,
  "\u2581getref": 2790,
  "\u2581brood": 2791,
  "\u2581progr\u00e8s": 2792,
  "\u2581Frankryk": 2793,
  "\u2581menigte": 2794,
  "\u2581geglo": 2795,
  "\u2581mauvaises": 2796,
  "\u2581m\u00e9chants": 2797,
  "\u2581compl\u00e8tement": 2798,
  "\u2581Ten": 2799,
  "\u2581choisi": 2800,
  "\u2581plaasgevind": 2801,
  "\u2581r\u00e9v\u00e9l\u00e9": 2802,
  "\u2581stap": 2803,
  "\u2581suivante": 2804,
  "\u2581tendance": 2805,
  "\u2581Mag": 2806,
  "\u2581Markus": 2807,
  "\u2581psalmiste": 2808,
  "\u2581sujets": 2809,
  "\u2581publi\u00e9": 2810,
  "Afrique": 2811,
  "\u2581dooies": 2812,
  "\u2581manifester": 2813,
  "\u2581vernaamste": 2814,
  "\u258136": 2815,
  "\u2581spyte": 2816,
  "\u2581autorit\u00e9s": 2817,
  "\u2581emosionele": 2818,
  "\u2581r\u00e9gions": 2819,
  "\u2581huit": 2820,
  "\u2581geleenthede": 2821,
  "\u2581traitement": 2822,
  "\u258121:": 2823,
  "\u2581wit": 2824,
  "\u2581handel": 2825,
  "\u2581toutefois": 2826,
  "\u258165": 2827,
  "\u2581dier": 2828,
  "\u2581ceci": 2829,
  "\u2581donnent": 2830,
  "\u2581godvrugtige": 2831,
  "\u2581pr\u00eatre": 2832,
  "\u2581image": 2833,
  "\u2581(8": 2834,
  "\u2581meisie": 2835,
  "\u2581appelle": 2836,
  "\u2581waarmee": 2837,
  "\u2581passage": 2838,
  "\u2581savons": 2839,
  "ner": 2840,
  "\u2581Messie": 2841,
  "\u2581agr\u00e9able": 2842,
  "\u2581repas": 2843,
  "ard": 2844,
  "importe": 2845,
  "\u25819]": 2846,
  "\u2581avions": 2847,
  "\u2581reconnaissance": 2848,
  "\u2581reeks": 2849,
  "\u2581sodoende": 2850,
  "ek": 2851,
  "\u2581pleinement": 2852,
  "\u2581veulent": 2853,
  "\u2581pieds": 2854,
  "\u2581v\u00e9cu": 2855,
  "\u2581\u00c8ve": 2856,
  "ti": 2857,
  "\u258118]": 2858,
  "\u2581prennent": 2859,
  "\u2581gode": 2860,
  "\u2581mati\u00e8re": 2861,
  "\u2581savait": 2862,
  "\u2581Aux": 2863,
  "\u2581demeure": 2864,
  "\u2581heelal": 2865,
  "\u2581persoonlikheid": 2866,
  "\u2581\u00e9tabli": 2867,
  "univers": 2868,
  "\u2581r\u00e8gne": 2869,
  "\u2581t\u00e2ches": 2870,
  "si": 2871,
  "\u2581agir": 2872,
  "\u2581dui": 2873,
  "\u2581foto": 2874,
  "\u2581lewenswyse": 2875,
  "\u2581arriver": 2876,
  "\u2581verhoor": 2877,
  "\u258129.": 2878,
  "\u2581territoire": 2879,
  "\u2581voici": 2880,
  "W": 2881,
  "\u2581bygevoeg": 2882,
  "\u2581plaasvind": 2883,
  "\u2581souffrances": 2884,
  "\u2581Let": 2885,
  "\u2581sacrifices": 2886,
  "\u2581situations": 2887,
  "\u2581geweier": 2888,
  "\u2581oggend": 2889,
  "\u2581radio": 2890,
  "org": 2891,
  "\u2581Nos": 2892,
  "\u2581getrek": 2893,
  "\u2581pleine": 2894,
  "\u2581pouvaient": 2895,
  "\u2581toepassing": 2896,
  "\u2581aangestel": 2897,
  "\u2581divin": 2898,
  "\u2581sendelinge": 2899,
  "\u2581responsable": 2900,
  "\u00b7": 2901,
  "\u2581gemeld": 2902,
  "\u2581versoek": 2903,
  "\u2581combien": 2904,
  "\u2581fil": 2905,
  "\u2581photo": 2906,
  "\u2581\u00c9tant": 2907,
  "sal": 2908,
  "\u2581gewaarsku": 2909,
  "\u2581politiques": 2910,
  "\u2581wetenskaplikes": 2911,
  "\u2581bewyse": 2912,
  "\u2581idee": 2913,
  "\u2581algemene": 2914,
  "\u2581moments": 2915,
  "\u2581profond\u00e9ment": 2916,
  "\u2581vais": 2917,
  "\u2581beskerming": 2918,
  "\u2581consiste": 2919,
  "\u2581kragtige": 2920,
  "\u2581attitude": 2921,
  "\u2581skuld": 2922,
  "\u2581navolg": 2923,
  "\u2581disait": 2924,
  "\u2581hiervan": 2925,
  "\u2581\u00c9ph\u00e9siens": 2926,
  "ko": 2927,
  "\u2581slaaf": 2928,
  "\u2581standpunt": 2929,
  "\u2581droits": 2930,
  "\u2581proclamateurs": 2931,
  "int\u00e9r\u00eat": 2932,
  "\u2581Gaan": 2933,
  "\u2581twyfel": 2934,
  "ta": 2935,
  "\u2581aangeneem": 2936,
  "\u2581gewys": 2937,
  "ler": 2938,
  "\u2581gerig": 2939,
  "du": 2940,
  "\u2581bras": 2941,
  "\u2581naaste": 2942,
  "\u2581keuse": 2943,
  "\u2581vo\u00ebls": 2944,
  "\u2581Korinthi\u00ebrs": 2945,
  "\u2581Messias": 2946,
  "\u2581verminder": 2947,
  "\u258110]": 2948,
  "\u2581moenie": 2949,
  "\u2581savent": 2950,
  "\u2581takkantoor": 2951,
  "\u2581jouself": 2952,
  "\u2581succ\u00e8s": 2953,
  "\u2581religieuses": 2954,
  "ique": 2955,
  "\u2581El": 2956,
  "\u2581vervang": 2957,
  "\u2581dollars": 2958,
  "\u2581sport": 2959,
  "\u2581mis\u00e9ricorde": 2960,
  "\u2581indien": 2961,
  "\u2581praktiese": 2962,
  "\u2581sleg": 2963,
  "\u2581choisir": 2964,
  "\u2581hout": 2965,
  "\u2581longue": 2966,
  "\u2581continue": 2967,
  "\u2581milliards": 2968,
  "\u2581terugkeer": 2969,
  "\u2581oomblik": 2970,
  "\u2581principe": 2971,
  "bo": 2972,
  "\u2581pauvres": 2973,
  "ale": 2974,
  "\u2581devez": 2975,
  "\u258138": 2976,
  "\u2581endroit": 2977,
  "\u2581kosbare": 2978,
  "of": 2979,
  "\u2581Heilige": 2980,
  "\u2581projet": 2981,
  "\u25811990": 2982,
  "\u2581dorp": 2983,
  "\u2581faite": 2984,
  "\u2581sortes": 2985,
  "\u2581tenu": 2986,
  "\u2581genees": 2987,
  "\u2581opleiding": 2988,
  "\u2581perdre": 2989,
  "\u2581servent": 2990,
  "\u2581versigtig": 2991,
  "Dieu": 2992,
  "\u2581enseigner": 2993,
  "\u2581ophou": 2994,
  "\u2581rein": 2995,
  "\u2581verdere": 2996,
  "\u2581vrug": 2997,
  "\u2581accepter": 2998,
  "\u2581daarby": 2999,
  "\u2581dieux": 3000,
  "\u2581veroordeel": 3001,
  "\u2581devient": 3002,
  "par": 3003,
  "\u2581vraie": 3004,
  "agir": 3005,
  "\u2581b\u00e9n\u00e9diction": 3006,
  "\u2581genooi": 3007,
  "\u2581soyez": 3008,
  "\u2581enigiemand": 3009,
  "no": 3010,
  "\u2581disque": 3011,
  "\u2581hospitaal": 3012,
  "\u2581ry": 3013,
  "\u2581sel": 3014,
  "\u2581wyn": 3015,
  "\u2581rappelle": 3016,
  "\u2581remarquable": 3017,
  "\u2581semblables": 3018,
  "\u2581beproewinge": 3019,
  "\u2581pr\u00eat": 3020,
  "\u2581Dr": 3021,
  "\u2581t\u00f4t": 3022,
  ":%": 3023,
  "\u2581besorg": 3024,
  "\u2581engel": 3025,
  "\u2581fruits": 3026,
  "\u2581roep": 3027,
  "\u2581\u00e9lev\u00e9": 3028,
  "\u00c9gypte": 3029,
  "\u2581d\u00e9part": 3030,
  "\u2581goud": 3031,
  "\u2581Mes": 3032,
  "\u2581agt": 3033,
  "\u2581central": 3034,
  "\u2581surveillant": 3035,
  "ff": 3036,
  "\u2581aanbidders": 3037,
  "\u2581onderhou": 3038,
  "ies": 3039,
  "tjie": 3040,
  "\u2581betrekking": 3041,
  "\u2581devenue": 3042,
  "\u2581gekose": 3043,
  "lire": 3044,
  "\u2581adres": 3045,
  "\u2581aient": 3046,
  "\u2581maat": 3047,
  "\u2581bord": 3048,
  "\u2581cadre": 3049,
  "\u2581voorheen": 3050,
  "ier": 3051,
  "ion": 3052,
  "\u00e9preuve": 3053,
  "\u2581haute": 3054,
  "\u2581mod\u00e8le": 3055,
  "Europe": 3056,
  "\u2581gros": 3057,
  "\u2581sort": 3058,
  "\u2581devenus": 3059,
  "\u2581d\u00e9veloppement": 3060,
  "\u2581opgeteken": 3061,
  "\u2581promesses": 3062,
  "\u2581waarvoor": 3063,
  "\u2581wakker": 3064,
  "apprendre": 3065,
  "\u2581Pa": 3066,
  "\u2581gestaan": 3067,
  "\u2581toekomstige": 3068,
  "In": 3069,
  "\u2581doodgemaak": 3070,
  "\u2581bevel": 3071,
  "\u2581vertroosting": 3072,
  "\u2581warm": 3073,
  "\u2581\u00e9viter": 3074,
  "\u2581atteint": 3075,
  "\u2581rig": 3076,
  "\u2581servi": 3077,
  "eur": 3078,
  "\u2581bome": 3079,
  "\u2581verstandig": 3080,
  "\u2581Wil": 3081,
  "\u2581ge\u00efnspireerde": 3082,
  "\u2581grondslag": 3083,
  "\u2581id\u00e9e": 3084,
  "\u2581bevind": 3085,
  "\u2581constamment": 3086,
  "\u2581drogue": 3087,
  "\u2581\u00e9l\u00e8ves": 3088,
  "van": 3089,
  "\u2581id\u00e9es": 3090,
  "pa": 3091,
  "\u2581assembl\u00e9e": 3092,
  "\u2581surmonter": 3093,
  "\u2581ervaar": 3094,
  "\u2581solution": 3095,
  "\u2581vooruitgang": 3096,
  "\u2581cr\u00e9\u00e9": 3097,
  "Histoire": 3098,
  "\u2581\u00e2ge": 3099,
  "sy": 3100,
  "\u2581compagnie": 3101,
  "\u2581destyds": 3102,
  "\u2581forces": 3103,
  "\u2581spirituellement": 3104,
  "\u2581Jacob": 3105,
  "\u2581camp": 3106,
  "\u2581traduction": 3107,
  "\u2581Quelques": 3108,
  "\u2581feitlik": 3109,
  "pi": 3110,
  "\u2581dr": 3111,
  "\u2581langer": 3112,
  "\u2581maisons": 3113,
  "\u2581weliswaar": 3114,
  "\u00e2me": 3115,
  "\u2581Te": 3116,
  "\u2581eenvoudige": 3117,
  "\u2581impossible": 3118,
  "ster": 3119,
  "\u2581arm": 3120,
  "\u2581lieux": 3121,
  "\u2581venus": 3122,
  "\u2581libre": 3123,
  "\u2581\u00e9l\u00e9ments": 3124,
  "per": 3125,
  "\u2581Soms": 3126,
  "\u2581lys": 3127,
  "\u2581sert": 3128,
  "\u2581voient": 3129,
  "ings": 3130,
  "\u2581lesquelles": 3131,
  "\u2581lewende": 3132,
  "\u2581nuttig": 3133,
  "\u2581res": 3134,
  "\u2581concerne": 3135,
  "\u2581le\u00e7on": 3136,
  "che": 3137,
  "\u2581Man": 3138,
  "\u2581guerres": 3139,
  "\u2581heure": 3140,
  "\u2581pur": 3141,
  "\u2581repr\u00e9sente": 3142,
  "\u2581type": 3143,
  "\u2581amper": 3144,
  "\u2581normale": 3145,
  "\u2581tient": 3146,
  "Laat": 3147,
  "\u2581enseigne": 3148,
  "\u2581leringe": 3149,
  "attention": 3150,
  "\u2581moiti\u00e9": 3151,
  "\u2581police": 3152,
  "\u2581skriftuurlike": 3153,
  "\u2581d\u00e9sert": 3154,
  "\u2581pr\u00e9sident": 3155,
  "\u2581waarsku": 3156,
  "\u2581beloftes": 3157,
  "\u2581courant": 3158,
  "\u2581\u00e9crire": 3159,
  "\u2581verheug": 3160,
  "Nous": 3161,
  "\u2581mee": 3162,
  "ly": 3163,
  "\u2581gereageer": 3164,
  "l\u00e9": 3165,
  "\u2581adorateurs": 3166,
  "\u2581assister": 3167,
  "\u2581nommer": 3168,
  "\u2581puissant": 3169,
  "\u2581affaires": 3170,
  "\u2581getroud": 3171,
  "\u2581kleur": 3172,
  "\u2581sentir": 3173,
  "\u2581troisi\u00e8me": 3174,
  "\u2581organisation": 3175,
  "\u2581effets": 3176,
  "\u2581perd": 3177,
  "\u2581valeurs": 3178,
  "teks": 3179,
  "\u2581heers": 3180,
  "\u2581weerspie\u00ebl": 3181,
  "\u2581hors": 3182,
  "\u2581preek": 3183,
  "\u2581document": 3184,
  "\u2581r\u00e9ponses": 3185,
  "ca": 3186,
  "\u2581Drie": 3187,
  "\u258124,": 3188,
  "\u2581energie": 3189,
  "\u2581t\u00e9l\u00e9vision": 3190,
  "\u2581versets": 3191,
  "\u2581v\u00e9rit\u00e9s": 3192,
  "\u2581Indication": 3193,
  "\u2581malades": 3194,
  "\u2581volhard": 3195,
  "activit\u00e9": 3196,
  "\u2581b\u00e9n\u00e9dictions": 3197,
  "\u2581personnel": 3198,
  "\u2581ordre": 3199,
  "\u2581d\u00e9sirs": 3200,
  "\u2581gedra": 3201,
  "\u2581graves": 3202,
  "oor": 3203,
  "\u2581positiewe": 3204,
  "\u2581r\u00e9fl\u00e9chir": 3205,
  "ut": 3206,
  "\u2581Afrique": 3207,
  "\u2581Votre": 3208,
  "\u2581enti\u00e8re": 3209,
  "\u2581gese\u00ebn": 3210,
  "\u2581slagoffers": 3211,
  "\u2581vervolging": 3212,
  "\u258128.": 3213,
  "\u2581faisaient": 3214,
  "\u2581geluister": 3215,
  "\u2581sp\u00e9cialistes": 3216,
  "\u2581venue": 3217,
  "\u2581belangrikste": 3218,
  "\u2581secours": 3219,
  "\u2581exactement": 3220,
  "\u2581internasionale": 3221,
  "\u2581ondank": 3222,
  "\u2581pioniers": 3223,
  "\u2581tronk": 3224,
  "\u2581vent": 3225,
  "\u2581geestelikes": 3226,
  "\u2581See": 3227,
  "\u2581charge": 3228,
  "esclave": 3229,
  "\u2581Sous": 3230,
  "\u2581geliefde": 3231,
  "\u2581parfait": 3232,
  "\u00e9tat": 3233,
  "\u2581formes": 3234,
  "\u2581paradys": 3235,
  "\u2581auront": 3236,
  "\u2581juiste": 3237,
  "\u2581teenwoordigheid": 3238,
  "\u2581aim\u00e9": 3239,
  "\u2581compassion": 3240,
  "\u2581missionnaire": 3241,
  "\u25812000": 3242,
  "\u2581fini": 3243,
  "\u2581mondial": 3244,
  "\u2581tribulation": 3245,
  "\u2581verstandige": 3246,
  "\u2581Indien": 3247,
  "\u2581gar\u00e7on": 3248,
  "\u2581makliker": 3249,
  "\u2581haal": 3250,
  "\u2581bestee": 3251,
  "\u2581riche": 3252,
  "\u2581beaut\u00e9": 3253,
  "\u2581toewysing": 3254,
  "\u2581redelik": 3255,
  "\u2581400": 3256,
  "\u2581faisons": 3257,
  "\u2581patience": 3258,
  "\u2581pied": 3259,
  "\u2581dokters": 3260,
  "\u2581foyer": 3261,
  "\u2581helfte": 3262,
  "\u2581publikasie": 3263,
  "\u2581\"[": 3264,
  "\u2581handhaaf": 3265,
  "\u2581Engeland": 3266,
  "\u2581apporter": 3267,
  "\u2581toegewydheid": 3268,
  "\u2581emploi": 3269,
  "\u2581verandering": 3270,
  "\u2581Robert": 3271,
  "\u2581aangemoedig": 3272,
  "\u2581berge": 3273,
  "\u2581docteur": 3274,
  "\u2581fran\u00e7ais": 3275,
  "\u2581geneig": 3276,
  "\u2581reaksie": 3277,
  "da": 3278,
  "ts": 3279,
  "\u2581navorsing": 3280,
  "\u2581skare": 3281,
  "\u2581werd": 3282,
  "\u2581cons\u00e9quence": 3283,
  "\u2581mooi": 3284,
  "\u2581\u00f4": 3285,
  "\u2581veilig": 3286,
  "\u2581Alle": 3287,
  "\u2581Jakob": 3288,
  "\u2581skrywer": 3289,
  "\u2581mener": 3290,
  "\u2581pr\u00e9cise": 3291,
  "\u2581geplaas": 3292,
  "\u2581LE": 3293,
  "\u2581optrede": 3294,
  "alcool": 3295,
  "\u2581haine": 3296,
  "\u2581olie": 3297,
  "\u2581souvenir": 3298,
  "d\u00e9": 3299,
  "\u258131.": 3300,
  "\u2581Grand": 3301,
  "\u2581Terre": 3302,
  "\u2581verby": 3303,
  "\u2581aidera": 3304,
  "\u2581April": 3305,
  "\u2581Inc": 3306,
  "\u2581honderd": 3307,
  "\u2581Enfin": 3308,
  "\u2581retrouver": 3309,
  "\u02b9": 3310,
  "\u2581envie": 3311,
  "\u2581ingesluit": 3312,
  "\u2581minutes": 3313,
  "\u2581quitt\u00e9": 3314,
  "\u2581Mo": 3315,
  "\u2581juge": 3316,
  "\u2581r\u00e9action": 3317,
  "\u2581'?": 3318,
  "\u2581secret": 3319,
  "\u2581proches": 3320,
  "aime": 3321,
  "unit\u00e9": 3322,
  "\u2581caract\u00e8re": 3323,
  "\u2581majorit\u00e9": 3324,
  "\u2581streef": 3325,
  ".),": 3326,
  "\u2581alliance": 3327,
  "\u2581vrouens": 3328,
  "\u2581verloop": 3329,
  "interm\u00e9diaire": 3330,
  "\u25811993": 3331,
  "\u2581bose": 3332,
  "\u2581couleur": 3333,
  "\u2581f\u00eate": 3334,
  "\u2581images": 3335,
  "\u2581onderrigting": 3336,
  "\u2581bevolking": 3337,
  "\u2581waarskuwing": 3338,
  "\u2581Nord": 3339,
  "\u2581Notes": 3340,
  "\u2581d\u00e9claration": 3341,
  "\u2581endroits": 3342,
  "\u2581600": 3343,
  "\u2581expliquer": 3344,
  "\u2581signale": 3345,
  "gelope": 3346,
  "ient": 3347,
  "\u2581Josua": 3348,
  "\u2581Tweede": 3349,
  "\u2581d\u00e9faut": 3350,
  "\u2581misdaad": 3351,
  "\u2581extr\u00eame": 3352,
  "\u2581ma\u00eetre": 3353,
  "\u2581stand": 3354,
  "tr": 3355,
  "\u2581cultiver": 3356,
  "\u25814;": 3357,
  "\u2581lien": 3358,
  "\u2581observer": 3359,
  "\u2581Afficher": 3360,
  "Que": 3361,
  "\u2581Voetnote": 3362,
  "\u2581objectifs": 3363,
  "\u2581to": 3364,
  "\u2581actuellement": 3365,
  "\u2581chercheurs": 3366,
  "\u2581montagnes": 3367,
  "\u2581possibilit\u00e9": 3368,
  "\u2581Goddelike": 3369,
  "\u2581voete": 3370,
  "\u2581Josu\u00e9": 3371,
  "\u2581aangesig": 3372,
  "\u2581fasse": 3373,
  "\u2581godsdienste": 3374,
  "\u2581skade": 3375,
  "\u2581niveau": 3376,
  "met": 3377,
  "\u2581esp\u00e8ces": 3378,
  "\u2581voulons": 3379,
  "\u2581dispositions": 3380,
  "\u2581verkies": 3381,
  "urs": 3382,
  "\u2581gelukkige": 3383,
  "\u2581vlug": 3384,
  "\u00e1": 3385,
  "\u2581demi": 3386,
  "\u2581derri\u00e8re": 3387,
  "\u2581huweliksmaat": 3388,
  "\u2581wetenskap": 3389,
  "\u2581conclusion": 3390,
  "\u2581poging": 3391,
  "\u2581science": 3392,
  "ige": 3393,
  "j": 3394,
  "\u2581begeertes": 3395,
  "\u2581daaglikse": 3396,
  "\u2581peuples": 3397,
  "\u2581commandement": 3398,
  "\u2581geskenk": 3399,
  "\u2581produire": 3400,
  "ance": 3401,
  "\u2581Indi\u00eb": 3402,
  "\u2581Paradys": 3403,
  "\u2581points": 3404,
  "\u2581bywoon": 3405,
  "\u2581auparavant": 3406,
  "\u2581publication": 3407,
  "\u2581pure": 3408,
  "\u2581teenstelling": 3409,
  "\u2581verdwyn": 3410,
  "\u2581village": 3411,
  "\u2581lid": 3412,
  "\u2581rond": 3413,
  "\u2581taak": 3414,
  "\u2581Neem": 3415,
  "\u2581verlos": 3416,
  "\u2581\u00e9couter": 3417,
  "\u2581auraient": 3418,
  "\u2581indique": 3419,
  "\u2581parties": 3420,
  "\u2581communiquer": 3421,
  "\u2581vertrek": 3422,
  "\u2581lesquels": 3423,
  "\u2581natuur": 3424,
  "\u258155": 3425,
  "\u2581Maintenant": 3426,
  "\u2581brein": 3427,
  "\u2581draai": 3428,
  "\u2581filiale": 3429,
  "\u2581foute": 3430,
  "\u2581poids": 3431,
  "\u2581disposition": 3432,
  "\u2581lendemain": 3433,
  "\u2581straf": 3434,
  "\u2581voorberei": 3435,
  "ex": 3436,
  "\u2581Kanada": 3437,
  "\u2581ekonomiese": 3438,
  "\u2581lettres": 3439,
  "\u25811997": 3440,
  "\u2581Duitse": 3441,
  "\u2581l\u00eaers": 3442,
  "\u2581pauvret\u00e9": 3443,
  "\u2581pr\u00e9parer": 3444,
  "\u2581vul": 3445,
  "lose": 3446,
  "\u2581conna\u00eet": 3447,
  "J\u00e9hovah": 3448,
  "interrogent": 3449,
  "\u2581autrui": 3450,
  "\u2581prise": 3451,
  "\u2581verbied": 3452,
  "\u258121,": 3453,
  "\u2581belangriker": 3454,
  "\u2581gegrond": 3455,
  "lu": 3456,
  "\u2581aangehaal": 3457,
  "\u2581proph\u00e8tes": 3458,
  "\u00eele": 3459,
  "\u2581comprend": 3460,
  "\u2581normes": 3461,
  "\u2581trouvait": 3462,
  "\u2581verg": 3463,
  "AN": 3464,
  "\u2581doelwitte": 3465,
  "\u2581leef": 3466,
  "\u2581quitter": 3467,
  "\u2581verskeidenheid": 3468,
  "influence": 3469,
  "so": 3470,
  "\u2581adultes": 3471,
  "\u2581entrer": 3472,
  "\u2581September": 3473,
  "\u2581familielede": 3474,
  "\u2581merveilleux": 3475,
  "\u2581oiseaux": 3476,
  "\u2581suksesvol": 3477,
  "ba": 3478,
  "\u2581CD": 3479,
  "int\u00e9rieur": 3480,
  "\u2581O\u00f9": 3481,
  "\u2581Veuillez": 3482,
  "\u2581apprend": 3483,
  "\u2581donn\u00e9e": 3484,
  "\u2581verbind": 3485,
  "\u2581aangekom": 3486,
  "\u2581toets": 3487,
  "\u2581wetenskaplike": 3488,
  "\u2581troupeau": 3489,
  "\u2581Esegi\u00ebl": 3490,
  "\u2581digne": 3491,
  "\u2581eintlik": 3492,
  "\u2581toepas": 3493,
  "\u258114;": 3494,
  "\u2581trane": 3495,
  "\u2581vooruitsig": 3496,
  "\u2581avenir": 3497,
  "\u2581commandements": 3498,
  "\u2581groupes": 3499,
  "\u2581pi\u00e8ce": 3500,
  "n\u00e9": 3501,
  "\u2581hang": 3502,
  "\u2581offre": 3503,
  "\u2581r": 3504,
  "\u2581Nations": 3505,
  "\u2581Nouvelle": 3506,
  "\u2581basiese": 3507,
  "\u2581hanteer": 3508,
  "\u2581nodige": 3509,
  "\u2581trots": 3510,
  "Daar": 3511,
  "\u2581heureuse": 3512,
  "\u2581mettent": 3513,
  "\u2581vroeg": 3514,
  "\u2581revanche": 3515,
  "\u2581supporter": 3516,
  "hommes": 3517,
  "\u2581larmes": 3518,
  "\u2581capacit\u00e9": 3519,
  "\u2581difficiles": 3520,
  "\u2581priester": 3521,
  "\u2581Parfois": 3522,
  "\u2581Twee": 3523,
  "\u2581capitale": 3524,
  "\u2581geslaan": 3525,
  "\u2581werklike": 3526,
  "\u258126.": 3527,
  "\u2581Desember": 3528,
  "\u2581d\u00e9mons": 3529,
  "\u2581gauche": 3530,
  "\u2581Julie": 3531,
  "\u2581bureau": 3532,
  "\u2581maman": 3533,
  "\u2581tuin": 3534,
  "objet": 3535,
  "\u2581appel": 3536,
  "\u2581parti": 3537,
  "\u2581Judas": 3538,
  "\u2581duisend": 3539,
  "\u2581regarder": 3540,
  "vi": 3541,
  "\u2581fen\u00eatre": 3542,
  "\u2581marche": 3543,
  "\u2581arm\u00e9es": 3544,
  "\u2581changement": 3545,
  "humilit\u00e9": 3546,
  "ni": 3547,
  "\u2581d\u00e9pression": 3548,
  "\u2581jouer": 3549,
  "\u2581oorleef": 3550,
  "\u2581puisque": 3551,
  "\u2581remarque": 3552,
  "ha": 3553,
  "\u2581be\u00efndruk": 3554,
  "\u2581informations": 3555,
  "\u2581liens": 3556,
  "\u2581opstand": 3557,
  "\u2581r\u00e9cemment": 3558,
  "ct": 3559,
  "\u2581Brasili\u00eb": 3560,
  "\u2581Meer": 3561,
  "\u2581fid\u00e8lement": 3562,
  "\u2581insluit": 3563,
  "\u2581ma\u00eetrise": 3564,
  "\u2581steek": 3565,
  "Hy": 3566,
  "\u2581Saint": 3567,
  "\u2581oral": 3568,
  "\u2581Tot": 3569,
  "\u2581estime": 3570,
  "\u2581tuis": 3571,
  "\u25810": 3572,
  "\u2581Spanje": 3573,
  "\u2581geheim": 3574,
  "\u2581pousse": 3575,
  "\u2581profete": 3576,
  "\u2581attend": 3577,
  "\u2581diverses": 3578,
  "\u2581groepe": 3579,
  "\u2581semblable": 3580,
  "\u2581berou": 3581,
  "\u2581disparu": 3582,
  "\u2581gesond": 3583,
  "\u2581harde": 3584,
  "\u2581skuldig": 3585,
  "\u2581Noord": 3586,
  "\u2581Quant": 3587,
  "\u2581Augustus": 3588,
  "\u2581h": 3589,
  "\u2581r\u00e9ussi": 3590,
  "\u2581Oor": 3591,
  "\u2581seksuele": 3592,
  "\u2581toesig": 3593,
  "ic": 3594,
  "\u2581Oktober": 3595,
  "\u2581champ": 3596,
  "ante": 3597,
  "\u2581saad": 3598,
  "ront": 3599,
  "\u2581commencer": 3600,
  "\u2581Filippense": 3601,
  "\u2581Sa\u00fcl": 3602,
  "\u2581cerveau": 3603,
  "\u2581lojaal": 3604,
  "\u2581toestande": 3605,
  "\u2581Londen": 3606,
  "\u2581recherches": 3607,
  "tjies": 3608,
  "\u2581Nombre": 3609,
  "up": 3610,
  "\u2581gespreek": 3611,
  "\u2581Sara": 3612,
  "\u2581si\u00e8ge": 3613,
  "\u2581fausse": 3614,
  "\u258113]": 3615,
  "\u2581catholiques": 3616,
  "\u2581circonstances": 3617,
  "\u2581nederig": 3618,
  "\u2581poursuit": 3619,
  "\u258110;": 3620,
  "\u2581Bybelbeginsels": 3621,
  "\u2581assis": 3622,
  "\u2581manifeste": 3623,
  "\u2581ob\u00e9ir": 3624,
  "\u2581versoeking": 3625,
  "\u2581rendent": 3626,
  "\u258141": 3627,
  "\u2581verkeer": 3628,
  "\u258148": 3629,
  "\u2581Bo": 3630,
  "\u2581Lors": 3631,
  "\u2581communication": 3632,
  "\u2581soutenir": 3633,
  "\u2581Skep": 3634,
  "\u2581offrir": 3635,
  "\u2581reconna\u00eetre": 3636,
  "\u2581boire": 3637,
  "ici": 3638,
  "universit\u00e9": 3639,
  "\u258142": 3640,
  "\u2581naamlik": 3641,
  "\u2581ouvrage": 3642,
  "\u2581riches": 3643,
  "\u2581anti": 3644,
  "\u2581gelewe": 3645,
  "\u2581slawe": 3646,
  "\u2581San": 3647,
  "\u2581aiment": 3648,
  "\u2581losprys": 3649,
  "\u00e9gard": 3650,
  "\u2581liefh\u00ea": 3651,
  "\u2581oplossing": 3652,
  "\u2581studente": 3653,
  "\u258116]": 3654,
  "\u2581assembl\u00e9es": 3655,
  "\u2581march\u00e9": 3656,
  "\u2581woede": 3657,
  "\u25811991": 3658,
  "\u2581Prediker": 3659,
  "\u2581berei": 3660,
  "\u2581LES": 3661,
  "\u2581gesels": 3662,
  "\u2581half": 3663,
  "\u2581kerke": 3664,
  "\u2581procure": 3665,
  "li": 3666,
  "\u2581PAGE": 3667,
  "\u2581enfin": 3668,
  "\u2581taux": 3669,
  "\u2581loof": 3670,
  "\u2581virus": 3671,
  "\u2581voorstel": 3672,
  "\u258122,": 3673,
  "\u2581guns": 3674,
  "\u2581pierre": 3675,
  "\u2581skielik": 3676,
  "\u2581verwelkom": 3677,
  "\u2581d\u00e9couvrir": 3678,
  "\u2581Asi\u00eb": 3679,
  "\u2581besittings": 3680,
  "\u2581diff\u00e9rence": 3681,
  "\u258127.": 3682,
  "\u2581mani\u00e8res": 3683,
  "\u2581moyenne": 3684,
  "\u2581oorlo\u00eb": 3685,
  "\u2581petites": 3686,
  "\u2581ran\u00e7on": 3687,
  "\u2581regeer": 3688,
  "cu": 3689,
  "\u2581cent": 3690,
  "\u2581imm\u00e9diatement": 3691,
  "Ne": 3692,
  "con": 3693,
  "\u2581Timothe\u00fcs": 3694,
  "\u2581honger": 3695,
  "\u2581gevorm": 3696,
  "\u2581strek": 3697,
  "\u2581troubles": 3698,
  "rie": 3699,
  "etlike": 3700,
  "\u25811992": 3701,
  "\u2581Mar": 3702,
  "\u2581arbres": 3703,
  "\u2581internationale": 3704,
  "\u2581seks": 3705,
  "\u2581tereg": 3706,
  "tel": 3707,
  "Wat": 3708,
  "\u2581Mei": 3709,
  "\u2581accomplir": 3710,
  "\u2581cr\u00e9er": 3711,
  "tra": 3712,
  "\u258116;": 3713,
  "\u2581dissipline": 3714,
  "\u2581feite": 3715,
  "\u2581jardin": 3716,
  "\u2581vertoon": 3717,
  "enfants": 3718,
  "\u2581Haar": 3719,
  "\u2581gesonde": 3720,
  "\u2581negatiewe": 3721,
  "\u2581r\u00e9confort": 3722,
  "\u2581swaard": 3723,
  "\u2581tuer": 3724,
  "nes": 3725,
  "ru": 3726,
  "\u2581Gee": 3727,
  "\u2581Puisque": 3728,
  "\u2581Watchtower": 3729,
  "\u2581savez": 3730,
  "\u2581\u00e9crits": 3731,
  "ve": 3732,
  "\u2581esclaves": 3733,
  "\u2581faute": 3734,
  "\u2581poser": 3735,
  "\u2581\u00e9v\u00e9nement": 3736,
  "aller": 3737,
  "\u25815]": 3738,
  "\u2581peau": 3739,
  "\u2581Itali\u00eb": 3740,
  "\u2581Philippiens": 3741,
  "\u2581onsself": 3742,
  "\u2581oorsprong": 3743,
  "Abraham": 3744,
  "\u2581Encyclopedia": 3745,
  "\u2581dwelms": 3746,
  "\u2581d\u00e9crit": 3747,
  "\u2581gehoorsaamheid": 3748,
  "\u2581William": 3749,
  "\u2581commis": 3750,
  "\u258128,": 3751,
  "\u2581dangereux": 3752,
  "\u2581uniquement": 3753,
  "\u2581voorgestel": 3754,
  "aire": 3755,
  "\u2581streng": 3756,
  "Vous": 3757,
  "\u00c9cole": 3758,
  "\u2581George": 3759,
  "\u2581bespreking": 3760,
  "\u2581combat": 3761,
  "\u2581gelaat": 3762,
  "wa": 3763,
  "\u2581Ensuite": 3764,
  "\u2581James": 3765,
  "\u2581neer": 3766,
  "\u258143": 3767,
  "\u2581onmoontlik": 3768,
  "\u2581uitgespreek": 3769,
  "\u2581ge\u00ebet": 3770,
  "\u2581g\u00e9n\u00e9ration": 3771,
  "\u2581put": 3772,
  "\u258133.": 3773,
  "\u2581connaissent": 3774,
  "\u2581\u00e9vidence": 3775,
  "\u2581barmhartigheid": 3776,
  "\u2581cesse": 3777,
  "\u2581ondervindinge": 3778,
  "\u2581Januarie": 3779,
  "\u2581n\u00e9cessaires": 3780,
  "\u2581wind": 3781,
  "\u2581\u00e9": 3782,
  "\u2581Merci": 3783,
  "\u2581large": 3784,
  "\u2581uitdrukking": 3785,
  "9": 3786,
  "\u2581Maart": 3787,
  "\u2581affirme": 3788,
  "\u2581neuf": 3789,
  "\u2581partout": 3790,
  "\u2581He": 3791,
  "\u2581stof": 3792,
  "\u258113;": 3793,
  "\u2581accord": 3794,
  "\u2581tombe": 3795,
  "ot": 3796,
  "\u2581Lok": 3797,
  "\u2581autorit\u00e9": 3798,
  "\u2581co": 3799,
  ",...": 3800,
  "een": 3801,
  "\u2581jonk": 3802,
  "\u2581resultate": 3803,
  "\u2581tydskrifte": 3804,
  "Julle": 3805,
  "\u2581Paradis": 3806,
  "\u2581aanval": 3807,
  "\u2581d\u00e9sormais": 3808,
  "\u2581gevestig": 3809,
  "\u2581importantes": 3810,
  "\u2581oorweeg": 3811,
  "\u2581d\u00e9cembre": 3812,
  "\u2581le\u00ebr": 3813,
  "\u2581profond": 3814,
  "\u2581ywerig": 3815,
  "\u2581Was": 3816,
  "\u2581Wys": 3817,
  "\u2581dorpie": 3818,
  "\u2581vivons": 3819,
  "\u2581culture": 3820,
  "\u2581vid\u00e9o": 3821,
  "min": 3822,
  "\u2581pardonner": 3823,
  "dra": 3824,
  "\u2581douceur": 3825,
  "\u2581waardes": 3826,
  "\u258130.": 3827,
  "\u2581objectif": 3828,
  "\u2581L\u00e0": 3829,
  "\u2581attendre": 3830,
  "\u2581polisie": 3831,
  "\u2581plant": 3832,
  "gi": 3833,
  "\u2581BLADSY": 3834,
  "\u2581commence": 3835,
  "\u2581not": 3836,
  "ah": 3837,
  "\u2581fer": 3838,
  "\u2581klaarblyklik": 3839,
  "\u2581pi\u00e8ces": 3840,
  "\u2581rivier": 3841,
  "\u2581soins": 3842,
  "Vergelyk": 3843,
  "sel": 3844,
  "\u2581Europese": 3845,
  "\u2581Gees": 3846,
  "\u2581Uiteindelik": 3847,
  "\u2581clair": 3848,
  "\u2581144": 3849,
  "\u2581facteurs": 3850,
  "ES": 3851,
  "\u2581verheerlik": 3852,
  "Jy": 3853,
  "\u2581Geskrifte": 3854,
  "\u2581skyf": 3855,
  "\u2581toewyding": 3856,
  "Adam": 3857,
  "ang": 3858,
  "\u2581Deux": 3859,
  "\u2581cit\u00e9": 3860,
  "\u2581d\u00e9tails": 3861,
  "\u2581jeunesse": 3862,
  "\u2581volkome": 3863,
  "\u2581rapports": 3864,
  "\u2581limites": 3865,
  "ure": 3866,
  "\u2581Z": 3867,
  "\u2581volharding": 3868,
  "espoir": 3869,
  "\u2581gevare": 3870,
  "\u2581quiconque": 3871,
  "\u2581verenig": 3872,
  "iste": 3873,
  "\u2581dieu": 3874,
  "\u2581eut": 3875,
  "\u2581malheur": 3876,
  "\u2581m\u00e9chancet\u00e9": 3877,
  "\u2581vriendskap": 3878,
  "\u2581Brooklyn": 3879,
  "\u2581camarades": 3880,
  "\u2581respecter": 3881,
  "ux": 3882,
  "\u2581Lot": 3883,
  "\u2581Voeg": 3884,
  "\u2581or": 3885,
  "\u2581sauver": 3886,
  "\u2581voulez": 3887,
  "\u2581behalwe": 3888,
  "\u2581gebooie": 3889,
  "\u2581geken": 3890,
  "\u2581lof": 3891,
  "\u2581regerings": 3892,
  "\u2581uitstekende": 3893,
  "use": 3894,
  "\u2581enti\u00e8rement": 3895,
  "\u2581insig": 3896,
  "\u2581ywer": 3897,
  "\u2581Certaines": 3898,
  "\u2581veld": 3899,
  "\u2581150": 3900,
  "\u2581faktore": 3901,
  "\u2581magnifique": 3902,
  "\u2581vermaak": 3903,
  "Voir": 3904,
  "mer": 3905,
  "\u2581consid\u00e8re": 3906,
  "\u2581diriger": 3907,
  "\u2581compter": 3908,
  "\u2581insluitende": 3909,
  "\u2581plantes": 3910,
  "\u2581tr\u00f4ne": 3911,
  "\u2581volwassenes": 3912,
  "af": 3913,
  "\u2581Franse": 3914,
  "\u2581agtergrond": 3915,
  "\u2581gemeentelike": 3916,
  "\u2581skerp": 3917,
  "\u2581\u00e2g\u00e9s": 3918,
  "ants": 3919,
  "ement": 3920,
  "\u2581Photo": 3921,
  "\u2581int\u00e9r\u00eats": 3922,
  "\u2581rencontr\u00e9": 3923,
  "\u2581individus": 3924,
  "\u2581unies": 3925,
  "\u2581vigs": 3926,
  "\u2581VSA": 3927,
  "\u2581bejaarde": 3928,
  "\u2581deelneem": 3929,
  "\u2581heilig": 3930,
  "\u2581Durant": 3931,
  "\u2581VOUS": 3932,
  "\u2581medegelowiges": 3933,
  "\u2581septembre": 3934,
  "\u2581!": 3935,
  "\u2581Ha": 3936,
  "\u2581situasies": 3937,
  "\u2581tomber": 3938,
  "\u00e8": 3939,
  "\u2581parfaite": 3940,
  "\u2581verslae": 3941,
  "\u2581volke": 3942,
  "\u2581soldats": 3943,
  "\u2581stress": 3944,
  "\u2581Elia": 3945,
  "\u2581alkohol": 3946,
  "\u2581pr\u00e9senter": 3947,
  "\u2581serez": 3948,
  "\u2581titel": 3949,
  "\u2581w\u00eareldwyd": 3950,
  "\u25816]": 3951,
  "\u2581duidelike": 3952,
  "\u2581t\u00e9moins": 3953,
  "\u2581unieke": 3954,
  "tes": 3955,
  "\u2581voortgaan": 3956,
  "ange": 3957,
  "deur": 3958,
  "honneur": 3959,
  "\u2581brochure": 3960,
  "\u2581figure": 3961,
  "\u2581gespeel": 3962,
  "\u2581vlieg": 3963,
  "\u2581Bethel": 3964,
  "\u2581Junie": 3965,
  "\u2581armoede": 3966,
  "\u2581brand": 3967,
  "\u2581venait": 3968,
  "genootskap": 3969,
  "\u2581TV": 3970,
  "\u2581b\u00e9b\u00e9": 3971,
  "\u2581dehors": 3972,
  "\u2581vervolg": 3973,
  "\u2581vestig": 3974,
  "\u258112;": 3975,
  "\u2581n\u00e9cessit\u00e9": 3976,
  "\u2581projek": 3977,
  "\u2581rencontre": 3978,
  "\u2581hartseer": 3979,
  "\u2581werkers": 3980,
  "\u2581wille": 3981,
  "\u2581mesures": 3982,
  "\u2581morale": 3983,
  "\u2581sexuelle": 3984,
  "\u2581voil\u00e0": 3985,
  "\u258139": 3986,
  "\u2581bevry": 3987,
  "\u2581fa\u00e7ons": 3988,
  "\u2581medelye": 3989,
  "\u2581th\u00e8me": 3990,
  "occuper": 3991,
  "\u2581ajout\u00e9": 3992,
  "\u2581god": 3993,
  "\u2581kweek": 3994,
  "\u2581onderskei": 3995,
  "ensemble": 3996,
  "\u2581Sou": 3997,
  "\u2581actuel": 3998,
  "\u2581domaines": 3999,
  "\u2581gevangenes": 4000,
  "\u2581bedek": 4001,
  "\u2581harmonie": 4002,
  "\u2581identifiseer": 4003,
  "\u2581waaroor": 4004,
  "\u2581weerstaan": 4005,
  "\u2581beelde": 4006,
  "\u2581oorsaak": 4007,
  "\u2581Nama": 4008,
  "\u2581sexuelles": 4009,
  "ina": 4010,
  "\u00e8re": 4011,
  "\u2581Evolution": 4012,
  "\u2581hof": 4013,
  "\u2581Entrefilet": 4014,
  "\u2581donker": 4015,
  "\u2581lektuur": 4016,
  "EN": 4017,
  "\u258117;": 4018,
  "\u2581constat\u00e9": 4019,
  "\u2581presse": 4020,
  "\u2581sekerlik": 4021,
  "\u2581soldate": 4022,
  "\u2581Mens": 4023,
  "\u2581Vers": 4024,
  "\u2581avril": 4025,
  "\u2581klaar": 4026,
  "sie": 4027,
  "\u2581DEUR": 4028,
  "\u2581enseign\u00e9": 4029,
  "\u2581bestuur": 4030,
  "\u2581discussion": 4031,
  "\u2581gele\u00eb": 4032,
  "\u2581remplir": 4033,
  "\u2581W\u00eareld": 4034,
  "\u2581autrement": 4035,
  "\u2581uitgevind": 4036,
  "\u2581breek": 4037,
  "\u2581hetsy": 4038,
  "\u2581milit\u00eare": 4039,
  "\u2581profonde": 4040,
  "\u2581selfbeheersing": 4041,
  "\u2581vieux": 4042,
  "\u2581croient": 4043,
  "\u2581c\u00f4t\u00e9s": 4044,
  "\u2581pr\u00e9c\u00e9dent": 4045,
  "\u25819;": 4046,
  "\u2581Aucun": 4047,
  "\u2581Journal": 4048,
  "\u2581Miskien": 4049,
  "\u2581gratis": 4050,
  "\u2581ouvert": 4051,
  "\u2581tort": 4052,
  "eurs": 4053,
  "vo": 4054,
  "\u2581menace": 4055,
  "\u2581honderde": 4056,
  "\u2581humaines": 4057,
  "\u2581principal": 4058,
  "\u2581sommeil": 4059,
  "\u2581su": 4060,
  "\u2581toorn": 4061,
  "\u2581vertroos": 4062,
  "amate": 4063,
  "\u2581sleutel": 4064,
  "\u2581belles": 4065,
  "\u2581jonger": 4066,
  "\u2581opsig": 4067,
  "ron": 4068,
  "\u2581vel": 4069,
  "\u2581Vergelyk": 4070,
  "\u2581note": 4071,
  "\u2581besonderhede": 4072,
  "\u2581d\u00e9terminer": 4073,
  "\u2581grootliks": 4074,
  "\u2581\u00e2g\u00e9es": 4075,
  "\u2581Malheureusement": 4076,
  "\u2581info": 4077,
  "\u2581pardon": 4078,
  "\u2581r\u00e9compense": 4079,
  "\u2581r\u00e9sister": 4080,
  "\u2581semblent": 4081,
  "\u2581span": 4082,
  "\u2581stam": 4083,
  "\u2581totale": 4084,
  "info": 4085,
  "\u2581materiaal": 4086,
  "\u00ef": 4087,
  "\u2581imiter": 4088,
  "\u258111;": 4089,
  "color": 4090,
  "\u2581Ben": 4091,
  "\u2581Beskou": 4092,
  "\u2581Pareillement": 4093,
  "ab": 4094,
  "po": 4095,
  "\u2581Mexiko": 4096,
  "\u2581for\u00eat": 4097,
  "\u2581getal": 4098,
  "\u2581miljard": 4099,
  "\u2581vereistes": 4100,
  "io": 4101,
  "\u00e9tudier": 4102,
  "\u25813;": 4103,
  "\u2581Europe": 4104,
  "\u2581Nouveau": 4105,
  "\u2581risques": 4106,
  "\u2581occasion": 4107,
  "\u2581parvenir": 4108,
  "\u2581reconnu": 4109,
  "\u2581suffisamment": 4110,
  "arm\u00e9e": 4111,
  "\u2581dekades": 4112,
  "\u2581eilande": 4113,
  "\u2581kneg": 4114,
  "\u2581uitdagings": 4115,
  "\u2581parlait": 4116,
  "\u2581premi\u00e8res": 4117,
  "\u2581viendra": 4118,
  "\u258135.": 4119,
  "\u2581cherche": 4120,
  "\u2581contenu": 4121,
  "\u2581divorce": 4122,
  "\u2581sinc\u00e8rement": 4123,
  "\u2581stappe": 4124,
  "stelsel": 4125,
  "\u2581personnellement": 4126,
  "\u2581visage": 4127,
  "\u2581vyand": 4128,
  "sh": 4129,
  "\u2581Brittanje": 4130,
  "\u2581Weens": 4131,
  "\u2581tref": 4132,
  "\u2581cellules": 4133,
  "\u2581do": 4134,
  "\u2581perte": 4135,
  "\u2581waarna": 4136,
  "\u2581cour": 4137,
  "\u2581enseignement": 4138,
  "\u2581kommunikasie": 4139,
  "\u2581re\u00ebn": 4140,
  "ho": 4141,
  "\u2581Paar": 4142,
  "\u2581inhou": 4143,
  "\u2581gesoek": 4144,
  "\u2581kampe": 4145,
  "\u2581mai": 4146,
  "\u2581rooi": 4147,
  "ros": 4148,
  "\u2581Eerste": 4149,
  "\u2581cher": 4150,
  "\u2581nederigheid": 4151,
  "\u2581stil": 4152,
  "\u2581aspekte": 4153,
  "\u2581couleurs": 4154,
  "\u2581erreur": 4155,
  "\u2581espoir": 4156,
  "\u2581Ra": 4157,
  "\u2581ex": 4158,
  "\u2581Pi": 4159,
  "\u2581depressie": 4160,
  "\u2581gemeen": 4161,
  "\u2581tevrede": 4162,
  "res": 4163,
  "\u2581assist\u00e9": 4164,
  "\u2581deviennent": 4165,
  "\u2581essay\u00e9": 4166,
  "\u2581tong": 4167,
  "\u2581(\"": 4168,
  "\u258121]": 4169,
  "\u2581dessous": 4170,
  "\u2581poss\u00e8de": 4171,
  "\u2581sterre": 4172,
  "habitude": 4173,
  "mb": 4174,
  "\u2581Charles": 4175,
  "\u2581intitul\u00e9": 4176,
  "\u2581refus\u00e9": 4177,
  "\u2581troon": 4178,
  "\u2581voldoen": 4179,
  "\u2581entend": 4180,
  "\u2581voorkoms": 4181,
  "\u00c0": 4182,
  "\u2581An": 4183,
  "\u2581dogters": 4184,
  "\u2581\u00c9glises": 4185,
  "\u2581Gebruik": 4186,
  "\u2581constitue": 4187,
  "\u2581pers\u00e9cution": 4188,
  "\u2581vaar": 4189,
  "\u2581verlig": 4190,
  "\u2581conduit": 4191,
  "\u2581habitudes": 4192,
  "\u2581r\u00e9sultat": 4193,
  "\u2581swart": 4194,
  "alliance": 4195,
  "\u2581remarqu\u00e9": 4196,
  "\u2581travaux": 4197,
  "\u2581weier": 4198,
  "\u2581Har": 4199,
  "\u2581preuves": 4200,
  "it\u00e9": 4201,
  "\u2581midi": 4202,
  "\u2581permettre": 4203,
  "chi": 4204,
  "\u2581Allemagne": 4205,
  "\u2581regard": 4206,
  "\u2581satisfaction": 4207,
  "\u2581Galasi\u00ebrs": 4208,
  "\u2581opvoeding": 4209,
  "\u2581verkondigers": 4210,
  "\u2581bymekaar": 4211,
  "\u2581misbruik": 4212,
  "\u2581rechercher": 4213,
  "\u2581sages": 4214,
  "avis": 4215,
  "\u2581s\u00f3": 4216,
  "\u2581gevolgtrekking": 4217,
  "\u2581publikasies": 4218,
  "\u2581surface": 4219,
  "instruction": 4220,
  "\u2581geduldig": 4221,
  "\u2581gewoonte": 4222,
  "\u2581mars": 4223,
  "\u2581opreg": 4224,
  "bi": 4225,
  "\u2581Stoor": 4226,
  "\u2581conversation": 4227,
  "\u25811995": 4228,
  "\u2581National": 4229,
  "\u2581commun": 4230,
  "\u2581dons": 4231,
  "\u2581noukeurig": 4232,
  "\u2581wilde": 4233,
  "\u2581Certes": 4234,
  "\u2581gebeurtenis": 4235,
  "\u2581verligting": 4236,
  "ow": 4237,
  "\u2581Tr\u00e8s": 4238,
  "\u2581lot": 4239,
  "\u2581solide": 4240,
  "\u2581Deuteronomium": 4241,
  "\u2581doelwit": 4242,
  "\u2581r\u00e9serve": 4243,
  "\u2581surveillants": 4244,
  "\u2581adolescents": 4245,
  "\u2581etc": 4246,
  "\u2581stadium": 4247,
  "\u2581vervoer": 4248,
  "\u00e9nergie": 4249,
  "\u2581lutte": 4250,
  "\u2581richesse": 4251,
  "\u2581toegeneem": 4252,
  "ite": 4253,
  "\u2581gely": 4254,
  ".\"": 4255,
  "\u2581besorgdheid": 4256,
  "\u2581lojaliteit": 4257,
  "\u2581oorkom": 4258,
  "\u2581usage": 4259,
  "\u25811919": 4260,
  "\u2581atteindre": 4261,
  "\u2581district": 4262,
  "\u2581opgemerk": 4263,
  "\u2581si\u00e8cle": 4264,
  "\u2581Br\u00e9sil": 4265,
  "\u2581Galates": 4266,
  "\u2581extraordinaire": 4267,
  "\u2581goedkeuring": 4268,
  "\u2581sacr\u00e9": 4269,
  "\u2581straat": 4270,
  "\u2581caract\u00e9ristique": 4271,
  "\u2581Londres": 4272,
  "\u2581am\u00e9ricain": 4273,
  "\u2581oorvloed": 4274,
  "\u2581sosiale": 4275,
  "\u2581traduit": 4276,
  "baar": 4277,
  "\u2581besonder": 4278,
  "\u2581compr\u00e9hension": 4279,
  "\u2581faible": 4280,
  "\u2581relation": 4281,
  "\u2581responsables": 4282,
  "\u2581devoir": 4283,
  "\u2581exemplaire": 4284,
  "\u2581nomm\u00e9": 4285,
  "\u2581n\u00e9anmoins": 4286,
  "\u2581opgehou": 4287,
  "7": 4288,
  "\u2581bes": 4289,
  "\u2581capables": 4290,
  "\u2581dizaines": 4291,
  "\u2581juillet": 4292,
  "\u2581m\u00e8ne": 4293,
  "pos": 4294,
  "\u2581Voyez": 4295,
  "\u2581kontak": 4296,
  "\u2581suppl\u00e9mentaires": 4297,
  "\u2581voulais": 4298,
  "\u2581bande": 4299,
  "\u2581clerg\u00e9": 4300,
  "\u2581dokument": 4301,
  "\u2581h\u00e9breu": 4302,
  "\u2581directement": 4303,
  "\u2581pape": 4304,
  "ON": 4305,
  "\u2581Eccl\u00e9siaste": 4306,
  "\u2581Farise\u00ebrs": 4307,
  "\u2581bekommerd": 4308,
  "\u2581for": 4309,
  "\u2581r\u00e9putation": 4310,
  "ette": 4311,
  "\u2581(...).": 4312,
  "\u2581Kolossense": 4313,
  "\u2581noms": 4314,
  "\u2581parlent": 4315,
  "\u2581salle": 4316,
  "\u2581voet": 4317,
  "IS": 4318,
  "\u2581mouvement": 4319,
  "by": 4320,
  "ese": 4321,
  "\u2581absolument": 4322,
  "\u2581belangstel": 4323,
  "\u2581cr\u00e9atures": 4324,
  "\u2581juin": 4325,
  "\u2581kudde": 4326,
  "\u2581m\u00e9moire": 4327,
  "\u2581souci": 4328,
  "issant": 4329,
  "\u2581Grote": 4330,
  "\u2581encourage": 4331,
  "\u2581opgetree": 4332,
  "\u2581veiller": 4333,
  "\u2581liefdevol": 4334,
  "avant": 4335,
  "\u2581octobre": 4336,
  "\u2581ruimte": 4337,
  "environ": 4338,
  "\u2581beginsel": 4339,
  "\u2581pasi\u00ebnt": 4340,
  "\u2581signes": 4341,
  "\u2581divers": 4342,
  "\u2581services": 4343,
  "agtige": 4344,
  "\u2581demone": 4345,
  "dag": 4346,
  "moi": 4347,
  "\u2581behaal": 4348,
  "\u2581go\u00fbt": 4349,
  "\u2581kus": 4350,
  "\u2581ordonn\u00e9": 4351,
  "\u2581souverainet\u00e9": 4352,
  "\u2581Deut\u00e9ronome": 4353,
  "\u2581Ter": 4354,
  "\u2581raisonnable": 4355,
  "\u2581s\u00e9rieux": 4356,
  "\u2581finale": 4357,
  "\u2581geroep": 4358,
  "\u2581goedheid": 4359,
  "\u2581pri\u00e9": 4360,
  "ris": 4361,
  "\u2581Jongmense": 4362,
  "\u2581permettent": 4363,
  "IN": 4364,
  "accord": 4365,
  "\u2581janvier": 4366,
  "\u2581pro": 4367,
  "tion": 4368,
  "\u2581gouvernements": 4369,
  "\u2581gretig": 4370,
  "\u2581all\u00e9": 4371,
  "\u2581pr\u00eats": 4372,
  "\u2581rekenaar": 4373,
  "\u2581aspects": 4374,
  "\u2581cancer": 4375,
  "\u2581emosies": 4376,
  "\u2581tekste": 4377,
  "\u2581Almal": 4378,
  "\u2581Toutes": 4379,
  "\u2581Verder": 4380,
  "\u2581reprendre": 4381,
  "tri": 4382,
  "\u2581Voulez": 4383,
  "\u2581objets": 4384,
  "\u25818]": 4385,
  "\u2581Bybelstudente": 4386,
  "\u2581contacts": 4387,
  "\u2581koste": 4388,
  "\u2581c\u00e9l\u00e8bre": 4389,
  "\u2581gewillig": 4390,
  "\u2581persoonlik": 4391,
  "\u2581pourra": 4392,
  "\u2581r\u00e8gles": 4393,
  "\u2581suivantes": 4394,
  "\u2581verhaal": 4395,
  "\u2581November": 4396,
  "\u2581largement": 4397,
  "\u2581r\u00e9cits": 4398,
  "avec": 4399,
  "\u2581mening": 4400,
  "\u2581suffit": 4401,
  "pl": 4402,
  "\u2581p\u00e8res": 4403,
  "\u2581traiter": 4404,
  "\u2581Bestuursliggaam": 4405,
  "assurance": 4406,
  "\u2581d\u00edt": 4407,
  "\u2581patient": 4408,
  "\u2581poursuivre": 4409,
  "\u2581silwer": 4410,
  "\u2581utiles": 4411,
  "\u2581gepubliseer": 4412,
  "\u2581illustrasie": 4413,
  "\u2581instructions": 4414,
  "\u2581suivent": 4415,
  "\u2581\u00eeles": 4416,
  "\u25811994": 4417,
  "\u2581interessant": 4418,
  "\u2581offer": 4419,
  "od": 4420,
  "va": 4421,
  "\u2581Rien": 4422,
  "\u2581cherchent": 4423,
  "\u2581mont": 4424,
  "\u2581rejeter": 4425,
  "\u2581scientifique": 4426,
  "\u25811989": 4427,
  "\u2581dadelik": 4428,
  "\u2581Hitler": 4429,
  "\u2581ewigheid": 4430,
  "\u2581oorgedra": 4431,
  "\u2581pla\u00eet": 4432,
  "\u2581portes": 4433,
  "\u2581No\u00ebl": 4434,
  "\u2581affaire": 4435,
  "\u2581physiques": 4436,
  "ling": 4437,
  "\u2581m\u00e9rite": 4438,
  "\u2581Finalement": 4439,
  "\u2581skat": 4440,
  "\u2581versamel": 4441,
  "groot": 4442,
  "m\u00e9": 4443,
  "\u2581convient": 4444,
  "\u2581geleidelik": 4445,
  "\u2581moindre": 4446,
  "\u2581professor": 4447,
  "ive": 4448,
  "\u00e9ducation": 4449,
  "\u2581Ar": 4450,
  "\u2581Cor": 4451,
  "\u2581gevangenis": 4452,
  "\u2581pasi\u00ebnte": 4453,
  "\u2581regtig": 4454,
  "\u2581re\u00ebl": 4455,
  "\u2581doux": 4456,
  "\u2581individue": 4457,
  "\u2581ph\u00e9nom\u00e8ne": 4458,
  "\u2581restent": 4459,
  "\u2581gevaarlik": 4460,
  "\u2581let": 4461,
  "\u2581voormalige": 4462,
  "Tu": 4463,
  "\u2581DVD": 4464,
  "\u2581bejaardes": 4465,
  "\u2581indispensable": 4466,
  "\u00e9volution": 4467,
  "\u2581bateau": 4468,
  "\u2581sing": 4469,
  "\u2581spraak": 4470,
  "\u2581bed": 4471,
  "\u2581profesie\u00eb": 4472,
  "\u2581reisende": 4473,
  "\u25811999": 4474,
  "\u2581blyk": 4475,
  "\u2581fondement": 4476,
  "\u2581allaient": 4477,
  "\u2581egpaar": 4478,
  "\u2581plaire": 4479,
  "\u2581quotidien": 4480,
  "\u2581tabac": 4481,
  "\u2581table": 4482,
  "\u2581victoire": 4483,
  "lig": 4484,
  "\u2581geduld": 4485,
  "\u2581humbles": 4486,
  "\u2581ministre": 4487,
  "oll\u00e8ge": 4488,
  "\u2581Ta": 4489,
  "\u2581promise": 4490,
  "ac": 4491,
  "\u2581diff\u00e9rent": 4492,
  "\u2581esclave": 4493,
  "\u2581fournit": 4494,
  "\u2581verlore": 4495,
  "Antiquit\u00e9": 4496,
  "\u258123,": 4497,
  "\u2581Ware": 4498,
  "\u2581tesame": 4499,
  "\u2581Faites": 4500,
  "\u2581romain": 4501,
  "t\u00e9": 4502,
  "\u2581gereis": 4503,
  "\u2581steun": 4504,
  "asie": 4505,
  "\u25811945": 4506,
  "\u2581chagrin": 4507,
  "\u2581ao\u00fbt": 4508,
  "\u2581Per": 4509,
  "\u2581histoire": 4510,
  "\u2581parfaitement": 4511,
  "\u2581perspective": 4512,
  "\u2581skenk": 4513,
  "Stencil": 4514,
  "dans": 4515,
  "\u2581duisternis": 4516,
  "\u2581nogtans": 4517,
  "\u2581subir": 4518,
  "mon": 4519,
  "\u2581Alice": 4520,
  "\u2581Britse": 4521,
  "\u2581Land": 4522,
  "\u2581WAT": 4523,
  "\u2581principale": 4524,
  "p\u00e9": 4525,
  "\u2581apprennent": 4526,
  "\u2581atmosfeer": 4527,
  "\u2581honte": 4528,
  "\u2581totalement": 4529,
  "\u2581planeet": 4530,
  "\u2581rendez": 4531,
  "\u2581respekteer": 4532,
  "\u2581www": 4533,
  "ub": 4534,
  "\u2581Kinders": 4535,
  "\u2581domicile": 4536,
  "\u2581mit": 4537,
  "\u2581ontsaglike": 4538,
  "\u2581soumis": 4539,
  "\u2581version": 4540,
  "\u2581verskriklike": 4541,
  "\u2581voisins": 4542,
  "\u2581mari\u00e9s": 4543,
  "accomplissement": 4544,
  "\u2581payer": 4545,
  "\u2581soewereiniteit": 4546,
  "\u2581spanning": 4547,
  "and": 4548,
  "ik": 4549,
  "\u2581arbre": 4550,
  "\u2581berger": 4551,
  "aimer": 4552,
  "ud": 4553,
  "\u2581gebaseer": 4554,
  "\u00eb": 4555,
  "\u2581Sion": 4556,
  "\u2581os": 4557,
  "\u2581pr\u00e9vu": 4558,
  "\u2581skyn": 4559,
  "\u2581volwasse": 4560,
  "accomplir": 4561,
  "\u258123:": 4562,
  "\u2581Avez": 4563,
  "\u2581continu\u00e9": 4564,
  "\u2581finansi\u00eble": 4565,
  "\u2581gereelde": 4566,
  "\u2581skei": 4567,
  "\u2581animal": 4568,
  "\u2581avis\u00e9": 4569,
  "\u2581vermaan": 4570,
  "mp": 4571,
  "sse": 4572,
  "\u2581Colossiens": 4573,
  "\u2581dites": 4574,
  "\u2581efficace": 4575,
  "\u2581fleurs": 4576,
  "\u2581nourrir": 4577,
  "\u2581rouge": 4578,
  "\u2581sinc\u00e8res": 4579,
  "\u258146": 4580,
  "\u2581Februarie": 4581,
  "\u2581Bretagne": 4582,
  "\u2581Russell": 4583,
  "\u2581daad": 4584,
  "\u2581t\u00e9l\u00e9phone": 4585,
  "adresse": 4586,
  "\u2581IS": 4587,
  "\u2581bewoon": 4588,
  "\u2581daaruit": 4589,
  "\u2581enseignants": 4590,
  "\u2581faim": 4591,
  "\u2581aanleiding": 4592,
  "\u2581fix\u00e9": 4593,
  "\u2581m\u00e9dicaments": 4594,
  "\u2581verwerk": 4595,
  "\u2581d\u00e9pend": 4596,
  "\u2581guider": 4597,
  "\u2581souffrir": 4598,
  "\u2581Pro": 4599,
  "\u2581aanraking": 4600,
  "\u2581allons": 4601,
  "\u2581bowe": 4602,
  "\u2581cess\u00e9": 4603,
  "\u2581vorme": 4604,
  "tyd": 4605,
  "\u258112]": 4606,
  "\u2581antique": 4607,
  "\u2581calme": 4608,
  "\u2581circonscription": 4609,
  "\u2581emp\u00eacher": 4610,
  "\u2581fournir": 4611,
  "\u2581gar\u00e7ons": 4612,
  "\u2581pensez": 4613,
  "\u2581chaleur": 4614,
  "\u2581difficult\u00e9": 4615,
  "\u2581gelewer": 4616,
  "\u2581lojale": 4617,
  "\u2581pr\u00e9sent\u00e9": 4618,
  "\u2581rigting": 4619,
  "\u2581slotsom": 4620,
  "encadr\u00e9": 4621,
  "\u2581description": 4622,
  "\u2581jeux": 4623,
  "\u2581sekul\u00eare": 4624,
  "\u2581muur": 4625,
  "\u2581nege": 4626,
  "\u2581universiteit": 4627,
  "\u2581verdedig": 4628,
  "\u2581woestyn": 4629,
  "My": 4630,
  "\u2581gesprek": 4631,
  "\u2581pleeg": 4632,
  "\u2581subi": 4633,
  "\u2581beskrywing": 4634,
  "\u2581proses": 4635,
  "\u2581saisir": 4636,
  "\u2581toeneem": 4637,
  "\u2581S\u00ea": 4638,
  "\u2581cri": 4639,
  "\u2581droom": 4640,
  "\u2581video": 4641,
  "\u2581\u00e9trangers": 4642,
  "espace": 4643,
  "vol": 4644,
  "\u2581hare": 4645,
  "\u2581herder": 4646,
  "\u2581spiritualit\u00e9": 4647,
  "ach": 4648,
  "\u2581Wes": 4649,
  "\u2581geheel": 4650,
  "\u2581marier": 4651,
  "\u2581principalement": 4652,
  "\u2581Universiteit": 4653,
  "\u2581chant": 4654,
  "\u2581coeur": 4655,
  "\u2581conception": 4656,
  "\u2581magtige": 4657,
  "\u2581onvolmaakte": 4658,
  "\u2581tente": 4659,
  "\u2581tribus": 4660,
  "he": 4661,
  "\u2581Leer": 4662,
  "\u2581maan": 4663,
  "\u2581surprise": 4664,
  "sverkondigers": 4665,
  "\u2581d\u00e9signe": 4666,
  "\u2581envoy\u00e9s": 4667,
  "\u2581manifest\u00e9": 4668,
  "On": 4669,
  "\u2581croyants": 4670,
  "\u2581helder": 4671,
  "\u2581meisies": 4672,
  "Am\u00e9rique": 4673,
  "\u2581take": 4674,
  "\u2581andere": 4675,
  "hy": 4676,
  "\u25811988": 4677,
  "\u2581doctrine": 4678,
  "\u2581eienskap": 4679,
  "\u2581ondergaan": 4680,
  "\u2581prises": 4681,
  "\u2581promet": 4682,
  "\u2581t\u00e9n\u00e8bres": 4683,
  "\u2581las": 4684,
  "\u2581peins": 4685,
  "\u2581sc\u00e8ne": 4686,
  "endroit": 4687,
  "\u2581gepleeg": 4688,
  "\u2581gooi": 4689,
  "\u2581souffrance": 4690,
  "=": 4691,
  "tique": 4692,
  "vis": 4693,
  "za": 4694,
  "\u2581Imaginez": 4695,
  "\u2581keiser": 4696,
  "ap": 4697,
  "\u2581course": 4698,
  "\u2581oefen": 4699,
  "\u2581rare": 4700,
  "8": 4701,
  "\u2581d\u00e9cider": 4702,
  "DE": 4703,
  "\u2581Bybelwaarheid": 4704,
  "\u2581tu\u00e9": 4705,
  "a\u00ef": 4706,
  "\u2581arriv\u00e9e": 4707,
  "\u2581confi\u00e9": 4708,
  "\u2581p\u00e9riodique": 4709,
  "utiliser": 4710,
  "\u2581autrefois": 4711,
  "\u2581dangers": 4712,
  "\u2581d\u00e9tresse": 4713,
  "\u2581end": 4714,
  "\u2581grootte": 4715,
  "\u2581\u00f3f": 4716,
  "\u2581touche": 4717,
  "behoewe": 4718,
  "\u2581Soyez": 4719,
  "\u2581kultuur": 4720,
  "\u2581monter": 4721,
  "\u2581verleen": 4722,
  "\u2581volmaak": 4723,
  "\u2581Armageddon": 4724,
  "\u2581Mexique": 4725,
  "\u2581arr\u00eat\u00e9": 4726,
  "\u2581ure": 4727,
  "\u2581chambre": 4728,
  "\u2581pluie": 4729,
  "\u2581ywerige": 4730,
  "ip": 4731,
  "ven": 4732,
  "\u2581agi": 4733,
  "\u2581pr\u00e9": 4734,
  "\u2581ressources": 4735,
  "ins": 4736,
  "\u2581carte": 4737,
  "\u2581d\u00e9luge": 4738,
  "\u2581procurer": 4739,
  "\u2581saints": 4740,
  "\u2581streekbyeenkoms": 4741,
  "\u2581s\u00e9rie": 4742,
  "\u2581\u00c7a": 4743,
  "hi": 4744,
  "\u2581d\u00e9s": 4745,
  "\u2581godsdiensleiers": 4746,
  "\u2581invit\u00e9": 4747,
  "\u2581oes": 4748,
  "\u2581wend": 4749,
  "\u2581belange": 4750,
  "\u2581contexte": 4751,
  "\u2581forc\u00e9ment": 4752,
  "\u2581waaraan": 4753,
  "fin": 4754,
  "\u00e9n": 4755,
  "\u2581hoeveelheid": 4756,
  "\u2581idees": 4757,
  "\u258132.": 4758,
  "\u2581Exode": 4759,
  "\u2581accompli": 4760,
  "\u2581commerce": 4761,
  "\u2581continuent": 4762,
  "\u2581croissance": 4763,
  "\u2581joyeux": 4764,
  "\u2581permanent": 4765,
  "exp\u00e9rience": 4766,
  "\u2581propos\u00e9": 4767,
  "\u2581verbasend": 4768,
  "enseigne": 4769,
  "\u2581bataille": 4770,
  "\u2581discernement": 4771,
  "\u2581juis": 4772,
  "\u25811985": 4773,
  "\u2581apparemment": 4774,
  "\u2581apport\u00e9": 4775,
  "\u2581pos\u00e9": 4776,
  "\u2581vaders": 4777,
  "ateur": 4778,
  "ue": 4779,
  "\u2581OF": 4780,
  "\u2581anglais": 4781,
  "\u2581conserver": 4782,
  "\u2581directeur": 4783,
  "\u2581juger": 4784,
  "\u2581pr\u00e9server": 4785,
  "\u2581uitnodiging": 4786,
  "\u2581donnant": 4787,
  "\u2581gelykenis": 4788,
  "\u2581gere\u00ebl": 4789,
  "\u2581gewig": 4790,
  "\u2581ruk": 4791,
  "\u2581volontiers": 4792,
  "lant": 4793,
  "\u2581punte": 4794,
  "\u2581r\u00e9aliser": 4795,
  "\u2581voyez": 4796,
  "The": 4797,
  "\u2581China": 4798,
  "\u2581gesalfdes": 4799,
  "\u2581hoofstad": 4800,
  "\u2581lisons": 4801,
  "\u2581navorsers": 4802,
  "\u2581poussi\u00e8re": 4803,
  "\u2581p\u00e9cheurs": 4804,
  "\u2581tenue": 4805,
  "ber": 4806,
  "bly": 4807,
  "jo": 4808,
  "\u258132:": 4809,
  "\u2581Goeie": 4810,
  "\u2581Ruth": 4811,
  "\u2581abandonn\u00e9": 4812,
  "\u2581souhaitez": 4813,
  "ug": 4814,
  "\u2581adulte": 4815,
  "\u2581affection": 4816,
  "\u2581enkele": 4817,
  "\u2581former": 4818,
  "\u2581pierres": 4819,
  "\u2581rue": 4820,
  "\u2581blywende": 4821,
  "\u2581gedruk": 4822,
  "\u2581toegepas": 4823,
  "\u2581Ps": 4824,
  "\u2581bekende": 4825,
  "\u2581reconna\u00eet": 4826,
  "\u2581Ouers": 4827,
  "\u2581donna": 4828,
  "\u2581elk": 4829,
  "\u2581gevaarlike": 4830,
  "\u2581heidense": 4831,
  "\u2581sexe": 4832,
  "\u2581soyons": 4833,
  "TE": 4834,
  "\u2581beloon": 4835,
  "\u2581convaincu": 4836,
  "\u2581crise": 4837,
  "\u2581gevoer": 4838,
  "\u2581sinc\u00e8re": 4839,
  "\u2581waaronder": 4840,
  "Hoe": 4841,
  "ll": 4842,
  "utilisation": 4843,
  "\u2581Gilead": 4844,
  "\u2581court": 4845,
  "\u2581encourag\u00e9": 4846,
  "\u2581gewonder": 4847,
  "\u2581inspanning": 4848,
  "\u2581national": 4849,
  "\u2581victime": 4850,
  "\u2581DIT": 4851,
  "\u2581genot": 4852,
  "\u2581graf": 4853,
  "\u2581guide": 4854,
  "\u2581suiwer": 4855,
  "h\u00f4pital": 4856,
  "\u2581actuelle": 4857,
  "\u2581demeurer": 4858,
  "\u2581r\u00e9flexion": 4859,
  "\u2581sabbat": 4860,
  "\u2581vriendelik": 4861,
  "dit": 4862,
  "tiese": 4863,
  "\u2581Pharisiens": 4864,
  "\u2581[...].": 4865,
  "\u2581individu": 4866,
  "\u2581offert": 4867,
  "\u2581vergifnis": 4868,
  "Quand": 4869,
  "\u2581(%": 4870,
  "\u2581M\u00e9morial": 4871,
  "\u2581aanvanklik": 4872,
  "\u2581c\u00f4te": 4873,
  "\u2581lange": 4874,
  "\u2581vergroot": 4875,
  "\u2581Am\u00e9rique": 4876,
  "\u2581con\u00e7u": 4877,
  "\u2581disciple": 4878,
  "\u2581omgang": 4879,
  "su": 4880,
  "\u2581Affiche": 4881,
  "\u2581Ko": 4882,
  "\u2581Thomas": 4883,
  "\u2581getuies": 4884,
  "\u2581revenir": 4885,
  "\u2581toegewy": 4886,
  "\u2581waters": 4887,
  "\u2581excellent": 4888,
  "\u2581fallu": 4889,
  "\u2581moontlikheid": 4890,
  "\u2581signification": 4891,
  "pp": 4892,
  "\u2581Min": 4893,
  "\u2581myself": 4894,
  "isse": 4895,
  "\u2581Combien": 4896,
  "\u2581somme": 4897,
  "\u2581wek": 4898,
  "\u2581gekoop": 4899,
  "environnement": 4900,
  "\u2581deviendra": 4901,
  "\u2581importance": 4902,
  "\u2581puissante": 4903,
  "\u2581rapide": 4904,
  "\u2581smaak": 4905,
  "\u2581appel\u00e9s": 4906,
  "\u2581geskiedkundige": 4907,
  "\u2581hiermee": 4908,
  "\u2581slag": 4909,
  "\u2581president": 4910,
  "\u2581toegewyde": 4911,
  "\u2581uitvind": 4912,
  "\u2581Nazi": 4913,
  "\u2581Niemand": 4914,
  "\u2581champs": 4915,
  "\u2581herders": 4916,
  "\u2581rondom": 4917,
  "agissait": 4918,
  "ami": 4919,
  "\u258151": 4920,
  "\u2581demandent": 4921,
  "\u2581donnera": 4922,
  "\u2581gu\u00e8re": 4923,
  "\u2581volontaires": 4924,
  "ist": 4925,
  "\u2581Lui": 4926,
  "\u2581campagne": 4927,
  "\u2581consid\u00e8rent": 4928,
  "\u2581del\u00e0": 4929,
  "humains": 4930,
  "lin": 4931,
  "\u2581b\u00e9n\u00e9ficier": 4932,
  "\u2581dos": 4933,
  "\u2581papa": 4934,
  "\u2581pr\u00e9dit": 4935,
  "\u2581publique": 4936,
  "\u2581utilise": 4937,
  "kan": 4938,
  "\u2581gaz": 4939,
  "\u2581m\u00e9thodes": 4940,
  "\u2581Me": 4941,
  "\u2581louer": 4942,
  "\u2581paaie": 4943,
  "\u2581r\u00e9soudre": 4944,
  "\u2581wen": 4945,
  "\u2581ontwikkeling": 4946,
  "\u2581stuk": 4947,
  "\u2581Ag": 4948,
  "\u2581Co": 4949,
  "\u2581adresses": 4950,
  "\u2581baptis\u00e9": 4951,
  "\u2581liefgehad": 4952,
  "\u2581moisson": 4953,
  "\u2581tiennent": 4954,
  "\u2581verdeel": 4955,
  "\u2581divines": 4956,
  "\u2581mislei": 4957,
  "\u2581m\u00e9decine": 4958,
  "\u2581passent": 4959,
  "\u2581rug": 4960,
  "\u2581tuiste": 4961,
  "\u2581versekering": 4962,
  "huile": 4963,
  "\u2581Oos": 4964,
  "\u2581Sch": 4965,
  "\u2581double": 4966,
  "\u2581kommunikeer": 4967,
  "\u2581soucie": 4968,
  "ign": 4969,
  "\u2581Ongelukkig": 4970,
  "\u2581UN": 4971,
  "\u2581bedank": 4972,
  "\u2581erreurs": 4973,
  "\u2581seconde": 4974,
  "\u2581Simon": 4975,
  "\u2581blote": 4976,
  "\u2581egskeiding": 4977,
  "\u2581oublier": 4978,
  "\u2581aanneem": 4979,
  "\u2581dimanche": 4980,
  "\u2581instrument": 4981,
  "\u2581klip": 4982,
  "\u2581Coup": 4983,
  "\u2581acqu\u00e9rir": 4984,
  "\u2581appel\u00e9e": 4985,
  "\u2581avis": 4986,
  "\u2581vide": 4987,
  "\u2581assur\u00e9ment": 4988,
  "\u2581bedreig": 4989,
  "\u2581doodmaak": 4990,
  "\u2581jeug": 4991,
  "\u2581le\u00e7ons": 4992,
  "\u2581oorwinning": 4993,
  "\u2581relativement": 4994,
  "\u2581\u00e9gard": 4995,
  "cha": 4996,
  "\u00ed": 4997,
  "\u2581>": 4998,
  "\u2581Tel": 4999,
  "\u2581eerlik": 5000,
  "\u2581vergader": 5001,
  "val": 5002,
  "\u2581conflits": 5003,
  "\u2581patients": 5004,
  "\u2581pr\u00e9cis": 5005,
  "\u2581reprises": 5006,
  "\u2581rest\u00e9": 5007,
  "\u2581vanaf": 5008,
  "\u2581\u00e9tudi\u00e9": 5009,
  "\u2581d\u00e9truit": 5010,
  "\u2581geloop": 5011,
  "\u2581souffrent": 5012,
  "ley": 5013,
  "\u2581Jong": 5014,
  "\u2581adresse": 5015,
  "\u2581herhaaldelik": 5016,
  "ty": 5017,
  "\u00e9p\u00e9e": 5018,
  "\u2581babas": 5019,
  "\u2581bure": 5020,
  "\u2581instruction": 5021,
  "\u2581moeg": 5022,
  "\u2581plat": 5023,
  "\u2581stadig": 5024,
  "\u2581suit": 5025,
  "net": 5026,
  "\u2581KDE": 5027,
  "\u2581coups": 5028,
  "\u2581effectivement": 5029,
  "\u2581feuilles": 5030,
  "\u2581offerande": 5031,
  "\u2581parlant": 5032,
  "\u2581pensait": 5033,
  "\u2581vreemde": 5034,
  "\u2581hoogte": 5035,
  "\u2581ontslae": 5036,
  "\u2581retourner": 5037,
  "Hulle": 5038,
  "\u2581assistants": 5039,
  "\u2581constituent": 5040,
  "\u2581ingestel": 5041,
  "\u2581ongeregtigheid": 5042,
  "\u2581supr\u00eame": 5043,
  "\u2581verhinder": 5044,
  "\u2581v\u00e9ritables": 5045,
  "aurait": 5046,
  "\u00e9couter": 5047,
  "\u2581slagoffer": 5048,
  "immoralit\u00e9": 5049,
  "\u2581esprits": 5050,
  "\u2581huil": 5051,
  "\u2581repos": 5052,
  "pro": 5053,
  "\u2581Dankie": 5054,
  "\u2581Engelse": 5055,
  "\u2581beloning": 5056,
  "\u2581blanc": 5057,
  "\u2581pourrions": 5058,
  "\u2581acte": 5059,
  "\u2581ange": 5060,
  "\u2581causes": 5061,
  "\u2581imparfaits": 5062,
  "\u2581poissons": 5063,
  "\u2581renvoie": 5064,
  "\u2581Puissant": 5065,
  "\u2581Quoi": 5066,
  "\u2581argent": 5067,
  "\u2581exerce": 5068,
  "\u2581merveilleuse": 5069,
  "\u2581sup\u00e9rieure": 5070,
  "Ce": 5071,
  "\u2581arriv\u00e9s": 5072,
  "\u2581pression": 5073,
  "ium": 5074,
  "\u2581juifs": 5075,
  "\u2581meebring": 5076,
  "\u2581selfde": 5077,
  "\u2581semblait": 5078,
  "\u2581vienne": 5079,
  "\u2581vivants": 5080,
  "\u2581Paris": 5081,
  "\u2581encourager": 5082,
  "\u2581oppervlak": 5083,
  "\u25812002": 5084,
  "\u2581barre": 5085,
  "\u2581moral": 5086,
  "\u2581total": 5087,
  "\u25812)": 5088,
  "\u2581HET": 5089,
  "\u2581eendag": 5090,
  "\u2581examen": 5091,
  "\u2581gegooi": 5092,
  "\u2581laissent": 5093,
  "\u2581longues": 5094,
  "\u2581novembre": 5095,
  "entr\u00e9e": 5096,
  "\u2581aangehou": 5097,
  "\u2581britannique": 5098,
  "\u2581conviction": 5099,
  "\u2581c\u0153urs": 5100,
  "\u2581f\u00e9vrier": 5101,
  "\u2581t\u00e9moigne": 5102,
  "Est": 5103,
  "\u25811996": 5104,
  "\u2581History": 5105,
  "\u2581exprim\u00e9": 5106,
  "\u2581slawerny": 5107,
  "\u2581verbrand": 5108,
  "\u2581kanker": 5109,
  "\u2581silence": 5110,
  "ica": 5111,
  "\u2581exercer": 5112,
  "\u2581kommentaar": 5113,
  "\u2581m\u00e9thode": 5114,
  "ker": 5115,
  "ring": 5116,
  "tre": 5117,
  "\u2581compagnon": 5118,
  "\u2581complet": 5119,
  "\u2581consolation": 5120,
  "\u2581gang": 5121,
  "\u2581geveg": 5122,
  "\u2581mat\u00e9riels": 5123,
  "\u2581nooi": 5124,
  "\u2581pous": 5125,
  "\u2581surpris": 5126,
  "\u2581oorblyfsel": 5127,
  "\u2581pr\u00e9dicateurs": 5128,
  "\u2581\u00e8": 5129,
  "\u2581...": 5130,
  "\u2581beplan": 5131,
  "\u2581particuli\u00e8re": 5132,
  "\u2581pi\u00e8ge": 5133,
  "\u2581transfusion": 5134,
  "Lire": 5135,
  "Un": 5136,
  "fi": 5137,
  "ger": 5138,
  "\u2581site": 5139,
  "affection": 5140,
  "\u2581120": 5141,
  "\u2581ge\u00efnspireer": 5142,
  "\u2581gesondig": 5143,
  "\u2581re\u00ebling": 5144,
  "\u2581souvient": 5145,
  "han": 5146,
  "\u2581News": 5147,
  "\u2581cheveux": 5148,
  "\u2581d\u00e9truire": 5149,
  "\u2581skadelike": 5150,
  "\u2581stry": 5151,
  "\u2581toename": 5152,
  "\u2581tradisionele": 5153,
  "\u2581volume": 5154,
  "\u2581\u00e9conomique": 5155,
  "\u2581\u00e9preuve": 5156,
  "UN": 5157,
  "exercice": 5158,
  "usage": 5159,
  "\u2581800": 5160,
  "\u2581Skryf": 5161,
  "\u2581XXsi\u00e8cle": 5162,
  "\u2581aanmoediging": 5163,
  "\u2581poste": 5164,
  "\u2581visioen": 5165,
  "\u2581Entre": 5166,
  "\u2581existence": 5167,
  "\u2581onsedelike": 5168,
  "\u2581Open": 5169,
  "\u2581gewag": 5170,
  "\u2581juive": 5171,
  "\u2581maal": 5172,
  "\u2581ongeluk": 5173,
  "\u2581planne": 5174,
  "\u2581riglyne": 5175,
  "\u2581rots": 5176,
  "\u2581Talle": 5177,
  "\u2581[\"": 5178,
  "\u2581bydra": 5179,
  "\u2581goddeloosheid": 5180,
  "\u2581lutter": 5181,
  "\u2581toucher": 5182,
  "\u258120]": 5183,
  "\u2581gras": 5184,
  "\u2581hegte": 5185,
  "\u2581normal": 5186,
  "\u25811998": 5187,
  "\u2581D\u00e9": 5188,
  "\u2581heerser": 5189,
  "\u2581hoogste": 5190,
  "\u2581intelligence": 5191,
  "\u2581langage": 5192,
  "\u2581omgee": 5193,
  "ouvrir": 5194,
  "\u2581Am": 5195,
  "\u2581Japannese": 5196,
  "\u2581Michael": 5197,
  "\u2581Washington": 5198,
  "\u2581band": 5199,
  "\u2581vergelyking": 5200,
  "ten": 5201,
  "\u25811986": 5202,
  "\u25812001": 5203,
  "\u2581erger": 5204,
  "\u2581ignoreer": 5205,
  "\u2581lait": 5206,
  "\u2581119": 5207,
  "\u2581descendants": 5208,
  "\u2581miracles": 5209,
  "\u2581permanente": 5210,
  "\u2581proef": 5211,
  "\u2581re\u00e7oivent": 5212,
  "\u258175": 5213,
  "\u2581inneem": 5214,
  "\u2581kleiner": 5215,
  "\u2581logique": 5216,
  "opposition": 5217,
  "\u2581Spaanse": 5218,
  "\u2581aspect": 5219,
  "\u2581gekyk": 5220,
  "\u2581metgeselle": 5221,
  "\u2581pionierdiens": 5222,
  "\u2581sources": 5223,
  "\u2581zone": 5224,
  "\u2581naturelle": 5225,
  "\u2581besoekers": 5226,
  "\u2581conduire": 5227,
  "\u2581opname": 5228,
  "\u2581pouss\u00e9": 5229,
  "\u2581tir\u00e9": 5230,
  "EZ": 5231,
  "\u00f3": 5232,
  "\u2581Nasies": 5233,
  "\u2581avertissement": 5234,
  "\u2581doeltreffend": 5235,
  "\u2581ressort": 5236,
  "\u2581r\u00e9duire": 5237,
  "avance": 5238,
  "com": 5239,
  "\u258144": 5240,
  "\u2581moontlike": 5241,
  "\u2581rencontrer": 5242,
  "\u2581r\u00e9pondit": 5243,
  "og": 5244,
  "\u2581Konings": 5245,
  "\u2581briewe": 5246,
  "IE": 5247,
  "\u2581argief": 5248,
  "\u2581b\u00eates": 5249,
  "hou": 5250,
  "\u2581port\u00e9e": 5251,
  "\u2581voyant": 5252,
  "\u2581behulp": 5253,
  "\u2581production": 5254,
  "Wanneer": 5255,
  "effet": 5256,
  "\u2581pouvais": 5257,
  "\u2581coucher": 5258,
  "\u2581veg": 5259,
  "\u2581vermo\u00ebns": 5260,
  "ables": 5261,
  "\u00e9g": 5262,
  "\u2581Australie": 5263,
  "\u2581betroubare": 5264,
  "\u2581bygedra": 5265,
  "\u2581hoerery": 5266,
  "CE": 5267,
  "IT": 5268,
  "\u258133:": 5269,
  "\u2581Nogtans": 5270,
  "\u2581Rusland": 5271,
  "\u2581Vertoon": 5272,
  "\u2581gratuitement": 5273,
  "\u2581maatskaplike": 5274,
  "\u2581pousser": 5275,
  "\u2581ressuscit\u00e9": 5276,
  "\u258172": 5277,
  "\u2581Ook": 5278,
  "\u2581Rois": 5279,
  "\u2581mees": 5280,
  "\u2581portent": 5281,
  "\u2581sp\u00e9cialiste": 5282,
  "\u2581uitgeroep": 5283,
  "\u2581wapens": 5284,
  "oc": 5285,
  "\u258152": 5286,
  "\u2581byeenkomste": 5287,
  "\u2581invit\u00e9s": 5288,
  "\u2581port": 5289,
  "\u2581geneentheid": 5290,
  "\u2581somer": 5291,
  "entendre": 5292,
  "tar": 5293,
  "\u2581aident": 5294,
  "\u2581aspek": 5295,
  "\u2581blomme": 5296,
  "\u2581exprimer": 5297,
  "toe": 5298,
  "\u2581crois": 5299,
  "\u2581familial": 5300,
  "\u2581gestig": 5301,
  "\u2581immense": 5302,
  "\u2581selfmoord": 5303,
  "\u2581verhoog": 5304,
  "\u2581wete": 5305,
  "\u2581arme": 5306,
  "\u2581opsieners": 5307,
  "\u2581rues": 5308,
  "\u2581stroom": 5309,
  "\u2581teenstand": 5310,
  "\u2581\u00e9toiles": 5311,
  "\u2581Abel": 5312,
  "\u2581Iemand": 5313,
  "\u2581Trinit\u00e9": 5314,
  "\u2581heer": 5315,
  "\u2581laissez": 5316,
  "\u2581leuens": 5317,
  "\u2581tiers": 5318,
  "\u2581verbreek": 5319,
  "\u00e9tranger": 5320,
  "\u2581daardeur": 5321,
  "\u2581for\u00eats": 5322,
  "\u2581nederige": 5323,
  "\u2581permettra": 5324,
  "\u2581selle": 5325,
  "\u2581stamme": 5326,
  "\u2581techniques": 5327,
  "\u2581Isak": 5328,
  "\u2581Nisan": 5329,
  "\u2581hieroor": 5330,
  "\u2581kamer": 5331,
  "\u2581midde": 5332,
  "\u2581militaire": 5333,
  "\u2581naturel": 5334,
  "\u2581r\u00eave": 5335,
  "\u2581am\u00e9ricaine": 5336,
  "\u2581faudra": 5337,
  "\u2581h\u00e9ritage": 5338,
  "\u2581offrandes": 5339,
  "\u2581tourner": 5340,
  "Allemagne": 5341,
  "ep": 5342,
  "sboodskap": 5343,
  "\u2581cl\u00e9": 5344,
  "\u2581mettertyd": 5345,
  "\u2581simples": 5346,
  "enseigner": 5347,
  "\u2581City": 5348,
  "\u2581Personne": 5349,
  "\u2581dank": 5350,
  "\u2581dignit\u00e9": 5351,
  "\u2581puissent": 5352,
  "\u2581rappeler": 5353,
  "attendre": 5354,
  "\u2581indruk": 5355,
  "\u2581ministres": 5356,
  "\u2581organismes": 5357,
  "\u2581voorsiening": 5358,
  "i\u00eb": 5359,
  "uc": 5360,
  "\u2581700": 5361,
  "\u2581Richard": 5362,
  "\u2581ma\u00eetriser": 5363,
  "\u2581oreilles": 5364,
  "\u2581venant": 5365,
  "\u2581vet": 5366,
  "\u2581vois": 5367,
  "\u2581Farao": 5368,
  "\u2581bloedoortapping": 5369,
  "\u2581welslae": 5370,
  "\u2581Questions": 5371,
  "\u2581adorer": 5372,
  "\u2581d\u00e9termination": 5373,
  "\u2581televisie": 5374,
  "\u2581aard": 5375,
  "\u2581brosjure": 5376,
  "\u2581profetiese": 5377,
  "\u2581puisqu": 5378,
  "AL": 5379,
  "\u2581Her": 5380,
  "\u2581nee": 5381,
  "\u2581Doen": 5382,
  "\u2581appartient": 5383,
  "tte": 5384,
  "\u2581Griekeland": 5385,
  "\u2581SE": 5386,
  "\u2581Sainte": 5387,
  "\u2581gesprekke": 5388,
  "\u2581nadink": 5389,
  "\u2581verlies": 5390,
  "kom": 5391,
  "\u258119]": 5392,
  "\u2581Nom": 5393,
  "\u2581dirigeants": 5394,
  "\u2581forts": 5395,
  "\u2581merkwaardige": 5396,
  "\u2581p\u00e9riodiques": 5397,
  "\u2581Do": 5398,
  "\u2581Eerstens": 5399,
  "\u2581Galil\u00e9e": 5400,
  "\u2581Jona": 5401,
  "\u2581Peter": 5402,
  "\u2581Souvent": 5403,
  "\u2581Trac": 5404,
  "\u2581constater": 5405,
  "\u2581marque": 5406,
  "\u2581mat\u00e9riel": 5407,
  "\u2581terrain": 5408,
  "Kyk": 5409,
  "\u2581afvra": 5410,
  "\u2581fornication": 5411,
  "\u2581gewelddadige": 5412,
  "\u2581kosbaar": 5413,
  "\u2581lewend": 5414,
  "\u2581rekening": 5415,
  "\u2581sondig": 5416,
  "\u2581vouloir": 5417,
  "ika": 5418,
  "mar": 5419,
  "\u2581Vra": 5420,
  "\u2581compl\u00e8te": 5421,
  "\u2581dispara\u00eetre": 5422,
  "\u2581leiers": 5423,
  "\u2581pauvre": 5424,
  "\u2581tekens": 5425,
  "\u2581voornemens": 5426,
  "orgueil": 5427,
  "\u2581am\u00e9liorer": 5428,
  "\u2581apporte": 5429,
  "\u2581vervaardig": 5430,
  "\u2581waardeur": 5431,
  "accepter": 5432,
  "\u00e9t\u00e9": 5433,
  "\u2581Klein": 5434,
  "\u2581con": 5435,
  "\u2581examiner": 5436,
  "\u2581exp\u00e9rience": 5437,
  "\u2581kern": 5438,
  "\u2581r\u00e9ussir": 5439,
  "dig": 5440,
  "obtenir": 5441,
  "\u2581beklee": 5442,
  "\u2581godsdienstige": 5443,
  "\u2581g\u00e9n\u00e9rale": 5444,
  "\u2581klink": 5445,
  "\u2581oefening": 5446,
  "\u2581richesses": 5447,
  "\u2581toegang": 5448,
  "\u2581translation": 5449,
  "iens": 5450,
  "\u2581Eden": 5451,
  "\u2581bewering": 5452,
  "\u2581enseignant": 5453,
  "\u2581gesluit": 5454,
  "\u2581herinneringe": 5455,
  "\u2581importants": 5456,
  "\u2581misluk": 5457,
  "\u2581skaars": 5458,
  "bu": 5459,
  "ras": 5460,
  "\u2581Word": 5461,
  "\u2581bene": 5462,
  "\u2581desseins": 5463,
  "\u2581discuter": 5464,
  "\u2581inspir\u00e9e": 5465,
  "\u2581intense": 5466,
  "\u2581mosa\u00efque": 5467,
  "\u2581redeneer": 5468,
  "\u2581spiritisme": 5469,
  "\u2581toenemende": 5470,
  "\u258166": 5471,
  "\u2581pr\u00e9jug\u00e9s": 5472,
  "\u2581r\u00e9jouir": 5473,
  "\u2581couche": 5474,
  "\u2581deurgebring": 5475,
  "\u2581frapp\u00e9": 5476,
  "\u2581need": 5477,
  "\u2581Seconde": 5478,
  "\u2581amen\u00e9": 5479,
  "\u2581eiendom": 5480,
  "\u2581letterlik": 5481,
  "\u2581risquent": 5482,
  "\u2581velddiens": 5483,
  "\u2581welsyn": 5484,
  "efforcent": 5485,
  "\u2581appliquer": 5486,
  "\u2581r\u00e9ussite": 5487,
  "\u2581sondige": 5488,
  "\u2581streek": 5489,
  "\u2581tentation": 5490,
  "\u2581vingt": 5491,
  "\u2581\u00c9gypte": 5492,
  "\u2581Cour": 5493,
  "\u2581bergers": 5494,
  "\u2581bestuurder": 5495,
  "\u2581imm\u00e9rit\u00e9e": 5496,
  "\u2581million": 5497,
  "\u2581opvattings": 5498,
  "tan": 5499,
  "\u2581demandez": 5500,
  "\u2581loopbaan": 5501,
  "\u2581opstaan": 5502,
  "ologie": 5503,
  "\u2581R\u00e9": 5504,
  "\u2581bruit": 5505,
  "\u2581combattre": 5506,
  "\u2581occasions": 5507,
  "\u2581ore": 5508,
  "\u2581pr\u00e9cieuse": 5509,
  "\u2581tonnes": 5510,
  "\u2581verwoes": 5511,
  "\u2581vivante": 5512,
  "hal": 5513,
  "ori": 5514,
  "\u2581Grieks": 5515,
  "\u2581dignes": 5516,
  "\u2581klim": 5517,
  "\u2581sainte": 5518,
  "\u2581weduwee": 5519,
  "\u2581Probeer": 5520,
  "\u2581fisies": 5521,
  "\u2581herhaal": 5522,
  "\u2581regter": 5523,
  "\u2581s\u00e9lectionn\u00e9": 5524,
  "pt": 5525,
  "\u258119;": 5526,
  "\u258147": 5527,
  "\u2581ONTWAAK": 5528,
  "\u2581accorde": 5529,
  "\u2581besmet": 5530,
  "\u2581geskil": 5531,
  "\u2581oortreding": 5532,
  "\u2581prononc\u00e9": 5533,
  "\u2581honneur": 5534,
  "\u2581noir": 5535,
  "\u2581r\u00e9f\u00e9rence": 5536,
  "\u2581savais": 5537,
  "\u2581tiener": 5538,
  "\u2581Hoeveel": 5539,
  "\u2581gebod": 5540,
  "\u2581reconnaissants": 5541,
  "\u2581voyons": 5542,
  "\u2581Gelukkig": 5543,
  "\u2581processus": 5544,
  "\u2581simptome": 5545,
  "\u2581traitements": 5546,
  "\u2581VAN": 5547,
  "\u2581communaut\u00e9": 5548,
  "\u2581eenkeer": 5549,
  "\u2581opgerig": 5550,
  "\u2581risiko": 5551,
  "\u2581vlak": 5552,
  "\u2581vleis": 5553,
  "50": 5554,
  "car": 5555,
  "\u2581b\u00eate": 5556,
  "\u2581ge\u00efdentifiseer": 5557,
  "\u2581kamp": 5558,
  "\u2581Heer": 5559,
  "\u2581dur\u00e9e": 5560,
  "\u2581union": 5561,
  "\u2581waak": 5562,
  "\u2581essentiel": 5563,
  "\u2581reguit": 5564,
  "\u2581arri\u00e8re": 5565,
  "\u2581b\u00e2tir": 5566,
  "\u2581climat": 5567,
  "\u2581froid": 5568,
  "\u2581kenne": 5569,
  "\u2581perde": 5570,
  "\u2581prent": 5571,
  "\u2581r\u00e9agi": 5572,
  "\u2581uitvoer": 5573,
  "\u2581vo\u00ebl": 5574,
  "\u2581\u00e2g\u00e9": 5575,
  "Moenie": 5576,
  "har": 5577,
  "iv": 5578,
  "tal": 5579,
  "\u258149": 5580,
  "\u2581MEDEWERKER": 5581,
  "\u2581Prenons": 5582,
  "\u2581cru": 5583,
  "\u2581gesing": 5584,
  "\u2581koninklike": 5585,
  "\u2581Nasional": 5586,
  "\u2581d\u00e9couverte": 5587,
  "\u2581kuns": 5588,
  "\u2581wrede": 5589,
  "\u2581bevredig": 5590,
  "\u2581conscients": 5591,
  "\u2581critique": 5592,
  "\u2581croyance": 5593,
  "\u2581wenke": 5594,
  "don": 5595,
  "\u2581American": 5596,
  "\u2581Broer": 5597,
  "\u2581Isaac": 5598,
  "\u2581fr": 5599,
  "\u2581re\u00ebls": 5600,
  "\u2581serons": 5601,
  "\u2581toneel": 5602,
  "\u2581trouvaient": 5603,
  "\u2581voed": 5604,
  "\u2581woud": 5605,
  "archive": 5606,
  "\u2581Ongeve": 5607,
  "\u2581pens\u00e9": 5608,
  "ino": 5609,
  "\u2581Genootskap": 5610,
  "\u2581habit\u00e9e": 5611,
  "\u2581portant": 5612,
  "\u2581pose": 5613,
  "\u2581sagmoedigheid": 5614,
  "\u2581teenwoordig": 5615,
  "\u2581tuisbybelstudie": 5616,
  "sch": 5617,
  "\u2581change": 5618,
  "\u2581consid\u00e9r\u00e9": 5619,
  "\u2581dirige": 5620,
  "\u2581faktor": 5621,
  "\u2581selde": 5622,
  "\u2581skip": 5623,
  "\u2581souhaite": 5624,
  "ajouter": 5625,
  "\u25811)": 5626,
  "\u2581begrawe": 5627,
  "\u2581chacune": 5628,
  "\u2581deelgeneem": 5629,
  "\u2581h\u00e9bra\u00efques": 5630,
  "\u2581pr\u00e9sents": 5631,
  ".).": 5632,
  "Asie": 5633,
  "arche": 5634,
  "\u2581Ondank": 5635,
  "\u2581grootgeword": 5636,
  "\u2581uitgaan": 5637,
  "AM": 5638,
  "OU": 5639,
  "aucun": 5640,
  "ery": 5641,
  "\u2581Ad": 5642,
  "\u2581Matt": 5643,
  "\u2581kalm": 5644,
  "\u2581r\u00e9agir": 5645,
  "\u2581versuim": 5646,
  "\u2581veuve": 5647,
  "\u2581voorwerpe": 5648,
  "ham": 5649,
  "\u258129;": 5650,
  "\u2581Guil\u00e9ad": 5651,
  "\u2581attentivement": 5652,
  "\u2581maris": 5653,
  "\u2581opsiener": 5654,
  "\u2581regs": 5655,
  "\u2581sauvage": 5656,
  "\u2581uitgevoer": 5657,
  "\u2581waarhede": 5658,
  "\u2581ET": 5659,
  "\u2581Sedert": 5660,
  "\u2581neiging": 5661,
  "\u2581noodsaaklike": 5662,
  "\u2581suivants": 5663,
  "\u2581veuille": 5664,
  "\u2581\u00e9chapper": 5665,
  "\u2581consommation": 5666,
  "\u2581offerandes": 5667,
  "\u2581altaar": 5668,
  "\u2581groen": 5669,
  "\u2581prit": 5670,
  "\u2581vreedsame": 5671,
  "ck": 5672,
  "mis": 5673,
  "\u25813]": 5674,
  "\u2581Bas": 5675,
  "\u2581Stuur": 5676,
  "\u2581concentration": 5677,
  "\u2581obtenu": 5678,
  "\u2581regverdiges": 5679,
  "\u2581second": 5680,
  "\u2581sout": 5681,
  "\u2581studies": 5682,
  "exprimer": 5683,
  "ian": 5684,
  "\u2581Deel": 5685,
  "\u2581ark": 5686,
  "\u2581cris": 5687,
  "\u2581mensonge": 5688,
  "\u2581sent": 5689,
  "\u2581th\u00e9orie": 5690,
  "\u2581tradition": 5691,
  "\u2581vanwe\u00eb": 5692,
  "\u2581vitesse": 5693,
  "her": 5694,
  "vers": 5695,
  "\u2581Voyons": 5696,
  "\u2581ingeneem": 5697,
  "\u2581meilleurs": 5698,
  "\u2581pratiquer": 5699,
  "\u2581ra": 5700,
  "\u2581s\u00fbrs": 5701,
  "Di\u00e9": 5702,
  "injustice": 5703,
  "ting": 5704,
  "\u25812004": 5705,
  "\u2581Jusqu": 5706,
  "\u2581Nieu": 5707,
  "\u2581b\u00e9n\u00e9fique": 5708,
  "\u2581operasie": 5709,
  "\u2581survivre": 5710,
  "\u2581verderf": 5711,
  "\u258126,": 5712,
  "\u2581Italie": 5713,
  "\u00e9l": 5714,
  "\u2581Rutherford": 5715,
  "\u2581manifestement": 5716,
  "\u2581poteau": 5717,
  "\u2581remettre": 5718,
  "\u2581semence": 5719,
  "\u2581tema": 5720,
  "aires": 5721,
  "\u2581devint": 5722,
  "\u2581tafel": 5723,
  "\u2581tieners": 5724,
  "\u2581waardevolle": 5725,
  "lie": 5726,
  "\u25814]": 5727,
  "\u2581cesser": 5728,
  "\u2581chiffre": 5729,
  "\u2581d\u00e9fendre": 5730,
  "eer": 5731,
  "\u2581Pe": 5732,
  "\u2581consacrer": 5733,
  "\u2581endurer": 5734,
  "\u2581situ\u00e9e": 5735,
  "hulle": 5736,
  "\u258134.": 5737,
  "\u2581Bill": 5738,
  "\u2581Thessaloniciens": 5739,
  "\u2581contemporains": 5740,
  "\u2581laer": 5741,
  "\u2581m\u00e8res": 5742,
  "skeidingsvermo\u00eb": 5743,
  "\u2581Ni": 5744,
  "\u2581construire": 5745,
  "\u2581datum": 5746,
  "\u2581sak": 5747,
  "\u2581vererger": 5748,
  "\u2581beskuldig": 5749,
  "\u2581humble": 5750,
  "\u2581noorde": 5751,
  "\u2581rappel\u00e9": 5752,
  "\u2581slang": 5753,
  "\u258111]": 5754,
  "\u2581Q": 5755,
  "\u2581aankweek": 5756,
  "\u2581accorder": 5757,
  "\u2581expression": 5758,
  "\u2581sexuels": 5759,
  "\u2581wonderwerke": 5760,
  "loos": 5761,
  "streeks": 5762,
  "\u2581Barnabas": 5763,
  "\u2581angs": 5764,
  "\u2581cellule": 5765,
  "\u2581ras": 5766,
  "\u2581souvenez": 5767,
  "\u2581teksuitleg": 5768,
  "\u2581condamn\u00e9": 5769,
  "\u2581hegtenis": 5770,
  "\u2581m\u00f4re": 5771,
  "ET": 5772,
  "\u2581exige": 5773,
  "\u2581ind\u00e9finis": 5774,
  "\u2581pr\u00e9sentent": 5775,
  "\u2581refuge": 5776,
  "\u2581Ho": 5777,
  "\u2581Li": 5778,
  "\u2581corruption": 5779,
  "\u2581hauteur": 5780,
  "\u2581melk": 5781,
  "\u2581nuttige": 5782,
  "\u2581oortuiging": 5783,
  "\u2581oorwin": 5784,
  "\u2581ruim": 5785,
  "\u2581satisfaire": 5786,
  "\u2581whatsthis": 5787,
  "huis": 5788,
  "\u2581VER": 5789,
  "\u2581commande": 5790,
  "\u2581cou": 5791,
  "\u2581droefheid": 5792,
  "\u2581orde": 5793,
  "\u2581puissants": 5794,
  "\u2581race": 5795,
  "\u2581Russie": 5796,
  "\u2581belasting": 5797,
  "\u2581dieet": 5798,
  "ich": 5799,
  "offrande": 5800,
  "tro": 5801,
  "\u2581Traduction": 5802,
  "\u2581antieke": 5803,
  "\u2581fuir": 5804,
  "\u2581gemiddelde": 5805,
  "\u2581goue": 5806,
  "\u2581hardloop": 5807,
  "Al": 5808,
  "\u2581Dieselfde": 5809,
  "\u2581coutumes": 5810,
  "\u2581goddeloses": 5811,
  "\u2581verklaring": 5812,
  "water": 5813,
  "\u2581nul": 5814,
  "\u2581org": 5815,
  "\u2581pionni\u00e8re": 5816,
  "\u2581ys": 5817,
  "\u2581\u00e9cout\u00e9": 5818,
  "\u2581Chine": 5819,
  "\u2581Premi\u00e8re": 5820,
  "\u2581afstand": 5821,
  "\u2581beperkings": 5822,
  "\u2581grecque": 5823,
  "\u2581pire": 5824,
  "\u2581vies": 5825,
  "\u2581DES": 5826,
  "\u2581Di": 5827,
  "\u2581couples": 5828,
  "\u2581Ryk": 5829,
  "\u2581Star": 5830,
  "\u2581amiti\u00e9": 5831,
  "\u2581d\u00e9fense": 5832,
  "\u2581ongetroude": 5833,
  "\u2581vall\u00e9e": 5834,
  "dis": 5835,
  "pas": 5836,
  "\u2581Ayant": 5837,
  "\u2581Intussen": 5838,
  "\u2581Version": 5839,
  "\u2581com": 5840,
  "\u2581contr\u00f4le": 5841,
  "\u2581coupe": 5842,
  "\u2581kilogram": 5843,
  "\u2581essayer": 5844,
  "\u2581onsedelikheid": 5845,
  "\u2581opgeneem": 5846,
  "\u2581uitoefen": 5847,
  "\u2581beloof": 5848,
  "\u2581carri\u00e8re": 5849,
  "\u2581critiques": 5850,
  "\u2581deuil": 5851,
  "\u2581d\u00e9fi": 5852,
  "\u2581fixer": 5853,
  "\u2581onderwysers": 5854,
  "\u2581sterker": 5855,
  "\u2581telefoon": 5856,
  "\u2581tent\u00e9": 5857,
  "\u2581v\u00eatement": 5858,
  "Z": 5859,
  "auteur": 5860,
  "gu": 5861,
  "\u2581correspond": 5862,
  "\u2581donnait": 5863,
  "\u2581modernes": 5864,
  "\u2581perfection": 5865,
  "\u2581saai": 5866,
  "OR": 5867,
  "rit": 5868,
  "\u258156": 5869,
  "\u2581criminalit\u00e9": 5870,
  "\u2581erg": 5871,
  "\u2581evangelie": 5872,
  "\u2581familiale": 5873,
  "\u2581liefderyk": 5874,
  "\u2581passages": 5875,
  "rhande": 5876,
  "\u258122;": 5877,
  "\u2581Vloed": 5878,
  "\u2581lesse": 5879,
  "\u2581ongelukkig": 5880,
  "\u2581tenait": 5881,
  "Wie": 5882,
  "gra": 5883,
  "ser": 5884,
  "\u2581evolusie": 5885,
  "\u2581sympt\u00f4mes": 5886,
  "\u2581vrygelaat": 5887,
  "\u2581Miga": 5888,
  "\u2581catastrophe": 5889,
  "\u2581wonderlik": 5890,
  "\u2581aangesluit": 5891,
  "\u2581bal": 5892,
  "\u2581boot": 5893,
  "\u2581bus": 5894,
  "\u2581fees": 5895,
  "\u2581grecques": 5896,
  "\u2581inhoud": 5897,
  "\u2581re\u00e7oit": 5898,
  "\u2581sup\u00e9rieur": 5899,
  "\u2581Va": 5900,
  "\u2581facult\u00e9s": 5901,
  "\u2581figurent": 5902,
  "\u2581gratitude": 5903,
  "\u2581grens": 5904,
  "\u2581lae": 5905,
  "\u2581pourriez": 5906,
  "\u2581skakel": 5907,
  "\u2581veille": 5908,
  "\u2581Slegs": 5909,
  "\u2581Vrae": 5910,
  "\u2581beskadig": 5911,
  "\u2581buiteland": 5912,
  "\u2581geskrifte": 5913,
  "\u2581m\u00e9pris": 5914,
  "\u2581rempli": 5915,
  "\u2581verhef": 5916,
  "\u2581vliegtuig": 5917,
  "\u2581waardigheid": 5918,
  "ien": 5919,
  "leur": 5920,
  "\u2581appara\u00eet": 5921,
  "\u2581multitude": 5922,
  "\u2581personnelles": 5923,
  "\u2581sogenaamde": 5924,
  "\u2581tegnologie": 5925,
  "00": 5926,
  "iques": 5927,
  "\u00eates": 5928,
  "\u2581annonce": 5929,
  "\u2581gewoontes": 5930,
  "\u2581tri": 5931,
  "\u25811939": 5932,
  "\u2581Gr\u00e8ce": 5933,
  "\u2581geleerdes": 5934,
  "\u2581lac": 5935,
  "\u2581nasionale": 5936,
  "\u2581oint": 5937,
  "\u2581provoquer": 5938,
  "\u2581sable": 5939,
  "\u2581t\u00e9moigner": 5940,
  "\u258128:": 5941,
  "\u2581fureur": 5942,
  "\u2581grootgemaak": 5943,
  "\u2581touch\u00e9": 5944,
  "Australie": 5945,
  "EL": 5946,
  "arr\u00eater": 5947,
  "bel": 5948,
  "euse": 5949,
  "\u2581afgele\u00eb": 5950,
  "\u2581convaincus": 5951,
  "\u2581fermement": 5952,
  "\u2581maximum": 5953,
  "\u2581mur": 5954,
  "\u2581poisson": 5955,
  "\u2581sois": 5956,
  "\u2581verspreiding": 5957,
  "\u2581\u00e9prouver": 5958,
  "\u2581Mark": 5959,
  "\u2581Naomi": 5960,
  "\u2581Toronto": 5961,
  "\u2581beproewing": 5962,
  "\u2581profiter": 5963,
  "int\u00e9grit\u00e9": 5964,
  "\u2581Benjamin": 5965,
  "\u2581accident": 5966,
  "\u2581aid\u00e9e": 5967,
  "\u2581attendant": 5968,
  "\u2581beweging": 5969,
  "\u2581correctement": 5970,
  "\u2581d\u00e9sirez": 5971,
  "\u2581film": 5972,
  "\u2581gebalanseerde": 5973,
  "\u2581revient": 5974,
  "\u2581vordering": 5975,
  "ix": 5976,
  "raient": 5977,
  "\u25811987": 5978,
  "\u2581Plek": 5979,
  "\u2581chemiese": 5980,
  "\u2581trouverez": 5981,
  "era": 5982,
  "\u2581Sydney": 5983,
  "\u2581erfenis": 5984,
  "\u2581geboue": 5985,
  "aar": 5986,
  "ki": 5987,
  "\u2581Sodoende": 5988,
  "\u2581priorit\u00e9": 5989,
  "\u2581r\u00e8gle": 5990,
  "\u2581symbolique": 5991,
  "mm": 5992,
  "rs": 5993,
  "\u2581Time": 5994,
  "\u2581coupable": 5995,
  "\u2581dents": 5996,
  "\u2581incite": 5997,
  "\u2581interdit": 5998,
  "\u2581rejet\u00e9": 5999,
  "\u2581vermeerder": 6000,
  "intention": 6001,
  "\u2581Book": 6002,
  "\u2581arr\u00eater": 6003,
  "\u2581belangrikheid": 6004,
  "\u258125,": 6005,
  "\u2581aangename": 6006,
  "\u2581diff\u00e9rente": 6007,
  "\u2581sendeling": 6008,
  "dia": 6009,
  "existe": 6010,
  "grande": 6011,
  "ski": 6012,
  "\u2581dispos\u00e9": 6013,
  "\u2581jammer": 6014,
  "\u2581l\u00e8vres": 6015,
  "\u2581oudste": 6016,
  "iser": 6017,
  "\u2581Tim": 6018,
  "\u2581connus": 6019,
  "\u2581retrouv\u00e9": 6020,
  "\u2581yster": 6021,
  "\u2581\u00e9crivent": 6022,
  "\u2581Museum": 6023,
  "\u2581chute": 6024,
  "\u2581dryf": 6025,
  "\u2581handelinge": 6026,
  "\u2581repr\u00e9sentent": 6027,
  "\u2581stres": 6028,
  "\u2581verhewe": 6029,
  "Mosa\u00efese": 6030,
  "arbre": 6031,
  "ayant": 6032,
  "mes": 6033,
  "yn": 6034,
  "\u2581behae": 6035,
  "\u2581f\u00eates": 6036,
  "\u2581hasard": 6037,
  "\u2581ingaan": 6038,
  "\u2581pollution": 6039,
  "\u2581serpent": 6040,
  "attitude": 6041,
  "\u2581aliments": 6042,
  "\u2581capacit\u00e9s": 6043,
  "\u2581permettant": 6044,
  "\u2581sida": 6045,
  "\u2581vierde": 6046,
  "\u2581agit": 6047,
  "\u2581conflit": 6048,
  "\u2581pourront": 6049,
  "\u2581r\u00e9bellion": 6050,
  "\u2581r\u00e9gime": 6051,
  "\u2581spectacle": 6052,
  "\u2581\u00e9tablir": 6053,
  "\u2581b\u00e2timent": 6054,
  "\u2581prisonniers": 6055,
  "\u2581kleure": 6056,
  "\u2581koue": 6057,
  "\u2581naturelles": 6058,
  "\u2581spesies": 6059,
  "aurais": 6060,
  "\u2581ligte": 6061,
  "\u2581rang": 6062,
  "\u2581tribu": 6063,
  "application": 6064,
  "gar": 6065,
  "voor": 6066,
  "\u2581Engels": 6067,
  "\u2581Lisez": 6068,
  "\u2581Pennsylvania": 6069,
  "\u2581aanmoedig": 6070,
  "\u2581gewild": 6071,
  "\u2581verdorwe": 6072,
  "\u2581baptis\u00e9s": 6073,
  "\u2581cheval": 6074,
  "\u2581dure": 6075,
  "\u2581insekte": 6076,
  "\u2581meld": 6077,
  "\u2581onverdiend": 6078,
  "\u2581tendre": 6079,
  "\u2581vername": 6080,
  "endurance": 6081,
  "lank": 6082,
  "\u2581Rut": 6083,
  "\u2581craindre": 6084,
  "\u2581dissipel": 6085,
  "\u2581gedwing": 6086,
  "\u2581textes": 6087,
  "\u2581tr\u00e9sor": 6088,
  "\u2581utilis\u00e9e": 6089,
  "autant": 6090,
  "\u2581Martin": 6091,
  "\u2581deeglik": 6092,
  "\u2581technique": 6093,
  "\u2581winter": 6094,
  "abondance": 6095,
  "nd": 6096,
  "\u2581Hu": 6097,
  "\u2581Oseaan": 6098,
  "\u2581geskied": 6099,
  "\u2581geskrywe": 6100,
  "\u2581personnelle": 6101,
  "\u2581supprimer": 6102,
  "ku": 6103,
  "\u2581CE": 6104,
  "\u2581No": 6105,
  "\u2581instruksies": 6106,
  "\u2581pleks": 6107,
  "\u2581verre": 6108,
  "\u2581werp": 6109,
  "\u2581beroof": 6110,
  "\u2581itin\u00e9rant": 6111,
  "\u2581soulagement": 6112,
  "out": 6113,
  "\u258130,": 6114,
  "\u2581Souverain": 6115,
  "\u2581algehele": 6116,
  "\u2581hitte": 6117,
  "\u2581rarement": 6118,
  "\u2581skaam": 6119,
  "\u2581\u00e2mes": 6120,
  "\u2581\u00e9cole": 6121,
  "Hou": 6122,
  "\u2581250": 6123,
  "\u2581calendrier": 6124,
  "\u2581prenez": 6125,
  "\u2581sentent": 6126,
  "\u2581sneeu": 6127,
  "ef": 6128,
  "was": 6129,
  "\u2581eau": 6130,
  "\u2581nood": 6131,
  "\u2581pi": 6132,
  "ran": 6133,
  "\u2581Prenez": 6134,
  "\u2581fyn": 6135,
  "\u2581joue": 6136,
  "\u2581leerstellings": 6137,
  "\u2581medisyne": 6138,
  "lyn": 6139,
  "\u2581inkomste": 6140,
  "\u2581progresser": 6141,
  "\u2581soigneusement": 6142,
  "imiter": 6143,
  "\u2581be\u00ebindig": 6144,
  "\u2581d\u00e9velopper": 6145,
  "\u2581grandement": 6146,
  "\u2581lisant": 6147,
  "\u2581plac\u00e9": 6148,
  "\u2581samelewing": 6149,
  "ana": 6150,
  "\u2581Ka": 6151,
  "\u2581Titus": 6152,
  "\u2581autorisation": 6153,
  "\u2581verskoning": 6154,
  "mat": 6155,
  "skap": 6156,
  "\u2581Binne": 6157,
  "\u2581camps": 6158,
  "\u2581employ\u00e9": 6159,
  "\u2581vreugdevolle": 6160,
  "\u2581chance": 6161,
  "\u2581fleuve": 6162,
  "\u2581item": 6163,
  "\u2581ramp": 6164,
  "\u2581sortie": 6165,
  "emploi": 6166,
  "\u2581commettre": 6167,
  "\u2581connue": 6168,
  "\u2581craignent": 6169,
  "\u2581famine": 6170,
  "\u2581m\u00e9dical": 6171,
  "\u2581profondes": 6172,
  "\u2581souffre": 6173,
  "\u2581toit": 6174,
  "\u2581viande": 6175,
  "\u2581\u00c9videmment": 6176,
  "X": 6177,
  "ydens": 6178,
  "\u2581Angleterre": 6179,
  "\u2581Mary": 6180,
  "\u2581allusion": 6181,
  "\u2581dek": 6182,
  "\u2581r\u00e9v\u00e8lent": 6183,
  "\u2581sovi\u00e9tique": 6184,
  "\u2581style": 6185,
  "\u2581verse": 6186,
  "berg": 6187,
  "ish": 6188,
  "\u2581Fa": 6189,
  "\u2581Salles": 6190,
  "\u2581acc\u00e8s": 6191,
  "\u2581bedienaars": 6192,
  "\u2581lanc\u00e9": 6193,
  "\u2581ressemble": 6194,
  "\u2581soif": 6195,
  "\u2581trein": 6196,
  "\u258124]": 6197,
  "\u2581Ooste": 6198,
  "\u2581eksemplaar": 6199,
  "\u2581frais": 6200,
  "m\u00eame": 6201,
  "non": 6202,
  "ssent": 6203,
  "\u2581commencement": 6204,
  "\u2581gagn\u00e9": 6205,
  "\u2581gu\u00e9rir": 6206,
  "\u2581kenmerk": 6207,
  "\u2581regarde": 6208,
  "\u2581r\u00e9v\u00e9ler": 6209,
  "\u2581sauv\u00e9": 6210,
  "\u2581suggestions": 6211,
  "\u2581traditions": 6212,
  "\u2581indiqu\u00e9es": 6213,
  "\u2581partage": 6214,
  "\u2581relative": 6215,
  "\u2581trait\u00e9": 6216,
  "\u2581vang": 6217,
  "\u2581vryelik": 6218,
  "amiti\u00e9": 6219,
  "\u2581Elkeen": 6220,
  "\u2581consid\u00e9ration": 6221,
  "\u2581films": 6222,
  "\u2581glas": 6223,
  "\u2581solides": 6224,
  "\u2581\u00e9lev\u00e9s": 6225,
  "approbation": 6226,
  "\u2581Dalk": 6227,
  "\u2581moeders": 6228,
  "\u2581objet": 6229,
  "\u2581opbou": 6230,
  "\u2581skiet": 6231,
  "och": 6232,
  "\u2581XIXsi\u00e8cle": 6233,
  "\u2581acheter": 6234,
  "\u2581distance": 6235,
  "\u2581omring": 6236,
  "\u2581s\u00fbrement": 6237,
  "\u2581travaillent": 6238,
  "\u2581vaincre": 6239,
  "\u2581verslaan": 6240,
  "\u2581werking": 6241,
  "\u2581\u00e9quipe": 6242,
  "Angleterre": 6243,
  "De": 6244,
  "bar": 6245,
  "eg": 6246,
  "\u2581Bybelkennis": 6247,
  "\u2581JY": 6248,
  "\u2581bedrog": 6249,
  "\u2581gu\u00e9rison": 6250,
  "\u2581personnages": 6251,
  "nce": 6252,
  "\u2581Hanna": 6253,
  "\u2581attach\u00e9": 6254,
  "\u2581geslagte": 6255,
  "\u2581inciter": 6256,
  "\u2581mentale": 6257,
  "\u2581rest\u00e9s": 6258,
  "\u2581blydskap": 6259,
  "\u2581charg\u00e9": 6260,
  "\u2581dankie": 6261,
  "\u2581devais": 6262,
  "\u2581d\u00e9sire": 6263,
  "\u2581owerheid": 6264,
  "\u2581revenus": 6265,
  "\u2581terrible": 6266,
  "\u2581verhuis": 6267,
  "ob\u00e9issance": 6268,
  "ov": 6269,
  "\u258134,": 6270,
  "\u2581Corinthe": 6271,
  "\u2581Donc": 6272,
  "\u2581Eh": 6273,
  "\u2581dira": 6274,
  "\u2581kwessie": 6275,
  "\u2581r\u00e9pondriez": 6276,
  "\u2581sachant": 6277,
  "\u2581Ro": 6278,
  "\u2581beland": 6279,
  "\u2581conclu": 6280,
  "\u2581confie": 6281,
  "\u2581neige": 6282,
  "\u2581t\u00e9moin": 6283,
  "geskiedenis": 6284,
  "\u2581International": 6285,
  "\u2581Verander": 6286,
  "\u2581benoudheid": 6287,
  "\u2581divertissements": 6288,
  "\u2581geheime": 6289,
  "\u2581getroude": 6290,
  "\u2581hoegenaamd": 6291,
  "\u2581r\u00e9alisation": 6292,
  "\u2581r\u00e9el": 6293,
  "\u2581sondaars": 6294,
  "\u2581Ga": 6295,
  "\u2581accord\u00e9": 6296,
  "\u2581r\u00e9gler": 6297,
  "\u2581terselfdertyd": 6298,
  "maar": 6299,
  "\u2581Hi": 6300,
  "\u2581ailes": 6301,
  "\u2581enqu\u00eate": 6302,
  "\u2581gawes": 6303,
  "\u2581swanger": 6304,
  "\u2581triste": 6305,
  "Toe": 6306,
  "ander": 6307,
  "hu": 6308,
  "\u258154": 6309,
  "\u2581Moab": 6310,
  "\u2581buitengewone": 6311,
  "\u2581cap": 6312,
  "\u2581chapitres": 6313,
  "\u2581selfsugtige": 6314,
  "\u2581verlossing": 6315,
  "ano": 6316,
  "\u25811984": 6317,
  "\u2581moord": 6318,
  "\u2581uiterste": 6319,
  "\u2581vivaient": 6320,
  "entrer": 6321,
  "\u2581Web": 6322,
  "\u2581grandi": 6323,
  "\u2581ontspanning": 6324,
  "\u2581vermaning": 6325,
  "\u2581\u00e9tonnant": 6326,
  "amis": 6327,
  "\u2581Mer": 6328,
  "\u2581Mettertyd": 6329,
  "\u2581fourni": 6330,
  "\u2581getrouheid": 6331,
  "\u2581gevlug": 6332,
  "\u2581m\u00e9diter": 6333,
  "\u2581syst\u00e8mes": 6334,
  "Empire": 6335,
  "\u2581connais": 6336,
  "\u2581dame": 6337,
  "\u2581gestudeer": 6338,
  "\u2581parent": 6339,
  "\u2581plans": 6340,
  "\u2581sentimeter": 6341,
  "\u2581s\u00e9jour": 6342,
  "\u2581voortbring": 6343,
  "Hierdie": 6344,
  "jw": 6345,
  "ombre": 6346,
  "\u258114]": 6347,
  "\u258153": 6348,
  "\u2581aper\u00e7u": 6349,
  "\u2581attachement": 6350,
  "\u2581terres": 6351,
  "nous": 6352,
  "\u2581beroep": 6353,
  "\u2581coutume": 6354,
  "\u2581parabole": 6355,
  "\u2581paru": 6356,
  "\u2581Anna": 6357,
  "\u2581benut": 6358,
  "\u2581ha": 6359,
  "\u2581ingestem": 6360,
  "\u2581kere": 6361,
  "QUES": 6362,
  "esclavage": 6363,
  "\u00e7": 6364,
  "\u2581AU": 6365,
  "\u2581Bar": 6366,
  "\u2581affronter": 6367,
  "\u2581conjoints": 6368,
  "\u2581daagliks": 6369,
  "\u2581heersers": 6370,
  "\u2581te\u00eb": 6371,
  "\u2581\u00e9tudiant": 6372,
  "ane": 6373,
  "\u2581eksemplare": 6374,
  "\u2581lance": 6375,
  "\u2581prochaine": 6376,
  "\u2581status": 6377,
  "\u00e9tant": 6378,
  "\u2581Pharaon": 6379,
  "\u2581arm\u00e9e": 6380,
  "\u2581auquel": 6381,
  "\u2581geestelikheid": 6382,
  "\u2581innerlike": 6383,
  "\u2581organis\u00e9": 6384,
  "\u2581sommet": 6385,
  "\u2581tydelike": 6386,
  "\u2581w\u00eareldse": 6387,
  "\u2581\u00e9nergie": 6388,
  "ath": 6389,
  "\u2581allemand": 6390,
  "\u2581komende": 6391,
  "\u2581lignes": 6392,
  "\u2581noordelike": 6393,
  "\u2581oopgemaak": 6394,
  "\u2581spreker": 6395,
  "\u2581versier": 6396,
  "US": 6397,
  "\u2581()": 6398,
  "\u2581chiffres": 6399,
  "\u2581geprys": 6400,
  "\u2581koms": 6401,
  "\u2581laag": 6402,
  "\u2581produisent": 6403,
  "\u2581rukkie": 6404,
  "\u2581w": 6405,
  "ENT": 6406,
  "intelligence": 6407,
  "\u2581Aucune": 6408,
  "\u2581cartes": 6409,
  "\u2581disponible": 6410,
  "\u2581hel": 6411,
  "\u2581inter": 6412,
  "all": 6413,
  "\u00fc": 6414,
  "\u2581Po": 6415,
  "\u2581discerner": 6416,
  "\u2581gelowiges": 6417,
  "\u2581raisonnement": 6418,
  "\u2581tande": 6419,
  "ari": 6420,
  "\u2581Amos": 6421,
  "\u2581ennemi": 6422,
  "\u2581interessante": 6423,
  "\u2581teenoorgestelde": 6424,
  "\u2581th\u00e9ocratique": 6425,
  "ering": 6426,
  "\u2581Vind": 6427,
  "\u2581bedrieg": 6428,
  "\u2581centrale": 6429,
  "\u2581ongelowige": 6430,
  "\u2581oorweldig": 6431,
  "\u2581pleins": 6432,
  "\u2581solitude": 6433,
  "\u2581transport": 6434,
  "ding": 6435,
  "gue": 6436,
  "\u258144.": 6437,
  "\u2581Britannica": 6438,
  "\u2581amener": 6439,
  "\u2581kla": 6440,
  "\u2581meurent": 6441,
  "\u2581m\u00e9tier": 6442,
  "\u2581pr\u00e9cis\u00e9ment": 6443,
  "aise": 6444,
  "objectif": 6445,
  "\u258129,": 6446,
  "\u2581Bybellektuur": 6447,
  "\u2581Fout": 6448,
  "\u2581annoncer": 6449,
  "\u2581comprennent": 6450,
  "\u2581mure": 6451,
  "\u2581piti\u00e9": 6452,
  "\u2581pr\u00e9cieuses": 6453,
  "\u2581veilige": 6454,
  "\u2581verdra": 6455,
  "\u2581vriendelike": 6456,
  "gan": 6457,
  "vin": 6458,
  "\u2581pr\u00e9par\u00e9": 6459,
  "\u2581r\u00e9seau": 6460,
  "\u2581tevergeefs": 6461,
  "meer": 6462,
  "\u2581Gu": 6463,
  "\u2581cherch\u00e9": 6464,
  "\u2581geeste": 6465,
  "\u2581noodwendig": 6466,
  "\u2581photos": 6467,
  "\u2581publiek": 6468,
  "\u2581\u00e9lectronique": 6469,
  "appel": 6470,
  "\u258129:": 6471,
  "\u2581betree": 6472,
  "\u2581godgegewe": 6473,
  "\u2581lippe": 6474,
  "\u2581lyn": 6475,
  "\u2581siele": 6476,
  "iers": 6477,
  "\u2581Paulo": 6478,
  "\u2581asem": 6479,
  "\u2581gesinslede": 6480,
  "\u2581partager": 6481,
  "\u25813)": 6482,
  "\u2581Scientist": 6483,
  "\u2581Toute": 6484,
  "\u2581begryp": 6485,
  "\u2581dwing": 6486,
  "\u2581kruis": 6487,
  "\u2581mentionn\u00e9": 6488,
  "\u2581mi": 6489,
  "\u2581omsien": 6490,
  "\u2581voortgegaan": 6491,
  "\u2581\u00c9vangiles": 6492,
  "\u2581Su": 6493,
  "\u2581dodelike": 6494,
  "\u2581hiervoor": 6495,
  "\u2581jusque": 6496,
  "\u2581verkondiging": 6497,
  "\u2581voulaient": 6498,
  "andis": 6499,
  "\u2581Daarop": 6500,
  "\u2581Enregistrer": 6501,
  "\u2581Inde": 6502,
  "\u2581OP": 6503,
  "\u2581anc\u00eatres": 6504,
  "\u2581grade": 6505,
  "\u2581n\u00e9s": 6506,
  "\u2581pi\u00e9t\u00e9": 6507,
  "\u2581prenant": 6508,
  "\u2581principaux": 6509,
  "\u2581verbinding": 6510,
  "Organisation": 6511,
  "\u2581d\u00e9pit": 6512,
  "\u2581ho\u00ebpriester": 6513,
  "\u2581leerlinge": 6514,
  "\u2581salaire": 6515,
  "\u2581travaille": 6516,
  "\u2581waardig": 6517,
  "istes": 6518,
  "\u2581SIDA": 6519,
  "\u2581Tract": 6520,
  "\u2581bevrediging": 6521,
  "\u2581enfance": 6522,
  "\u2581gesinslewe": 6523,
  "\u2581samewerking": 6524,
  "rons": 6525,
  "\u2581Galaad": 6526,
  "\u2581Post": 6527,
  "\u2581aurez": 6528,
  "\u2581been": 6529,
  "\u2581bydraes": 6530,
  "\u2581graines": 6531,
  "\u2581keuses": 6532,
  "\u2581metodes": 6533,
  "\u2581utilisent": 6534,
  "10": 6535,
  "?\"": 6536,
  "begrip": 6537,
  "\u2581Los": 6538,
  "\u2581chimiques": 6539,
  "\u2581exhortation": 6540,
  "\u2581ferai": 6541,
  "\u2581livrer": 6542,
  "\u2581mobiles": 6543,
  "\u2581recommande": 6544,
  "\u2581skatte": 6545,
  "\u2581(1)": 6546,
  "\u258133,": 6547,
  "\u2581her": 6548,
  "\u2581profondeur": 6549,
  "\u2581standaard": 6550,
  "\u2581temp\u00e9rature": 6551,
  "\u2581visse": 6552,
  "\u2581donn\u00e9s": 6553,
  "\u2581modifier": 6554,
  "\u2581prie": 6555,
  "\u2581verberg": 6556,
  "\u2581wy": 6557,
  "NW": 6558,
  "ong": 6559,
  "\u2581Tom": 6560,
  "\u2581aangenaam": 6561,
  "\u2581entr\u00e9": 6562,
  "\u2581int\u00e9grit\u00e9": 6563,
  "\u2581invitation": 6564,
  "\u2581nakomelinge": 6565,
  "\u2581repr\u00e9sentant": 6566,
  "\u2581steel": 6567,
  "ouvrage": 6568,
  "\u2581Chroniques": 6569,
  "\u2581Kersfees": 6570,
  "\u2581Supprimer": 6571,
  "\u2581commentaire": 6572,
  "\u2581direk": 6573,
  "\u2581gewilde": 6574,
  "\u2581port\u00e9": 6575,
  "\u2581storm": 6576,
  "\u2581visiteurs": 6577,
  "app": 6578,
  "\u00e9l\u00e8ve": 6579,
  "\u25811918": 6580,
  "\u25811970": 6581,
  "\u2581Vos": 6582,
  "\u2581beloofde": 6583,
  "\u2581dankbaarheid": 6584,
  "\u2581miracle": 6585,
  "\u2581para\u00eet": 6586,
  "\u2581rende": 6587,
  "Par": 6588,
  "\u2581catastrophes": 6589,
  "\u2581documents": 6590,
  "\u2581Ajouter": 6591,
  "\u2581Daily": 6592,
  "\u2581d\u00e9clara": 6593,
  "\u2581feront": 6594,
  "\u2581skynbaar": 6595,
  "\u2581sp\u00e9ciale": 6596,
  "\u2581verpligting": 6597,
  "oli": 6598,
  "\u2581Carte": 6599,
  "\u2581Lam": 6600,
  "\u2581Pr": 6601,
  "\u2581connaissait": 6602,
  "\u2581ferait": 6603,
  "\u2581limite": 6604,
  "\u2581versorg": 6605,
  "\u2581verwagtinge": 6606,
  "arrive": 6607,
  "\u2581EK": 6608,
  "\u2581assurer": 6609,
  "\u2581d\u00e9c\u00e8s": 6610,
  "\u2581geslaag": 6611,
  "\u2581tropiese": 6612,
  "\u2581vivait": 6613,
  "\u2581voorregte": 6614,
  "RI": 6615,
  "\u2581Gal": 6616,
  "\u2581aandeel": 6617,
  "\u2581construit": 6618,
  "\u2581geskenke": 6619,
  "\u2581intelligente": 6620,
  "\u2581onderwyser": 6621,
  "\u2581openlik": 6622,
  "\u2581renoncer": 6623,
  "\u2581simbool": 6624,
  "\u2581toetse": 6625,
  "\u25811983": 6626,
  "\u2581Science": 6627,
  "\u2581Tyd": 6628,
  "\u2581auditeurs": 6629,
  "\u2581jongste": 6630,
  "\u2581manquer": 6631,
  "\u2581onderdruk": 6632,
  "\u2581opgelei": 6633,
  "\u2581ryp": 6634,
  "\u2581\u00e9lev\u00e9e": 6635,
  "aura": 6636,
  "enfer": 6637,
  "fa": 6638,
  "iet": 6639,
  "ji": 6640,
  "\u2581AS": 6641,
  "\u2581alreeds": 6642,
  "\u2581anciennes": 6643,
  "\u2581montrant": 6644,
  "\u2581remplacer": 6645,
  "hor": 6646,
  "ius": 6647,
  "ju": 6648,
  "s\u00e9": 6649,
  "\u25811980": 6650,
  "\u2581coll\u00e8ge": 6651,
  "\u2581conversations": 6652,
  "\u2581devra": 6653,
  "\u2581gesindhede": 6654,
  "\u2581pleurer": 6655,
  "ani": 6656,
  "\u2581d\u00e9c": 6657,
  "\u2581r\u00e9duit": 6658,
  "\u2581sp\u00e9cial": 6659,
  "\u2581waarheen": 6660,
  "gel": 6661,
  "toi": 6662,
  "\u00ea": 6663,
  "\u2581Bybelstudies": 6664,
  "\u2581behoorlik": 6665,
  "\u2581indiqu\u00e9": 6666,
  "\u2581kalender": 6667,
  "\u2581leerstelling": 6668,
  "\u2581menu": 6669,
  "\u2581reputasie": 6670,
  "\u2581rythme": 6671,
  "\u2581unis": 6672,
  "\u2581balans": 6673,
  "\u2581begaan": 6674,
  "\u2581debout": 6675,
  "\u2581enigeen": 6676,
  "\u2581form\u00e9": 6677,
  "\u2581geopen": 6678,
  "\u2581hoofstukke": 6679,
  "\u2581morales": 6680,
  "\u2581quotidienne": 6681,
  "\u2581ressentir": 6682,
  "\u2581routes": 6683,
  "\u2581servant": 6684,
  "\u2581toestemming": 6685,
  "\u2581vinniger": 6686,
  "\u2581adolescent": 6687,
  "\u2581conscient": 6688,
  "\u2581entrepris": 6689,
  "\u2581individuelle": 6690,
  "\u2581juif": 6691,
  "\u2581remercier": 6692,
  "\u2581stoor": 6693,
  "adult\u00e8re": 6694,
  "\u2581Jud\u00e9e": 6695,
  "\u2581Mat": 6696,
  "\u2581Nehemia": 6697,
  "\u2581P\u00e2que": 6698,
  "\u2581nabygele\u00eb": 6699,
  "\u2581soumettre": 6700,
  "\u2581\u00e9crite": 6701,
  "oreille": 6702,
  "\u2581Autre": 6703,
  "\u2581facult\u00e9": 6704,
  "\u2581juk": 6705,
  "\u2581passant": 6706,
  "\u2581reine": 6707,
  "oire": 6708,
  "\u2581Bybelwaarhede": 6709,
  "\u2581Pentec\u00f4te": 6710,
  "\u2581chances": 6711,
  "\u2581courte": 6712,
  "\u2581douleurs": 6713,
  "\u2581he": 6714,
  "\u2581observ\u00e9": 6715,
  "\u2581venaient": 6716,
  "\u2581verhoudings": 6717,
  "\u2581\u00e9crivit": 6718,
  "\u2581\u00e9ternel": 6719,
  "lot": 6720,
  "\u2581Mars": 6721,
  "\u2581entreprise": 6722,
  "\u2581implique": 6723,
  "\u2581nouvel": 6724,
  "\u2581pr\u00each\u00e9": 6725,
  "\u2581rares": 6726,
  "\u2581rasse": 6727,
  "bre": 6728,
  "fe": 6729,
  "lang": 6730,
  "\u2581adress\u00e9": 6731,
  "\u2581chirurgie": 6732,
  "\u2581gehalte": 6733,
  "\u2581qualifi\u00e9": 6734,
  "\u2581rentrer": 6735,
  "\u2581sand": 6736,
  "\u2581twintig": 6737,
  "\u2581\u00e9tudiants": 6738,
  "abri": 6739,
  "\u2581(2)": 6740,
  "\u2581Cr\u00e9e": 6741,
  "\u2581Knorr": 6742,
  "\u2581auxquelles": 6743,
  "\u2581beswaar": 6744,
  "\u2581caf\u00e9": 6745,
  "\u2581invisible": 6746,
  "\u2581onsigbare": 6747,
  "\u2581traite": 6748,
  "Q": 6749,
  "issons": 6750,
  "ny": 6751,
  "\u2581assurance": 6752,
  "\u2581b\u00e9ni": 6753,
  "\u2581drank": 6754,
  "\u2581ontsteld": 6755,
  "\u2581ontwikkelende": 6756,
  "\u2581opinion": 6757,
  "\u2581universelle": 6758,
  "\u2581utilis\u00e9s": 6759,
  "\u2581Ab": 6760,
  "\u2581klimaat": 6761,
  "\u2581koester": 6762,
  "\u2581meurt": 6763,
  "\u2581p\u00eache": 6764,
  "\u2581reconnaissant": 6765,
  "\u2581redelike": 6766,
  "\u2581stade": 6767,
  "\u2581Chinese": 6768,
  "\u2581Moi": 6769,
  "\u2581aimait": 6770,
  "\u2581dooie": 6771,
  "\u2581insectes": 6772,
  "\u2581prouver": 6773,
  "\u2581utilisant": 6774,
  "LE": 6775,
  "ancien": 6776,
  "ces": 6777,
  "ok": 6778,
  "\u2581Liefde": 6779,
  "\u2581ajouter": 6780,
  "\u2581appropri\u00e9": 6781,
  "\u2581behoue": 6782,
  "\u2581merk": 6783,
  "\u2581ondermyn": 6784,
  "\u2581surv\u00e9cu": 6785,
  "\u2581uitgegaan": 6786,
  "0": 6787,
  "20": 6788,
  "\u2581Kronieke": 6789,
  "\u2581VIR": 6790,
  "\u2581remis": 6791,
  "\u2581retenir": 6792,
  "\u2581strate": 6793,
  "\u2581sukkel": 6794,
  "\u2581toegerus": 6795,
  "Espagne": 6796,
  "adorer": 6797,
  "ch\u00e9": 6798,
  "wel": 6799,
  "\u2581acquis": 6800,
  "\u2581affirm\u00e9": 6801,
  "\u2581bedreiging": 6802,
  "\u2581imp": 6803,
  "\u2581mange": 6804,
  "\u2581prag": 6805,
  "\u2581r\u00e9fugi\u00e9s": 6806,
  "\u2581state": 6807,
  "\u2581HJ": 6808,
  "\u2581Manifestement": 6809,
  "\u2581blootgestel": 6810,
  "\u2581confier": 6811,
  "\u2581contraste": 6812,
  "\u2581dispos\u00e9s": 6813,
  "\u2581litt\u00e9ralement": 6814,
  "\u2581maaltyd": 6815,
  "\u2581pass\u00e9s": 6816,
  "\u2581teenstanders": 6817,
  "\u2581vigueur": 6818,
  "affaire": 6819,
  "vel": 6820,
  "\u00e9m": 6821,
  "\u2581Rooms": 6822,
  "\u2581bedienaar": 6823,
  "\u2581francs": 6824,
  "\u2581front": 6825,
  "\u2581fr\u00e9quenter": 6826,
  "\u2581hierbo": 6827,
  "\u2581historique": 6828,
  "\u2581maisonn\u00e9e": 6829,
  "\u2581passait": 6830,
  "\u2581revenu": 6831,
  "\u2581skole": 6832,
  "\u2581travaill\u00e9": 6833,
  "\u2581vou\u00e9": 6834,
  "\u2581Soek": 6835,
  "\u2581elemente": 6836,
  "\u2581fi": 6837,
  "\u2581koring": 6838,
  "\u2581magte": 6839,
  "\u2581mari\u00e9": 6840,
  "\u2581produkte": 6841,
  "\u2581r\u00e9alis\u00e9": 6842,
  "\u2581sociale": 6843,
  "\u2581tensy": 6844,
  "\u2581uiteengesit": 6845,
  "Wees": 6846,
  "\u2581Rom": 6847,
  "\u2581ancienne": 6848,
  "\u2581comparaison": 6849,
  "\u2581cuisine": 6850,
  "\u2581environnement": 6851,
  "\u2581forment": 6852,
  "\u2581gevul": 6853,
  "\u2581hongersnood": 6854,
  "\u2581murs": 6855,
  "\u2581sexuel": 6856,
  "\u2581uitgebeeld": 6857,
  "\u2581vloei": 6858,
  "ell": 6859,
  "kans": 6860,
  "pour": 6861,
  "\u25815;": 6862,
  "\u2581Portugal": 6863,
  "\u2581adopter": 6864,
  "\u2581dienaars": 6865,
  "\u2581letterlike": 6866,
  "\u2581serveur": 6867,
  "AR": 6868,
  "avidit\u00e9": 6869,
  "cher": 6870,
  "\u258161": 6871,
  "\u2581Af": 6872,
  "\u2581JEHOVAH": 6873,
  "\u2581assosieer": 6874,
  "\u2581bank": 6875,
  "\u2581comptes": 6876,
  "\u2581dienste": 6877,
  "\u2581dro\u00eb": 6878,
  "\u2581louange": 6879,
  "\u2581proie": 6880,
  "\u2581quartier": 6881,
  "\u2581uitge": 6882,
  "ise": 6883,
  "tive": 6884,
  "\u00e9glise": 6885,
  "\u2581aankom": 6886,
  "\u2581appr\u00e9ci\u00e9": 6887,
  "\u2581aussit\u00f4t": 6888,
  "\u2581beaux": 6889,
  "\u2581dak": 6890,
  "\u2581regterhand": 6891,
  "plan": 6892,
  "rom": 6893,
  "\u2581allez": 6894,
  "\u2581efficaces": 6895,
  "\u2581esp\u00e9rer": 6896,
  "\u2581li\u00e9s": 6897,
  "\u2581sny": 6898,
  "\u2581stort": 6899,
  "\u2581uitgestuur": 6900,
  "isation": 6901,
  "q": 6902,
  "\u2581Luther": 6903,
  "\u2581aanbeveel": 6904,
  "\u2581beskeie": 6905,
  "\u2581fautes": 6906,
  "\u2581genade": 6907,
  "\u2581leeg": 6908,
  "\u2581ressuscit\u00e9s": 6909,
  "\u2581tableau": 6910,
  "\u2581tr\u00e9sors": 6911,
  "\u2581wreed": 6912,
  "\u00c9vangile": 6913,
  "\u2581C\u00e9sar": 6914,
  "\u2581liefhebbers": 6915,
  "\u2581mises": 6916,
  "\u2581onskuldige": 6917,
  "\u2581parc": 6918,
  "\u2581retrouve": 6919,
  "New": 6920,
  "assurer": 6921,
  "sprobleme": 6922,
  "\u2581dirig\u00e9": 6923,
  "\u2581fatigue": 6924,
  "ID": 6925,
  "\u2581contribu\u00e9": 6926,
  "\u2581di": 6927,
  "\u2581geskrewe": 6928,
  "\u2581getalle": 6929,
  "\u2581kilos": 6930,
  "\u2581traits": 6931,
  "\u2581vertu": 6932,
  "assister": 6933,
  "rus": 6934,
  "\u2581607": 6935,
  "\u2581BIBLE": 6936,
  "\u2581Sondag": 6937,
  "\u2581avantages": 6938,
  "\u2581claire": 6939,
  "\u2581fond\u00e9e": 6940,
  "\u2581lente": 6941,
  "\u2581oorsake": 6942,
  "\u2581sauvages": 6943,
  "aie": 6944,
  "pol": 6945,
  "\u2581To": 6946,
  "\u2581durable": 6947,
  "\u2581faibles": 6948,
  "\u2581fonctions": 6949,
  "\u2581jaarlikse": 6950,
  "\u2581meurtre": 6951,
  "\u2581re\u00eblings": 6952,
  "\u2581r\u00e9dempteur": 6953,
  "Au": 6954,
  "Celui": 6955,
  "autrui": 6956,
  "lewe": 6957,
  "\u00e9p": 6958,
  "\u2581bekwame": 6959,
  "\u2581lever": 6960,
  "\u2581organisme": 6961,
  "\u2581seksueel": 6962,
  "\u2581vee": 6963,
  "\u2581verstandelike": 6964,
  "\u2581villages": 6965,
  "op\u00e9ration": 6966,
  "our": 6967,
  "tiques": 6968,
  "\u25811914,": 6969,
  "\u2581Beloof": 6970,
  "\u2581estiment": 6971,
  "\u2581geteister": 6972,
  "\u2581http": 6973,
  "\u2581joug": 6974,
  "\u2581repris": 6975,
  "antes": 6976,
  "\u2581Baal": 6977,
  "\u2581blare": 6978,
  "\u2581ennuis": 6979,
  "\u2581geliefdes": 6980,
  "\u2581lib\u00e9ration": 6981,
  "\u2581ouest": 6982,
  "\u2581rendus": 6983,
  "\u2581simboliese": 6984,
  "\u2581spring": 6985,
  "\u2581toesprake": 6986,
  "AT": 6987,
  "bal": 6988,
  "rin": 6989,
  "\u2581Vi": 6990,
  "\u2581courageux": 6991,
  "\u2581disponibles": 6992,
  "\u2581envoyer": 6993,
  "\u2581etniese": 6994,
  "\u2581favoriser": 6995,
  "\u2581jou\u00e9": 6996,
  "\u2581klank": 6997,
  "\u2581onrein": 6998,
  "Jesus": 6999,
  "lan": 7000,
  "\u2581Ba": 7001,
  "\u2581Es": 7002,
  "\u2581Herald": 7003,
  "\u2581Kaart": 7004,
  "\u2581dode": 7005,
  "\u2581fassent": 7006,
  "\u2581foules": 7007,
  "\u2581glimlag": 7008,
  "\u2581pret": 7009,
  "\u2581spel": 7010,
  "\u2581tou": 7011,
  "Dans": 7012,
  "nis": 7013,
  "ville": 7014,
  "\u25811950": 7015,
  "\u2581Dictionary": 7016,
  "\u2581Koninkryksale": 7017,
  "\u2581Port": 7018,
  "\u2581Saam": 7019,
  "\u2581aangedui": 7020,
  "\u2581aanspoor": 7021,
  "\u2581application": 7022,
  "\u2581bewind": 7023,
  "\u2581deskundiges": 7024,
  "\u2581discussions": 7025,
  "\u2581expos\u00e9": 7026,
  "\u2581locale": 7027,
  "\u2581observe": 7028,
  "\u2581ooreen": 7029,
  "\u2581vanuit": 7030,
  "\u2581zones": 7031,
  "attente": 7032,
  "okratiese": 7033,
  "\u2581Jourdain": 7034,
  "\u2581Nietemin": 7035,
  "\u2581afge": 7036,
  "\u2581besoedeling": 7037,
  "\u2581centim\u00e8tres": 7038,
  "\u2581pensais": 7039,
  "\u2581suksesvolle": 7040,
  "\u2581vermoor": 7041,
  "\u2581bo\u00eete": 7042,
  "\u2581cultures": 7043,
  "\u2581eis": 7044,
  "\u2581inspir\u00e9": 7045,
  "\u2581juges": 7046,
  "\u2581kantoor": 7047,
  "\u2581lecteur": 7048,
  "\u2581middag": 7049,
  "\u2581retirer": 7050,
  "\u2581saamstem": 7051,
  "\u2581trait": 7052,
  "emp\u00eacher": 7053,
  "\u2581CANTI": 7054,
  "\u2581Messiaanse": 7055,
  "\u2581Orient": 7056,
  "\u2581burgers": 7057,
  "\u2581complexe": 7058,
  "\u2581vereer": 7059,
  "\u2581visible": 7060,
  "fer": 7061,
  "ienne": 7062,
  "lle": 7063,
  "pie": 7064,
  "\u2581affirment": 7065,
  "\u2581beperkte": 7066,
  "\u2581consulter": 7067,
  "\u2581fortifier": 7068,
  "\u2581owerhede": 7069,
  "\u2581symbole": 7070,
  "fr": 7071,
  "o\u00ef": 7072,
  "\u2581cha\u00eene": 7073,
  "\u2581courante": 7074,
  "\u2581demandait": 7075,
  "\u2581d\u00e9couvertes": 7076,
  "\u2581gehuil": 7077,
  "\u2581jet\u00e9": 7078,
  "\u2581lekker": 7079,
  "\u2581moeiliker": 7080,
  "\u2581oortuigings": 7081,
  "\u2581option": 7082,
  "\u2581pot": 7083,
  "Ils": 7084,
  "ouest": 7085,
  "\u2581beurt": 7086,
  "\u2581disaient": 7087,
  "\u2581gedrink": 7088,
  "\u2581marqu\u00e9": 7089,
  "\u2581r\u00e9alis\u00e9e": 7090,
  "\u2581skoonheid": 7091,
  "tin": 7092,
  "\u2581Maleagi": 7093,
  "\u2581contenant": 7094,
  "\u2581doeltreffende": 7095,
  "\u2581lengte": 7096,
  "\u2581verbly": 7097,
  "ram": 7098,
  "\u258130:": 7099,
  "\u2581Exodus": 7100,
  "\u2581Miljoene": 7101,
  "\u2581altesaam": 7102,
  "\u2581attach\u00e9s": 7103,
  "\u2581bely": 7104,
  "\u2581betekenisvolle": 7105,
  "\u2581chaud": 7106,
  "\u2581geslagsomgang": 7107,
  "\u2581honorer": 7108,
  "\u2581prot\u00e8ge": 7109,
  "\u2581skepe": 7110,
  "\u2581s\u00e9lectionn\u00e9s": 7111,
  "\u2581voetstappe": 7112,
  "\u2581vrygestel": 7113,
  "\u2581\u00e9l\u00e9ment": 7114,
  "lam": 7115,
  "\u2581(19": 7116,
  "\u2581bar": 7117,
  "\u2581fausses": 7118,
  "\u2581floreer": 7119,
  "\u2581pynlike": 7120,
  "\u2581sterwe": 7121,
  "Tout": 7122,
  "ole": 7123,
  "rig": 7124,
  "\u2581Environ": 7125,
  "\u2581destination": 7126,
  "\u2581gard\u00e9": 7127,
  "\u2581int\u00e9ressant": 7128,
  "\u2581prouve": 7129,
  "\u2581ressenti": 7130,
  "\u2581revoir": 7131,
  "\u2581soeke": 7132,
  "\u2581wildernis": 7133,
  "int": 7134,
  "\u2581Page": 7135,
  "\u2581courrier": 7136,
  "\u2581encourag\u00e9s": 7137,
  "\u2581excellente": 7138,
  "\u2581malheurs": 7139,
  "\u2581mettra": 7140,
  "\u2581minimum": 7141,
  "\u2581tomb\u00e9": 7142,
  "\u2581visites": 7143,
  "\u2581w\u00earelddele": 7144,
  "aimable": 7145,
  "atmosph\u00e8re": 7146,
  "men": 7147,
  "wer": 7148,
  "\u2581Sam": 7149,
  "\u2581geskille": 7150,
  "\u2581projets": 7151,
  "\u2581souligne": 7152,
  "CH": 7153,
  "\u2581Art": 7154,
  "\u2581L\u00eaer": 7155,
  "\u2581Mi": 7156,
  "\u2581Russiese": 7157,
  "\u2581chevaux": 7158,
  "\u2581genaamd": 7159,
  "\u2581le\u00ebrs": 7160,
  "\u2581propri\u00e9taire": 7161,
  "\u2581styg": 7162,
  "\u2581voortdurende": 7163,
  "Isa\u00efe": 7164,
  "\u2581DANS": 7165,
  "\u2581aanvalle": 7166,
  "\u2581continuez": 7167,
  "\u2581gepaardgaan": 7168,
  "\u2581militaires": 7169,
  "\u2581sac": 7170,
  "\u2581vasgestel": 7171,
  "\u2581verag": 7172,
  "\u2581vreemdelinge": 7173,
  "Mon": 7174,
  "Pour": 7175,
  "ders": 7176,
  "gen": 7177,
  "\u25811943": 7178,
  "\u2581aangeval": 7179,
  "\u2581dors": 7180,
  "\u2581im": 7181,
  "\u2581indiquent": 7182,
  "\u2581lus": 7183,
  "\u2581onderwerpe": 7184,
  "\u2581tere": 7185,
  "\u2581vieille": 7186,
  "\u2581vrye": 7187,
  "Country": 7188,
  "Gaan": 7189,
  "aal": 7190,
  "aucune": 7191,
  "ide": 7192,
  "information": 7193,
  "\u258127,": 7194,
  "\u2581Albert": 7195,
  "\u2581broederskap": 7196,
  "\u2581bykomende": 7197,
  "\u2581gedoopte": 7198,
  "\u2581hebsug": 7199,
  "\u2581notes": 7200,
  "\u2581spyt": 7201,
  "sies": 7202,
  "\u2581Bron": 7203,
  "\u2581conform\u00e9ment": 7204,
  "\u2581douter": 7205,
  "\u2581format": 7206,
  "\u2581prosp\u00e9rit\u00e9": 7207,
  "\u2581riviere": 7208,
  "\u2581types": 7209,
  "\u2581vraisemblable": 7210,
  "40": 7211,
  "cal": 7212,
  "mu": 7213,
  "\u2581Krugersdorp": 7214,
  "\u2581Privaats": 7215,
  "\u2581Trois": 7216,
  "\u2581b\u00e2timents": 7217,
  "\u2581coll\u00e8gues": 7218,
  "\u2581fortes": 7219,
  "\u2581gedeelte": 7220,
  "\u2581idoles": 7221,
  "\u2581poss\u00e8dent": 7222,
  "\u2581provoque": 7223,
  "\u2581r\u00e9dacteurs": 7224,
  "\u2581r\u00e9sum\u00e9": 7225,
  "\u25811960": 7226,
  "\u2581Soewerein": 7227,
  "\u2581aim\u00e9s": 7228,
  "\u2581daarteen": 7229,
  "\u2581eindig": 7230,
  "\u2581geheue": 7231,
  "\u2581monnaie": 7232,
  "\u2581occidentale": 7233,
  "\u2581poss\u00e9der": 7234,
  "\u2581verduideliking": 7235,
  "animal": 7236,
  "\u2581D\u00edt": 7237,
  "\u2581amptelike": 7238,
  "\u2581emosioneel": 7239,
  "\u2581frappe": 7240,
  "\u2581gery": 7241,
  "\u2581oorlede": 7242,
  "\u2581oplos": 7243,
  "\u2581souviens": 7244,
  "\u2581strik": 7245,
  "2067": 7246,
  "ans": 7247,
  "autel": 7248,
  "form": 7249,
  "\u2581d\u00e9clarations": 7250,
  "\u2581nageslag": 7251,
  "\u2581opgebou": 7252,
  "\u2581pass\u00e9es": 7253,
  "\u2581pr\u00e9paration": 7254,
  "\u2581tipe": 7255,
  "\u2581voortreflike": 7256,
  "appelle": 7257,
  "appliquer": 7258,
  "ext\u00e9rieur": 7259,
  "hiver": 7260,
  "port": 7261,
  "pr": 7262,
  "\u2581'%": 7263,
  "\u25811940": 7264,
  "\u25812003": 7265,
  "\u2581Espagne": 7266,
  "\u2581beroemde": 7267,
  "\u2581bevredigende": 7268,
  "\u2581blou": 7269,
  "\u2581finir": 7270,
  "\u2581fumer": 7271,
  "\u2581oorspronklik": 7272,
  "\u2581situ\u00e9": 7273,
  "\u2581souffert": 7274,
  "\u2581temp\u00eate": 7275,
  "\u2581vaardighede": 7276,
  "\u2581voortgebring": 7277,
  "\u2581vrymoedigheid": 7278,
  "\u2581\u00eele": 7279,
  "30": 7280,
  "las": 7281,
  "ui": 7282,
  "\u2581Druk": 7283,
  "\u2581HTML": 7284,
  "\u2581NASA": 7285,
  "\u2581Tar": 7286,
  "\u2581achev\u00e9": 7287,
  "\u2581attaques": 7288,
  "\u2581betroubaar": 7289,
  "\u2581crime": 7290,
  "\u2581mishandel": 7291,
  "ay": 7292,
  "ick": 7293,
  "\u2581Babiloniese": 7294,
  "\u2581Lu": 7295,
  "\u2581gr\u00e9": 7296,
  "\u2581instant": 7297,
  "\u2581r\u00e9pandu": 7298,
  "\u2581swakhede": 7299,
  "apparition": 7300,
  "lusieurs": 7301,
  "vront": 7302,
  "ze": 7303,
  "\u00e8ne": 7304,
  "\u2581Reste": 7305,
  "\u2581fond\u00e9": 7306,
  "\u2581gewas": 7307,
  "\u2581le\u00ebrskare": 7308,
  "\u2581manifestent": 7309,
  "\u2581na\u00eetre": 7310,
  "\u2581tydstip": 7311,
  "\u2581verwoesting": 7312,
  "\u2581wese": 7313,
  "\u2581\u00cates": 7314,
  "absence": 7315,
  "i\u00e8re": 7316,
  "\u2581900": 7317,
  "\u2581bedien": 7318,
  "\u2581code": 7319,
  "\u2581tomb\u00e9e": 7320,
  "\u2581verwek": 7321,
  "gaande": 7322,
  "zi": 7323,
  "\u2581Notez": 7324,
  "\u2581Verwyder": 7325,
  "\u2581mainte": 7326,
  "\u2581racont\u00e9": 7327,
  "\u2581romaine": 7328,
  "\u2581sorti": 7329,
  "\u2581souffle": 7330,
  "\u2581verborge": 7331,
  "\u2581vleeslike": 7332,
  "\u2581wens": 7333,
  "\u2581\u00c9tudiants": 7334,
  "nne": 7335,
  "\u00e1n": 7336,
  "\u2581Association": 7337,
  "\u2581Chacun": 7338,
  "\u2581Ru": 7339,
  "\u2581oubli\u00e9": 7340,
  "\u2581pr\u00eater": 7341,
  "\u2581sinon": 7342,
  "\u2581verlo\u00ebn": 7343,
  "\u2581vive": 7344,
  "Constellation": 7345,
  "\u00e9chelle": 7346,
  "\u258164": 7347,
  "\u2581Bon": 7348,
  "\u2581Hoekom": 7349,
  "\u2581Lo": 7350,
  "\u2581aanbied": 7351,
  "\u2581conclure": 7352,
  "\u2581deurbring": 7353,
  "\u2581entra\u00eener": 7354,
  "\u2581figuurlike": 7355,
  "\u2581kragtig": 7356,
  "\u2581ouvriers": 7357,
  "\u2581r\u00e9elle": 7358,
  "\u2581skaal": 7359,
  "\u2581soumission": 7360,
  "boek": 7361,
  "my": 7362,
  "\u258139.": 7363,
  "\u2581Consid\u00e9rez": 7364,
  "\u2581Consid\u00e9rons": 7365,
  "\u2581abandonner": 7366,
  "\u2581employ\u00e9s": 7367,
  "\u2581fr\u00e9quemment": 7368,
  "\u2581kritieke": 7369,
  "\u2581ouvrages": 7370,
  "\u2581rolprente": 7371,
  "\u2581\u00e9coles": 7372,
  "assistance": 7373,
  "ng": 7374,
  "\u2581Bybels": 7375,
  "\u2581Inteendeel": 7376,
  "\u2581betreklik": 7377,
  "\u2581exigences": 7378,
  "\u2581gemiddeld": 7379,
  "\u2581importe": 7380,
  "\u2581politiek": 7381,
  "\u2581v\u00e9ritablement": 7382,
  "\u00e9dition": 7383,
  "\u00e9tablir": 7384,
  "\u2581Brasero": 7385,
  "\u2581Examinons": 7386,
  "\u2581Sagaria": 7387,
  "\u2581facteur": 7388,
  "\u2581foyers": 7389,
  "\u2581mouvements": 7390,
  "\u2581parviennent": 7391,
  "\u2581tas": 7392,
  "\u2581verval": 7393,
  "\u2581\u00e9coute": 7394,
  "adresses": 7395,
  "inqui\u00e9tude": 7396,
  "\u2581Kor": 7397,
  "\u2581Wetenskaplikes": 7398,
  "\u2581bienveillance": 7399,
  "\u2581croit": 7400,
  "\u2581hewige": 7401,
  "\u2581koffie": 7402,
  "\u2581lied": 7403,
  "\u2581sigbare": 7404,
  "\u2581verplig": 7405,
  "\u2581\u00e9videmment": 7406,
  "Inde": 7407,
  "Institut": 7408,
  "avertissement": 7409,
  "\u2581Alles": 7410,
  "\u2581arms": 7411,
  "\u2581ayez": 7412,
  "\u2581contribuer": 7413,
  "\u2581ekstra": 7414,
  "\u2581pornographie": 7415,
  "\u2581principales": 7416,
  "\u2581refus": 7417,
  "\u2581rou": 7418,
  "\u2581valu": 7419,
  "\u2581vgl": 7420,
  "\u2581\u00c9z\u00e9chiel": 7421,
  "tor": 7422,
  "\u2581Reg": 7423,
  "\u2581geskei": 7424,
  "\u2581leier": 7425,
  "\u2581puret\u00e9": 7426,
  "\u2581uitgawe": 7427,
  "empereur": 7428,
  "kel": 7429,
  "teur": 7430,
  "ture": 7431,
  "\u2581Asie": 7432,
  "\u2581Bybelprofesie\u00eb": 7433,
  "\u2581Israelitiese": 7434,
  "\u2581amie": 7435,
  "\u2581bekeer": 7436,
  "\u2581beskouings": 7437,
  "\u2581para\u00eetre": 7438,
  "\u2581portait": 7439,
  "\u2581tent": 7440,
  "OS": 7441,
  "offrir": 7442,
  "\u00e9vidence": 7443,
  "\u2581Lasarus": 7444,
  "\u2581causer": 7445,
  "\u2581ervare": 7446,
  "\u2581firent": 7447,
  "\u2581motors": 7448,
  "\u2581proc\u00e8s": 7449,
  "\u2581repentir": 7450,
  "ible": 7451,
  "ssez": 7452,
  "\u2581Absalom": 7453,
  "\u2581appr\u00e9cier": 7454,
  "\u2581auxquel": 7455,
  "\u2581gunstig": 7456,
  "\u2581kook": 7457,
  "\u2581masse": 7458,
  "\u2581morte": 7459,
  "\u2581spesifiek": 7460,
  "\u2581struikel": 7461,
  "\u2581vigne": 7462,
  "\u2581\u00c9liya": 7463,
  "IL": 7464,
  "onstellation": 7465,
  "\u25812008": 7466,
  "\u2581M\u00e9": 7467,
  "\u2581ONS": 7468,
  "\u2581akkuraat": 7469,
  "\u2581attir\u00e9": 7470,
  "\u2581dieper": 7471,
  "\u2581dormir": 7472,
  "\u2581engendr\u00e9": 7473,
  "\u2581explication": 7474,
  "\u2581ouvrir": 7475,
  "\u2581propose": 7476,
  "\u2581relatives": 7477,
  "\u2581restant": 7478,
  "\u2581tenus": 7479,
  "\u2581traces": 7480,
  "\u2581verbygegaan": 7481,
  "\u2581vlerke": 7482,
  "\u25818;": 7483,
  "\u2581Bou": 7484,
  "\u2581Ortodokse": 7485,
  "\u2581attire": 7486,
  "\u2581copie": 7487,
  "\u2581longueur": 7488,
  "\u2581proph\u00e9tique": 7489,
  "\u2581sourire": 7490,
  "\u2581soutenu": 7491,
  "\u2581suicide": 7492,
  "\u2581territoires": 7493,
  "\u2581vars": 7494,
  "\u2581\u00e9conomiques": 7495,
  "Qui": 7496,
  "ssant": 7497,
  "tic": 7498,
  "\u2581agit\u00e9": 7499,
  "\u2581contiennent": 7500,
  "\u2581data": 7501,
  "\u2581genesing": 7502,
  "\u2581links": 7503,
  "\u2581maatskappy": 7504,
  "\u2581vint": 7505,
  "ate": 7506,
  "int\u00e9resse": 7507,
  "ya": 7508,
  "\u2581Begin": 7509,
  "\u2581L\u00e9vites": 7510,
  "\u2581correspondant": 7511,
  "\u2581metode": 7512,
  "\u2581ongehoorsaam": 7513,
  "\u2581rebelle": 7514,
  "\u2581sagte": 7515,
  "\u2581sewende": 7516,
  "\u2581viens": 7517,
  "\u2581voorts": 7518,
  "lic": 7519,
  "\u258136.": 7520,
  "\u2581Korea": 7521,
  "\u2581Psaumes": 7522,
  "\u2581R\u00e9publique": 7523,
  "\u2581conformer": 7524,
  "\u2581immers": 7525,
  "\u2581kanse": 7526,
  "\u2581progressivement": 7527,
  "\u2581publi\u00e9e": 7528,
  "\u2581soortgelyk": 7529,
  "\u2581trouble": 7530,
  "\u2581ventre": 7531,
  "emp": 7532,
  "\u2581Ca": 7533,
  "\u2581dwaas": 7534,
  "\u2581offrent": 7535,
  "\u2581rapport\u00e9": 7536,
  "\u2581stowwe": 7537,
  "\u2581sub": 7538,
  "\u2581transmettre": 7539,
  "\u2581tribunal": 7540,
  "\u2581voorwerp": 7541,
  "\u00c9tats": 7542,
  "\u2581Kain": 7543,
  "\u2581Ont": 7544,
  "\u2581aveugle": 7545,
  "\u2581gekenmerk": 7546,
  "\u2581jalousie": 7547,
  "\u2581lion": 7548,
  "\u2581pourrais": 7549,
  "\u2581slot": 7550,
  "\u2581violent": 7551,
  "\u2581\u00c9glise": 7552,
  "historien": 7553,
  "industrie": 7554,
  "\u2581Bybelverslag": 7555,
  "\u2581aanskou": 7556,
  "\u2581funksie": 7557,
  "\u2581lag": 7558,
  "\u2581magnifiques": 7559,
  "\u2581marins": 7560,
  "\u2581opgestaan": 7561,
  "\u2581palais": 7562,
  "\u2581pass\u00e9e": 7563,
  "\u2581Cap": 7564,
  "\u2581Outre": 7565,
  "\u2581asb": 7566,
  "\u2581carnet": 7567,
  "\u2581daarvandaan": 7568,
  "\u2581d\u00e9livrer": 7569,
  "\u2581heilsame": 7570,
  "\u2581jeter": 7571,
  "\u2581klippe": 7572,
  "\u2581refusent": 7573,
  "\u2581sorge": 7574,
  "mettant": 7575,
  "opinion": 7576,
  "\u2581HOE": 7577,
  "\u2581affectif": 7578,
  "\u2581afgodediens": 7579,
  "\u2581aimons": 7580,
  "\u2581fleur": 7581,
  "\u2581open": 7582,
  "\u2581royale": 7583,
  "\u2581s\u00fbre": 7584,
  "\u2581valide": 7585,
  "\u2581violents": 7586,
  "allais": 7587,
  "lis": 7588,
  "organisme": 7589,
  "\u2581Devant": 7590,
  "\u2581LIEDERE": 7591,
  "\u2581aardbewing": 7592,
  "\u2581active": 7593,
  "\u2581jug\u00e9": 7594,
  "\u2581kragte": 7595,
  "\u2581savaient": 7596,
  "\u2581voorsienings": 7597,
  "\u2581waarskuwings": 7598,
  "\u2581Aangaande": 7599,
  "\u2581Babel": 7600,
  "\u2581Contraire": 7601,
  "\u2581Daarenteen": 7602,
  "\u2581Luister": 7603,
  "\u2581belanggestel": 7604,
  "\u2581bos": 7605,
  "\u2581chasse": 7606,
  "\u2581egbreuk": 7607,
  "\u2581jaarliks": 7608,
  "\u2581locaux": 7609,
  "\u2581mention": 7610,
  "\u2581num\u00e9ros": 7611,
  "\u2581reconnaissent": 7612,
  "\u2581rendue": 7613,
  "\u2581social": 7614,
  "emp\u00eache": 7615,
  "houdsopgawe": 7616,
  "\u2581Judea": 7617,
  "\u2581Pacifique": 7618,
  "\u2581Park": 7619,
  "\u2581faiblesse": 7620,
  "\u2581hoogtepunt": 7621,
  "\u2581onvolmaaktheid": 7622,
  "\u2581prends": 7623,
  "\u2581traductions": 7624,
  "\u2581voordelig": 7625,
  "\u2581vooroordeel": 7626,
  "ida": 7627,
  "\u2581PAR": 7628,
  "\u2581Wall": 7629,
  "\u2581Weer": 7630,
  "\u2581ch": 7631,
  "\u2581compos\u00e9": 7632,
  "\u2581daaropvolgende": 7633,
  "\u2581esp\u00e8ce": 7634,
  "\u2581ooreenkoms": 7635,
  "\u2581possession": 7636,
  "\u2581uitkyk": 7637,
  "80": 7638,
  "druk": 7639,
  "moet": 7640,
  "\u2581bedryf": 7641,
  "\u2581belemmer": 7642,
  "\u2581faudrait": 7643,
  "\u2581identiteit": 7644,
  "\u2581voyait": 7645,
  "expliquer": 7646,
  "soos": 7647,
  "\u2581Bybeltye": 7648,
  "\u2581Galilea": 7649,
  "\u2581Pilatus": 7650,
  "\u2581divins": 7651,
  "\u2581geweldige": 7652,
  "\u2581latin": 7653,
  "\u2581russe": 7654,
  "\u2581vooruit": 7655,
  "\u2581Ri": 7656,
  "\u2581Werk": 7657,
  "\u2581augmente": 7658,
  "\u2581dienskneg": 7659,
  "\u2581gevange": 7660,
  "\u2581kommentare": 7661,
  "\u2581maintenir": 7662,
  "\u2581obstacles": 7663,
  "\u2581servait": 7664,
  "\u2581stop": 7665,
  "\u2581substances": 7666,
  "\u2581tallo": 7667,
  "\u2581waarborg": 7668,
  "\u2581wedloop": 7669,
  "\u2581\u0153il": 7670,
  "\u00e4": 7671,
  "\u2581110": 7672,
  "\u2581Today": 7673,
  "\u2581cite": 7674,
  "\u2581conseill\u00e9": 7675,
  "\u2581contribue": 7676,
  "\u2581culpabilit\u00e9": 7677,
  "\u2581entretenir": 7678,
  "\u2581fabrication": 7679,
  "\u2581gehoorsame": 7680,
  "\u2581kaart": 7681,
  "\u2581medemens": 7682,
  "\u2581pragtig": 7683,
  "\u2581survie": 7684,
  "\u2581tard\u00e9": 7685,
  "animaux": 7686,
  "bedryf": 7687,
  "gegee": 7688,
  "nc": 7689,
  "oubliez": 7690,
  "\u2581Bly": 7691,
  "\u2581Jan": 7692,
  "\u2581Street": 7693,
  "\u2581aardbewings": 7694,
  "\u2581battre": 7695,
  "\u2581char": 7696,
  "\u2581due": 7697,
  "\u2581glace": 7698,
  "\u2581herken": 7699,
  "\u2581verbod": 7700,
  "\u2581\u00b0": 7701,
  "\u2581\u00e9vident": 7702,
  "ib": 7703,
  "\u00e9ro": 7704,
  "\u258131,": 7705,
  "\u258137.": 7706,
  "\u2581Efese": 7707,
  "\u2581Leviete": 7708,
  "\u2581accomplissement": 7709,
  "\u2581afhanklik": 7710,
  "\u2581blom": 7711,
  "\u2581comptait": 7712,
  "\u2581enigsins": 7713,
  "\u2581fum\u00e9e": 7714,
  "\u2581geleerde": 7715,
  "\u2581opkom": 7716,
  "\u2581photographiques": 7717,
  "\u2581pornografie": 7718,
  "\u2581transformer": 7719,
  "\u2581verrons": 7720,
  "\u2581voorgekom": 7721,
  "\u2581waartydens": 7722,
  "ob": 7723,
  "pel": 7724,
  "\u2581Cedex": 7725,
  "\u2581Gedenkmaal": 7726,
  "\u2581Internasionale": 7727,
  "\u2581Lazare": 7728,
  "\u2581ho\u00ebrskool": 7729,
  "\u2581mari\u00e9e": 7730,
  "\u2581m\u00e9nage": 7731,
  "\u2581rel\u00e8ve": 7732,
  "\u2581standvastig": 7733,
  "\u2581suppl\u00e9mentaire": 7734,
  "\u2581vasgestelde": 7735,
  "\u2581vouer": 7736,
  "\u2581\u00e9diteurs": 7737,
  "\u2581drame": 7738,
  "\u2581d\u00e9finitivement": 7739,
  "\u2581koningin": 7740,
  "\u2581logement": 7741,
  "\u2581qu\u00eate": 7742,
  "\u2581secr\u00e9taire": 7743,
  "\u2581sorgvuldig": 7744,
  "\u2581student": 7745,
  "\u2581tenant": 7746,
  "\u2581verlang": 7747,
  "\u2581volmaaktheid": 7748,
  "EM": 7749,
  "Une": 7750,
  "Ver": 7751,
  "dan": 7752,
  "mor": 7753,
  "pot": 7754,
  "\u2581Volg": 7755,
  "\u2581aanduiding": 7756,
  "\u2581boosheid": 7757,
  "\u2581daarheen": 7758,
  "\u2581geskreeu": 7759,
  "\u2581gesmeek": 7760,
  "\u2581lankmoedigheid": 7761,
  "\u2581m\u00e9dias": 7762,
  "\u2581proclamer": 7763,
  "jie": 7764,
  "plek": 7765,
  "\u25812010": 7766,
  "\u2581Asa": 7767,
  "\u2581apparence": 7768,
  "\u2581citoyens": 7769,
  "\u2581eiers": 7770,
  "\u2581ingewikkelde": 7771,
  "\u2581retraite": 7772,
  "\u2581term": 7773,
  "\u2581woude": 7774,
  "\u2581\u00e9change": 7775,
  "\u2581\u00e9tranger": 7776,
  "Jongmense": 7777,
  "\u25816;": 7778,
  "\u2581Ex": 7779,
  "\u2581Susan": 7780,
  "\u2581approche": 7781,
  "\u2581heg": 7782,
  "\u2581normaal": 7783,
  "\u2581patroon": 7784,
  "\u2581tak": 7785,
  "\u2581verswak": 7786,
  "OP": 7787,
  "ical": 7788,
  "\u25811935": 7789,
  "\u2581Anne": 7790,
  "\u2581Bybelboek": 7791,
  "\u2581alimentaires": 7792,
  "\u2581devriez": 7793,
  "\u2581goedgekeur": 7794,
  "\u2581media": 7795,
  "\u2581op\u00e9ration": 7796,
  "\u2581repr\u00e9sentants": 7797,
  "\u2581stelling": 7798,
  "\u2581s\u00e9rieusement": 7799,
  "bes": 7800,
  "ob\u00e9ir": 7801,
  "reg": 7802,
  "w\u00eareld": 7803,
  "\u2581Encyclop\u00e6dia": 7804,
  "\u2581Gentils": 7805,
  "\u2581Quelque": 7806,
  "\u2581VN": 7807,
  "\u2581bible": 7808,
  "\u2581choisis": 7809,
  "\u2581colonne": 7810,
  "\u2581faiblesses": 7811,
  "\u2581here": 7812,
  "\u2581leeu": 7813,
  "\u2581voltrek": 7814,
  "\u2581(1": 7815,
  "\u25812009": 7816,
  "\u2581almagtige": 7817,
  "\u2581impression": 7818,
  "\u2581middele": 7819,
  "\u2581onbepaalde": 7820,
  "\u2581ontmoedig": 7821,
  "\u2581oorheers": 7822,
  "\u2581refuser": 7823,
  "\u2581roetine": 7824,
  "\u2581r\u00e9solu": 7825,
  "\u2581toevlug": 7826,
  "\u2581vuil": 7827,
  "\u2581v\u00e9rifier": 7828,
  "aat": 7829,
  "\u00e2t": 7830,
  "\u2581arr\u00eat": 7831,
  "\u2581benadering": 7832,
  "\u2581men\u00e9e": 7833,
  "\u2581m\u00e9dicale": 7834,
  "\u2581prendra": 7835,
  "\u2581terrestres": 7836,
  "\u2581wapen": 7837,
  "\u2581wraak": 7838,
  "70": 7839,
  "inverse": 7840,
  "naam": 7841,
  "n\u00e9s": 7842,
  "sa": 7843,
  "\u2581bewerk": 7844,
  "\u2581compar\u00e9": 7845,
  "\u2581d\u00e9termin\u00e9s": 7846,
  "\u2581geredeneer": 7847,
  "\u2581konsentreer": 7848,
  "\u2581repose": 7849,
  "\u2581vendre": 7850,
  "\u2581vinnige": 7851,
  "\u2581weggeneem": 7852,
  "sorganisasie": 7853,
  "\u25811941": 7854,
  "\u2581Effectivement": 7855,
  "\u2581Ken": 7856,
  "\u2581Rooi": 7857,
  "\u2581ballingskap": 7858,
  "\u2581bi": 7859,
  "\u2581i": 7860,
  "\u2581koepon": 7861,
  "\u2581placer": 7862,
  "\u2581plaisirs": 7863,
  "\u2581renforcer": 7864,
  "\u2581verbasing": 7865,
  "\u2581verbygaan": 7866,
  "krag": 7867,
  "lia": 7868,
  "ua": 7869,
  "\u25812005": 7870,
  "\u2581Lire": 7871,
  "\u2581Tr": 7872,
  "\u2581agr\u00e9ables": 7873,
  "\u2581auteur": 7874,
  "\u2581d\u00e9placer": 7875,
  "\u2581d\u00e9sirent": 7876,
  "\u2581d\u00e9termin\u00e9": 7877,
  "\u2581exemplaires": 7878,
  "\u2581kommer": 7879,
  "\u2581maturit\u00e9": 7880,
  "\u2581pr\u00e9f\u00e9rable": 7881,
  "\u2581vertalings": 7882,
  "\u2581vreugdevol": 7883,
  "diens": 7884,
  "sak": 7885,
  "\u00e9quilibre": 7886,
  "\u2581Kleur": 7887,
  "\u2581Ma\u00eetre": 7888,
  "\u2581diffusion": 7889,
  "\u2581dringend": 7890,
  "\u2581gesalf": 7891,
  "\u2581gevang": 7892,
  "\u2581pr\u00eate": 7893,
  "\u2581reuse": 7894,
  "NE": 7895,
  "\u2581Republiek": 7896,
  "\u2581adress\u00e9e": 7897,
  "\u2581gas": 7898,
  "\u2581gehoop": 7899,
  "\u2581leuen": 7900,
  "\u2581paradysaarde": 7901,
  "\u2581rand": 7902,
  "\u2581vacances": 7903,
  "\u2581vrywilligers": 7904,
  "\u2581vyfde": 7905,
  "ED": 7906,
  "Is": 7907,
  "ata": 7908,
  "habitez": 7909,
  "oul": 7910,
  "\u2581Kaliforni\u00eb": 7911,
  "\u2581Sommaire": 7912,
  "\u2581aangetref": 7913,
  "\u2581assistant": 7914,
  "\u2581conseille": 7915,
  "\u2581d\u00e9sespoir": 7916,
  "\u2581frapper": 7917,
  "\u2581gek": 7918,
  "\u2581neigings": 7919,
  "\u2581remplie": 7920,
  "\u2581skrywers": 7921,
  "\u2581strand": 7922,
  "\u2581structure": 7923,
  "\u2581uitgeoefen": 7924,
  "Et": 7925,
  "ita": 7926,
  "\u25817;": 7927,
  "\u2581Eendag": 7928,
  "\u2581Jonathan": 7929,
  "\u2581all\u00e9s": 7930,
  "\u2581illustre": 7931,
  "\u2581incapable": 7932,
  "\u2581intieme": 7933,
  "\u2581maux": 7934,
  "\u2581retard": 7935,
  "\u2581wissel": 7936,
  "ther": 7937,
  "\u25811947": 7938,
  "\u25812011": 7939,
  "\u2581aandui": 7940,
  "\u2581b\u00e9nit": 7941,
  "\u2581confirme": 7942,
  "\u2581ges": 7943,
  "\u2581hawe": 7944,
  "\u2581international": 7945,
  "\u2581jul": 7946,
  "\u2581philosophie": 7947,
  "\u2581prononcer": 7948,
  "\u2581surprenant": 7949,
  "\u2581toevertrou": 7950,
  "\u2581tu\u00e9s": 7951,
  "60": 7952,
  "atif": 7953,
  "uk": 7954,
  "\u00f4": 7955,
  "\u25812]": 7956,
  "\u2581Report": 7957,
  "\u2581Vo": 7958,
  "\u2581certificat": 7959,
  "\u2581mis\u00e9ricordieux": 7960,
  "\u2581translated": 7961,
  "idol\u00e2trie": 7962,
  "\u00e9d": 7963,
  "\u2581Erreur": 7964,
  "\u2581Gen": 7965,
  "\u2581Pinkster": 7966,
  "\u2581Sonder": 7967,
  "\u2581Staat": 7968,
  "\u2581geoffer": 7969,
  "\u2581kleredrag": 7970,
  "\u2581manuscrits": 7971,
  "\u2581m\u00e9lange": 7972,
  "\u2581nakom": 7973,
  "\u2581seras": 7974,
  "\u2581sommer": 7975,
  "\u2581uitmaak": 7976,
  "\u2581uitsonderlike": 7977,
  "\u2581voortduur": 7978,
  "ska": 7979,
  "\u2581Ouer": 7980,
  "\u2581adopt\u00e9": 7981,
  "\u2581arrivent": 7982,
  "\u2581bl\u00e9": 7983,
  "\u2581co\u00fbt": 7984,
  "\u2581fins": 7985,
  "\u2581grain": 7986,
  "\u2581pourrez": 7987,
  "\u2581uiting": 7988,
  "\u2581wetlike": 7989,
  "\u2581\u00e9cran": 7990,
  "ast": 7991,
  "leer": 7992,
  "nom": 7993,
  "\u2581Geloof": 7994,
  "\u2581Image": 7995,
  "\u2581Parys": 7996,
  "\u2581avertissements": 7997,
  "\u2581beheers": 7998,
  "\u2581beweegredes": 7999,
  "\u2581boere": 8000,
  "\u2581chanter": 8001,
  "\u2581humilit\u00e9": 8002,
  "\u2581m\u00fbr": 8003,
  "\u2581onderhoud": 8004,
  "\u2581onregverdig": 8005,
  "\u2581sembler": 8006,
  "\u2581temperatuur": 8007,
  "\u2581\u00e9prouv\u00e9": 8008,
  "Ma": 8009,
  "uses": 8010,
  "\u2581Almagtige": 8011,
  "\u2581Esther": 8012,
  "\u2581LexUriServ": 8013,
  "\u2581Redigeer": 8014,
  "\u2581Westerse": 8015,
  "\u2581faisais": 8016,
  "\u2581rassemblement": 8017,
  "\u2581visant": 8018,
  "att": 8019,
  "v\u00e9": 8020,
  "weg": 8021,
  "\u2581Elisa": 8022,
  "\u2581Hor": 8023,
  "\u2581Indiane": 8024,
  "\u2581Sp": 8025,
  "\u2581afgeneem": 8026,
  "\u2581av": 8027,
  "\u2581encourageant": 8028,
  "\u2581fardeau": 8029,
  "\u2581journaux": 8030,
  "\u2581metgesel": 8031,
  "\u2581omskep": 8032,
  "\u2581oorvloedig": 8033,
  "\u2581sombre": 8034,
  "accent": 8035,
  "\u258138.": 8036,
  "\u2581effectuer": 8037,
  "\u2581eindelose": 8038,
  "\u2581fa": 8039,
  "\u2581hond": 8040,
  "\u2581interne": 8041,
  "\u2581kante": 8042,
  "\u2581messianique": 8043,
  "\u2581nek": 8044,
  "\u2581rampe": 8045,
  "\u2581slaag": 8046,
  "\u2581soucis": 8047,
  "kie": 8048,
  "\u2581Tite": 8049,
  "\u2581besondere": 8050,
  "\u2581bronne": 8051,
  "\u2581fen\u00eatres": 8052,
  "\u2581oftewel": 8053,
  "\u2581participation": 8054,
  "\u2581raadpleeg": 8055,
  "\u2581rendait": 8056,
  "\u2581soudain": 8057,
  "\u2581vain": 8058,
  "AS": 8059,
  "anse": 8060,
  "bro": 8061,
  "\u2581Bi": 8062,
  "\u2581Stille": 8063,
  "\u2581cadeau": 8064,
  "\u2581concentrer": 8065,
  "\u2581d\u00e9cennies": 8066,
  "\u2581d\u00e9pendance": 8067,
  "\u2581godvresende": 8068,
  "\u2581louanges": 8069,
  "\u2581opgelos": 8070,
  "\u2581opwindende": 8071,
  "\u2581poort": 8072,
  "\u2581voler": 8073,
  "\u2581wonderdadige": 8074,
  "cho": 8075,
  "indique": 8076,
  "ties": 8077,
  "ttes": 8078,
  "\u258131]": 8079,
  "\u2581Andr\u00e9": 8080,
  "\u2581Nathan": 8081,
  "\u2581VHJ": 8082,
  "\u2581alimentaire": 8083,
  "\u2581attendent": 8084,
  "\u2581commencent": 8085,
  "\u2581d\u00e9livrance": 8086,
  "\u2581d\u00e9tail": 8087,
  "\u2581heiliges": 8088,
  "\u2581inconnu": 8089,
  "\u2581onreg": 8090,
  "\u2581opgewonde": 8091,
  "\u2581prenons": 8092,
  "\u2581pressions": 8093,
  "\u2581probable": 8094,
  "\u2581proverbe": 8095,
  "\u2581trans": 8096,
  "\u2581weeg": 8097,
  "\u2581wonderwerk": 8098,
  "\u2581\u00e9lever": 8099,
  "bon": 8100,
  "ens": 8101,
  "iel": 8102,
  "\u2581#160;?": 8103,
  "\u2581BYBEL": 8104,
  "\u2581Evangelie": 8105,
  "\u2581MA": 8106,
  "\u2581Merk": 8107,
  "\u2581c\u00e9lestes": 8108,
  "\u2581latere": 8109,
  "\u2581liggame": 8110,
  "\u2581ligging": 8111,
  "\u2581uniek": 8112,
  "\u2581verskille": 8113,
  "\u2581verwesenlik": 8114,
  "comme": 8115,
  "ira": 8116,
  "\u2581Fort": 8117,
  "\u2581Navorsers": 8118,
  "\u2581Pays": 8119,
  "\u2581Sentraal": 8120,
  "\u2581arrivera": 8121,
  "\u2581assosiasie": 8122,
  "\u2581belangstellende": 8123,
  "\u2581condamne": 8124,
  "\u2581d\u00e9barrasser": 8125,
  "\u2581krisis": 8126,
  "\u2581melding": 8127,
  "\u2581reposer": 8128,
  "lui": 8129,
  "orateur": 8130,
  "\u00eare": 8131,
  "\u2581aksie": 8132,
  "\u2581does": 8133,
  "l\u00e0": 8134,
  "rap": 8135,
  "\u2581douce": 8136,
  "\u2581geskiedskrywer": 8137,
  "\u2581onderdanig": 8138,
  "\u2581requ\u00eate": 8139,
  "\u2581r\u00e9gner": 8140,
  "\u2581tristesse": 8141,
  "\u2581vermeerdering": 8142,
  "\u2581voleinding": 8143,
  "line": 8144,
  "maak": 8145,
  "\u2581Ann": 8146,
  "\u2581Chez": 8147,
  "\u2581Godsdiens": 8148,
  "\u2581Gra": 8149,
  "\u2581apparu": 8150,
  "\u2581disparition": 8151,
  "\u2581getuieniswerk": 8152,
  "\u2581int\u00e9rieure": 8153,
  "\u2581mark": 8154,
  "\u2581paisible": 8155,
  "\u2581paragraaf": 8156,
  "\u2581rendra": 8157,
  "\u2581tensions": 8158,
  "ec": 8159,
  "envie": 8160,
  "pad": 8161,
  "\u2581Go": 8162,
  "\u2581Italiaanse": 8163,
  "\u2581Pole": 8164,
  "\u2581comportements": 8165,
  "\u2581consid\u00e9rable": 8166,
  "\u2581curiosit\u00e9": 8167,
  "\u2581expressions": 8168,
  "\u2581gehaat": 8169,
  "\u2581ge\u00ebindig": 8170,
  "\u2581jouir": 8171,
  "\u2581nut": 8172,
  "\u2581onderskraag": 8173,
  "\u2581oopmaak": 8174,
  "\u2581proba": 8175,
  "\u2581recommand\u00e9": 8176,
  "\u2581r\u00e9unir": 8177,
  "\u2581souvenirs": 8178,
  "\u2581tabak": 8179,
  "\u2581weergawe": 8180,
  "\u2581\u00e2g\u00e9e": 8181,
  "RA": 8182,
  "ses": 8183,
  "ult": 8184,
  "\u2581Archive": 8185,
  "\u2581Haut": 8186,
  "\u2581Hebreeus": 8187,
  "\u2581Saulus": 8188,
  "\u2581Sowjetunie": 8189,
  "\u2581briser": 8190,
  "\u2581d\u00e9penses": 8191,
  "\u2581habitude": 8192,
  "\u2581invite": 8193,
  "\u2581klei": 8194,
  "\u2581konflik": 8195,
  "\u2581nucl\u00e9aire": 8196,
  "\u2581sauv\u00e9s": 8197,
  "Agneau": 8198,
  "\u2581Faut": 8199,
  "\u2581enseignent": 8200,
  "\u2581gehandel": 8201,
  "\u2581gemeenskappe": 8202,
  "\u2581occup\u00e9": 8203,
  "\u2581privil\u00e8ges": 8204,
  "\u2581strewe": 8205,
  "\u2581waarby": 8206,
  "amp": 8207,
  "boom": 8208,
  "int\u00e9resser": 8209,
  "king": 8210,
  "nou": 8211,
  "win": 8212,
  "\u258125;": 8213,
  "\u2581Bu": 8214,
  "\u2581Protestantse": 8215,
  "\u2581aangewend": 8216,
  "\u2581choc": 8217,
  "\u2581glorifier": 8218,
  "\u2581jointe": 8219,
  "\u2581ouverte": 8220,
  "\u2581poussent": 8221,
  "\u2581p\u00e9cheur": 8222,
  "\u2581uitgebreek": 8223,
  "IR": 8224,
  "arriv\u00e9e": 8225,
  "ati": 8226,
  "tant": 8227,
  "tas": 8228,
  "\u2581\"{0}\"": 8229,
  "\u258183": 8230,
  "\u2581Continuez": 8231,
  "\u2581Jersey": 8232,
  "\u2581Skrap": 8233,
  "\u2581cach\u00e9": 8234,
  "\u2581gepreek": 8235,
  "\u2581gr\u00e2ces": 8236,
  "\u2581mat\u00e9riaux": 8237,
  "\u2581nationale": 8238,
  "alarme": 8239,
  "inligting": 8240,
  "\u00e9ternit\u00e9": 8241,
  "\u00fa": 8242,
  "\u2581145": 8243,
  "\u25812012": 8244,
  "\u2581Bient\u00f4t": 8245,
  "\u2581Darwin": 8246,
  "\u2581Philistins": 8247,
  "\u2581agtergelaat": 8248,
  "\u2581aideront": 8249,
  "\u2581begeer": 8250,
  "\u2581bewonder": 8251,
  "\u2581bris\u00e9": 8252,
  "\u2581cadeaux": 8253,
  "\u2581eienaar": 8254,
  "\u2581ferm": 8255,
  "\u2581ge\u00efgnoreer": 8256,
  "\u2581ideale": 8257,
  "\u2581ordinateur": 8258,
  "\u2581possibilit\u00e9s": 8259,
  "\u2581sauf": 8260,
  "\u2581soutient": 8261,
  "\u2581spruit": 8262,
  "\u2581vergaan": 8263,
  "bra": 8264,
  "object": 8265,
  "oublions": 8266,
  "\u2581Ierland": 8267,
  "\u2581Tessalonisense": 8268,
  "\u2581chronique": 8269,
  "\u2581conforme": 8270,
  "\u2581d\u00e9tourner": 8271,
  "\u2581f\u00fbt": 8272,
  "\u2581huisgesin": 8273,
  "\u2581ingegaan": 8274,
  "\u2581meerderheid": 8275,
  "\u2581raconter": 8276,
  "\u2581verower": 8277,
  "\u2581vou\u00e9s": 8278,
  "\u2581130": 8279,
  "\u2581IL": 8280,
  "\u2581Mika": 8281,
  "\u2581chien": 8282,
  "\u2581courriel": 8283,
  "\u2581dictionnaire": 8284,
  "\u2581ho": 8285,
  "\u2581lib\u00e9r\u00e9s": 8286,
  "\u2581remarquables": 8287,
  "\u2581r\u00e9dacteur": 8288,
  "\u2581souris": 8289,
  "\u2581v\u0153u": 8290,
  "LA": 8291,
  "applique": 8292,
  "nuwe": 8293,
  "pu": 8294,
  "\u2581Val": 8295,
  "\u2581bydrae": 8296,
  "\u2581caract\u00e8res": 8297,
  "\u2581constat": 8298,
  "\u2581dirent": 8299,
  "\u2581gevangene": 8300,
  "\u2581hieraan": 8301,
  "\u2581individuele": 8302,
  "\u2581senti": 8303,
  "\u2581veldbediening": 8304,
  "\u2581vereiste": 8305,
  "bus": 8306,
  "examiner": 8307,
  "immortalit\u00e9": 8308,
  "star": 8309,
  "\u2581Mu": 8310,
  "\u2581bitter": 8311,
  "\u2581kenmerke": 8312,
  "\u2581lib\u00e9rer": 8313,
  "\u2581wolke": 8314,
  "12": 8315,
  "bas": 8316,
  "consid\u00e9rablement": 8317,
  "cri": 8318,
  "imperfection": 8319,
  "\u2581Hawaii": 8320,
  "\u2581Iets": 8321,
  "\u2581Pilate": 8322,
  "\u2581QUE": 8323,
  "\u2581attentif": 8324,
  "\u2581comprenait": 8325,
  "\u2581continuellement": 8326,
  "\u2581d\u00e9fauts": 8327,
  "\u2581gebeurtenisse": 8328,
  "\u2581gewoond": 8329,
  "\u2581hartlik": 8330,
  "\u2581karakter": 8331,
  "\u2581particip\u00e9": 8332,
  "\u2581\u00e9norme": 8333,
  "!\"": 8334,
  "\u2581Filistyne": 8335,
  "\u2581conseiller": 8336,
  "\u2581courir": 8337,
  "\u2581endurance": 8338,
  "\u2581favorable": 8339,
  "\u2581illustrasies": 8340,
  "\u2581metaal": 8341,
  "\u2581m\u00e9ritent": 8342,
  "\u2581seules": 8343,
  "\u2581sigself": 8344,
  "\u2581substance": 8345,
  "\u2581touristes": 8346,
  "\u2581verlei": 8347,
  "\u2581\u00e9ducation": 8348,
  "am\u00e9liorer": 8349,
  "geen": 8350,
  "gr": 8351,
  "instant": 8352,
  "jies": 8353,
  "loop": 8354,
  "program": 8355,
  "ques": 8356,
  "verdraagsaamheid": 8357,
  "\u2581Fr\u00e8re": 8358,
  "\u2581Jos\u00e9": 8359,
  "\u2581Levitikus": 8360,
  "\u2581Rio": 8361,
  "\u2581Tyndale": 8362,
  "\u2581attaque": 8363,
  "\u2581bederf": 8364,
  "\u2581effort": 8365,
  "\u2581estim\u00e9": 8366,
  "\u2581fr\u00e9quentations": 8367,
  "\u2581medewerker": 8368,
  "\u2581pont": 8369,
  "\u2581priv\u00e9": 8370,
  "\u2581provoqu\u00e9": 8371,
  "\u2581rencontrent": 8372,
  "\u2581tragedie": 8373,
  "\u2581tromper": 8374,
  "\u2581verneder": 8375,
  "J\u00e9sus": 8376,
  "apporter": 8377,
  "nde": 8378,
  "ps": 8379,
  "\u2581Beteken": 8380,
  "\u2581Mc": 8381,
  "\u2581Saisissez": 8382,
  "\u2581dossiers": 8383,
  "\u2581innige": 8384,
  "\u2581inqui\u00e9tudes": 8385,
  "\u2581mettait": 8386,
  "\u2581mill\u00e9naire": 8387,
  "\u2581raisonner": 8388,
  "\u2581revues": 8389,
  "\u2581r\u00e9guli\u00e8re": 8390,
  "\u2581suide": 8391,
  "\u2581s\u00e9lection": 8392,
  "\u2581visiter": 8393,
  "tos": 8394,
  "vir": 8395,
  "\u2581Cr\u00e9er": 8396,
  "\u2581bouton": 8397,
  "\u2581couronne": 8398,
  "\u2581cr\u00e9\u00e9e": 8399,
  "\u2581domestiques": 8400,
  "\u2581joindre": 8401,
  "\u2581requises": 8402,
  "\u2581saal": 8403,
  "\u2581soulign\u00e9": 8404,
  "\u2581verwysing": 8405,
  "\u2581volledige": 8406,
  "\u2581\u00e9quilibre": 8407,
[...]
