{
  "<unk>": 0,
  "<s>": 1,
  "</s>": 2,
  "\u2581k": 3,
  "\u2581d": 4,
  "\u2581l": 5,
  "an": 6,
  "\u2581n": 7,
  "\u2581s": 8,
  "en": 9,
  "\u2581m": 10,
  "\u2581b": 11,
  "es": 12,
  "\u2581t": 13,
  "\u2581y": 14,
  "\u2581a": 15,
  "\u2581p": 16,
  "on": 17,
  "in": 18,
  "\u2581ka": 19,
  "ou": 20,
  "\u2581f": 21,
  "\u2581c": 22,
  "\u2581la": 23,
  "is": 24,
  "un": 25,
  "\u2581ye": 26,
  "\u2581de": 27,
  "re": 28,
  "ra": 29,
  "qu": 30,
  "il": 31,
  "it": 32,
  "\u2581qu": 33,
  "er": 34,
  "\u2581j": 35,
  "ar": 36,
  "ent": 37,
  "\u2581ko": 38,
  "eu": 39,
  "\u2581be": 40,
  "as": 41,
  "\u2581A": 42,
  "\u2581v": 43,
  "le": 44,
  "\u2581le": 45,
  "\u2581e": 46,
  "\u2581ma": 47,
  "la": 48,
  "est": 49,
  "ma": 50,
  "us": 51,
  "\u2581ne": 52,
  "\u0254n": 53,
  "ous": 54,
  "\u2581w": 55,
  "our": 56,
  "ga": 57,
  "ti": 58,
  "om": 59,
  "\u2581ni": 60,
  "\u2581na": 61,
  "\u2581I": 62,
  "\u2581o": 63,
  "\u2581J": 64,
  "\u2581et": 65,
  "\u2581\"": 66,
  "el": 67,
  "\u2581L": 68,
  "\u2581sa": 69,
  "\u2581k\u025b": 70,
  "\u2581se": 71,
  "\u2581min": 72,
  "\u2581\u00e0": 73,
  "\u2581pas": 74,
  "\u2581an": 75,
  "..": 76,
  "\u2581N": 77,
  "li": 78,
  "\u0254g": 79,
  "\u2581M": 80,
  "ya": 81,
  "\u25811": 82,
  "oi": 83,
  "or": 84,
  "\u025bn": 85,
  "me": 86,
  "\u2581en": 87,
  "\u2581fa": 88,
  "\u2581i": 89,
  "\u2581C": 90,
  "\u2581un": 91,
  "ta": 92,
  "\u2581que": 93,
  "\u0254g\u0254": 94,
  "\u0254r": 95,
  "ba": 96,
  "\u2581kan": 97,
  "ri": 98,
  "\u2581les": 99,
  "\u2581S": 100,
  "ant": 101,
  "\u2581D": 102,
  "aa": 103,
  "\u0254r\u0254": 104,
  "man": 105,
  "\u2581di": 106,
  "\u2581si": 107,
  "ont": 108,
  "\u2581h": 109,
  "\u2581\u0272": 110,
  "\u2581lo": 111,
  "\u2581du": 112,
  "te": 113,
  "gu": 114,
  "gi": 115,
  "\u2581su": 116,
  "ce": 117,
  "\u2581E": 118,
  "\u2581f\u0254": 119,
  "\u2581r": 120,
  "\u25812": 121,
  "\u025b\u025b": 122,
  "\u2581tun": 123,
  "ai": 124,
  "eur": 125,
  "\u2581ce": 126,
  "ui": 127,
  "\u2581g": 128,
  "\u2581\u00e9": 129,
  "\u2581ta": 130,
  "\u2581u": 131,
  "ve": 132,
  "ari": 133,
  "\u2581tu": 134,
  "\u2581aw": 135,
  "ment": 136,
  "ol": 137,
  "\u2581?": 138,
  "\u00e9s": 139,
  "\u2581est": 140,
  "ans": 141,
  "\u2581au": 142,
  "\u2581Il": 143,
  "\u2581par": 144,
  "ons": 145,
  "\u2581vous": 146,
  "\u2581des": 147,
  "ana": 148,
  "au": 149,
  "onn": 150,
  "si": 151,
  "\u2581b\u025b\u025b": 152,
  "\u2581qui": 153,
  "\u2581P": 154,
  "ro": 155,
  "\u2581O": 156,
  "\u2581il": 157,
  "ena": 158,
  "\u2581pour": 159,
  "\u2581Je": 160,
  "ch": 161,
  "tre": 162,
  "se": 163,
  ".\"": 164,
  "ka": 165,
  "\u2581K": 166,
  "de": 167,
  "\u025br": 168,
  "\u2581je": 169,
  "\u2581f\u025b": 170,
  "\u2581Ala": 171,
  "\u2581ba": 172,
  "res": 173,
  "\u2581dans": 174,
  "\u2581Y": 175,
  "\u2581wa": 176,
  "\u025br\u025b": 177,
  "go": 178,
  "na": 179,
  "\u2581m\u0254g\u0254": 180,
  "\u2581te": 181,
  "va": 182,
  "\u2581com": 183,
  "\u2581T": 184,
  "\u2581to": 185,
  "\u2581bena": 186,
  "...": 187,
  "\u2581ch": 188,
  "\u2581yo": 189,
  "\u2581nin": 190,
  "ez": 191,
  "end": 192,
  "ieu": 193,
  "\u2581B": 194,
  "\u2581tou": 195,
  "\u2581pl": 196,
  "\u2581bi": 197,
  "\u25813": 198,
  "am": 199,
  "ur": 200,
  "\u2581re": 201,
  "ge": 202,
  "\u00e8re": 203,
  "t\u00e9": 204,
  "\u2581d\u0254": 205,
  "\u2581k\u0254n": 206,
  "\u2581une": 207,
  "\u2581t\u025b": 208,
  "\u00e9e": 209,
  "\u2581-": 210,
  "\u2581Ma": 211,
  "\u2581fil": 212,
  "gn": 213,
  "\u2581ani": 214,
  "\u2581ku": 215,
  "os": 216,
  "\u2581koo": 217,
  "\u2581plus": 218,
  "ris": 219,
  "da": 220,
  "mp": 221,
  "ran": 222,
  "\u2581d\u00e9": 223,
  "\u2581da": 224,
  "lu": 225,
  "\u2581man": 226,
  "olo": 227,
  "ko": 228,
  "ogo": 229,
  "ci": 230,
  "eux": 231,
  "pp": 232,
  "tion": 233,
  "\u2581F": 234,
  "elen": 235,
  "al": 236,
  "di": 237,
  "r\u00e8": 238,
  "\u2581Le": 239,
  "\u2581Ne": 240,
  "asa": 241,
  "\u2581nous": 242,
  "ers": 243,
  "\u2581Dieu": 244,
  "ir": 245,
  "\u2581ya": 246,
  "\u2581U": 247,
  "ili": 248,
  "tait": 249,
  "les": 250,
  "\u2581ja": 251,
  "\u25814": 252,
  "\u2581ti": 253,
  "den": 254,
  "\u2581Q": 255,
  "\u2581lui": 256,
  "\u2581sont": 257,
  "\u2581k\u0254n\u0254": 258,
  "\u2581taga": 259,
  "\u2581kelen": 260,
  "\u2581k\u0254": 261,
  "yi": 262,
  "\u2581sur": 263,
  "\u2581mon": 264,
  "oo": 265,
  "tes": 266,
  "ie": 267,
  "elle": 268,
  "ire": 269,
  "ff": 270,
  "\u2581pr": 271,
  "et": 272,
  "\u2581r\u00e9": 273,
  "\u2581b\u0254": 274,
  "que": 275,
  "\u2581La": 276,
  "mi": 277,
  "\u2581!": 278,
  "\u2581fait": 279,
  "int": 280,
  "\u2581ave": 281,
  "\u2581s\u0254r\u0254": 282,
  "\u2581ha": 283,
  "\u2581dit": 284,
  "\u2581fana": 285,
  "l\u025b": 286,
  "rit": 287,
  "lle": 288,
  "ut": 289,
  "\u2581san": 290,
  "tigi": 291,
  "ila": 292,
  "\u2581y\u025br\u025b": 293,
  "\u2581Qu": 294,
  "\u2581don": 295,
  "\u2581l\u0254n": 296,
  "ils": 297,
  "\u2581jour": 298,
  "ni": 299,
  "c\u025b": 300,
  "uso": 301,
  "\u2581bari": 302,
  "ois": 303,
  "\u2581peu": 304,
  "ort": 305,
  "ouv": 306,
  "aw": 307,
  "\u2581mi": 308,
  "\u2581mais": 309,
  "oir": 310,
  "\u2581minw": 311,
  "fa": 312,
  "mes": 313,
  "\u2581V": 314,
  "bi": 315,
  "ins": 316,
  "ens": 317,
  "\u00eatre": 318,
  "\u0272\u025b": 319,
  "omme": 320,
  "\u2581pro": 321,
  "\u2581son": 322,
  "\u2581tout": 323,
  "\u2581Les": 324,
  "\u2581avec": 325,
  "\u2581kun": 326,
  "tu": 327,
  "\u2581ai": 328,
  "ab": 329,
  "\u2581kos": 330,
  "\u2581ju": 331,
  "\u2581den": 332,
  "\u2581dis": 333,
  "\u2581cogo": 334,
  "\u2581Aw": 335,
  "em": 336,
  "ini": 337,
  "\u2581kuma": 338,
  "\u2581yi": 339,
  "ux": 340,
  "iti": 341,
  "\u2581suis": 342,
  "\u2581ki": 343,
  "\u2581Et": 344,
  "vait": 345,
  "\u25815": 346,
  "r\u00e8s": 347,
  "lan": 348,
  "\u2581ji": 349,
  "m\u025b": 350,
  "ezu": 351,
  "\u00e9sus": 352,
  "ne": 353,
  "\u2581ra": 354,
  "ile": 355,
  "\u2581\u00e9t\u00e9": 356,
  "\u2581J\u00e9sus": 357,
  "jour": 358,
  "\u2581comme": 359,
  "lo": 360,
  "\u2581yen": 361,
  "\u0254g\u0254n": 362,
  "\u00eame": 363,
  "\u2581Se": 364,
  "\u2581An": 365,
  "eurs": 366,
  "k\u025b": 367,
  "\u2581baa": 368,
  "rai": 369,
  "\u2581so": 370,
  "\u2581faire": 371,
  "\u2581dugu": 372,
  "r\u00e9": 373,
  "baga": 374,
  "anna": 375,
  "\u2581moi": 376,
  "uru": 377,
  "\u25816": 378,
  "\u2581li": 379,
  "\u2581k\u0254r\u0254": 380,
  "ors": 381,
  "\u2581tuma": 382,
  "onne": 383,
  "ille": 384,
  "ants": 385,
  "\u2581R": 386,
  "\u2581Z": 387,
  "tres": 388,
  "iss": 389,
  "\u2581me": 390,
  "\u2581av": 391,
  "isi": 392,
  "inin": 393,
  "ign": 394,
  "isa": 395,
  "une": 396,
  "rent": 397,
  "\u2581ci": 398,
  "\u2581Yezu": 399,
  "ac": 400,
  "ussi": 401,
  "\u2581baara": 402,
  "b\u025b": 403,
  "\u2581Mais": 404,
  "at": 405,
  "\u2581Ce": 406,
  "denw": 407,
  "\u2581k\u025bra": 408,
  "\u2581tugu": 409,
  "\u2581tous": 410,
  "\u258120": 411,
  "\u2581mun": 412,
  "vi": 413,
  "ble": 414,
  "\u2581ban": 415,
  "fi": 416,
  "\u2581con": 417,
  "bu": 418,
  "l\u0254": 419,
  "ter": 420,
  "\u00e9tait": 421,
  "it\u00e9": 422,
  "\u2581bon": 423,
  "\u2581vi": 424,
  "\u2581kana": 425,
  "\u025bl\u025b": 426,
  "\u2581no": 427,
  "ine": 428,
  "\u2581ent": 429,
  "ite": 430,
  "\u2581G": 431,
  "uman": 432,
  "\u2581.": 433,
  "\u2581mo": 434,
  "\u258110": 435,
  "du": 436,
  "\u2581ans": 437,
  "\u2581aussi": 438,
  "\u2581ale": 439,
  "\u2581H": 440,
  "ki": 441,
  "ani": 442,
  "\u25818": 443,
  "mu": 444,
  "\u2581ca": 445,
  "\u2581\u0272a": 446,
  "\u2581ou": 447,
  "\u2581y\u0254r\u0254": 448,
  "\u2581bien": 449,
  "\u2581ri": 450,
  "\u2581kanu": 451,
  "\u2581al": 452,
  "\u2581ils": 453,
  "mana": 454,
  "\u2581ter": 455,
  "\u2581ont": 456,
  "\u2581enf": 457,
  "\u2581tr": 458,
  "\u2581in": 459,
  "l\u00e9": 460,
  "ance": 461,
  "che": 462,
  "\u2581m\u025bn": 463,
  "\u2581sara": 464,
  "\u2581c\u025b": 465,
  "\u2581donn": 466,
  "\u2581leur": 467,
  "\u2581pa": 468,
  "\u2581wanna": 469,
  "\u2581\u00e9tait": 470,
  "\u2581Ni": 471,
  "\u25817": 472,
  "ore": 473,
  "\u2581masa": 474,
  "\u00e9c": 475,
  "\u2581nom": 476,
  "\u2581fo": 477,
  "\u2581wo": 478,
  "Ne": 479,
  "\u2581sera": 480,
  "\u2581bo": 481,
  "\u2581\u00eatre": 482,
  "\u2581kalan": 483,
  "\u2581olu": 484,
  "\u2581Si": 485,
  "\u2581tra": 486,
  "\u2581En": 487,
  "\u2581vo": 488,
  "uni": 489,
  "vez": 490,
  "oup": 491,
  "uis": 492,
  "\u2581app": 493,
  "\u25819": 494,
  "bre": 495,
  "and": 496,
  "\u00f2n": 497,
  "\u2581Sa": 498,
  "\u2581muso": 499,
  "\u2581Ils": 500,
  "tte": 501,
  "\u2581monde": 502,
  "hui": 503,
  "\u2581Pour": 504,
  "jourd": 505,
  "\u258119": 506,
  "\u2581d\u025b": 507,
  "\u2581t\u0254": 508,
  "\u2581m\u00eame": 509,
  "\u2581k\u00e8": 510,
  "\u2581ses": 511,
  "app": 512,
  "\u2581gw": 513,
  "lima": 514,
  "\u2581\u0272\u0254g\u0254n": 515,
  "to": 516,
  "kolo": 517,
  "\u2581peut": 518,
  "\u2581b\u00e8": 519,
  "ommes": 520,
  "ess": 521,
  "\u2581jama": 522,
  "y\u025b": 523,
  "\u2581nga": 524,
  "\u2581comp": 525,
  "g\u025b": 526,
  "\u2581pers": 527,
  "ru": 528,
  "\u2581nun": 529,
  "nin": 530,
  "\u2581jus": 531,
  "ugu": 532,
  "\u2581sira": 533,
  "\u2581fem": 534,
  "vous": 535,
  "uma": 536,
  "\u2581saba": 537,
  "\u2581ar": 538,
  "\u2581m\u0254g\u0254w": 539,
  "asi": 540,
  "ph": 541,
  "aient": 542,
  "?\"": 543,
  "\u2581ke": 544,
  "igneur": 545,
  "ji": 546,
  "\u2581aux": 547,
  "out": 548,
  "\u2581ten": 549,
  "y\u0254r\u0254": 550,
  "endre": 551,
  "\u2581saan": 552,
  "\u2581w\u025br\u025b": 553,
  "av": 554,
  "\u2581avait": 555,
  "\u2581jaa": 556,
  "\u2581loon": 557,
  "esp": 558,
  "quoi": 559,
  "tions": 560,
  "\u2581mort": 561,
  "\u025bna": 562,
  "\u2581f\u0254l\u0254": 563,
  "\u2581Ch": 564,
  "\u2581ex": 565,
  "ill": 566,
  "\u2581Nous": 567,
  "\u2581Vous": 568,
  "\u2581taa": 569,
  "ais": 570,
  "\u2581\u0272inin": 571,
  "\u2581tena": 572,
  "\u2581Bi": 573,
  "lement": 574,
  "usu": 575,
  "\u2581gran": 576,
  "wa": 577,
  "\u2581Es": 578,
  "ait": 579,
  "\u2581do": 580,
  "\u2581fan": 581,
  "\u2581vie": 582,
  "\u2581Elle": 583,
  "\u2581Seigneur": 584,
  "\u2581elle": 585,
  "\u2581barika": 586,
  "\u2581f\u0254\u0254": 587,
  "\u2581r\u00e9p": 588,
  "\u2581Mun": 589,
  "ariya": 590,
  "aaman": 591,
  "\u2581(": 592,
  "m\u00e9": 593,
  "elui": 594,
  ":1": 595,
  "\u2581enfants": 596,
  "mis": 597,
  "\u2581cons": 598,
  "\u2581cont": 599,
  "ul": 600,
  "\u2581tan": 601,
  "ina": 602,
  "\u2581cette": 603,
  "homme": 604,
  "\u2581t\u0254g\u0254": 605,
  "ue": 606,
  "ord": 607,
  "\u2581cela": 608,
  "ex": 609,
  "\u2581deux": 610,
  "usa": 611,
  "rist": 612,
  "\u2581seu": 613,
  "\u2581f\u025b\u025bn": 614,
  "\u2581quel": 615,
  "\u2581jigi": 616,
  "\u2581env": 617,
  "\u2581caaman": 618,
  "\u258118": 619,
  "ence": 620,
  "\u2581W": 621,
  "\u258115": 622,
  "\u2581enc": 623,
  "\u2581tile": 624,
  "\u2581temp": 625,
  "kili": 626,
  "\u2581lab": 627,
  "\u00e9es": 628,
  "\u2581dev": 629,
  "kan": 630,
  "\u2581as": 631,
  "\u2581kama": 632,
  "\u2581for": 633,
  "pr\u00e8s": 634,
  "\u2581M\u0254g\u0254": 635,
  "\u2581Ya": 636,
  "\u2581Tu": 637,
  "\u2581Kris": 638,
  "\u0254r\u0254n": 639,
  "eure": 640,
  "f\u025b": 641,
  "\u258112": 642,
  "\u0254b\u025b": 643,
  "ond": 644,
  "\u258111": 645,
  "be": 646,
  "ara": 647,
  "\u2581tro": 648,
  "\u2581ga": 649,
  "\u2581fils": 650,
  "\u00e9ta": 651,
  "\u2581Matigi": 652,
  "pe": 653,
  "isan": 654,
  "\u258113": 655,
  "ard": 656,
  "\u2581ben": 657,
  "\u2581encore": 658,
  "\u2581daa": 659,
  "\u2581sigi": 660,
  "\u2581nu": 661,
  "cc": 662,
  "\u2581ser": 663,
  "\u2581nunu": 664,
  "oire": 665,
  "muso": 666,
  "ient": 667,
  "\u2581Nka": 668,
  "ouve": 669,
  "\u2581fila": 670,
  "\u2581kos\u0254n": 671,
  "vais": 672,
  "sra": 673,
  "endant": 674,
  "anin": 675,
  "vre": 676,
  "y\u025bli": 677,
  "ye": 678,
  "ges": 679,
  "aime": 680,
  "ces": 681,
  "ho": 682,
  "ger": 683,
  "\u2581deen": 684,
  "ose": 685,
  "\u2581car": 686,
  "Aw": 687,
  "\u2581aujourd": 688,
  "m\u025bn": 689,
  "\u00f2g": 690,
  "\u2581femme": 691,
  "\u2581Masa": 692,
  "\u00e9p": 693,
  "ts": 694,
  "\u2581tr\u00e8s": 695,
  "\u2581we": 696,
  "\u2581yira": 697,
  "\u2581lon": 698,
  "\u00e9rit": 699,
  "\u2581conn": 700,
  "\u258114": 701,
  "sira": 702,
  "\u2581d\u0254w": 703,
  "\u2581kala": 704,
  "\u2581ceux": 705,
  "iri": 706,
  "\u2581t\u025bm\u025b": 707,
  "\u2581Al": 708,
  "itu": 709,
  "\u258117": 710,
  "\u2581siran": 711,
  "\u2581jamana": 712,
  "fu": 713,
  "\u0254ni": 714,
  "esu": 715,
  "\u2581jours": 716,
  "jugu": 717,
  "ku": 718,
  "00": 719,
  "ow": 720,
  "\u2581homme": 721,
  "ques": 722,
  "\u00eates": 723,
  "\u2581po": 724,
  "\u2581waa": 725,
  "ation": 726,
  "rait": 727,
  "\u2581Ka": 728,
  "\u2581pos": 729,
  "\u2581tigi": 730,
  "zi": 731,
  "\u00e9n": 732,
  "ise": 733,
  "\u2581On": 734,
  "n\u00e9e": 735,
  "\u2581yan": 736,
  "\u2581p\u00e8re": 737,
  "ys": 738,
  "\u00ebl": 739,
  "\u2581rien": 740,
  "\u2581faga": 741,
  "\u2581foyi": 742,
  "\u2581f\u00f2": 743,
  "\u2581pu": 744,
  "\u2581fil\u025b": 745,
  "entre": 746,
  "\u2581pla": 747,
  "ion": 748,
  "\u2581fe": 749,
  "\u2581d\u00e9c": 750,
  "\u2581temps": 751,
  "d\u00e9": 752,
  "\u2581jaabi": 753,
  "\u2581bolo": 754,
  "in\u025b": 755,
  "\u2581toi": 756,
  "\u2581dire": 757,
  "\u00e8n": 758,
  "ieux": 759,
  "\u2581s\u0254n": 760,
  "\u2581vrai": 761,
  "uda": 762,
  "\u2581\u00e9c": 763,
  "\u2581Est": 764,
  "\u2581_": 765,
  "auc": 766,
  "\u2581celui": 767,
  "oy": 768,
  "tant": 769,
  "\u2581donc": 770,
  "\u2581nka": 771,
  "tern": 772,
  "\u2581\u0272ininga": 773,
  "\u2581mara": 774,
  "\u258116": 775,
  "\u2581jan": 776,
  "\u2581grand": 777,
  "\u2581kos\u0254b\u025b": 778,
  "ole": 779,
  "\u2581De": 780,
  "\u2581peur": 781,
  "\u0254\u0254": 782,
  "ler": 783,
  "\u2581on": 784,
  "bagaw": 785,
  "enir": 786,
  "\u00f2r": 787,
  "vent": 788,
  "\u2581soo": 789,
  "\u2581deman": 790,
  "\u2581ces": 791,
  "\u00e8me": 792,
  "\u2581waga": 793,
  "\u2581sou": 794,
  "enu": 795,
  "\u00e7a": 796,
  "kun": 797,
  "\u00e8rent": 798,
  "dama": 799,
  "erre": 800,
  "\u2581maison": 801,
  "so": 802,
  "\u2581jusqu": 803,
  "ja": 804,
  "\u2581dam": 805,
  "\u2581pass": 806,
  "\u0272a": 807,
  "\u2581min\u025b": 808,
  "\u2581bu": 809,
  "\u2581pri": 810,
  "fe": 811,
  "\u2581dusu": 812,
  "ction": 813,
  "yara": 814,
  "\u2581dan": 815,
  ":2": 816,
  "sra\u00ebl": 817,
  "\u2581es": 818,
  "ita": 819,
  "siray\u025bli": 820,
  "\u2581eu": 821,
  "\u2581per": 822,
  "\u2581fois": 823,
  "\u2581\u00e9ta": 824,
  "r\u00f4": 825,
  "\u2581o\u00f9": 826,
  "t\u0254": 827,
  "acc": 828,
  "\u2581bila": 829,
  "gne": 830,
  "v\u00e9": 831,
  "tt": 832,
  "\u2581Yesu": 833,
  "muni": 834,
  "\u2581J\u00e9": 835,
  "use": 836,
  "\u2581\u00eates": 837,
  "\u2581parti": 838,
  "\u2581di\u0272\u025b": 839,
  "\u2581b\u025b": 840,
  "\u2581rest": 841,
  "\u258122": 842,
  "aucoup": 843,
  "\u2581fi": 844,
  "bra": 845,
  "\u2581mu": 846,
  "\u2581autres": 847,
  "\u2581k\u025bl\u025b": 848,
  "\u2581Un": 849,
  "\u0254g\u0254w": 850,
  "oya": 851,
  "elles": 852,
  "\u2581Krista": 853,
  "\u2581jo": 854,
  "\u2581Com": 855,
  "\u258124": 856,
  "ments": 857,
  "\u00e9ri": 858,
  "hi": 859,
  "jours": 860,
  "\u2581eux": 861,
  "\u2581fara": 862,
  "autres": 863,
  "fin": 864,
  "\u2581Par": 865,
  "\u2581non": 866,
  "\u2581soit": 867,
  "\u2581masac\u025b": 868,
  "ad": 869,
  "\u2581b\u0254ra": 870,
  "bali": 871,
  "wu": 872,
  "....": 873,
  "\u2581terre": 874,
  "eli": 875,
  "\u2581nan": 876,
  "\u00eate": 877,
  "\u2581Au": 878,
  "insi": 879,
  "\u00f2r\u00f2": 880,
  "\u2581s\u025b": 881,
  "\u2581toujours": 882,
  "mer": 883,
  "\u2581sommes": 884,
  "\u2581sisan": 885,
  "\u2581see": 886,
  "\u2581Den": 887,
  "ob": 888,
  "ag": 889,
  "orte": 890,
  "\u2581Isiray\u025bli": 891,
  "\u2581l\u0254": 892,
  "\u258121": 893,
  "\u2581hakili": 894,
  "ense": 895,
  "\u2581d\u025bm\u025b": 896,
  "\u2581l\u00e0": 897,
  "ver": 898,
  "\u2581miiri": 899,
  "\u2581\u00e7a": 900,
  "tin": 901,
  "\u2581roi": 902,
  "\u2581'": 903,
  "\u2581nana": 904,
  "lon": 905,
  "mb": 906,
  "\u2581Christ": 907,
  "ze": 908,
  "\u2581ret": 909,
  "\u00f2g\u00f2": 910,
  "\u2581c\u025b\u025b": 911,
  "\u2581eff": 912,
  "\u2581ville": 913,
  "\u2581[": 914,
  "\u00e9rit\u00e9": 915,
  "oro": 916,
  "\u2581Fils": 917,
  "omp": 918,
  "is\u0254n": 919,
  "\u2581pris": 920,
  "\u2581pre": 921,
  "je": 922,
  "autre": 923,
  "\u2581kuntigi": 924,
  "\u2581arri": 925,
  "cip": 926,
  "\u2581P\u00e8re": 927,
  "\u2581\u0272i": 928,
  "gw": 929,
  "ist": 930,
  "rais": 931,
  "\u2581jamais": 932,
  "\u00f4r\u00f4": 933,
  "\u2581vou": 934,
  "\u2581Masaba": 935,
  "\u2581beaucoup": 936,
  "\u2581Nga": 937,
  "\u2581...": 938,
  "\u2581toute": 939,
  "\u258123": 940,
  "emp": 941,
  "\u2581kab": 942,
  "olon": 943,
  "\u2581trois": 944,
  "\u2581personn": 945,
  "len": 946,
  "ents": 947,
  "\u2581\u0272ini": 948,
  "\u00e9ch": 949,
  "f\u025bn": 950,
  "\u2581jugu": 951,
  "\u2581sin": 952,
  "eau": 953,
  "ke": 954,
  "aire": 955,
  "\u2581sariya": 956,
  "diya": 957,
  "\u2581gu": 958,
  "\u2581tagara": 959,
  "\u258125": 960,
  "\u2581sais": 961,
  "\u2581wagati": 962,
  "\u2581z": 963,
  "mo": 964,
  "\u2581\u00c0": 965,
  "enant": 966,
  "\u2581pourquoi": 967,
  "\u2581trava": 968,
  "\u2581lan": 969,
  "\u2581x": 970,
  "bli": 971,
  "gan": 972,
  "\u2581,": 973,
  "min": 974,
  "isse": 975,
  "uli": 976,
  "bar": 977,
  "\u2581\u0272\u025b": 978,
  "ct": 979,
  "oute": 980,
  "\u2581dumuni": 981,
  "\u2581balima": 982,
  "\u2581nis\u0254n": 983,
  "uw": 984,
  "\u2581k\u0254ni": 985,
  "\u00e8r\u00e8": 986,
  "\u2581y\u025bl\u025b": 987,
  "pt": 988,
  "\u2581kisi": 989,
  "\u2581seul": 990,
  "l\u00e8": 991,
  "\u2581va": 992,
  "\u2581fin": 993,
  "vit": 994,
  "\u2581c\u025bma": 995,
  "age": 996,
  "ante": 997,
  "\u2581taama": 998,
  "\u2581leurs": 999,
  "\u2581veux": 1000,
  "yez": 1001,
  "\u00e9tais": 1002,
  "nu": 1003,
  "\u2581parce": 1004,
  "its": 1005,
  "ras": 1006,
  "fs": 1007,
  "m\u00eame": 1008,
  "\u2581\u0272ana": 1009,
  "ass": 1010,
  "\u2581hommes": 1011,
  "\u2581v\u00e9rit\u00e9": 1012,
  "\u2581fam": 1013,
  "der": 1014,
  "\u2581faut": 1015,
  "\u2581comm": 1016,
  "Isra\u00ebl": 1017,
  "\u2581m\u00e8re": 1018,
  "\u2581pays": 1019,
  "oin": 1020,
  "\u2581mis": 1021,
  "\u2581ton": 1022,
  "ouver": 1023,
  "ouveau": 1024,
  "k\u0254r\u0254": 1025,
  "\u2581s\u0254": 1026,
  "oses": 1027,
  "\u2581diff": 1028,
  "\u2581cro": 1029,
  "\u2581walima": 1030,
  "\u2581pe": 1031,
  "\u2581Car": 1032,
  "ume": 1033,
  "\u2581nouveau": 1034,
  "\u2581dugukolo": 1035,
  "\u2581Une": 1036,
  "\u2581entre": 1037,
  "\u2581notre": 1038,
  "\u2581Oui": 1039,
  "anw": 1040,
  "\u2581Yala": 1041,
  "\u2581peux": 1042,
  "\u2581sau": 1043,
  "\u2581kaba": 1044,
  "avais": 1045,
  "\u2581wele": 1046,
  "\u2581choses": 1047,
  "\u2581rep": 1048,
  "\u2581alors": 1049,
  "\u2581til": 1050,
  "\u2581Comment": 1051,
  "l\u00e0": 1052,
  "\u2581j\u025bn": 1053,
  "!\"": 1054,
  "\u2581pr\u00e9s": 1055,
  "pi": 1056,
  "\u2581Na": 1057,
  "cher": 1058,
  "\u2581premi": 1059,
  "\u2581personne": 1060,
  "enc": 1061,
  "\u2581masaya": 1062,
  "aut": 1063,
  "\u2581quoi": 1064,
  "\u2581mar": 1065,
  "\u2581y\u00e9": 1066,
  "\u2581bes": 1067,
  "\u2581yafa": 1068,
  "amu": 1069,
  "g\u00e9": 1070,
  "rez": 1071,
  "\u2581Ti": 1072,
  "\u0153ur": 1073,
  "\u2581nombre": 1074,
  "\u2581mari": 1075,
  "\u2581toutes": 1076,
  "cti": 1077,
  "\u2581donn\u00e9": 1078,
  "\u2581conna": 1079,
  "\u2581mes": 1080,
  "\u2581too": 1081,
  "ing": 1082,
  "endu": 1083,
  "\u2581fut": 1084,
  "\u2581sun": 1085,
  "ori": 1086,
  "\u2581dou": 1087,
  "\u2581waati": 1088,
  "eru": 1089,
  "aux": 1090,
  "avez": 1091,
  "\u2581pet": 1092,
  "gue": 1093,
  "\u2581afin": 1094,
  "\u2581fisa": 1095,
  "\u2581peup": 1096,
  "oyaume": 1097,
  "yp": 1098,
  "\u2581part": 1099,
  "\u2581Tout": 1100,
  "hova": 1101,
  "\u2581d\u00e9s": 1102,
  "\u2581t\u0254\u0254r\u0254": 1103,
  "\u2581sankolo": 1104,
  "\u00f4t": 1105,
  "\u2581Ayi": 1106,
  "\u2581acc": 1107,
  "\u2581\u00e9taient": 1108,
  "\u2581wi": 1109,
  "ca": 1110,
  "\u2581votre": 1111,
  "\u2581Pourquoi": 1112,
  "gent": 1113,
  "olu": 1114,
  "\u2581personnes": 1115,
  "r\u00e8res": 1116,
  "\u2581201": 1117,
  "oie": 1118,
  "\u2581gens": 1119,
  "\u2581vu": 1120,
  "\u2581sour": 1121,
  "\u2581vraiment": 1122,
  "\u2581vers": 1123,
  "\u2581d\u0254\u0254ni": 1124,
  "\u2581fu": 1125,
  "An": 1126,
  "\u2581bii": 1127,
  "\u2581saraka": 1128,
  "\u2581j\u0254n": 1129,
  "erta": 1130,
  "rer": 1131,
  "gun": 1132,
  "th": 1133,
  "\u2581quest": 1134,
  "ase": 1135,
  "\u2581t\u00e8": 1136,
  "intenant": 1137,
  "\u2581mois": 1138,
  "\u2581Qui": 1139,
  "\u025bmu": 1140,
  "\u0272uman": 1141,
  "\u2581Alors": 1142,
  "\u2581ainsi": 1143,
  "\u258126": 1144,
  "bat": 1145,
  "prit": 1146,
  "\u2581ny": 1147,
  "\u2581denc\u025b": 1148,
  "\u2581t\u00e9": 1149,
  "sion": 1150,
  "laki": 1151,
  "\u2581m\u00e9": 1152,
  "\u2581cas": 1153,
  "\u2581kojugu": 1154,
  "jet": 1155,
  "lait": 1156,
  "\u2581Dans": 1157,
  "ali": 1158,
  "\u0272\u025bn": 1159,
  "g\u00f4": 1160,
  "ban": 1161,
  "n\u025b": 1162,
  "\u2581bonne": 1163,
  "\u2581wal": 1164,
  "\u2581d\u00e8": 1165,
  "\u2581Faa": 1166,
  "\u2581y\u025b": 1167,
  "puis": 1168,
  "\u2581simp": 1169,
  "Es": 1170,
  "iste": 1171,
  "\u2581nis\u0254ndiya": 1172,
  "lles": 1173,
  "\u2581teri": 1174,
  "\u2581contre": 1175,
  "\u2581damin\u025b": 1176,
  "\u2581dun": 1177,
  "lem": 1178,
  "\u2581kaan": 1179,
  "inw": 1180,
  "\u2581avoir": 1181,
  "enn": 1182,
  "avait": 1183,
  "\u2581fr": 1184,
  "ternel": 1185,
  "\u2581avons": 1186,
  "\u258128": 1187,
  "\u2581wolo": 1188,
  "\u2581besoin": 1189,
  "\u2581sig": 1190,
  "\u2581prop": 1191,
  "enf": 1192,
  "\u00eetre": 1193,
  "\u2581chose": 1194,
  "\u2581co": 1195,
  "sa": 1196,
  "\u2581janko": 1197,
  "usalem": 1198,
  "\u2581lu": 1199,
  "\u2581fr\u00e8res": 1200,
  "ona": 1201,
  "\u2581bato": 1202,
  "b\u025bn": 1203,
  "inter": 1204,
  "ines": 1205,
  "\u2581sans": 1206,
  "cile": 1207,
  "\u2581gr": 1208,
  "gw\u025b": 1209,
  "\u2581point": 1210,
  "\u2581laj": 1211,
  "KA": 1212,
  "gaw": 1213,
  "\u00e8res": 1214,
  "\u2581hali": 1215,
  "\u2581f\u0254ra": 1216,
  "\u2581moins": 1217,
  "\u2581\u00e9ga": 1218,
  "\u2581kalo": 1219,
  "\u2581avez": 1220,
  "\u2581Da": 1221,
  "\u2581cr\u00e9": 1222,
  "\u2581adama": 1223,
  "\u2581pi": 1224,
  "\u2581ti\u0272\u025b": 1225,
  "k\u00e8": 1226,
  "\u2581am": 1227,
  "\u2581imp": 1228,
  "\u2581dama": 1229,
  "\u2581Denc\u025b": 1230,
  "\u2581lors": 1231,
  "\u2581walisa": 1232,
  "nan": 1233,
  "\u2581pou": 1234,
  "\u2581r\u00e9s": 1235,
  "rusalem": 1236,
  "\u2581n\u0254g\u0254": 1237,
  "ama": 1238,
  "\u2581J\u00e9rusalem": 1239,
  "\u2581bara": 1240,
  "\u2581Que": 1241,
  "k\u025bla": 1242,
  "\u2581lab\u025bn": 1243,
  "issance": 1244,
  "\u2581peuple": 1245,
  "f\u0254": 1246,
  "\u2581mil": 1247,
  "M\u0254g\u0254": 1248,
  "\u2581Mo": 1249,
  "\u2581siya": 1250,
  "kari": 1251,
  "vers": 1252,
  "\u2581r\u00e9pond": 1253,
  "awuda": 1254,
  "\u2581cor": 1255,
  "\u2581f\u00e8": 1256,
  "\u2581che": 1257,
  "rance": 1258,
  "\u2581journ\u00e9e": 1259,
  "\u2581sav": 1260,
  "\u2581d\u0254r\u0254n": 1261,
  "zal": 1262,
  "do": 1263,
  "\u00f4g\u00f4": 1264,
  "\u2581puis": 1265,
  "\u2581far": 1266,
  "enne": 1267,
  "pa": 1268,
  "\u00f4n": 1269,
  "\u0254g\u0254ma": 1270,
  "su": 1271,
  "\u2581gw\u025bl\u025b": 1272,
  "vid": 1273,
  "\u2581ab": 1274,
  "\u2581autre": 1275,
  "g\u0254": 1276,
  "eruzal": 1277,
  "m\u0254g\u0254w": 1278,
  "eruzal\u025bmu": 1279,
  "ente": 1280,
  "\u2581\u00c9": 1281,
  "enuman": 1282,
  "\u2581furu": 1283,
  "\u2581pouv": 1284,
  "eut": 1285,
  "\u2581b\u0254n": 1286,
  "\u2581kalandenw": 1287,
  "\u2581ele": 1288,
  "\u2581pendant": 1289,
  "\u2581auc": 1290,
  "\u2581cha": 1291,
  "jan": 1292,
  "\u2581Zeruzal\u025bmu": 1293,
  "\u2581mont": 1294,
  "\u2581comment": 1295,
  "for": 1296,
  "oni": 1297,
  "ha": 1298,
  "\u2581nafa": 1299,
  "\u2581matin": 1300,
  "\u2581travail": 1301,
  "\u2581b\u00e9": 1302,
  "\u2581cour": 1303,
  "\u2581w\u025br\u025bw": 1304,
  "onc": 1305,
  "\u0272\u0254g\u0254n": 1306,
  "ang": 1307,
  "\u2581oui": 1308,
  "\u2581envoy": 1309,
  "\u2581fais": 1310,
  "\u2581\u00e9galement": 1311,
  "\u2581quand": 1312,
  "moi": 1313,
  "b\u0254": 1314,
  "\u2581m\u00f2g\u00f2": 1315,
  "\u2581seen": 1316,
  "illes": 1317,
  "\u2581fari": 1318,
  "\u2581k\u025bn\u025b": 1319,
  "za": 1320,
  "\u2581bo\u0272a": 1321,
  "\u2581retour": 1322,
  "\u025b\u025bn": 1323,
  "enti": 1324,
  "\u2581nouv": 1325,
  "\u2581tora": 1326,
  "\u2581nii": 1327,
  "imp": 1328,
  "ula": 1329,
  "amour": 1330,
  "\u2581parole": 1331,
  "\u2581chez": 1332,
  "\u2581rec": 1333,
  "k\u0254": 1334,
  "Nga": 1335,
  "til": 1336,
  "\u2581aime": 1337,
  "\u2581saga": 1338,
  "\u2581sui": 1339,
  "\u2581faamu": 1340,
  "\u2581Nii": 1341,
  "\u2581donne": 1342,
  "ture": 1343,
  ":3": 1344,
  "able": 1345,
  "\u258130": 1346,
  "\u2581jum\u025bn": 1347,
  "\u2581depuis": 1348,
  "\u2581d\u00e9b": 1349,
  "\u2581wari": 1350,
  "\u2581apr\u00e8s": 1351,
  "\u2581Bari": 1352,
  "\u2581.\"": 1353,
  "\u2581d\u0254g\u0254": 1354,
  "\u2581\u0186": 1355,
  "\u2581met": 1356,
  "\u2581dafa": 1357,
  "cha": 1358,
  "ere": 1359,
  "els": 1360,
  "vant": 1361,
  "\u2581discip": 1362,
  "\u2581No": 1363,
  "r\u025b": 1364,
  "\u2581dom": 1365,
  "\u2581\u0272aa": 1366,
  "\u2581Bible": 1367,
  "Esprit": 1368,
  "\u2581heure": 1369,
  "\u2581Isiray\u025blidenw": 1370,
  "eures": 1371,
  "\u258127": 1372,
  "ck": 1373,
  "att": 1374,
  "!!": 1375,
  "\u025bn\u025b": 1376,
  "des": 1377,
  "aix": 1378,
  "\u2581Dawuda": 1379,
  "cogo": 1380,
  "\u2581Mon": 1381,
  "\u2581mana": 1382,
  "\u2581ciel": 1383,
  "\u2581att": 1384,
  "baru": 1385,
  "bili": 1386,
  "\u2581laban": 1387,
  "\u2581say": 1388,
  "\u2581tugun": 1389,
  "\u2581mal": 1390,
  "\u2581pr\u00ea": 1391,
  "itigi": 1392,
  "\u2581Cela": 1393,
  "gyp": 1394,
  "\u2581foi": 1395,
  "\u2581kaso": 1396,
  "piti": 1397,
  "\u2581kabako": 1398,
  "\u2581vais": 1399,
  "\u2581pass\u00e9": 1400,
  "\u2581p\u00e9ch": 1401,
  "\u2581\u2039": 1402,
  "bo": 1403,
  "abu": 1404,
  "\u2581d\u00e9p": 1405,
  "\u2581voir": 1406,
  "\u2581Min": 1407,
  "\u2581loi": 1408,
  "\u2581diyara": 1409,
  "\u2581mako": 1410,
  "\u00e9t": 1411,
  "\u2581\u019d": 1412,
  "\u2581\u0272uman": 1413,
  "rendre": 1414,
  "\u2581Ezi": 1415,
  "\u2581d\u00f2n": 1416,
  "\u2581or": 1417,
  "Ch": 1418,
  "yo": 1419,
  "\u2581koow": 1420,
  "\u2581simple": 1421,
  "\u2581confi": 1422,
  "mis\u025bn": 1423,
  "emin": 1424,
  "\u2581saa": 1425,
  "ure": 1426,
  "id": 1427,
  "\u2581saya": 1428,
  "\u2581maintenant": 1429,
  "\u2581kow": 1430,
  "maya": 1431,
  "\u2581b\u00e8\u00e8": 1432,
  ".'": 1433,
  "\u2581segi": 1434,
  "baw": 1435,
  "Ni": 1436,
  "\u00e9ra": 1437,
  "\u2581cr": 1438,
  "\u2581Musa": 1439,
  "\u2581enfant": 1440,
  "ront": 1441,
  "\u2581bana": 1442,
  "\u2581David": 1443,
  "\u2581gl": 1444,
  "ellement": 1445,
  "ps": 1446,
  "\u2581effet": 1447,
  "qui": 1448,
  "\u2581pens": 1449,
  "\u2581bar": 1450,
  "Christ": 1451,
  "\u2581gar": 1452,
  "\u2581s\u0254g\u0254ma": 1453,
  "\u2581daali": 1454,
  "kil": 1455,
  "\u2581donna": 1456,
  "\u2581juman": 1457,
  "\u2581Ezipiti": 1458,
  "oient": 1459,
  "\u2581ense": 1460,
  "avoir": 1461,
  "\u2581ann": 1462,
  "sible": 1463,
  "\u2581sii": 1464,
  "\u2581kabini": 1465,
  "ilu": 1466,
  "oix": 1467,
  "\u2581fr\u00e8re": 1468,
  "y\u00e9": 1469,
  "\u2581Mi": 1470,
  "\u2581paix": 1471,
  "agit": 1472,
  "\u2581doit": 1473,
  "\u00e8te": 1474,
  "kaw": 1475,
  "\u2581quelqu": 1476,
  "\u2581suu": 1477,
  "\u2581nuit": 1478,
  "Yezu": 1479,
  "\u2581d\u00e9but": 1480,
  "\u2581lad": 1481,
  "arri": 1482,
  "\u00eet": 1483,
  "\u258129": 1484,
  "dre": 1485,
  "\u2581sababu": 1486,
  "ud": 1487,
  "\u2581laj\u025bn": 1488,
  "\u2581sor": 1489,
  "\u2581s\u00e9": 1490,
  "\u2581appel": 1491,
  "mble": 1492,
  "\u2581uns": 1493,
  "\u2581ob": 1494,
  "argent": 1495,
  "dez": 1496,
  "vres": 1497,
  "\u2581kunun": 1498,
  "ale": 1499,
  "\u2581r\u00e9pons": 1500,
  "\u258140": 1501,
  "oso": 1502,
  "\u2581proph": 1503,
  "\u2581Senuman": 1504,
  "\u2581denmuso": 1505,
  "\u2581famille": 1506,
  "\u2581royaume": 1507,
  ".\u203a": 1508,
  "\u2581Ale": 1509,
  "tru": 1510,
  "ham": 1511,
  "folo": 1512,
  "\u2581kon": 1513,
  "\u2581\u00e2": 1514,
  "\u2581disciples": 1515,
  "\u2581livre": 1516,
  "tement": 1517,
  "\u2581diman": 1518,
  "\u025bl\u025bk\u025b": 1519,
  "\u2581\u00e9p": 1520,
  "\u2581envoy\u00e9": 1521,
  "r\u00e9s": 1522,
  "lase": 1523,
  "\u2581fit": 1524,
  "\u2581fili": 1525,
  "art": 1526,
  "gypte": 1527,
  "\u2581avant": 1528,
  "illeurs": 1529,
  "bres": 1530,
  "\u2581mas": 1531,
  "\u2581denw": 1532,
  "\u2581deenw": 1533,
  "\u2581esp": 1534,
  "\u2581\u00e9crit": 1535,
  "\u2581diya": 1536,
  "ves": 1537,
  "\u25810": 1538,
  "\u2581cher": 1539,
  "\u00efse": 1540,
  "\u2581coup": 1541,
  "\u2581mani": 1542,
  "\u2581diff\u00e9": 1543,
  "\u2581lagaw": 1544,
  "\u2581k\u0254se": 1545,
  "mage": 1546,
  "oles": 1547,
  "\u2581fille": 1548,
  "\u2581Mo\u00efse": 1549,
  "gou": 1550,
  "\u2581fanga": 1551,
  "\u2581ad": 1552,
  "\u2581souff": 1553,
  "\u2581grande": 1554,
  "j\u00e0": 1555,
  "\u2581sabu": 1556,
  "\u2581Pi": 1557,
  "\u2581rev": 1558,
  "gar": 1559,
  "\u2581mala": 1560,
  "\u2581certa": 1561,
  "\u2581ac": 1562,
  "\u2581der": 1563,
  "bolo": 1564,
  ",\"": 1565,
  "\u2581Ko": 1566,
  "\u2581k\u025bm\u025b": 1567,
  "\u2581question": 1568,
  "tr": 1569,
  "pendant": 1570,
  "he": 1571,
  "cle": 1572,
  "\u2581facile": 1573,
  "\u2581pr\u00e9": 1574,
  "ends": 1575,
  "\u2581Moi": 1576,
  "\u2581chemin": 1577,
  "\u2581fac\u025b": 1578,
  "\u2581devant": 1579,
  "cer": 1580,
  "\u2581jii": 1581,
  "ition": 1582,
  "\u2581cause": 1583,
  "gl": 1584,
  "lah": 1585,
  "\u2581long": 1586,
  "\u00e7on": 1587,
  "Masa": 1588,
  "\u2581bata": 1589,
  "\u2581peuvent": 1590,
  "\u2581Des": 1591,
  "\u2581femmes": 1592,
  "\u258131": 1593,
  "\u2581c\u025bn": 1594,
  "gard": 1595,
  "Ala": 1596,
  "dement": 1597,
  "\u2581savez": 1598,
  "\u2581mour": 1599,
  "\u025bb\u025b": 1600,
  "enez": 1601,
  "\u2581cou": 1602,
  "\u2581lam": 1603,
  "hu": 1604,
  "ser": 1605,
  "tig\u025b": 1606,
  "\u2581kara": 1607,
  "ites": 1608,
  "\u2581Ba": 1609,
  "\u2581d\u00e9j\u00e0": 1610,
  "\u2581heures": 1611,
  "AN": 1612,
  "\u2581nos": 1613,
  "\u2581tig\u025b": 1614,
  "exc": 1615,
  "\u2581\u0272\u025bna": 1616,
  "\u2581confiance": 1617,
  "Il": 1618,
  "\u0254\u0254r\u0254": 1619,
  "\u2581bou": 1620,
  "\u2581mer": 1621,
  "\u2581dro": 1622,
  "hun": 1623,
  "\u2581t\u0254\u0254": 1624,
  "\u2581joona": 1625,
  "im": 1626,
  "per": 1627,
  "\u2581kira": 1628,
  "\u2581morts": 1629,
  "\u2581h\u025br\u025b": 1630,
  "asse": 1631,
  "ions": 1632,
  "oici": 1633,
  "\u2581aba": 1634,
  "\u2581venu": 1635,
  "\u2581lieu": 1636,
  "\u2581entendu": 1637,
  "\u2581ins": 1638,
  "\u2581trouv": 1639,
  "bulu": 1640,
  "\u2581makari": 1641,
  "iser": 1642,
  "\u2581c\u0153ur": 1643,
  "\u2581kuun": 1644,
  "ch\u00e9": 1645,
  "aul": 1646,
  "ennin": 1647,
  "ay": 1648,
  "\u2581Ki": 1649,
  "\u2581sago": 1650,
  "\u2581y\u00e8r\u00e8": 1651,
  "\u2581faan": 1652,
  "\u2581manger": 1653,
  "gni": 1654,
  "\u2581\u014b": 1655,
  "\u2581tom": 1656,
  "\u258133": 1657,
  "\u2581\u0272iningali": 1658,
  "\u2581Fa": 1659,
  "\u2581MA": 1660,
  "\u2581kibaru": 1661,
  "\u2581pr\u00e9sent": 1662,
  "\u2581d\u0254n": 1663,
  "\u2581souv": 1664,
  "\u2581aupr\u00e8s": 1665,
  "\u2581parler": 1666,
  "jou": 1667,
  "\u2581kulu": 1668,
  "\u2581Jehova": 1669,
  "\u2581Quand": 1670,
  "ieurs": 1671,
  "c\u00e9": 1672,
  "\u2581kasi": 1673,
  "\u2581soir": 1674,
  "\u2581wili": 1675,
  "\u2581hak\u025b": 1676,
  ".\u2020": 1677,
  "\u2581cin": 1678,
  "gin": 1679,
  "\u2581vient": 1680,
  "ee": 1681,
  "m\u0254g\u0254": 1682,
  "\u2581Bibulu": 1683,
  "\u2581sec": 1684,
  "08": 1685,
  "braham": 1686,
  "\u258138": 1687,
  "\u2581mom": 1688,
  "lent": 1689,
  "\u2581col": 1690,
  "\u2581cieux": 1691,
  "\u0254\u0254n": 1692,
  "exp": 1693,
  "Je": 1694,
  "ches": 1695,
  "\u2581ph": 1696,
  "\u2581yaa": 1697,
  "\u2581mink\u025b": 1698,
  "\u2581Krisita": 1699,
  "iya": 1700,
  "\u2581Aujourd": 1701,
  "\u2581seulement": 1702,
  "ON": 1703,
  "\u2581premier": 1704,
  "\u2581Kana": 1705,
  "\u2581k\u0254segi": 1706,
  "ds": 1707,
  "\u2581wala": 1708,
  "r\u00ea": 1709,
  "\u2581pense": 1710,
  "\u2581D\u0254": 1711,
  "\u2581wolon": 1712,
  "\u2581nouvelle": 1713,
  "\u2581tour": 1714,
  "\u2581aga": 1715,
  "\u2581*": 1716,
  "\u2581derni": 1717,
  "\u2581parle": 1718,
  "\u2581vol": 1719,
  "bles": 1720,
  "\u2581wasa": 1721,
  "\u2581ver": 1722,
  "\u2581balimaw": 1723,
  "\u00f9n": 1724,
  "KAW": 1725,
  "\u2581teli": 1726,
  "\u2581Ar": 1727,
  "urun": 1728,
  "\u2581comman": 1729,
  "\u2581sous": 1730,
  "\u258132": 1731,
  "\u2581love": 1732,
  "ilan": 1733,
  "\u2581dont": 1734,
  "\u2581heureux": 1735,
  "\u2581hai": 1736,
  "p\u00e9": 1737,
  "\u2581corps": 1738,
  "\u2581k\u0254m\u0254g\u0254w": 1739,
  "\u2581Saint": 1740,
  "uifs": 1741,
  "\u2581Jean": 1742,
  "\u2581denmis\u025bn": 1743,
  "\u2581disp": 1744,
  "aires": 1745,
  "atre": 1746,
  "\u2581nafolo": 1747,
  "\u2581ah": 1748,
  "\u2581kanuya": 1749,
  "\u258134": 1750,
  "\u00f2g\u00f2n": 1751,
  "irent": 1752,
  "urent": 1753,
  "\u2581place": 1754,
  "igne": 1755,
  "\u2581kelenpe": 1756,
  "ann": 1757,
  "avons": 1758,
  "ention": 1759,
  "\u2581m\u025bnni": 1760,
  "\u2581sujet": 1761,
  "\u2581avaient": 1762,
  "000": 1763,
  "ette": 1764,
  "\u2581hakil": 1765,
  "\u2581r\u00e9ponse": 1766,
  "\u2581del": 1767,
  "\u2581huma": 1768,
  "g\u025bn": 1769,
  "\u2581b\u025bn": 1770,
  "\u2581re\u00e7": 1771,
  "s\u00e9": 1772,
  "\u2581gr\u00e2": 1773,
  "appelle": 1774,
  "\u2581tch": 1775,
  "\u2581dja": 1776,
  "cu": 1777,
  "\u2581main": 1778,
  "\u2581Mari": 1779,
  "\u2581gb": 1780,
  "oman": 1781,
  "\u2581lara": 1782,
  "\u2581Non": 1783,
  "env": 1784,
  "gui": 1785,
  "\u2581juru": 1786,
  "xi": 1787,
  "\u2581Re": 1788,
  "\u2581gn": 1789,
  "\u2581Celui": 1790,
  "\u2581jeune": 1791,
  "\u0272\u00e8": 1792,
  "\u2581Can": 1793,
  "cri": 1794,
  "cation": 1795,
  "\u2581aff": 1796,
  "\u2581anw": 1797,
  "\u2581dois": 1798,
  "\u2581Ha": 1799,
  "elon": 1800,
  "\u2581fani": 1801,
  "ong": 1802,
  "\u2581hab": 1803,
  "\u2581monta": 1804,
  "\u2581f\u025bn": 1805,
  "\u2581kam": 1806,
  "\u2581k\u025b\u0272\u025b": 1807,
  "mi\u00e8re": 1808,
  "TI": 1809,
  "\u2581ago": 1810,
  "\u2581abada": 1811,
  "AL": 1812,
  "\u2581trouve": 1813,
  "\u2581m\u025bl\u025bk\u025b": 1814,
  "\u2581m\u0254": 1815,
  "\u2581ti\u0272\u025bn": 1816,
  "\u258150": 1817,
  "b\u00e9": 1818,
  "\u00e8s": 1819,
  "Al": 1820,
  "\u2581rend": 1821,
  "\u2581kp": 1822,
  "m\u0254": 1823,
  "\u2581t\u0254w": 1824,
  "\u2581l\u00e9": 1825,
  "\u2581Puis": 1826,
  "lie": 1827,
  "\u2581Ibra": 1828,
  "uwi": 1829,
  "\u2581Alabat": 1830,
  "DC": 1831,
  "\u2581gloire": 1832,
  "\u2581sy": 1833,
  "\u2581cap": 1834,
  "\u2581prof": 1835,
  "co": 1836,
  "\u2581quelques": 1837,
  "ennent": 1838,
  "\u2581komi": 1839,
  "niya": 1840,
  "yima": 1841,
  "\u2581servit": 1842,
  "\u2581s\u025bb\u025b": 1843,
  "cep": 1844,
  "\u2581donner": 1845,
  "\u2581AK": 1846,
  "\u2581jija": 1847,
  "\u2581deli": 1848,
  "accomp": 1849,
  "\u2581go": 1850,
  "\u2581waasa": 1851,
  "\u2581plusieurs": 1852,
  "\u2581d\u00f4": 1853,
  "\u2581possible": 1854,
  "\u2581Or": 1855,
  "\u2581quelque": 1856,
  "\u2581Comme": 1857,
  "kin": 1858,
  "it\u00e9s": 1859,
  "emple": 1860,
  "\u258135": 1861,
  "\u2581\u0272\u00f2g\u00f2n": 1862,
  ":4": 1863,
  "KDC": 1864,
  "uwifu": 1865,
  "\u2581AKKDC": 1866,
  "\u2581\u0272\u025bnamaya": 1867,
  "\u2581\u0272aga": 1868,
  "\u2581si\u0272\u025b": 1869,
  "ique": 1870,
  "\u2581voitu": 1871,
  "\u2581Lu": 1872,
  "\u2581Sam": 1873,
  "\u2581\u0272in": 1874,
  "rain": 1875,
  "\u2581>": 1876,
  "is\u00e9": 1877,
  "\u2581vos": 1878,
  "\u2581kos\u00f2n": 1879,
  "ttre": 1880,
  "\u2581savoir": 1881,
  "\u2581resp": 1882,
  "\u2581fou": 1883,
  "wula": 1884,
  "\u2581n\u025bn": 1885,
  "issent": 1886,
  "m\u00e9s": 1887,
  "r\u0254": 1888,
  "\u2581tila": 1889,
  "\u2581yiri": 1890,
  "\u2581minnu": 1891,
  "r\u00e9e": 1892,
  "\u2581prendre": 1893,
  "vo": 1894,
  "\u2581exp": 1895,
  "ert": 1896,
  "\u2581moment": 1897,
  "f\u00e9": 1898,
  "gna": 1899,
  "\u2581\u0254": 1900,
  "\u2581kit": 1901,
  "\u2581=": 1902,
  "\u00e9l\u00e9": 1903,
  "heure": 1904,
  "ange": 1905,
  "\u2581bamuso": 1906,
  "s\u025b": 1907,
  "\u2581off": 1908,
  "\u2581sang": 1909,
  "\u2581Alabatoso": 1910,
  "\u2581Paul": 1911,
  "\u2581suite": 1912,
  "\u2581adamaden": 1913,
  "\u2581Lors": 1914,
  "\u2581kou": 1915,
  "\u2581inter": 1916,
  "\u00eames": 1917,
  "\u2581Mar": 1918,
  "\u2581halaki": 1919,
  "\u2581prison": 1920,
  "cla": 1921,
  "ailleurs": 1922,
  "ala": 1923,
  "\u2581rapp": 1924,
  "\u2581Zan": 1925,
  "tique": 1926,
  "ration": 1927,
  "\u2581Ibrayima": 1928,
  "ier": 1929,
  "t\u00e9ri": 1930,
  "m\u00e9e": 1931,
  "\u2581reste": 1932,
  "utes": 1933,
  "\u2581train": 1934,
  "\u2581cet": 1935,
  "\u2581tulo": 1936,
  "raient": 1937,
  "\u0254li": 1938,
  "\u2581aim\u00e9": 1939,
  "b\u00e8": 1940,
  "\u2581desc": 1941,
  "\u2581kiti": 1942,
  "\u2581aura": 1943,
  "Bari": 1944,
  "\u2581mus": 1945,
  "\u2581jalaki": 1946,
  "onn\u00e9": 1947,
  "\u2581eut": 1948,
  "\u2581\u00e9t": 1949,
  "lais": 1950,
  "\u2581milli": 1951,
  "\u2581petit": 1952,
  "occ": 1953,
  "\u2581Ca": 1954,
  "manw": 1955,
  "ont\u00e9": 1956,
  "glise": 1957,
  "\u2581s\u00f2r\u00f2": 1958,
  "\u0190W": 1959,
  "\u2581wuli": 1960,
  "\u2581sorti": 1961,
  "lus": 1962,
  ").": 1963,
  ".1": 1964,
  "\u2581n\u025b\u025b": 1965,
  "abord": 1966,
  "\u2581k\u00f2": 1967,
  "\u2581kos\u025bb\u025b": 1968,
  "\u2581parents": 1969,
  "\u2581dj": 1970,
  "\u2581France": 1971,
  "\u2581sini": 1972,
  "anta": 1973,
  "\u2581Quel": 1974,
  "\u2581font": 1975,
  "\u2581cond": 1976,
  "\u2581gw\u025bl\u025bya": 1977,
  "kow": 1978,
  "\u2581?\"": 1979,
  "arch": 1980,
  "\u2581pani": 1981,
  "\u2581Ja": 1982,
  "\u2581wu": 1983,
  "\u2581bali": 1984,
  "\u2581ress": 1985,
  "\u2581pouvoir": 1986,
  "\u2581kunna": 1987,
  "\u2581veut": 1988,
  "\u2581envie": 1989,
  "\u2581r\u00e9pondit": 1990,
  "\u2581200": 1991,
  "\u2581bapt": 1992,
  "\u2581Tous": 1993,
  "\u2581quatre": 1994,
  "\u0153u": 1995,
  "\u2581th": 1996,
  "\u2581hakilitigi": 1997,
  "\u2581sarakalase": 1998,
  "\u2581malo": 1999,
  "\u00c9ternel": 2000,
  "\u2581gi": 2001,
  "\u2581diff\u00e9rent": 2002,
  "\u00e8ne": 2003,
  "ligi": 2004,
  "forma": 2005,
  "\u2581pard": 2006,
  "\u2581aut": 2007,
  "\u2581again": 2008,
  "\u2581commenc": 2009,
  "um": 2010,
  "\u2581mieux": 2011,
  "20": 2012,
  "\u2581n\u025b": 2013,
  "euse": 2014,
  "\u2581vis": 2015,
  "\u2581Ph": 2016,
  "\u2581So": 2017,
  "\u2581Juifs": 2018,
  "tuma": 2019,
  "\u2581passe": 2020,
  "\u2581voiture": 2021,
  "\u2581emp": 2022,
  "kolon": 2023,
  "aali": 2024,
  "\u2581In": 2025,
  "\u2581util": 2026,
  "issez": 2027,
  "\u2581kura": 2028,
  "riture": 2029,
  "\u2581kumana": 2030,
  "\u2581seront": 2031,
  "\u2581Son": 2032,
  "\u2581ici": 2033,
  "\u2581ho": 2034,
  "v\u00e9e": 2035,
  "accord": 2036,
  "onna": 2037,
  "\u2581dogo": 2038,
  "Eternel": 2039,
  "\u2581laiss": 2040,
  "\u2581elles": 2041,
  "\u025bli": 2042,
  "anan": 2043,
  "asuma": 2044,
  "\u2581selon": 2045,
  "\u2581trans": 2046,
  "appro": 2047,
  "\u2581rais": 2048,
  "\u2581chaque": 2049,
  "law": 2050,
  "bagat\u0254": 2051,
  "\u2581langue": 2052,
  "\u2581siginin": 2053,
  "\u2581Elles": 2054,
  "\u2581aucune": 2055,
  "kulu": 2056,
  "iller": 2057,
  "\u2581Be": 2058,
  "user": 2059,
  "\u2581Kal": 2060,
  "tigiw": 2061,
  "esse": 2062,
  "uire": 2063,
  "\u2581Lui": 2064,
  "\u2581tant": 2065,
  "\u2581c\u00e8": 2066,
  "kuma": 2067,
  "\u2581jati": 2068,
  "mon": 2069,
  "tice": 2070,
  "\u2581fer": 2071,
  "\u2581Wa": 2072,
  "bari": 2073,
  "\u2581amis": 2074,
  "\u2581Adama": 2075,
  "\u2581aller": 2076,
  "\u2581fa\u00e7on": 2077,
  "f\u00e8": 2078,
  "\u2581b\u00f2": 2079,
  "\u2581venir": 2080,
  "\u2581feu": 2081,
  "\u2581dix": 2082,
  "\u2581yeux": 2083,
  "agn": 2084,
  "una": 2085,
  "yant": 2086,
  "\u2581Man": 2087,
  "\u2581cent": 2088,
  "\u2581mugan": 2089,
  "\u2581dariya": 2090,
  "\u2581gr\u00e2ce": 2091,
  "\u2581d\u00f2": 2092,
  "\u2581signi": 2093,
  "bl": 2094,
  "\u2581ass": 2095,
  "\u2581kar": 2096,
  "\u2581sait": 2097,
  "\u2581Di": 2098,
  "\u2581diffi": 2099,
  "\u2581lumi\u00e8re": 2100,
  "aff": 2101,
  "arti": 2102,
  "uses": 2103,
  "\u258145": 2104,
  "\u2581f\u00f4": 2105,
  "\u2581\u0272am": 2106,
  "\u2581Li": 2107,
  "\u2581r\u0254": 2108,
  "wo": 2109,
  "\u2581joie": 2110,
  "\u2581Jo": 2111,
  "\u2581fant": 2112,
  "aso": 2113,
  "\u2581por": 2114,
  "\u2581dara": 2115,
  "\u2581t\u025bna": 2116,
  "\u2581porte": 2117,
  "ress": 2118,
  "\u2581tard": 2119,
  "usufu": 2120,
  "\u2581loo": 2121,
  "\u2581loin": 2122,
  "Ti": 2123,
  "vient": 2124,
  "fie": 2125,
  "gues": 2126,
  "\u2581ali": 2127,
  "\u2581trop": 2128,
  "\u2581\u00e9tern": 2129,
  "\u2581prin": 2130,
  "\u2581soyez": 2131,
  "cin": 2132,
  "\u2581O\u00f9": 2133,
  "encont": 2134,
  "\u2581lam\u025bn": 2135,
  "ec": 2136,
  "gement": 2137,
  "mbre": 2138,
  "\u2581sen": 2139,
  "\u2581guerre": 2140,
  "\u2581pau": 2141,
  "\u2581demande": 2142,
  "\u2581aucun": 2143,
  "\u2581gra": 2144,
  "\u2581banbali": 2145,
  "olom": 2146,
  "\u2581dem": 2147,
  "tan": 2148,
  "v\u00e9s": 2149,
  "\u2581kak": 2150,
  "\u2581Olu": 2151,
  "\u2581sigiy\u0254r\u0254": 2152,
  "\u2581wolonwula": 2153,
  "NA": 2154,
  "\u2581Jac": 2155,
  "hovah": 2156,
  "\u2581Cependant": 2157,
  "\u2581pie": 2158,
  "moins": 2159,
  "enfant": 2160,
  "f\u025bnw": 2161,
  "\u2581muru": 2162,
  "quer": 2163,
  "\u2581partout": 2164,
  "yan": 2165,
  "\u2581rendre": 2166,
  "\u2581lafi": 2167,
  "\u2581s\u0153ur": 2168,
  "\u2581partie": 2169,
  "\u2581\u0272\u00e8": 2170,
  "\u2581mobili": 2171,
  "\u2581k\u00e0": 2172,
  "\u2581compr": 2173,
  "\u2581ag": 2174,
  "\u2581tanu": 2175,
  "\u2581duni": 2176,
  "\u258142": 2177,
  "\u2581Gal": 2178,
  "\u2581ham": 2179,
  "qu\u00e9": 2180,
  "Ka": 2181,
  "\u258137": 2182,
  "\u2581fon": 2183,
  "\u2581paroles": 2184,
  "main": 2185,
  "\u2581Ayiwa": 2186,
  "alit\u00e9": 2187,
  "\u025b\u025br\u025b": 2188,
  "k\u025blaw": 2189,
  "\u2581contin": 2190,
  "\u2581:": 2191,
  "\u2581r\u00e9ve": 2192,
  "one": 2193,
  "\u2581las": 2194,
  "\u2581l\u0254nniya": 2195,
  "\u2581all": 2196,
  "\u2581tilan": 2197,
  "\u2581minutes": 2198,
  "tal": 2199,
  "enus": 2200,
  "t\u0254r\u0254": 2201,
  "\u2581n\u0254\u0254": 2202,
  "\u2581saint": 2203,
  "\u2581fort": 2204,
  "nous": 2205,
  "gra": 2206,
  "\u2581situ": 2207,
  "\u2581faa": 2208,
  "esprit": 2209,
  "o\u00fb": 2210,
  "\u258139": 2211,
  "RI": 2212,
  "ele": 2213,
  "\u2581J\u00e9hovah": 2214,
  "\u00e9l": 2215,
  "\u2581can": 2216,
  "\u2581mu\u0272": 2217,
  "resse": 2218,
  "\u025br\u025bn": 2219,
  "istoire": 2220,
  "Mun": 2221,
  "isation": 2222,
  "\u2581compte": 2223,
  "\u2581bat": 2224,
  "\u2581pr\u00e9c": 2225,
  "\u2581Search": 2226,
  "\u2581face": 2227,
  "\u2581belle": 2228,
  "omi": 2229,
  "iles": 2230,
  "\u2581Isra": 2231,
  "\u2581prom": 2232,
  "\u2581t\u00eate": 2233,
  "acun": 2234,
  "\u2581k\u0254r\u0254t": 2235,
  "\u2581im": 2236,
  "\u2581dumu": 2237,
  "issant": 2238,
  "\u2581y\u025bl\u025bma": 2239,
  "\u2581juste": 2240,
  "\u2581p\u00e9ch\u00e9": 2241,
  "\u2581n\u00e9": 2242,
  "\u2581foro": 2243,
  "\u2581pouvez": 2244,
  "itude": 2245,
  "\u2581soient": 2246,
  "\u2581zuwifu": 2247,
  "fois": 2248,
  "\u2581sourire": 2249,
  "anto": 2250,
  "ingt": 2251,
  "\u2581back": 2252,
  "\u2581Ah": 2253,
  "ALI": 2254,
  "han": 2255,
  "\u2581l\u0254g\u0254": 2256,
  "\u2581at": 2257,
  "anni": 2258,
  "uve": 2259,
  "\u2581sept": 2260,
  "rage": 2261,
  "\u00e9n\u00e9": 2262,
  "illa": 2263,
  "\u2581som": 2264,
  "\u2581nour": 2265,
  "ber": 2266,
  "\u2581ann\u00e9e": 2267,
  "\u2581religi": 2268,
  "fan": 2269,
  "gara": 2270,
  "\u2581Baa": 2271,
  "??": 2272,
  "\u2581\u00c7": 2273,
  "\u2581Yusufu": 2274,
  "oseph": 2275,
  "\u2581produ": 2276,
  "m\u00e9di": 2277,
  "\u2581sema": 2278,
  "mun": 2279,
  "\u0254g\u0254nin": 2280,
  "\u2581maloya": 2281,
  "\u2581jou": 2282,
  "vement": 2283,
  "ly": 2284,
  "temp": 2285,
  "\u2581rapi": 2286,
  "arrive": 2287,
  "po": 2288,
  "\u2581dor": 2289,
  "\u2581Voici": 2290,
  "\u2581naani": 2291,
  "\u2581juguw": 2292,
  "\u2581k\u0254f\u025b": 2293,
  "\u2581Apr\u00e8s": 2294,
  "rec": 2295,
  "\u2581y\u025bn": 2296,
  "\u2581lorsque": 2297,
  "\u2581Koo": 2298,
  "\u2581accomp": 2299,
  "rir": 2300,
  "isait": 2301,
  "\u2581pr\u00e8s": 2302,
  "\u2581ge": 2303,
  "\u0254r\u0254nin": 2304,
  "n\u00e9": 2305,
  "\u2581sifa": 2306,
  "UN": 2307,
  "\u2581char": 2308,
  "\u2581parmi": 2309,
  "\u2581adamadenw": 2310,
  "son": 2311,
  "\u2581bele": 2312,
  "\u2581boli": 2313,
  "\u2581chef": 2314,
  "\u2581furent": 2315,
  "\u2581mettre": 2316,
  "lar": 2317,
  "\u2581\u00c7a": 2318,
  "\u2581joli": 2319,
  "\u2581Isra\u00ebl": 2320,
  "o\u00f9": 2321,
  "\u2581Sy": 2322,
  "m\u025bna": 2323,
  "fu\u025b": 2324,
  "\u2581Sin": 2325,
  "\u2581kin": 2326,
  "\u2581vois": 2327,
  "\u2581rencont": 2328,
  "ilila": 2329,
  "\u2581Alabatosoba": 2330,
  "\u2581Royaume": 2331,
  "\u2581gw\u025br\u025b": 2332,
  "ner": 2333,
  "\u2581duuru": 2334,
  "\u2581faites": 2335,
  "\u2581propos": 2336,
  "\u2581LU": 2337,
  "\u2581Ti\u0272\u025b": 2338,
  "\u2581trou": 2339,
  "l\u00e9e": 2340,
  "\u2581suf\u025b": 2341,
  "enw": 2342,
  "endra": 2343,
  "gon": 2344,
  "orter": 2345,
  "Ayi": 2346,
  "kali": 2347,
  "ours": 2348,
  "\u2581y\u00f4r\u00f4": 2349,
  "\u2581perme": 2350,
  "\u2581Joseph": 2351,
  "\u2581s\u00fb": 2352,
  "\u2581trouv\u00e9": 2353,
  "\u2581\u01f9": 2354,
  "\u2581To": 2355,
  "temps": 2356,
  "dul": 2357,
  "d\u025b": 2358,
  "\u00e9d": 2359,
  "tra": 2360,
  "\u2581As": 2361,
  "\u2581LO": 2362,
  "y\u025bri": 2363,
  "\u00e9li": 2364,
  "\u2581lanin": 2365,
  "\u2581kali": 2366,
  "\u2581sungu": 2367,
  "m\u00e8": 2368,
  "ros": 2369,
  "\u2581k\u0254l\u0254": 2370,
  "\u2581s\u025bb\u025bn": 2371,
  "\u2581wun": 2372,
  "\u2581questions": 2373,
  "jibi": 2374,
  "\u2581b\u025bna": 2375,
  "\u2581Su": 2376,
  "\u2581Certa": 2377,
  "rin": 2378,
  "run": 2379,
  "\u2581t\u00f2": 2380,
  "\u2581fla": 2381,
  "eff": 2382,
  "\u2581Lo": 2383,
  "guni": 2384,
  "suite": 2385,
  "Masaba": 2386,
  "jigi": 2387,
  "\u2581supp": 2388,
  "\u2581domma": 2389,
  "\u2581haali": 2390,
  "\u2581import": 2391,
  "\u2581Kan": 2392,
  "\u2581how": 2393,
  "\u2581bati": 2394,
  "\u2581nations": 2395,
  "opp": 2396,
  "\u00e2ge": 2397,
  "ii": 2398,
  "Abraham": 2399,
  "\u2581commence": 2400,
  "d\u00e8": 2401,
  "air": 2402,
  "tats": 2403,
  "\u2581b\u0254y\u0254r\u0254": 2404,
  "\u2581\u0272anagw\u025b": 2405,
  "\u258136": 2406,
  "\u2581kunb\u025bn": 2407,
  "\u2581latig\u025b": 2408,
  "\u2581mani\u00e8re": 2409,
  "onte": 2410,
  "\u2581damin": 2411,
  "\u00f2n\u00f2": 2412,
  "\u2581crois": 2413,
  "\u2581juguya": 2414,
  "\u2581s\u00e8": 2415,
  "\u2581tele": 2416,
  "\u2581ann\u00e9es": 2417,
  "\u2581dirent": 2418,
  "baa": 2419,
  "kuru": 2420,
  "\u2581arriv\u00e9": 2421,
  "\u2581tasuma": 2422,
  "\u2581gw\u025b": 2423,
  "\u2581voya": 2424,
  "aie": 2425,
  "\u2581he": 2426,
  "\u2581n\u0254": 2427,
  "man\u025b": 2428,
  "cul": 2429,
  "taw": 2430,
  "\u2581..": 2431,
  "dugu": 2432,
  "\u2581danna": 2433,
  "\u2581kongo": 2434,
  "\u2581route": 2435,
  "\u2581\u0272ak\u0254r\u0254": 2436,
  "\u2581premi\u00e8re": 2437,
  "\u0254n\u0254": 2438,
  "\u2581000": 2439,
  "\u2581Cette": 2440,
  "\u2581regard": 2441,
  "\u2581Ainsi": 2442,
  "\u2581Ai": 2443,
  "\u2581katu": 2444,
  "\u2581seule": 2445,
  "rie": 2446,
  "\u2581Pas": 2447,
  "\u2581Sere": 2448,
  "\u2581habit": 2449,
  "\u2581t\u025bman\u025b": 2450,
  "\u2581C\u025b": 2451,
  "\u2581ess": 2452,
  "con": 2453,
  "\u2581mourir": 2454,
  "ome": 2455,
  "\u2581teriw": 2456,
  "\u2581filanan": 2457,
  "\u2581nombreuses": 2458,
  "\u2581Ye": 2459,
  "ju": 2460,
  "mar": 2461,
  "\u2581ru": 2462,
  "\u2581Zuda": 2463,
  "kuba": 2464,
  "mina": 2465,
  "\u2581pr\u00e9p": 2466,
  "\u2581janto": 2467,
  "\u2581rece": 2468,
  "\u0272\u0254": 2469,
  "\u2581dali": 2470,
  "\u00e9taient": 2471,
  "leur": 2472,
  "ann\u00e9e": 2473,
  "\u2581quit": 2474,
  "\u2581partir": 2475,
  "\u2581montagne": 2476,
  "iti\u00e9": 2477,
  "\u2581nya": 2478,
  "\u00e9v": 2479,
  "\u2581tag": 2480,
  "mment": 2481,
  "rant": 2482,
  "\u2581t\u025bm\u025bna": 2483,
  "\u2581servi": 2484,
  "\u2581proph\u00e8te": 2485,
  "gnes": 2486,
  "rise": 2487,
  "\u2581din": 2488,
  "Ma": 2489,
  "chi": 2490,
  "unes": 2491,
  "voir": 2492,
  "\u2581haut": 2493,
  "\u2581d\u0254g\u0254t\u0254r\u0254": 2494,
  "\u2581id": 2495,
  "\u2581Bien": 2496,
  "ression": 2497,
  "bila": 2498,
  "vec": 2499,
  "\u2581trouver": 2500,
  "iron": 2501,
  "\u2581San": 2502,
  "\u2581Muso": 2503,
  "\u2581f\u025bti": 2504,
  "\u2581kurun": 2505,
  "\u2581ko\u0272uman": 2506,
  "\u2581\u00e9ternelle": 2507,
  "\u2581ren": 2508,
  "\u2581parl\u00e9": 2509,
  "ayez": 2510,
  "oupe": 2511,
  "\u2581suma": 2512,
  "\u2581Sisan": 2513,
  "\u2581mains": 2514,
  "\u2581demand\u00e9": 2515,
  "aide": 2516,
  "\u2581celle": 2517,
  "\u2581t\u025bm\u025bn": 2518,
  "\u2581div": 2519,
  "\u2581beau": 2520,
  "\u2581teliya": 2521,
  "\u2581volont\u00e9": 2522,
  "yen": 2523,
  "\u2581Me": 2524,
  "Allah": 2525,
  "\u00e9t\u00e9": 2526,
  "\u2581Du": 2527,
  "\u2581m\u0254\u0254": 2528,
  "\u2581remp": 2529,
  "Ti\u0272\u025b": 2530,
  "laire": 2531,
  "\u2581serait": 2532,
  "\u2581ro": 2533,
  "enue": 2534,
  "hana": 2535,
  "aimer": 2536,
  "\u2581fewu": 2537,
  "rou": 2538,
  "\u2581bol": 2539,
  "\u2581sens": 2540,
  "\u2581daf": 2541,
  "\u2581d\u00e8s": 2542,
  "\u2581justice": 2543,
  "gle": 2544,
  "id\u00e9": 2545,
  "lut": 2546,
  "\u2581bl": 2547,
  "\u00e8rement": 2548,
  "\u2581c\u00f4": 2549,
  "\u2581d\u00e9t": 2550,
  "\u2581temple": 2551,
  "\u2581Hali": 2552,
  "\u2581dimi": 2553,
  "\u2581l\u025b": 2554,
  "\u2581s\u0254\u0254": 2555,
  "\u2581mess": 2556,
  "\u2581tilennin": 2557,
  "\u2581Saan": 2558,
  "\u2581ve": 2559,
  "\u2581xa": 2560,
  "\u2581sab": 2561,
  "ses": 2562,
  "\u2581vue": 2563,
  "oun": 2564,
  "isogo": 2565,
  "\u2581re\u00e7u": 2566,
  "\u2581perdu": 2567,
  "\u2581passer": 2568,
  "\u2581and": 2569,
  "\u2581m\u00f4g\u00f4": 2570,
  "\u2581pourrait": 2571,
  "\u2581\u0300": 2572,
  "\u2581Pers": 2573,
  "\u2581cinq": 2574,
  "\u2581disant": 2575,
  "\u2581longtemps": 2576,
  "\u2581mbe": 2577,
  "onner": 2578,
  "\u2581b\u025b\u025bn": 2579,
  "\u2581m\u00e9de": 2580,
  "\u2581but": 2581,
  "\u2581fun": 2582,
  "\u258147": 2583,
  "\u2581vin": 2584,
  "t\u00e9rieur": 2585,
  "sez": 2586,
  "\u2581Ses": 2587,
  "\u2581k\u00f4n": 2588,
  "ances": 2589,
  "\u2581n\u0254g\u0254nin": 2590,
  "\u2581Ou": 2591,
  "\u2581connu": 2592,
  "\u2581entend": 2593,
  "occu": 2594,
  "arisi": 2595,
  "\u2581seko": 2596,
  "\u2581droit": 2597,
  "\u2581commenc\u00e9": 2598,
  ":11": 2599,
  "\u2581Ta": 2600,
  "\u2581w\u0254": 2601,
  "\u2581LUKA": 2602,
  "\u258141": 2603,
  "is\u00e9s": 2604,
  "\u2581men": 2605,
  "\u2581fura": 2606,
  "\u2581Kit": 2607,
  "\u2581ref": 2608,
  "\u2581k\u00f2n\u00f2": 2609,
  "\u2581r\u00e9gi": 2610,
  "\u2581publi": 2611,
  "\u2581rester": 2612,
  "alo": 2613,
  "\u2581k\u025bla": 2614,
  "\u2581sages": 2615,
  "\u2581kalanden": 2616,
  ":5": 2617,
  "\u2581end": 2618,
  "\u2581para": 2619,
  "oign": 2620,
  "\u2581g\u00e9n": 2621,
  "\u2581tri": 2622,
  "\u0254nin": 2623,
  "\u2581sacri": 2624,
  "\u2581m\u0254g\u0254ba": 2625,
  "\u2581Bo": 2626,
  "dayi": 2627,
  "\u2581banna": 2628,
  "ision": 2629,
  "\u2581ord": 2630,
  "\u2581Parce": 2631,
  "\u2581raison": 2632,
  "y\u0254n": 2633,
  "\u2581chacun": 2634,
  "amp": 2635,
  "inte": 2636,
  "\u2581MATI": 2637,
  "\u2581connais": 2638,
  "atan": 2639,
  "rier": 2640,
  "\u2581mau": 2641,
  "ilit\u00e9": 2642,
  "\u2581pieds": 2643,
  "teur": 2644,
  "\u2581Peut": 2645,
  "\u2581voie": 2646,
  "iter": 2647,
  "\u2581wilila": 2648,
  "\u258160": 2649,
  "\u2581m\u025b": 2650,
  "\u2581MATIY": 2651,
  "\u2581Sara": 2652,
  "\u2581sort": 2653,
  "\u2581bonya": 2654,
  "ook": 2655,
  "\u2581Eh": 2656,
  "oivent": 2657,
  "\u2581Baara": 2658,
  "issement": 2659,
  "\u2581!\"": 2660,
  "\u2581Eli": 2661,
  "\u00e9coute": 2662,
  "\u2581sacrifi": 2663,
  "\u2581hu": 2664,
  "5.": 2665,
  "\u2581\u00f2": 2666,
  "\u2581k\u025bwa": 2667,
  "\u2581t\u00e9l\u00e9": 2668,
  "\u2581miiriya": 2669,
  "\u2581rue": 2670,
  "\u2581d\u025bs\u025b": 2671,
  "\u2581NO": 2672,
  "are": 2673,
  "dent": 2674,
  "mani": 2675,
  "lez": 2676,
  "\u2581cul": 2677,
  "fo": 2678,
  "cit\u00e9": 2679,
  "\u2581boire": 2680,
  "inc": 2681,
  "\u2581kudayi": 2682,
  "\u2581pri\u00e8re": 2683,
  "l\u0254n": 2684,
  "\u2581Jama": 2685,
  "ansi": 2686,
  "\u2581farisogo": 2687,
  "\u2581g\u025br\u025b": 2688,
  "\u2581Quels": 2689,
  "op": 2690,
  "\u2581bla": 2691,
  "\u2581r\u00e9c": 2692,
  "tation": 2693,
  "\u2581savait": 2694,
  "pu": 2695,
  "off": 2696,
  "\u2581Wo": 2697,
  "\u2581d\u00e9f": 2698,
  "\u2581mauvais": 2699,
  "\u00e8l\u00e8": 2700,
  "\u2581voix": 2701,
  "ah": 2702,
  "\u2581kini": 2703,
  "\u2581Samari": 2704,
  "\u2581k\u0254l\u0254si": 2705,
  "cles": 2706,
  "i\u00e8me": 2707,
  "\u2581Yah": 2708,
  "\u2581int": 2709,
  "\u2581pan": 2710,
  "\u2581conf": 2711,
  "\u2581ma\u00eetre": 2712,
  "\u2581MATIYO": 2713,
  "\u2581lorsqu": 2714,
  "\u2581chi": 2715,
  "\u2581y\u0254r\u0254nin": 2716,
  "lation": 2717,
  "\u2581existe": 2718,
  "s\u0254n": 2719,
  "yons": 2720,
  "\u2581new": 2721,
  "\u2581w\u0254\u0254r\u0254": 2722,
  "g\u025br\u025b": 2723,
  "\u2581sol": 2724,
  "\u2581signifie": 2725,
  "ach": 2726,
  "tis": 2727,
  "t\u00e9e": 2728,
  "\u2581viv": 2729,
  "\u0186L": 2730,
  "\u2581Piy\u025bri": 2731,
  "\u2581vivre": 2732,
  "\u2581nombreux": 2733,
  "\u2581pourtant": 2734,
  "ONI": 2735,
  "don": 2736,
  "\u2581cru": 2737,
  "\u2581s\u00e9p": 2738,
  "mir": 2739,
  "\u2581l\u00e8": 2740,
  "\u2581sanji": 2741,
  "\u2581petits": 2742,
  "\u2581hakilitigiya": 2743,
  "gence": 2744,
  "\u2581conse": 2745,
  "\u2581faisait": 2746,
  "\u2581^": 2747,
  "\u2581s\u0254\u0303": 2748,
  "\u2581sin\u0254g\u0254": 2749,
  "toi": 2750,
  "kasi": 2751,
  "\u2581nih": 2752,
  "\u2581batize": 2753,
  "\u2581chan": 2754,
  "ant\u00e9": 2755,
  "\u00e8tes": 2756,
  "\u2581mira": 2757,
  "\u2581suuw": 2758,
  "aimerais": 2759,
  "\u2581r\u00e9al": 2760,
  "informa": 2761,
  "baya": 2762,
  "itre": 2763,
  "ll": 2764,
  "util": 2765,
  "\u2581Lun": 2766,
  "ences": 2767,
  "\u2581kuru": 2768,
  "\u2581k\u0254n\u0254n": 2769,
  "\u2581kanubaga": 2770,
  "fri": 2771,
  "\u2581alu": 2772,
  "\u2581devez": 2773,
  "\u2581soon": 2774,
  "\u2581meill": 2775,
  "\u2581continu": 2776,
  "riez": 2777,
  "esp\u00e8re": 2778,
  "nement": 2779,
  "\u2581aim\u00e9s": 2780,
  "hab": 2781,
  "\u2581r\u00e8": 2782,
  "ciens": 2783,
  "\u2581Alla": 2784,
  "espoir": 2785,
  "\u2581Yakuba": 2786,
  "\u2581villes": 2787,
  "\u2581pr\u00eatres": 2788,
  "\u2581lab\u025bnnin": 2789,
  "\u2581dibi": 2790,
  "\u2581voud": 2791,
  "lique": 2792,
  "\u2581retr": 2793,
  "k\u0254r\u0254baw": 2794,
  "\u2581X": 2795,
  "\u2581toun": 2796,
  "ueil": 2797,
  "\u2581val": 2798,
  "\u2581foule": 2799,
  "\u2581d\u00e9clar": 2800,
  "\u2581\u0272anaman": 2801,
  "bana": 2802,
  "\u2581gwan": 2803,
  "\u2581image": 2804,
  "\u2581vingt": 2805,
  "zu": 2806,
  "\u0186L\u0186": 2807,
  "ables": 2808,
  "\u2581Juda": 2809,
  "\u2581serviteur": 2810,
  "ira": 2811,
  "elli": 2812,
  "\u2581mur": 2813,
  "\u2581dira": 2814,
  "\u2581wula": 2815,
  "\u2581kal": 2816,
  "\u2581indi": 2817,
  "issait": 2818,
  "\u2581concer": 2819,
  "\u2581Pro": 2820,
  "m\u00eames": 2821,
  "\u2581d\u00e9cla": 2822,
  "\u2581\u0272inina": 2823,
  "isme": 2824,
  "\u2581kis": 2825,
  "\u2581lagi": 2826,
  "\u2581kinibolo": 2827,
  "\u2581puissance": 2828,
  "tro": 2829,
  "mata": 2830,
  "\u2581kari": 2831,
  "\u2581mu\u0272u": 2832,
  "isi\u00e8me": 2833,
  "ood": 2834,
  "\u2581Lorsque": 2835,
  "\u2581\u0153u": 2836,
  "\u2581Mes": 2837,
  "\u2581delila": 2838,
  "\u2581esprit": 2839,
  "\u0254ri": 2840,
  "\u2581J\u0254n": 2841,
  "\u2581bois": 2842,
  "inan": 2843,
  "\u2581Mer": 2844,
  "apr\u00e8s": 2845,
  "\u2581d\u00e9ci": 2846,
  "\u2581serez": 2847,
  "\u2581miniti": 2848,
  "\u2581d\u0254nkili": 2849,
  "men": 2850,
  "\u2581kolo": 2851,
  "\u2581procha": 2852,
  "\u2581propre": 2853,
  "\u00e9cess": 2854,
  "erreur": 2855,
  "\u2581pain": 2856,
  "\u2581t\u00f2\u00f2r\u00f2": 2857,
  "\u2581croire": 2858,
  "\u0190R": 2859,
  "\u258149": 2860,
  "\u2581sad": 2861,
  "\u2581crain": 2862,
  "bes": 2863,
  "\u2581yu": 2864,
  "\u2581musow": 2865,
  "NAF": 2866,
  "\u2581KUN": 2867,
  "\u2581sir": 2868,
  "\u2581plut": 2869,
  "\u2581aider": 2870,
  "\u258148": 2871,
  "\u0190R\u0190W": 2872,
  "NAFONI": 2873,
  "\u2581W\u0190R\u0190W": 2874,
  "\u2581KUNNAFONI": 2875,
  "\u2581m\u00f2g\u00f2w": 2876,
  "\u2581devait": 2877,
  "\u2581m\u00e9decin": 2878,
  "dam": 2879,
  "\u2581Ro": 2880,
  "\u2581inc": 2881,
  "\u2581daga": 2882,
  "\u2581layi": 2883,
  "\u2581ladili": 2884,
  "\u2581sarakalasebagaw": 2885,
  "v\u025bn": 2886,
  "chez": 2887,
  "\u2581blo": 2888,
  "\u2581gw\u025bn": 2889,
  "\u00e9qu": 2890,
  "\u2581sp": 2891,
  "aati": 2892,
  "\u2581s\u00fbr": 2893,
  "ateur": 2894,
  "\u00eatres": 2895,
  "\u2581pla\u00eet": 2896,
  "olution": 2897,
  "\u2581commandement": 2898,
  "die": 2899,
  "Ayiwa": 2900,
  "\u2581mots": 2901,
  "\u2581jeunes": 2902,
  "\u2581yeelen": 2903,
  "d\u0254": 2904,
  "\u2581Th": 2905,
  "\u2581br": 2906,
  "heur": 2907,
  "\u2581envers": 2908,
  "\u2581savons": 2909,
  "ak": 2910,
  "tri": 2911,
  "ouse": 2912,
  "\u2581fra": 2913,
  "\u2581sogo": 2914,
  "\u2581f\u025btiw": 2915,
  "\u2581contra": 2916,
  "\u2581sauver": 2917,
  "\u2581troisi\u00e8me": 2918,
  "orts": 2919,
  "roit": 2920,
  "\u2581jira": 2921,
  "\u2581g\u00e9n\u00e9ra": 2922,
  "\u2581dernier": 2923,
  "liw": 2924,
  "\u2581k\u00f2r\u00f2": 2925,
  "\u2581rapidement": 2926,
  "KI": 2927,
  "\u2581fran": 2928,
  "\u2581faran": 2929,
  "\u2581surun": 2930,
  "\u2581baaraden": 2931,
  "\u2581anges": 2932,
  "\u2581villa": 2933,
  "\u2581kuntigiw": 2934,
  "50": 2935,
  "h\u0254n": 2936,
  "sit": 2937,
  "aider": 2938,
  "\u2581mange": 2939,
  "\u2581mille": 2940,
  "oc": 2941,
  "appe": 2942,
  "\u2581Cor": 2943,
  "\u2581compris": 2944,
  "aron": 2945,
  "\u2581buru": 2946,
  "ene": 2947,
  "g\u00e9s": 2948,
  "\u2581sep": 2949,
  "\u2581deuxi\u00e8me": 2950,
  "\u2581\u2022": 2951,
  "\u2581Ga": 2952,
  "\u2581Kun": 2953,
  "\u2581anima": 2954,
  "\u2581libre": 2955,
  "\u2581p\u025br\u025bn": 2956,
  "\u2581exemple": 2957,
  "int\u00e9": 2958,
  "\u2581wee": 2959,
  "\u2581Jacob": 2960,
  "\u2581bas": 2961,
  "\u2581Kitabu": 2962,
  "\u2581demander": 2963,
  "mages": 2964,
  "oubli": 2965,
  "\u2581condu": 2966,
  "\u2581force": 2967,
  ":27": 2968,
  "\u258146": 2969,
  "ende": 2970,
  "\u2581Ces": 2971,
  "\u2581rac": 2972,
  "\u2581lamini": 2973,
  "\u2581n\u00e9cess": 2974,
  "kura": 2975,
  "\u2581Masaya": 2976,
  "\u2581halibi": 2977,
  "\u2581cl": 2978,
  "\u2581pop": 2979,
  "\u2581jurumu": 2980,
  "\u2581Maintenant": 2981,
  "R\u0186": 2982,
  "ss": 2983,
  "lir": 2984,
  "\u2581c\u00f4t\u00e9": 2985,
  "baliya": 2986,
  "\u2581Quelles": 2987,
  "\u2581jaabili": 2988,
  "masi": 2989,
  "\u2581Anw": 2990,
  "\u2581ami": 2991,
  "\u2581mem": 2992,
  "\u2581mit": 2993,
  "\u2581g\u025br\u025bf\u025b": 2994,
  "\u2581segira": 2995,
  "\u2581cu": 2996,
  "\u2581Jud": 2997,
  "\u2581conna\u00eetre": 2998,
  "\u2581Luc": 2999,
  "\u2581aband": 3000,
  "\u2581olugu": 3001,
  "\u2581Personne": 3002,
  "\u2581connaissance": 3003,
  "kala": 3004,
  "bagaya": 3005,
  "ree": 3006,
  "alom": 3007,
  "\u2581sugu": 3008,
  "\u2581sanni": 3009,
  "\u2581plut\u00f4t": 3010,
  "\u2581pouvait": 3011,
  "\u2581som\u0254g\u0254w": 3012,
  "\u2581P\u0254li": 3013,
  "\u2581mise": 3014,
  "\u2581r\u00e9pon": 3015,
  "\u2581combat": 3016,
  "\u2581denmis\u025bnw": 3017,
  "tat": 3018,
  "\u2581F\u025b\u025bn": 3019,
  "\u2581k\u00e9l\u00e9": 3020,
  "\u2581arrive": 3021,
  "\u2581recher": 3022,
  "\u2581mariage": 3023,
  "\u2581\u00bb": 3024,
  "\u2581Parole": 3025,
  "ode": 3026,
  "\u258170": 3027,
  "\u2581pol": 3028,
  "\u2581kunu": 3029,
  "\u2581sent": 3030,
  "\u2581gouver": 3031,
  "\u2581b\u00e2": 3032,
  "lenw": 3033,
  "\u25811:1": 3034,
  "laient": 3035,
  "\u2581apprendre": 3036,
  "dit": 3037,
  "usi": 3038,
  "cs": 3039,
  "\u2581j\u025b": 3040,
  "\u2581garde": 3041,
  "\u2581Pourtant": 3042,
  "\u2581appel\u00e9": 3043,
  "\u2581doivent": 3044,
  "\u00e9ric": 3045,
  "\u2581ait": 3046,
  "\u00c9gypte": 3047,
  "\u2581suman": 3048,
  "\u2581wajibi": 3049,
  "\u2581ple": 3050,
  "\u2581s\u0254b\u025b": 3051,
  "\u2581demanda": 3052,
  "\u258144": 3053,
  "rence": 3054,
  "ignement": 3055,
  "MU": 3056,
  "\u2581sole": 3057,
  "aujourd": 3058,
  "\u2581Isi": 3059,
  "belen": 3060,
  "\u2581princip": 3061,
  "\u2581\u00ab": 3062,
  "\u2581b\u00f4": 3063,
  "\u2581pra": 3064,
  "\u2581Avec": 3065,
  "\u2581k\u00e8ra": 3066,
  "\u2581Marie": 3067,
  "\u2581somme": 3068,
  "\u2581dusukasi": 3069,
  "uro": 3070,
  "ctions": 3071,
  "\u2581seegi": 3072,
  "\u2581soleil": 3073,
  "\u2581tagama": 3074,
  "\u2581milliers": 3075,
  "\u25811:": 3076,
  "\u2581tum": 3077,
  "\u2581Plus": 3078,
  "\u2581sourit": 3079,
  "\u2581humains": 3080,
  "baliw": 3081,
  "\u2581siranna": 3082,
  "EU": 3083,
  "lis": 3084,
  "\u2581tig": 3085,
  "\u2581p\u00e9ri": 3086,
  "\u2581serai": 3087,
  "ron": 3088,
  "\u2581yoo": 3089,
  "\u2581dabila": 3090,
  "\u2581milieu": 3091,
  "\u2581nourriture": 3092,
  "ourou": 3093,
  "\u2581s\u0254nna": 3094,
  "\u00e9cu": 3095,
  "\u2581gb\u025b": 3096,
  "\u2581\u0186r\u0254": 3097,
  "\u2581lakali": 3098,
  "\u2581descend": 3099,
  "\u2581katuguni": 3100,
  "\u2581difficile": 3101,
  "il\u00e0": 3102,
  "R\u0186MU": 3103,
  "\u2581Deen": 3104,
  "\u2581\u0186R\u0186MU": 3105,
  "\u2581d\u00e9clar\u00e9": 3106,
  "\u2581zuwifuw": 3107,
  "\u2581disaient": 3108,
  "\u2581\u0186R\u0186MUKAW": 3109,
  "\u2581woro": 3110,
  "\u2581voulu": 3111,
  "\u2581disait": 3112,
  "\u2581saban": 3113,
  "\u2581langues": 3114,
  "\u2581karam\u0254g\u0254": 3115,
  "\u2581Ao\u00fb": 3116,
  "\u2581six": 3117,
  "\u2581j\u0254\u0254n": 3118,
  "\u2581dilan": 3119,
  "excuser": 3120,
  "\u2581Pierre": 3121,
  "\u2581dusukun": 3122,
  "\u2581Nu": 3123,
  "cteur": 3124,
  "\u2581revi": 3125,
  "\u2581dougou": 3126,
  "yer": 3127,
  "f\u0254l\u0254": 3128,
  "\u2581mesu": 3129,
  "\u2581\u0272ininka": 3130,
  "\u2581kw": 3131,
  "\u2581k\u00f4": 3132,
  "\u2581lit": 3133,
  "\u2581Ar\u0254n": 3134,
  "\u2581gafe": 3135,
  "\u2581ala": 3136,
  "\u2581Dani": 3137,
  "\u2581yeli": 3138,
  "\u2581enseign": 3139,
  "up": 3140,
  "\u2581mak": 3141,
  "\u2581t\u0254n": 3142,
  "\u2581pauvres": 3143,
  "\u2581Bar": 3144,
  "\u2581exc": 3145,
  "\u2581popula": 3146,
  "\u2581<": 3147,
  "iens": 3148,
  "\u2581Bab": 3149,
  "\u2581meur": 3150,
  "Si": 3151,
  "\u2581bee": 3152,
  "\u2581chefs": 3153,
  "\u2581cours": 3154,
  "ast": 3155,
  "unu": 3156,
  "\u2581fl": 3157,
  "assi": 3158,
  "\u2581sagesse": 3159,
  "\u2581C\u025b\u025b": 3160,
  "\u2581lah": 3161,
  "masi\u0272\u025b": 3162,
  "\u2581k\u025bn\u025bya": 3163,
  "\u2581Abraham": 3164,
  "-1": 3165,
  "En": 3166,
  "enait": 3167,
  "\u2581siyaw": 3168,
  "rons": 3169,
  "\u25813:1": 3170,
  "\u2581devons": 3171,
  "\u2581Pr": 3172,
  "\u2581\u0186r\u0254mu": 3173,
  "\u2581bolila": 3174,
  "\u2581nal": 3175,
  "\u2581mogo": 3176,
  "\u2581sani": 3177,
  "ect": 3178,
  "\u2581st": 3179,
  "manan": 3180,
  "\u2581cr\u00e9\u00e9": 3181,
  "\u2581sanu": 3182,
  "rection": 3183,
  "\u2581p\u00e9ch\u00e9s": 3184,
  "histoire": 3185,
  "\u2581consid\u00e9": 3186,
  "\u2581k\u0254r\u0254tanin": 3187,
  "IKAW": 3188,
  "\u2581har": 3189,
  "\u2581caf\u00e9": 3190,
  "eni": 3191,
  "\u2581K\u025b": 3192,
  "gine": 3193,
  "\u2581duv\u025bn": 3194,
  "\u2581serviteurs": 3195,
  "\u2581Is": 3196,
  "\u2581bad": 3197,
  "\u2581rou": 3198,
  "\u2581veu": 3199,
  "\u2581conc": 3200,
  "\u2581t\u00e9moi": 3201,
  "\u2581aurait": 3202,
  "\u2581tes": 3203,
  "chant": 3204,
  "y\u0254r\u0254w": 3205,
  "m\u00e9ri": 3206,
  "\u2581fru": 3207,
  "\u2581\u00e9le": 3208,
  "avenir": 3209,
  "\u2581environ": 3210,
  "nis": 3211,
  "ol\u00e9": 3212,
  "\u2581Emi": 3213,
  "\u2581b\u00e9n\u00e9": 3214,
  "\u2581faaw": 3215,
  "\u2581mili": 3216,
  "\u2581r\u00e9jou": 3217,
  "\u2581sig\u025bn": 3218,
  "\u2581souvent": 3219,
  "\u2581R\u00e9": 3220,
  "\u2581d\u00e9v": 3221,
  "tiques": 3222,
  "\u2581bouche": 3223,
  "\u0300n": 3224,
  "\u2581jeu": 3225,
  "\u2581Bana": 3226,
  "\u025bn\u014b": 3227,
  "isir": 3228,
  "juguw": 3229,
  "\u2581vont": 3230,
  "\u2581constru": 3231,
  "\u2581cependant": 3232,
  "k\u025bn\u025b": 3233,
  "\u2581Don": 3234,
  "\u2581m\u00f9n": 3235,
  "\u2581ouv": 3236,
  "\u2581\u00e9tran": 3237,
  "once": 3238,
  "orma": 3239,
  "minin": 3240,
  "\u2581sari": 3241,
  "\u2581parfa": 3242,
  "\u2581\u0272am\u0254g\u0254": 3243,
  "\u2581pourrais": 3244,
  "p\u00f4": 3245,
  "\u2581dji": 3246,
  "\u2581lar": 3247,
  "avaient": 3248,
  "\u2581certains": 3249,
  "arer": 3250,
  "\u2581si\u00e8": 3251,
  "\u2581j\u025bni": 3252,
  "emis": 3253,
  "inqui": 3254,
  "\u2581\u00e9cou": 3255,
  "\u2581\u0272\u025bf\u0254": 3256,
  "\u2581k\u0254ng\u0254": 3257,
  "\u2581kanbelen": 3258,
  "ici": 3259,
  "mez": 3260,
  "\u2581maga": 3261,
  "\u2581y\u00e8r\u00e8w": 3262,
  "gie": 3263,
  "r\u00e9ti": 3264,
  "veur": 3265,
  "truire": 3266,
  "\u2581Kalan": 3267,
  "\u2581fanan": 3268,
  "\u2581sabanan": 3269,
  "\u2581col\u00e8re": 3270,
  "\u2581grands": 3271,
  "\u2581k\u0254r\u0254ta": 3272,
  "\u2581ressus": 3273,
  "\u2581pouvons": 3274,
  "\u2581semaine": 3275,
  "\u2581comprendre": 3276,
  "fi\u00e9": 3277,
  "oru": 3278,
  "t\u00e9s": 3279,
  "biri": 3280,
  "\u2581int\u00e9": 3281,
  "\u2581v\u00eate": 3282,
  "\u2581Ab": 3283,
  "m\u00e9dia": 3284,
  "\u2581Ceux": 3285,
  "\u2581Kuma": 3286,
  "\u2581dege": 3287,
  "\u2581sanf\u025b": 3288,
  "oque": 3289,
  "\u2581cra": 3290,
  "\u2581f\u00eate": 3291,
  "\u2581delili": 3292,
  "mait": 3293,
  "entrer": 3294,
  "\u2581appris": 3295,
  "\u2581m\u0254g\u0254\u0272\u0254g\u0254n": 3296,
  "\">": 3297,
  "\u2581=\"": 3298,
  "chent": 3299,
  "essus": 3300,
  "\u025bn\u014b\u025bl\u025b": 3301,
  "\u2581prend": 3302,
  "\u2581riche": 3303,
  "\u2581s\u0254r\u0254la": 3304,
  "tilennin": 3305,
  "\u2581fantanw": 3306,
  "\u2581pho": 3307,
  "\u2581daan": 3308,
  "\u2581fera": 3309,
  "\u2581tanga": 3310,
  "\u2581jigira": 3311,
  "\u2581Y\u025bn\u014b\u025bl\u025b": 3312,
  "\u2581/": 3313,
  "llez": 3314,
  "\u2581m\u025b\u025bn": 3315,
  "\u2581donn\u00e9e": 3316,
  "lin": 3317,
  "\u2581sc": 3318,
  "mi\u025bn": 3319,
  "Matigi": 3320,
  "\u2581Allah": 3321,
  "\u2581sant\u00e9": 3322,
  "\u2581situation": 3323,
  "antes": 3324,
  "\u00fbt": 3325,
  "\u2581w\u025b": 3326,
  "honn": 3327,
  "ent\u00f4t": 3328,
  "\u2581pr\u00eatre": 3329,
  "adore": 3330,
  "\u2581boon": 3331,
  "\u2581l\u0254ra": 3332,
  "\u2581siranya": 3333,
  "\u2581Certains": 3334,
  "\u2581kil": 3335,
  "\u2581\u0190": 3336,
  "\u2581pat": 3337,
  "\u2581wan": 3338,
  "\u2581site": 3339,
  "\u2581s\u00f4r\u00f4": 3340,
  "\u2581proph\u00e8tes": 3341,
  "\u258143": 3342,
  "\u2581enn": 3343,
  "\u2581semb": 3344,
  "cal": 3345,
  "\u00e9d\u00e9": 3346,
  "\u2581reti": 3347,
  "\u2581prise": 3348,
  "\u2581sorte": 3349,
  "\u2581travers": 3350,
  "\u025bti": 3351,
  "urit\u00e9": 3352,
  "ot": 3353,
  "\u2581bataki": 3354,
  "AR": 3355,
  "US": 3356,
  "\u00e7ons": 3357,
  "\u2581Loi": 3358,
  "\u2581dieu": 3359,
  "\u2581kumaw": 3360,
  "\u2581nig\u025b": 3361,
  "\u2581assez": 3362,
  "\u2581bange": 3363,
  "\u2581seere": 3364,
  "\u2581revenir": 3365,
  "30": 3366,
  "uya": 3367,
  "\u2581Nom": 3368,
  "\u2581religion": 3369,
  "\u2581wolom": 3370,
  "\u2581farati": 3371,
  "\u2581m\u025bl\u025bk\u025bw": 3372,
  "\u2581ensemble": 3373,
  "we": 3374,
  "p\u00e9ci": 3375,
  "\u2581gard": 3376,
  "\u2581vivant": 3377,
  "\u2581tand": 3378,
  "\u2581jum\u025bnw": 3379,
  "\u2581sunguru": 3380,
  "ES": 3381,
  "\u2581n\u00e0": 3382,
  "illez": 3383,
  "\u2581s\u025bg\u025br\u025b": 3384,
  "tent": 3385,
  "tugu": 3386,
  "\u2581Zoo": 3387,
  "ordre": 3388,
  "\u2581bonheur": 3389,
  "g\u00e9e": 3390,
  "\u2581been": 3391,
  "\u2581b\u0254si": 3392,
  "\u2581pois": 3393,
  "importe": 3394,
  "\u2581duniya": 3395,
  "nen": 3396,
  "t\u0254n": 3397,
  "\u0153il": 3398,
  "\u2581How": 3399,
  "\u2581suiv": 3400,
  "yst": 3401,
  "\u0254ti": 3402,
  "\u2581Tou": 3403,
  "\u2581adul": 3404,
  "\u2581cidenw": 3405,
  "\u2581filles": 3406,
  "\u2581groupe": 3407,
  "\u2581unique": 3408,
  "\u2581\u00e9tions": 3409,
  "VE": 3410,
  "onnes": 3411,
  "\u2581year": 3412,
  "angile": 3413,
  "\u2581&": 3414,
  "\u2581faim": 3415,
  "\u2581juga": 3416,
  "\u2581siri": 3417,
  "\u2581Merci": 3418,
  "\u2581petite": 3419,
  "bun": 3420,
  "\u2581bw": 3421,
  "\u2581mou": 3422,
  "appel": 3423,
  "sions": 3424,
  "\u2581chois": 3425,
  "\u2581nation": 3426,
  "\u2581sortir": 3427,
  "vit\u00e9": 3428,
  "\u2581laga": 3429,
  "\u2581reconn": 3430,
  "\u2581nz": 3431,
  "ident": 3432,
  "\u2581Donc": 3433,
  "\u2581kele": 3434,
  "antage": 3435,
  "kalase": 3436,
  "\u2581tellement": 3437,
  "aan": 3438,
  "ero": 3439,
  "este": 3440,
  "\u2581tilenninya": 3441,
  "anci": 3442,
  "\u2581Eso": 3443,
  "\u2581kas": 3444,
  "\u2581droite": 3445,
  "juli": 3446,
  "\u2581Syn": 3447,
  "\u2581kpa": 3448,
  "aband": 3449,
  "\u2581ouver": 3450,
  "\u2581sp\u00e9ci": 3451,
  "\u2581repr\u00e9s": 3452,
  "atta": 3453,
  "\u2581kaa": 3454,
  "\u2581majigi": 3455,
  "m\u00e9diatement": 3456,
  "\u2581ferai": 3457,
  "arisiens": 3458,
  "\u2581Denk\u00e8": 3459,
  "\u2581ciden": 3460,
  "\u2581Pa": 3461,
  "bien": 3462,
  "\u2581anu": 3463,
  "utana": 3464,
  "\u2581fil\u00e8": 3465,
  "\u2581Aaron": 3466,
  "\u2581yaala": 3467,
  "\u2581denbaya": 3468,
  "Qu": 3469,
  "\u2581cri": 3470,
  "\u2581sis": 3471,
  "\u2581\u0272af\u025b": 3472,
  "\u2581ayant": 3473,
  "\u2581senti": 3474,
  "\u2581layidu": 3475,
  "\u2581kununna": 3476,
  "\u2581kojuguba": 3477,
  "\u2581voudrais": 3478,
  "\u2581t\u00e9moins": 3479,
  "\u2581mat": 3480,
  "\u2581pye": 3481,
  "\u2581Tuma": 3482,
  "Masac\u025b": 3483,
  "\u2581regar": 3484,
  "\u2581Masac\u025b": 3485,
  "\u2581ennemis": 3486,
  "\u2581prochain": 3487,
  "r\u00e9m": 3488,
  "\u2581,\"": 3489,
  "gage": 3490,
  "\u2581Vie": 3491,
  "\u2581ayi": 3492,
  "\u2581fid\u00e8": 3493,
  "\u2581\u00e9tant": 3494,
  "\u2581malade": 3495,
  "\u2581entendre": 3496,
  "tenir": 3497,
  "\u2581biri": 3498,
  "anmi\u025bn": 3499,
  "\u2581Pendant": 3500,
  "\u2581gw\u025br\u025bla": 3501,
  "\u2581warigw\u025b": 3502,
  "tie": 3503,
  "\u25812012": 3504,
  "\u2581di\u0272\u00e8": 3505,
  "\u2581bient\u00f4t": 3506,
  "\u2581message": 3507,
  "\u2581vit": 3508,
  "\u2581\u00e9tu": 3509,
  "\u2581lonan": 3510,
  "\u2581humain": 3511,
  "\u2581mis\u00e9ric": 3512,
  "fara": 3513,
  "\u2581Roi": 3514,
  "\u2581yii": 3515,
  "\u2581Matt": 3516,
  "\u2581sebagaya": 3517,
  "dis": 3518,
  "eri": 3519,
  "onni": 3520,
  "\u2581K\u0190W": 3521,
  "\u2581r\u00e9f": 3522,
  "\u2581Sinji": 3523,
  "\u2581honte": 3524,
  "\u2581lafi\u0272\u025b": 3525,
  "\u2581plaisir": 3526,
  "vu": 3527,
  "\u2581$": 3528,
  "os\u00e9": 3529,
  "sie": 3530,
  "\u2581(2": 3531,
  "\u00e9cri": 3532,
  "\u2581Fait": 3533,
  "\u2581MARI": 3534,
  "w\u0254": 3535,
  "ura": 3536,
  "...]": 3537,
  "ALIW": 3538,
  "baro": 3539,
  "dire": 3540,
  "raign": 3541,
  "\u2581hami": 3542,
  "\u2581prie": 3543,
  "\u2581K\u0190WALIW": 3544,
  "culi": 3545,
  "baara": 3546,
  "\u2581assis": 3547,
  "\u2581r\u00e9sul": 3548,
  "\u2581--": 3549,
  "\u2581Ji": 3550,
  "\u2581Bet": 3551,
  "\u2581Misi": 3552,
  "\u2581s\u0153urs": 3553,
  "\u2581annonc": 3554,
  "\u2581kabakuru": 3555,
  "gati": 3556,
  "ill\u00e9": 3557,
  "elopp": 3558,
  "\u2581fond": 3559,
  "\u2581nata": 3560,
  "\u2581m\u00eames": 3561,
  "\u2581kaburu": 3562,
  "\u2581permet": 3563,
  "\u2581ensuite": 3564,
  "\u2581r\u00e9pondre": 3565,
  "l\u025bn": 3566,
  "medi": 3567,
  "\u2581yeo": 3568,
  "reuve": 3569,
  "\u2581bout": 3570,
  "Egypte": 3571,
  "quelle": 3572,
  "accompl": 3573,
  "\u2581k\u0254niya": 3574,
  "\u00e8nw": 3575,
  "\u2581sois": 3576,
  "\u2581yanni": 3577,
  "itement": 3578,
  "jo": 3579,
  "\u2581Yes": 3580,
  "\u2581nax": 3581,
  "bagat\u0254w": 3582,
  "\u2581demeure": 3583,
  "\u2581service": 3584,
  "\u2581safe": 3585,
  "itions": 3586,
  "\u2581tugunni": 3587,
  "\u2581particuli": 3588,
  "9.": 3589,
  "\u2581\u0254n": 3590,
  "mini": 3591,
  "onde": 3592,
  "\u2581aide": 3593,
  "\u2581disc": 3594,
  "\u2581lala": 3595,
  "\u2581ohun": 3596,
  "\u2581MARIKI": 3597,
  "\u2581chr\u00e9ti": 3598,
  "\u2581connaiss": 3599,
  "\u2581\u025b": 3600,
  "semb": 3601,
  "y\u00f4r\u00f4": 3602,
  "\u2581m\u025bnna": 3603,
  "\u2581k\u025bl\u025bdenw": 3604,
  "endez": 3605,
  "\u2581autant": 3606,
  "\u2581Nin": 3607,
  "\u2581kaam": 3608,
  "tigiya": 3609,
  "\u2581\u0272am\u0254g\u0254w": 3610,
  ":)": 3611,
  "IL": 3612,
  "uie": 3613,
  "\u2581tere": 3614,
  "\u2581Esprit": 3615,
  "l\u00f4": 3616,
  "\u2581liv": 3617,
  ".....": 3618,
  "teurs": 3619,
  "\u0254r\u0254nya": 3620,
  "\u2581n\u025b\u025bma": 3621,
  "\u00e9ro": 3622,
  "\u2581mii": 3623,
  "\u2581try": 3624,
  "\u2581yala": 3625,
  "\u2581voici": 3626,
  "\u2581jumanw": 3627,
  ":17": 3628,
  "r\u00e9ci": 3629,
  "\u2581\u201c": 3630,
  "us\u00e9": 3631,
  "\u2581Vo": 3632,
  "aran": 3633,
  "buru": 3634,
  "\u2581free": 3635,
  "\u2581condam": 3636,
  "\u2581mesure": 3637,
  "\u2581imm\u00e9diatement": 3638,
  "ret": 3639,
  "lons": 3640,
  "\u2581dest": 3641,
  "\u2581pous": 3642,
  "\u2581farikolo": 3643,
  "\u2581aa": 3644,
  "ires": 3645,
  "\u2581tent": 3646,
  "\u00e9rance": 3647,
  "\u2581Sutana": 3648,
  "\u2581damin\u00e8": 3649,
  "\u2581jugement": 3650,
  "\u2581laquelle": 3651,
  "ctu": 3652,
  "mas": 3653,
  "orde": 3654,
  "\u2581Jour": 3655,
  "\u2581LOVE": 3656,
  "\u2581serv": 3657,
  "\u2581r\u00e9gion": 3658,
  "\u2581voulait": 3659,
  "elligence": 3660,
  "\u2581kanubagaw": 3661,
  "tez": 3662,
  "\u2581it": 3663,
  "\u00f2r\u00f2n": 3664,
  "\u2581!!!": 3665,
  "\u2581lou": 3666,
  "bl\u00e8me": 3667,
  "\u0272\u025bnt\u0254": 3668,
  "\u2581leva": 3669,
  "\u2581dormir": 3670,
  "\u2581dafanin": 3671,
  "image": 3672,
  "\u2581duba": 3673,
  "\u2581autour": 3674,
  "\u2581appel\u00e9s": 3675,
  "\u2581198": 3676,
  "\u25811:2": 3677,
  "\u2581m\u0254n": 3678,
  "\u2581yin": 3679,
  "\u2581poser": 3680,
  "\u2581habitants": 3681,
  "\u2581mot": 3682,
  "\u2581rois": 3683,
  "\u2581escla": 3684,
  "oyez": 3685,
  "\u2581Dis": 3686,
  "\u2581lettre": 3687,
  "\u2581saints": 3688,
  "\u2581han": 3689,
  "\u2581four": 3690,
  "\u2581k\u00f4r\u00f4": 3691,
  "\u2581port": 3692,
  "\u2581voit": 3693,
  "enseignement": 3694,
  "arr\u00ea": 3695,
  "\u2581all\u00e9": 3696,
  "\u2581m\u00e9ch": 3697,
  "\u2581l\u0254nin": 3698,
  "\u2581Mariya": 3699,
  "\u2581contraire": 3700,
  "Et": 3701,
  "mons": 3702,
  "\u2581niin": 3703,
  "\u2581Matth": 3704,
  "\u2581Toute": 3705,
  "\u2581sauv\u00e9": 3706,
  "\u2581commun": 3707,
  "\u2581kitabu": 3708,
  "appelait": 3709,
  "urrection": 3710,
  "oura": 3711,
  "\u2581lim": 3712,
  "\u2581m\u00e8n": 3713,
  "\u2581sub": 3714,
  "\u2581tin": 3715,
  "\u2581tris": 3716,
  "\u2581manif": 3717,
  "\u2581animaux": 3718,
  "\u2581Matthieu": 3719,
  "IR": 3720,
  "C\u025b\u025b": 3721,
  "lam": 3722,
  "sin": 3723,
  "\u2581ras": 3724,
  "\u2581kwla": 3725,
  "ude": 3726,
  "\u00e9n\u00e8": 3727,
  "\u2581Dan": 3728,
  "\u2581balo": 3729,
  "\u2581cham": 3730,
  "\u2581k\u0254g\u0254": 3731,
  "\u2581pr\u00eat": 3732,
  "\u2581sama": 3733,
  "\u2581Terre": 3734,
  "\u2581entier": 3735,
  "\u2581membres": 3736,
  "\u2581yoro": 3737,
  "\u2581k\u0254segira": 3738,
  "\u2581wolomanin": 3739,
  "l\u00f2": 3740,
  "isiw": 3741,
  "Sisan": 3742,
  "\u25812017": 3743,
  "\u2581arr\u00ea": 3744,
  "\u2581plan": 3745,
  "\u2581sran": 3746,
  "\u2581\u00e9cri": 3747,
  "\u2581beg\u025bn": 3748,
  "\u2581Galile": 3749,
  "\u2581village": 3750,
  "\u2581oh": 3751,
  "\u2581nim": 3752,
  "\u2581oubli": 3753,
  "\u2581parta": 3754,
  "EN": 3755,
  "\u2581joo": 3756,
  "mation": 3757,
  "\u2581savais": 3758,
  "asy": 3759,
  "\u2581ZAN": 3760,
  "\u2581dimanche": 3761,
  "\u2581probl\u00e8me": 3762,
  "dan": 3763,
  "Mais": 3764,
  "\u2581[...]": 3765,
  "\u2581baden": 3766,
  "\u2581nature": 3767,
  "\u2581naissance": 3768,
  ":6": 3769,
  "asion": 3770,
  "\u2581enti": 3771,
  "\u2581pres": 3772,
  "\u2581r\u00e8gne": 3773,
  "\u2581devenu": 3774,
  "t\u025b": 3775,
  "ort\u00e9": 3776,
  "yana": 3777,
  "\u2581taba": 3778,
  "\u2581minan": 3779,
  "\u2581nzila": 3780,
  "\u2581trent": 3781,
  "duction": 3782,
  "\u2581\u019danmi\u025bn": 3783,
  "\u2581convient": 3784,
  "k\u0254li": 3785,
  "\u2581ari": 3786,
  "\u2581gen": 3787,
  "\u2581pati": 3788,
  "\u2581consul": 3789,
  "\u2581sigira": 3790,
  "tun": 3791,
  "orer": 3792,
  "teau": 3793,
  "\u2581\u0272\u025b\u025b": 3794,
  "\u2581Mali": 3795,
  "\u2581dije": 3796,
  "aurais": 3797,
  "\u2581Zoova": 3798,
  "\u2581nouvelles": 3799,
  "soci": 3800,
  "vier": 3801,
  "\u2581tu\u00e9": 3802,
  "\u2581aimer": 3803,
  "\u2581chant": 3804,
  "\u2581k\u0254r\u0254b\u0254": 3805,
  "\u2581familles": 3806,
  "\u2581\u02bb": 3807,
  "\u2581k\u0251": 3808,
  "\u2581suff": 3809,
  "\u2581choix": 3810,
  "\u2581dannaya": 3811,
  "\u2581Ci": 3812,
  "\u2581Cana": 3813,
  "\u2581cr\u00e9a": 3814,
  "\u2581galon": 3815,
  "sigi": 3816,
  "\u2581b\u0254n\u025b": 3817,
  "\u2581douze": 3818,
  "\u2581salut": 3819,
  "\u2581fi\u0272\u025bnt\u0254": 3820,
  "wan": 3821,
  "gnan": 3822,
  "\u2581jin": 3823,
  "yanin": 3824,
  "\u2581\u0272in\u025b": 3825,
  "MA": 3826,
  "indre": 3827,
  "\u2581kafe": 3828,
  "\u2581aimez": 3829,
  "\u2581entra": 3830,
  "\u2581craign": 3831,
  "\u2581produit": 3832,
  "\u2581bin": 3833,
  "\u2581kid": 3834,
  "\u00e9cole": 3835,
  "\u2581baro": 3836,
  "\u2581bles": 3837,
  "\u2581kale": 3838,
  "\u2581karan": 3839,
  "\u00e9n\u00e8bres": 3840,
  "\u2581demand": 3841,
  "l\u00e9s": 3842,
  "\u00e9l\u00e8": 3843,
  "yasi": 3844,
  "\u2581\u00e2g\u00e9": 3845,
  "\u2581j\u025bnkulu": 3846,
  "\u2581reconna": 3847,
  "arr": 3848,
  "nago": 3849,
  "vantage": 3850,
  "\u2581Quelle": 3851,
  "int\u00e9rieur": 3852,
  "\u2581baptis\u00e9s": 3853,
  "bas": 3854,
  "ctes": 3855,
  "eter": 3856,
  "fari": 3857,
  "\u2581law": 3858,
  "\u2581bord": 3859,
  "ann\u00e9es": 3860,
  "Unis": 3861,
  "ayer": 3862,
  "\u2581Galil": 3863,
  "\u2581v\u00eatements": 3864,
  "\u2581;": 3865,
  "d\u025bn": 3866,
  "raw": 3867,
  "\u2581Bon": 3868,
  "\u2581Isa": 3869,
  "cture": 3870,
  "orit\u00e9": 3871,
  "ussit": 3872,
  "\u2581diri": 3873,
  "\u2581l\u00e8ve": 3874,
  "\u2581davantage": 3875,
  "Ale": 3876,
  "\u2581L\u00e0": 3877,
  "enya": 3878,
  "esti": 3879,
  "\u2581chev": 3880,
  "\u2581D\u0254\u0254ni": 3881,
  "\u2581marche": 3882,
  "y\u025br\u025b": 3883,
  "\u00e9p\u00e9e": 3884,
  "\u2581bhi": 3885,
  "\u2581fal": 3886,
  "\u2581arti": 3887,
  "\u2581good": 3888,
  "\u2581lati": 3889,
  "\u2581r\u00e9pondu": 3890,
  "xe": 3891,
  "\u2581r\u00f4": 3892,
  "\u2581cr\u00e9ation": 3893,
  "\u2581f\u0254l\u0254f\u0254l\u0254": 3894,
  "\u2581t\u00e9n\u00e8bres": 3895,
  "y\u025bl\u025b": 3896,
  "\u2581baji": 3897,
  "\u0272\u0254g\u0254nw": 3898,
  "\u2581change": 3899,
  "\u2581synago": 3900,
  "\u2581travailler": 3901,
  ":10": 3902,
  "\u2581ang": 3903,
  "conque": 3904,
  "origine": 3905,
  "crit": 3906,
  "\u2581nak": 3907,
  "\u2581soci": 3908,
  "\u2581k\u0254n\u0254na": 3909,
  "\u2581connaissent": 3910,
  "\u2581\u00d4": 3911,
  "sons": 3912,
  "\u2581prit": 3913,
  "\u2581r\u00e9v\u00e9": 3914,
  "\u2581prier": 3915,
  "\u2581rest\u00e9": 3916,
  "\u2581pouvais": 3917,
  "\u2581t\u025bm\u025bnin": 3918,
  "aba": 3919,
  "gu\u00e8": 3920,
  "\u2581L\u00e9": 3921,
  "gers": 3922,
  "lili": 3923,
  "\u2581boo": 3924,
  "\u2581soi": 3925,
  "\u2581yee": 3926,
  "\u2581dabi": 3927,
  "\u2581d\u00e9li": 3928,
  "excuse": 3929,
  "\u2581Satan": 3930,
  "\u2581suivant": 3931,
  "ute": 3932,
  "\u2581bro": 3933,
  "\u2581maa": 3934,
  "vangile": 3935,
  "\u2581duni\u0272a": 3936,
  "\u2581simplement": 3937,
  "il\u025b": 3938,
  "fi\u00e9s": 3939,
  "zare": 3940,
  "\u2581cal": 3941,
  "\u2581fen": 3942,
  "\u2581iru": 3943,
  "\u00e9preuve": 3944,
  "\u2581preuve": 3945,
  "pr": 3946,
  "xt": 3947,
  "\u2581Yu": 3948,
  "\u2581occ": 3949,
  "\u2581pi\u00e8": 3950,
  "\u2581Fili": 3951,
  "\u2581Rome": 3952,
  "\u2581senuman": 3953,
  "\u2581Aimez": 3954,
  "\u2581piti\u00e9": 3955,
  "\u2581tombe": 3956,
  "\u2581proche": 3957,
  "\u2581diff\u00e9rentes": 3958,
  "faga": 3959,
  "lati": 3960,
  "ri\u00e8re": 3961,
  "\u2581d\u00e9tru": 3962,
  "enfants": 3963,
  "\u2581quelle": 3964,
  "\u2581m\u0254g\u0254tilennin": 3965,
  "bon": 3966,
  "\u2581fai": 3967,
  "\u2581woo": 3968,
  "istes": 3969,
  "\u2581mila": 3970,
  "\u2581week": 3971,
  "\u2581recherche": 3972,
  "1.": 3973,
  "bee": 3974,
  "\u2581zi": 3975,
  "\u2581Toi": 3976,
  "Homme": 3977,
  "eligi": 3978,
  "tembre": 3979,
  "\u2581Jamana": 3980,
  "umanbolo": 3981,
  "\u2581laj\u025bnnin": 3982,
  "OU": 3983,
  "\u25812-": 3984,
  "\u2581kanw": 3985,
  "\u00c9glise": 3986,
  "\u2581disent": 3987,
  "\u2581lookin": 3988,
  "\u2581faisons": 3989,
  "\u2581waajuli": 3990,
  "\u2581t\u00e9moigna": 3991,
  "gn\u00e9": 3992,
  "m\u00e8n": 3993,
  "\u2581exac": 3994,
  "\u2581laba": 3995,
  "\u2581prix": 3996,
  "l\u00e9ment": 3997,
  "\u2581caman": 3998,
  "\u2581demain": 3999,
  "\u2581respec": 4000,
  "\u2581kongokolon": 4001,
  "ed": 4002,
  "\u00e8de": 4003,
  "\u25817.": 4004,
  "quel": 4005,
  "\u2581maladie": 4006,
  "10": 4007,
  "Le": 4008,
  "g\u00e8": 4009,
  "zar": 4010,
  "\u00e9r\u00e9": 4011,
  "fier": 4012,
  "\u00e9cou": 4013,
  "\u2581bus": 4014,
  "escla": 4015,
  "\u2581t\u00f4g\u00f4": 4016,
  "\u2581appar": 4017,
  "\u2581duguw": 4018,
  "\u2581rendu": 4019,
  "\u2581d\u00e9sert": 4020,
  "\u2581Beaucoup": 4021,
  "\u2581abandonn\u00e9": 4022,
  "\u2581juge": 4023,
  "\u2581y\u00f2r\u00f2": 4024,
  "rement": 4025,
  "inement": 4026,
  "impression": 4027,
  "\u2581Ri": 4028,
  "\u2581croy": 4029,
  "\u2581vid\u00e9": 4030,
  "\u2581ninnu": 4031,
  "\u2581\u00c9tats": 4032,
  "ell": 4033,
  "inf": 4034,
  "\u00e9tu": 4035,
  "onn\u00e9s": 4036,
  "\u2581nama": 4037,
  "\u2581chair": 4038,
  "\u2581permis": 4039,
  "\u2581utiliser": 4040,
  "\u2581important": 4041,
  "ales": 4042,
  "\u2581Ver": 4043,
  "\u2581may": 4044,
  "illet": 4045,
  "\u25819:27": 4046,
  "\u2581Miis": 4047,
  "\u2581Minw": 4048,
  "\u2581croient": 4049,
  "\u2581commencement": 4050,
  "?\u203a": 4051,
  "\u2581Co": 4052,
  "alan": 4053,
  "\u2581tol": 4054,
  "quent": 4055,
  "\u2581fuun": 4056,
  "\u2581post": 4057,
  "\u2581forme": 4058,
  "\u2581verre": 4059,
  "\u2581Walima": 4060,
  "\u2581arriver": 4061,
  "Ar": 4062,
  "aise": 4063,
  "\u2581Abi": 4064,
  "\u2581stu": 4065,
  "\u2581prob": 4066,
  "\u2581naloman": 4067,
  "\u2581taamasi\u0272\u025b": 4068,
  "\u2581cir": 4069,
  "\u2581inf": 4070,
  "\u2581caya": 4071,
  "\u2581tuun": 4072,
  "\u2581accep": 4073,
  "\u2581p\u00e8res": 4074,
  "\u2581MiisKa": 4075,
  "\u2581riches": 4076,
  "\u2581anciens": 4077,
  "vis": 4078,
  "\u2581sta": 4079,
  "\u2581Lorsqu": 4080,
  "\u2581sac": 4081,
  "erres": 4082,
  "onnez": 4083,
  "\u2581Timo": 4084,
  "\u2581m\u00e9di": 4085,
  "\u2581signe": 4086,
  "\u2581\u00eatres": 4087,
  "honneur": 4088,
  "\u00e9rience": 4089,
  "\u2581miiran": 4090,
  "\u2581kumakan": 4091,
  "\u2581viendra": 4092,
  "jus": 4093,
  "\u2581D\u00e9": 4094,
  "ctif": 4095,
  "gner": 4096,
  "\u2581bru": 4097,
  "\u2581tex": 4098,
  "\u2581\u0272\u025bn": 4099,
  "\u2581denmis": 4100,
  ":7": 4101,
  "\u2581#": 4102,
  "\u2581Oh": 4103,
  "\u00e9qui": 4104,
  "ination": 4105,
  "\u2581accord": 4106,
  "\u2581kalifa": 4107,
  "\u2581niy\u0254r\u0254": 4108,
  "\u2581particip": 4109,
  "\u0190N": 4110,
  "euf": 4111,
  "\u2581taw": 4112,
  "itig\u025b": 4113,
  "\u2581F\u0186L\u0186": 4114,
  "\u2581yera": 4115,
  "dio": 4116,
  "foni": 4117,
  "\u2581Mal": 4118,
  "\u2581naan": 4119,
  "\u2581t\u025br\u025b": 4120,
  "\u2581peine": 4121,
  "\u2581laisse": 4122,
  "\u2581pierre": 4123,
  "\u2581trente": 4124,
  "\u2581murujan": 4125,
  "\u2581d\u00e9velopp": 4126,
  "\u2581Gu": 4127,
  "\u2581Jus": 4128,
  "\u2581tau": 4129,
  "\u2581tel": 4130,
  "\u25812013": 4131,
  "\u2581num\u00e9": 4132,
  "cience": 4133,
  "univers": 4134,
  "ussit\u00f4t": 4135,
  "\u2581foroba": 4136,
  "hn": 4137,
  "w\u025b": 4138,
  "\u0272i": 4139,
  "sui": 4140,
  "tit": 4141,
  "\u2581is": 4142,
  "ch\u00e9e": 4143,
  "\u2581M\u00f2g\u00f2": 4144,
  "\u2581invit": 4145,
  "\u2581bonnes": 4146,
  "\u2581manifest": 4147,
  "\u2581el": 4148,
  "daf\u025b": 4149,
  "onnon": 4150,
  "\u2581blan": 4151,
  "dessus": 4152,
  "\u2581frapp": 4153,
  "\u2581sauve": 4154,
  "\u2581Religi": 4155,
  "\u2581laiss\u00e9": 4156,
  "\u2581pri\u00e8res": 4157,
  "dou": 4158,
  "\u2581Jon": 4159,
  "ansan": 4160,
  "ongon": 4161,
  "waati": 4162,
  "\u2581soow": 4163,
  "\u2581yere": 4164,
  "\u2581profond": 4165,
  "\u2581commande": 4166,
  "aac": 4167,
  "ab\u0254": 4168,
  "ages": 4169,
  "midi": 4170,
  "\u2581age": 4171,
  "\u2581cam": 4172,
  "arm\u00e9e": 4173,
  "\u2581Ceci": 4174,
  "\u2581yeri": 4175,
  "\u2581M\u0254g\u0254w": 4176,
  "\u2581viens": 4177,
  "\u2581pauvre": 4178,
  "\u2581r\u00e9surrection": 4179,
  "vie": 4180,
  "\u25812\"": 4181,
  "\u2581m\u0254\u0300": 4182,
  "\u2581\u00e2me": 4183,
  "\u2581gros": 4184,
  "\u2581ladi": 4185,
  "\u2581meilleur": 4186,
  "\u2581recevoir": 4187,
  "pit": 4188,
  "\u2581Yo": 4189,
  "\u2581B\u025b\u025b": 4190,
  "\u2581f\u00e8n": 4191,
  "\u2581vas": 4192,
  "\u2581amour": 4193,
  "\u2581sanin": 4194,
  "\u2581cons\u00e9qu": 4195,
  "\u2581p\u00e9": 4196,
  "titu": 4197,
  "iriya": 4198,
  "\u2581M\u00eame": 4199,
  "\u2581mal\u0254": 4200,
  "inalement": 4201,
  "\u2581Mariyamu": 4202,
  "mm": 4203,
  "x\u0254": 4204,
  "\u0254bu": 4205,
  "\u2581b\u0251": 4206,
  "\u00e9rie": 4207,
  "\u2581Tra": 4208,
  "\u2581bina": 4209,
  "\u2581yigi": 4210,
  "\u2581coeur": 4211,
  "\u2581k\u0254nna": 4212,
  "\u2581projet": 4213,
  "\u2581djamana": 4214,
  "\u2581kabakoyara": 4215,
  "bara": 4216,
  "usun": 4217,
  "\u2581mul": 4218,
  "\u2581mina": 4219,
  "\u2581tari": 4220,
  "matama": 4221,
  "\u2581nahana": 4222,
  "\u2581kunbiri": 4223,
  "\u2581Namatama": 4224,
  "\u2581rencontre": 4225,
  "\u25816.": 4226,
  "\u2581ori": 4227,
  "\u2581y\u025b\u025b": 4228,
  "mains": 4229,
  "\u2581tuer": 4230,
  "\u2581pleure": 4231,
  "onnement": 4232,
  "\u2581devrait": 4233,
  "\u2581septembre": 4234,
  "daw": 4235,
  "y\u025bn": 4236,
  "enons": 4237,
  "isent": 4238,
  "\u2581biin": 4239,
  "\u2581Kiris": 4240,
  "\u2581h\u025b\u025br\u025b": 4241,
  "\u2581\u0272umanya": 4242,
  ":14": 4243,
  "gali": 4244,
  "\u2581blog": 4245,
  "\u2581nili": 4246,
  "\u2581crainte": 4247,
  "asig": 4248,
  "\u2581Awa": 4249,
  "\u2581Deux": 4250,
  "\u2581lana": 4251,
  "\u2581erreur": 4252,
  "\u2581sun\u0254g\u0254": 4253,
  "\u2581respons": 4254,
  "\u2581barikaman": 4255,
  "\u2581k\u0254r\u0254t\u0254nin": 4256,
  "f\u00f4": 4257,
  "\u2581Ju": 4258,
  "\u2581eh": 4259,
  "...\"": 4260,
  "\u2581Cet": 4261,
  "Adama": 4262,
  "ations": 4263,
  "\u2581damin\u025btuma": 4264,
  "ecti": 4265,
  "arizi": 4266,
  "istre": 4267,
  "\u2581succ": 4268,
  "\u2581voyez": 4269,
  "\u2581k\u025bcogo": 4270,
  "\u2581voulez": 4271,
  "\u2581voyage": 4272,
  "\u2581compagn": 4273,
  "\u2581efforts": 4274,
  ":18": 4275,
  "git": 4276,
  "l\u00e9ch": 4277,
  "para": 4278,
  "ribu": 4279,
  "\u2581LOL": 4280,
  "\u2581Temple": 4281,
  "\u2581rapport": 4282,
  "del": 4283,
  "ises": 4284,
  "\u2581veo": 4285,
  "\u2581cara": 4286,
  "\u2581noon": 4287,
  "\u2581tch\u00e8": 4288,
  "\u2581tunu": 4289,
  "\u2581faama": 4290,
  "\u2581tenir": 4291,
  "\u2581bolola": 4292,
  "\u2581k\u0254r\u0254c\u025b": 4293,
  "\u2581wolobagaw": 4294,
  "oli": 4295,
  "\u2581Zo": 4296,
  "\u2581s\u1ecd": 4297,
  "foro": 4298,
  "\u2581Sau": 4299,
  "kohun": 4300,
  "\u2581cess": 4301,
  "\u2581Galil\u00e9e": 4302,
  "\u2581devenir": 4303,
  "\u2581ohunkohun": 4304,
  "Am": 4305,
  "\u2581\u00b7": 4306,
  "Nin": 4307,
  "\u2581SA": 4308,
  "jana": 4309,
  "\u2581fur": 4310,
  "\u2581luu": 4311,
  "\u2581Fura": 4312,
  "\u2581senu": 4313,
  "\u2581Salom": 4314,
  "\u2581mang\u00e9": 4315,
  "ensemble": 4316,
  "\u2581Sur": 4317,
  "\u2581ama": 4318,
  "\u2581br\u00fb": 4319,
  "\u2581k\u0254\u0254": 4320,
  "\u2581tii": 4321,
  "iritu": 4322,
  "rions": 4323,
  "\u2581k\u025bn\u025byara": 4324,
  "IN": 4325,
  "\u0251\u0303": 4326,
  "gr\u00e9": 4327,
  "yaw": 4328,
  "\u2581l\u00f4": 4329,
  "\u2581nk": 4330,
  "\u2581Ali": 4331,
  "\u2581tor": 4332,
  "\u2581Marc": 4333,
  "\u2581bug\u0254": 4334,
  "\u2581sein": 4335,
  "\u2581siga": 4336,
  "\u2581jugak": 4337,
  "\u2581allait": 4338,
  "\u2581certain": 4339,
  "n\u00e9s": 4340,
  "\u2581B\u00e9": 4341,
  "bele": 4342,
  "bugu": 4343,
  "lace": 4344,
  "\u2581\u00e9ch": 4345,
  "ennes": 4346,
  "\u2581tr\u00e9s": 4347,
  "intelligence": 4348,
  "oon": 4349,
  "oyi": 4350,
  "\u2581<3": 4351,
  "ganin": 4352,
  "\u2581Adam": 4353,
  "cembre": 4354,
  "\u2581n\u0254\u0254r\u0254": 4355,
  "\u2581tota": 4356,
  "\u2581faite": 4357,
  "\u2581p\u025br\u025bnna": 4358,
  "\u2581pharisiens": 4359,
  "\u2581hi": 4360,
  "dait": 4361,
  "\u2581NOB": 4362,
  "\u2581abs": 4363,
  "\u2581cool": 4364,
  "\u2581Ti\u0272\u025bn": 4365,
  "\u2581Yahut": 4366,
  "\u2581looru": 4367,
  "\u2581repos": 4368,
  "\u2581Setigi": 4369,
  "\u2581sembla": 4370,
  "\u2581maisons": 4371,
  "\u2581retrouv": 4372,
  "\u2581chercher": 4373,
  "!!!": 4374,
  "ath": 4375,
  "trg": 4376,
  "uns": 4377,
  "asin": 4378,
  "\u2581gna": 4379,
  "gique": 4380,
  "\u2581jard": 4381,
  "\u2581size": 4382,
  "asiran": 4383,
  "\u2581Salomon": 4384,
  "\u2581conna\u00eet": 4385,
  "\u2581grandes": 4386,
  "\u2581Ben": 4387,
  "esses": 4388,
  "sionn": 4389,
  "\u2581tilen": 4390,
  "\u2581firent": 4391,
  "\u2581sommeil": 4392,
  "\u2581y\u025br\u025by\u025br\u025b": 4393,
  "\u2581consulter": 4394,
  "upart": 4395,
  "\u2581Cons": 4396,
  "\u2581koun": 4397,
  "\u2581\u0272\u00e8na": 4398,
  "\u2581moyen": 4399,
  "\u2581Kanaan": 4400,
  "\u2581second": 4401,
  "\u2581plupart": 4402,
  "\u2581Za": 4403,
  "attend": 4404,
  "illent": 4405,
  "\u2581meurt": 4406,
  "arizi\u0272\u025b": 4407,
  "\u2581l\u0254y\u0254r\u0254": 4408,
  "\u2581seconde": 4409,
  "kalasebagaw": 4410,
  "pon": 4411,
  "cool": 4412,
  "euve": 4413,
  "irin": 4414,
  "\u2581j\u025br\u025b": 4415,
  "\u2581like": 4416,
  "cteurs": 4417,
  "\u2581Faites": 4418,
  "\u2581appelle": 4419,
  "\u2581semaines": 4420,
  "\u2581population": 4421,
  "ua": 4422,
  "ati": 4423,
  "\u0254si": 4424,
  "\u2581195": 4425,
  "\u2581wul": 4426,
  "\u25812004": 4427,
  "\u2581lak\u0254li": 4428,
  "\u2581penser": 4429,
  ";)": 4430,
  "\u2581@": 4431,
  "gal": 4432,
  "kis": 4433,
  "\u25811-": 4434,
  "emp\u00ea": 4435,
  "\u2581wow": 4436,
  "\u2581atte": 4437,
  "\u2581gnan": 4438,
  "\u2581karo": 4439,
  "\u2581parc": 4440,
  "existe": 4441,
  "\u2581poursui": 4442,
  "\u2581m\u0254g\u0254baba": 4443,
  "\u2581Am": 4444,
  "\u2581op": 4445,
  "\u2581kat": 4446,
  "lanan": 4447,
  "\u00e9gard": 4448,
  "\u2581appr": 4449,
  "\u2581d\u00e9sir": 4450,
  "numanbolo": 4451,
  "\u2581n\u00e9cessaire": 4452,
  ":23": 4453,
  "\u2581LE": 4454,
  "\u2581r\u00ea": 4455,
  "dasi": 4456,
  "\u2581Col": 4457,
  "\u2581eso": 4458,
  "human": 4459,
  "l\u00e8mes": 4460,
  "\u2581Samu": 4461,
  "nation": 4462,
  "\u2581Notre": 4463,
  "accueil": 4464,
  "\u2581d\u0254g\u0254c\u025b": 4465,
  "\u2581foncti": 4466,
  "\u2581kasira": 4467,
  "\u2581d\u00e9clare": 4468,
  "\u2581trouvait": 4469,
  "bou": 4470,
  "\u2581YIR": 4471,
  "\u2581kabi": 4472,
  "\u2581V\u00e9rit\u00e9": 4473,
  "\u2581YIRALI": 4474,
  "\u2581%": 4475,
  "ela": 4476,
  "vin": 4477,
  "ossi": 4478,
  "siri": 4479,
  "aimes": 4480,
  "\u2581celles": 4481,
  "\u00e0n": 4482,
  "oit": 4483,
  "\u2581199": 4484,
  "\u2581gun": 4485,
  "\u2581Senu": 4486,
  "\u2581hago": 4487,
  "\u2581lama": 4488,
  "\u2581sooo": 4489,
  "olomani": 4490,
  "\u2581puisse": 4491,
  "\u2581tilenn": 4492,
  "\u2581y\u025bl\u025bla": 4493,
  "\u2581sariyaw": 4494,
  "esp\u00e9rance": 4495,
  "OL": 4496,
  "ob\u00e9": 4497,
  "\u2581App": 4498,
  "\u2581cii": 4499,
  "runin": 4500,
  "\u2581pros": 4501,
  "\u2581y\u00e8l\u00e8": 4502,
  "\u2581Depuis": 4503,
  "\u2581manque": 4504,
  "\u2581spiritu": 4505,
  "informations": 4506,
  ".2": 4507,
  "\u2581ek": 4508,
  "amuse": 4509,
  "irila": 4510,
  "viter": 4511,
  "\u2581ceci": 4512,
  "\u2581lade": 4513,
  "\u2581laj\u025b": 4514,
  "v\u00e8rent": 4515,
  "\u2581quant": 4516,
  "\u2581tunun": 4517,
  "\u2581images": 4518,
  "\u2581termin": 4519,
  "\u2581woloma": 4520,
  "AD": 4521,
  "ben": 4522,
  "ures": 4523,
  "\u2581Simon": 4524,
  "attente": 4525,
  "\u2581\u0272\u025bnab\u0254": 4526,
  "\u2581probl\u00e8mes": 4527,
  "\u2581l\u00e9g": 4528,
  "\u2581d\u00e9ta": 4529,
  "\u2581lagu": 4530,
  "\u2581nord": 4531,
  "\u2581vite": 4532,
  "adress": 4533,
  "ankolo": 4534,
  "\u2581ladon": 4535,
  "\u2581organ": 4536,
  "\u2581chang\u00e9": 4537,
  "\u2581pourra": 4538,
  "\u2581Romains": 4539,
  "\u2581conseils": 4540,
  "\u2581derniers": 4541,
  "\u2581histoire": 4542,
  "\u2581r\u00e9ponses": 4543,
  "\u025bl": 4544,
  "reux": 4545,
  "\u2581100": 4546,
  "\u2581atta": 4547,
  "\u2581bugu": 4548,
  "\u2581devi": 4549,
  "\u2581s\u00e8b\u00e8": 4550,
  "assemb": 4551,
  "\u2581d\u00e9cid\u00e9": 4552,
  "\u2581juk\u0254r\u0254": 4553,
  "\u2581saniya": 4554,
  "\u2581suivre": 4555,
  "\u2581arijana": 4556,
  "Tu": 4557,
  "\u2581\u0261": 4558,
  "Min": 4559,
  "gez": 4560,
  "\u2581v\u00e9": 4561,
  "Pour": 4562,
  "\u2581Eze": 4563,
  "\u2581aww": 4564,
  "\u2581id\u00e9e": 4565,
  "\u2581croit": 4566,
  "\u2581matigi": 4567,
  "xu": 4568,
  "abs": 4569,
  "gir": 4570,
  "lou": 4571,
  "\u2581ty": 4572,
  "Nous": 4573,
  "\u258118-": 4574,
  "\u2581bir": 4575,
  "\u2581sud": 4576,
  "\u2581kogo": 4577,
  "entend": 4578,
  "instant": 4579,
  "\u2581r\u00e9ussi": 4580,
  "\u2581\u0272agami": 4581,
  "\u2581p\u00e9riode": 4582,
  "apprendre": 4583,
  "\u2581concerne": 4584,
  "\u2581sarakalasebaga": 4585,
  ":13": 4586,
  "ton": 4587,
  "baaw": 4588,
  "\u2581jun": 4589,
  "\u2581laf": 4590,
  "rec\u025bn": 4591,
  "\u2581obser": 4592,
  "\u2581v\u00e9rit": 4593,
  "\u2581\u0272afan": 4594,
  "\u2581mankan": 4595,
  "\u2581voient": 4596,
  "inqui\u00e8te": 4597,
  "\u2581capable": 4598,
  "o\u00fbt": 4599,
  "indi": 4600,
  "tala": 4601,
  "\u2581\u00c0yi": 4602,
  "\u2581film": 4603,
  "\u2581fran\u00e7": 4604,
  "\u2581source": 4605,
  "\u2581daalili": 4606,
  "can": 4607,
  "ets": 4608,
  "maw": 4609,
  "id\u00e9e": 4610,
  "\u2581Cha": 4611,
  "\u2581aye": 4612,
  "\u2581f\u025b\u0300": 4613,
  "ombre": 4614,
  "\u2581Pila": 4615,
  "\u2581remar": 4616,
  "\u0272\u0254g\u0254nya": 4617,
  "\u2581kuntigiya": 4618,
  "val": 4619,
  "\u2581oo": 4620,
  "\u2581b\u00e9n": 4621,
  "\u2581chau": 4622,
  "\u2581vide": 4623,
  "Eglise": 4624,
  "\u2581pluie": 4625,
  "ordieux": 4626,
  "\u2581Kibaru": 4627,
  "\u2581fantan": 4628,
  "\u2581num\u00e9ro": 4629,
  "\u2581certaines": 4630,
  "h\u00e9": 4631,
  "\u258151": 4632,
  "\u2581\u00e9l": 4633,
  "\u2581demi": 4634,
  "\u2581t\u00e8na": 4635,
  "\u2581lende": 4636,
  "\u2581diinan": 4637,
  "\u2581premiers": 4638,
  "\u2581souffrance": 4639,
  "\u2581r\u00e9v": 4640,
  "\u2581ache": 4641,
  "\u2581kasa": 4642,
  "\u2581allez": 4643,
  "\u2581super": 4644,
  "intention": 4645,
  "\u2581balimamuso": 4646,
  "\u2581Y\u0254r\u0254": 4647,
  "frique": 4648,
  "\u00e9lites": 4649,
  "\u2581Gusun": 4650,
  "\u2581Seere": 4651,
  "\u2581dakun": 4652,
  "\u2581resse": 4653,
  "\u2581tagar": 4654,
  "\u2581durant": 4655,
  "\u2581nimisa": 4656,
  "\u2581wolola": 4657,
  "\u2581kititig\u025b": 4658,
  "\u2581lendemain": 4659,
  "mme": 4660,
  "\u025bri": 4661,
  "\u25811,": 4662,
  "\u2581Sud": 4663,
  "\u2581koba": 4664,
  "\u2581tulu": 4665,
  "\u2581t\u0254\u0254w": 4666,
  "\u2581Heure": 4667,
  "\u2581venue": 4668,
  "\u2581\u00e9tudi": 4669,
  "\u2581b\u025bnnin": 4670,
  "\u2581politi": 4671,
  "\u2581informa": 4672,
  "attention": 4673,
  "\u2581m\u0254g\u0254k\u0254r\u0254baw": 4674,
  "14": 4675,
  "\u014bo": 4676,
  "meri": 4677,
  "\u2581mor": 4678,
  "\u00e9tant": 4679,
  "\u2581Gran": 4680,
  "\u2581fini": 4681,
  "\u2581maan": 4682,
  "bilit\u00e9": 4683,
  "entr\u00e9e": 4684,
  "\u2581puiss": 4685,
  "cations": 4686,
  "\u2581datugu": 4687,
  "versaire": 4688,
  "amin": 4689,
  "\u2581bre": 4690,
  "\u2581fix": 4691,
  "\u2581ferme": 4692,
  "\u2581cogoya": 4693,
  "lication": 4694,
  "\u2581SE": 4695,
  "\u2581h\u00e9": 4696,
  "envoy": 4697,
  "\u2581ange": 4698,
  "\u2581kind": 4699,
  "\u2581recom": 4700,
  "\u2581capita": 4701,
  "\u2581dispos": 4702,
  "\u2581musique": 4703,
  ":20": 4704,
  "ned": 4705,
  "fila": 4706,
  "\u2581f\u00e9v": 4707,
  "\u2581nyo": 4708,
  "graph": 4709,
  "\u2581trad": 4710,
  "\u2581kolon": 4711,
  "\u2581lesqu": 4712,
  "\u2581valeur": 4713,
  "\u2581pratique": 4714,
  "\u2581baarak\u025bla": 4715,
  "information": 4716,
  "OR": 4717,
  "s\u025bn": 4718,
  "\u2581g\u00e9": 4719,
  "lant": 4720,
  "p\u00e8re": 4721,
  "\u2581emp\u00ea": 4722,
  "\u2581feel": 4723,
  "\u2581parv": 4724,
  "\u2581Verse": 4725,
  "\u2581appro": 4726,
  "\u2581feere": 4727,
  "\u2581fagara": 4728,
  "\u2581gar\u00e7on": 4729,
  "\u2581ressuscit\u00e9": 4730,
  "].": 4731,
  "ral": 4732,
  "\u2581Bu": 4733,
  "kalo": 4734,
  "mand": 4735,
  "\u2581Ani": 4736,
  "\u2581Far": 4737,
  "\u2581M\u00f9n": 4738,
  "\u2581cer": 4739,
  "\u2581hala": 4740,
  "gation": 4741,
  "\u2581baasi": 4742,
  "\u2581fil\u025bli": 4743,
  "occasion": 4744,
  "hen": 4745,
  "\u2581kn": 4746,
  "ongo": 4747,
  "ayant": 4748,
  "prise": 4749,
  "\u00e9tran": 4750,
  "\u2581Jud\u00e9e": 4751,
  "\u2581affir": 4752,
  "\u2581k\u0254r\u0254n": 4753,
  "\u2581montre": 4754,
  "\u2581tandis": 4755,
  "\u2581kerec\u025bn": 4756,
  "\u2581peuples": 4757,
  "Isiray\u025bli": 4758,
  "ct\u00e9": 4759,
  "\u2581F\u0254": 4760,
  "\u2581Jan": 4761,
  "\u2581eur": 4762,
  "\u2581w\u025b\u0303": 4763,
  "accep": 4764,
  "ilipp": 4765,
  "\u2581seli": 4766,
  "\u2581tcha": 4767,
  "\u2581tomb": 4768,
  "\u2581Actes": 4769,
  "\u2581jigin": 4770,
  "\u2581taara": 4771,
  "\u2581tromp": 4772,
  "\u2581venus": 4773,
  "\u2581semble": 4774,
  "\u2581retourn": 4775,
  "\u2581t\u00e9moignage": 4776,
  ":8": 4777,
  "ic": 4778,
  "bia": 4779,
  "\u00e8se": 4780,
  "\u2581ap\u00f4": 4781,
  "\u2581folo": 4782,
  "\u2581f\u0254ta": 4783,
  "\u2581min\u00e8": 4784,
  "\u2581\u00e9tat": 4785,
  "\u00e9poque": 4786,
  "\u2581duguma": 4787,
  "\u2581mourut": 4788,
  "\u2581\u00e9coute": 4789,
  "hs": 4790,
  "\u2581ik": 4791,
  "\u2581No\u00e9": 4792,
  "\u2581ole": 4793,
  "\u2581proc": 4794,
  "\u2581suru": 4795,
  "\u2581togo": 4796,
  "\u2581attend": 4797,
  "\u2581mas\u00f2r\u00f2": 4798,
  "\u2581portes": 4799,
  "\u2581parties": 4800,
  "c\u00e9e": 4801,
  "phone": 4802,
  "\u2581table": 4803,
  "\u2581prends": 4804,
  "--": 4805,
  "\u2581Vi": 4806,
  "r\u00e9es": 4807,
  "\u0153uvre": 4808,
  "\u2581alla": 4809,
  "\u2581test": 4810,
  "arriv\u00e9e": 4811,
  "\u2581k\u025bl\u025bk\u025b": 4812,
  "\u2581communi": 4813,
  "\u2581derni\u00e8re": 4814,
  "\u2581enseigne": 4815,
  "hh": 4816,
  "n\u00e8": 4817,
  "ged": 4818,
  "\u2581em": 4819,
  "\u2581Dugu": 4820,
  "\u2581lire": 4821,
  "\u2581otro": 4822,
  "occupe": 4823,
  "\u2581nuits": 4824,
  "\u2581denc\u025bw": 4825,
  "fication": 4826,
  "\u2581Certaines": 4827,
  "La": 4828,
  "ry": 4829,
  "\u0251\u0251": 4830,
  "ami": 4831,
  "\u258152": 4832,
  "\u2581Ku": 4833,
  "\u2581Nba": 4834,
  "\u2581big": 4835,
  "\u2581Zude": 4836,
  "\u2581baga": 4837,
  "\u2581huit": 4838,
  "isions": 4839,
  "liquer": 4840,
  "article": 4841,
  "\u2581livres": 4842,
  "\u2581pardon": 4843,
  "\u2581\u0153uvres": 4844,
  "\u2581diff\u00e9rents": 4845,
  "In": 4846,
  "ito": 4847,
  "Jama": 4848,
  "\u2581Tro": 4849,
  "\u2581w\u00e8r\u00e8": 4850,
  "\u2581ligne": 4851,
  "\u2581possi": 4852,
  "\u2581b\u0254ns\u0254n": 4853,
  ",...": 4854,
  "ilen": 4855,
  "port": 4856,
  "\u2581f\u0254la": 4857,
  "\u2581yari": 4858,
  "\u2581y\u025ble": 4859,
  "\u2581Laban": 4860,
  "\u2581biens": 4861,
  "\u2581daman": 4862,
  "\u2581dites": 4863,
  "\u2581satis": 4864,
  "\u2581souri": 4865,
  "enseign": 4866,
  "\u2581\u00e9pouse": 4867,
  "\u2581Ensuite": 4868,
  "no": 4869,
  "\u2581oise": 4870,
  "\u2581visa": 4871,
  "\u2581forte": 4872,
  "\u2581respect": 4873,
  "\u00e0a": 4874,
  "yaka": 4875,
  "\u2581tre": 4876,
  "\u2581m\u00e9rit": 4877,
  "\u2581pr\u00e9par": 4878,
  "\u2581parlait": 4879,
  "\u2581solution": 4880,
  "ima": 4881,
  "\u2581n\u00f2": 4882,
  "lair": 4883,
  "zari": 4884,
  "\u2581wor": 4885,
  "\u2581hier": 4886,
  "\u2581photo": 4887,
  "\u2581charge": 4888,
  "\u2581pensez": 4889,
  "\u2581Adamaden": 4890,
  "\u2581pr\u00e9sence": 4891,
  "\u2581\u014ba": 4892,
  "\u00e9nom": 4893,
  "\u2581cre": 4894,
  "abini": 4895,
  "araon": 4896,
  "\u2581sair": 4897,
  "\u2581yara": 4898,
  "\u2581Maria": 4899,
  "\u2581Soyez": 4900,
  "\u2581donko": 4901,
  "\u2581maana": 4902,
  "\u2581jardin": 4903,
  "\u2581\u0272agali": 4904,
  "\u2581l\u0254g\u0254kun": 4905,
  "\u2581pr\u00e9sente": 4906,
  "fen": 4907,
  "hou": 4908,
  "taa": 4909,
  "\u0254ru": 4910,
  "\u2581ow": 4911,
  "\u2581bori": 4912,
  "\u2581date": 4913,
  "\u2581roya": 4914,
  "\u2581k\u00f4n\u00f4n": 4915,
  "\u2581k\u025bnin": 4916,
  "\u2581minni": 4917,
  "\u2581d\u00e9c\u00e9d\u00e9": 4918,
  "\u2581sairly": 4919,
  "\u2581endroit": 4920,
  "\u2581promesse": 4921,
  "\u2581c\u025bk\u0254r\u0254baw": 4922,
  "\u2581repr\u00e9sent": 4923,
  "awo": 4924,
  "\u025bm\u025b": 4925,
  "dili": 4926,
  "vage": 4927,
  "\u2581s\u00e9c": 4928,
  "vites": 4929,
  "\u2581b\u0254na": 4930,
  "\u2581cira": 4931,
  "\u2581dons": 4932,
  "\u2581vote": 4933,
  "\u2581pens\u00e9": 4934,
  "\u2581pr\u00eats": 4935,
  "\u2581kiraya": 4936,
  "humanit\u00e9": 4937,
  "\u2581fallait": 4938,
  "\u2581Isra\u00e9lites": 4939,
  "sc": 4940,
  "\u2581+": 4941,
  "\u258153": 4942,
  "\u2581sus": 4943,
  "\u25812014": 4944,
  "\u2581Levi": 4945,
  "\u2581kora": 4946,
  "action": 4947,
  "blement": 4948,
  "\u00e9ration": 4949,
  "\u2581kibaro": 4950,
  "IG": 4951,
  "oti": 4952,
  "veau": 4953,
  "\u2581bri": 4954,
  "\u2581ha\u00ef": 4955,
  "\u2581kii": 4956,
  "\u2581laa": 4957,
  "\u2581\u00e9l\u00e9": 4958,
  "\u2581book": 4959,
  "\u2581dess": 4960,
  "\u2581juin": 4961,
  "\u2581janvier": 4962,
  "__": 4963,
  ":25": 4964,
  "gil": 4965,
  "koo": 4966,
  "kaba": 4967,
  "\u2581Ele": 4968,
  "\u2581Zon": 4969,
  "ement": 4970,
  "expri": 4971,
  "fique": 4972,
  "\u2581Tiga": 4973,
  "\u2581k\u00e8l\u00e8": 4974,
  "\u2581syst": 4975,
  "\u2581colle": 4976,
  "\u2581\u0153uvre": 4977,
  "ectivement": 4978,
  "\u2581surunyana": 4979,
  "cho": 4980,
  "low": 4981,
  "\u00ecla": 4982,
  "Dugu": 4983,
  "tien": 4984,
  "oncer": 4985,
  "\u2581s\u025bn\u025b": 4986,
  "\u2581Duman": 4987,
  "\u2581faniw": 4988,
  "\u2581masaw": 4989,
  "ch\u00e8rent": 4990,
  "\u2581aimeras": 4991,
  "\u2581masasig": 4992,
  "\u2581Solomani": 4993,
  "\u2581montagnes": 4994,
  "NAN": 4995,
  "aru": 4996,
  "agne": 4997,
  "d\u0254mu": 4998,
  "\u2581ris": 4999,
  "\u2581Siri": 5000,
  "\u2581actu": 5001,
  "\u2581soro": 5002,
  "\u2581kasih": 5003,
  "\u2581konnon": 5004,
  "\u2581d\u00e9cembre": 5005,
  "dap": 5006,
  "\u00e9le": 5007,
  "\u0272an": 5008,
  "\u2581j\u0254": 5009,
  "\u2581\u00e9to": 5010,
  "isant": 5011,
  "\u2581hin\u025b": 5012,
  "\u2581kule": 5013,
  "\u2581pare": 5014,
  "\u00e9ritage": 5015,
  "\u2581famine": 5016,
  "\u2581sauv\u00e9s": 5017,
  "\u2581gwansan": 5018,
  "\u2581laisser": 5019,
  "\u2581attendre": 5020,
  "\u2581seigneur": 5021,
  "\u2581facilement": 5022,
  ":16": 5023,
  "nes": 5024,
  "tif": 5025,
  "rit\u00e9": 5026,
  "\u2581lut": 5027,
  "\u2581t\u00f4t": 5028,
  "\u2581tara": 5029,
  "\u2581dur\u00e9e": 5030,
  "\u2581lam\u00e8n": 5031,
  "\u2581banned": 5032,
  "\u2581miracles": 5033,
  "\u2581Toutefois": 5034,
  "50.": 5035,
  "ust": 5036,
  "\u2581Te": 5037,
  "atri": 5038,
  "taga": 5039,
  "\u2581lase": 5040,
  "\u2581nani": 5041,
  "m\u025bniya": 5042,
  "\u2581Regar": 5043,
  "\u2581kiraw": 5044,
  "\u2581victi": 5045,
  "\u2581Corint": 5046,
  "\u2581descendu": 5047,
  "b\u00e8n": 5048,
  "\u2581!!": 5049,
  "nh\u0254n": 5050,
  "\u2581Bii": 5051,
  "asser": 5052,
  "arr\u00eate": 5053,
  "taient": 5054,
  "\u2581Ezeki": 5055,
  "\u2581t\u00e8m\u00e8n": 5056,
  "interro": 5057,
  "\u2581points": 5058,
  "\u2581aussit\u00f4t": 5059,
  "in\u00e9": 5060,
  "\u2581of": 5061,
  "\u2581k\u025br": 5062,
  "\u2581yal": 5063,
  "\u2581acti": 5064,
  "\u2581ment": 5065,
  "import": 5066,
  "\u2581plein": 5067,
  "\u2581soins": 5068,
  "\u2581souha": 5069,
  "diction": 5070,
  "\u2581masasigilan": 5071,
  "uu": 5072,
  "\u25811.": 5073,
  "ol\u00e9e": 5074,
  "\u2581196": 5075,
  "\u2581ara": 5076,
  "\u2581n\u00f9n": 5077,
  "\u2581koko": 5078,
  "\u2581quar": 5079,
  "\u2581vaut": 5080,
  "urance": 5081,
  "\u2581vid\u00e9o": 5082,
  "\u2581r\u00e9comp": 5083,
  "\u2581tchogo": 5084,
  "\u2581if": 5085,
  "huit": 5086,
  "min\u025b": 5087,
  "orow": 5088,
  "\u2581pron": 5089,
  "endroit": 5090,
  "\u2581kakala": 5091,
  "\u2581tagged": 5092,
  "\u2581fagay\u0254r\u0254": 5093,
  "\u2581\u0272iningaliw": 5094,
  "],": 5095,
  "\u00eat": 5096,
  "Anw": 5097,
  "ectu": 5098,
  "sara": 5099,
  "ti\u00e8re": 5100,
  "\u2581bons": 5101,
  "\u2581\u00e9qui": 5102,
  "liance": 5103,
  "\u2581savent": 5104,
  "Pourquoi": 5105,
  "\u2581tilannin": 5106,
  "18": 5107,
  "Is": 5108,
  ":19": 5109,
  "\u2581%%": 5110,
  "\u2581\u019d\u0190": 5111,
  "\u2581miri": 5112,
  "\u2581choisi": 5113,
  "\u2581faisant": 5114,
  "\u2581diff\u00e9rence": 5115,
  ":24": 5116,
  "J\u0254n": 5117,
  "Koo": 5118,
  "\u2581d\u00ec": 5119,
  "ciles": 5120,
  "\u2581amen": 5121,
  "\u2581juma": 5122,
  "\u2581k\u00e8la": 5123,
  "\u2581murut": 5124,
  "\u2581cibaga": 5125,
  "\u2581dirige": 5126,
  "\u2581combien": 5127,
  "13": 5128,
  "6.": 5129,
  "lew": 5130,
  "\u00e8b\u00e8": 5131,
  "cent": 5132,
  "ch\u00e9s": 5133,
  "mab\u0254": 5134,
  "\u2581Saa": 5135,
  "\u2581juu": 5136,
  "\u2581s\u0254s": 5137,
  "owabu": 5138,
  "ti\u00e8me": 5139,
  "\u2581rent": 5140,
  "\u2581soin": 5141,
  "\u2581tran": 5142,
  "\u2581Babil": 5143,
  "\u2581bataille": 5144,
  "\u2581pouvaient": 5145,
  "\u2581sungurunin": 5146,
  "yon": 5147,
  "\u2581Dou": 5148,
  "\u2581Yin": 5149,
  "aller": 5150,
  "\u2581Sina": 5151,
  "\u2581hors": 5152,
  "\u2581mout": 5153,
  "\u2581s\u025bg\u025b": 5154,
  "\u2581texte": 5155,
  "\u2581k\u0254m\u0254g\u0254": 5156,
  "\u2581Isiyaka": 5157,
  "\u2581Philipp": 5158,
  "gb": 5159,
  "wi": 5160,
  "\u258155": 5161,
  "Sara": 5162,
  "ass\u00e9": 5163,
  "\u2581hou": 5164,
  "\u2581easy": 5165,
  "\u2581n\u025bn\u025b": 5166,
  "k\u0254r\u0254ba": 5167,
  "\u00e9glise": 5168,
  "\u2581d\u00e9c\u00e9d": 5169,
  "\u2581prot\u00e9": 5170,
  "\u2581siraw": 5171,
  "\u2581sisen": 5172,
  "\u2581gr\u00e2ces": 5173,
  "\u2581\u0272umanw": 5174,
  "\u2581baarak\u025blaw": 5175,
  "\u2581Ex": 5176,
  "\u0186L\u0186S": 5177,
  "\u2581ob\u00e9": 5178,
  "\u2581rem": 5179,
  "arbre": 5180,
  "\u2581rich": 5181,
  "fiques": 5182,
  "issage": 5183,
  "ouvrir": 5184,
  "\u2581Judas": 5185,
  "\u2581K\u0186L\u0186S": 5186,
  "\u2581mandi": 5187,
  "\u2581voil\u00e0": 5188,
  "\u2581diable": 5189,
  "\u2581justes": 5190,
  "\u2581courant": 5191,
  "\u2581poisson": 5192,
  "\u2581K\u0186L\u0186SIKAW": 5193,
  "\u2581m\u0254g\u0254juguw": 5194,
  "\u2581gouvernement": 5195,
  "\u2581w\u00e0": 5196,
  "itan": 5197,
  "\u2581Anu": 5198,
  "\u2581Ara": 5199,
  "\u2581Pol": 5200,
  "\u2581dug": 5201,
  "\u2581fl\u025b": 5202,
  "\u2581y\u025b\u0303": 5203,
  "\u2581ao\u00fbt": 5204,
  "\u2581r\u00e9un": 5205,
  "\u2581Liban": 5206,
  "\u2581cinqu": 5207,
  "\u2581fasse": 5208,
  "\u2581dimina": 5209,
  "\u2581sabati": 5210,
  "\u2581soumis": 5211,
  "\u2581nafolotigi": 5212,
  "\u2581th\u00e9": 5213,
  "\u2581y\u0254n": 5214,
  "titude": 5215,
  "\u2581d\u0254g\u0254ya": 5216,
  "\u2581entrer": 5217,
  "Ce": 5218,
  "EUR": 5219,
  "ary": 5220,
  "osu": 5221,
  "\u014bga": 5222,
  "\u2581El": 5223,
  "\u2581T\u00e9": 5224,
  "vaux": 5225,
  "\u2581kya": 5226,
  "\u2581nul": 5227,
  "bert\u00e9": 5228,
  "table": 5229,
  "\u2581that": 5230,
  "\u2581morte": 5231,
  "\u2581sabar": 5232,
  "\u2581kisili": 5233,
  "\u2581ny\u0254g\u0254n": 5234,
  "\u2581\u00c9gypte": 5235,
  "\u2581Samarie": 5236,
  "\u2581kabakow": 5237,
  "\u2581r\u00e9sultats": 5238,
  "pec": 5239,
  "tho": 5240,
  "\u2581b\u00e8n": 5241,
  "oupes": 5242,
  "tient": 5243,
  "ttent": 5244,
  "veill": 5245,
  "resser": 5246,
  "\u0254r\u0254nan": 5247,
  "\u2581telef": 5248,
  "attends": 5249,
  "\u2581Daniel": 5250,
  "\u2581Toutes": 5251,
  "\u2581confor": 5252,
  "\u2581appr\u00e9ci": 5253,
  "\u2581qualit\u00e9": 5254,
  "\u2581reconnu": 5255,
  "\u2581Adamadenw": 5256,
  "\u2581synagogue": 5257,
  "Ai": 5258,
  "oux": 5259,
  "\u00f4ne": 5260,
  "\u2581kh": 5261,
  "ards": 5262,
  "munin": 5263,
  "\u2581page": 5264,
  "\u2581t\u00f2g\u00f2": 5265,
  "\u2581wara": 5266,
  "\u2581f\u025b\u025br\u025b": 5267,
  "\u2581gb\u025bl\u025b": 5268,
  "\u2581impos": 5269,
  "\u2581plait": 5270,
  "\u2581tiens": 5271,
  "enaient": 5272,
  "esclave": 5273,
  "\u2581dibaga": 5274,
  "\u2581adultes": 5275,
  "\u2581arriv\u00e9s": 5276,
  "\u2581rassemb": 5277,
  "\u2581totalement": 5278,
  "ilo": 5279,
  "babu": 5280,
  "\u2581197": 5281,
  "\u2581nd\u025b": 5282,
  "\u2581bras": 5283,
  "\u2581tala": 5284,
  "Dawuda": 5285,
  "nements": 5286,
  "\u2581croyants": 5287,
  "dji": 5288,
  "\u2581Ke": 5289,
  "\u2581j\u00e8": 5290,
  "mais": 5291,
  "suis": 5292,
  "\u2581Han": 5293,
  "\u2581Pre": 5294,
  "\u2581mai": 5295,
  "\u2581nde": 5296,
  "\u0186nh\u0254n": 5297,
  "\u2581aveu": 5298,
  "\u2581type": 5299,
  "\u2581mondi": 5300,
  "\u2581naxan": 5301,
  "\u00e8nement": 5302,
  "\u2581beg\u025bnw": 5303,
  "\u2581crains": 5304,
  "\u2581dugusa": 5305,
  "9-": 5306,
  "Sa": 5307,
  "Se": 5308,
  "Kara": 5309,
  "uche": 5310,
  "\u2581bisa": 5311,
  "\u2581gent": 5312,
  "\u2581noms": 5313,
  "\u2581poli": 5314,
  "\u2581faits": 5315,
  "\u2581f\u0254taw": 5316,
  "\u2581s\u0254r\u0254n": 5317,
  "entendre": 5318,
  "\u2581Jacques": 5319,
  "\u2581k\u025bwaliw": 5320,
  "\u2581parlent": 5321,
  "21": 5322,
  "her": 5323,
  "ur\u00e9": 5324,
  "\u258156": 5325,
  "\u2581k\u00ea": 5326,
  "fait": 5327,
  "\u2581lat": 5328,
  "\u2581John": 5329,
  "alcool": 5330,
  "rances": 5331,
  "\u2581glori": 5332,
  "ternit\u00e9": 5333,
  "\u2581si\u00e8cle": 5334,
  "arizi\u0272\u025bw": 5335,
  "\u2581veulent": 5336,
  "\u2581attention": 5337,
  "yin": 5338,
  "\u2581DI": 5339,
  "cier": 5340,
  "\u00e9ss\u00e9": 5341,
  "\u258150/": 5342,
  "\u2581pur": 5343,
  "lance": 5344,
  "\u2581jate": 5345,
  "\u2581kaka": 5346,
  "\u2581k\u00f2ni": 5347,
  "\u2581obli": 5348,
  "\u2581jaman": 5349,
  "aimerai": 5350,
  "endront": 5351,
  "\u2581propri": 5352,
  "paravant": 5353,
  "\u2581cheveux": 5354,
  "pr\u00e9": 5355,
  "\u2581If": 5356,
  "\u2581Ru": 5357,
  "\u2581zu": 5358,
  "ting": 5359,
  "\u2581May": 5360,
  "\u2581moy": 5361,
  "euses": 5362,
  "\u2581Nkan": 5363,
  "\u2581\u0272in\u025bna": 5364,
  "\u2581d\u00e9couver": 5365,
  "ese": 5366,
  "Hali": 5367,
  "ieur": 5368,
  "lier": 5369,
  "nant": 5370,
  "\u2581dii": 5371,
  "\u2581Souv": 5372,
  "\u2581camp": 5373,
  "\u2581\u0272af\u0254": 5374,
  "m\u00e9rica": 5375,
  "\u2581Ma\u00eetre": 5376,
  "\u2581Seerew": 5377,
  "\u2581consta": 5378,
  "\u2581langage": 5379,
  "\u2581y\u0254r\u0254jan": 5380,
  "cie": 5381,
  "bout": 5382,
  "ninw": 5383,
  "\u2581s\u00f2n": 5384,
  "\u2581x\u0254n": 5385,
  "\u2581kowa": 5386,
  "\u2581souh": 5387,
  "\u2581tana": 5388,
  "cident": 5389,
  "\u2581repas": 5390,
  "\u2581badenw": 5391,
  "\u2581conser": 5392,
  "\u2581Yahutuw": 5393,
  "\u2581r\u00e9alit\u00e9": 5394,
  "\u2581seereya": 5395,
  "\u2581voulais": 5396,
  "\u2581tigitigi": 5397,
  "\u2581chr\u00e9tiens": 5398,
  "\u2581pr\u00e9sident": 5399,
  "\u2581oc": 5400,
  "\u2581vint": 5401,
  "\u2581j\u0254\u0254nw": 5402,
  "\u2581telle": 5403,
  "\u2581Heureux": 5404,
  "ext\u00e9rieur": 5405,
  "\u2581w\u0254\u0254r\u0254nan": 5406,
  "\u2581quiconque": 5407,
  "quis": 5408,
  "\u2581\u00e9v\u00e9": 5409,
  "\u2581Loon": 5410,
  "\u2581koro": 5411,
  "\u2581mama": 5412,
  "\u2581tint": 5413,
  "mettre": 5414,
  "oublie": 5415,
  "occuper": 5416,
  "\u2581Wagati": 5417,
  "\u2581kalans": 5418,
  "\u2581n\u0254g\u0254ya": 5419,
  "\u2581culture": 5420,
  "\u2581N\u00e9": 5421,
  "cule": 5422,
  "\u2581fali": 5423,
  "\u2581k\u00e8m\u00e8": 5424,
  "\u2581champ": 5425,
  "\u2581sigui": 5426,
  "\u2581nyogon": 5427,
  "\u2581samedi": 5428,
  "\u2581souhait": 5429,
  "\u2581tchaman": 5430,
  "\u2581fanibugu": 5431,
  "\u2581fi\u0272\u025bnt\u0254w": 5432,
  "\u2581m\u0254g\u0254babaw": 5433,
  "\u2581\u0308": 5434,
  "om\u00e8": 5435,
  "\u2581xo": 5436,
  "dien": 5437,
  "\u2581Bala": 5438,
  "\u2581tiin": 5439,
  "\u2581batof\u025bn": 5440,
  "\u2581donnera": 5441,
  "\u2581pierres": 5442,
  "f\u025br": 5443,
  "g\u00e9es": 5444,
  "duire": 5445,
  "leurs": 5446,
  "talen": 5447,
  "urope": 5448,
  "\u2581Avez": 5449,
  "\u2581b\u00e9b\u00e9": 5450,
  "\u2581nahi": 5451,
  "\u2581Yanni": 5452,
  "\u2581proba": 5453,
  "\u2581r\u00e9ser": 5454,
  "\u2581Filipu": 5455,
  "\u2581d\u00e9tour": 5456,
  "\u2581naanin": 5457,
  "\u2581re\u00e7oit": 5458,
  "\u2581syst\u00e8me": 5459,
  "\u2581esclaves": 5460,
  "\u2581lem\u025bniya": 5461,
  "\u2581s\u00e9curit\u00e9": 5462,
  "m\u0254\u0254": 5463,
  "tar": 5464,
  "\u2581Enc": 5465,
  "\u2581tak": 5466,
  "\u2581b\u00e2ti": 5467,
  "\u2581\u0272\u0254\u0254n": 5468,
  "\u2581dieux": 5469,
  "\u2581duman": 5470,
  "\u2581livr\u00e9": 5471,
  "\u2581repris": 5472,
  "\u2581tugura": 5473,
  "\u2581disponi": 5474,
  "\u2581tumabee": 5475,
  "\u2581t\u0254\u0272\u0254g\u0254n": 5476,
  "assembl\u00e9e": 5477,
  "\u2581Babil\u0254ni": 5478,
  "\u2581nyogonfe": 5479,
  "\u2581banabagat\u0254": 5480,
  "\u2581souffrances": 5481,
  "\u0251\u0303\u0251": 5482,
  "reur": 5483,
  "\u2581ny\u00e8": 5484,
  "gnait": 5485,
  "\u2581k\u0254\u0272\u0254": 5486,
  "\u2581laaa": 5487,
  "\u2581soix": 5488,
  "ormais": 5489,
  "\u2581tuman": 5490,
  "istance": 5491,
  "\u2581damani": 5492,
  "\u2581fleuve": 5493,
  "\u2581ventre": 5494,
  "rentissage": 5495,
  "\u2581pardonner": 5496,
  "\u2581r\u00e9ellement": 5497,
  "ER": 5498,
  "m\u0254n": 5499,
  "par": 5500,
  "\u2581\u00e9v": 5501,
  "\u2581foli": 5502,
  "\u2581Cieux": 5503,
  "\u2581weele": 5504,
  "essayer": 5505,
  "\u2581donn\u00e9s": 5506,
  "\u2581d\u00e9part": 5507,
  "\u2581article": 5508,
  "\u00e7u": 5509,
  "00.": 5510,
  "aya": 5511,
  "veil": 5512,
  "\u2581ado": 5513,
  "\u2581wot": 5514,
  "dence": 5515,
  "hiens": 5516,
  "\u2581ayez": 5517,
  "\u2581degi": 5518,
  "\u2581diza": 5519,
  "r\u00e8rent": 5520,
  "\u2581Voil\u00e0": 5521,
  "\u2581commis": 5522,
  "\u2581sortes": 5523,
  "\u2581terik\u025b": 5524,
  "\u2581voulons": 5525,
  "\u2581conscience": 5526,
  "Na": 5527,
  "or\u00e9": 5528,
  "\u258158": 5529,
  "yira": 5530,
  "\u25811:3": 5531,
  "\u2581kp\u0129": 5532,
  "\u2581\u025br\u025b": 5533,
  "avant": 5534,
  "\u2581L\u0254ti": 5535,
  "\u2581eaux": 5536,
  "\u2581jara": 5537,
  "\u2581kiya": 5538,
  "\u2581symp": 5539,
  "\u2581fruit": 5540,
  "\u2581merci": 5541,
  "\u258150/50.": 5542,
  "\u2581Quelqu": 5543,
  "\u2581min\u025bna": 5544,
  "\u2581travaux": 5545,
  "\u2581\u0143": 5546,
  "UMA": 5547,
  "boo": 5548,
  "m\u00f2g\u00f2": 5549,
  "objet": 5550,
  "\u2581Anti": 5551,
  "\u2581ajou": 5552,
  "\u2581s\u0254\u0303\u0254": 5553,
  "\u00e9quipe": 5554,
  "\u2581Nuhun": 5555,
  "\u2581b\u025bnna": 5556,
  "\u2581digne": 5557,
  "\u2581croyez": 5558,
  "\u2581fa\u00e7ons": 5559,
  "\u2581lanaya": 5560,
  "\u2581mari\u00e9s": 5561,
  "\u2581comporte": 5562,
  "\u2581dugusagw\u025b": 5563,
  ":9": 5564,
  "IGN": 5565,
  "lui": 5566,
  "\u00f4te": 5567,
  "liqu": 5568,
  "ttes": 5569,
  "\u2581Seu": 5570,
  "\u2581hau": 5571,
  "ister": 5572,
  "obser": 5573,
  "\u2581000)": 5574,
  "\u2581Tile": 5575,
  "\u2581hare": 5576,
  "\u2581pr\u00e9f": 5577,
  "\u2581Proph": 5578,
  "lations": 5579,
  "\u2581douleur": 5580,
  "15": 5581,
  "b\u00f2": 5582,
  "kar": 5583,
  "\u2581Pu": 5584,
  "\u2581j\u00f9": 5585,
  "\u2581m\u00e2": 5586,
  "tout": 5587,
  "\u2581fiy\u025b": 5588,
  "\u2581know": 5589,
  "\u2581pewu": 5590,
  "mis\u025bnw": 5591,
  "\u2581lieux": 5592,
  "\u2581d\u0254g\u0254t\u0254r\u0254so": 5593,
  "\u2581exactement": 5594,
  "ane": 5595,
  "r\u00eat": 5596,
  "\u0300w\u0254": 5597,
  "\u2581H\u00e9": 5598,
  "appr": 5599,
  "\u2581Cr\u00e9": 5600,
  "\u2581leh": 5601,
  "\u2581circ": 5602,
  "\u2581\u0186\u0300w\u0254": 5603,
  "\u2581norma": 5604,
  "\u2581quoti": 5605,
  "\u2581remis": 5606,
  "\u2581offici": 5607,
  "agissait": 5608,
  "\u2581laissez": 5609,
  "\u2581soci\u00e9t\u00e9": 5610,
  "\u2581damin\u025bna": 5611,
  "ind": 5612,
  "kit": 5613,
  "\u25812.": 5614,
  "euvre": 5615,
  "tures": 5616,
  "\u2581k\u025br\u025b": 5617,
  "\u2581vari": 5618,
  "\u2581suivi": 5619,
  "onsieur": 5620,
  "\u2581public": 5621,
  "\u2581servir": 5622,
  "\u2581Sauveur": 5623,
  "\u2581juillet": 5624,
  "\u2581balimac\u025b": 5625,
  "\u2581denmusow": 5626,
  "\u2581kabakoya": 5627,
  "-3": 5628,
  "11": 5629,
  "iw": 5630,
  "ize": 5631,
  "\u2581Auc": 5632,
  "\u2581Baby": 5633,
  "\u2581centa": 5634,
  "\u2581lequel": 5635,
  "\u2581sancti": 5636,
  "\u2581cherche": 5637,
  "\u2581devenus": 5638,
  "\u2581f\u00e9vrier": 5639,
  "kh": 5640,
  "som": 5641,
  "z\u025bn": 5642,
  "Wili": 5643,
  "\u00e9tat": 5644,
  "\u2581bil": 5645,
  "\u2581d\u00e9n": 5646,
  "\u2581now": 5647,
  "\u2581saw": 5648,
  "itiri": 5649,
  "\u2581DIEU": 5650,
  "\u2581Saga": 5651,
  "\u2581f\u0254\u0272\u0254": 5652,
  "\u2581carte": 5653,
  "itation": 5654,
  "\u2581libert\u00e9": 5655,
  "\u2581r\u00e9fl\u00e9ch": 5656,
  "\u2581Kirisita": 5657,
  "\u2581fran\u00e7ais": 5658,
  "gor": 5659,
  "\u2581KA": 5660,
  "bras": 5661,
  "gles": 5662,
  "inya": 5663,
  "liya": 5664,
  "v\u00e9es": 5665,
  "\u2581miw": 5666,
  "chait": 5667,
  "faits": 5668,
  "\u2581Kalo": 5669,
  "\u2581jago": 5670,
  "\u2581n\u0254r\u0254": 5671,
  "\u2581perd": 5672,
  "IGNEUR": 5673,
  "\u2581allons": 5674,
  "\u2581fid\u00e8le": 5675,
  "\u2581SEIGNEUR": 5676,
  "\u2581worodugu": 5677,
  "ITI": 5678,
  "bel": 5679,
  "c\u025bn": 5680,
  "aura": 5681,
  "aut\u00e9": 5682,
  "\u00e9sar": 5683,
  "\u2581Zez": 5684,
  "\u2581nag": 5685,
  "\u2581agr\u00e9": 5686,
  "\u2581fala": 5687,
  "\u2581fast": 5688,
  "\u2581lain": 5689,
  "\u2581lere": 5690,
  "\u2581viol": 5691,
  "\u2581Avant": 5692,
  "\u2581Gusun\u0254": 5693,
  "\u2581battre": 5694,
  "\u2581\u00e9tabli": 5695,
  "\u2581Faransi": 5696,
  "\u2581continue": 5697,
  "\u00efe": 5698,
  "dia": 5699,
  "\u2581sh": 5700,
  "ande": 5701,
  "enda": 5702,
  "is\u00e9e": 5703,
  "\u2581Per": 5704,
  "\u2581soy": 5705,
  "\u2581sup": 5706,
  "onn\u00e9e": 5707,
  "\u2581jula": 5708,
  "\u2581birin": 5709,
  "\u2581entr\u00e9": 5710,
  "anmoins": 5711,
  "\u2581buguri": 5712,
  "\u2581jigiya": 5713,
  "\u2581lalaga": 5714,
  "\u2581territ": 5715,
  "abandonne": 5716,
  "\u2581kakalaya": 5717,
  "bri": 5718,
  "ysi": 5719,
  "\u258154": 5720,
  "k\u0254n\u0254": 5721,
  "line": 5722,
  "l\u00e9es": 5723,
  "\u2581ber": 5724,
  "\u2581doo": 5725,
  "\u2581kah": 5726,
  "\u2581ny\u0254": 5727,
  "instal": 5728,
  "jectif": 5729,
  "\u2581h\u0254r\u0254n": 5730,
  "\u2581junman": 5731,
  "\u2581tulogw": 5732,
  "\u2581actions": 5733,
  "\u2581d\u00e9cision": 5734,
  "\u2581commandements": 5735,
  "Or": 5736,
  "bus": 5737,
  "\u2581p\u00e8": 5738,
  "t\u00e9es": 5739,
  "\u2581Ton": 5740,
  "\u2581enj": 5741,
  "\u2581koe": 5742,
  "aniya": 5743,
  "\u2581Sans": 5744,
  "\u2581must": 5745,
  "\u2581poss": 5746,
  "\u2581autor": 5747,
  "\u2581jinaw": 5748,
  "\u2581sanga": 5749,
  "\u2581solda": 5750,
  "ception": 5751,
  "\u2581Isra\u025bl": 5752,
  "\u2581T\u00e9moins": 5753,
  "\u2581sankaba": 5754,
  "\u2581taamana": 5755,
  "\u2581capitale": 5756,
  "\u2581souvenez": 5757,
  "\u2581meilleure": 5758,
  "\u2581semblable": 5759,
  "\u00ecn": 5760,
  "\u2581\u00ca": 5761,
  ":28": 5762,
  "ace": 5763,
  "\u2581ak": 5764,
  "\u2581ii": 5765,
  "eaux": 5766,
  "raie": 5767,
  "\u0254b\u025bw": 5768,
  "\u2581D\u00e8s": 5769,
  "\u2581sil": 5770,
  "\u2581rivi": 5771,
  "\u2581C\u00e9sar": 5772,
  "\u2581Quant": 5773,
  "\u2581Trois": 5774,
  "\u2581appela": 5775,
  "\u2581contr\u00f4": 5776,
  "\u2581pi\u00e8ces": 5777,
  "\u2581porter": 5778,
  "\u2581baarak\u025b": 5779,
  "\u2581cherch\u00e9": 5780,
  "\u2581kanulen": 5781,
  "\u2581salaire": 5782,
  "accomplir": 5783,
  "apprentissage": 5784,
  "45.": 5785,
  "iez": 5786,
  "\u258165": 5787,
  "\u2581LEO": 5788,
  "tobre": 5789,
  "\u2581Bama": 5790,
  "\u2581Nouv": 5791,
  "\u2581faux": 5792,
  "\u2581pied": 5793,
  "\u2581r\u00e9pu": 5794,
  "\u2581t\u0254n\u0254": 5795,
  "\u2581d\u00e9rou": 5796,
  "\u2581signes": 5797,
  "\u2581tununa": 5798,
  "Karam\u0254g\u0254": 5799,
  "\u00c9vangile": 5800,
  "\u00e9tranger": 5801,
  "\u2581Quelques": 5802,
  "\u2581m\u0254g\u0254faga": 5803,
  "\u2581mis\u00e9ricordieux": 5804,
  "lit": 5805,
  "tara": 5806,
  "\u2581Say": 5807,
  "\u2581gan": 5808,
  "\u2581jij": 5809,
  "\u2581naa": 5810,
  "\u2581suun": 5811,
  "\u2581Encore": 5812,
  "\u2581distin": 5813,
  "\u2581laaaan": 5814,
  "\u2581nyinin": 5815,
  "\u2581profes": 5816,
  "\u2581sacrifices": 5817,
  "\u2581Va": 5818,
  "\u00e9rir": 5819,
  "\u2581bun": 5820,
  "\u2581\u00e9l\u00e8": 5821,
  "\u2581Kil\u025b": 5822,
  "\u2581Komi": 5823,
  "\u2581Phil": 5824,
  "\u2581baba": 5825,
  "\u2581pose": 5826,
  "\u2581bwisi": 5827,
  "\u2581r\u00e9uni": 5828,
  "\u2581muruti": 5829,
  "\u2581sabali": 5830,
  "\u00e9criture": 5831,
  "\u2581vivants": 5832,
  "exp\u00e9rience": 5833,
  "Ko": 5834,
  "w\u0251": 5835,
  "loi": 5836,
  "\u25814-": 5837,
  "\u2581ir": 5838,
  "amen": 5839,
  "lone": 5840,
  "\u2581Ser": 5841,
  "\u2581foo": 5842,
  "\u2581maj": 5843,
  "\u2581....": 5844,
  "\u2581seras": 5845,
  "approche": 5846,
  "\u2581regarde": 5847,
  "\u2581d\u00e9truire": 5848,
  "\u2581mis\u00e9ricorde": 5849,
  "5:": 5850,
  "8.1": 5851,
  "hor": 5852,
  "how": 5853,
  "ved": 5854,
  "9-20": 5855,
  "kiri": 5856,
  "yila": 5857,
  "\u2581193": 5858,
  "\u2581Dam": 5859,
  "\u2581D\u0254w": 5860,
  "\u2581bal": 5861,
  "\u2581susu": 5862,
  "\u2581tend": 5863,
  "\u2581dents": 5864,
  "\u2581nalon": 5865,
  "osition": 5866,
  "\u2581debout": 5867,
  "\u2581changer": 5868,
  "\u2581tulogwer": 5869,
  "approch\u00e8rent": 5870,
  "-2": 5871,
  "\u00eda": 5872,
  "Uni": 5873,
  "far": 5874,
  "\u2581Sil": 5875,
  "\u2581emb": 5876,
  "aim\u00e9s": 5877,
  "\u2581Cool": 5878,
  "\u2581anci": 5879,
  "\u2581f\u00f4l\u00f4": 5880,
  "\u2581gari": 5881,
  "\u2581yeah": 5882,
  "som\u0254g\u0254": 5883,
  "\u0254nkili": 5884,
  "\u2581C\u025bman": 5885,
  "\u2581mari\u00e9": 5886,
  "artient": 5887,
  "criture": 5888,
  "\u2581b\u00e9n\u00e9fi": 5889,
  "\u2581damina": 5890,
  "\u2581disais": 5891,
  "\u2581gauche": 5892,
  "\u2581lonanw": 5893,
  "\u2581pens\u00e9e": 5894,
  "\u2581signifi": 5895,
  "\u2581ailleurs": 5896,
  "\u2581murutili": 5897,
  "\u2581sacrifice": 5898,
  "\u2581informations": 5899,
  "\u2581kalandensom\u0254g\u0254": 5900,
  "rc": 5901,
  "\u00e8l": 5902,
  ":12": 5903,
  "\u2581d\u025bn": 5904,
  "\u2581Voir": 5905,
  "\u2581cade": 5906,
  "\u2581yalor": 5907,
  "\u2581Sariya": 5908,
  "\u2581b\u0254nnin": 5909,
  "\u2581niveau": 5910,
  "\u2581gnongon": 5911,
  "\u2581naaninan": 5912,
  "\u2581quarante": 5913,
  "\u2581souhaite": 5914,
  "Au": 5915,
  "iru": 5916,
  "mil": 5917,
  "zan": 5918,
  "\u2581kua": 5919,
  "\u2581Jusqu": 5920,
  "\u2581amata": 5921,
  "\u2581cesse": 5922,
  "\u2581titre": 5923,
  "\u2581total": 5924,
  "\u2581Chaque": 5925,
  "\u2581Egypte": 5926,
  "\u2581mirent": 5927,
  "\u2581rendit": 5928,
  "\u2581apporter": 5929,
  "\u2581dagamunin": 5930,
  "\u2581Religieuse": 5931,
  "ap": 5932,
  "b\u0251": 5933,
  "ige": 5934,
  "\u2581Fr": 5935,
  "hors": 5936,
  "k\u00e8la": 5937,
  "wali": 5938,
  "\u2581jui": 5939,
  "\u2581uni": 5940,
  "arche": 5941,
  "\u2581boro": 5942,
  "\u2581chal": 5943,
  "\u2581lev\u00e9": 5944,
  "\u2581vent": 5945,
  "\u2581siara": 5946,
  "envoyer": 5947,
  "vention": 5948,
  "\u2581nins\u0254n": 5949,
  "\u2581noonoo": 5950,
  "\u2581ouvert": 5951,
  "\u2581puisqu": 5952,
  "\u2581sirana": 5953,
  "\u2581terima": 5954,
  "\u2581conduit": 5955,
  "\u2581moutons": 5956,
  "\u2581puisque": 5957,
  "\u2581millions": 5958,
  "\u2581forobay\u0254r\u0254w": 5959,
  "7.": 5960,
  "gba": 5961,
  "tah": 5962,
  "\u2581sw": 5963,
  "dain": 5964,
  "oser": 5965,
  "\u0272\u025bna": 5966,
  "\u2581d\u00f2w": 5967,
  "\u2581lor": 5968,
  "am\u00e9li": 5969,
  "enfui": 5970,
  "\u2581next": 5971,
  "\u2581verse": 5972,
  "\u2581Sayuli": 5973,
  "\u2581commen": 5974,
  "\u2581fruits": 5975,
  "\u2581rapide": 5976,
  "\u2581reviend": 5977,
  "'.": 5978,
  "ny": 5979,
  ":22": 5980,
  "cre": 5981,
  "ril": 5982,
  "\u25815.": 5983,
  "\u2581af": 5984,
  "\u2581k\u0129": 5985,
  "b\u025br\u025b": 5986,
  "dite": 5987,
  "\u2581700": 5988,
  "\u2581FIL": 5989,
  "\u2581KOR": 5990,
  "\u2581ach": 5991,
  "9-20)": 5992,
  "aimez": 5993,
  "musow": 5994,
  "talie": 5995,
  "\u2581Gala": 5996,
  "\u2581Grec": 5997,
  "\u2581baru": 5998,
  "\u2581c\u025b\u025bw": 5999,
  "\u2581d\u00e9fi": 6000,
  "\u2581r\u00e9f\u00e9": 6001,
  "maniya": 6002,
  "\u2581(28.1": 6003,
  "\u2581Isaac": 6004,
  "\u2581J\u00e9r\u00e9m": 6005,
  "\u2581cach\u00e9": 6006,
  "\u2581gb\u025br\u025b": 6007,
  "\u2581woman": 6008,
  "Afrique": 6009,
  "\u2581ladegi": 6010,
  "\u2581malades": 6011,
  "\u2581vinrent": 6012,
  "\u2581(28.19-20)": 6013,
  "\u2581Corinthiens": 6014,
  "\u025bt": 6015,
  "\u2581Alu": 6016,
  "\u2581Aww": 6017,
  "\u2581bis": 6018,
  "\u2581ign": 6019,
  "\u2581inv": 6020,
  "\u2581kaf": 6021,
  "ayons": 6022,
  "\u2581Sabu": 6023,
  "\u2581siko": 6024,
  "\u2581wali": 6025,
  "\u2581Paris": 6026,
  "\u2581b\u0254nin": 6027,
  "\u2581donda": 6028,
  "\u2581repro": 6029,
  "\u2581s\u00e8b\u00e8n": 6030,
  "\u2581revenu": 6031,
  "ducation": 6032,
  "\u2581voulaient": 6033,
  "\u2581tulogwerenw": 6034,
  "cap": 6035,
  "com": 6036,
  "\u2581P\u00e2": 6037,
  "ESUS": 6038,
  "breu": 6039,
  "mb\u00e9c": 6040,
  "\u2581ima": 6041,
  "\u2581djan": 6042,
  "\u2581fata": 6043,
  "\u2581k\u025bsu": 6044,
  "amuser": 6045,
  "\u2581Nazar": 6046,
  "\u2581furak\u025b": 6047,
  "\u2581j\u025bns\u025bn": 6048,
  "\u2581labaan": 6049,
  "\u2581\u00e9loign": 6050,
  "\u2581\u0272anab\u0254": 6051,
  "mentation": 6052,
  "\u2581pr\u00e9parer": 6053,
  "\u2581comprenez": 6054,
  "\u2581construction": 6055,
  ":15": 6056,
  "kou": 6057,
  "leh": 6058,
  "vil": 6059,
  "\u2581He": 6060,
  "\u2581ee": 6061,
  "cale": 6062,
  "obsc": 6063,
  "asigi": 6064,
  "\u2581ayei": 6065,
  "\u2581bala": 6066,
  "\u2581popo": 6067,
  "\u2581sere": 6068,
  "termin": 6069,
  "\u2581Isira": 6070,
  "\u2581fonda": 6071,
  "\u2581fourn": 6072,
  "\u2581juifs": 6073,
  "\u2581longue": 6074,
  "\u2581batizera": 6075,
  "\u2581int\u00e9ress": 6076,
  "l\u00e9mentaires": 6077,
  "utilisation": 6078,
  "\u2581auparavant": 6079,
  "\u2581finalement": 6080,
  "\u00f9gu": 6081,
  "\u258159": 6082,
  "F\u025b\u025bn": 6083,
  "fani": 6084,
  "tifs": 6085,
  "\u2581Tun": 6086,
  "\u2581wie": 6087,
  "tinya": 6088,
  "\u2581avis": 6089,
  "\u2581mans": 6090,
  "\u2581s\u0254t\u0254": 6091,
  "auteur": 6092,
  "outent": 6093,
  "\u2581JESUS": 6094,
  "\u2581m\u00e9tho": 6095,
  "\u2581woilu": 6096,
  "\u2581divers": 6097,
  "\u2581muruku": 6098,
  "\u2581triste": 6099,
  "\u2581ap\u00f4tres": 6100,
  "\u2581ordonn\u00e9": 6101,
  "\u2581passait": 6102,
  "\u2581difficul": 6103,
  "\u2581y\u025bl\u025bmana": 6104,
  "\u2581enti\u00e8rement": 6105,
  "t\u00e8": 6106,
  "\u00e2me": 6107,
  "\u25813.": 6108,
  "anti": 6109,
  "hima": 6110,
  "\u2581R\u00e9s": 6111,
  "\u2581ext": 6112,
  "eremi": 6113,
  "\u2581f\u00f2l\u00f2": 6114,
  "\u2581lamp": 6115,
  "\u2581quin": 6116,
  "\u2581NOBAR": 6117,
  "usement": 6118,
  "\u2581Intinya": 6119,
  "\u2581courage": 6120,
  "\u2581k\u025bwalew": 6121,
  "\u2581siaram\u0254": 6122,
  "\u2581\u00e9trangers": 6123,
  "\u2581communaut\u00e9": 6124,
  "faw": 6125,
  "\u2581t\u00fa": 6126,
  "bo\u0272a": 6127,
  "\u258134-": 6128,
  "\u2581Bes": 6129,
  "\u2581tir": 6130,
  "\u2581Aawo": 6131,
  "\u2581Domi": 6132,
  "\u2581dunu": 6133,
  "aiment": 6134,
  "avance": 6135,
  "envoie": 6136,
  "\u2581garder": 6137,
  "\u2581litiri": 6138,
  "\u2581suruta": 6139,
  "\u2581wulila": 6140,
  "\u2581kantigi": 6141,
  "\u2581ressusc": 6142,
  "\u2581continuer": 6143,
  "\u2581construire": 6144,
  "dy": 6145,
  "ia": 6146,
  "assu": 6147,
  "dit\u00e9": 6148,
  "yimu": 6149,
  "\u2581pon": 6150,
  "mande": 6151,
  "\u2581r\u00f4le": 6152,
  "\u2581Chine": 6153,
  "\u2581mont\u00e9": 6154,
  "\u2581pleurer": 6155,
  "importance": 6156,
  "duit": 6157,
  "m\u00e9es": 6158,
  "usse": 6159,
  "\u2581Ina": 6160,
  "aloni": 6161,
  "\u00e9tude": 6162,
  "\u2581misi": 6163,
  "\u2581aurez": 6164,
  "adresse": 6165,
  "\u2581effect": 6166,
  "\u2581arriv\u00e9e": 6167,
  "\u2581oiseaux": 6168,
  "\u2581craindre": 6169,
  "hy": 6170,
  "hum": 6171,
  "tos": 6172,
  "\u258166": 6173,
  "Musa": 6174,
  "orce": 6175,
  "\u2581sag": 6176,
  "\u2581s\u025bn": 6177,
  "organ": 6178,
  "orgue": 6179,
  "riers": 6180,
  "tiens": 6181,
  "unit\u00e9": 6182,
  "\u2581Kala": 6183,
  "\u2581S\u0254li": 6184,
  "\u2581k\u00e8n\u00e8": 6185,
  "\u2581neuf": 6186,
  "\u00f2r\u00f2nin": 6187,
  "\u2581rends": 6188,
  "\u2581saalo": 6189,
  "\u2581s\u0254ng\u0254": 6190,
  "\u2581dehors": 6191,
  "\u2581namara": 6192,
  "\u2581venait": 6193,
  "\u00e9ternit\u00e9": 6194,
  "\u2581erreurs": 6195,
  "\u2581sp\u00e9cial": 6196,
  "\u2581travaille": 6197,
  "AS": 6198,
  "Ils": 6199,
  "ven": 6200,
  "avan": 6201,
  "juru": 6202,
  "\u2581aie": 6203,
  "oires": 6204,
  "omanw": 6205,
  "ennemi": 6206,
  "\u2581maman": 6207,
  "exemple": 6208,
  "\u2581natuma": 6209,
  "\u2581salenw": 6210,
  "\u2581voyons": 6211,
  "utiliser": 6212,
  "\u2581Alatala": 6213,
  "\u2581kelenna": 6214,
  "\u2581miliy\u0254n": 6215,
  "\u2581profess": 6216,
  "\u2581soixante": 6217,
  "\u2581difficiles": 6218,
  "b\u00f4": 6219,
  "pes": 6220,
  "reg": 6221,
  "\u2581Ra": 6222,
  "\u2581d\u00fb": 6223,
  "\u2581\u00e9n": 6224,
  "yiri": 6225,
  "ypes": 6226,
  "\u2581f\u0254n": 6227,
  "\u2581jra": 6228,
  "\u2581kia": 6229,
  "huile": 6230,
  "\u00e9ment": 6231,
  "\u2581Kisi": 6232,
  "\u2581d\u00f9gu": 6233,
  "\u2581all\u00e9s": 6234,
  "\u2581chans": 6235,
  "\u2581loved": 6236,
  "\u2581nomm\u00e9": 6237,
  "\u2581bateau": 6238,
  "\u2581fid\u00e8les": 6239,
  "\u2581Daniy\u025bli": 6240,
  "\u2581wajibiya": 6241,
  "Wa": 6242,
  "\u00e2t": 6243,
  ":26": 6244,
  "mal": 6245,
  "\u00e9v\u00e9": 6246,
  "\u258157": 6247,
  "\u2581t\u00f4": 6248,
  "enin": 6249,
  "m\u00e8re": 6250,
  "vert": 6251,
  "\u2581aje": 6252,
  "\u2581hun": 6253,
  "\u2581let": 6254,
  "alest": 6255,
  "is\u00e9es": 6256,
  "offre": 6257,
  "\u2581Z\u0254bu": 6258,
  "\u2581bless": 6259,
  "\u2581cents": 6260,
  "\u2581ny\u00e8taa": 6261,
  "\u2581sortit": 6262,
  "\u2581sup\u00e9ri": 6263,
  "\u2581all\u00e8rent": 6264,
  "\u2581craignez": 6265,
  "\u2581demandez": 6266,
  "\u2581discours": 6267,
  "\u2581kititig\u025blaw": 6268,
  "accomplissement": 6269,
  "tage": 6270,
  "tali": 6271,
  "th\u00e9e": 6272,
  "\u2581Yee": 6273,
  "\u2581m\u00e9m": 6274,
  "\u2581sti": 6275,
  "\u2581\u025b\u025bn": 6276,
  "baaya": 6277,
  "enfer": 6278,
  "\u025bl\u025bya": 6279,
  "\u2581noir": 6280,
  "ateurs": 6281,
  "istins": 6282,
  "rirent": 6283,
  "\u00e9pouse": 6284,
  "oubliez": 6285,
  "\u2581ngalon": 6286,
  "\u2581J\u00e9r\u00e9mie": 6287,
  "\u2581devient": 6288,
  "obscurit\u00e9": 6289,
  "\u2581septi\u00e8me": 6290,
  "\u2581sunguruw": 6291,
  "\u2581devraient": 6292,
  "\u2581kuntigiba": 6293,
  "\u2581r\u00e9veiller": 6294,
  "\u2581taamacogo": 6295,
  "nn": 6296,
  "ide": 6297,
  "tch": 6298,
  "Vous": 6299,
  "\u2581d\u00f4w": 6300,
  "\u2581hon": 6301,
  "\u2581lin": 6302,
  "\u2581lun": 6303,
  "\u2581nge": 6304,
  "\u2581obt": 6305,
  "\u2581\u014bga": 6306,
  "acit\u00e9": 6307,
  "\u2581dur\u00e9": 6308,
  "\u2581lois": 6309,
  "\u2581poro": 6310,
  "\u2581stru": 6311,
  "\u2581ordre": 6312,
  "\u2581Kalans": 6313,
  "\u2581consac": 6314,
  "\u2581fisaya": 6315,
  "\u2581instru": 6316,
  "\u2581m\u025b\u025bnna": 6317,
  "\u2581Nouvelle": 6318,
  "\u2581k\u025bm\u025bkulu": 6319,
  "\u2581d\u00e9sormais": 6320,
  "\u2581retourner": 6321,
  "LA": 6322,
  "fit": 6323,
  "\u2581bh": 6324,
  "Muso": 6325,
  "tiyo": 6326,
  "\u2581Con": 6327,
  "\u2581Peu": 6328,
  "\u2581aka": 6329,
  "\u2581lee": 6330,
  "pagne": 6331,
  "tesse": 6332,
  "\u2581Yisa": 6333,
  "\u2581mous": 6334,
  "vation": 6335,
  "\u2581Bonne": 6336,
  "\u2581coura": 6337,
  "\u2581Farisi": 6338,
  "\u2581claire": 6339,
  "\u2581diiman": 6340,
  "\u2581Philippe": 6341,
  "\u2581direction": 6342,
  "\u2581\u00bf": 6343,
  "iso": 6344,
  "lex": 6345,
  "ung": 6346,
  "\u2581Yi": 6347,
  "\u2581anc": 6348,
  "ettes": 6349,
  "ill\u00e9e": 6350,
  "\u00e9tend": 6351,
  "\u2581Suis": 6352,
  "\u2581mena": 6353,
  "\u2581need": 6354,
  "\u2581puri": 6355,
  "\u2581conta": 6356,
  "\u2581konon": 6357,
  "\u2581m\u00f4g\u00f4w": 6358,
  "chement": 6359,
  "\u2581centre": 6360,
  "\u2581visage": 6361,
  "\u2581yirala": 6362,
  "\u2581\u00e9poque": 6363,
  "\u2581Pharaon": 6364,
  "\u2581accueil": 6365,
  "\u2581lonanya": 6366,
  "\u2581denmis\u00e8n": 6367,
  "\u2581commencer": 6368,
  "lai": 6369,
  "\u258169": 6370,
  "\u2581Gar": 6371,
  "\u2581boi": 6372,
  "\u2581boy": 6373,
  "\u2581ch\u025b": 6374,
  "\u2581Fais": 6375,
  "\u2581d\u0254\u0300n": 6376,
  "\u2581esp\u00e8": 6377,
  "\u2581kata": 6378,
  "\u2581r\u00eave": 6379,
  "\u2581sisi": 6380,
  "\u2581v\u00e9cu": 6381,
  "zareth": 6382,
  "\u2581conva": 6383,
  "\u2581physi": 6384,
  "\u2581karaba": 6385,
  "\u2581lay\u0254r\u0254": 6386,
  "\u2581restent": 6387,
  "\u2581relation": 6388,
  "\u2581comprennent": 6389,
  "hon": 6390,
  "mie": 6391,
  "\u2581EF": 6392,
  "\u2581n\u00e8": 6393,
  "\u2581od": 6394,
  "injus": 6395,
  "\u2581kafo": 6396,
  "\u2581mod\u00e8": 6397,
  "\u2581Ameri": 6398,
  "\u2581hak\u025bw": 6399,
  "\u2581tr\u00f4ne": 6400,
  "\u2581instal": 6401,
  "Adamaden": 6402,
  "\u2581Laissez": 6403,
  "\u2581nouveaux": 6404,
  "\u2581rappelle": 6405,
  "\u2581trouvent": 6406,
  "\u2581territoire": 6407,
  "\u0254w": 6408,
  "\u25814.": 6409,
  "gana": 6410,
  "tiri": 6411,
  "\u2581Att": 6412,
  "\u2581uso": 6413,
  "endor": 6414,
  "ininw": 6415,
  "r\u00e9hen": 6416,
  "\u25812020": 6417,
  "\u2581want": 6418,
  "\u2581crier": 6419,
  "\u2581envir": 6420,
  "Sankolo": 6421,
  "wulanan": 6422,
  "\u2581katugu": 6423,
  "\u2581donn\u00e9es": 6424,
  "\u2581lecture": 6425,
  "\u2581obtenir": 6426,
  "\u2581accompli": 6427,
  "\u2581retrouv\u00e9": 6428,
  "\u2581sentiment": 6429,
  "\u2581Philistins": 6430,
  "\u2581wolonwulanan": 6431,
  "by": 6432,
  "yu": 6433,
  "eil": 6434,
  "eth": 6435,
  "f\u00e8n": 6436,
  "utu": 6437,
  "irai": 6438,
  "maan": 6439,
  "\u2581Mis": 6440,
  "\u2581day": 6441,
  "\u2581dur": 6442,
  "\u2581fag": 6443,
  "\u2581poss\u00e9": 6444,
  "\u2581Chemin": 6445,
  "\u2581feelin": 6446,
  "\u2581annonc\u00e9": 6447,
  "\u2581\u00e9toiles": 6448,
  "\u2581farisogobana": 6449,
  "oof": 6450,
  "phe": 6451,
  "\u2581cy": 6452,
  "j\u025bn\u025b": 6453,
  "omin": 6454,
  "\u2581reg": 6455,
  "\u2581\u0272an": 6456,
  "am\u0254g\u0254": 6457,
  "gunin": 6458,
  "\u2581Rien": 6459,
  "\u2581kiri": 6460,
  "\u2581last": 6461,
  "\u2581life": 6462,
  "\u2581says": 6463,
  "M\u025bl\u025bk\u025b": 6464,
  "\u2581Faire": 6465,
  "\u2581arbre": 6466,
  "ossiens": 6467,
  "\u2581Prenez": 6468,
  "\u2581dadili": 6469,
  "\u2581content": 6470,
  "\u2581gouvern": 6471,
  "\u2581accompagn": 6472,
  "\u2581Ad": 6473,
  "phra": 6474,
  "\u2581asi": 6475,
  "\u2581nou": 6476,
  "apper": 6477,
  "\u2581base": 6478,
  "\u2581ngan": 6479,
  "aurait": 6480,
  "\u2581Penda": 6481,
  "\u2581kanin": 6482,
  "\u2581Samedi": 6483,
  "\u2581arbres": 6484,
  "\u2581arr\u00eat\u00e9": 6485,
  "\u2581dafara": 6486,
  "\u2581quitt\u00e9": 6487,
  "\u2581termes": 6488,
  "\u2581filisiw": 6489,
  "\u2581parfois": 6490,
  "\u2581Kalansen": 6491,
  "\u2581impossible": 6492,
  "BU": 6493,
  "\u2581(1": 6494,
  "\u2581K\u0254": 6495,
  "wara": 6496,
  "\u00e7ait": 6497,
  "\u2581Ama": 6498,
  "\u2581Zezi": 6499,
  "\u2581basa": 6500,
  "\u2581faam": 6501,
  "\u2581symb": 6502,
  "\u2581l\u0254nko": 6503,
  "\u2581vieux": 6504,
  "demment": 6505,
  "\u2581cikura": 6506,
  "\u2581domuni": 6507,
  "\u2581firiya": 6508,
  "\u2581s\u0254r\u0254ko": 6509,
  "\u2581kowagara": 6510,
  "\u2581professionn": 6511,
  "cis": 6512,
  "\u00eele": 6513,
  "tier": 6514,
  "\u2581SAP": 6515,
  "\u2581ch\u00e2": 6516,
  "\u2581f\u00fbt": 6517,
  "\u2581sci": 6518,
  "gonin": 6519,
  "\u2581faso": 6520,
  "m\u00e9ment": 6521,
  "\u2581gratu": 6522,
  "\u2581\u0254nh\u0254n": 6523,
  "\u2581\u0272\u025bsin": 6524,
  "\u2581oubli\u00e9": 6525,
  "\u2581wulaf\u025b": 6526,
  "\u2581julakan": 6527,
  "\u2581presque": 6528,
  "\u2581t\u0254\u0254r\u0254la": 6529,
  "\u2581Babylone": 6530,
  "\u2581mondiale": 6531,
  "\u2581\u00e9l\u00e9ments": 6532,
  "Sarakalasebagaw": 6533,
  "dal": 6534,
  "mit": 6535,
  "uss": 6536,
  "xan": 6537,
  "Zuda": 6538,
  "enga": 6539,
  "land": 6540,
  "\u00e9cut": 6541,
  "\u2581amo": 6542,
  "\u2581hoo": 6543,
  "k\u00e8law": 6544,
  "taine": 6545,
  "tance": 6546,
  "usion": 6547,
  "\u2581aint": 6548,
  "\u2581enne": 6549,
  "\u2581ti\u0272\u00e8": 6550,
  "\u2581aient": 6551,
  "\u2581prote": 6552,
  "\u2581s\u00e9par": 6553,
  "\u2581tente": 6554,
  "\u2581Lazari": 6555,
  "\u2581dumunif\u025bn": 6556,
  "\u2581souffrent": 6557,
  "\u2581tilennenya": 6558,
  "OT": 6559,
  "bs": 6560,
  "car": 6561,
  "ora": 6562,
  "\u2581\u00e2ge": 6563,
  "ITIRI": 6564,
  "taire": 6565,
  "\u2581Fran": 6566,
  "\u2581here": 6567,
  "\u2581koto": 6568,
  "\u2581sout": 6569,
  "\u2581surv": 6570,
  "amment": 6571,
  "illons": 6572,
  "\u2581Grand": 6573,
  "\u2581j\u00f9m\u025bn": 6574,
  "\u2581parla": 6575,
  "\u2581bisaba": 6576,
  "\u2581repent": 6577,
  "\u2581caract\u00e9": 6578,
  "\u2581Nazareth": 6579,
  "\u2581SAPITIRI": 6580,
  "\u2581gw\u025bl\u025byaw": 6581,
  "\u2581retourne": 6582,
  "\u2581viennent": 6583,
  "\u2581Isirayila": 6584,
  "uh": 6585,
  "ats": 6586,
  "onan": 6587,
  "riss": 6588,
  "\u2581New": 6589,
  "\u2581cik": 6590,
  "\u2581dia": 6591,
  "\u2581kaj": 6592,
  "\u2581lak": 6593,
  "kelen": 6594,
  "olesc": 6595,
  "\u2581Fara": 6596,
  "\u2581Joli": 6597,
  "\u2581mine": 6598,
  "\u2581rues": 6599,
  "\u2581sibo": 6600,
  "amiti\u00e9": 6601,
  "\u2581endor": 6602,
  "\u2581k\u025br\u025bn": 6603,
  "\u2581payer": 6604,
  "\u2581years": 6605,
  "\u2581\u0272inan": 6606,
  "kuntigi": 6607,
  "orgueil": 6608,
  "\u2581compl\u00e8": 6609,
  "\u2581donnez": 6610,
  "\u2581vendre": 6611,
  "\u2581am\u00e9rica": 6612,
  "\u2581invit\u00e9s": 6613,
  "\u2581\u0272inibagaw": 6614,
  "\u2581Colossiens": 6615,
  "\u0190Z": 6616,
  "lat": 6617,
  "siw": 6618,
  "the": 6619,
  "\u258180": 6620,
  "\u2581za": 6621,
  "abri": 6622,
  "cemb": 6623,
  "pris": 6624,
  "\u00e7ant": 6625,
  "\u2581Dja": 6626,
  "\u2581dee": 6627,
  "\u2581tuu": 6628,
  "Amour": 6629,
  "\u00e8l\u00e8ya": 6630,
  "\u25812018": 6631,
  "\u2581EF\u0190Z": 6632,
  "\u2581Mont": 6633,
  "\u2581No\u00ebl": 6634,
  "\u2581sinc": 6635,
  "\u2581suka": 6636,
  "assion": 6637,
  "\u2581Parmi": 6638,
  "\u2581provo": 6639,
  "\u2581sanf\u00e8": 6640,
  "\u2581stupi": 6641,
  "\u2581Lazare": 6642,
  "\u2581latig\u00e8": 6643,
  "\u2581serais": 6644,
  "\u2581Danbaga": 6645,
  "\u2581ressemb": 6646,
  "\u2581tagaman": 6647,
  "\u2581EF\u0190ZIKAW": 6648,
  ":33": 6649,
  "uwe": 6650,
  "\u2581m\u00e0": 6651,
  "\u2581yg": 6652,
  "Kana": 6653,
  "lev\u00e9": 6654,
  "\u2581190": 6655,
  "\u2581was": 6656,
  "g\u025bnin": 6657,
  "\u2581cit\u00e9": 6658,
  "\u2581savi": 6659,
  "\u2581M\u00f9nna": 6660,
  "\u2581croix": 6661,
  "\u2581diina": 6662,
  "\u2581genre": 6663,
  "\u2581kuluw": 6664,
  "\u2581saved": 6665,
  "\u2581types": 6666,
  "\u2581Canaan": 6667,
  "\u2581Yuhana": 6668,
  "\u2581tryina": 6669,
  "\u2581visite": 6670,
  "\u2581marcher": 6671,
  "\u2581Timoth\u00e9e": 6672,
  "\u2581sarakab\u0254": 6673,
  "\u2581cinquante": 6674,
  "\u2581traduction": 6675,
  "bil": 6676,
  "kiw": 6677,
  "\u2581ap": 6678,
  "r\u0254di": 6679,
  "\u2581opp": 6680,
  "\u2581pun": 6681,
  "\u2581yar": 6682,
  "limaw": 6683,
  "xi\u00e8me": 6684,
  "\u2581Mboo": 6685,
  "\u2581Tr\u00e8s": 6686,
  "\u2581gayi": 6687,
  "\u2581lam\u0254": 6688,
  "\u2581mini": 6689,
  "\u2581pr\u00e9v": 6690,
  "\u2581Savez": 6691,
  "\u2581Sim\u0254n": 6692,
  "quement": 6693,
  "\u258118-45.": 6694,
  "\u2581Chacun": 6695,
  "\u2581muntah": 6696,
  "\u2581ntalen": 6697,
  "\u2581proph\u00e9": 6698,
  "\u2581susuli": 6699,
  "\u2581Misiran": 6700,
  "\u2581lakolon": 6701,
  "\u2581raconte": 6702,
  "\u2581\u0272asiran": 6703,
  "\u2581compagnons": 6704,
  "\u2581retourn\u00e8rent": 6705,
  "ld": 6706,
  "Les": 6707,
  "non": 6708,
  "pic": 6709,
  "yri": 6710,
  "\u2581ps": 6711,
  "\u2581kp\u025b": 6712,
  "Yanni": 6713,
  "ara\u00eet": 6714,
  "exist": 6715,
  "\u00e9cria": 6716,
  "\u2581prog": 6717,
  "\u2581wusu": 6718,
  "aimais": 6719,
  "\u2581post\u00e9": 6720,
  "\u2581remer": 6721,
  "\u2581aimait": 6722,
  "\u2581sabbat": 6723,
  "is\u0254ndiya": 6724,
  "\u2581humaine": 6725,
  "\u2581rivi\u00e8re": 6726,
  "\u2581sachant": 6727,
  "\u2581pauvret\u00e9": 6728,
  "\u2581poissons": 6729,
  "\u2581fangatigi": 6730,
  "\u2581travaill\u00e9": 6731,
  "\u00fcl": 6732,
  "\u2581\u0144": 6733,
  "\u2581Do": 6734,
  "\u2581Ze": 6735,
  "cace": 6736,
  "enen": 6737,
  "git\u0254": 6738,
  "\u2581Cap": 6739,
  "\u2581See": 6740,
  "\u2581YOU": 6741,
  "\u2581bam": 6742,
  "\u2581nte": 6743,
  "\u00eetres": 6744,
  "\u2581Luka": 6745,
  "\u2581pos\u00e9": 6746,
  "\u2581Grecs": 6747,
  "\u2581magni": 6748,
  "\u2581vraie": 6749,
  "\u2581woron": 6750,
  "\u2581Pilate": 6751,
  "\u2581m\u00e9rite": 6752,
  "\u2581na\u00eetre": 6753,
  "\u2581rappel": 6754,
  "\u2581apport\u00e9": 6755,
  "\u2581bo\u0272af\u025bn": 6756,
  "\u2581produits": 6757,
  "\u2581jalakibali": 6758,
  "\u2581parfaitement": 6759,
  "24": 6760,
  "UI": 6761,
  ":29": 6762,
  "Est": 6763,
  "blu": 6764,
  "ut\u00e9": 6765,
  "\u25813-": 6766,
  "\u2581At": 6767,
  "Loon": 6768,
  "ario": 6769,
  "cinq": 6770,
  "elez": 6771,
  "essa": 6772,
  "mant": 6773,
  "\u2581R\u00e9p": 6774,
  "rande": 6775,
  "rista": 6776,
  "\u2581grec": 6777,
  "\u2581kami": 6778,
  "\u2581t\u025bma": 6779,
  "aimait": 6780,
  "kanuya": 6781,
  "vembre": 6782,
  "\u2581imb\u00e9c": 6783,
  "\u2581j\u0254nya": 6784,
  "\u2581tient": 6785,
  "\u2581Zeremi": 6786,
  "\u2581fariya": 6787,
  "\u2581k\u0254r\u0254la": 6788,
  "\u2581k\u0254r\u0254si": 6789,
  "\u2581serons": 6790,
  "\u2581\u00e9cout\u00e9": 6791,
  "\u2581miirila": 6792,
  "\u2581wagatiw": 6793,
  "accompagn": 6794,
  "\u2581dumuniba": 6795,
  "\u2581pardonne": 6796,
  "\u2581sin\u0254g\u0254ra": 6797,
  "\u2581karam\u0254g\u0254w": 6798,
  "\u2581bololaf\u025bnw": 6799,
  "bur": 6800,
  "fee": 6801,
  "pol": 6802,
  "book": 6803,
  "onom": 6804,
  "s\u025bg\u025b": 6805,
  "\u2581m\u00e9p": 6806,
  "\u2581m\u025b\u025b": 6807,
  "\u2581nee": 6808,
  "\u2581ore": 6809,
  "\u2581sar": 6810,
  "\u2581you": 6811,
  "tigui": 6812,
  "\u2581D\u025bm\u025b": 6813,
  "\u2581joow": 6814,
  "minanw": 6815,
  "\u2581Celle": 6816,
  "\u2581d\u00e9pla": 6817,
  "\u2581fanin": 6818,
  "\u2581f\u0254l\u0254w": 6819,
  "\u2581terme": 6820,
  "annonce": 6821,
  "\u2581banana": 6822,
  "m\u00e9diaire": 6823,
  "\u2581d\u00e9sol\u00e9e": 6824,
  "injustice": 6825,
  "\u2581cherchez": 6826,
  "\u2581donnerai": 6827,
  "\u2581kelennama": 6828,
  "\u2581repr\u00e9sente": 6829,
  "YA": 6830,
  "gh": 6831,
  "gen": 6832,
  "san": 6833,
  "djan": 6834,
  "emba": 6835,
  "\u2581dil": 6836,
  "\u2581ina": 6837,
  "\u2581top": 6838,
  "denya": 6839,
  "ption": 6840,
  "ressa": 6841,
  "\u2581?...": 6842,
  "\u2581Sa\u00fcl": 6843,
  "\u2581c\u00e8ma": 6844,
  "alit\u00e9s": 6845,
  "glises": 6846,
  "vision": 6847,
  "\u2581Syrie": 6848,
  "\u2581justi": 6849,
  "\u2581priez": 6850,
  "arr\u00eater": 6851,
  "\u2581Besoin": 6852,
  "\u2581Hanbun": 6853,
  "\u2581batise": 6854,
  "\u2581chaman": 6855,
  "\u2581demeur": 6856,
  "\u2581d\u00e9sol\u00e9": 6857,
  "\u2581photos": 6858,
  "\u2581verrez": 6859,
  "\u2581L\u00e9vites": 6860,
  "\u2581miracle": 6861,
  "\u2581Comments": 6862,
  "\u2581constitu": 6863,
  "\u2581k\u0254n\u0254nt\u0254n": 6864,
  "\u2581m\u00e9chants": 6865,
  "\u2581k\u0254r\u0254talen": 6866,
  "),": 6867,
  "17": 6868,
  "aga": 6869,
  "dee": 6870,
  "ost": 6871,
  "\u0190NW": 6872,
  "del\u00e0": 6873,
  "fasi": 6874,
  "\u2581cli": 6875,
  "\u2581moo": 6876,
  "breux": 6877,
  "\u2581tech": 6878,
  "embras": 6879,
  "minist": 6880,
  "\u2581karoo": 6881,
  "\u2581seenw": 6882,
  "ourager": 6883,
  "\u2581Timote": 6884,
  "\u2581ennemi": 6885,
  "\u2581gw\u025bnin": 6886,
  "\u2581parlez": 6887,
  "\u2581sortie": 6888,
  "\u2581viande": 6889,
  "\u2581m\u00e9moire": 6890,
  "\u2581quelles": 6891,
  "\u2581quitter": 6892,
  "\u2581Nazar\u025bti": 6893,
  "\u2581savaient": 6894,
  "\u2581Plusieurs": 6895,
  "\u2581faisaient": 6896,
  "bis": 6897,
  "day": 6898,
  "\u2581ME": 6899,
  "\u2581km": 6900,
  "\u2581m\u00e8": 6901,
  "\u2581n\u00f4": 6902,
  "\u2581Now": 6903,
  "\u2581dah": 6904,
  "\u2581gbe": 6905,
  "\u2581sty": 6906,
  "entra": 6907,
  "pital": 6908,
  "\u2581Last": 6909,
  "\u2581djou": 6910,
  "\u2581isra": 6911,
  "\u2581modi": 6912,
  "\u2581Yahv\u00e9": 6913,
  "\u2581doute": 6914,
  "\u2581juger": 6915,
  "\u2581Images": 6916,
  "\u2581k\u025bwali": 6917,
  "\u2581marque": 6918,
  "\u2581nagasi": 6919,
  "\u2581\u00e9l\u00e8ves": 6920,
  "Seigneur": 6921,
  "\u2581badenma": 6922,
  "\u2581propres": 6923,
  "\u2581soldats": 6924,
  "\u2581terrain": 6925,
  "\u2581comprend": 6926,
  "\u2581entendez": 6927,
  "\u2581\u2192": 6928,
  "Kan": 6929,
  "\u2581Gr": 6930,
  "\u2581p\u00ea": 6931,
  "agir": 6932,
  "l\u00e8ve": 6933,
  "\u2581DAD": 6934,
  "\u2581c\u025b\u0300": 6935,
  "antan": 6936,
  "arita": 6937,
  "\u025brise": 6938,
  "\u2581kunn": 6939,
  "\u2581lady": 6940,
  "\u2581lani": 6941,
  "\u2581logo": 6942,
  "\u2581mens": 6943,
  "\u2581tani": 6944,
  "ologie": 6945,
  "\u2581Image": 6946,
  "\u2581k\u00e0lan": 6947,
  "\u2581pleur": 6948,
  "\u2581associ": 6949,
  "\u2581fagali": 6950,
  "mab\u0254sara": 6951,
  "\u2581bapt\u00eame": 6952,
  "\u2581murukuw": 6953,
  "\u2581proches": 6954,
  "\u2581s\u025bb\u025bnna": 6955,
  "\u2581mauvaise": 6956,
  "\u2581\u0272agaminin": 6957,
  "DY": 6958,
  "elo": 6959,
  "nal": 6960,
  "ph\u00e9s": 6961,
  "\u2581lac": 6962,
  "p\u00f4tre": 6963,
  "\u0254r\u0254g\u0254": 6964,
  "\u2581beso": 6965,
  "\u2581figu": 6966,
  "\u2581lal\u0254": 6967,
  "\u2581mass": 6968,
  "kunb\u025bn": 6969,
  "\u2581tando": 6970,
  "\u2581tomb\u00e9": 6971,
  "\u2581waaju": 6972,
  "m\u00e9rique": 6973,
  "\u2581classe": 6974,
  "\u2581filila": 6975,
  "\u2581voyant": 6976,
  "ancienne": 6977,
  "\u2581alij\u025bn\u025b": 6978,
  "\u2581d\u00e9c\u00e9d\u00e9e": 6979,
  "\u2581k\u0254g\u0254dugu": 6980,
  "\u2581puissant": 6981,
  "\u2581\u00e9ternellement": 6982,
  "/0": 6983,
  "?'": 6984,
  "cte": 6985,
  "\u2581Go": 6986,
  "\u2581j\u00f2": 6987,
  "mine": 6988,
  "sogo": 6989,
  "\u0190NTI": 6990,
  "\u0272ana": 6991,
  "\u2581ahi": 6992,
  "\u2581dol": 6993,
  "J\u00e9sus": 6994,
  "\u2581Faso": 6995,
  "\u2581duga": 6996,
  "\u2581jig\u025b": 6997,
  "\u2581kaga": 6998,
  "\u2581lien": 6999,
  "\u2581tenu": 7000,
  "\u2581banan": 7001,
  "\u2581dunya": 7002,
  "\u2581kpuro": 7003,
  "\u2581r\u00e9pan": 7004,
  "\u0190NTIKAW": 7005,
  "\u2581Fr\u00e8res": 7006,
  "\u2581Kabini": 7007,
  "\u2581aimons": 7008,
  "\u2581minanw": 7009,
  "\u2581refus\u00e9": 7010,
  "ph\u00e9siens": 7011,
  "\u2581apporte": 7012,
  "\u2581taay\u0254r\u0254": 7013,
  "assurance": 7014,
  "\u2581Regardez": 7015,
  "\u2581djamanan": 7016,
  "\u2581limaniya": 7017,
  "\u2581regarder": 7018,
  "\u2581KOR\u0190NTIKAW": 7019,
  "\u2581compassion": 7020,
  "\u2581concernant": 7021,
  "\u2581connaissais": 7022,
  "t\u00f2": 7023,
  "How": 7024,
  "\u258108": 7025,
  "\u2581Mu": 7026,
  "\u2581Pe": 7027,
  "Minw": 7028,
  "adul": 7029,
  "\u2581rej": 7030,
  "\u2581yes": 7031,
  "gueur": 7032,
  "laman": 7033,
  "qu\u00eate": 7034,
  "\u00e9cart": 7035,
  "\u2581Foyi": 7036,
  "\u2581Nord": 7037,
  "\u2581sila": 7038,
  "ourage": 7039,
  "\u2581Aucun": 7040,
  "\u2581bont\u00e9": 7041,
  "\u2581b\u00e9ss\u00e9": 7042,
  "\u2581c\u025bnni": 7043,
  "\u2581d\u00e9fin": 7044,
  "\u2581terri": 7045,
  "appr\u00e9ci": 7046,
  "\u2581Misira": 7047,
  "\u2581d\u00e9pend": 7048,
  "\u2581faveur": 7049,
  "\u2581matins": 7050,
  "\u2581\u00e9crire": 7051,
  "\u2581d\u00e9truit": 7052,
  "\u2581esprits": 7053,
  "\u2581wusulan": 7054,
  "veillance": 7055,
  "\u2581Jourdain": 7056,
  "\u2581toutefois": 7057,
  "\u2581t\u00e9l\u00e9phone": 7058,
  "ls": 7059,
  ":30": 7060,
  "src": 7061,
  "\u2581t\u00e2": 7062,
  "isez": 7063,
  "kiki": 7064,
  "ouff": 7065,
  "rine": 7066,
  "ypoc": 7067,
  "\u2581few": 7068,
  "\u2581imm": 7069,
  "irili": 7070,
  "ouvre": 7071,
  "ustra": 7072,
  "\u2581afri": 7073,
  "\u2581agak": 7074,
  "\u2581k\u00f4n\u00f4": 7075,
  "\u2581k\u025bli": 7076,
  "\u2581lang": 7077,
  "\u2581tig\u00e8": 7078,
  "\u2581butun": 7079,
  "\u2581d\u00e9mar": 7080,
  "\u2581gafew": 7081,
  "\u2581multi": 7082,
  "\u2581sijan": 7083,
  "\u2581tribu": 7084,
  "anglais": 7085,
  "\u2581consom": 7086,
  "\u2581envoya": 7087,
  "\u2581kilom\u00e8": 7088,
  "\u2581moyens": 7089,
  "\u2581s\u00e9jour": 7090,
  "\u2581souvenir": 7091,
  "\u2581s\u025bg\u025bs\u025bg\u025b": 7092,
  "23": 7093,
  "Ele": 7094,
  "\u2581\u0272\u0254": 7095,
  "ctri": 7096,
  "mori": 7097,
  "sept": 7098,
  "\u2581bha": 7099,
  "\u2581ik\u0254": 7100,
  "\u2581my\u00e9": 7101,
  "ignor": 7102,
  "\u2581Bali": 7103,
  "\u2581c\u00e9l\u00e9": 7104,
  "\u2581dure": 7105,
  "\u2581gban": 7106,
  "\u2581\u00e9nor": 7107,
  "\u2581\u0272imi": 7108,
  "blique": 7109,
  "estion": 7110,
  "\u2581Sinon": 7111,
  "\u2581comba": 7112,
  "\u2581girin": 7113,
  "\u2581mogow": 7114,
  "abilit\u00e9": 7115,
  "diyanin": 7116,
  "ondance": 7117,
  "\u2581finman": 7118,
  "\u2581monter": 7119,
  "\u2581procla": 7120,
  "\u2581Combien": 7121,
  "\u2581monsieur": 7122,
  "\u2581richesse": 7123,
  "\u2581souffert": 7124,
  "\u2581fonctionn": 7125,
  "\u2581arriv\u00e8rent": 7126,
  "\u2581conditions": 7127,
  "interm\u00e9diaire": 7128,
  "2,": 7129,
  "ST": 7130,
  "yr": 7131,
  "\u00e9va": 7132,
  "\u2581Ge": 7133,
  "\u2581Gl": 7134,
  "tera": 7135,
  "\u2581alo": 7136,
  "\u2581dow": 7137,
  "\u2581dra": 7138,
  "\u2581kle": 7139,
  "\u2581red": 7140,
  "aucun": 7141,
  "liqu\u00e9": 7142,
  "maine": 7143,
  "\u2581alle": 7144,
  "\u2581bawo": 7145,
  "\u2581bira": 7146,
  "\u2581ving": 7147,
  "garamu": 7148,
  "\u2581b\u025bg\u025bn": 7149,
  "\u2581kinin": 7150,
  "\u2581landa": 7151,
  "\u2581seuls": 7152,
  "\u2581marier": 7153,
  "\u2581provin": 7154,
  "\u2581sainte": 7155,
  "\u2581nilif\u025bn": 7156,
  "\u2581raisons": 7157,
  "\u2581karam\u00f2g\u00f2": 7158,
  "\u2581m\u0254g\u0254jugu": 7159,
  "\u2581p\u00e9cheurs": 7160,
  "\u2581furu\u0272\u0254g\u0254n": 7161,
  "kara": 7162,
  "t\u00e8re": 7163,
  "\u2581win": 7164,
  "\u25812019": 7165,
  "\u2581buka": 7166,
  "\u2581jug\u00e9": 7167,
  "\u2581Pente": 7168,
  "\u2581ding\u025b": 7169,
  "\u2581kwlaa": 7170,
  "\u2581commer": 7171,
  "\u2581promis": 7172,
  "habitude": 7173,
  "h\u00e9ritage": 7174,
  "\u2581contribu": 7175,
  "\u2581jaabiliw": 7176,
  "De": 7177,
  "\u2581w\u00ec": 7178,
  "\u2581y\u016b": 7179,
  "alen": 7180,
  "osu\u00e9": 7181,
  "\u2581Kor": 7182,
  "\u2581Zoz": 7183,
  "\u2581cris": 7184,
  "\u2581mode": 7185,
  "\u2581Selon": 7186,
  "\u2581aimes": 7187,
  "\u2581poste": 7188,
  "\u2581proc\u00e9": 7189,
  "\u2581teris": 7190,
  "alement": 7191,
  "onniers": 7192,
  "\u2581couver": 7193,
  "\u2581djaman": 7194,
  "\u2581d\u00e9test": 7195,
  "\u2581fitin\u025b": 7196,
  "\u2581pr\u00e9c\u00e9d": 7197,
  "\u2581conseil": 7198,
  "\u2581mettent": 7199,
  "\u2581montrer": 7200,
  "\u2581octobre": 7201,
  "\u2581disciple": 7202,
  "\u2581relations": 7203,
  "\u2581lesquelles": 7204,
  "yn": 7205,
  "\u00efm": 7206,
  ":37": 7207,
  "let": 7208,
  "\u2581Y\u016b": 7209,
  "\u2581nn": 7210,
  "\u2581s\u00e0": 7211,
  "rale": 7212,
  "baari": 7213,
  "ertes": 7214,
  "intes": 7215,
  "pitre": 7216,
  "\u2581Cont": 7217,
  "\u2581lune": 7218,
  "\u2581navi": 7219,
  "\u2581show": 7220,
  "\u2581wana": 7221,
  "itesse": 7222,
  "approcha": 7223,
  "autorit\u00e9": 7224,
  "enseigner": 7225,
  "\u2581r\u00e9veille": 7226,
  "mou": 7227,
  "net": 7228,
  "\u25815-": 7229,
  "\u2581N\u025b": 7230,
  "uves": 7231,
  "\u00e8nes": 7232,
  "\u2581lay": 7233,
  "\u2581Zuru": 7234,
  "\u2581d\u00f2g\u00f2": 7235,
  "rences": 7236,
  "\u2581Josu\u00e9": 7237,
  "\u2581T\u0254\u0254r\u0254": 7238,
  "\u2581annon": 7239,
  "\u2581\u00e9cris": 7240,
  "assurer": 7241,
  "\u2581batoso": 7242,
  "\u2581nyuman": 7243,
  "\u2581Zurud\u025bn": 7244,
  "\u2581accept\u00e9": 7245,
  "\u2581croyons": 7246,
  "\u2581souffre": 7247,
  "\u2581anc\u00eatres": 7248,
  "\u2581r\u00e9compense": 7249,
  "imm": 7250,
  "\u2581Az": 7251,
  "oure": 7252,
  "\u00e8mes": 7253,
  "\u2581Lee": 7254,
  "\u2581Lon": 7255,
  "aurez": 7256,
  "\u2581assu": 7257,
  "\u2581fier": 7258,
  "\u2581gir\u025b": 7259,
  "\u2581lib\u00e9": 7260,
  "\u2581r\u00e9gu": 7261,
  "\u2581y\u025bg\u025b": 7262,
  "kojugu": 7263,
  "\u2581culte": 7264,
  "\u2581c\u0153urs": 7265,
  "\u2581s\u00e9rie": 7266,
  "\u2581entra\u00ee": 7267,
  "\u2581racont": 7268,
  "\u2581rentre": 7269,
  "\u2581secret": 7270,
  "exprimer": 7271,
  "\u2581tileben": 7272,
  "\u2581utilis\u00e9": 7273,
  "\u2581teris\u0254b\u025bw": 7274,
  "\u2581tilenbaliya": 7275,
  "Ye": 7276,
  "\u2581\u00f4": 7277,
  "ias": 7278,
  "inv": 7279,
  "qua": 7280,
  "\u2581f\u00e9": 7281,
  "Siya": 7282,
  "Ti\u0272\u00e8": 7283,
  "abuw": 7284,
  "bies": 7285,
  "pent": 7286,
  "unan": 7287,
  "\u2581oy\u00e9": 7288,
  "\u2581the": 7289,
  "dasiw": 7290,
  "minan": 7291,
  "vit\u00e9s": 7292,
  "\u2581best": 7293,
  "\u2581kiss": 7294,
  "\u2581lolo": 7295,
  "Europe": 7296,
  "Italie": 7297,
  "\u25812005:": 7298,
  "\u2581Allez": 7299,
  "\u2581convi": 7300,
  "\u2581Hakili": 7301,
  "\u2581danf\u025bn": 7302,
  "\u2581fitini": 7303,
  "\u2581taille": 7304,
  "\u2581tintin": 7305,
  "\u2581touman": 7306,
  "appelles": 7307,
  "\u2581bwisiku": 7308,
  "\u2581Samuy\u025bli": 7309,
  "\u2581y\u025br\u025bbo\u0272a": 7310,
  "accompagne": 7311,
  "\u2581sarakab\u0254y\u0254r\u0254": 7312,
  "1,": 7313,
  "2.": 7314,
  "Nii": 7315,
  "\u258109": 7316,
  "\u2581nw": 7317,
  "Tile": 7318,
  "per\u00e7": 7319,
  "\u2581aya": 7320,
  "kinwa": 7321,
  "tionn": 7322,
  "truis": 7323,
  "\u019d\u0254g\u0254n": 7324,
  "\u2581!...": 7325,
  "\u2581Toke": 7326,
  "\u2581bann": 7327,
  "\u2581c\u00e9l\u00e8": 7328,
  "\u2581tchi": 7329,
  "essaie": 7330,
  "\u2581effra": 7331,
  "\u2581faute": 7332,
  "\u2581nank\u0254": 7333,
  "gw\u025bdaf\u025b": 7334,
  "\u2581arriva": 7335,
  "\u2581kourou": 7336,
  "\u2581progra": 7337,
  "\u2581Makinwa": 7338,
  "\u2581ma\u00eetres": 7339,
  "\u2581s\u00e9parer": 7340,
  "\u2581wasanin": 7341,
  "adressant": 7342,
  "\u2581retourna": 7343,
  "j\u025b": 7344,
  "y\u0254": 7345,
  "\u2581Po": 7346,
  "lit\u00e9": 7347,
  "\u00e9ner": 7348,
  "\u2581Naw": 7349,
  "\u2581Pri": 7350,
  "\u2581ind": 7351,
  "\u2581k\u025bn": 7352,
  "\u2581mag": 7353,
  "affir": 7354,
  "ieuse": 7355,
  "\u0254g\u0254m\u025b": 7356,
  "\u2581jeux": 7357,
  "\u2581mean": 7358,
  "\u2581meri": 7359,
  "\u2581wale": 7360,
  "\u2581Asiri": 7361,
  "\u2581bruit": 7362,
  "\u2581makar": 7363,
  "\u2581talen": 7364,
  "\u2581Dumuni": 7365,
  "\u2581litres": 7366,
  "\u2581succ\u00e8s": 7367,
  "\u2581\u00e9viter": 7368,
  "attendre": 7369,
  "\u2581effectu": 7370,
  "\u00e9ducation": 7371,
  "\u2581manamana": 7372,
  "\u2581villages": 7373,
  "\u2581Farizi\u0272\u025bw": 7374,
  "\u2581construit": 7375,
  "\u2581miligaramu": 7376,
  "\u2581effectivement": 7377,
  "\u2581m\u0254g\u0254tilenninw": 7378,
  "40": 7379,
  "ks": 7380,
  "aro": 7381,
  "bow": 7382,
  "\u00e8le": 7383,
  "\u0254na": 7384,
  "\u2581K\u00e0": 7385,
  "\u2581om": 7386,
  "isit": 7387,
  "obli": 7388,
  "\u2581c\u00f4t": 7389,
  "\u2581jam": 7390,
  "faire": 7391,
  "isode": 7392,
  "\u2581lab\u0254": 7393,
  "\u2581myst": 7394,
  "\u2581occu": 7395,
  "\u2581sage": 7396,
  "\u2581tort": 7397,
  "\u2581v\u00e9hi": 7398,
  "uwifuw": 7399,
  "\u2581Yinni": 7400,
  "\u2581talon": 7401,
  "\u2581\u00e9gard": 7402,
  "\u2581extr\u00e9m": 7403,
  "\u2581gagner": 7404,
  "\u2581labila": 7405,
  "\u2581tr\u00e9sor": 7406,
  "\u2581H\u0254r\u0254nya": 7407,
  "\u2581esclave": 7408,
  "\u2581passage": 7409,
  "\u2581certaine": 7410,
  "\u2581kisibaga": 7411,
  "\u2581ministre": 7412,
  "On": 7413,
  "gt": 7414,
  "bin": 7415,
  "\u00e8ve": 7416,
  "\u25816-": 7417,
  "\u2581LI": 7418,
  "\u2581zo": 7419,
  "avec": 7420,
  "exer": 7421,
  "giri": 7422,
  "moin": 7423,
  "\u2581jig": 7424,
  "\u2581ooo": 7425,
  "\u2581won": 7426,
  "athan": 7427,
  "\u2581Gafe": 7428,
  "\u2581faud": 7429,
  "\u2581tool": 7430,
  "\u2581tu\u00e9s": 7431,
  "\u2581vict": 7432,
  "\u2581w\u00f4r\u00f4": 7433,
  "ignait": 7434,
  "l\u00e8rent": 7435,
  "\u00e9rable": 7436,
  "\u2581Minnu": 7437,
  "\u2581k\u0254nin": 7438,
  "\u2581faible": 7439,
  "\u2581feront": 7440,
  "\u2581lafiya": 7441,
  "\u2581libres": 7442,
  "\u2581nafama": 7443,
  "\u2581saninw": 7444,
  "\u2581tomber": 7445,
  "\u2581vienne": 7446,
  "\u2581y\u00e8l\u00e8ma": 7447,
  "emp\u00eacher": 7448,
  "\u2581essayer": 7449,
  "\u2581fagakun": 7450,
  "\u2581k\u025bl\u025bden": 7451,
  "\u2581r\u00e9alis\u00e9": 7452,
  "\u2581surtout": 7453,
  "\u2581novembre": 7454,
  "\u2581enseigner": 7455,
  "\u2581tristesse": 7456,
  "\u2581banabagat\u0254w": 7457,
  "Isiray\u025blidenw": 7458,
  "Ba": 7459,
  "awu": 7460,
  "ink": 7461,
  "mat": 7462,
  "\u2581m\u00ec": 7463,
  "\u2581n\u0251": 7464,
  "Kira": 7465,
  "irer": 7466,
  "itoy": 7467,
  "\u2581Dal": 7468,
  "\u2581bul": 7469,
  "\u2581n\u00e9s": 7470,
  "\u2581\u00e9ti": 7471,
  "\u2581\u019d\u0190\u0190": 7472,
  "istan": 7473,
  "kinin": 7474,
  "lever": 7475,
  "tr\u00eame": 7476,
  "\u2581Mase": 7477,
  "\u2581Saul": 7478,
  "\u2581Sran": 7479,
  "\u2581auto": 7480,
  "\u2581b\u00eate": 7481,
  "\u2581honn": 7482,
  "\u2581kab\u00f4": 7483,
  "\u2581timi": 7484,
  "\u2581baraka": 7485,
  "\u2581kos\u00e8b\u00e8": 7486,
  "\u25812012...": 7487,
  "\u2581termin\u00e9": 7488,
  "\u2581nyininka": 7489,
  "\u019d\u0254g\u0254nkanuya": 7490,
  "16": 7491,
  "\u2581ay": 7492,
  "S\u025bb\u025b": 7493,
  "meau": 7494,
  "\u0254gw\u025b": 7495,
  "\u2581B\u00e0a": 7496,
  "\u2581Lou": 7497,
  "\u2581shi": 7498,
  "\u2581sug": 7499,
  "\u2581t\u00f9n": 7500,
  "aurai": 7501,
  "ordin": 7502,
  "\u2581dent": 7503,
  "\u2581ence": 7504,
  "\u2581gars": 7505,
  "\u2581gb\u0254n": 7506,
  "\u2581hist": 7507,
  "\u2581naxa": 7508,
  "\u2581scri": 7509,
  "ection": 7510,
  "\u2581actes": 7511,
  "\u2581clair": 7512,
  "\u2581f\u025b\u025bnw": 7513,
  "\u2581liste": 7514,
  "\u2581sagaw": 7515,
  "\u2581sarah": 7516,
  "\u2581trait": 7517,
  "\u2581appart": 7518,
  "\u2581batoli": 7519,
  "\u2581comp\u00e9t": 7520,
  "\u2581kisira": 7521,
  "\u2581longer": 7522,
  "\u2581r\u00e9v\u00e9l\u00e9": 7523,
  "\u2581sauv\u00e9e": 7524,
  "\u2581appel\u00e9e": 7525,
  "\u2581bamanan": 7526,
  "\u2581envoy\u00e9s": 7527,
  "\u2581teliman": 7528,
  "\u2581contr\u00f4le": 7529,
  "\u2581devaient": 7530,
  "\u2581halakili": 7531,
  "\u2581retrouve": 7532,
  "\u2581v\u00e9ritable": 7533,
  "Pi": 7534,
  "Ya": 7535,
  "xin": 7536,
  "Asie": 7537,
  "affi": 7538,
  "bura": 7539,
  "gban": 7540,
  "sili": 7541,
  "\u2581Ret": 7542,
  "\u2581bei": 7543,
  "\u2581cat": 7544,
  "\u2581lal": 7545,
  "\u2581t\u00f2w": 7546,
  "appar": 7547,
  "\u2581bare": 7548,
  "\u2581doni": 7549,
  "\u2581kof\u0254": 7550,
  "\u2581mars": 7551,
  "\u2581peau": 7552,
  "assiez": 7553,
  "kilila": 7554,
  "oeuvre": 7555,
  "\u2581c\u00f4t\u00e9s": 7556,
  "absence": 7557,
  "aration": 7558,
  "\u2581Kibaro": 7559,
  "\u2581Samuel": 7560,
  "\u2581lafili": 7561,
  "\u2581Ameriki": 7562,
  "\u2581Saamori": 7563,
  "\u2581accompl": 7564,
  "\u2581daganin": 7565,
  "\u2581fassiez": 7566,
  "\u2581nalonma": 7567,
  "\u2581sababou": 7568,
  "\u2581secours": 7569,
  "av\u00e8nement": 7570,
  "\u2581Kalanden": 7571,
  "\u2581capables": 7572,
  "\u2581patience": 7573,
  "\u2581recomman": 7574,
  "\u2581multitude": 7575,
  "\u2581politique": 7576,
  "\u2581cons\u00e9quent": 7577,
  "h\u00f4": 7578,
  "nw": 7579,
  "asu": 7580,
  "kir": 7581,
  "lot": 7582,
  "\u2581II": 7583,
  "\u2581NA": 7584,
  "c\u00f4te": 7585,
  "mont": 7586,
  "ouss": 7587,
  "vons": 7588,
  "\u2581GON": 7589,
  "\u2581k\u025b\u025b": 7590,
  "\u2581m\u00e9c": 7591,
  "\u2581n\u00e9e": 7592,
  "aninw": 7593,
  "joint": 7594,
  "\u2581cuis": 7595,
  "\u2581datu": 7596,
  "\u2581essa": 7597,
  "\u2581wafa": 7598,
  "\u2581\u00e2g\u00e9e": 7599,
  "Krista": 7600,
  "associ": 7601,
  "guille": 7602,
  "\u258113:11": 7603,
  "\u25811905.": 7604,
  "\u2581Aussi": 7605,
  "\u2581Jasin": 7606,
  "\u2581biran": 7607,
  "\u2581danga": 7608,
  "\u2581f\u00f2len": 7609,
  "\u2581refus": 7610,
  "\u2581\u00e9tais": 7611,
  "\u2581compos": 7612,
  "\u2581d\u00e9mons": 7613,
  "\u2581kolati": 7614,
  "\u2581montr\u00e9": 7615,
  "\u2581yamaan": 7616,
  "\u2581atteint": 7617,
  "\u2581g\u00e9n\u00e9ral": 7618,
  "\u2581partage": 7619,
  "\u2581y\u00f2r\u00f2nin": 7620,
  "\u2581r\u00e9sultat": 7621,
  "\u2581suivante": 7622,
  "\u2581baaradenw": 7623,
  "\u2581richesses": 7624,
  "\u2581vingtaine": 7625,
  "\u2581b\u00e9n\u00e9diction": 7626,
  "\u2581d\u025bs\u025bbagat\u0254w": 7627,
  "\u2581certainement": 7628,
  "k\u00f4": 7629,
  "ms": 7630,
  "avi": 7631,
  "\u00e9ma": 7632,
  "\u2581\u00bb.": 7633,
  "dala": 7634,
  "\u2581cop": 7635,
  "coute": 7636,
  "zi\u00e8me": 7637,
  "\u2581sexu": 7638,
  "\u2581P\u00e2que": 7639,
  "\u2581accue": 7640,
  "\u2581kabak": 7641,
  "\u2581kuman": 7642,
  "\u2581sabia": 7643,
  "\u2581Bamako": 7644,
  "\u2581dessus": 7645,
  "\u2581joueur": 7646,
  "\u2581police": 7647,
  "\u2581tig\u025bra": 7648,
  "\u2581tougou": 7649,
  "\u2581mission": 7650,
  "\u2581\u0272\u00e8namaya": 7651,
  "\u2581formation": 7652,
  "\u2581caract\u00e9ris": 7653,
  "\u2581participer": 7654,
  "\u2581\u00e9v\u00e9nements": 7655,
  ".:": 7656,
  "EL": 7657,
  "b\u025b\u025b": 7658,
  "\u2581IS": 7659,
  "Saan": 7660,
  "aim\u00e9": 7661,
  "vrez": 7662,
  "\u2581ain": 7663,
  "\u2581fr\u00e9": 7664,
  "\u2581fuu": 7665,
  "\u2581lol": 7666,
  "entes": 7667,
  "\u2581bisi": 7668,
  "\u2581moon": 7669,
  "\u2581Japon": 7670,
  "\u00e9couter": 7671,
  "\u2581boirai": 7672,
  "\u2581duguba": 7673,
  "\u2581eurent": 7674,
  "\u2581tribus": 7675,
  "\u2581tuguni": 7676,
  "\u2581pens\u00e9es": 7677,
  "int\u00e9resse": 7678,
  "\u2581Cr\u00e9ateur": 7679,
  "\u2581Proph\u00e8te": 7680,
  "\u2581derri\u00e8re": 7681,
  "\u2581mani\u00e8res": 7682,
  "\u2581wasabali": 7683,
  "\u2581bwisikum\u0254": 7684,
  "\u2581manifest\u00e9": 7685,
  "\u2581m\u0254g\u0254\u0272uman": 7686,
  "\u2581suppl\u00e9mentaires": 7687,
  "Car": 7688,
  "c\u00e9s": 7689,
  "j\u025bn": 7690,
  "avis": 7691,
  "\u0254ng\u0254": 7692,
  "icace": 7693,
  "verse": 7694,
  "\u00e9rode": 7695,
  "\u2581adop": 7696,
  "\u2581jera": 7697,
  "\u2581nian": 7698,
  "\u2581toro": 7699,
  "tivit\u00e9": 7700,
  "y\u025bl\u025bma": 7701,
  "\u2581Donne": 7702,
  "\u2581Efara": 7703,
  "\u2581Priez": 7704,
  "\u2581fuite": 7705,
  "\u2581objet": 7706,
  "\u2581\u00e9gaux": 7707,
  "antaine": 7708,
  "\u2581g\u00e8l\u00e8ya": 7709,
  "\u2581jakuma": 7710,
  "\u2581march\u00e9": 7711,
  "\u2581pr\u00e9nom": 7712,
  "\u2581saison": 7713,
  "ablement": 7714,
  "\u2581baptis\u00e9": 7715,
  "\u2581jumalon": 7716,
  "\u2581pourrez": 7717,
  "\u2581setigiw": 7718,
  "\u2581aliments": 7719,
  "\u2581allaient": 7720,
  "\u2581partager": 7721,
  "\u2581pr\u00e9sents": 7722,
  "\u2581services": 7723,
  "\u2581Attention": 7724,
  "\u2581centaines": 7725,
  "\u2581particulier": 7726,
  "\u2581prisonniers": 7727,
  "\u2581k\u025bl\u025bk\u025bminanw": 7728,
  "Ha": 7729,
  ":49": 7730,
  "too": 7731,
  "lila": 7732,
  "\u2581Ang": 7733,
  "M\u0254g\u0254w": 7734,
  "Waati": 7735,
  "doine": 7736,
  "ereur": 7737,
  "kalan": 7738,
  "ounou": 7739,
  "\u2581Mac\u00e9": 7740,
  "\u2581Para": 7741,
  "\u2581enga": 7742,
  "\u2581exer": 7743,
  "\u2581g\u00e9n\u00e9": 7744,
  "\u2581h\u00e8r\u00e8": 7745,
  "\u2581miss": 7746,
  "\u2581Biblu": 7747,
  "\u2581chiff": 7748,
  "obtenir": 7749,
  "\u2581k\u0254g\u0254ji": 7750,
  "\u2581months": 7751,
  "\u2581vision": 7752,
  "interpr\u00e9": 7753,
  "ignorance": 7754,
  "\u2581teliyara": 7755,
  "\u2581Nis\u0254ndiya": 7756,
  "\u2581d\u00e9cisions": 7757,
  "ft": 7758,
  "\u2581l\u00e2": 7759,
  "elly": 7760,
  "\u2581Ca\u00ef": 7761,
  "\u2581Jer": 7762,
  "\u2581Lko": 7763,
  "\u2581Six": 7764,
  "\u2581web": 7765,
  "acc\u00e8s": 7766,
  "\u00e9l\u00e8ve": 7767,
  "\u2581Paix": 7768,
  "\u2581avan": 7769,
  "\u2581bere": 7770,
  "\u2581b\u0254ni": 7771,
  "\u2581k\u00e8r\u00e8": 7772,
  "\u2581naga": 7773,
  "\u2581pleu": 7774,
  "\u2581Jonas": 7775,
  "\u2581cruci": 7776,
  "\u2581juges": 7777,
  "\u2581pages": 7778,
  "\u2581quels": 7779,
  "\u2581troup": 7780,
  "atri\u00e8me": 7781,
  "\u2581Lkoinw": 7782,
  "\u2581finita": 7783,
  "\u2581mari\u00e9e": 7784,
  "\u2581D\u0254nkili": 7785,
  "\u2581chanson": 7786,
  "\u2581donnent": 7787,
  "\u2581isra\u00e9li": 7788,
  "\u2581r\u00e9gions": 7789,
  "\u2581position": 7790,
  "\u2581t\u025bm\u025bnnen": 7791,
  "\u2581\u0272agamina": 7792,
  "\u2581Denmis\u025bnw": 7793,
  "\u2581bamanankan": 7794,
  "\u2581changement": 7795,
  "\u2581extr\u00e9mit\u00e9s": 7796,
  "ns": 7797,
  "\u0300r\u0254": 7798,
  "\u25812,": 7799,
  "heli": 7800,
  "ones": 7801,
  "vidu": 7802,
  "yusi": 7803,
  "\u2581103": 7804,
  "\u2581d\u0254\u0254": 7805,
  "\u2581ram": 7806,
  "\u2581r\u00e9g": 7807,
  "Alors": 7808,
  "agers": 7809,
  "iques": 7810,
  "\u2581b\u0254g\u0254": 7811,
  "\u2581docu": 7812,
  "\u2581nayi": 7813,
  "\u2581salu": 7814,
  "onnant": 7815,
  "\u2581Barna": 7816,
  "\u2581gnana": 7817,
  "\u2581haute": 7818,
  "\u2581topic": 7819,
  "\u2581vigne": 7820,
  "biesage": 7821,
  "\u2581dajuru": 7822,
  "\u2581d\u0254\u0254nin": 7823,
  "\u2581pareil": 7824,
  "\u2581positi": 7825,
  "\u2581sebari": 7826,
  "\u2581telles": 7827,
  "critures": 7828,
  "\u2581parfait": 7829,
  "\u2581agr\u00e9able": 7830,
  "\u2581post\u00e9rit\u00e9": 7831,
  "\u2581r\u00e9veillez": 7832,
  "\u2581importante": 7833,
  "\u2581Mboobiesage": 7834,
  "\u2581kuma\u0272\u0254g\u0254nya": 7835,
  "12": 7836,
  "uel": 7837,
  "zam": 7838,
  "\u00e9ga": 7839,
  "\u2581??": 7840,
  "\u2581VI": 7841,
  "\u2581s\u00f9": 7842,
  "cris": 7843,
  "golo": 7844,
  "onge": 7845,
  "ungu": 7846,
  "\u2581D\u00e9s": 7847,
  "\u2581Met": 7848,
  "\u2581Wal": 7849,
  "\u2581bor": 7850,
  "\u2581dum": 7851,
  "\u2581ita": 7852,
  "\u2581tar": 7853,
  "\u2581tee": 7854,
  "assin": 7855,
  "chons": 7856,
  "\u2581fair": 7857,
  "\u2581suit": 7858,
  "\u2581vies": 7859,
  "\u2581yaga": 7860,
  "\u00e9crire": 7861,
  "\u2581Russi": 7862,
  "\u2581enjoy": 7863,
  "\u2581maint": 7864,
  "\u2581maraw": 7865,
  "\u2581r\u00e9vol": 7866,
  "\u2581assemb": 7867,
  "\u2581course": 7868,
  "\u2581k\u025by\u0254r\u0254": 7869,
  "\u2581membre": 7870,
  "\u2581mu\u0272uli": 7871,
  "\u2581rest\u00e9e": 7872,
  "\u2581sanctu": 7873,
  "\u2581poss\u00e8de": 7874,
  "\u2581cr\u00e9ature": 7875,
  "\u2581transfor": 7876,
  "\u2581g\u00e9n\u00e9ralement": 7877,
  "8.": 7878,
  "oz": 7879,
  ":21": 7880,
  "Eli": 7881,
  "eng": 7882,
  "pan": 7883,
  "pri": 7884,
  "tir": 7885,
  "tta": 7886,
  "\u00e8ge": 7887,
  "\u258162": 7888,
  "\u2581Y\u025b": 7889,
  "\u2581ze": 7890,
  "caux": 7891,
  "siez": 7892,
  "\u2581Pr\u00e9": 7893,
  "\u2581kee": 7894,
  "\u2581Abra": 7895,
  "\u2581Ciel": 7896,
  "\u2581dala": 7897,
  "g\u025bninw": 7898,
  "\u2581cr\u00e9er": 7899,
  "\u2581dimin": 7900,
  "\u2581offre": 7901,
  "\u2581prati": 7902,
  "\u2581\u00e9pous": 7903,
  "\u2581Maison": 7904,
  "\u2581baiser": 7905,
  "\u2581consid": 7906,
  "\u2581identi": 7907,
  "\u2581restau": 7908,
  "\u2581propose": 7909,
  "\u2581rentrer": 7910,
  "\u2581douleurs": 7911,
  "\u2581d\u00e9termin": 7912,
  "\u2581d\u025bm\u025bbaga": 7913,
  "\u2581pourront": 7914,
  "\u2581\u00e9tranger": 7915,
  "\u2581Mac\u00e9doine": 7916,
  "8,": 7917,
  "KE": 7918,
  "l\u00e2": 7919,
  "mn": 7920,
  ":44": 7921,
  "osa": 7922,
  "y\u00e9s": 7923,
  "zab": 7924,
  "\u2581l\u00ec": 7925,
  "\u2581ng": 7926,
  "\u2581Fan": 7927,
  "\u2581Ici": 7928,
  "\u2581Sod": 7929,
  "\u2581ny\u025b": 7930,
  "\u2581tit": 7931,
  "\u2581vir": 7932,
  "cient": 7933,
  "ouman": 7934,
  "quant": 7935,
  "\u25811959": 7936,
  "\u2581F\u0254l\u0254": 7937,
  "\u2581Ti\u0272\u00e8": 7938,
  "\u2581jogo": 7939,
  "\u2581kuwo": 7940,
  "\u2581t\u00e9r\u00e9": 7941,
  "ugulan": 7942,
  "\u2581conon": 7943,
  "\u2581lorou": 7944,
  "\u2581duurun": 7945,
  "\u2581vivent": 7946,
  "eusement": 7947,
  "\u2581Pentec\u00f4te": 7948,
  "\u2581trouverez": 7949,
  "\u2581\u0272ininkali": 7950,
  "\u2581exp\u00e9rience": 7951,
  "\u2581reviendrai": 7952,
  "22": 7953,
  "ty": 7954,
  "\u00e8ri": 7955,
  "\u25818.": 7956,
  "\u2581g\u025b": 7957,
  "kira": 7958,
  "liba": 7959,
  "tive": 7960,
  "\u2581B\u025bn": 7961,
  "\u2581gu\u00e9": 7962,
  "\u2581hom": 7963,
  "\u2581iya": 7964,
  "\u2581mod": 7965,
  "\u2581nus": 7966,
  "eront": 7967,
  "quit\u00e9": 7968,
  "\u2581Jula": 7969,
  "\u2581Papa": 7970,
  "\u2581anin": 7971,
  "\u2581b\u025br\u025b": 7972,
  "\u2581dila": 7973,
  "\u2581kila": 7974,
  "\u2581Parle": 7975,
  "\u2581banba": 7976,
  "\u2581convo": 7977,
  "\u2581court": 7978,
  "\u2581menti": 7979,
  "\u2581Zonasi": 7980,
  "\u2581palais": 7981,
  "\u2581pleine": 7982,
  "\u2581prenez": 7983,
  "\u2581rendez": 7984,
  "\u2581jurumuw": 7985,
  "\u2581waliman": 7986,
  "\u2581interdit": 7987,
  "\u2581souviens": 7988,
  "\u2581consid\u00e9r\u00e9": 7989,
  "\u2581respecter": 7990,
  ".-": 7991,
  "\u00fcm": 7992,
  "b\u0254n": 7993,
  "hoo": 7994,
  "pha": 7995,
  "yas": 7996,
  "\u025bni": 7997,
  "cept": 7998,
  "face": 7999,
  "qu\u00e9e": 8000,
  "\u2581Mat": 8001,
  "\u2581S\u0254r\u0254": 8002,
  "\u2581jang": 8003,
  "\u2581koni": 8004,
  "\u2581odds": 8005,
  "batigi": 8006,
  "ist\u00e8re": 8007,
  "k\u025by\u0254r\u0254": 8008,
  "\u258114:17": 8009,
  "\u2581Maana": 8010,
  "\u2581beyen": 8011,
  "\u2581gagn\u00e9": 8012,
  "\u2581koura": 8013,
  "\u2581mouve": 8014,
  "\u2581tolon": 8015,
  "arriver": 8016,
  "\u2581annonce": 8017,
  "\u2581enti\u00e8re": 8018,
  "\u2581ressent": 8019,
  "\u2581sebaaya": 8020,
  "\u2581\u00e9couter": 8021,
  "\u2581efficace": 8022,
  "\u2581s\u0254g\u0254madaf\u025b": 8023,
  "\u2581Sarakalasebagaw": 8024,
  ",,": 8025,
  "weh": 8026,
  "\u258103": 8027,
  "\u258164": 8028,
  "\u2581Ve": 8029,
  "Tuma": 8030,
  "anie": 8031,
  "atte": 8032,
  "tanw": 8033,
  "ushi": 8034,
  "\u2581Aka": 8035,
  "\u2581Nos": 8036,
  "\u2581sam": 8037,
  "asiga": 8038,
  "yaf\u025bn": 8039,
  "\u2581atti": 8040,
  "\u2581fiye": 8041,
  "\u2581f\u0254li": 8042,
  "\u2581hate": 8043,
  "\u2581kili": 8044,
  "\u2581nat\u0254": 8045,
  "\u2581vain": 8046,
  "yirali": 8047,
  "\u2581Miiri": 8048,
  "\u2581bande": 8049,
  "\u2581cess\u00e9": 8050,
  "\u2581divin": 8051,
  "\u2581d\u00e9liv": 8052,
  "\u2581weeks": 8053,
  "\u2581cacher": 8054,
  "\u2581dating": 8055,
  "\u2581destru": 8056,
  "\u2581perdre": 8057,
  "\u2581saviez": 8058,
  "\u2581suffit": 8059,
  "\u2581joindre": 8060,
  "\u2581kibaari": 8061,
  "\u2581scribes": 8062,
  "\u2581duurunan": 8063,
  "\u2581merveill": 8064,
  "\u2581r\u00e9veill\u00e9": 8065,
  "\u2581\u00e9tudiants": 8066,
  "\u2581j\u025bn\u0272\u0254g\u0254nya": 8067,
  "\u2581professeur": 8068,
  "anniversaire": 8069,
  "\u2581difficult\u00e9s": 8070,
  "\u2581possibilit\u00e9": 8071,
  "gs": 8072,
  "\u014b\u0254": 8073,
  "ies": 8074,
  "\u00e9s\u00e9": 8075,
  "\u0254t\u0254": 8076,
  "aveu": 8077,
  "huma": 8078,
  "pect": 8079,
  "\u2581Ban": 8080,
  "\u2581Jam": 8081,
  "\u2581Nan": 8082,
  "\u2581jal": 8083,
  "\u2581lis": 8084,
  "\u2581oya": 8085,
  "Isaac": 8086,
  "autel": 8087,
  "diyan": 8088,
  "ondon": 8089,
  "\u2581Beth": 8090,
  "\u2581Gaza": 8091,
  "\u2581Wari": 8092,
  "\u2581jusu": 8093,
  "\u2581k\u025bta": 8094,
  "\u2581subs": 8095,
  "\u2581t\u00e8m\u00e8": 8096,
  "\u2581\u00e9par": 8097,
  "\u2581bible": 8098,
  "\u2581siens": 8099,
  "acheter": 8100,
  "\u0272asiran": 8101,
  "\u2581distri": 8102,
  "\u2581forces": 8103,
  "\u2581lasigi": 8104,
  "\u2581r\u00e9pand": 8105,
  "\u2581s\u0254s\u0254li": 8106,
  "\u2581teric\u025b": 8107,
  "\u2581adolesc": 8108,
  "\u2581anglais": 8109,
  "\u2581chambre": 8110,
  "\u2581chanter": 8111,
  "\u2581groupes": 8112,
  "\u2581pensais": 8113,
  "\u2581si\u00e8cles": 8114,
  "\u2581version": 8115,
  "\u2581voisins": 8116,
  "\u2581heureuse": 8117,
  "\u2581seraient": 8118,
  "\u2581t\u00e9l\u00e9vision": 8119,
  "25": 8120,
  "_.": 8121,
  "ado": 8122,
  "dom": 8123,
  "d\u00e9e": 8124,
  "eus": 8125,
  "ful": 8126,
  "tou": 8127,
  "\u0186r\u0254": 8128,
  "\u2581mm": 8129,
  "\u2581ur": 8130,
  "onda": 8131,
  "\u2581cel": 8132,
  "\u2581net": 8133,
  "\u2581\u00e9vi": 8134,
  "\u2581Zaki": 8135,
  "\u2581jet\u00e9": 8136,
  "\u2581mien": 8137,
  "\u2581sauf": 8138,
  "\u2581Ibura": 8139,
  "\u2581Maman": 8140,
  "\u2581expri": 8141,
  "\u2581gof\u025br": 8142,
  "\u2581ordin": 8143,
  "\u2581\u00e9lev\u00e9": 8144,
  "ctement": 8145,
  "\u00e9coutez": 8146,
  "\u2581M\u0254g\u0254ba": 8147,
  "\u2581chance": 8148,
  "\u2581devint": 8149,
  "\u2581aveugle": 8150,
  "\u2581paradis": 8151,
  "\u2581D\u025bm\u025bbaga": 8152,
  "\u2581condamn\u00e9": 8153,
  "\u2581meilleurs": 8154,
  "\u2581Finalement": 8155,
  "\u2581Isra\u025bldenw": 8156,
  "\u2581uniquement": 8157,
  "\u2581probablement": 8158,
  "\u2581connaissances": 8159,
  "19": 8160,
  "\u025bf": 8161,
  "\u2581\u00c2": 8162,
  "cro": 8163,
  "\u258104": 8164,
  "\u25818-": 8165,
  "\u2581my": 8166,
  "adap": 8167,
  "inab": 8168,
  "qu\u00e9s": 8169,
  "resp": 8170,
  "\u2581._.": 8171,
  "\u2581Ef\u025b": 8172,
  "\u2581Loo": 8173,
  "\u2581Yen": 8174,
  "\u2581ay\u00e9": 8175,
  "\u2581not": 8176,
  "liers": 8177,
  "rable": 8178,
  "\u2581Mana": 8179,
  "\u2581Masi": 8180,
  "\u2581bour": 8181,
  "\u2581f\u00f2ra": 8182,
  "\u2581gwen": 8183,
  "\u2581yoli": 8184,
  "isible": 8185,
  "\u2581Sekit": 8186,
  "\u2581c\u025bman": 8187,
  "\u2581emmen": 8188,
  "\u2581haine": 8189,
  "\u2581ninja": 8190,
  "\u2581day\u025bl\u025b": 8191,
  "\u2581labato": 8192,
  "\u2581origin": 8193,
  "\u2581poursu": 8194,
  "\u2581relati": 8195,
  "\u2581t\u00e9moin": 8196,
  "\u2581attenti": 8197,
  "\u2581danbaga": 8198,
  "\u2581kotoolu": 8199,
  "\u2581ladiliw": 8200,
  "\u2581dusukunw": 8201,
  "\u2581lesquels": 8202,
  "\u2581r\u00e9pondra": 8203,
  "\u2581senumanw": 8204,
  "\u2581telef\u0254ni": 8205,
  "\u2581victimes": 8206,
  "\u2581Sekitemba": 8207,
  "\u2581denmis\u00e8nw": 8208,
  "\u2581kowagarazu": 8209,
  "\u2581travaillent": 8210,
  "\"?": 8211,
  "IM": 8212,
  "Kis": 8213,
  "gari": 8214,
  "kunu": 8215,
  "yaan": 8216,
  "\u25811:8": 8217,
  "\u2581Dur": 8218,
  "\u2581Enf": 8219,
  "\u2581Voy": 8220,
  "\u2581al\u00e9": 8221,
  "\u2581am\u00e9": 8222,
  "\u2581kp\u0251": 8223,
  "\u2581reb": 8224,
  "\u2581usa": 8225,
  "accro": 8226,
  "asaya": 8227,
  "magne": 8228,
  "\u2581crit": 8229,
  "\u2581j\u025bg\u025b": 8230,
  "\u2581kaun": 8231,
  "\u2581mali": 8232,
  "\u2581nota": 8233,
  "\u2581s\u0254ng": 8234,
  "\u2581\u00e9cla": 8235,
  "ap\u00f4tre": 8236,
  "diyara": 8237,
  "hommes": 8238,
  "itaire": 8239,
  "\u2581falen": 8240,
  "\u2581futur": 8241,
  "\u2581style": 8242,
  "attache": 8243,
  "inabasi": 8244,
  "\u2581caract": 8245,
  "\u2581champs": 8246,
  "\u2581c\u025bfari": 8247,
  "\u2581djonan": 8248,
  "\u2581gwengw": 8249,
  "\u2581nouvel": 8250,
  "\u2581compter": 8251,
  "\u2581devenue": 8252,
  "\u2581scienti": 8253,
  "\u2581Samarita": 8254,
  "\u2581diverses": 8255,
  "\u2581entendit": 8256,
  "\u2581kantigiya": 8257,
  "\u2581Ezipitikaw": 8258,
  "\u2581sanctuaire": 8259,
  "\u2581~": 8260,
  ":38": 8261,
  "pir": 8262,
  "\u0254r\u025b": 8263,
  "\u2581BO": 8264,
  "rira": 8265,
  "\u0186r\u0254m": 8266,
  "\u2581eye": 8267,
  "\u2581iss": 8268,
  "\u2581kui": 8269,
  "\u2581plu": 8270,
  "\u2581sit": 8271,
  "Kalan": 8272,
  "oudre": 8273,
  "ress\u00e9": 8274,
  "\u2581Ruti": 8275,
  "\u2581cha\u00ee": 8276,
  "\u2581fron": 8277,
  "\u2581kizu": 8278,
  "\u2581pri\u00e9": 8279,
  "entiel": 8280,
  "\u2581Lagaw": 8281,
  "\u2581benna": 8282,
  "\u2581cadre": 8283,
  "\u2581kablo": 8284,
  "\u2581kol\u0254n": 8285,
  "ara\u00eetre": 8286,
  "int\u00e9r\u00eat": 8287,
  "\u2581action": 8288,
  "\u2581couple": 8289,
  "\u2581fan\u014bga": 8290,
  "\u2581k\u0254r\u0254f\u0254": 8291,
  "\u2581obtenu": 8292,
  "\u2581single": 8293,
  "\u2581tenait": 8294,
  "\u2581Ezekiel": 8295,
  "\u2581chameau": 8296,
  "\u2581crurent": 8297,
  "\u2581juguman": 8298,
  "\u2581pensent": 8299,
  "\u2581prononc": 8300,
  "\u2581distance": 8301,
  "\u2581prot\u00e9ger": 8302,
  "\u2581compr\u00e9hen": 8303,
  "\u2581latig\u025bnin": 8304,
  "\u2581permettre": 8305,
  ".)": 8306,
  "bol": 8307,
  "era": 8308,
  "nge": 8309,
  "\u2581S\u00e9": 8310,
  "emos": 8311,
  "lure": 8312,
  "\u2581Gen": 8313,
  "\u2581Tam": 8314,
  "\u2581Vou": 8315,
  "\u2581kor": 8316,
  "\u2581p\u00e9n": 8317,
  "lande": 8318,
  "vingt": 8319,
  "\u2581Sont": 8320,
  "\u2581anni": 8321,
  "\u2581dili": 8322,
  "\u2581froi": 8323,
  "\u2581kene": 8324,
  "\u2581lata": 8325,
  "\u2581m\u00e2le": 8326,
  "\u2581\u00cates": 8327,
  "bariya": 8328,
  "phra\u00efm": 8329,
  "\u2581Diman": 8330,
  "\u2581Musow": 8331,
  "\u2581aloof": 8332,
  "\u2581b\u025b\u025bri": 8333,
  "\u2581jouer": 8334,
  "\u2581lever": 8335,
  "\u2581sc\u00e8ne": 8336,
  "\u2581vrais": 8337,
  "mission": 8338,
  "\u2581Isra\u00e8l": 8339,
  "\u2581argent": 8340,
  "\u2581habite": 8341,
  "\u2581miriya": 8342,
  "\u2581mod\u00e8le": 8343,
  "\u2581tubabu": 8344,
  "\u2581yanfan": 8345,
  "\u2581c\u00e9l\u00e8bre": 8346,
  "\u2581matin\u00e9e": 8347,
  "\u2581princes": 8348,
  "\u2581sixi\u00e8me": 8349,
  "\u2581victime": 8350,
  "interroge": 8351,
  "\u2581annoncer": 8352,
  "\u2581arrivent": 8353,
  "\u2581cr\u00e9ateur": 8354,
  "\u2581fonction": 8355,
  "\u2581sacrific": 8356,
  "\u2581processus": 8357,
  "\u2581m\u0254g\u0254fagala": 8358,
  "\u2581synagogues": 8359,
  "AKI": 8360,
  "mos": 8361,
  "\u2581Ez": 8362,
  "\u2581uf": 8363,
  "\u2581\u00bb,": 8364,
  "\u2581194": 8365,
  "\u2581And": 8366,
  "\u2581tal": 8367,
  "Saint": 8368,
  "venir": 8369,
  "\u2581Koow": 8370,
  "\u2581LIKE": 8371,
  "\u2581awak": 8372,
  "\u2581doct": 8373,
  "\u2581domu": 8374,
  "\u2581esp\u00e9": 8375,
  "\u2581f\u0254x\u0254": 8376,
  "\u2581hehe": 8377,
  "\u2581soup": 8378,
  "\u2581Douze": 8379,
  "\u2581boule": 8380,
  "\u2581kakan": 8381,
  "\u2581k\u0254nd\u0254": 8382,
  "\u2581Quatre": 8383,
  "\u2581l\u00e8vres": 8384,
  "\u2581miseli": 8385,
  "\u2581refuse": 8386,
  "\u2581croyant": 8387,
  "\u2581mati\u00e8re": 8388,
  "\u2581patient": 8389,
  "\u2581sabemos": 8390,
  "affection": 8391,
  "\u2581baptiser": 8392,
  "\u2581conduire": 8393,
  "\u2581parfaite": 8394,
  "Dugugw\u025bdaf\u025b": 8395,
  "\u2581barikamanw": 8396,
  ".3": 8397,
  "\u201d.": 8398,
  "Ass": 8399,
  "Olu": 8400,
  "d\u0254n": 8401,
  "\u2581B\u0254": 8402,
  "alle": 8403,
  "cipe": 8404,
  "enfu": 8405,
  "k\u0254ti": 8406,
  "nent": 8407,
  "omob": 8408,
  "rase": 8409,
  "tika": 8410,
  "y\u0254ti": 8411,
  "\u2581Cin": 8412,
  "\u2581Eff": 8413,
  "\u2581Pun": 8414,
  "\u2581ana": 8415,
  "\u2581bit": 8416,
  "\u2581bur": 8417,
  "\u2581kur": 8418,
  "\u2581sat": 8419,
  "finna": 8420,
  "habit": 8421,
  "ressi": 8422,
  "\u00f4g\u00f4ya": 8423,
  "\u2581Afin": 8424,
  "\u2581Bara": 8425,
  "\u2581Pard": 8426,
  "\u2581jiba": 8427,
  "\u2581kena": 8428,
  "\u2581moto": 8429,
  "\u25816.000": 8430,
  "\u2581bolow": 8431,
  "\u2581d\u00e9mon": 8432,
  "\u2581maris": 8433,
  "\u2581salle": 8434,
  "\u2581video": 8435,
  "entends": 8436,
  "olument": 8437,
  "oreille": 8438,
  "\u2581Certes": 8439,
  "\u2581M\u025bl\u025bk\u025b": 8440,
  "\u2581apprit": 8441,
  "\u2581barque": 8442,
  "\u2581dogonin": 8443,
  "\u2581faibles": 8444,
  "\u2581gwengwen": 8445,
  "\u2581latig\u00e8ra": 8446,
  "\u2581sigasiga": 8447,
  "\u2581lafi\u0272\u025blon": 8448,
  "\u2581Pharisiens": 8449,
  "\u014b\u025b": 8450,
  "Fun": 8451,
  "daf": 8452,
  "oss": 8453,
  "\u2581CO": 8454,
  "erra": 8455,
  "n\u00e9es": 8456,
  "raid": 8457,
  "\u2581art": 8458,
  "\u2581dak": 8459,
  "\u2581exh": 8460,
  "\u2581pal": 8461,
  "amuso": 8462,
  "arit\u00e9": 8463,
  "jamin": 8464,
  "\u2581d\u0254r\u0254": 8465,
  "\u2581s\u00e9ri": 8466,
  "\u2581tels": 8467,
  "\u2581yuun": 8468,
  "\u2581Inter": 8469,
  "\u2581adore": 8470,
  "\u2581baliw": 8471,
  "\u2581benin": 8472,
  "\u2581lutte": 8473,
  "\u2581n\u0254g\u0254n": 8474,
  "\u2581Israel": 8475,
  "\u2581S\u0254g\u0254ma": 8476,
  "\u2581Zozuwe": 8477,
  "\u2581afraid": 8478,
  "\u2581brebis": 8479,
  "\u2581confir": 8480,
  "\u2581envisa": 8481,
  "\u2581formes": 8482,
  "\u2581foules": 8483,
  "\u2581limite": 8484,
  "\u2581transp": 8485,
  "gyptiens": 8486,
  "\u2581interro": 8487,
  "\u2581halakira": 8488,
  "\u2581demandent": 8489,
  "\u2581kongosogo": 8490,
  "\u2581retrouver": 8491,
  "z\u025b": 8492,
  "at\u0254": 8493,
  "nie": 8494,
  "pro": 8495,
  "\u25813:": 8496,
  "K\u025bl\u025b": 8497,
  "ceau": 8498,
  "gwan": 8499,
  "hali": 8500,
  "tume": 8501,
  "\u2581Der": 8502,
  "\u2581Sou": 8503,
  "\u2581Tes": 8504,
  "\u2581bai": 8505,
  "\u2581pen": 8506,
  "\u2581sai": 8507,
  "ens\u00e9s": 8508,
  "vages": 8509,
  "\u2581Awak": 8510,
  "\u2581Siga": 8511,
  "\u2581Tala": 8512,
  "\u2581Yafa": 8513,
  "\u2581b\u00f2ra": 8514,
  "\u2581dite": 8515,
  "\u2581joue": 8516,
  "\u2581keli": 8517,
  "\u2581kilo": 8518,
  "\u2581mere": 8519,
  "\u2581mute": 8520,
  "\u2581Sarah": 8521,
  "\u2581Sina\u00ef": 8522,
  "\u2581bukak": 8523,
  "\u2581croya": 8524,
  "\u2581emplo": 8525,
  "\u2581gnini": 8526,
  "\u2581k\u00f4non": 8527,
  "H\u0254r\u0254nya": 8528,
  "\u2581Canada": 8529,
  "\u2581cadeau": 8530,
  "\u2581rest\u00e9s": 8531,
  "\u2581senuma": 8532,
  "\u2581wotoro": 8533,
  "inations": 8534,
  "\u2581Zonatan": 8535,
  "\u2581faamuna": 8536,
  "\u2581jamanaw": 8537,
  "\u2581tumajan": 8538,
  "\u2581demeures": 8539,
  "\u2581lafi\u0272\u025bna": 8540,
  "\u2581dugum\u0254g\u0254w": 8541,
  "\u2581propri\u00e9ta": 8542,
  "\u2581r\u00e9f\u00e9rence": 8543,
  "\u2581Ala\u0272asiran": 8544,
  "\u2581disponibles": 8545,
  "\u2581comportement": 8546,
  "\u2581d\u00e9veloppement": 8547,
  "LE": 8548,
  "ONK": 8549,
  "bal": 8550,
  "got": 8551,
  "ked": 8552,
  "UMAW": 8553,
  "anou": 8554,
  "\u2581Hii": 8555,
  "\u2581Uni": 8556,
  "\u2581ask": 8557,
  "\u2581j\u00f2n": 8558,
  "\u2581kel": 8559,
  "\u2581kum": 8560,
  "\u2581Faut": 8561,
  "\u2581Quoi": 8562,
  "\u2581Sela": 8563,
  "\u2581bwes": 8564,
  "\u2581doun": 8565,
  "\u2581d\u00e9ch": 8566,
  "\u2581lage": 8567,
  "\u2581m\u0254n\u025b": 8568,
  "dirent": 8569,
  "foroko": 8570,
  "luence": 8571,
  "\u2581for\u00eat": 8572,
  "\u2581nataw": 8573,
  "\u2581nyana": 8574,
  "\u2581patri": 8575,
  "\u2581swali": 8576,
  "ONKUMAW": 8577,
  "environ": 8578,
  "\u2581Sinayi": 8579,
  "\u2581connue": 8580,
  "\u2581offrir": 8581,
  "\u2581s\u0254t\u0254ma": 8582,
  "\u2581tanuli": 8583,
  "\u2581tribun": 8584,
  "\u2581\u014baniya": 8585,
  "issaient": 8586,
  "\u2581H\u00e9breux": 8587,
  "\u2581d\u00e9clara": 8588,
  "\u2581r\u00e9jouit": 8589,
  "\u2581tombeau": 8590,
  "\u2581command\u00e9": 8591,
  "\u2581kizuushi": 8592,
  "\u2581nalomanw": 8593,
  "\u2581s\u0254g\u0254mada": 8594,
  "ob\u00e9issance": 8595,
  "\u2581attendant": 8596,
  "\u2581DADONKUMAW": 8597,
  "\u2581enseignait": 8598,
  "!\u203a": 8599,
  "6,": 8600,
  "\u03b5\u03b5": 8601,
  "met": 8602,
  "\u2581Sh": 8603,
  "\u2581dr": 8604,
  "aara": 8605,
  "auto": 8606,
  "yali": 8607,
  "\u2581Bat": 8608,
  "\u2581Isc": 8609,
  "\u2581agi": 8610,
  "\u2581awa": 8611,
  "\u2581ski": 8612,
  "\u2581xan": 8613,
  "agnol": 8614,
  "allez": 8615,
  "\u2581Leur": 8616,
  "\u2581ka\u0272i": 8617,
  "ancien": 8618,
  "\u0254nniya": 8619,
  "\u25812004.": 8620,
  "\u2581grave": 8621,
  "\u2581jeter": 8622,
  "\u2581achev\u00e9": 8623,
  "\u2581dirais": 8624,
  "\u2581ph\u00e9nom": 8625,
  "\u2581teriya": 8626,
  "\u2581gbasaya": 8627,
  "\u2581instant": 8628,
  "\u2581kabirin": 8629,
  "\u2581recevrez": 8630,
  "\u2581sinik\u025bn\u025b": 8631,
  "\u2581tununinw": 8632,
  "\u2581importants": 8633,
  "st": 8634,
  "\u2581\u300c": 8635,
  "esi": 8636,
  "ffe": 8637,
  "k\u025bn": 8638,
  "\u2581ID": 8639,
  "\u2581St": 8640,
  "aces": 8641,
  "arna": 8642,
  "unin": 8643,
  "\u00e9loi": 8644,
  "\u25812:4": 8645,
  "\u2581b\u00f2n": 8646,
  "\u2581fl\u00e8": 8647,
  "\u2581gri": 8648,
  "\u2581hor": 8649,
  "\u2581\u00e9mo": 8650,
  "dited": 8651,
  "\u2581fare": 8652,
  "\u2581gnin": 8653,
  "\u2581m\u0254ru": 8654,
  "\u2581so\u0272a": 8655,
  "\u2581spec": 8656,
  "entra\u00ee": 8657,
  "\u2581calme": 8658,
  "\u2581findi": 8659,
  "\u2581fixes": 8660,
  "\u2581j\u0254nc\u025b": 8661,
  "\u2581leele": 8662,
  "\u2581pains": 8663,
  "\u2581soign": 8664,
  "\u2581Edited": 8665,
  "\u2581Malgr\u00e9": 8666,
  "\u2581adulte": 8667,
  "\u2581connus": 8668,
  "\u2581daraka": 8669,
  "\u2581rejoin": 8670,
  "\u2581r\u00e9guli": 8671,
  "enseigne": 8672,
  "essaloni": 8673,
  "\u00e9chapper": 8674,
  "\u2581extr\u00eame": 8675,
  "denyabolo": 8676,
  "existence": 8677,
  "\u2581tradition": 8678,
  "\u2581d\u00e9claration": 8679,
  "od": 8680,
  "ODY": 8681,
  "eee": 8682,
  "\u00e9ni": 8683,
  "\u258106": 8684,
  "alon": 8685,
  "mier": 8686,
  "\u00e8r\u00e8n": 8687,
  "\u2581Law": 8688,
  "\u2581oeu": 8689,
  "\u2581ump": 8690,
  "gramu": 8691,
  "mey\u0254n": 8692,
  "tacle": 8693,
  "\u2581Next": 8694,
  "\u2581Taga": 8695,
  "\u2581aid\u00e9": 8696,
  "\u2581k\u00f4f\u00e8": 8697,
  "\u2581maka": 8698,
  "\u2581t\u0254\u0254n": 8699,
  "dienne": 8700,
  "fitini": 8701,
  "mannin": 8702,
  "\u00e9loign": 8703,
  "\u2581GONNA": 8704,
  "\u2581match": 8705,
  "\u2581signa": 8706,
  "\u2581survi": 8707,
  "\u2581\u00e2g\u00e9es": 8708,
  "\u2581\u00e9tabl": 8709,
  "\u2581NOBODY": 8710,
  "\u2581beaut\u00e9": 8711,
  "\u2581dessin": 8712,
  "\u2581laj\u025bnw": 8713,
  "\u2581mannin": 8714,
  "\u2581m\u0254\u0254ilu": 8715,
  "\u2581r\u00e9flex": 8716,
  "\u2581welela": 8717,
  "\u2581yafara": 8718,
  "\u2581Kuntigi": 8719,
  "\u2581disparu": 8720,
  "\u2581dizaine": 8721,
  "\u2581moments": 8722,
  "\u2581F\u0254l\u0254f\u0254l\u0254": 8723,
  "\u2581boissons": 8724,
  "\u2581dubadenw": 8725,
  "\u2581kibaruya": 8726,
  "\u2581oreilles": 8727,
  "\u2581pr\u00e9sent\u00e9": 8728,
  "\u2581craignent": 8729,
  "\u2581diff\u00e9rente": 8730,
  "\u2581kolatig\u025bninw": 8731,
  "\u014ba": 8732,
  "ola": 8733,
  "oth": 8734,
  "\u00e8n\u00e8": 8735,
  "\u2581Gi": 8736,
  "\u2581^^": 8737,
  "Kuma": 8738,
  "ens\u00e9": 8739,
  "firi": 8740,
  "masu": 8741,
  "oirs": 8742,
  "\u2581fui": 8743,
  "\u2581ger": 8744,
  "\u2581one": 8745,
  "gandi": 8746,
  "\u2581ZAKI": 8747,
  "\u2581diko": 8748,
  "\u2581g\u00e8r\u00e8": 8749,
  "\u2581zone": 8750,
  "\u2581\u00e2g\u00e9s": 8751,
  "\u2581Enfin": 8752,
  "\u2581kunba": 8753,
  "\u2581m\u0254g\u0254s": 8754,
  "\u2581niman": 8755,
  "\u2581souvi": 8756,
  "\u2581veuve": 8757,
  "sankolo": 8758,
  "\u2581Yahweh": 8759,
  "\u2581fiyewu": 8760,
  "\u2581risque": 8761,
  "iningali": 8762,
  "registre": 8763,
  "\u2581gratuit": 8764,
  "\u2581prirent": 8765,
  "Adamadenw": 8766,
  "am\u00e9liorer": 8767,
  "\u2581Souvenez": 8768,
  "\u2581fantanya": 8769,
  "\u2581folofolo": 8770,
  "\u2581reprises": 8771,
  "\u2581retourn\u00e9": 8772,
  "\u2581victoire": 8773,
  "\u2581d\u00e9couvert": 8774,
  "\u2581galontig\u025b": 8775,
  "\u2581principal": 8776,
  "\u2581quotidien": 8777,
  "\u2581rencontr\u00e9": 8778,
  "\u2581karam\u0254g\u0254denw": 8779,
  "El": 8780,
  "t\u00f4": 8781,
  "???": 8782,
  "bum": 8783,
  "\u25812=": 8784,
  "dans": 8785,
  "lymp": 8786,
  "rets": 8787,
  "\u258120.": 8788,
  "\u2581Eza": 8789,
  "\u2581Lan": 8790,
  "\u2581p\u0254r": 8791,
  "illon": 8792,
  "\u2581Moab": 8793,
  "\u2581Pr\u00e9s": 8794,
  "\u2581Siya": 8795,
  "\u2581Yeah": 8796,
  "\u2581k\u00f4g\u00f4": 8797,
  "\u2581k\u025bt\u0254": 8798,
  "\u2581pont": 8799,
  "inrent": 8800,
  "offrir": 8801,
  "ti\u00e8res": 8802,
  "\u2581diyan": 8803,
  "\u2581dungu": 8804,
  "\u2581d\u00f2r\u00f2n": 8805,
  "\u2581gb\u00e8r\u00e8": 8806,
  "\u2581stup\u00e9": 8807,
  "\u2581tent\u00e9": 8808,
  "\u2581Sodome": 8809,
  "\u2581auront": 8810,
  "\u2581d\u025bs\u025bra": 8811,
  "\u2581pleurs": 8812,
  "\u2581recons": 8813,
  "\u2581umpama": 8814,
  "\u2581vivons": 8815,
  "\u2581v\u025brise": 8816,
  "kariy\u0254ti": 8817,
  "\u2581connait": 8818,
  "\u2581hauteur": 8819,
  "\u2581kalanso": 8820,
  "\u2581appr\u00e9ci\u00e9": 8821,
  "\u2581commen\u00e7a": 8822,
  "\u2581cherchent": 8823,
  "\u2581nalomanya": 8824,
  "\u2581ressemble": 8825,
  "\u2581g\u00e9n\u00e9ration": 8826,
  "\u2581responsable": 8827,
  "RA": 8828,
  "RE": 8829,
  "f\u00f2": 8830,
  "\u0251n": 8831,
  "\u2581\u00f1": 8832,
  "\u2581\u014a": 8833,
  "Ara": 8834,
  "dir": 8835,
  "lic": 8836,
  "tic": 8837,
  "\u258101": 8838,
  "\u2581a\u00ee": 8839,
  "\u2581ev": 8840,
  "\u2581w\u00f9": 8841,
  "aban": 8842,
  "agr\u00e9": 8843,
  "daan": 8844,
  "\u258115.": 8845,
  "\u2581Mas": 8846,
  "\u2581bag": 8847,
  "\u2581low": 8848,
  "\u2581l\u025b\u025b": 8849,
  "diens": 8850,
  "\u00e9tabl": 8851,
  "\u2581Di\u0272\u025b": 8852,
  "\u2581Kore": 8853,
  "\u2581lame": 8854,
  "\u2581sawa": 8855,
  "\u2581soli": 8856,
  "\u2581s\u0254s\u0254": 8857,
  "\u2581vend": 8858,
  "ziyasi": 8859,
  "\u2581Peter": 8860,
  "\u2581ayiwa": 8861,
  "\u2581dirai": 8862,
  "\u2581d\u00e9c\u00e8s": 8863,
  "\u2581k\u025blen": 8864,
  "\u2581sinon": 8865,
  "honn\u00eate": 8866,
  "\u2581Kanuya": 8867,
  "\u2581essay\u00e9": 8868,
  "\u2581ferait": 8869,
  "\u2581reprit": 8870,
  "\u2581soyons": 8871,
  "\u2581suffis": 8872,
  "\u2581t\u0254\u0254r\u0254w": 8873,
  "\u2581\u0272\u0254g\u0254m\u025b": 8874,
  "\u2581h\u0254r\u0254nya": 8875,
  "\u2581lab\u025bnna": 8876,
  "\u2581lettres": 8877,
  "issements": 8878,
  "\u2581auraient": 8879,
  "\u2581enceinte": 8880,
  "\u2581physique": 8881,
  "\u2581souffrir": 8882,
  "kalasebaga": 8883,
  "\u2581N\u00e9anmoins": 8884,
  "\u2581condition": 8885,
  "\u2581fadenyabolo": 8886,
  "No": 8887,
  "\u2581\u20ac": 8888,
  "OLO": 8889,
  "dix": 8890,
  "gb\u025b": 8891,
  "ish": 8892,
  "rus": 8893,
  "\u258198": 8894,
  "\u2581m\u00e1": 8895,
  "\u2581300": 8896,
  "\u258150.": 8897,
  "\u2581Bel": 8898,
  "\u2581Yan": 8899,
  "\u2581aku": 8900,
  "\u2581kei": 8901,
  "\u2581lai": 8902,
  "\u2581nba": 8903,
  "chiez": 8904,
  "gw\u025br\u025b": 8905,
  "teaux": 8906,
  "\u0272\u025bnin": 8907,
  "\u2581las\u0254": 8908,
  "\u2581sert": 8909,
  "engage": 8910,
  "illant": 8911,
  "itionn": 8912,
  "\u0272asigi": 8913,
  "\u2581mises": 8914,
  "\u2581sanda": 8915,
  "\u2581s\u0254nni": 8916,
  "\u2581\u019d\u0254g\u0254n": 8917,
  "\u2581Bet\u025bli": 8918,
  "\u2581dollar": 8919,
  "\u2581flanan": 8920,
  "\u2581k\u0254r\u0254k\u025b": 8921,
  "\u2581lahara": 8922,
  "\u2581m\u00e9pris": 8923,
  "\u2581routes": 8924,
  "\u2581\u00e9crits": 8925,
  "\u00c9criture": 8926,
  "\u2581Sirikaw": 8927,
  "\u2581aliment": 8928,
  "\u2581biranc\u025b": 8929,
  "\u2581m\u00e9thode": 8930,
  "\u2581passent": 8931,
  "\u2581sarakaw": 8932,
  "\u2581surface": 8933,
  "\u2581\u0272\u025bsinna": 8934,
  "lications": 8935,
  "\u2581magnifique": 8936,
  "\u2581sini\u0272asigi": 8937,
  "b\u00e9s": 8938,
  "ch\u00e8": 8939,
  "l\u00e9n": 8940,
  "niw": 8941,
  "\u258102": 8942,
  "ango": 8943,
  "assa": 8944,
  "quie": 8945,
  "risi": 8946,
  "\u2581Jaa": 8947,
  "\u2581fri": 8948,
  "\u2581kaw": 8949,
  "anng\u025b": 8950,
  "\u2581B\u00e9ni": 8951,
  "\u2581Char": 8952,
  "\u2581K\u025bra": 8953,
  "\u2581Than": 8954,
  "\u2581kadi": 8955,
  "\u2581ligi": 8956,
  "\u2581yeuh": 8957,
  "\u2581\u0272ada": 8958,
  "Kisili": 8959,
  "k\u0254r\u0254ta": 8960,
  "semble": 8961,
  "\u2581boleh": 8962,
  "\u2581extra": 8963,
  "\u2581kolow": 8964,
  "\u2581kunko": 8965,
  "\u2581yiiko": 8966,
  "\u2581\u00e9tiez": 8967,
  "enfance": 8968,
  "\u2581Jamais": 8969,
  "\u2581correc": 8970,
  "\u2581ikomin": 8971,
  "\u2581k\u0254k\u025bn\u025b": 8972,
  "\u2581k\u0254\u0272\u0254ya": 8973,
  "\u2581revint": 8974,
  "\u2581sortis": 8975,
  "\u2581f\u025bntigi": 8976,
  "\u2581serment": 8977,
  "\u2581silence": 8978,
  "\u2581Benjamin": 8979,
  "\u2581affaires": 8980,
  "\u2581convainc": 8981,
  "\u2581gof\u025br\u025bn\u025b": 8982,
  "\u2581minnif\u025bn": 8983,
  "\u2581pourriez": 8984,
  "\u2581voitures": 8985,
  "\u2581v\u00e9hicule": 8986,
  "\u2581Kalandenw": 8987,
  "\u2581barikatanw": 8988,
  "\u2581fangatigiw": 8989,
  "\u2581pourraient": 8990,
  "0.": 8991,
  "As": 8992,
  "TA": 8993,
  "YD": 8994,
  ":35": 8995,
  "h\u00e9s": 8996,
  "lek": 8997,
  "\u2581s\u00ec": 8998,
  "dali": 8999,
  "\u2581Azi": 9000,
  "\u2581dos": 9001,
  "\u2581esu": 9002,
  "\u2581bran": 9003,
  "\u2581d\u00e8m\u00e8": 9004,
  "\u2581esti": 9005,
  "\u2581etre": 9006,
  "\u2581jaaw": 9007,
  "\u2581kabo": 9008,
  "\u2581mugu": 9009,
  "\u2581vues": 9010,
  "\u2581xili": 9011,
  "ellent": 9012,
  "\u2581abord": 9013,
  "\u2581yiran": 9014,
  "\u2581jigit\u0254": 9015,
  "\u2581partis": 9016,
  "alestini": 9017,
  "antek\u0254ti": 9018,
  "llemagne": 9019,
  "\u2581dugunin": 9020,
  "\u2581limites": 9021,
  "\u2581moisson": 9022,
  "\u2581nafaman": 9023,
  "\u2581woronwula": 9024,
  "\u2581Nazar\u025btika": 9025,
  "\u2581Thessaloni": 9026,
  "\u2581appartient": 9027,
  "\u2581protection": 9028,
  "\u2581Isikariy\u0254ti": 9029,
  "\u2581adolescents": 9030,
  "\u2581compl\u00e8tement": 9031,
  "ANS": 9032,
  "loo": 9033,
  "lun": 9034,
  "van": 9035,
  "\u2581Ag": 9036,
  "\u2581g\u0254": 9037,
  "oise": 9038,
  "\u25811.1": 9039,
  "\u258118;": 9040,
  "\u258124-": 9041,
  "\u2581fus": 9042,
  "\u2581gro": 9043,
  "\u2581ile": 9044,
  "\u2581leo": 9045,
  "\u2581mio": 9046,
  "anche": 9047,
  "asaga": 9048,
  "tanga": 9049,
  "\u2581Elie": 9050,
  "\u2581Jig\u025b": 9051,
  "\u2581Kayi": 9052,
  "\u2581cat\u00e9": 9053,
  "\u2581jala": 9054,
  "\u2581sina": 9055,
  "\u2581tutu": 9056,
  "\u2581Anges": 9057,
  "\u2581dunun": 9058,
  "\u2581kouma": 9059,
  "\u2581latin": 9060,
  "\u2581liens": 9061,
  "\u2581m\u0254\u0300g\u0254": 9062,
  "\u2581yiriw": 9063,
  "chaient": 9064,
  "h\u00f4pital": 9065,
  "\u2581jijara": 9066,
  "\u2581mat\u00e9ri": 9067,
  "\u2581venues": 9068,
  "endormir": 9069,
  "\u2581j\u0254nmuso": 9070,
  "\u2581labanna": 9071,
  "Pantek\u0254ti": 9072,
  "\u2581k\u025bn\u025bk\u025bn\u025b": 9073,
  "\u2581poursuit": 9074,
  "\u2581Farisi\u00e8nw": 9075,
  "\u2581kabakuruw": 9076,
  "\u2581religions": 9077,
  "\u2581jalakiy\u0254r\u0254": 9078,
  "interpr\u00e9tation": 9079,
  "\u2581continuellement": 9080,
  "\u025b\u0304": 9081,
  ":32": 9082,
  "Mon": 9083,
  "emb": 9084,
  "gu\u00e9": 9085,
  "mbu": 9086,
  "op\u00e9": 9087,
  "\u014bgo": 9088,
  "\u25817-": 9089,
  "arie": 9090,
  "cula": 9091,
  "dant": 9092,
  "deux": 9093,
  "itez": 9094,
  "omas": 9095,
  "trui": 9096,
  "wiin": 9097,
  "ypse": 9098,
  "\u2581Ber": 9099,
  "\u2581F\u0254\u0254": 9100,
  "\u2581Tur": 9101,
  "\u2581dao": 9102,
  "\u2581pin": 9103,
  "\u2581yam": 9104,
  "ctifs": 9105,
  "roits": 9106,
  "trois": 9107,
  "\u2581Afu\u025b": 9108,
  "\u2581Baba": 9109,
  "\u2581Sole": 9110,
  "\u2581bile": 9111,
  "\u2581lion": 9112,
[...]
