<unk>	0
<s>	0
</s>	0
▁k	-0
▁d	-1
▁l	-2
an	-3
▁n	-4
▁s	-5
en	-6
▁m	-7
▁b	-8
es	-9
▁t	-10
▁y	-11
▁a	-12
▁p	-13
on	-14
in	-15
▁ka	-16
ou	-17
▁f	-18
▁c	-19
▁la	-20
is	-21
un	-22
▁ye	-23
▁de	-24
re	-25
ra	-26
qu	-27
il	-28
it	-29
▁qu	-30
er	-31
▁j	-32
ar	-33
ent	-34
▁ko	-35
eu	-36
▁be	-37
as	-38
▁A	-39
▁v	-40
le	-41
▁le	-42
▁e	-43
▁ma	-44
la	-45
est	-46
ma	-47
us	-48
▁ne	-49
ɔn	-50
ous	-51
▁w	-52
our	-53
ga	-54
ti	-55
om	-56
▁ni	-57
▁na	-58
▁I	-59
▁o	-60
▁J	-61
▁et	-62
▁"	-63
el	-64
▁L	-65
▁sa	-66
▁kɛ	-67
▁se	-68
▁min	-69
▁à	-70
▁pas	-71
▁an	-72
..	-73
▁N	-74
li	-75
ɔg	-76
▁M	-77
ya	-78
▁1	-79
oi	-80
or	-81
ɛn	-82
me	-83
▁en	-84
▁fa	-85
▁i	-86
▁C	-87
▁un	-88
ta	-89
▁que	-90
ɔgɔ	-91
ɔr	-92
ba	-93
▁kan	-94
ri	-95
▁les	-96
▁S	-97
ant	-98
▁D	-99
aa	-100
ɔrɔ	-101
man	-102
▁di	-103
▁si	-104
ont	-105
▁h	-106
▁ɲ	-107
▁lo	-108
▁du	-109
te	-110
gu	-111
gi	-112
▁su	-113
ce	-114
▁E	-115
▁fɔ	-116
▁r	-117
▁2	-118
ɛɛ	-119
▁tun	-120
ai	-121
eur	-122
▁ce	-123
ui	-124
▁g	-125
▁é	-126
▁ta	-127
▁u	-128
ve	-129
ari	-130
▁tu	-131
▁aw	-132
ment	-133
ol	-134
▁?	-135
és	-136
▁est	-137
ans	-138
▁au	-139
▁Il	-140
▁par	-141
ons	-142
▁vous	-143
▁des	-144
ana	-145
au	-146
onn	-147
si	-148
▁bɛɛ	-149
▁qui	-150
▁P	-151
ro	-152
▁O	-153
▁il	-154
ena	-155
▁pour	-156
▁Je	-157
ch	-158
tre	-159
se	-160
."	-161
ka	-162
▁K	-163
de	-164
ɛr	-165
▁je	-166
▁fɛ	-167
▁Ala	-168
▁ba	-169
res	-170
▁dans	-171
▁Y	-172
▁wa	-173
ɛrɛ	-174
go	-175
na	-176
▁mɔgɔ	-177
▁te	-178
va	-179
▁com	-180
▁T	-181
▁to	-182
▁bena	-183
...	-184
▁ch	-185
▁yo	-186
▁nin	-187
ez	-188
end	-189
ieu	-190
▁B	-191
▁tou	-192
▁pl	-193
▁bi	-194
▁3	-195
am	-196
ur	-197
▁re	-198
ge	-199
ère	-200
té	-201
▁dɔ	-202
▁kɔn	-203
▁une	-204
▁tɛ	-205
ée	-206
▁-	-207
▁Ma	-208
▁fil	-209
gn	-210
▁ani	-211
▁ku	-212
os	-213
▁koo	-214
▁plus	-215
ris	-216
da	-217
mp	-218
ran	-219
▁dé	-220
▁da	-221
lu	-222
▁man	-223
olo	-224
ko	-225
ogo	-226
ci	-227
eux	-228
pp	-229
tion	-230
▁F	-231
elen	-232
al	-233
di	-234
rè	-235
▁Le	-236
▁Ne	-237
asa	-238
▁nous	-239
ers	-240
▁Dieu	-241
ir	-242
▁ya	-243
▁U	-244
ili	-245
tait	-246
les	-247
▁ja	-248
▁4	-249
▁ti	-250
den	-251
▁Q	-252
▁lui	-253
▁sont	-254
▁kɔnɔ	-255
▁taga	-256
▁kelen	-257
▁kɔ	-258
yi	-259
▁sur	-260
▁mon	-261
oo	-262
tes	-263
ie	-264
elle	-265
ire	-266
ff	-267
▁pr	-268
et	-269
▁ré	-270
▁bɔ	-271
que	-272
▁La	-273
mi	-274
▁!	-275
▁fait	-276
int	-277
▁ave	-278
▁sɔrɔ	-279
▁ha	-280
▁dit	-281
▁fana	-282
lɛ	-283
rit	-284
lle	-285
ut	-286
▁san	-287
tigi	-288
ila	-289
▁yɛrɛ	-290
▁Qu	-291
▁don	-292
▁lɔn	-293
ils	-294
▁jour	-295
ni	-296
cɛ	-297
uso	-298
▁bari	-299
ois	-300
▁peu	-301
ort	-302
ouv	-303
aw	-304
▁mi	-305
▁mais	-306
oir	-307
▁minw	-308
fa	-309
mes	-310
▁V	-311
bi	-312
ins	-313
ens	-314
être	-315
ɲɛ	-316
omme	-317
▁pro	-318
▁son	-319
▁tout	-320
▁Les	-321
▁avec	-322
▁kun	-323
tu	-324
▁ai	-325
ab	-326
▁kos	-327
▁ju	-328
▁den	-329
▁dis	-330
▁cogo	-331
▁Aw	-332
em	-333
ini	-334
▁kuma	-335
▁yi	-336
ux	-337
iti	-338
▁suis	-339
▁ki	-340
▁Et	-341
vait	-342
▁5	-343
rès	-344
lan	-345
▁ji	-346
mɛ	-347
ezu	-348
ésus	-349
ne	-350
▁ra	-351
ile	-352
▁été	-353
▁Jésus	-354
jour	-355
▁comme	-356
lo	-357
▁yen	-358
ɔgɔn	-359
ême	-360
▁Se	-361
▁An	-362
eurs	-363
kɛ	-364
▁baa	-365
rai	-366
▁so	-367
▁faire	-368
▁dugu	-369
ré	-370
baga	-371
anna	-372
▁moi	-373
uru	-374
▁6	-375
▁li	-376
▁kɔrɔ	-377
ors	-378
▁tuma	-379
onne	-380
ille	-381
ants	-382
▁R	-383
▁Z	-384
tres	-385
iss	-386
▁me	-387
▁av	-388
isi	-389
inin	-390
ign	-391
isa	-392
une	-393
rent	-394
▁ci	-395
▁Yezu	-396
ac	-397
ussi	-398
▁baara	-399
bɛ	-400
▁Mais	-401
at	-402
▁Ce	-403
denw	-404
▁kɛra	-405
▁tugu	-406
▁tous	-407
▁20	-408
▁mun	-409
vi	-410
ble	-411
▁ban	-412
fi	-413
▁con	-414
bu	-415
lɔ	-416
ter	-417
était	-418
ité	-419
▁bon	-420
▁vi	-421
▁kana	-422
ɛlɛ	-423
▁no	-424
ine	-425
▁ent	-426
ite	-427
▁G	-428
uman	-429
▁.	-430
▁mo	-431
▁10	-432
du	-433
▁ans	-434
▁aussi	-435
▁ale	-436
▁H	-437
ki	-438
ani	-439
▁8	-440
mu	-441
▁ca	-442
▁ɲa	-443
▁ou	-444
▁yɔrɔ	-445
▁bien	-446
▁ri	-447
▁kanu	-448
▁al	-449
▁ils	-450
mana	-451
▁ter	-452
▁ont	-453
▁enf	-454
▁tr	-455
▁in	-456
lé	-457
ance	-458
che	-459
▁mɛn	-460
▁sara	-461
▁cɛ	-462
▁donn	-463
▁leur	-464
▁pa	-465
▁wanna	-466
▁était	-467
▁Ni	-468
▁7	-469
ore	-470
▁masa	-471
éc	-472
▁nom	-473
▁fo	-474
▁wo	-475
Ne	-476
▁sera	-477
▁bo	-478
▁être	-479
▁kalan	-480
▁olu	-481
▁Si	-482
▁tra	-483
▁En	-484
▁vo	-485
uni	-486
vez	-487
oup	-488
uis	-489
▁app	-490
▁9	-491
bre	-492
and	-493
òn	-494
▁Sa	-495
▁muso	-496
▁Ils	-497
tte	-498
▁monde	-499
hui	-500
▁Pour	-501
jourd	-502
▁19	-503
▁dɛ	-504
▁tɔ	-505
▁même	-506
▁kè	-507
▁ses	-508
app	-509
▁gw	-510
lima	-511
▁ɲɔgɔn	-512
to	-513
kolo	-514
▁peut	-515
▁bè	-516
ommes	-517
ess	-518
▁jama	-519
yɛ	-520
▁nga	-521
▁comp	-522
gɛ	-523
▁pers	-524
ru	-525
▁nun	-526
nin	-527
▁jus	-528
ugu	-529
▁sira	-530
▁fem	-531
vous	-532
uma	-533
▁saba	-534
▁ar	-535
▁mɔgɔw	-536
asi	-537
ph	-538
aient	-539
?"	-540
▁ke	-541
igneur	-542
ji	-543
▁aux	-544
out	-545
▁ten	-546
yɔrɔ	-547
endre	-548
▁saan	-549
▁wɛrɛ	-550
av	-551
▁avait	-552
▁jaa	-553
▁loon	-554
esp	-555
quoi	-556
tions	-557
▁mort	-558
ɛna	-559
▁fɔlɔ	-560
▁Ch	-561
▁ex	-562
ill	-563
▁Nous	-564
▁Vous	-565
▁taa	-566
ais	-567
▁ɲinin	-568
▁tena	-569
▁Bi	-570
lement	-571
usu	-572
▁gran	-573
wa	-574
▁Es	-575
ait	-576
▁do	-577
▁fan	-578
▁vie	-579
▁Elle	-580
▁Seigneur	-581
▁elle	-582
▁barika	-583
▁fɔɔ	-584
▁rép	-585
▁Mun	-586
ariya	-587
aaman	-588
▁(	-589
mé	-590
elui	-591
:1	-592
▁enfants	-593
mis	-594
▁cons	-595
▁cont	-596
ul	-597
▁tan	-598
ina	-599
▁cette	-600
homme	-601
▁tɔgɔ	-602
ue	-603
ord	-604
▁cela	-605
ex	-606
▁deux	-607
usa	-608
rist	-609
▁seu	-610
▁fɛɛn	-611
▁quel	-612
▁jigi	-613
▁env	-614
▁caaman	-615
▁18	-616
ence	-617
▁W	-618
▁15	-619
▁enc	-620
▁tile	-621
▁temp	-622
kili	-623
▁lab	-624
ées	-625
▁dev	-626
kan	-627
▁as	-628
▁kama	-629
▁for	-630
près	-631
▁Mɔgɔ	-632
▁Ya	-633
▁Tu	-634
▁Kris	-635
ɔrɔn	-636
eure	-637
fɛ	-638
▁12	-639
ɔbɛ	-640
ond	-641
▁11	-642
be	-643
ara	-644
▁tro	-645
▁ga	-646
▁fils	-647
éta	-648
▁Matigi	-649
pe	-650
isan	-651
▁13	-652
ard	-653
▁ben	-654
▁encore	-655
▁daa	-656
▁sigi	-657
▁nu	-658
cc	-659
▁ser	-660
▁nunu	-661
oire	-662
muso	-663
ient	-664
▁Nka	-665
ouve	-666
▁fila	-667
▁kosɔn	-668
vais	-669
sra	-670
endant	-671
anin	-672
vre	-673
yɛli	-674
ye	-675
ges	-676
aime	-677
ces	-678
ho	-679
ger	-680
▁deen	-681
ose	-682
▁car	-683
Aw	-684
▁aujourd	-685
mɛn	-686
òg	-687
▁femme	-688
▁Masa	-689
ép	-690
ts	-691
▁très	-692
▁we	-693
▁yira	-694
▁lon	-695
érit	-696
▁conn	-697
▁14	-698
sira	-699
▁dɔw	-700
▁kala	-701
▁ceux	-702
iri	-703
▁tɛmɛ	-704
▁Al	-705
itu	-706
▁17	-707
▁siran	-708
▁jamana	-709
fu	-710
ɔni	-711
esu	-712
▁jours	-713
jugu	-714
ku	-715
00	-716
ow	-717
▁homme	-718
ques	-719
êtes	-720
▁po	-721
▁waa	-722
ation	-723
rait	-724
▁Ka	-725
▁pos	-726
▁tigi	-727
zi	-728
én	-729
ise	-730
▁On	-731
née	-732
▁yan	-733
▁père	-734
ys	-735
ël	-736
▁rien	-737
▁faga	-738
▁foyi	-739
▁fò	-740
▁pu	-741
▁filɛ	-742
entre	-743
▁pla	-744
ion	-745
▁fe	-746
▁déc	-747
▁temps	-748
dé	-749
▁jaabi	-750
▁bolo	-751
inɛ	-752
▁toi	-753
▁dire	-754
èn	-755
ieux	-756
▁sɔn	-757
▁vrai	-758
uda	-759
▁éc	-760
▁Est	-761
▁_	-762
auc	-763
▁celui	-764
oy	-765
tant	-766
▁donc	-767
▁nka	-768
tern	-769
▁ɲininga	-770
▁mara	-771
▁16	-772
▁jan	-773
▁grand	-774
▁kosɔbɛ	-775
ole	-776
▁De	-777
▁peur	-778
ɔɔ	-779
ler	-780
▁on	-781
bagaw	-782
enir	-783
òr	-784
vent	-785
▁soo	-786
▁deman	-787
▁ces	-788
ème	-789
▁waga	-790
▁sou	-791
enu	-792
ça	-793
kun	-794
èrent	-795
dama	-796
erre	-797
▁maison	-798
so	-799
▁jusqu	-800
ja	-801
▁dam	-802
▁pass	-803
ɲa	-804
▁minɛ	-805
▁bu	-806
▁pri	-807
fe	-808
▁dusu	-809
ction	-810
yara	-811
▁dan	-812
:2	-813
sraël	-814
▁es	-815
ita	-816
sirayɛli	-817
▁eu	-818
▁per	-819
▁fois	-820
▁éta	-821
rô	-822
▁où	-823
tɔ	-824
acc	-825
▁bila	-826
gne	-827
vé	-828
tt	-829
▁Yesu	-830
muni	-831
▁Jé	-832
use	-833
▁êtes	-834
▁parti	-835
▁diɲɛ	-836
▁bɛ	-837
▁rest	-838
▁22	-839
aucoup	-840
▁fi	-841
bra	-842
▁mu	-843
▁autres	-844
▁kɛlɛ	-845
▁Un	-846
ɔgɔw	-847
oya	-848
elles	-849
▁Krista	-850
▁jo	-851
▁Com	-852
▁24	-853
ments	-854
éri	-855
hi	-856
jours	-857
▁eux	-858
▁fara	-859
autres	-860
fin	-861
▁Par	-862
▁non	-863
▁soit	-864
▁masacɛ	-865
ad	-866
▁bɔra	-867
bali	-868
wu	-869
....	-870
▁terre	-871
eli	-872
▁nan	-873
ête	-874
▁Au	-875
insi	-876
òrò	-877
▁sɛ	-878
▁toujours	-879
mer	-880
▁sommes	-881
▁sisan	-882
▁see	-883
▁Den	-884
ob	-885
ag	-886
orte	-887
▁Isirayɛli	-888
▁lɔ	-889
▁21	-890
▁hakili	-891
ense	-892
▁dɛmɛ	-893
▁là	-894
ver	-895
▁miiri	-896
▁ça	-897
tin	-898
▁roi	-899
▁'	-900
▁nana	-901
lon	-902
mb	-903
▁Christ	-904
ze	-905
▁ret	-906
ògò	-907
▁cɛɛ	-908
▁eff	-909
▁ville	-910
▁[	-911
érité	-912
oro	-913
▁Fils	-914
omp	-915
isɔn	-916
▁pris	-917
▁pre	-918
je	-919
autre	-920
▁kuntigi	-921
▁arri	-922
cip	-923
▁Père	-924
▁ɲi	-925
gw	-926
ist	-927
rais	-928
▁jamais	-929
ôrô	-930
▁vou	-931
▁Masaba	-932
▁beaucoup	-933
▁Nga	-934
▁...	-935
▁toute	-936
▁23	-937
emp	-938
▁kab	-939
olon	-940
▁trois	-941
▁personn	-942
len	-943
ents	-944
▁ɲini	-945
éch	-946
fɛn	-947
▁jugu	-948
▁sin	-949
eau	-950
ke	-951
aire	-952
▁sariya	-953
diya	-954
▁gu	-955
▁tagara	-956
▁25	-957
▁sais	-958
▁wagati	-959
▁z	-960
mo	-961
▁À	-962
enant	-963
▁pourquoi	-964
▁trava	-965
▁lan	-966
▁x	-967
bli	-968
gan	-969
▁,	-970
min	-971
isse	-972
uli	-973
bar	-974
▁ɲɛ	-975
ct	-976
oute	-977
▁dumuni	-978
▁balima	-979
▁nisɔn	-980
uw	-981
▁kɔni	-982
èrè	-983
▁yɛlɛ	-984
pt	-985
▁kisi	-986
▁seul	-987
lè	-988
▁va	-989
▁fin	-990
vit	-991
▁cɛma	-992
age	-993
ante	-994
▁taama	-995
▁leurs	-996
▁veux	-997
yez	-998
étais	-999
nu	-1000
▁parce	-1001
its	-1002
ras	-1003
fs	-1004
même	-1005
▁ɲana	-1006
ass	-1007
▁hommes	-1008
▁vérité	-1009
▁fam	-1010
der	-1011
▁faut	-1012
▁comm	-1013
Israël	-1014
▁mère	-1015
▁pays	-1016
oin	-1017
▁mis	-1018
▁ton	-1019
ouver	-1020
ouveau	-1021
kɔrɔ	-1022
▁sɔ	-1023
oses	-1024
▁diff	-1025
▁cro	-1026
▁walima	-1027
▁pe	-1028
▁Car	-1029
ume	-1030
▁nouveau	-1031
▁dugukolo	-1032
▁Une	-1033
▁entre	-1034
▁notre	-1035
▁Oui	-1036
anw	-1037
▁Yala	-1038
▁peux	-1039
▁sau	-1040
▁kaba	-1041
avais	-1042
▁wele	-1043
▁choses	-1044
▁rep	-1045
▁alors	-1046
▁til	-1047
▁Comment	-1048
là	-1049
▁jɛn	-1050
!"	-1051
▁prés	-1052
pi	-1053
▁Na	-1054
cher	-1055
▁premi	-1056
▁personne	-1057
enc	-1058
▁masaya	-1059
aut	-1060
▁quoi	-1061
▁mar	-1062
▁yé	-1063
▁bes	-1064
▁yafa	-1065
amu	-1066
gé	-1067
rez	-1068
▁Ti	-1069
œur	-1070
▁nombre	-1071
▁mari	-1072
▁toutes	-1073
cti	-1074
▁donné	-1075
▁conna	-1076
▁mes	-1077
▁too	-1078
ing	-1079
endu	-1080
▁fut	-1081
▁sun	-1082
ori	-1083
▁dou	-1084
▁waati	-1085
eru	-1086
aux	-1087
avez	-1088
▁pet	-1089
gue	-1090
▁afin	-1091
▁fisa	-1092
▁peup	-1093
oyaume	-1094
yp	-1095
▁part	-1096
▁Tout	-1097
hova	-1098
▁dés	-1099
▁tɔɔrɔ	-1100
▁sankolo	-1101
ôt	-1102
▁Ayi	-1103
▁acc	-1104
▁étaient	-1105
▁wi	-1106
ca	-1107
▁votre	-1108
▁Pourquoi	-1109
gent	-1110
olu	-1111
▁personnes	-1112
rères	-1113
▁201	-1114
oie	-1115
▁gens	-1116
▁vu	-1117
▁sour	-1118
▁vraiment	-1119
▁vers	-1120
▁dɔɔni	-1121
▁fu	-1122
An	-1123
▁bii	-1124
▁saraka	-1125
▁jɔn	-1126
erta	-1127
rer	-1128
gun	-1129
th	-1130
▁quest	-1131
ase	-1132
▁tè	-1133
intenant	-1134
▁mois	-1135
▁Qui	-1136
ɛmu	-1137
ɲuman	-1138
▁Alors	-1139
▁ainsi	-1140
▁26	-1141
bat	-1142
prit	-1143
▁ny	-1144
▁dencɛ	-1145
▁té	-1146
sion	-1147
laki	-1148
▁mé	-1149
▁cas	-1150
▁kojugu	-1151
jet	-1152
lait	-1153
▁Dans	-1154
ali	-1155
ɲɛn	-1156
gô	-1157
ban	-1158
nɛ	-1159
▁bonne	-1160
▁wal	-1161
▁dè	-1162
▁Faa	-1163
▁yɛ	-1164
puis	-1165
▁simp	-1166
Es	-1167
iste	-1168
▁nisɔndiya	-1169
lles	-1170
▁teri	-1171
▁contre	-1172
▁daminɛ	-1173
▁dun	-1174
lem	-1175
▁kaan	-1176
inw	-1177
▁avoir	-1178
enn	-1179
avait	-1180
▁fr	-1181
ternel	-1182
▁avons	-1183
▁28	-1184
▁wolo	-1185
▁besoin	-1186
▁sig	-1187
▁prop	-1188
enf	-1189
ître	-1190
▁chose	-1191
▁co	-1192
sa	-1193
▁janko	-1194
usalem	-1195
▁lu	-1196
▁frères	-1197
ona	-1198
▁bato	-1199
bɛn	-1200
inter	-1201
ines	-1202
▁sans	-1203
cile	-1204
▁gr	-1205
gwɛ	-1206
▁point	-1207
▁laj	-1208
KA	-1209
gaw	-1210
ères	-1211
▁hali	-1212
▁fɔra	-1213
▁moins	-1214
▁éga	-1215
▁kalo	-1216
▁avez	-1217
▁Da	-1218
▁cré	-1219
▁adama	-1220
▁pi	-1221
▁tiɲɛ	-1222
kè	-1223
▁am	-1224
▁imp	-1225
▁dama	-1226
▁Dencɛ	-1227
▁lors	-1228
▁walisa	-1229
nan	-1230
▁pou	-1231
▁rés	-1232
rusalem	-1233
▁nɔgɔ	-1234
ama	-1235
▁Jérusalem	-1236
▁bara	-1237
▁Que	-1238
kɛla	-1239
▁labɛn	-1240
issance	-1241
▁peuple	-1242
fɔ	-1243
▁mil	-1244
Mɔgɔ	-1245
▁Mo	-1246
▁siya	-1247
kari	-1248
vers	-1249
▁répond	-1250
awuda	-1251
▁cor	-1252
▁fè	-1253
▁che	-1254
rance	-1255
▁journée	-1256
▁sav	-1257
▁dɔrɔn	-1258
zal	-1259
do	-1260
ôgô	-1261
▁puis	-1262
▁far	-1263
enne	-1264
pa	-1265
ôn	-1266
ɔgɔma	-1267
su	-1268
▁gwɛlɛ	-1269
vid	-1270
▁ab	-1271
▁autre	-1272
gɔ	-1273
eruzal	-1274
mɔgɔw	-1275
eruzalɛmu	-1276
ente	-1277
▁É	-1278
enuman	-1279
▁furu	-1280
▁pouv	-1281
eut	-1282
▁bɔn	-1283
▁kalandenw	-1284
▁ele	-1285
▁pendant	-1286
▁auc	-1287
▁cha	-1288
jan	-1289
▁Zeruzalɛmu	-1290
▁mont	-1291
▁comment	-1292
for	-1293
oni	-1294
ha	-1295
▁nafa	-1296
▁matin	-1297
▁travail	-1298
▁bé	-1299
▁cour	-1300
▁wɛrɛw	-1301
onc	-1302
ɲɔgɔn	-1303
ang	-1304
▁oui	-1305
▁envoy	-1306
▁fais	-1307
▁également	-1308
▁quand	-1309
moi	-1310
bɔ	-1311
▁mògò	-1312
▁seen	-1313
illes	-1314
▁fari	-1315
▁kɛnɛ	-1316
za	-1317
▁boɲa	-1318
▁retour	-1319
ɛɛn	-1320
enti	-1321
▁nouv	-1322
▁tora	-1323
▁nii	-1324
imp	-1325
ula	-1326
amour	-1327
▁parole	-1328
▁chez	-1329
▁rec	-1330
kɔ	-1331
Nga	-1332
til	-1333
▁aime	-1334
▁saga	-1335
▁sui	-1336
▁faamu	-1337
▁Nii	-1338
▁donne	-1339
ture	-1340
:3	-1341
able	-1342
▁30	-1343
▁jumɛn	-1344
▁depuis	-1345
▁déb	-1346
▁wari	-1347
▁après	-1348
▁Bari	-1349
▁."	-1350
▁dɔgɔ	-1351
▁Ɔ	-1352
▁met	-1353
▁dafa	-1354
cha	-1355
ere	-1356
els	-1357
vant	-1358
▁discip	-1359
▁No	-1360
rɛ	-1361
▁dom	-1362
▁ɲaa	-1363
▁Bible	-1364
Esprit	-1365
▁heure	-1366
▁Isirayɛlidenw	-1367
eures	-1368
▁27	-1369
ck	-1370
att	-1371
!!	-1372
ɛnɛ	-1373
des	-1374
aix	-1375
▁Dawuda	-1376
cogo	-1377
▁Mon	-1378
▁mana	-1379
▁ciel	-1380
▁att	-1381
baru	-1382
bili	-1383
▁laban	-1384
▁say	-1385
▁tugun	-1386
▁mal	-1387
▁prê	-1388
itigi	-1389
▁Cela	-1390
gyp	-1391
▁foi	-1392
▁kaso	-1393
piti	-1394
▁kabako	-1395
▁vais	-1396
▁passé	-1397
▁péch	-1398
▁‹	-1399
bo	-1400
abu	-1401
▁dép	-1402
▁voir	-1403
▁Min	-1404
▁loi	-1405
▁diyara	-1406
▁mako	-1407
ét	-1408
▁Ɲ	-1409
▁ɲuman	-1410
rendre	-1411
▁Ezi	-1412
▁dòn	-1413
▁or	-1414
Ch	-1415
yo	-1416
▁koow	-1417
▁simple	-1418
▁confi	-1419
misɛn	-1420
emin	-1421
▁saa	-1422
ure	-1423
id	-1424
▁saya	-1425
▁maintenant	-1426
▁kow	-1427
maya	-1428
▁bèè	-1429
.'	-1430
▁segi	-1431
baw	-1432
Ni	-1433
éra	-1434
▁cr	-1435
▁Musa	-1436
▁enfant	-1437
ront	-1438
▁bana	-1439
▁David	-1440
▁gl	-1441
ellement	-1442
ps	-1443
▁effet	-1444
qui	-1445
▁pens	-1446
▁bar	-1447
Christ	-1448
▁gar	-1449
▁sɔgɔma	-1450
▁daali	-1451
kil	-1452
▁donna	-1453
▁juman	-1454
▁Ezipiti	-1455
oient	-1456
▁ense	-1457
avoir	-1458
▁ann	-1459
sible	-1460
▁sii	-1461
▁kabini	-1462
ilu	-1463
oix	-1464
▁frère	-1465
yé	-1466
▁Mi	-1467
▁paix	-1468
agit	-1469
▁doit	-1470
ète	-1471
kaw	-1472
▁quelqu	-1473
▁suu	-1474
▁nuit	-1475
Yezu	-1476
▁début	-1477
▁lad	-1478
arri	-1479
ît	-1480
▁29	-1481
dre	-1482
▁sababu	-1483
ud	-1484
▁lajɛn	-1485
▁sor	-1486
▁sé	-1487
▁appel	-1488
mble	-1489
▁uns	-1490
▁ob	-1491
argent	-1492
dez	-1493
vres	-1494
▁kunun	-1495
ale	-1496
▁répons	-1497
▁40	-1498
oso	-1499
▁proph	-1500
▁Senuman	-1501
▁denmuso	-1502
▁famille	-1503
▁royaume	-1504
.›	-1505
▁Ale	-1506
tru	-1507
ham	-1508
folo	-1509
▁kon	-1510
▁â	-1511
▁disciples	-1512
▁livre	-1513
tement	-1514
▁diman	-1515
ɛlɛkɛ	-1516
▁ép	-1517
▁envoyé	-1518
rés	-1519
lase	-1520
▁fit	-1521
▁fili	-1522
art	-1523
gypte	-1524
▁avant	-1525
illeurs	-1526
bres	-1527
▁mas	-1528
▁denw	-1529
▁deenw	-1530
▁esp	-1531
▁écrit	-1532
▁diya	-1533
ves	-1534
▁0	-1535
▁cher	-1536
ïse	-1537
▁coup	-1538
▁mani	-1539
▁diffé	-1540
▁lagaw	-1541
▁kɔse	-1542
mage	-1543
oles	-1544
▁fille	-1545
▁Moïse	-1546
gou	-1547
▁fanga	-1548
▁ad	-1549
▁souff	-1550
▁grande	-1551
jà	-1552
▁sabu	-1553
▁Pi	-1554
▁rev	-1555
gar	-1556
▁mala	-1557
▁certa	-1558
▁ac	-1559
▁der	-1560
bolo	-1561
,"	-1562
▁Ko	-1563
▁kɛmɛ	-1564
▁question	-1565
tr	-1566
pendant	-1567
he	-1568
cle	-1569
▁facile	-1570
▁pré	-1571
ends	-1572
▁Moi	-1573
▁chemin	-1574
▁facɛ	-1575
▁devant	-1576
cer	-1577
▁jii	-1578
ition	-1579
▁cause	-1580
gl	-1581
lah	-1582
▁long	-1583
çon	-1584
Masa	-1585
▁bata	-1586
▁peuvent	-1587
▁Des	-1588
▁femmes	-1589
▁31	-1590
▁cɛn	-1591
gard	-1592
Ala	-1593
dement	-1594
▁savez	-1595
▁mour	-1596
ɛbɛ	-1597
enez	-1598
▁cou	-1599
▁lam	-1600
hu	-1601
ser	-1602
tigɛ	-1603
▁kara	-1604
ites	-1605
▁Ba	-1606
▁déjà	-1607
▁heures	-1608
AN	-1609
▁nos	-1610
▁tigɛ	-1611
exc	-1612
▁ɲɛna	-1613
▁confiance	-1614
Il	-1615
ɔɔrɔ	-1616
▁bou	-1617
▁mer	-1618
▁dro	-1619
hun	-1620
▁tɔɔ	-1621
▁joona	-1622
im	-1623
per	-1624
▁kira	-1625
▁morts	-1626
▁hɛrɛ	-1627
asse	-1628
ions	-1629
oici	-1630
▁aba	-1631
▁venu	-1632
▁lieu	-1633
▁entendu	-1634
▁ins	-1635
▁trouv	-1636
bulu	-1637
▁makari	-1638
iser	-1639
▁cœur	-1640
▁kuun	-1641
ché	-1642
aul	-1643
ennin	-1644
ay	-1645
▁Ki	-1646
▁sago	-1647
▁yèrè	-1648
▁faan	-1649
▁manger	-1650
gni	-1651
▁ŋ	-1652
▁tom	-1653
▁33	-1654
▁ɲiningali	-1655
▁Fa	-1656
▁MA	-1657
▁kibaru	-1658
▁présent	-1659
▁dɔn	-1660
▁souv	-1661
▁auprès	-1662
▁parler	-1663
jou	-1664
▁kulu	-1665
▁Jehova	-1666
▁Quand	-1667
ieurs	-1668
cé	-1669
▁kasi	-1670
▁soir	-1671
▁wili	-1672
▁hakɛ	-1673
.†	-1674
▁cin	-1675
gin	-1676
▁vient	-1677
ee	-1678
mɔgɔ	-1679
▁Bibulu	-1680
▁sec	-1681
08	-1682
braham	-1683
▁38	-1684
▁mom	-1685
lent	-1686
▁col	-1687
▁cieux	-1688
ɔɔn	-1689
exp	-1690
Je	-1691
ches	-1692
▁ph	-1693
▁yaa	-1694
▁minkɛ	-1695
▁Krisita	-1696
iya	-1697
▁Aujourd	-1698
▁seulement	-1699
ON	-1700
▁premier	-1701
▁Kana	-1702
▁kɔsegi	-1703
ds	-1704
▁wala	-1705
rê	-1706
▁pense	-1707
▁Dɔ	-1708
▁wolon	-1709
▁nouvelle	-1710
▁tour	-1711
▁aga	-1712
▁*	-1713
▁derni	-1714
▁parle	-1715
▁vol	-1716
bles	-1717
▁wasa	-1718
▁ver	-1719
▁balimaw	-1720
ùn	-1721
KAW	-1722
▁teli	-1723
▁Ar	-1724
urun	-1725
▁comman	-1726
▁sous	-1727
▁32	-1728
▁love	-1729
ilan	-1730
▁dont	-1731
▁heureux	-1732
▁hai	-1733
pé	-1734
▁corps	-1735
▁kɔmɔgɔw	-1736
▁Saint	-1737
uifs	-1738
▁Jean	-1739
▁denmisɛn	-1740
▁disp	-1741
aires	-1742
atre	-1743
▁nafolo	-1744
▁ah	-1745
▁kanuya	-1746
▁34	-1747
ògòn	-1748
irent	-1749
urent	-1750
▁place	-1751
igne	-1752
▁kelenpe	-1753
ann	-1754
avons	-1755
ention	-1756
▁mɛnni	-1757
▁sujet	-1758
▁avaient	-1759
000	-1760
ette	-1761
▁hakil	-1762
▁réponse	-1763
▁del	-1764
▁huma	-1765
gɛn	-1766
▁bɛn	-1767
▁reç	-1768
sé	-1769
▁grâ	-1770
appelle	-1771
▁tch	-1772
▁dja	-1773
cu	-1774
▁main	-1775
▁Mari	-1776
▁gb	-1777
oman	-1778
▁lara	-1779
▁Non	-1780
env	-1781
gui	-1782
▁juru	-1783
xi	-1784
▁Re	-1785
▁gn	-1786
▁Celui	-1787
▁jeune	-1788
ɲè	-1789
▁Can	-1790
cri	-1791
cation	-1792
▁aff	-1793
▁anw	-1794
▁dois	-1795
▁Ha	-1796
elon	-1797
▁fani	-1798
ong	-1799
▁hab	-1800
▁monta	-1801
▁fɛn	-1802
▁kam	-1803
▁kɛɲɛ	-1804
mière	-1805
TI	-1806
▁ago	-1807
▁abada	-1808
AL	-1809
▁trouve	-1810
▁mɛlɛkɛ	-1811
▁mɔ	-1812
▁tiɲɛn	-1813
▁50	-1814
bé	-1815
ès	-1816
Al	-1817
▁rend	-1818
▁kp	-1819
mɔ	-1820
▁tɔw	-1821
▁lé	-1822
▁Puis	-1823
lie	-1824
▁Ibra	-1825
uwi	-1826
▁Alabat	-1827
DC	-1828
▁gloire	-1829
▁sy	-1830
▁cap	-1831
▁prof	-1832
co	-1833
▁quelques	-1834
ennent	-1835
▁komi	-1836
niya	-1837
yima	-1838
▁servit	-1839
▁sɛbɛ	-1840
cep	-1841
▁donner	-1842
▁AK	-1843
▁jija	-1844
▁deli	-1845
accomp	-1846
▁go	-1847
▁waasa	-1848
▁plusieurs	-1849
▁dô	-1850
▁possible	-1851
▁Or	-1852
▁quelque	-1853
▁Comme	-1854
kin	-1855
ités	-1856
emple	-1857
▁35	-1858
▁ɲògòn	-1859
:4	-1860
KDC	-1861
uwifu	-1862
▁AKKDC	-1863
▁ɲɛnamaya	-1864
▁ɲaga	-1865
▁siɲɛ	-1866
ique	-1867
▁voitu	-1868
▁Lu	-1869
▁Sam	-1870
▁ɲin	-1871
rain	-1872
▁>	-1873
isé	-1874
▁vos	-1875
▁kosòn	-1876
ttre	-1877
▁savoir	-1878
▁resp	-1879
▁fou	-1880
wula	-1881
▁nɛn	-1882
issent	-1883
més	-1884
rɔ	-1885
▁tila	-1886
▁yiri	-1887
▁minnu	-1888
rée	-1889
▁prendre	-1890
vo	-1891
▁exp	-1892
ert	-1893
▁moment	-1894
fé	-1895
gna	-1896
▁ɔ	-1897
▁kit	-1898
▁=	-1899
élé	-1900
heure	-1901
ange	-1902
▁bamuso	-1903
sɛ	-1904
▁off	-1905
▁sang	-1906
▁Alabatoso	-1907
▁Paul	-1908
▁suite	-1909
▁adamaden	-1910
▁Lors	-1911
▁kou	-1912
▁inter	-1913
êmes	-1914
▁Mar	-1915
▁halaki	-1916
▁prison	-1917
cla	-1918
ailleurs	-1919
ala	-1920
▁rapp	-1921
▁Zan	-1922
tique	-1923
ration	-1924
▁Ibrayima	-1925
ier	-1926
téri	-1927
mée	-1928
▁reste	-1929
utes	-1930
▁train	-1931
▁cet	-1932
▁tulo	-1933
raient	-1934
ɔli	-1935
▁aimé	-1936
bè	-1937
▁desc	-1938
▁kiti	-1939
▁aura	-1940
Bari	-1941
▁mus	-1942
▁jalaki	-1943
onné	-1944
▁eut	-1945
▁ét	-1946
lais	-1947
▁milli	-1948
▁petit	-1949
occ	-1950
▁Ca	-1951
manw	-1952
onté	-1953
glise	-1954
▁sòrò	-1955
ƐW	-1956
▁wuli	-1957
▁sorti	-1958
lus	-1959
).	-1960
.1	-1961
▁nɛɛ	-1962
abord	-1963
▁kò	-1964
▁kosɛbɛ	-1965
▁parents	-1966
▁dj	-1967
▁France	-1968
▁sini	-1969
anta	-1970
▁Quel	-1971
▁font	-1972
▁cond	-1973
▁gwɛlɛya	-1974
kow	-1975
▁?"	-1976
arch	-1977
▁pani	-1978
▁Ja	-1979
▁wu	-1980
▁bali	-1981
▁ress	-1982
▁pouvoir	-1983
▁kunna	-1984
▁veut	-1985
▁envie	-1986
▁répondit	-1987
▁200	-1988
▁bapt	-1989
▁Tous	-1990
▁quatre	-1991
œu	-1992
▁th	-1993
▁hakilitigi	-1994
▁sarakalase	-1995
▁malo	-1996
Éternel	-1997
▁gi	-1998
▁différent	-1999
ène	-2000
ligi	-2001
forma	-2002
▁pard	-2003
▁aut	-2004
▁again	-2005
▁commenc	-2006
um	-2007
▁mieux	-2008
20	-2009
▁nɛ	-2010
euse	-2011
▁vis	-2012
▁Ph	-2013
▁So	-2014
▁Juifs	-2015
tuma	-2016
▁passe	-2017
▁voiture	-2018
▁emp	-2019
kolon	-2020
aali	-2021
▁In	-2022
▁util	-2023
issez	-2024
▁kura	-2025
riture	-2026
▁kumana	-2027
▁seront	-2028
▁Son	-2029
▁ici	-2030
▁ho	-2031
vée	-2032
accord	-2033
onna	-2034
▁dogo	-2035
Eternel	-2036
▁laiss	-2037
▁elles	-2038
ɛli	-2039
anan	-2040
asuma	-2041
▁selon	-2042
▁trans	-2043
appro	-2044
▁rais	-2045
▁chaque	-2046
law	-2047
bagatɔ	-2048
▁langue	-2049
▁siginin	-2050
▁Elles	-2051
▁aucune	-2052
kulu	-2053
iller	-2054
▁Be	-2055
user	-2056
▁Kal	-2057
tigiw	-2058
esse	-2059
uire	-2060
▁Lui	-2061
▁tant	-2062
▁cè	-2063
kuma	-2064
▁jati	-2065
mon	-2066
tice	-2067
▁fer	-2068
▁Wa	-2069
bari	-2070
▁amis	-2071
▁Adama	-2072
▁aller	-2073
▁façon	-2074
fè	-2075
▁bò	-2076
▁venir	-2077
▁feu	-2078
▁dix	-2079
▁yeux	-2080
agn	-2081
una	-2082
yant	-2083
▁Man	-2084
▁cent	-2085
▁mugan	-2086
▁dariya	-2087
▁grâce	-2088
▁dò	-2089
▁signi	-2090
bl	-2091
▁ass	-2092
▁kar	-2093
▁sait	-2094
▁Di	-2095
▁diffi	-2096
▁lumière	-2097
aff	-2098
arti	-2099
uses	-2100
▁45	-2101
▁fô	-2102
▁ɲam	-2103
▁Li	-2104
▁rɔ	-2105
wo	-2106
▁joie	-2107
▁Jo	-2108
▁fant	-2109
aso	-2110
▁por	-2111
▁dara	-2112
▁tɛna	-2113
▁porte	-2114
ress	-2115
▁tard	-2116
usufu	-2117
▁loo	-2118
▁loin	-2119
Ti	-2120
vient	-2121
fie	-2122
gues	-2123
▁ali	-2124
▁trop	-2125
▁étern	-2126
▁prin	-2127
▁soyez	-2128
cin	-2129
▁Où	-2130
encont	-2131
▁lamɛn	-2132
ec	-2133
gement	-2134
mbre	-2135
▁sen	-2136
▁guerre	-2137
▁pau	-2138
▁demande	-2139
▁aucun	-2140
▁gra	-2141
▁banbali	-2142
olom	-2143
▁dem	-2144
tan	-2145
vés	-2146
▁kak	-2147
▁Olu	-2148
▁sigiyɔrɔ	-2149
▁wolonwula	-2150
NA	-2151
▁Jac	-2152
hovah	-2153
▁Cependant	-2154
▁pie	-2155
moins	-2156
enfant	-2157
fɛnw	-2158
▁muru	-2159
quer	-2160
▁partout	-2161
yan	-2162
▁rendre	-2163
▁lafi	-2164
▁sœur	-2165
▁partie	-2166
▁ɲè	-2167
▁mobili	-2168
▁kà	-2169
▁compr	-2170
▁ag	-2171
▁tanu	-2172
▁duni	-2173
▁42	-2174
▁Gal	-2175
▁ham	-2176
qué	-2177
Ka	-2178
▁37	-2179
▁fon	-2180
▁paroles	-2181
main	-2182
▁Ayiwa	-2183
alité	-2184
ɛɛrɛ	-2185
kɛlaw	-2186
▁contin	-2187
▁:	-2188
▁réve	-2189
one	-2190
▁las	-2191
▁lɔnniya	-2192
▁all	-2193
▁tilan	-2194
▁minutes	-2195
tal	-2196
enus	-2197
tɔrɔ	-2198
▁nɔɔ	-2199
▁saint	-2200
▁fort	-2201
nous	-2202
gra	-2203
▁situ	-2204
▁faa	-2205
esprit	-2206
oû	-2207
▁39	-2208
RI	-2209
ele	-2210
▁Jéhovah	-2211
él	-2212
▁can	-2213
▁muɲ	-2214
resse	-2215
ɛrɛn	-2216
istoire	-2217
Mun	-2218
isation	-2219
▁compte	-2220
▁bat	-2221
▁préc	-2222
▁Search	-2223
▁face	-2224
▁belle	-2225
omi	-2226
iles	-2227
▁Isra	-2228
▁prom	-2229
▁tête	-2230
acun	-2231
▁kɔrɔt	-2232
▁im	-2233
▁dumu	-2234
issant	-2235
▁yɛlɛma	-2236
▁juste	-2237
▁péché	-2238
▁né	-2239
▁foro	-2240
▁pouvez	-2241
itude	-2242
▁soient	-2243
▁zuwifu	-2244
fois	-2245
▁sourire	-2246
anto	-2247
ingt	-2248
▁back	-2249
▁Ah	-2250
ALI	-2251
han	-2252
▁lɔgɔ	-2253
▁at	-2254
anni	-2255
uve	-2256
▁sept	-2257
rage	-2258
éné	-2259
illa	-2260
▁som	-2261
▁nour	-2262
ber	-2263
▁année	-2264
▁religi	-2265
fan	-2266
gara	-2267
▁Baa	-2268
??	-2269
▁Ç	-2270
▁Yusufu	-2271
oseph	-2272
▁produ	-2273
médi	-2274
▁sema	-2275
mun	-2276
ɔgɔnin	-2277
▁maloya	-2278
▁jou	-2279
vement	-2280
ly	-2281
temp	-2282
▁rapi	-2283
arrive	-2284
po	-2285
▁dor	-2286
▁Voici	-2287
▁naani	-2288
▁juguw	-2289
▁kɔfɛ	-2290
▁Après	-2291
rec	-2292
▁yɛn	-2293
▁lorsque	-2294
▁Koo	-2295
▁accomp	-2296
rir	-2297
isait	-2298
▁près	-2299
▁ge	-2300
ɔrɔnin	-2301
né	-2302
▁sifa	-2303
UN	-2304
▁char	-2305
▁parmi	-2306
▁adamadenw	-2307
son	-2308
▁bele	-2309
▁boli	-2310
▁chef	-2311
▁furent	-2312
▁mettre	-2313
lar	-2314
▁Ça	-2315
▁joli	-2316
▁Israël	-2317
où	-2318
▁Sy	-2319
mɛna	-2320
fuɛ	-2321
▁Sin	-2322
▁kin	-2323
▁vois	-2324
▁rencont	-2325
ilila	-2326
▁Alabatosoba	-2327
▁Royaume	-2328
▁gwɛrɛ	-2329
ner	-2330
▁duuru	-2331
▁faites	-2332
▁propos	-2333
▁LU	-2334
▁Tiɲɛ	-2335
▁trou	-2336
lée	-2337
▁sufɛ	-2338
enw	-2339
endra	-2340
gon	-2341
orter	-2342
Ayi	-2343
kali	-2344
ours	-2345
▁yôrô	-2346
▁perme	-2347
▁Joseph	-2348
▁sû	-2349
▁trouvé	-2350
▁ǹ	-2351
▁To	-2352
temps	-2353
dul	-2354
dɛ	-2355
éd	-2356
tra	-2357
▁As	-2358
▁LO	-2359
yɛri	-2360
éli	-2361
▁lanin	-2362
▁kali	-2363
▁sungu	-2364
mè	-2365
ros	-2366
▁kɔlɔ	-2367
▁sɛbɛn	-2368
▁wun	-2369
▁questions	-2370
jibi	-2371
▁bɛna	-2372
▁Su	-2373
▁Certa	-2374
rin	-2375
run	-2376
▁tò	-2377
▁fla	-2378
eff	-2379
▁Lo	-2380
guni	-2381
suite	-2382
Masaba	-2383
jigi	-2384
▁supp	-2385
▁domma	-2386
▁haali	-2387
▁import	-2388
▁Kan	-2389
▁how	-2390
▁bati	-2391
▁nations	-2392
opp	-2393
âge	-2394
ii	-2395
Abraham	-2396
▁commence	-2397
dè	-2398
air	-2399
tats	-2400
▁bɔyɔrɔ	-2401
▁ɲanagwɛ	-2402
▁36	-2403
▁kunbɛn	-2404
▁latigɛ	-2405
▁manière	-2406
onte	-2407
▁damin	-2408
ònò	-2409
▁crois	-2410
▁juguya	-2411
▁sè	-2412
▁tele	-2413
▁années	-2414
▁dirent	-2415
baa	-2416
kuru	-2417
▁arrivé	-2418
▁tasuma	-2419
▁gwɛ	-2420
▁voya	-2421
aie	-2422
▁he	-2423
▁nɔ	-2424
manɛ	-2425
cul	-2426
taw	-2427
▁..	-2428
dugu	-2429
▁danna	-2430
▁kongo	-2431
▁route	-2432
▁ɲakɔrɔ	-2433
▁première	-2434
ɔnɔ	-2435
▁000	-2436
▁Cette	-2437
▁regard	-2438
▁Ainsi	-2439
▁Ai	-2440
▁katu	-2441
▁seule	-2442
rie	-2443
▁Pas	-2444
▁Sere	-2445
▁habit	-2446
▁tɛmanɛ	-2447
▁Cɛ	-2448
▁ess	-2449
con	-2450
▁mourir	-2451
ome	-2452
▁teriw	-2453
▁filanan	-2454
▁nombreuses	-2455
▁Ye	-2456
ju	-2457
mar	-2458
▁ru	-2459
▁Zuda	-2460
kuba	-2461
mina	-2462
▁prép	-2463
▁janto	-2464
▁rece	-2465
ɲɔ	-2466
▁dali	-2467
étaient	-2468
leur	-2469
année	-2470
▁quit	-2471
▁partir	-2472
▁montagne	-2473
itié	-2474
▁nya	-2475
év	-2476
▁tag	-2477
mment	-2478
rant	-2479
▁tɛmɛna	-2480
▁servi	-2481
▁prophète	-2482
gnes	-2483
rise	-2484
▁din	-2485
Ma	-2486
chi	-2487
unes	-2488
voir	-2489
▁haut	-2490
▁dɔgɔtɔrɔ	-2491
▁id	-2492
▁Bien	-2493
ression	-2494
bila	-2495
vec	-2496
▁trouver	-2497
iron	-2498
▁San	-2499
▁Muso	-2500
▁fɛti	-2501
▁kurun	-2502
▁koɲuman	-2503
▁éternelle	-2504
▁ren	-2505
▁parlé	-2506
ayez	-2507
oupe	-2508
▁suma	-2509
▁Sisan	-2510
▁mains	-2511
▁demandé	-2512
aide	-2513
▁celle	-2514
▁tɛmɛn	-2515
▁div	-2516
▁beau	-2517
▁teliya	-2518
▁volonté	-2519
yen	-2520
▁Me	-2521
Allah	-2522
été	-2523
▁Du	-2524
▁mɔɔ	-2525
▁remp	-2526
Tiɲɛ	-2527
laire	-2528
▁serait	-2529
▁ro	-2530
enue	-2531
hana	-2532
aimer	-2533
▁fewu	-2534
rou	-2535
▁bol	-2536
▁sens	-2537
▁daf	-2538
▁dès	-2539
▁justice	-2540
gle	-2541
idé	-2542
lut	-2543
▁bl	-2544
èrement	-2545
▁cô	-2546
▁dét	-2547
▁temple	-2548
▁Hali	-2549
▁dimi	-2550
▁lɛ	-2551
▁sɔɔ	-2552
▁mess	-2553
▁tilennin	-2554
▁Saan	-2555
▁ve	-2556
▁xa	-2557
▁sab	-2558
ses	-2559
▁vue	-2560
oun	-2561
isogo	-2562
▁reçu	-2563
▁perdu	-2564
▁passer	-2565
▁and	-2566
▁môgô	-2567
▁pourrait	-2568
▁̀	-2569
▁Pers	-2570
▁cinq	-2571
▁disant	-2572
▁longtemps	-2573
▁mbe	-2574
onner	-2575
▁bɛɛn	-2576
▁méde	-2577
▁but	-2578
▁fun	-2579
▁47	-2580
▁vin	-2581
térieur	-2582
sez	-2583
▁Ses	-2584
▁kôn	-2585
ances	-2586
▁nɔgɔnin	-2587
▁Ou	-2588
▁connu	-2589
▁entend	-2590
occu	-2591
arisi	-2592
▁seko	-2593
▁droit	-2594
▁commencé	-2595
:11	-2596
▁Ta	-2597
▁wɔ	-2598
▁LUKA	-2599
▁41	-2600
isés	-2601
▁men	-2602
▁fura	-2603
▁Kit	-2604
▁ref	-2605
▁kònò	-2606
▁régi	-2607
▁publi	-2608
▁rester	-2609
alo	-2610
▁kɛla	-2611
▁sages	-2612
▁kalanden	-2613
:5	-2614
▁end	-2615
▁para	-2616
oign	-2617
▁gén	-2618
▁tri	-2619
ɔnin	-2620
▁sacri	-2621
▁mɔgɔba	-2622
▁Bo	-2623
dayi	-2624
▁banna	-2625
ision	-2626
▁ord	-2627
▁Parce	-2628
▁raison	-2629
yɔn	-2630
▁chacun	-2631
amp	-2632
inte	-2633
▁MATI	-2634
▁connais	-2635
atan	-2636
rier	-2637
▁mau	-2638
ilité	-2639
▁pieds	-2640
teur	-2641
▁Peut	-2642
▁voie	-2643
iter	-2644
▁wilila	-2645
▁60	-2646
▁mɛ	-2647
▁MATIY	-2648
▁Sara	-2649
▁sort	-2650
▁bonya	-2651
ook	-2652
▁Eh	-2653
oivent	-2654
▁Baara	-2655
issement	-2656
▁!"	-2657
▁Eli	-2658
écoute	-2659
▁sacrifi	-2660
▁hu	-2661
5.	-2662
▁ò	-2663
▁kɛwa	-2664
▁télé	-2665
▁miiriya	-2666
▁rue	-2667
▁dɛsɛ	-2668
▁NO	-2669
are	-2670
dent	-2671
mani	-2672
lez	-2673
▁cul	-2674
fo	-2675
cité	-2676
▁boire	-2677
inc	-2678
▁kudayi	-2679
▁prière	-2680
lɔn	-2681
▁Jama	-2682
ansi	-2683
▁farisogo	-2684
▁gɛrɛ	-2685
▁Quels	-2686
op	-2687
▁bla	-2688
▁réc	-2689
tation	-2690
▁savait	-2691
pu	-2692
off	-2693
▁Wo	-2694
▁déf	-2695
▁mauvais	-2696
èlè	-2697
▁voix	-2698
ah	-2699
▁kini	-2700
▁Samari	-2701
▁kɔlɔsi	-2702
cles	-2703
ième	-2704
▁Yah	-2705
▁int	-2706
▁pan	-2707
▁conf	-2708
▁maître	-2709
▁MATIYO	-2710
▁lorsqu	-2711
▁chi	-2712
▁yɔrɔnin	-2713
lation	-2714
▁existe	-2715
sɔn	-2716
yons	-2717
▁new	-2718
▁wɔɔrɔ	-2719
gɛrɛ	-2720
▁sol	-2721
▁signifie	-2722
ach	-2723
tis	-2724
tée	-2725
▁viv	-2726
ƆL	-2727
▁Piyɛri	-2728
▁vivre	-2729
▁nombreux	-2730
▁pourtant	-2731
ONI	-2732
don	-2733
▁cru	-2734
▁sép	-2735
mir	-2736
▁lè	-2737
▁sanji	-2738
▁petits	-2739
▁hakilitigiya	-2740
gence	-2741
▁conse	-2742
▁faisait	-2743
▁^	-2744
▁sɔ̃	-2745
▁sinɔgɔ	-2746
toi	-2747
kasi	-2748
▁nih	-2749
▁batize	-2750
▁chan	-2751
anté	-2752
ètes	-2753
▁mira	-2754
▁suuw	-2755
aimerais	-2756
▁réal	-2757
informa	-2758
baya	-2759
itre	-2760
ll	-2761
util	-2762
▁Lun	-2763
ences	-2764
▁kuru	-2765
▁kɔnɔn	-2766
▁kanubaga	-2767
fri	-2768
▁alu	-2769
▁devez	-2770
▁soon	-2771
▁meill	-2772
▁continu	-2773
riez	-2774
espère	-2775
nement	-2776
▁aimés	-2777
hab	-2778
▁rè	-2779
ciens	-2780
▁Alla	-2781
espoir	-2782
▁Yakuba	-2783
▁villes	-2784
▁prêtres	-2785
▁labɛnnin	-2786
▁dibi	-2787
▁voud	-2788
lique	-2789
▁retr	-2790
kɔrɔbaw	-2791
▁X	-2792
▁toun	-2793
ueil	-2794
▁val	-2795
▁foule	-2796
▁déclar	-2797
▁ɲanaman	-2798
bana	-2799
▁gwan	-2800
▁image	-2801
▁vingt	-2802
zu	-2803
ƆLƆ	-2804
ables	-2805
▁Juda	-2806
▁serviteur	-2807
ira	-2808
elli	-2809
▁mur	-2810
▁dira	-2811
▁wula	-2812
▁kal	-2813
▁indi	-2814
issait	-2815
▁concer	-2816
▁Pro	-2817
mêmes	-2818
▁décla	-2819
▁ɲinina	-2820
isme	-2821
▁kis	-2822
▁lagi	-2823
▁kinibolo	-2824
▁puissance	-2825
tro	-2826
mata	-2827
▁kari	-2828
▁muɲu	-2829
isième	-2830
ood	-2831
▁Lorsque	-2832
▁œu	-2833
▁Mes	-2834
▁delila	-2835
▁esprit	-2836
ɔri	-2837
▁Jɔn	-2838
▁bois	-2839
inan	-2840
▁Mer	-2841
après	-2842
▁déci	-2843
▁serez	-2844
▁miniti	-2845
▁dɔnkili	-2846
men	-2847
▁kolo	-2848
▁procha	-2849
▁propre	-2850
écess	-2851
erreur	-2852
▁pain	-2853
▁tòòrò	-2854
▁croire	-2855
ƐR	-2856
▁49	-2857
▁sad	-2858
▁crain	-2859
bes	-2860
▁yu	-2861
▁musow	-2862
NAF	-2863
▁KUN	-2864
▁sir	-2865
▁plut	-2866
▁aider	-2867
▁48	-2868
ƐRƐW	-2869
NAFONI	-2870
▁WƐRƐW	-2871
▁KUNNAFONI	-2872
▁mògòw	-2873
▁devait	-2874
▁médecin	-2875
dam	-2876
▁Ro	-2877
▁inc	-2878
▁daga	-2879
▁layi	-2880
▁ladili	-2881
▁sarakalasebagaw	-2882
vɛn	-2883
chez	-2884
▁blo	-2885
▁gwɛn	-2886
équ	-2887
▁sp	-2888
aati	-2889
▁sûr	-2890
ateur	-2891
êtres	-2892
▁plaît	-2893
olution	-2894
▁commandement	-2895
die	-2896
Ayiwa	-2897
▁mots	-2898
▁jeunes	-2899
▁yeelen	-2900
dɔ	-2901
▁Th	-2902
▁br	-2903
heur	-2904
▁envers	-2905
▁savons	-2906
ak	-2907
tri	-2908
ouse	-2909
▁fra	-2910
▁sogo	-2911
▁fɛtiw	-2912
▁contra	-2913
▁sauver	-2914
▁troisième	-2915
orts	-2916
roit	-2917
▁jira	-2918
▁généra	-2919
▁dernier	-2920
liw	-2921
▁kòrò	-2922
▁rapidement	-2923
KI	-2924
▁fran	-2925
▁faran	-2926
▁surun	-2927
▁baaraden	-2928
▁anges	-2929
▁villa	-2930
▁kuntigiw	-2931
50	-2932
hɔn	-2933
sit	-2934
aider	-2935
▁mange	-2936
▁mille	-2937
oc	-2938
appe	-2939
▁Cor	-2940
▁compris	-2941
aron	-2942
▁buru	-2943
ene	-2944
gés	-2945
▁sep	-2946
▁deuxième	-2947
▁•	-2948
▁Ga	-2949
▁Kun	-2950
▁anima	-2951
▁libre	-2952
▁pɛrɛn	-2953
▁exemple	-2954
inté	-2955
▁wee	-2956
▁Jacob	-2957
▁bas	-2958
▁Kitabu	-2959
▁demander	-2960
mages	-2961
oubli	-2962
▁condu	-2963
▁force	-2964
:27	-2965
▁46	-2966
ende	-2967
▁Ces	-2968
▁rac	-2969
▁lamini	-2970
▁nécess	-2971
kura	-2972
▁Masaya	-2973
▁halibi	-2974
▁cl	-2975
▁pop	-2976
▁jurumu	-2977
▁Maintenant	-2978
RƆ	-2979
ss	-2980
lir	-2981
▁côté	-2982
baliya	-2983
▁Quelles	-2984
▁jaabili	-2985
masi	-2986
▁Anw	-2987
▁ami	-2988
▁mem	-2989
▁mit	-2990
▁gɛrɛfɛ	-2991
▁segira	-2992
▁cu	-2993
▁Jud	-2994
▁connaître	-2995
▁Luc	-2996
▁aband	-2997
▁olugu	-2998
▁Personne	-2999
▁connaissance	-3000
kala	-3001
bagaya	-3002
ree	-3003
alom	-3004
▁sugu	-3005
▁sanni	-3006
▁plutôt	-3007
▁pouvait	-3008
▁somɔgɔw	-3009
▁Pɔli	-3010
▁mise	-3011
▁répon	-3012
▁combat	-3013
▁denmisɛnw	-3014
tat	-3015
▁Fɛɛn	-3016
▁kélé	-3017
▁arrive	-3018
▁recher	-3019
▁mariage	-3020
▁»	-3021
▁Parole	-3022
ode	-3023
▁70	-3024
▁pol	-3025
▁kunu	-3026
▁sent	-3027
▁gouver	-3028
▁bâ	-3029
lenw	-3030
▁1:1	-3031
laient	-3032
▁apprendre	-3033
dit	-3034
usi	-3035
cs	-3036
▁jɛ	-3037
▁garde	-3038
▁Pourtant	-3039
▁appelé	-3040
▁doivent	-3041
éric	-3042
▁ait	-3043
Égypte	-3044
▁suman	-3045
▁wajibi	-3046
▁ple	-3047
▁sɔbɛ	-3048
▁demanda	-3049
▁44	-3050
rence	-3051
ignement	-3052
MU	-3053
▁sole	-3054
aujourd	-3055
▁Isi	-3056
belen	-3057
▁princip	-3058
▁«	-3059
▁bô	-3060
▁pra	-3061
▁Avec	-3062
▁kèra	-3063
▁Marie	-3064
▁somme	-3065
▁dusukasi	-3066
uro	-3067
ctions	-3068
▁seegi	-3069
▁soleil	-3070
▁tagama	-3071
▁milliers	-3072
▁1:	-3073
▁tum	-3074
▁Plus	-3075
▁sourit	-3076
▁humains	-3077
baliw	-3078
▁siranna	-3079
EU	-3080
lis	-3081
▁tig	-3082
▁péri	-3083
▁serai	-3084
ron	-3085
▁yoo	-3086
▁dabila	-3087
▁milieu	-3088
▁nourriture	-3089
ourou	-3090
▁sɔnna	-3091
écu	-3092
▁gbɛ	-3093
▁Ɔrɔ	-3094
▁lakali	-3095
▁descend	-3096
▁katuguni	-3097
▁difficile	-3098
ilà	-3099
RƆMU	-3100
▁Deen	-3101
▁ƆRƆMU	-3102
▁déclaré	-3103
▁zuwifuw	-3104
▁disaient	-3105
▁ƆRƆMUKAW	-3106
▁woro	-3107
▁voulu	-3108
▁disait	-3109
▁saban	-3110
▁langues	-3111
▁karamɔgɔ	-3112
▁Aoû	-3113
▁six	-3114
▁jɔɔn	-3115
▁dilan	-3116
excuser	-3117
▁Pierre	-3118
▁dusukun	-3119
▁Nu	-3120
cteur	-3121
▁revi	-3122
▁dougou	-3123
yer	-3124
fɔlɔ	-3125
▁mesu	-3126
▁ɲininka	-3127
▁kw	-3128
▁kô	-3129
▁lit	-3130
▁Arɔn	-3131
▁gafe	-3132
▁ala	-3133
▁Dani	-3134
▁yeli	-3135
▁enseign	-3136
up	-3137
▁mak	-3138
▁tɔn	-3139
▁pauvres	-3140
▁Bar	-3141
▁exc	-3142
▁popula	-3143
▁<	-3144
iens	-3145
▁Bab	-3146
▁meur	-3147
Si	-3148
▁bee	-3149
▁chefs	-3150
▁cours	-3151
ast	-3152
unu	-3153
▁fl	-3154
assi	-3155
▁sagesse	-3156
▁Cɛɛ	-3157
▁lah	-3158
masiɲɛ	-3159
▁kɛnɛya	-3160
▁Abraham	-3161
-1	-3162
En	-3163
enait	-3164
▁siyaw	-3165
rons	-3166
▁3:1	-3167
▁devons	-3168
▁Pr	-3169
▁Ɔrɔmu	-3170
▁bolila	-3171
▁nal	-3172
▁mogo	-3173
▁sani	-3174
ect	-3175
▁st	-3176
manan	-3177
▁créé	-3178
▁sanu	-3179
rection	-3180
▁péchés	-3181
histoire	-3182
▁considé	-3183
▁kɔrɔtanin	-3184
IKAW	-3185
▁har	-3186
▁café	-3187
eni	-3188
▁Kɛ	-3189
gine	-3190
▁duvɛn	-3191
▁serviteurs	-3192
▁Is	-3193
▁bad	-3194
▁rou	-3195
▁veu	-3196
▁conc	-3197
▁témoi	-3198
▁aurait	-3199
▁tes	-3200
chant	-3201
yɔrɔw	-3202
méri	-3203
▁fru	-3204
▁éle	-3205
avenir	-3206
▁environ	-3207
nis	-3208
olé	-3209
▁Emi	-3210
▁béné	-3211
▁faaw	-3212
▁mili	-3213
▁réjou	-3214
▁sigɛn	-3215
▁souvent	-3216
▁Ré	-3217
▁dév	-3218
tiques	-3219
▁bouche	-3220
̀n	-3221
▁jeu	-3222
▁Bana	-3223
ɛnŋ	-3224
isir	-3225
juguw	-3226
▁vont	-3227
▁constru	-3228
▁cependant	-3229
kɛnɛ	-3230
▁Don	-3231
▁mùn	-3232
▁ouv	-3233
▁étran	-3234
once	-3235
orma	-3236
minin	-3237
▁sari	-3238
▁parfa	-3239
▁ɲamɔgɔ	-3240
▁pourrais	-3241
pô	-3242
▁dji	-3243
▁lar	-3244
avaient	-3245
▁certains	-3246
arer	-3247
▁siè	-3248
▁jɛni	-3249
emis	-3250
inqui	-3251
▁écou	-3252
▁ɲɛfɔ	-3253
▁kɔngɔ	-3254
▁kanbelen	-3255
ici	-3256
mez	-3257
▁maga	-3258
▁yèrèw	-3259
gie	-3260
réti	-3261
veur	-3262
truire	-3263
▁Kalan	-3264
▁fanan	-3265
▁sabanan	-3266
▁colère	-3267
▁grands	-3268
▁kɔrɔta	-3269
▁ressus	-3270
▁pouvons	-3271
▁semaine	-3272
▁comprendre	-3273
fié	-3274
oru	-3275
tés	-3276
biri	-3277
▁inté	-3278
▁vête	-3279
▁Ab	-3280
média	-3281
▁Ceux	-3282
▁Kuma	-3283
▁dege	-3284
▁sanfɛ	-3285
oque	-3286
▁cra	-3287
▁fête	-3288
▁delili	-3289
mait	-3290
entrer	-3291
▁appris	-3292
▁mɔgɔɲɔgɔn	-3293
">	-3294
▁="	-3295
chent	-3296
essus	-3297
ɛnŋɛlɛ	-3298
▁prend	-3299
▁riche	-3300
▁sɔrɔla	-3301
tilennin	-3302
▁fantanw	-3303
▁pho	-3304
▁daan	-3305
▁fera	-3306
▁tanga	-3307
▁jigira	-3308
▁Yɛnŋɛlɛ	-3309
▁/	-3310
llez	-3311
▁mɛɛn	-3312
▁donnée	-3313
lin	-3314
▁sc	-3315
miɛn	-3316
Matigi	-3317
▁Allah	-3318
▁santé	-3319
▁situation	-3320
antes	-3321
ût	-3322
▁wɛ	-3323
honn	-3324
entôt	-3325
▁prêtre	-3326
adore	-3327
▁boon	-3328
▁lɔra	-3329
▁siranya	-3330
▁Certains	-3331
▁kil	-3332
▁Ɛ	-3333
▁pat	-3334
▁wan	-3335
▁site	-3336
▁sôrô	-3337
▁prophètes	-3338
▁43	-3339
▁enn	-3340
▁semb	-3341
cal	-3342
édé	-3343
▁reti	-3344
▁prise	-3345
▁sorte	-3346
▁travers	-3347
ɛti	-3348
urité	-3349
ot	-3350
▁bataki	-3351
AR	-3352
US	-3353
çons	-3354
▁Loi	-3355
▁dieu	-3356
▁kumaw	-3357
▁nigɛ	-3358
▁assez	-3359
▁bange	-3360
▁seere	-3361
▁revenir	-3362
30	-3363
uya	-3364
▁Nom	-3365
▁religion	-3366
▁wolom	-3367
▁farati	-3368
▁mɛlɛkɛw	-3369
▁ensemble	-3370
we	-3371
péci	-3372
▁gard	-3373
▁vivant	-3374
▁tand	-3375
▁jumɛnw	-3376
▁sunguru	-3377
ES	-3378
▁nà	-3379
illez	-3380
▁sɛgɛrɛ	-3381
tent	-3382
tugu	-3383
▁Zoo	-3384
ordre	-3385
▁bonheur	-3386
gée	-3387
▁been	-3388
▁bɔsi	-3389
▁pois	-3390
importe	-3391
▁duniya	-3392
nen	-3393
tɔn	-3394
œil	-3395
▁How	-3396
▁suiv	-3397
yst	-3398
ɔti	-3399
▁Tou	-3400
▁adul	-3401
▁cidenw	-3402
▁filles	-3403
▁groupe	-3404
▁unique	-3405
▁étions	-3406
VE	-3407
onnes	-3408
▁year	-3409
angile	-3410
▁&	-3411
▁faim	-3412
▁juga	-3413
▁siri	-3414
▁Merci	-3415
▁petite	-3416
bun	-3417
▁bw	-3418
▁mou	-3419
appel	-3420
sions	-3421
▁chois	-3422
▁nation	-3423
▁sortir	-3424
vité	-3425
▁laga	-3426
▁reconn	-3427
▁nz	-3428
ident	-3429
▁Donc	-3430
▁kele	-3431
antage	-3432
kalase	-3433
▁tellement	-3434
aan	-3435
ero	-3436
este	-3437
▁tilenninya	-3438
anci	-3439
▁Eso	-3440
▁kas	-3441
▁droite	-3442
juli	-3443
▁Syn	-3444
▁kpa	-3445
aband	-3446
▁ouver	-3447
▁spéci	-3448
▁représ	-3449
atta	-3450
▁kaa	-3451
▁majigi	-3452
médiatement	-3453
▁ferai	-3454
arisiens	-3455
▁Denkè	-3456
▁ciden	-3457
▁Pa	-3458
bien	-3459
▁anu	-3460
utana	-3461
▁filè	-3462
▁Aaron	-3463
▁yaala	-3464
▁denbaya	-3465
Qu	-3466
▁cri	-3467
▁sis	-3468
▁ɲafɛ	-3469
▁ayant	-3470
▁senti	-3471
▁layidu	-3472
▁kununna	-3473
▁kojuguba	-3474
▁voudrais	-3475
▁témoins	-3476
▁mat	-3477
▁pye	-3478
▁Tuma	-3479
Masacɛ	-3480
▁regar	-3481
▁Masacɛ	-3482
▁ennemis	-3483
▁prochain	-3484
rém	-3485
▁,"	-3486
gage	-3487
▁Vie	-3488
▁ayi	-3489
▁fidè	-3490
▁étant	-3491
▁malade	-3492
▁entendre	-3493
tenir	-3494
▁biri	-3495
anmiɛn	-3496
▁Pendant	-3497
▁gwɛrɛla	-3498
▁warigwɛ	-3499
tie	-3500
▁2012	-3501
▁diɲè	-3502
▁bientôt	-3503
▁message	-3504
▁vit	-3505
▁étu	-3506
▁lonan	-3507
▁humain	-3508
▁miséric	-3509
fara	-3510
▁Roi	-3511
▁yii	-3512
▁Matt	-3513
▁sebagaya	-3514
dis	-3515
eri	-3516
onni	-3517
▁KƐW	-3518
▁réf	-3519
▁Sinji	-3520
▁honte	-3521
▁lafiɲɛ	-3522
▁plaisir	-3523
vu	-3524
▁$	-3525
osé	-3526
sie	-3527
▁(2	-3528
écri	-3529
▁Fait	-3530
▁MARI	-3531
wɔ	-3532
ura	-3533
...]	-3534
ALIW	-3535
baro	-3536
dire	-3537
raign	-3538
▁hami	-3539
▁prie	-3540
▁KƐWALIW	-3541
culi	-3542
baara	-3543
▁assis	-3544
▁résul	-3545
▁--	-3546
▁Ji	-3547
▁Bet	-3548
▁Misi	-3549
▁sœurs	-3550
▁annonc	-3551
▁kabakuru	-3552
gati	-3553
illé	-3554
elopp	-3555
▁fond	-3556
▁nata	-3557
▁mêmes	-3558
▁kaburu	-3559
▁permet	-3560
▁ensuite	-3561
▁répondre	-3562
lɛn	-3563
medi	-3564
▁yeo	-3565
reuve	-3566
▁bout	-3567
Egypte	-3568
quelle	-3569
accompl	-3570
▁kɔniya	-3571
ènw	-3572
▁sois	-3573
▁yanni	-3574
itement	-3575
jo	-3576
▁Yes	-3577
▁nax	-3578
bagatɔw	-3579
▁demeure	-3580
▁service	-3581
▁safe	-3582
itions	-3583
▁tugunni	-3584
▁particuli	-3585
9.	-3586
▁ɔn	-3587
mini	-3588
onde	-3589
▁aide	-3590
▁disc	-3591
▁lala	-3592
▁ohun	-3593
▁MARIKI	-3594
▁chréti	-3595
▁connaiss	-3596
▁ɛ	-3597
semb	-3598
yôrô	-3599
▁mɛnna	-3600
▁kɛlɛdenw	-3601
endez	-3602
▁autant	-3603
▁Nin	-3604
▁kaam	-3605
tigiya	-3606
▁ɲamɔgɔw	-3607
:)	-3608
IL	-3609
uie	-3610
▁tere	-3611
▁Esprit	-3612
lô	-3613
▁liv	-3614
.....	-3615
teurs	-3616
ɔrɔnya	-3617
▁nɛɛma	-3618
éro	-3619
▁mii	-3620
▁try	-3621
▁yala	-3622
▁voici	-3623
▁jumanw	-3624
:17	-3625
réci	-3626
▁“	-3627
usé	-3628
▁Vo	-3629
aran	-3630
buru	-3631
▁free	-3632
▁condam	-3633
▁mesure	-3634
▁immédiatement	-3635
ret	-3636
lons	-3637
▁dest	-3638
▁pous	-3639
▁farikolo	-3640
▁aa	-3641
ires	-3642
▁tent	-3643
érance	-3644
▁Sutana	-3645
▁daminè	-3646
▁jugement	-3647
▁laquelle	-3648
ctu	-3649
mas	-3650
orde	-3651
▁Jour	-3652
▁LOVE	-3653
▁serv	-3654
▁région	-3655
▁voulait	-3656
elligence	-3657
▁kanubagaw	-3658
tez	-3659
▁it	-3660
òròn	-3661
▁!!!	-3662
▁lou	-3663
blème	-3664
ɲɛntɔ	-3665
▁leva	-3666
▁dormir	-3667
▁dafanin	-3668
image	-3669
▁duba	-3670
▁autour	-3671
▁appelés	-3672
▁198	-3673
▁1:2	-3674
▁mɔn	-3675
▁yin	-3676
▁poser	-3677
▁habitants	-3678
▁mot	-3679
▁rois	-3680
▁escla	-3681
oyez	-3682
▁Dis	-3683
▁lettre	-3684
▁saints	-3685
▁han	-3686
▁four	-3687
▁kôrô	-3688
▁port	-3689
▁voit	-3690
enseignement	-3691
arrê	-3692
▁allé	-3693
▁méch	-3694
▁lɔnin	-3695
▁Mariya	-3696
▁contraire	-3697
Et	-3698
mons	-3699
▁niin	-3700
▁Matth	-3701
▁Toute	-3702
▁sauvé	-3703
▁commun	-3704
▁kitabu	-3705
appelait	-3706
urrection	-3707
oura	-3708
▁lim	-3709
▁mèn	-3710
▁sub	-3711
▁tin	-3712
▁tris	-3713
▁manif	-3714
▁animaux	-3715
▁Matthieu	-3716
IR	-3717
Cɛɛ	-3718
lam	-3719
sin	-3720
▁ras	-3721
▁kwla	-3722
ude	-3723
énè	-3724
▁Dan	-3725
▁balo	-3726
▁cham	-3727
▁kɔgɔ	-3728
▁prêt	-3729
▁sama	-3730
▁Terre	-3731
▁entier	-3732
▁membres	-3733
▁yoro	-3734
▁kɔsegira	-3735
▁wolomanin	-3736
lò	-3737
isiw	-3738
Sisan	-3739
▁2017	-3740
▁arrê	-3741
▁plan	-3742
▁sran	-3743
▁écri	-3744
▁begɛn	-3745
▁Galile	-3746
▁village	-3747
▁oh	-3748
▁nim	-3749
▁oubli	-3750
▁parta	-3751
EN	-3752
▁joo	-3753
mation	-3754
▁savais	-3755
asy	-3756
▁ZAN	-3757
▁dimanche	-3758
▁problème	-3759
dan	-3760
Mais	-3761
▁[...]	-3762
▁baden	-3763
▁nature	-3764
▁naissance	-3765
:6	-3766
asion	-3767
▁enti	-3768
▁pres	-3769
▁règne	-3770
▁devenu	-3771
tɛ	-3772
orté	-3773
yana	-3774
▁taba	-3775
▁minan	-3776
▁nzila	-3777
▁trent	-3778
duction	-3779
▁Ɲanmiɛn	-3780
▁convient	-3781
kɔli	-3782
▁ari	-3783
▁gen	-3784
▁pati	-3785
▁consul	-3786
▁sigira	-3787
tun	-3788
orer	-3789
teau	-3790
▁ɲɛɛ	-3791
▁Mali	-3792
▁dije	-3793
aurais	-3794
▁Zoova	-3795
▁nouvelles	-3796
soci	-3797
vier	-3798
▁tué	-3799
▁aimer	-3800
▁chant	-3801
▁kɔrɔbɔ	-3802
▁familles	-3803
▁ʻ	-3804
▁kɑ	-3805
▁suff	-3806
▁choix	-3807
▁dannaya	-3808
▁Ci	-3809
▁Cana	-3810
▁créa	-3811
▁galon	-3812
sigi	-3813
▁bɔnɛ	-3814
▁douze	-3815
▁salut	-3816
▁fiɲɛntɔ	-3817
wan	-3818
gnan	-3819
▁jin	-3820
yanin	-3821
▁ɲinɛ	-3822
MA	-3823
indre	-3824
▁kafe	-3825
▁aimez	-3826
▁entra	-3827
▁craign	-3828
▁produit	-3829
▁bin	-3830
▁kid	-3831
école	-3832
▁baro	-3833
▁bles	-3834
▁kale	-3835
▁karan	-3836
énèbres	-3837
▁demand	-3838
lés	-3839
élè	-3840
yasi	-3841
▁âgé	-3842
▁jɛnkulu	-3843
▁reconna	-3844
arr	-3845
nago	-3846
vantage	-3847
▁Quelle	-3848
intérieur	-3849
▁baptisés	-3850
bas	-3851
ctes	-3852
eter	-3853
fari	-3854
▁law	-3855
▁bord	-3856
années	-3857
Unis	-3858
ayer	-3859
▁Galil	-3860
▁vêtements	-3861
▁;	-3862
dɛn	-3863
raw	-3864
▁Bon	-3865
▁Isa	-3866
cture	-3867
orité	-3868
ussit	-3869
▁diri	-3870
▁lève	-3871
▁davantage	-3872
Ale	-3873
▁Là	-3874
enya	-3875
esti	-3876
▁chev	-3877
▁Dɔɔni	-3878
▁marche	-3879
yɛrɛ	-3880
épée	-3881
▁bhi	-3882
▁fal	-3883
▁arti	-3884
▁good	-3885
▁lati	-3886
▁répondu	-3887
xe	-3888
▁rô	-3889
▁création	-3890
▁fɔlɔfɔlɔ	-3891
▁ténèbres	-3892
yɛlɛ	-3893
▁baji	-3894
ɲɔgɔnw	-3895
▁change	-3896
▁synago	-3897
▁travailler	-3898
:10	-3899
▁ang	-3900
conque	-3901
origine	-3902
crit	-3903
▁nak	-3904
▁soci	-3905
▁kɔnɔna	-3906
▁connaissent	-3907
▁Ô	-3908
sons	-3909
▁prit	-3910
▁révé	-3911
▁prier	-3912
▁resté	-3913
▁pouvais	-3914
▁tɛmɛnin	-3915
aba	-3916
guè	-3917
▁Lé	-3918
gers	-3919
lili	-3920
▁boo	-3921
▁soi	-3922
▁yee	-3923
▁dabi	-3924
▁déli	-3925
excuse	-3926
▁Satan	-3927
▁suivant	-3928
ute	-3929
▁bro	-3930
▁maa	-3931
vangile	-3932
▁duniɲa	-3933
▁simplement	-3934
ilɛ	-3935
fiés	-3936
zare	-3937
▁cal	-3938
▁fen	-3939
▁iru	-3940
épreuve	-3941
▁preuve	-3942
pr	-3943
xt	-3944
▁Yu	-3945
▁occ	-3946
▁piè	-3947
▁Fili	-3948
▁Rome	-3949
▁senuman	-3950
▁Aimez	-3951
▁pitié	-3952
▁tombe	-3953
▁proche	-3954
▁différentes	-3955
faga	-3956
lati	-3957
rière	-3958
▁détru	-3959
enfants	-3960
▁quelle	-3961
▁mɔgɔtilennin	-3962
bon	-3963
▁fai	-3964
▁woo	-3965
istes	-3966
▁mila	-3967
▁week	-3968
▁recherche	-3969
1.	-3970
bee	-3971
▁zi	-3972
▁Toi	-3973
Homme	-3974
eligi	-3975
tembre	-3976
▁Jamana	-3977
umanbolo	-3978
▁lajɛnnin	-3979
OU	-3980
▁2-	-3981
▁kanw	-3982
Église	-3983
▁disent	-3984
▁lookin	-3985
▁faisons	-3986
▁waajuli	-3987
▁témoigna	-3988
gné	-3989
mèn	-3990
▁exac	-3991
▁laba	-3992
▁prix	-3993
lément	-3994
▁caman	-3995
▁demain	-3996
▁respec	-3997
▁kongokolon	-3998
ed	-3999
ède	-4000
▁7.	-4001
quel	-4002
▁maladie	-4003
10	-4004
Le	-4005
gè	-4006
zar	-4007
éré	-4008
fier	-4009
écou	-4010
▁bus	-4011
escla	-4012
▁tôgô	-4013
▁appar	-4014
▁duguw	-4015
▁rendu	-4016
▁désert	-4017
▁Beaucoup	-4018
▁abandonné	-4019
▁juge	-4020
▁yòrò	-4021
rement	-4022
inement	-4023
impression	-4024
▁Ri	-4025
▁croy	-4026
▁vidé	-4027
▁ninnu	-4028
▁États	-4029
ell	-4030
inf	-4031
étu	-4032
onnés	-4033
▁nama	-4034
▁chair	-4035
▁permis	-4036
▁utiliser	-4037
▁important	-4038
ales	-4039
▁Ver	-4040
▁may	-4041
illet	-4042
▁9:27	-4043
▁Miis	-4044
▁Minw	-4045
▁croient	-4046
▁commencement	-4047
?›	-4048
▁Co	-4049
alan	-4050
▁tol	-4051
quent	-4052
▁fuun	-4053
▁post	-4054
▁forme	-4055
▁verre	-4056
▁Walima	-4057
▁arriver	-4058
Ar	-4059
aise	-4060
▁Abi	-4061
▁stu	-4062
▁prob	-4063
▁naloman	-4064
▁taamasiɲɛ	-4065
▁cir	-4066
▁inf	-4067
▁caya	-4068
▁tuun	-4069
▁accep	-4070
▁pères	-4071
▁MiisKa	-4072
▁riches	-4073
▁anciens	-4074
vis	-4075
▁sta	-4076
▁Lorsqu	-4077
▁sac	-4078
erres	-4079
onnez	-4080
▁Timo	-4081
▁médi	-4082
▁signe	-4083
▁êtres	-4084
honneur	-4085
érience	-4086
▁miiran	-4087
▁kumakan	-4088
▁viendra	-4089
jus	-4090
▁Dé	-4091
ctif	-4092
gner	-4093
▁bru	-4094
▁tex	-4095
▁ɲɛn	-4096
▁denmis	-4097
:7	-4098
▁#	-4099
▁Oh	-4100
équi	-4101
ination	-4102
▁accord	-4103
▁kalifa	-4104
▁niyɔrɔ	-4105
▁particip	-4106
ƐN	-4107
euf	-4108
▁taw	-4109
itigɛ	-4110
▁FƆLƆ	-4111
▁yera	-4112
dio	-4113
foni	-4114
▁Mal	-4115
▁naan	-4116
▁tɛrɛ	-4117
▁peine	-4118
▁laisse	-4119
▁pierre	-4120
▁trente	-4121
▁murujan	-4122
▁développ	-4123
▁Gu	-4124
▁Jus	-4125
▁tau	-4126
▁tel	-4127
▁2013	-4128
▁numé	-4129
cience	-4130
univers	-4131
ussitôt	-4132
▁foroba	-4133
hn	-4134
wɛ	-4135
ɲi	-4136
sui	-4137
tit	-4138
▁is	-4139
chée	-4140
▁Mògò	-4141
▁invit	-4142
▁bonnes	-4143
▁manifest	-4144
▁el	-4145
dafɛ	-4146
onnon	-4147
▁blan	-4148
dessus	-4149
▁frapp	-4150
▁sauve	-4151
▁Religi	-4152
▁laissé	-4153
▁prières	-4154
dou	-4155
▁Jon	-4156
ansan	-4157
ongon	-4158
waati	-4159
▁soow	-4160
▁yere	-4161
▁profond	-4162
▁commande	-4163
aac	-4164
abɔ	-4165
ages	-4166
midi	-4167
▁age	-4168
▁cam	-4169
armée	-4170
▁Ceci	-4171
▁yeri	-4172
▁Mɔgɔw	-4173
▁viens	-4174
▁pauvre	-4175
▁résurrection	-4176
vie	-4177
▁2"	-4178
▁mɔ̀	-4179
▁âme	-4180
▁gros	-4181
▁ladi	-4182
▁meilleur	-4183
▁recevoir	-4184
pit	-4185
▁Yo	-4186
▁Bɛɛ	-4187
▁fèn	-4188
▁vas	-4189
▁amour	-4190
▁sanin	-4191
▁conséqu	-4192
▁pé	-4193
titu	-4194
iriya	-4195
▁Même	-4196
▁malɔ	-4197
inalement	-4198
▁Mariyamu	-4199
mm	-4200
xɔ	-4201
ɔbu	-4202
▁bɑ	-4203
érie	-4204
▁Tra	-4205
▁bina	-4206
▁yigi	-4207
▁coeur	-4208
▁kɔnna	-4209
▁projet	-4210
▁djamana	-4211
▁kabakoyara	-4212
bara	-4213
usun	-4214
▁mul	-4215
▁mina	-4216
▁tari	-4217
matama	-4218
▁nahana	-4219
▁kunbiri	-4220
▁Namatama	-4221
▁rencontre	-4222
▁6.	-4223
▁ori	-4224
▁yɛɛ	-4225
mains	-4226
▁tuer	-4227
▁pleure	-4228
onnement	-4229
▁devrait	-4230
▁septembre	-4231
daw	-4232
yɛn	-4233
enons	-4234
isent	-4235
▁biin	-4236
▁Kiris	-4237
▁hɛɛrɛ	-4238
▁ɲumanya	-4239
:14	-4240
gali	-4241
▁blog	-4242
▁nili	-4243
▁crainte	-4244
asig	-4245
▁Awa	-4246
▁Deux	-4247
▁lana	-4248
▁erreur	-4249
▁sunɔgɔ	-4250
▁respons	-4251
▁barikaman	-4252
▁kɔrɔtɔnin	-4253
fô	-4254
▁Ju	-4255
▁eh	-4256
..."	-4257
▁Cet	-4258
Adama	-4259
ations	-4260
▁daminɛtuma	-4261
ecti	-4262
arizi	-4263
istre	-4264
▁succ	-4265
▁voyez	-4266
▁kɛcogo	-4267
▁voulez	-4268
▁voyage	-4269
▁compagn	-4270
▁efforts	-4271
:18	-4272
git	-4273
léch	-4274
para	-4275
ribu	-4276
▁LOL	-4277
▁Temple	-4278
▁rapport	-4279
del	-4280
ises	-4281
▁veo	-4282
▁cara	-4283
▁noon	-4284
▁tchè	-4285
▁tunu	-4286
▁faama	-4287
▁tenir	-4288
▁bolola	-4289
▁kɔrɔcɛ	-4290
▁wolobagaw	-4291
oli	-4292
▁Zo	-4293
▁sọ	-4294
foro	-4295
▁Sau	-4296
kohun	-4297
▁cess	-4298
▁Galilée	-4299
▁devenir	-4300
▁ohunkohun	-4301
Am	-4302
▁·	-4303
Nin	-4304
▁SA	-4305
jana	-4306
▁fur	-4307
▁luu	-4308
▁Fura	-4309
▁senu	-4310
▁Salom	-4311
▁mangé	-4312
ensemble	-4313
▁Sur	-4314
▁ama	-4315
▁brû	-4316
▁kɔɔ	-4317
▁tii	-4318
iritu	-4319
rions	-4320
▁kɛnɛyara	-4321
IN	-4322
ɑ̃	-4323
gré	-4324
yaw	-4325
▁lô	-4326
▁nk	-4327
▁Ali	-4328
▁tor	-4329
▁Marc	-4330
▁bugɔ	-4331
▁sein	-4332
▁siga	-4333
▁jugak	-4334
▁allait	-4335
▁certain	-4336
nés	-4337
▁Bé	-4338
bele	-4339
bugu	-4340
lace	-4341
▁éch	-4342
ennes	-4343
▁trés	-4344
intelligence	-4345
oon	-4346
oyi	-4347
▁<3	-4348
ganin	-4349
▁Adam	-4350
cembre	-4351
▁nɔɔrɔ	-4352
▁tota	-4353
▁faite	-4354
▁pɛrɛnna	-4355
▁pharisiens	-4356
▁hi	-4357
dait	-4358
▁NOB	-4359
▁abs	-4360
▁cool	-4361
▁Tiɲɛn	-4362
▁Yahut	-4363
▁looru	-4364
▁repos	-4365
▁Setigi	-4366
▁sembla	-4367
▁maisons	-4368
▁retrouv	-4369
▁chercher	-4370
!!!	-4371
ath	-4372
trg	-4373
uns	-4374
asin	-4375
▁gna	-4376
gique	-4377
▁jard	-4378
▁size	-4379
asiran	-4380
▁Salomon	-4381
▁connaît	-4382
▁grandes	-4383
▁Ben	-4384
esses	-4385
sionn	-4386
▁tilen	-4387
▁firent	-4388
▁sommeil	-4389
▁yɛrɛyɛrɛ	-4390
▁consulter	-4391
upart	-4392
▁Cons	-4393
▁koun	-4394
▁ɲèna	-4395
▁moyen	-4396
▁Kanaan	-4397
▁second	-4398
▁plupart	-4399
▁Za	-4400
attend	-4401
illent	-4402
▁meurt	-4403
ariziɲɛ	-4404
▁lɔyɔrɔ	-4405
▁seconde	-4406
kalasebagaw	-4407
pon	-4408
cool	-4409
euve	-4410
irin	-4411
▁jɛrɛ	-4412
▁like	-4413
cteurs	-4414
▁Faites	-4415
▁appelle	-4416
▁semaines	-4417
▁population	-4418
ua	-4419
ati	-4420
ɔsi	-4421
▁195	-4422
▁wul	-4423
▁2004	-4424
▁lakɔli	-4425
▁penser	-4426
;)	-4427
▁@	-4428
gal	-4429
kis	-4430
▁1-	-4431
empê	-4432
▁wow	-4433
▁atte	-4434
▁gnan	-4435
▁karo	-4436
▁parc	-4437
existe	-4438
▁poursui	-4439
▁mɔgɔbaba	-4440
▁Am	-4441
▁op	-4442
▁kat	-4443
lanan	-4444
égard	-4445
▁appr	-4446
▁désir	-4447
numanbolo	-4448
▁nécessaire	-4449
:23	-4450
▁LE	-4451
▁rê	-4452
dasi	-4453
▁Col	-4454
▁eso	-4455
human	-4456
lèmes	-4457
▁Samu	-4458
nation	-4459
▁Notre	-4460
accueil	-4461
▁dɔgɔcɛ	-4462
▁foncti	-4463
▁kasira	-4464
▁déclare	-4465
▁trouvait	-4466
bou	-4467
▁YIR	-4468
▁kabi	-4469
▁Vérité	-4470
▁YIRALI	-4471
▁%	-4472
ela	-4473
vin	-4474
ossi	-4475
siri	-4476
aimes	-4477
▁celles	-4478
àn	-4479
oit	-4480
▁199	-4481
▁gun	-4482
▁Senu	-4483
▁hago	-4484
▁lama	-4485
▁sooo	-4486
olomani	-4487
▁puisse	-4488
▁tilenn	-4489
▁yɛlɛla	-4490
▁sariyaw	-4491
espérance	-4492
OL	-4493
obé	-4494
▁App	-4495
▁cii	-4496
runin	-4497
▁pros	-4498
▁yèlè	-4499
▁Depuis	-4500
▁manque	-4501
▁spiritu	-4502
informations	-4503
.2	-4504
▁ek	-4505
amuse	-4506
irila	-4507
viter	-4508
▁ceci	-4509
▁lade	-4510
▁lajɛ	-4511
vèrent	-4512
▁quant	-4513
▁tunun	-4514
▁images	-4515
▁termin	-4516
▁woloma	-4517
AD	-4518
ben	-4519
ures	-4520
▁Simon	-4521
attente	-4522
▁ɲɛnabɔ	-4523
▁problèmes	-4524
▁lég	-4525
▁déta	-4526
▁lagu	-4527
▁nord	-4528
▁vite	-4529
adress	-4530
ankolo	-4531
▁ladon	-4532
▁organ	-4533
▁changé	-4534
▁pourra	-4535
▁Romains	-4536
▁conseils	-4537
▁derniers	-4538
▁histoire	-4539
▁réponses	-4540
ɛl	-4541
reux	-4542
▁100	-4543
▁atta	-4544
▁bugu	-4545
▁devi	-4546
▁sèbè	-4547
assemb	-4548
▁décidé	-4549
▁jukɔrɔ	-4550
▁saniya	-4551
▁suivre	-4552
▁arijana	-4553
Tu	-4554
▁ɡ	-4555
Min	-4556
gez	-4557
▁vé	-4558
Pour	-4559
▁Eze	-4560
▁aww	-4561
▁idée	-4562
▁croit	-4563
▁matigi	-4564
xu	-4565
abs	-4566
gir	-4567
lou	-4568
▁ty	-4569
Nous	-4570
▁18-	-4571
▁bir	-4572
▁sud	-4573
▁kogo	-4574
entend	-4575
instant	-4576
▁réussi	-4577
▁ɲagami	-4578
▁période	-4579
apprendre	-4580
▁concerne	-4581
▁sarakalasebaga	-4582
:13	-4583
ton	-4584
baaw	-4585
▁jun	-4586
▁laf	-4587
recɛn	-4588
▁obser	-4589
▁vérit	-4590
▁ɲafan	-4591
▁mankan	-4592
▁voient	-4593
inquiète	-4594
▁capable	-4595
oût	-4596
indi	-4597
tala	-4598
▁Àyi	-4599
▁film	-4600
▁franç	-4601
▁source	-4602
▁daalili	-4603
can	-4604
ets	-4605
maw	-4606
idée	-4607
▁Cha	-4608
▁aye	-4609
▁fɛ̀	-4610
ombre	-4611
▁Pila	-4612
▁remar	-4613
ɲɔgɔnya	-4614
▁kuntigiya	-4615
val	-4616
▁oo	-4617
▁bén	-4618
▁chau	-4619
▁vide	-4620
Eglise	-4621
▁pluie	-4622
ordieux	-4623
▁Kibaru	-4624
▁fantan	-4625
▁numéro	-4626
▁certaines	-4627
hé	-4628
▁51	-4629
▁él	-4630
▁demi	-4631
▁tèna	-4632
▁lende	-4633
▁diinan	-4634
▁premiers	-4635
▁souffrance	-4636
▁rév	-4637
▁ache	-4638
▁kasa	-4639
▁allez	-4640
▁super	-4641
intention	-4642
▁balimamuso	-4643
▁Yɔrɔ	-4644
frique	-4645
élites	-4646
▁Gusun	-4647
▁Seere	-4648
▁dakun	-4649
▁resse	-4650
▁tagar	-4651
▁durant	-4652
▁nimisa	-4653
▁wolola	-4654
▁kititigɛ	-4655
▁lendemain	-4656
mme	-4657
ɛri	-4658
▁1,	-4659
▁Sud	-4660
▁koba	-4661
▁tulu	-4662
▁tɔɔw	-4663
▁Heure	-4664
▁venue	-4665
▁étudi	-4666
▁bɛnnin	-4667
▁politi	-4668
▁informa	-4669
attention	-4670
▁mɔgɔkɔrɔbaw	-4671
14	-4672
ŋo	-4673
meri	-4674
▁mor	-4675
étant	-4676
▁Gran	-4677
▁fini	-4678
▁maan	-4679
bilité	-4680
entrée	-4681
▁puiss	-4682
cations	-4683
▁datugu	-4684
versaire	-4685
amin	-4686
▁bre	-4687
▁fix	-4688
▁ferme	-4689
▁cogoya	-4690
lication	-4691
▁SE	-4692
▁hé	-4693
envoy	-4694
▁ange	-4695
▁kind	-4696
▁recom	-4697
▁capita	-4698
▁dispos	-4699
▁musique	-4700
:20	-4701
ned	-4702
fila	-4703
▁fév	-4704
▁nyo	-4705
graph	-4706
▁trad	-4707
▁kolon	-4708
▁lesqu	-4709
▁valeur	-4710
▁pratique	-4711
▁baarakɛla	-4712
information	-4713
OR	-4714
sɛn	-4715
▁gé	-4716
lant	-4717
père	-4718
▁empê	-4719
▁feel	-4720
▁parv	-4721
▁Verse	-4722
▁appro	-4723
▁feere	-4724
▁fagara	-4725
▁garçon	-4726
▁ressuscité	-4727
].	-4728
ral	-4729
▁Bu	-4730
kalo	-4731
mand	-4732
▁Ani	-4733
▁Far	-4734
▁Mùn	-4735
▁cer	-4736
▁hala	-4737
gation	-4738
▁baasi	-4739
▁filɛli	-4740
occasion	-4741
hen	-4742
▁kn	-4743
ongo	-4744
ayant	-4745
prise	-4746
étran	-4747
▁Judée	-4748
▁affir	-4749
▁kɔrɔn	-4750
▁montre	-4751
▁tandis	-4752
▁kerecɛn	-4753
▁peuples	-4754
Isirayɛli	-4755
cté	-4756
▁Fɔ	-4757
▁Jan	-4758
▁eur	-4759
▁wɛ̃	-4760
accep	-4761
ilipp	-4762
▁seli	-4763
▁tcha	-4764
▁tomb	-4765
▁Actes	-4766
▁jigin	-4767
▁taara	-4768
▁tromp	-4769
▁venus	-4770
▁semble	-4771
▁retourn	-4772
▁témoignage	-4773
:8	-4774
ic	-4775
bia	-4776
èse	-4777
▁apô	-4778
▁folo	-4779
▁fɔta	-4780
▁minè	-4781
▁état	-4782
époque	-4783
▁duguma	-4784
▁mourut	-4785
▁écoute	-4786
hs	-4787
▁ik	-4788
▁Noé	-4789
▁ole	-4790
▁proc	-4791
▁suru	-4792
▁togo	-4793
▁attend	-4794
▁masòrò	-4795
▁portes	-4796
▁parties	-4797
cée	-4798
phone	-4799
▁table	-4800
▁prends	-4801
--	-4802
▁Vi	-4803
rées	-4804
œuvre	-4805
▁alla	-4806
▁test	-4807
arrivée	-4808
▁kɛlɛkɛ	-4809
▁communi	-4810
▁dernière	-4811
▁enseigne	-4812
hh	-4813
nè	-4814
ged	-4815
▁em	-4816
▁Dugu	-4817
▁lire	-4818
▁otro	-4819
occupe	-4820
▁nuits	-4821
▁dencɛw	-4822
fication	-4823
▁Certaines	-4824
La	-4825
ry	-4826
ɑɑ	-4827
ami	-4828
▁52	-4829
▁Ku	-4830
▁Nba	-4831
▁big	-4832
▁Zude	-4833
▁baga	-4834
▁huit	-4835
isions	-4836
liquer	-4837
article	-4838
▁livres	-4839
▁pardon	-4840
▁œuvres	-4841
▁différents	-4842
In	-4843
ito	-4844
Jama	-4845
▁Tro	-4846
▁wèrè	-4847
▁ligne	-4848
▁possi	-4849
▁bɔnsɔn	-4850
,...	-4851
ilen	-4852
port	-4853
▁fɔla	-4854
▁yari	-4855
▁yɛle	-4856
▁Laban	-4857
▁biens	-4858
▁daman	-4859
▁dites	-4860
▁satis	-4861
▁souri	-4862
enseign	-4863
▁épouse	-4864
▁Ensuite	-4865
no	-4866
▁oise	-4867
▁visa	-4868
▁forte	-4869
▁respect	-4870
àa	-4871
yaka	-4872
▁tre	-4873
▁mérit	-4874
▁prépar	-4875
▁parlait	-4876
▁solution	-4877
ima	-4878
▁nò	-4879
lair	-4880
zari	-4881
▁wor	-4882
▁hier	-4883
▁photo	-4884
▁charge	-4885
▁pensez	-4886
▁Adamaden	-4887
▁présence	-4888
▁ŋa	-4889
énom	-4890
▁cre	-4891
abini	-4892
araon	-4893
▁sair	-4894
▁yara	-4895
▁Maria	-4896
▁Soyez	-4897
▁donko	-4898
▁maana	-4899
▁jardin	-4900
▁ɲagali	-4901
▁lɔgɔkun	-4902
▁présente	-4903
fen	-4904
hou	-4905
taa	-4906
ɔru	-4907
▁ow	-4908
▁bori	-4909
▁date	-4910
▁roya	-4911
▁kônôn	-4912
▁kɛnin	-4913
▁minni	-4914
▁décédé	-4915
▁sairly	-4916
▁endroit	-4917
▁promesse	-4918
▁cɛkɔrɔbaw	-4919
▁représent	-4920
awo	-4921
ɛmɛ	-4922
dili	-4923
vage	-4924
▁séc	-4925
vites	-4926
▁bɔna	-4927
▁cira	-4928
▁dons	-4929
▁vote	-4930
▁pensé	-4931
▁prêts	-4932
▁kiraya	-4933
humanité	-4934
▁fallait	-4935
▁Israélites	-4936
sc	-4937
▁+	-4938
▁53	-4939
▁sus	-4940
▁2014	-4941
▁Levi	-4942
▁kora	-4943
action	-4944
blement	-4945
ération	-4946
▁kibaro	-4947
IG	-4948
oti	-4949
veau	-4950
▁bri	-4951
▁haï	-4952
▁kii	-4953
▁laa	-4954
▁élé	-4955
▁book	-4956
▁dess	-4957
▁juin	-4958
▁janvier	-4959
__	-4960
:25	-4961
gil	-4962
koo	-4963
kaba	-4964
▁Ele	-4965
▁Zon	-4966
ement	-4967
expri	-4968
fique	-4969
▁Tiga	-4970
▁kèlè	-4971
▁syst	-4972
▁colle	-4973
▁œuvre	-4974
ectivement	-4975
▁surunyana	-4976
cho	-4977
low	-4978
ìla	-4979
Dugu	-4980
tien	-4981
oncer	-4982
▁sɛnɛ	-4983
▁Duman	-4984
▁faniw	-4985
▁masaw	-4986
chèrent	-4987
▁aimeras	-4988
▁masasig	-4989
▁Solomani	-4990
▁montagnes	-4991
NAN	-4992
aru	-4993
agne	-4994
dɔmu	-4995
▁ris	-4996
▁Siri	-4997
▁actu	-4998
▁soro	-4999
▁kasih	-5000
▁konnon	-5001
▁décembre	-5002
dap	-5003
éle	-5004
ɲan	-5005
▁jɔ	-5006
▁éto	-5007
isant	-5008
▁hinɛ	-5009
▁kule	-5010
▁pare	-5011
éritage	-5012
▁famine	-5013
▁sauvés	-5014
▁gwansan	-5015
▁laisser	-5016
▁attendre	-5017
▁seigneur	-5018
▁facilement	-5019
:16	-5020
nes	-5021
tif	-5022
rité	-5023
▁lut	-5024
▁tôt	-5025
▁tara	-5026
▁durée	-5027
▁lamèn	-5028
▁banned	-5029
▁miracles	-5030
▁Toutefois	-5031
50.	-5032
ust	-5033
▁Te	-5034
atri	-5035
taga	-5036
▁lase	-5037
▁nani	-5038
mɛniya	-5039
▁Regar	-5040
▁kiraw	-5041
▁victi	-5042
▁Corint	-5043
▁descendu	-5044
bèn	-5045
▁!!	-5046
nhɔn	-5047
▁Bii	-5048
asser	-5049
arrête	-5050
taient	-5051
▁Ezeki	-5052
▁tèmèn	-5053
interro	-5054
▁points	-5055
▁aussitôt	-5056
iné	-5057
▁of	-5058
▁kɛr	-5059
▁yal	-5060
▁acti	-5061
▁ment	-5062
import	-5063
▁plein	-5064
▁soins	-5065
▁souha	-5066
diction	-5067
▁masasigilan	-5068
uu	-5069
▁1.	-5070
olée	-5071
▁196	-5072
▁ara	-5073
▁nùn	-5074
▁koko	-5075
▁quar	-5076
▁vaut	-5077
urance	-5078
▁vidéo	-5079
▁récomp	-5080
▁tchogo	-5081
▁if	-5082
huit	-5083
minɛ	-5084
orow	-5085
▁pron	-5086
endroit	-5087
▁kakala	-5088
▁tagged	-5089
▁fagayɔrɔ	-5090
▁ɲiningaliw	-5091
],	-5092
êt	-5093
Anw	-5094
ectu	-5095
sara	-5096
tière	-5097
▁bons	-5098
▁équi	-5099
liance	-5100
▁savent	-5101
Pourquoi	-5102
▁tilannin	-5103
18	-5104
Is	-5105
:19	-5106
▁%%	-5107
▁ƝƐ	-5108
▁miri	-5109
▁choisi	-5110
▁faisant	-5111
▁différence	-5112
:24	-5113
Jɔn	-5114
Koo	-5115
▁dì	-5116
ciles	-5117
▁amen	-5118
▁juma	-5119
▁kèla	-5120
▁murut	-5121
▁cibaga	-5122
▁dirige	-5123
▁combien	-5124
13	-5125
6.	-5126
lew	-5127
èbè	-5128
cent	-5129
chés	-5130
mabɔ	-5131
▁Saa	-5132
▁juu	-5133
▁sɔs	-5134
owabu	-5135
tième	-5136
▁rent	-5137
▁soin	-5138
▁tran	-5139
▁Babil	-5140
▁bataille	-5141
▁pouvaient	-5142
▁sungurunin	-5143
yon	-5144
▁Dou	-5145
▁Yin	-5146
aller	-5147
▁Sina	-5148
▁hors	-5149
▁mout	-5150
▁sɛgɛ	-5151
▁texte	-5152
▁kɔmɔgɔ	-5153
▁Isiyaka	-5154
▁Philipp	-5155
gb	-5156
wi	-5157
▁55	-5158
Sara	-5159
assé	-5160
▁hou	-5161
▁easy	-5162
▁nɛnɛ	-5163
kɔrɔba	-5164
église	-5165
▁décéd	-5166
▁proté	-5167
▁siraw	-5168
▁sisen	-5169
▁grâces	-5170
▁ɲumanw	-5171
▁baarakɛlaw	-5172
▁Ex	-5173
ƆLƆS	-5174
▁obé	-5175
▁rem	-5176
arbre	-5177
▁rich	-5178
fiques	-5179
issage	-5180
ouvrir	-5181
▁Judas	-5182
▁KƆLƆS	-5183
▁mandi	-5184
▁voilà	-5185
▁diable	-5186
▁justes	-5187
▁courant	-5188
▁poisson	-5189
▁KƆLƆSIKAW	-5190
▁mɔgɔjuguw	-5191
▁gouvernement	-5192
▁wà	-5193
itan	-5194
▁Anu	-5195
▁Ara	-5196
▁Pol	-5197
▁dug	-5198
▁flɛ	-5199
▁yɛ̃	-5200
▁août	-5201
▁réun	-5202
▁Liban	-5203
▁cinqu	-5204
▁fasse	-5205
▁dimina	-5206
▁sabati	-5207
▁soumis	-5208
▁nafolotigi	-5209
▁thé	-5210
▁yɔn	-5211
titude	-5212
▁dɔgɔya	-5213
▁entrer	-5214
Ce	-5215
EUR	-5216
ary	-5217
osu	-5218
ŋga	-5219
▁El	-5220
▁Té	-5221
vaux	-5222
▁kya	-5223
▁nul	-5224
berté	-5225
table	-5226
▁that	-5227
▁morte	-5228
▁sabar	-5229
▁kisili	-5230
▁nyɔgɔn	-5231
▁Égypte	-5232
▁Samarie	-5233
▁kabakow	-5234
▁résultats	-5235
pec	-5236
tho	-5237
▁bèn	-5238
oupes	-5239
tient	-5240
ttent	-5241
veill	-5242
resser	-5243
ɔrɔnan	-5244
▁telef	-5245
attends	-5246
▁Daniel	-5247
▁Toutes	-5248
▁confor	-5249
▁appréci	-5250
▁qualité	-5251
▁reconnu	-5252
▁Adamadenw	-5253
▁synagogue	-5254
Ai	-5255
oux	-5256
ône	-5257
▁kh	-5258
ards	-5259
munin	-5260
▁page	-5261
▁tògò	-5262
▁wara	-5263
▁fɛɛrɛ	-5264
▁gbɛlɛ	-5265
▁impos	-5266
▁plait	-5267
▁tiens	-5268
enaient	-5269
esclave	-5270
▁dibaga	-5271
▁adultes	-5272
▁arrivés	-5273
▁rassemb	-5274
▁totalement	-5275
ilo	-5276
babu	-5277
▁197	-5278
▁ndɛ	-5279
▁bras	-5280
▁tala	-5281
Dawuda	-5282
nements	-5283
▁croyants	-5284
dji	-5285
▁Ke	-5286
▁jè	-5287
mais	-5288
suis	-5289
▁Han	-5290
▁Pre	-5291
▁mai	-5292
▁nde	-5293
Ɔnhɔn	-5294
▁aveu	-5295
▁type	-5296
▁mondi	-5297
▁naxan	-5298
ènement	-5299
▁begɛnw	-5300
▁crains	-5301
▁dugusa	-5302
9-	-5303
Sa	-5304
Se	-5305
Kara	-5306
uche	-5307
▁bisa	-5308
▁gent	-5309
▁noms	-5310
▁poli	-5311
▁faits	-5312
▁fɔtaw	-5313
▁sɔrɔn	-5314
entendre	-5315
▁Jacques	-5316
▁kɛwaliw	-5317
▁parlent	-5318
21	-5319
her	-5320
uré	-5321
▁56	-5322
▁kê	-5323
fait	-5324
▁lat	-5325
▁John	-5326
alcool	-5327
rances	-5328
▁glori	-5329
ternité	-5330
▁siècle	-5331
ariziɲɛw	-5332
▁veulent	-5333
▁attention	-5334
yin	-5335
▁DI	-5336
cier	-5337
éssé	-5338
▁50/	-5339
▁pur	-5340
lance	-5341
▁jate	-5342
▁kaka	-5343
▁kòni	-5344
▁obli	-5345
▁jaman	-5346
aimerai	-5347
endront	-5348
▁propri	-5349
paravant	-5350
▁cheveux	-5351
pré	-5352
▁If	-5353
▁Ru	-5354
▁zu	-5355
ting	-5356
▁May	-5357
▁moy	-5358
euses	-5359
▁Nkan	-5360
▁ɲinɛna	-5361
▁découver	-5362
ese	-5363
Hali	-5364
ieur	-5365
lier	-5366
nant	-5367
▁dii	-5368
▁Souv	-5369
▁camp	-5370
▁ɲafɔ	-5371
mérica	-5372
▁Maître	-5373
▁Seerew	-5374
▁consta	-5375
▁langage	-5376
▁yɔrɔjan	-5377
cie	-5378
bout	-5379
ninw	-5380
▁sòn	-5381
▁xɔn	-5382
▁kowa	-5383
▁souh	-5384
▁tana	-5385
cident	-5386
▁repas	-5387
▁badenw	-5388
▁conser	-5389
▁Yahutuw	-5390
▁réalité	-5391
▁seereya	-5392
▁voulais	-5393
▁tigitigi	-5394
▁chrétiens	-5395
▁président	-5396
▁oc	-5397
▁vint	-5398
▁jɔɔnw	-5399
▁telle	-5400
▁Heureux	-5401
extérieur	-5402
▁wɔɔrɔnan	-5403
▁quiconque	-5404
quis	-5405
▁évé	-5406
▁Loon	-5407
▁koro	-5408
▁mama	-5409
▁tint	-5410
mettre	-5411
oublie	-5412
occuper	-5413
▁Wagati	-5414
▁kalans	-5415
▁nɔgɔya	-5416
▁culture	-5417
▁Né	-5418
cule	-5419
▁fali	-5420
▁kèmè	-5421
▁champ	-5422
▁sigui	-5423
▁nyogon	-5424
▁samedi	-5425
▁souhait	-5426
▁tchaman	-5427
▁fanibugu	-5428
▁fiɲɛntɔw	-5429
▁mɔgɔbabaw	-5430
▁̈	-5431
omè	-5432
▁xo	-5433
dien	-5434
▁Bala	-5435
▁tiin	-5436
▁batofɛn	-5437
▁donnera	-5438
▁pierres	-5439
fɛr	-5440
gées	-5441
duire	-5442
leurs	-5443
talen	-5444
urope	-5445
▁Avez	-5446
▁bébé	-5447
▁nahi	-5448
▁Yanni	-5449
▁proba	-5450
▁réser	-5451
▁Filipu	-5452
▁détour	-5453
▁naanin	-5454
▁reçoit	-5455
▁système	-5456
▁esclaves	-5457
▁lemɛniya	-5458
▁sécurité	-5459
mɔɔ	-5460
tar	-5461
▁Enc	-5462
▁tak	-5463
▁bâti	-5464
▁ɲɔɔn	-5465
▁dieux	-5466
▁duman	-5467
▁livré	-5468
▁repris	-5469
▁tugura	-5470
▁disponi	-5471
▁tumabee	-5472
▁tɔɲɔgɔn	-5473
assemblée	-5474
▁Babilɔni	-5475
▁nyogonfe	-5476
▁banabagatɔ	-5477
▁souffrances	-5478
ɑ̃ɑ	-5479
reur	-5480
▁nyè	-5481
gnait	-5482
▁kɔɲɔ	-5483
▁laaa	-5484
▁soix	-5485
ormais	-5486
▁tuman	-5487
istance	-5488
▁damani	-5489
▁fleuve	-5490
▁ventre	-5491
rentissage	-5492
▁pardonner	-5493
▁réellement	-5494
ER	-5495
mɔn	-5496
par	-5497
▁év	-5498
▁foli	-5499
▁Cieux	-5500
▁weele	-5501
essayer	-5502
▁donnés	-5503
▁départ	-5504
▁article	-5505
çu	-5506
00.	-5507
aya	-5508
veil	-5509
▁ado	-5510
▁wot	-5511
dence	-5512
hiens	-5513
▁ayez	-5514
▁degi	-5515
▁diza	-5516
rèrent	-5517
▁Voilà	-5518
▁commis	-5519
▁sortes	-5520
▁terikɛ	-5521
▁voulons	-5522
▁conscience	-5523
Na	-5524
oré	-5525
▁58	-5526
yira	-5527
▁1:3	-5528
▁kpĩ	-5529
▁ɛrɛ	-5530
avant	-5531
▁Lɔti	-5532
▁eaux	-5533
▁jara	-5534
▁kiya	-5535
▁symp	-5536
▁fruit	-5537
▁merci	-5538
▁50/50.	-5539
▁Quelqu	-5540
▁minɛna	-5541
▁travaux	-5542
▁Ń	-5543
UMA	-5544
boo	-5545
mògò	-5546
objet	-5547
▁Anti	-5548
▁ajou	-5549
▁sɔ̃ɔ	-5550
équipe	-5551
▁Nuhun	-5552
▁bɛnna	-5553
▁digne	-5554
▁croyez	-5555
▁façons	-5556
▁lanaya	-5557
▁mariés	-5558
▁comporte	-5559
▁dugusagwɛ	-5560
:9	-5561
IGN	-5562
lui	-5563
ôte	-5564
liqu	-5565
ttes	-5566
▁Seu	-5567
▁hau	-5568
ister	-5569
obser	-5570
▁000)	-5571
▁Tile	-5572
▁hare	-5573
▁préf	-5574
▁Proph	-5575
lations	-5576
▁douleur	-5577
15	-5578
bò	-5579
kar	-5580
▁Pu	-5581
▁jù	-5582
▁mâ	-5583
tout	-5584
▁fiyɛ	-5585
▁know	-5586
▁pewu	-5587
misɛnw	-5588
▁lieux	-5589
▁dɔgɔtɔrɔso	-5590
▁exactement	-5591
ane	-5592
rêt	-5593
̀wɔ	-5594
▁Hé	-5595
appr	-5596
▁Cré	-5597
▁leh	-5598
▁circ	-5599
▁Ɔ̀wɔ	-5600
▁norma	-5601
▁quoti	-5602
▁remis	-5603
▁offici	-5604
agissait	-5605
▁laissez	-5606
▁société	-5607
▁daminɛna	-5608
ind	-5609
kit	-5610
▁2.	-5611
euvre	-5612
tures	-5613
▁kɛrɛ	-5614
▁vari	-5615
▁suivi	-5616
onsieur	-5617
▁public	-5618
▁servir	-5619
▁Sauveur	-5620
▁juillet	-5621
▁balimacɛ	-5622
▁denmusow	-5623
▁kabakoya	-5624
-3	-5625
11	-5626
iw	-5627
ize	-5628
▁Auc	-5629
▁Baby	-5630
▁centa	-5631
▁lequel	-5632
▁sancti	-5633
▁cherche	-5634
▁devenus	-5635
▁février	-5636
kh	-5637
som	-5638
zɛn	-5639
Wili	-5640
état	-5641
▁bil	-5642
▁dén	-5643
▁now	-5644
▁saw	-5645
itiri	-5646
▁DIEU	-5647
▁Saga	-5648
▁fɔɲɔ	-5649
▁carte	-5650
itation	-5651
▁liberté	-5652
▁réfléch	-5653
▁Kirisita	-5654
▁français	-5655
gor	-5656
▁KA	-5657
bras	-5658
gles	-5659
inya	-5660
liya	-5661
vées	-5662
▁miw	-5663
chait	-5664
faits	-5665
▁Kalo	-5666
▁jago	-5667
▁nɔrɔ	-5668
▁perd	-5669
IGNEUR	-5670
▁allons	-5671
▁fidèle	-5672
▁SEIGNEUR	-5673
▁worodugu	-5674
ITI	-5675
bel	-5676
cɛn	-5677
aura	-5678
auté	-5679
ésar	-5680
▁Zez	-5681
▁nag	-5682
▁agré	-5683
▁fala	-5684
▁fast	-5685
▁lain	-5686
▁lere	-5687
▁viol	-5688
▁Avant	-5689
▁Gusunɔ	-5690
▁battre	-5691
▁établi	-5692
▁Faransi	-5693
▁continue	-5694
ïe	-5695
dia	-5696
▁sh	-5697
ande	-5698
enda	-5699
isée	-5700
▁Per	-5701
▁soy	-5702
▁sup	-5703
onnée	-5704
▁jula	-5705
▁birin	-5706
▁entré	-5707
anmoins	-5708
▁buguri	-5709
▁jigiya	-5710
▁lalaga	-5711
▁territ	-5712
abandonne	-5713
▁kakalaya	-5714
bri	-5715
ysi	-5716
▁54	-5717
kɔnɔ	-5718
line	-5719
lées	-5720
▁ber	-5721
▁doo	-5722
▁kah	-5723
▁nyɔ	-5724
instal	-5725
jectif	-5726
▁hɔrɔn	-5727
▁junman	-5728
▁tulogw	-5729
▁actions	-5730
▁décision	-5731
▁commandements	-5732
Or	-5733
bus	-5734
▁pè	-5735
tées	-5736
▁Ton	-5737
▁enj	-5738
▁koe	-5739
aniya	-5740
▁Sans	-5741
▁must	-5742
▁poss	-5743
▁autor	-5744
▁jinaw	-5745
▁sanga	-5746
▁solda	-5747
ception	-5748
▁Israɛl	-5749
▁Témoins	-5750
▁sankaba	-5751
▁taamana	-5752
▁capitale	-5753
▁souvenez	-5754
▁meilleure	-5755
▁semblable	-5756
ìn	-5757
▁Ê	-5758
:28	-5759
ace	-5760
▁ak	-5761
▁ii	-5762
eaux	-5763
raie	-5764
ɔbɛw	-5765
▁Dès	-5766
▁sil	-5767
▁rivi	-5768
▁César	-5769
▁Quant	-5770
▁Trois	-5771
▁appela	-5772
▁contrô	-5773
▁pièces	-5774
▁porter	-5775
▁baarakɛ	-5776
▁cherché	-5777
▁kanulen	-5778
▁salaire	-5779
accomplir	-5780
apprentissage	-5781
45.	-5782
iez	-5783
▁65	-5784
▁LEO	-5785
tobre	-5786
▁Bama	-5787
▁Nouv	-5788
▁faux	-5789
▁pied	-5790
▁répu	-5791
▁tɔnɔ	-5792
▁dérou	-5793
▁signes	-5794
▁tununa	-5795
Karamɔgɔ	-5796
Évangile	-5797
étranger	-5798
▁Quelques	-5799
▁mɔgɔfaga	-5800
▁miséricordieux	-5801
lit	-5802
tara	-5803
▁Say	-5804
▁gan	-5805
▁jij	-5806
▁naa	-5807
▁suun	-5808
▁Encore	-5809
▁distin	-5810
▁laaaan	-5811
▁nyinin	-5812
▁profes	-5813
▁sacrifices	-5814
▁Va	-5815
érir	-5816
▁bun	-5817
▁élè	-5818
▁Kilɛ	-5819
▁Komi	-5820
▁Phil	-5821
▁baba	-5822
▁pose	-5823
▁bwisi	-5824
▁réuni	-5825
▁muruti	-5826
▁sabali	-5827
écriture	-5828
▁vivants	-5829
expérience	-5830
Ko	-5831
wɑ	-5832
loi	-5833
▁4-	-5834
▁ir	-5835
amen	-5836
lone	-5837
▁Ser	-5838
▁foo	-5839
▁maj	-5840
▁....	-5841
▁seras	-5842
approche	-5843
▁regarde	-5844
▁détruire	-5845
▁miséricorde	-5846
5:	-5847
8.1	-5848
hor	-5849
how	-5850
ved	-5851
9-20	-5852
kiri	-5853
yila	-5854
▁193	-5855
▁Dam	-5856
▁Dɔw	-5857
▁bal	-5858
▁susu	-5859
▁tend	-5860
▁dents	-5861
▁nalon	-5862
osition	-5863
▁debout	-5864
▁changer	-5865
▁tulogwer	-5866
approchèrent	-5867
-2	-5868
ía	-5869
Uni	-5870
far	-5871
▁Sil	-5872
▁emb	-5873
aimés	-5874
▁Cool	-5875
▁anci	-5876
▁fôlô	-5877
▁gari	-5878
▁yeah	-5879
somɔgɔ	-5880
ɔnkili	-5881
▁Cɛman	-5882
▁marié	-5883
artient	-5884
criture	-5885
▁bénéfi	-5886
▁damina	-5887
▁disais	-5888
▁gauche	-5889
▁lonanw	-5890
▁pensée	-5891
▁signifi	-5892
▁ailleurs	-5893
▁murutili	-5894
▁sacrifice	-5895
▁informations	-5896
▁kalandensomɔgɔ	-5897
rc	-5898
èl	-5899
:12	-5900
▁dɛn	-5901
▁Voir	-5902
▁cade	-5903
▁yalor	-5904
▁Sariya	-5905
▁bɔnnin	-5906
▁niveau	-5907
▁gnongon	-5908
▁naaninan	-5909
▁quarante	-5910
▁souhaite	-5911
Au	-5912
iru	-5913
mil	-5914
zan	-5915
▁kua	-5916
▁Jusqu	-5917
▁amata	-5918
▁cesse	-5919
▁titre	-5920
▁total	-5921
▁Chaque	-5922
▁Egypte	-5923
▁mirent	-5924
▁rendit	-5925
▁apporter	-5926
▁dagamunin	-5927
▁Religieuse	-5928
ap	-5929
bɑ	-5930
ige	-5931
▁Fr	-5932
hors	-5933
kèla	-5934
wali	-5935
▁jui	-5936
▁uni	-5937
arche	-5938
▁boro	-5939
▁chal	-5940
▁levé	-5941
▁vent	-5942
▁siara	-5943
envoyer	-5944
vention	-5945
▁ninsɔn	-5946
▁noonoo	-5947
▁ouvert	-5948
▁puisqu	-5949
▁sirana	-5950
▁terima	-5951
▁conduit	-5952
▁moutons	-5953
▁puisque	-5954
▁millions	-5955
▁forobayɔrɔw	-5956
7.	-5957
gba	-5958
tah	-5959
▁sw	-5960
dain	-5961
oser	-5962
ɲɛna	-5963
▁dòw	-5964
▁lor	-5965
améli	-5966
enfui	-5967
▁next	-5968
▁verse	-5969
▁Sayuli	-5970
▁commen	-5971
▁fruits	-5972
▁rapide	-5973
▁reviend	-5974
'.	-5975
ny	-5976
:22	-5977
cre	-5978
ril	-5979
▁5.	-5980
▁af	-5981
▁kĩ	-5982
bɛrɛ	-5983
dite	-5984
▁700	-5985
▁FIL	-5986
▁KOR	-5987
▁ach	-5988
9-20)	-5989
aimez	-5990
musow	-5991
talie	-5992
▁Gala	-5993
▁Grec	-5994
▁baru	-5995
▁cɛɛw	-5996
▁défi	-5997
▁réfé	-5998
maniya	-5999
▁(28.1	-6000
▁Isaac	-6001
▁Jérém	-6002
▁caché	-6003
▁gbɛrɛ	-6004
▁woman	-6005
Afrique	-6006
▁ladegi	-6007
▁malades	-6008
▁vinrent	-6009
▁(28.19-20)	-6010
▁Corinthiens	-6011
ɛt	-6012
▁Alu	-6013
▁Aww	-6014
▁bis	-6015
▁ign	-6016
▁inv	-6017
▁kaf	-6018
ayons	-6019
▁Sabu	-6020
▁siko	-6021
▁wali	-6022
▁Paris	-6023
▁bɔnin	-6024
▁donda	-6025
▁repro	-6026
▁sèbèn	-6027
▁revenu	-6028
ducation	-6029
▁voulaient	-6030
▁tulogwerenw	-6031
cap	-6032
com	-6033
▁Pâ	-6034
ESUS	-6035
breu	-6036
mbéc	-6037
▁ima	-6038
▁djan	-6039
▁fata	-6040
▁kɛsu	-6041
amuser	-6042
▁Nazar	-6043
▁furakɛ	-6044
▁jɛnsɛn	-6045
▁labaan	-6046
▁éloign	-6047
▁ɲanabɔ	-6048
mentation	-6049
▁préparer	-6050
▁comprenez	-6051
▁construction	-6052
:15	-6053
kou	-6054
leh	-6055
vil	-6056
▁He	-6057
▁ee	-6058
cale	-6059
obsc	-6060
asigi	-6061
▁ayei	-6062
▁bala	-6063
▁popo	-6064
▁sere	-6065
termin	-6066
▁Isira	-6067
▁fonda	-6068
▁fourn	-6069
▁juifs	-6070
▁longue	-6071
▁batizera	-6072
▁intéress	-6073
lémentaires	-6074
utilisation	-6075
▁auparavant	-6076
▁finalement	-6077
ùgu	-6078
▁59	-6079
Fɛɛn	-6080
fani	-6081
tifs	-6082
▁Tun	-6083
▁wie	-6084
tinya	-6085
▁avis	-6086
▁mans	-6087
▁sɔtɔ	-6088
auteur	-6089
outent	-6090
▁JESUS	-6091
▁métho	-6092
▁woilu	-6093
▁divers	-6094
▁muruku	-6095
▁triste	-6096
▁apôtres	-6097
▁ordonné	-6098
▁passait	-6099
▁difficul	-6100
▁yɛlɛmana	-6101
▁entièrement	-6102
tè	-6103
âme	-6104
▁3.	-6105
anti	-6106
hima	-6107
▁Rés	-6108
▁ext	-6109
eremi	-6110
▁fòlò	-6111
▁lamp	-6112
▁quin	-6113
▁NOBAR	-6114
usement	-6115
▁Intinya	-6116
▁courage	-6117
▁kɛwalew	-6118
▁siaramɔ	-6119
▁étrangers	-6120
▁communauté	-6121
faw	-6122
▁tú	-6123
boɲa	-6124
▁34-	-6125
▁Bes	-6126
▁tir	-6127
▁Aawo	-6128
▁Domi	-6129
▁dunu	-6130
aiment	-6131
avance	-6132
envoie	-6133
▁garder	-6134
▁litiri	-6135
▁suruta	-6136
▁wulila	-6137
▁kantigi	-6138
▁ressusc	-6139
▁continuer	-6140
▁construire	-6141
dy	-6142
ia	-6143
assu	-6144
dité	-6145
yimu	-6146
▁pon	-6147
mande	-6148
▁rôle	-6149
▁Chine	-6150
▁monté	-6151
▁pleurer	-6152
importance	-6153
duit	-6154
mées	-6155
usse	-6156
▁Ina	-6157
aloni	-6158
étude	-6159
▁misi	-6160
▁aurez	-6161
adresse	-6162
▁effect	-6163
▁arrivée	-6164
▁oiseaux	-6165
▁craindre	-6166
hy	-6167
hum	-6168
tos	-6169
▁66	-6170
Musa	-6171
orce	-6172
▁sag	-6173
▁sɛn	-6174
organ	-6175
orgue	-6176
riers	-6177
tiens	-6178
unité	-6179
▁Kala	-6180
▁Sɔli	-6181
▁kènè	-6182
▁neuf	-6183
òrònin	-6184
▁rends	-6185
▁saalo	-6186
▁sɔngɔ	-6187
▁dehors	-6188
▁namara	-6189
▁venait	-6190
éternité	-6191
▁erreurs	-6192
▁spécial	-6193
▁travaille	-6194
AS	-6195
Ils	-6196
ven	-6197
avan	-6198
juru	-6199
▁aie	-6200
oires	-6201
omanw	-6202
ennemi	-6203
▁maman	-6204
exemple	-6205
▁natuma	-6206
▁salenw	-6207
▁voyons	-6208
utiliser	-6209
▁Alatala	-6210
▁kelenna	-6211
▁miliyɔn	-6212
▁profess	-6213
▁soixante	-6214
▁difficiles	-6215
bô	-6216
pes	-6217
reg	-6218
▁Ra	-6219
▁dû	-6220
▁én	-6221
yiri	-6222
ypes	-6223
▁fɔn	-6224
▁jra	-6225
▁kia	-6226
huile	-6227
ément	-6228
▁Kisi	-6229
▁dùgu	-6230
▁allés	-6231
▁chans	-6232
▁loved	-6233
▁nommé	-6234
▁bateau	-6235
▁fidèles	-6236
▁Daniyɛli	-6237
▁wajibiya	-6238
Wa	-6239
ât	-6240
:26	-6241
mal	-6242
évé	-6243
▁57	-6244
▁tô	-6245
enin	-6246
mère	-6247
vert	-6248
▁aje	-6249
▁hun	-6250
▁let	-6251
alest	-6252
isées	-6253
offre	-6254
▁Zɔbu	-6255
▁bless	-6256
▁cents	-6257
▁nyètaa	-6258
▁sortit	-6259
▁supéri	-6260
▁allèrent	-6261
▁craignez	-6262
▁demandez	-6263
▁discours	-6264
▁kititigɛlaw	-6265
accomplissement	-6266
tage	-6267
tali	-6268
thée	-6269
▁Yee	-6270
▁mém	-6271
▁sti	-6272
▁ɛɛn	-6273
baaya	-6274
enfer	-6275
ɛlɛya	-6276
▁noir	-6277
ateurs	-6278
istins	-6279
rirent	-6280
épouse	-6281
oubliez	-6282
▁ngalon	-6283
▁Jérémie	-6284
▁devient	-6285
obscurité	-6286
▁septième	-6287
▁sunguruw	-6288
▁devraient	-6289
▁kuntigiba	-6290
▁réveiller	-6291
▁taamacogo	-6292
nn	-6293
ide	-6294
tch	-6295
Vous	-6296
▁dôw	-6297
▁hon	-6298
▁lin	-6299
▁lun	-6300
▁nge	-6301
▁obt	-6302
▁ŋga	-6303
acité	-6304
▁duré	-6305
▁lois	-6306
▁poro	-6307
▁stru	-6308
▁ordre	-6309
▁Kalans	-6310
▁consac	-6311
▁fisaya	-6312
▁instru	-6313
▁mɛɛnna	-6314
▁Nouvelle	-6315
▁kɛmɛkulu	-6316
▁désormais	-6317
▁retourner	-6318
LA	-6319
fit	-6320
▁bh	-6321
Muso	-6322
tiyo	-6323
▁Con	-6324
▁Peu	-6325
▁aka	-6326
▁lee	-6327
pagne	-6328
tesse	-6329
▁Yisa	-6330
▁mous	-6331
vation	-6332
▁Bonne	-6333
▁coura	-6334
▁Farisi	-6335
▁claire	-6336
▁diiman	-6337
▁Philippe	-6338
▁direction	-6339
▁¿	-6340
iso	-6341
lex	-6342
ung	-6343
▁Yi	-6344
▁anc	-6345
ettes	-6346
illée	-6347
étend	-6348
▁Suis	-6349
▁mena	-6350
▁need	-6351
▁puri	-6352
▁conta	-6353
▁konon	-6354
▁môgôw	-6355
chement	-6356
▁centre	-6357
▁visage	-6358
▁yirala	-6359
▁époque	-6360
▁Pharaon	-6361
▁accueil	-6362
▁lonanya	-6363
▁denmisèn	-6364
▁commencer	-6365
lai	-6366
▁69	-6367
▁Gar	-6368
▁boi	-6369
▁boy	-6370
▁chɛ	-6371
▁Fais	-6372
▁dɔ̀n	-6373
▁espè	-6374
▁kata	-6375
▁rêve	-6376
▁sisi	-6377
▁vécu	-6378
zareth	-6379
▁conva	-6380
▁physi	-6381
▁karaba	-6382
▁layɔrɔ	-6383
▁restent	-6384
▁relation	-6385
▁comprennent	-6386
hon	-6387
mie	-6388
▁EF	-6389
▁nè	-6390
▁od	-6391
injus	-6392
▁kafo	-6393
▁modè	-6394
▁Ameri	-6395
▁hakɛw	-6396
▁trône	-6397
▁instal	-6398
Adamaden	-6399
▁Laissez	-6400
▁nouveaux	-6401
▁rappelle	-6402
▁trouvent	-6403
▁territoire	-6404
ɔw	-6405
▁4.	-6406
gana	-6407
tiri	-6408
▁Att	-6409
▁uso	-6410
endor	-6411
ininw	-6412
réhen	-6413
▁2020	-6414
▁want	-6415
▁crier	-6416
▁envir	-6417
Sankolo	-6418
wulanan	-6419
▁katugu	-6420
▁données	-6421
▁lecture	-6422
▁obtenir	-6423
▁accompli	-6424
▁retrouvé	-6425
▁sentiment	-6426
▁Philistins	-6427
▁wolonwulanan	-6428
by	-6429
yu	-6430
eil	-6431
eth	-6432
fèn	-6433
utu	-6434
irai	-6435
maan	-6436
▁Mis	-6437
▁day	-6438
▁dur	-6439
▁fag	-6440
▁possé	-6441
▁Chemin	-6442
▁feelin	-6443
▁annoncé	-6444
▁étoiles	-6445
▁farisogobana	-6446
oof	-6447
phe	-6448
▁cy	-6449
jɛnɛ	-6450
omin	-6451
▁reg	-6452
▁ɲan	-6453
amɔgɔ	-6454
gunin	-6455
▁Rien	-6456
▁kiri	-6457
▁last	-6458
▁life	-6459
▁says	-6460
Mɛlɛkɛ	-6461
▁Faire	-6462
▁arbre	-6463
ossiens	-6464
▁Prenez	-6465
▁dadili	-6466
▁content	-6467
▁gouvern	-6468
▁accompagn	-6469
▁Ad	-6470
phra	-6471
▁asi	-6472
▁nou	-6473
apper	-6474
▁base	-6475
▁ngan	-6476
aurait	-6477
▁Penda	-6478
▁kanin	-6479
▁Samedi	-6480
▁arbres	-6481
▁arrêté	-6482
▁dafara	-6483
▁quitté	-6484
▁termes	-6485
▁filisiw	-6486
▁parfois	-6487
▁Kalansen	-6488
▁impossible	-6489
BU	-6490
▁(1	-6491
▁Kɔ	-6492
wara	-6493
çait	-6494
▁Ama	-6495
▁Zezi	-6496
▁basa	-6497
▁faam	-6498
▁symb	-6499
▁lɔnko	-6500
▁vieux	-6501
demment	-6502
▁cikura	-6503
▁domuni	-6504
▁firiya	-6505
▁sɔrɔko	-6506
▁kowagara	-6507
▁professionn	-6508
cis	-6509
île	-6510
tier	-6511
▁SAP	-6512
▁châ	-6513
▁fût	-6514
▁sci	-6515
gonin	-6516
▁faso	-6517
mément	-6518
▁gratu	-6519
▁ɔnhɔn	-6520
▁ɲɛsin	-6521
▁oublié	-6522
▁wulafɛ	-6523
▁julakan	-6524
▁presque	-6525
▁tɔɔrɔla	-6526
▁Babylone	-6527
▁mondiale	-6528
▁éléments	-6529
Sarakalasebagaw	-6530
dal	-6531
mit	-6532
uss	-6533
xan	-6534
Zuda	-6535
enga	-6536
land	-6537
écut	-6538
▁amo	-6539
▁hoo	-6540
kèlaw	-6541
taine	-6542
tance	-6543
usion	-6544
▁aint	-6545
▁enne	-6546
▁tiɲè	-6547
▁aient	-6548
▁prote	-6549
▁sépar	-6550
▁tente	-6551
▁Lazari	-6552
▁dumunifɛn	-6553
▁souffrent	-6554
▁tilennenya	-6555
OT	-6556
bs	-6557
car	-6558
ora	-6559
▁âge	-6560
ITIRI	-6561
taire	-6562
▁Fran	-6563
▁here	-6564
▁koto	-6565
▁sout	-6566
▁surv	-6567
amment	-6568
illons	-6569
▁Grand	-6570
▁jùmɛn	-6571
▁parla	-6572
▁bisaba	-6573
▁repent	-6574
▁caracté	-6575
▁Nazareth	-6576
▁SAPITIRI	-6577
▁gwɛlɛyaw	-6578
▁retourne	-6579
▁viennent	-6580
▁Isirayila	-6581
uh	-6582
ats	-6583
onan	-6584
riss	-6585
▁New	-6586
▁cik	-6587
▁dia	-6588
▁kaj	-6589
▁lak	-6590
kelen	-6591
olesc	-6592
▁Fara	-6593
▁Joli	-6594
▁mine	-6595
▁rues	-6596
▁sibo	-6597
amitié	-6598
▁endor	-6599
▁kɛrɛn	-6600
▁payer	-6601
▁years	-6602
▁ɲinan	-6603
kuntigi	-6604
orgueil	-6605
▁complè	-6606
▁donnez	-6607
▁vendre	-6608
▁américa	-6609
▁invités	-6610
▁ɲinibagaw	-6611
▁Colossiens	-6612
ƐZ	-6613
lat	-6614
siw	-6615
the	-6616
▁80	-6617
▁za	-6618
abri	-6619
cemb	-6620
pris	-6621
çant	-6622
▁Dja	-6623
▁dee	-6624
▁tuu	-6625
Amour	-6626
èlèya	-6627
▁2018	-6628
▁EFƐZ	-6629
▁Mont	-6630
▁Noël	-6631
▁sinc	-6632
▁suka	-6633
assion	-6634
▁Parmi	-6635
▁provo	-6636
▁sanfè	-6637
▁stupi	-6638
▁Lazare	-6639
▁latigè	-6640
▁serais	-6641
▁Danbaga	-6642
▁ressemb	-6643
▁tagaman	-6644
▁EFƐZIKAW	-6645
:33	-6646
uwe	-6647
▁mà	-6648
▁yg	-6649
Kana	-6650
levé	-6651
▁190	-6652
▁was	-6653
gɛnin	-6654
▁cité	-6655
▁savi	-6656
▁Mùnna	-6657
▁croix	-6658
▁diina	-6659
▁genre	-6660
▁kuluw	-6661
▁saved	-6662
▁types	-6663
▁Canaan	-6664
▁Yuhana	-6665
▁tryina	-6666
▁visite	-6667
▁marcher	-6668
▁Timothée	-6669
▁sarakabɔ	-6670
▁cinquante	-6671
▁traduction	-6672
bil	-6673
kiw	-6674
▁ap	-6675
rɔdi	-6676
▁opp	-6677
▁pun	-6678
▁yar	-6679
limaw	-6680
xième	-6681
▁Mboo	-6682
▁Très	-6683
▁gayi	-6684
▁lamɔ	-6685
▁mini	-6686
▁prév	-6687
▁Savez	-6688
▁Simɔn	-6689
quement	-6690
▁18-45.	-6691
▁Chacun	-6692
▁muntah	-6693
▁ntalen	-6694
▁prophé	-6695
▁susuli	-6696
▁Misiran	-6697
▁lakolon	-6698
▁raconte	-6699
▁ɲasiran	-6700
▁compagnons	-6701
▁retournèrent	-6702
ld	-6703
Les	-6704
non	-6705
pic	-6706
yri	-6707
▁ps	-6708
▁kpɛ	-6709
Yanni	-6710
araît	-6711
exist	-6712
écria	-6713
▁prog	-6714
▁wusu	-6715
aimais	-6716
▁posté	-6717
▁remer	-6718
▁aimait	-6719
▁sabbat	-6720
isɔndiya	-6721
▁humaine	-6722
▁rivière	-6723
▁sachant	-6724
▁pauvreté	-6725
▁poissons	-6726
▁fangatigi	-6727
▁travaillé	-6728
ül	-6729
▁ń	-6730
▁Do	-6731
▁Ze	-6732
cace	-6733
enen	-6734
gitɔ	-6735
▁Cap	-6736
▁See	-6737
▁YOU	-6738
▁bam	-6739
▁nte	-6740
îtres	-6741
▁Luka	-6742
▁posé	-6743
▁Grecs	-6744
▁magni	-6745
▁vraie	-6746
▁woron	-6747
▁Pilate	-6748
▁mérite	-6749
▁naître	-6750
▁rappel	-6751
▁apporté	-6752
▁boɲafɛn	-6753
▁produits	-6754
▁jalakibali	-6755
▁parfaitement	-6756
24	-6757
UI	-6758
:29	-6759
Est	-6760
blu	-6761
uté	-6762
▁3-	-6763
▁At	-6764
Loon	-6765
ario	-6766
cinq	-6767
elez	-6768
essa	-6769
mant	-6770
▁Rép	-6771
rande	-6772
rista	-6773
▁grec	-6774
▁kami	-6775
▁tɛma	-6776
aimait	-6777
kanuya	-6778
vembre	-6779
▁imbéc	-6780
▁jɔnya	-6781
▁tient	-6782
▁Zeremi	-6783
▁fariya	-6784
▁kɔrɔla	-6785
▁kɔrɔsi	-6786
▁serons	-6787
▁écouté	-6788
▁miirila	-6789
▁wagatiw	-6790
accompagn	-6791
▁dumuniba	-6792
▁pardonne	-6793
▁sinɔgɔra	-6794
▁karamɔgɔw	-6795
▁bololafɛnw	-6796
bur	-6797
fee	-6798
pol	-6799
book	-6800
onom	-6801
sɛgɛ	-6802
▁mép	-6803
▁mɛɛ	-6804
▁nee	-6805
▁ore	-6806
▁sar	-6807
▁you	-6808
tigui	-6809
▁Dɛmɛ	-6810
▁joow	-6811
minanw	-6812
▁Celle	-6813
▁dépla	-6814
▁fanin	-6815
▁fɔlɔw	-6816
▁terme	-6817
annonce	-6818
▁banana	-6819
médiaire	-6820
▁désolée	-6821
injustice	-6822
▁cherchez	-6823
▁donnerai	-6824
▁kelennama	-6825
▁représente	-6826
YA	-6827
gh	-6828
gen	-6829
san	-6830
djan	-6831
emba	-6832
▁dil	-6833
▁ina	-6834
▁top	-6835
denya	-6836
ption	-6837
ressa	-6838
▁?...	-6839
▁Saül	-6840
▁cèma	-6841
alités	-6842
glises	-6843
vision	-6844
▁Syrie	-6845
▁justi	-6846
▁priez	-6847
arrêter	-6848
▁Besoin	-6849
▁Hanbun	-6850
▁batise	-6851
▁chaman	-6852
▁demeur	-6853
▁désolé	-6854
▁photos	-6855
▁verrez	-6856
▁Lévites	-6857
▁miracle	-6858
▁Comments	-6859
▁constitu	-6860
▁kɔnɔntɔn	-6861
▁méchants	-6862
▁kɔrɔtalen	-6863
),	-6864
17	-6865
aga	-6866
dee	-6867
ost	-6868
ƐNW	-6869
delà	-6870
fasi	-6871
▁cli	-6872
▁moo	-6873
breux	-6874
▁tech	-6875
embras	-6876
minist	-6877
▁karoo	-6878
▁seenw	-6879
ourager	-6880
▁Timote	-6881
▁ennemi	-6882
▁gwɛnin	-6883
▁parlez	-6884
▁sortie	-6885
▁viande	-6886
▁mémoire	-6887
▁quelles	-6888
▁quitter	-6889
▁Nazarɛti	-6890
▁savaient	-6891
▁Plusieurs	-6892
▁faisaient	-6893
bis	-6894
day	-6895
▁ME	-6896
▁km	-6897
▁mè	-6898
▁nô	-6899
▁Now	-6900
▁dah	-6901
▁gbe	-6902
▁sty	-6903
entra	-6904
pital	-6905
▁Last	-6906
▁djou	-6907
▁isra	-6908
▁modi	-6909
▁Yahvé	-6910
▁doute	-6911
▁juger	-6912
▁Images	-6913
▁kɛwali	-6914
▁marque	-6915
▁nagasi	-6916
▁élèves	-6917
Seigneur	-6918
▁badenma	-6919
▁propres	-6920
▁soldats	-6921
▁terrain	-6922
▁comprend	-6923
▁entendez	-6924
▁→	-6925
Kan	-6926
▁Gr	-6927
▁pê	-6928
agir	-6929
lève	-6930
▁DAD	-6931
▁cɛ̀	-6932
antan	-6933
arita	-6934
ɛrise	-6935
▁kunn	-6936
▁lady	-6937
▁lani	-6938
▁logo	-6939
▁mens	-6940
▁tani	-6941
ologie	-6942
▁Image	-6943
▁kàlan	-6944
▁pleur	-6945
▁associ	-6946
▁fagali	-6947
mabɔsara	-6948
▁baptême	-6949
▁murukuw	-6950
▁proches	-6951
▁sɛbɛnna	-6952
▁mauvaise	-6953
▁ɲagaminin	-6954
DY	-6955
elo	-6956
nal	-6957
phés	-6958
▁lac	-6959
pôtre	-6960
ɔrɔgɔ	-6961
▁beso	-6962
▁figu	-6963
▁lalɔ	-6964
▁mass	-6965
kunbɛn	-6966
▁tando	-6967
▁tombé	-6968
▁waaju	-6969
mérique	-6970
▁classe	-6971
▁filila	-6972
▁voyant	-6973
ancienne	-6974
▁alijɛnɛ	-6975
▁décédée	-6976
▁kɔgɔdugu	-6977
▁puissant	-6978
▁éternellement	-6979
/0	-6980
?'	-6981
cte	-6982
▁Go	-6983
▁jò	-6984
mine	-6985
sogo	-6986
ƐNTI	-6987
ɲana	-6988
▁ahi	-6989
▁dol	-6990
Jésus	-6991
▁Faso	-6992
▁duga	-6993
▁jigɛ	-6994
▁kaga	-6995
▁lien	-6996
▁tenu	-6997
▁banan	-6998
▁dunya	-6999
▁kpuro	-7000
▁répan	-7001
ƐNTIKAW	-7002
▁Frères	-7003
▁Kabini	-7004
▁aimons	-7005
▁minanw	-7006
▁refusé	-7007
phésiens	-7008
▁apporte	-7009
▁taayɔrɔ	-7010
assurance	-7011
▁Regardez	-7012
▁djamanan	-7013
▁limaniya	-7014
▁regarder	-7015
▁KORƐNTIKAW	-7016
▁compassion	-7017
▁concernant	-7018
▁connaissais	-7019
tò	-7020
How	-7021
▁08	-7022
▁Mu	-7023
▁Pe	-7024
Minw	-7025
adul	-7026
▁rej	-7027
▁yes	-7028
gueur	-7029
laman	-7030
quête	-7031
écart	-7032
▁Foyi	-7033
▁Nord	-7034
▁sila	-7035
ourage	-7036
▁Aucun	-7037
▁bonté	-7038
▁béssé	-7039
▁cɛnni	-7040
▁défin	-7041
▁terri	-7042
appréci	-7043
▁Misira	-7044
▁dépend	-7045
▁faveur	-7046
▁matins	-7047
▁écrire	-7048
▁détruit	-7049
▁esprits	-7050
▁wusulan	-7051
veillance	-7052
▁Jourdain	-7053
▁toutefois	-7054
▁téléphone	-7055
ls	-7056
:30	-7057
src	-7058
▁tâ	-7059
isez	-7060
kiki	-7061
ouff	-7062
rine	-7063
ypoc	-7064
▁few	-7065
▁imm	-7066
irili	-7067
ouvre	-7068
ustra	-7069
▁afri	-7070
▁agak	-7071
▁kônô	-7072
▁kɛli	-7073
▁lang	-7074
▁tigè	-7075
▁butun	-7076
▁démar	-7077
▁gafew	-7078
▁multi	-7079
▁sijan	-7080
▁tribu	-7081
anglais	-7082
▁consom	-7083
▁envoya	-7084
▁kilomè	-7085
▁moyens	-7086
▁séjour	-7087
▁souvenir	-7088
▁sɛgɛsɛgɛ	-7089
23	-7090
Ele	-7091
▁ɲɔ	-7092
ctri	-7093
mori	-7094
sept	-7095
▁bha	-7096
▁ikɔ	-7097
▁myé	-7098
ignor	-7099
▁Bali	-7100
▁célé	-7101
▁dure	-7102
▁gban	-7103
▁énor	-7104
▁ɲimi	-7105
blique	-7106
estion	-7107
▁Sinon	-7108
▁comba	-7109
▁girin	-7110
▁mogow	-7111
abilité	-7112
diyanin	-7113
ondance	-7114
▁finman	-7115
▁monter	-7116
▁procla	-7117
▁Combien	-7118
▁monsieur	-7119
▁richesse	-7120
▁souffert	-7121
▁fonctionn	-7122
▁arrivèrent	-7123
▁conditions	-7124
intermédiaire	-7125
2,	-7126
ST	-7127
yr	-7128
éva	-7129
▁Ge	-7130
▁Gl	-7131
tera	-7132
▁alo	-7133
▁dow	-7134
▁dra	-7135
▁kle	-7136
▁red	-7137
aucun	-7138
liqué	-7139
maine	-7140
▁alle	-7141
▁bawo	-7142
▁bira	-7143
▁ving	-7144
garamu	-7145
▁bɛgɛn	-7146
▁kinin	-7147
▁landa	-7148
▁seuls	-7149
▁marier	-7150
▁provin	-7151
▁sainte	-7152
▁nilifɛn	-7153
▁raisons	-7154
▁karamògò	-7155
▁mɔgɔjugu	-7156
▁pécheurs	-7157
▁furuɲɔgɔn	-7158
kara	-7159
tère	-7160
▁win	-7161
▁2019	-7162
▁buka	-7163
▁jugé	-7164
▁Pente	-7165
▁dingɛ	-7166
▁kwlaa	-7167
▁commer	-7168
▁promis	-7169
habitude	-7170
héritage	-7171
▁contribu	-7172
▁jaabiliw	-7173
De	-7174
▁wì	-7175
▁yū	-7176
alen	-7177
osué	-7178
▁Kor	-7179
▁Zoz	-7180
▁cris	-7181
▁mode	-7182
▁Selon	-7183
▁aimes	-7184
▁poste	-7185
▁procé	-7186
▁teris	-7187
alement	-7188
onniers	-7189
▁couver	-7190
▁djaman	-7191
▁détest	-7192
▁fitinɛ	-7193
▁précéd	-7194
▁conseil	-7195
▁mettent	-7196
▁montrer	-7197
▁octobre	-7198
▁disciple	-7199
▁relations	-7200
▁lesquelles	-7201
yn	-7202
ïm	-7203
:37	-7204
let	-7205
▁Yū	-7206
▁nn	-7207
▁sà	-7208
rale	-7209
baari	-7210
ertes	-7211
intes	-7212
pitre	-7213
▁Cont	-7214
▁lune	-7215
▁navi	-7216
▁show	-7217
▁wana	-7218
itesse	-7219
approcha	-7220
autorité	-7221
enseigner	-7222
▁réveille	-7223
mou	-7224
net	-7225
▁5-	-7226
▁Nɛ	-7227
uves	-7228
ènes	-7229
▁lay	-7230
▁Zuru	-7231
▁dògò	-7232
rences	-7233
▁Josué	-7234
▁Tɔɔrɔ	-7235
▁annon	-7236
▁écris	-7237
assurer	-7238
▁batoso	-7239
▁nyuman	-7240
▁Zurudɛn	-7241
▁accepté	-7242
▁croyons	-7243
▁souffre	-7244
▁ancêtres	-7245
▁récompense	-7246
imm	-7247
▁Az	-7248
oure	-7249
èmes	-7250
▁Lee	-7251
▁Lon	-7252
aurez	-7253
▁assu	-7254
▁fier	-7255
▁girɛ	-7256
▁libé	-7257
▁régu	-7258
▁yɛgɛ	-7259
kojugu	-7260
▁culte	-7261
▁cœurs	-7262
▁série	-7263
▁entraî	-7264
▁racont	-7265
▁rentre	-7266
▁secret	-7267
exprimer	-7268
▁tileben	-7269
▁utilisé	-7270
▁terisɔbɛw	-7271
▁tilenbaliya	-7272
Ye	-7273
▁ô	-7274
ias	-7275
inv	-7276
qua	-7277
▁fé	-7278
Siya	-7279
Tiɲè	-7280
abuw	-7281
bies	-7282
pent	-7283
unan	-7284
▁oyé	-7285
▁the	-7286
dasiw	-7287
minan	-7288
vités	-7289
▁best	-7290
▁kiss	-7291
▁lolo	-7292
Europe	-7293
Italie	-7294
▁2005:	-7295
▁Allez	-7296
▁convi	-7297
▁Hakili	-7298
▁danfɛn	-7299
▁fitini	-7300
▁taille	-7301
▁tintin	-7302
▁touman	-7303
appelles	-7304
▁bwisiku	-7305
▁Samuyɛli	-7306
▁yɛrɛboɲa	-7307
accompagne	-7308
▁sarakabɔyɔrɔ	-7309
1,	-7310
2.	-7311
Nii	-7312
▁09	-7313
▁nw	-7314
Tile	-7315
perç	-7316
▁aya	-7317
kinwa	-7318
tionn	-7319
truis	-7320
Ɲɔgɔn	-7321
▁!...	-7322
▁Toke	-7323
▁bann	-7324
▁célè	-7325
▁tchi	-7326
essaie	-7327
▁effra	-7328
▁faute	-7329
▁nankɔ	-7330
gwɛdafɛ	-7331
▁arriva	-7332
▁kourou	-7333
▁progra	-7334
▁Makinwa	-7335
▁maîtres	-7336
▁séparer	-7337
▁wasanin	-7338
adressant	-7339
▁retourna	-7340
jɛ	-7341
yɔ	-7342
▁Po	-7343
lité	-7344
éner	-7345
▁Naw	-7346
▁Pri	-7347
▁ind	-7348
▁kɛn	-7349
▁mag	-7350
affir	-7351
ieuse	-7352
ɔgɔmɛ	-7353
▁jeux	-7354
▁mean	-7355
▁meri	-7356
▁wale	-7357
▁Asiri	-7358
▁bruit	-7359
▁makar	-7360
▁talen	-7361
▁Dumuni	-7362
▁litres	-7363
▁succès	-7364
▁éviter	-7365
attendre	-7366
▁effectu	-7367
éducation	-7368
▁manamana	-7369
▁villages	-7370
▁Fariziɲɛw	-7371
▁construit	-7372
▁miligaramu	-7373
▁effectivement	-7374
▁mɔgɔtilenninw	-7375
40	-7376
ks	-7377
aro	-7378
bow	-7379
èle	-7380
ɔna	-7381
▁Kà	-7382
▁om	-7383
isit	-7384
obli	-7385
▁côt	-7386
▁jam	-7387
faire	-7388
isode	-7389
▁labɔ	-7390
▁myst	-7391
▁occu	-7392
▁sage	-7393
▁tort	-7394
▁véhi	-7395
uwifuw	-7396
▁Yinni	-7397
▁talon	-7398
▁égard	-7399
▁extrém	-7400
▁gagner	-7401
▁labila	-7402
▁trésor	-7403
▁Hɔrɔnya	-7404
▁esclave	-7405
▁passage	-7406
▁certaine	-7407
▁kisibaga	-7408
▁ministre	-7409
On	-7410
gt	-7411
bin	-7412
ève	-7413
▁6-	-7414
▁LI	-7415
▁zo	-7416
avec	-7417
exer	-7418
giri	-7419
moin	-7420
▁jig	-7421
▁ooo	-7422
▁won	-7423
athan	-7424
▁Gafe	-7425
▁faud	-7426
▁tool	-7427
▁tués	-7428
▁vict	-7429
▁wôrô	-7430
ignait	-7431
lèrent	-7432
érable	-7433
▁Minnu	-7434
▁kɔnin	-7435
▁faible	-7436
▁feront	-7437
▁lafiya	-7438
▁libres	-7439
▁nafama	-7440
▁saninw	-7441
▁tomber	-7442
▁vienne	-7443
▁yèlèma	-7444
empêcher	-7445
▁essayer	-7446
▁fagakun	-7447
▁kɛlɛden	-7448
▁réalisé	-7449
▁surtout	-7450
▁novembre	-7451
▁enseigner	-7452
▁tristesse	-7453
▁banabagatɔw	-7454
Isirayɛlidenw	-7455
Ba	-7456
awu	-7457
ink	-7458
mat	-7459
▁mì	-7460
▁nɑ	-7461
Kira	-7462
irer	-7463
itoy	-7464
▁Dal	-7465
▁bul	-7466
▁nés	-7467
▁éti	-7468
▁ƝƐƐ	-7469
istan	-7470
kinin	-7471
lever	-7472
trême	-7473
▁Mase	-7474
▁Saul	-7475
▁Sran	-7476
▁auto	-7477
▁bête	-7478
▁honn	-7479
▁kabô	-7480
▁timi	-7481
▁baraka	-7482
▁kosèbè	-7483
▁2012...	-7484
▁terminé	-7485
▁nyininka	-7486
Ɲɔgɔnkanuya	-7487
16	-7488
▁ay	-7489
Sɛbɛ	-7490
meau	-7491
ɔgwɛ	-7492
▁Bàa	-7493
▁Lou	-7494
▁shi	-7495
▁sug	-7496
▁tùn	-7497
aurai	-7498
ordin	-7499
▁dent	-7500
▁ence	-7501
▁gars	-7502
▁gbɔn	-7503
▁hist	-7504
▁naxa	-7505
▁scri	-7506
ection	-7507
▁actes	-7508
▁clair	-7509
▁fɛɛnw	-7510
▁liste	-7511
▁sagaw	-7512
▁sarah	-7513
▁trait	-7514
▁appart	-7515
▁batoli	-7516
▁compét	-7517
▁kisira	-7518
▁longer	-7519
▁révélé	-7520
▁sauvée	-7521
▁appelée	-7522
▁bamanan	-7523
▁envoyés	-7524
▁teliman	-7525
▁contrôle	-7526
▁devaient	-7527
▁halakili	-7528
▁retrouve	-7529
▁véritable	-7530
Pi	-7531
Ya	-7532
xin	-7533
Asie	-7534
affi	-7535
bura	-7536
gban	-7537
sili	-7538
▁Ret	-7539
▁bei	-7540
▁cat	-7541
▁lal	-7542
▁tòw	-7543
appar	-7544
▁bare	-7545
▁doni	-7546
▁kofɔ	-7547
▁mars	-7548
▁peau	-7549
assiez	-7550
kilila	-7551
oeuvre	-7552
▁côtés	-7553
absence	-7554
aration	-7555
▁Kibaro	-7556
▁Samuel	-7557
▁lafili	-7558
▁Ameriki	-7559
▁Saamori	-7560
▁accompl	-7561
▁daganin	-7562
▁fassiez	-7563
▁nalonma	-7564
▁sababou	-7565
▁secours	-7566
avènement	-7567
▁Kalanden	-7568
▁capables	-7569
▁patience	-7570
▁recomman	-7571
▁multitude	-7572
▁politique	-7573
▁conséquent	-7574
hô	-7575
nw	-7576
asu	-7577
kir	-7578
lot	-7579
▁II	-7580
▁NA	-7581
côte	-7582
mont	-7583
ouss	-7584
vons	-7585
▁GON	-7586
▁kɛɛ	-7587
▁méc	-7588
▁née	-7589
aninw	-7590
joint	-7591
▁cuis	-7592
▁datu	-7593
▁essa	-7594
▁wafa	-7595
▁âgée	-7596
Krista	-7597
associ	-7598
guille	-7599
▁13:11	-7600
▁1905.	-7601
▁Aussi	-7602
▁Jasin	-7603
▁biran	-7604
▁danga	-7605
▁fòlen	-7606
▁refus	-7607
▁étais	-7608
▁compos	-7609
▁démons	-7610
▁kolati	-7611
▁montré	-7612
▁yamaan	-7613
▁atteint	-7614
▁général	-7615
▁partage	-7616
▁yòrònin	-7617
▁résultat	-7618
▁suivante	-7619
▁baaradenw	-7620
▁richesses	-7621
▁vingtaine	-7622
▁bénédiction	-7623
▁dɛsɛbagatɔw	-7624
▁certainement	-7625
kô	-7626
ms	-7627
avi	-7628
éma	-7629
▁».	-7630
dala	-7631
▁cop	-7632
coute	-7633
zième	-7634
▁sexu	-7635
▁Pâque	-7636
▁accue	-7637
▁kabak	-7638
▁kuman	-7639
▁sabia	-7640
▁Bamako	-7641
▁dessus	-7642
▁joueur	-7643
▁police	-7644
▁tigɛra	-7645
▁tougou	-7646
▁mission	-7647
▁ɲènamaya	-7648
▁formation	-7649
▁caractéris	-7650
▁participer	-7651
▁événements	-7652
.:	-7653
EL	-7654
bɛɛ	-7655
▁IS	-7656
Saan	-7657
aimé	-7658
vrez	-7659
▁ain	-7660
▁fré	-7661
▁fuu	-7662
▁lol	-7663
entes	-7664
▁bisi	-7665
▁moon	-7666
▁Japon	-7667
écouter	-7668
▁boirai	-7669
▁duguba	-7670
▁eurent	-7671
▁tribus	-7672
▁tuguni	-7673
▁pensées	-7674
intéresse	-7675
▁Créateur	-7676
▁Prophète	-7677
▁derrière	-7678
▁manières	-7679
▁wasabali	-7680
▁bwisikumɔ	-7681
▁manifesté	-7682
▁mɔgɔɲuman	-7683
▁supplémentaires	-7684
Car	-7685
cés	-7686
jɛn	-7687
avis	-7688
ɔngɔ	-7689
icace	-7690
verse	-7691
érode	-7692
▁adop	-7693
▁jera	-7694
▁nian	-7695
▁toro	-7696
tivité	-7697
yɛlɛma	-7698
▁Donne	-7699
▁Efara	-7700
▁Priez	-7701
▁fuite	-7702
▁objet	-7703
▁égaux	-7704
antaine	-7705
▁gèlèya	-7706
▁jakuma	-7707
▁marché	-7708
▁prénom	-7709
▁saison	-7710
ablement	-7711
▁baptisé	-7712
▁jumalon	-7713
▁pourrez	-7714
▁setigiw	-7715
▁aliments	-7716
▁allaient	-7717
▁partager	-7718
▁présents	-7719
▁services	-7720
▁Attention	-7721
▁centaines	-7722
▁particulier	-7723
▁prisonniers	-7724
▁kɛlɛkɛminanw	-7725
Ha	-7726
:49	-7727
too	-7728
lila	-7729
▁Ang	-7730
Mɔgɔw	-7731
Waati	-7732
doine	-7733
ereur	-7734
kalan	-7735
ounou	-7736
▁Macé	-7737
▁Para	-7738
▁enga	-7739
▁exer	-7740
▁géné	-7741
▁hèrè	-7742
▁miss	-7743
▁Biblu	-7744
▁chiff	-7745
obtenir	-7746
▁kɔgɔji	-7747
▁months	-7748
▁vision	-7749
interpré	-7750
ignorance	-7751
▁teliyara	-7752
▁Nisɔndiya	-7753
▁décisions	-7754
ft	-7755
▁lâ	-7756
elly	-7757
▁Caï	-7758
▁Jer	-7759
▁Lko	-7760
▁Six	-7761
▁web	-7762
accès	-7763
élève	-7764
▁Paix	-7765
▁avan	-7766
▁bere	-7767
▁bɔni	-7768
▁kèrè	-7769
▁naga	-7770
▁pleu	-7771
▁Jonas	-7772
▁cruci	-7773
▁juges	-7774
▁pages	-7775
▁quels	-7776
▁troup	-7777
atrième	-7778
▁Lkoinw	-7779
▁finita	-7780
▁mariée	-7781
▁Dɔnkili	-7782
▁chanson	-7783
▁donnent	-7784
▁israéli	-7785
▁régions	-7786
▁position	-7787
▁tɛmɛnnen	-7788
▁ɲagamina	-7789
▁Denmisɛnw	-7790
▁bamanankan	-7791
▁changement	-7792
▁extrémités	-7793
ns	-7794
̀rɔ	-7795
▁2,	-7796
heli	-7797
ones	-7798
vidu	-7799
yusi	-7800
▁103	-7801
▁dɔɔ	-7802
▁ram	-7803
▁rég	-7804
Alors	-7805
agers	-7806
iques	-7807
▁bɔgɔ	-7808
▁docu	-7809
▁nayi	-7810
▁salu	-7811
onnant	-7812
▁Barna	-7813
▁gnana	-7814
▁haute	-7815
▁topic	-7816
▁vigne	-7817
biesage	-7818
▁dajuru	-7819
▁dɔɔnin	-7820
▁pareil	-7821
▁positi	-7822
▁sebari	-7823
▁telles	-7824
critures	-7825
▁parfait	-7826
▁agréable	-7827
▁postérité	-7828
▁réveillez	-7829
▁importante	-7830
▁Mboobiesage	-7831
▁kumaɲɔgɔnya	-7832
12	-7833
uel	-7834
zam	-7835
éga	-7836
▁??	-7837
▁VI	-7838
▁sù	-7839
cris	-7840
golo	-7841
onge	-7842
ungu	-7843
▁Dés	-7844
▁Met	-7845
▁Wal	-7846
▁bor	-7847
▁dum	-7848
▁ita	-7849
▁tar	-7850
▁tee	-7851
assin	-7852
chons	-7853
▁fair	-7854
▁suit	-7855
▁vies	-7856
▁yaga	-7857
écrire	-7858
▁Russi	-7859
▁enjoy	-7860
▁maint	-7861
▁maraw	-7862
▁révol	-7863
▁assemb	-7864
▁course	-7865
▁kɛyɔrɔ	-7866
▁membre	-7867
▁muɲuli	-7868
▁restée	-7869
▁sanctu	-7870
▁possède	-7871
▁créature	-7872
▁transfor	-7873
▁généralement	-7874
8.	-7875
oz	-7876
:21	-7877
Eli	-7878
eng	-7879
pan	-7880
pri	-7881
tir	-7882
tta	-7883
ège	-7884
▁62	-7885
▁Yɛ	-7886
▁ze	-7887
caux	-7888
siez	-7889
▁Pré	-7890
▁kee	-7891
▁Abra	-7892
▁Ciel	-7893
▁dala	-7894
gɛninw	-7895
▁créer	-7896
▁dimin	-7897
▁offre	-7898
▁prati	-7899
▁épous	-7900
▁Maison	-7901
▁baiser	-7902
▁consid	-7903
▁identi	-7904
▁restau	-7905
▁propose	-7906
▁rentrer	-7907
▁douleurs	-7908
▁détermin	-7909
▁dɛmɛbaga	-7910
▁pourront	-7911
▁étranger	-7912
▁Macédoine	-7913
8,	-7914
KE	-7915
lâ	-7916
mn	-7917
:44	-7918
osa	-7919
yés	-7920
zab	-7921
▁lì	-7922
▁ng	-7923
▁Fan	-7924
▁Ici	-7925
▁Sod	-7926
▁nyɛ	-7927
▁tit	-7928
▁vir	-7929
cient	-7930
ouman	-7931
quant	-7932
▁1959	-7933
▁Fɔlɔ	-7934
▁Tiɲè	-7935
▁jogo	-7936
▁kuwo	-7937
▁téré	-7938
ugulan	-7939
▁conon	-7940
▁lorou	-7941
▁duurun	-7942
▁vivent	-7943
eusement	-7944
▁Pentecôte	-7945
▁trouverez	-7946
▁ɲininkali	-7947
▁expérience	-7948
▁reviendrai	-7949
22	-7950
ty	-7951
èri	-7952
▁8.	-7953
▁gɛ	-7954
kira	-7955
liba	-7956
tive	-7957
▁Bɛn	-7958
▁gué	-7959
▁hom	-7960
▁iya	-7961
▁mod	-7962
▁nus	-7963
eront	-7964
quité	-7965
▁Jula	-7966
▁Papa	-7967
▁anin	-7968
▁bɛrɛ	-7969
▁dila	-7970
▁kila	-7971
▁Parle	-7972
▁banba	-7973
▁convo	-7974
▁court	-7975
▁menti	-7976
▁Zonasi	-7977
▁palais	-7978
▁pleine	-7979
▁prenez	-7980
▁rendez	-7981
▁jurumuw	-7982
▁waliman	-7983
▁interdit	-7984
▁souviens	-7985
▁considéré	-7986
▁respecter	-7987
.-	-7988
üm	-7989
bɔn	-7990
hoo	-7991
pha	-7992
yas	-7993
ɛni	-7994
cept	-7995
face	-7996
quée	-7997
▁Mat	-7998
▁Sɔrɔ	-7999
▁jang	-8000
▁koni	-8001
▁odds	-8002
batigi	-8003
istère	-8004
kɛyɔrɔ	-8005
▁14:17	-8006
▁Maana	-8007
▁beyen	-8008
▁gagné	-8009
▁koura	-8010
▁mouve	-8011
▁tolon	-8012
arriver	-8013
▁annonce	-8014
▁entière	-8015
▁ressent	-8016
▁sebaaya	-8017
▁écouter	-8018
▁efficace	-8019
▁sɔgɔmadafɛ	-8020
▁Sarakalasebagaw	-8021
,,	-8022
weh	-8023
▁03	-8024
▁64	-8025
▁Ve	-8026
Tuma	-8027
anie	-8028
atte	-8029
tanw	-8030
ushi	-8031
▁Aka	-8032
▁Nos	-8033
▁sam	-8034
asiga	-8035
yafɛn	-8036
▁atti	-8037
▁fiye	-8038
▁fɔli	-8039
▁hate	-8040
▁kili	-8041
▁natɔ	-8042
▁vain	-8043
yirali	-8044
▁Miiri	-8045
▁bande	-8046
▁cessé	-8047
▁divin	-8048
▁déliv	-8049
▁weeks	-8050
▁cacher	-8051
▁dating	-8052
▁destru	-8053
▁perdre	-8054
▁saviez	-8055
▁suffit	-8056
▁joindre	-8057
▁kibaari	-8058
▁scribes	-8059
▁duurunan	-8060
▁merveill	-8061
▁réveillé	-8062
▁étudiants	-8063
▁jɛnɲɔgɔnya	-8064
▁professeur	-8065
anniversaire	-8066
▁difficultés	-8067
▁possibilité	-8068
gs	-8069
ŋɔ	-8070
ies	-8071
ésé	-8072
ɔtɔ	-8073
aveu	-8074
huma	-8075
pect	-8076
▁Ban	-8077
▁Jam	-8078
▁Nan	-8079
▁jal	-8080
▁lis	-8081
▁oya	-8082
Isaac	-8083
autel	-8084
diyan	-8085
ondon	-8086
▁Beth	-8087
▁Gaza	-8088
▁Wari	-8089
▁jusu	-8090
▁kɛta	-8091
▁subs	-8092
▁tèmè	-8093
▁épar	-8094
▁bible	-8095
▁siens	-8096
acheter	-8097
ɲasiran	-8098
▁distri	-8099
▁forces	-8100
▁lasigi	-8101
▁répand	-8102
▁sɔsɔli	-8103
▁tericɛ	-8104
▁adolesc	-8105
▁anglais	-8106
▁chambre	-8107
▁chanter	-8108
▁groupes	-8109
▁pensais	-8110
▁siècles	-8111
▁version	-8112
▁voisins	-8113
▁heureuse	-8114
▁seraient	-8115
▁télévision	-8116
25	-8117
_.	-8118
ado	-8119
dom	-8120
dée	-8121
eus	-8122
ful	-8123
tou	-8124
Ɔrɔ	-8125
▁mm	-8126
▁ur	-8127
onda	-8128
▁cel	-8129
▁net	-8130
▁évi	-8131
▁Zaki	-8132
▁jeté	-8133
▁mien	-8134
▁sauf	-8135
▁Ibura	-8136
▁Maman	-8137
▁expri	-8138
▁gofɛr	-8139
▁ordin	-8140
▁élevé	-8141
ctement	-8142
écoutez	-8143
▁Mɔgɔba	-8144
▁chance	-8145
▁devint	-8146
▁aveugle	-8147
▁paradis	-8148
▁Dɛmɛbaga	-8149
▁condamné	-8150
▁meilleurs	-8151
▁Finalement	-8152
▁Israɛldenw	-8153
▁uniquement	-8154
▁probablement	-8155
▁connaissances	-8156
19	-8157
ɛf	-8158
▁Â	-8159
cro	-8160
▁04	-8161
▁8-	-8162
▁my	-8163
adap	-8164
inab	-8165
qués	-8166
resp	-8167
▁._.	-8168
▁Efɛ	-8169
▁Loo	-8170
▁Yen	-8171
▁ayé	-8172
▁not	-8173
liers	-8174
rable	-8175
▁Mana	-8176
▁Masi	-8177
▁bour	-8178
▁fòra	-8179
▁gwen	-8180
▁yoli	-8181
isible	-8182
▁Sekit	-8183
▁cɛman	-8184
▁emmen	-8185
▁haine	-8186
▁ninja	-8187
▁dayɛlɛ	-8188
▁labato	-8189
▁origin	-8190
▁poursu	-8191
▁relati	-8192
▁témoin	-8193
▁attenti	-8194
▁danbaga	-8195
▁kotoolu	-8196
▁ladiliw	-8197
▁dusukunw	-8198
▁lesquels	-8199
▁répondra	-8200
▁senumanw	-8201
▁telefɔni	-8202
▁victimes	-8203
▁Sekitemba	-8204
▁denmisènw	-8205
▁kowagarazu	-8206
▁travaillent	-8207
"?	-8208
IM	-8209
Kis	-8210
gari	-8211
kunu	-8212
yaan	-8213
▁1:8	-8214
▁Dur	-8215
▁Enf	-8216
▁Voy	-8217
▁alé	-8218
▁amé	-8219
▁kpɑ	-8220
▁reb	-8221
▁usa	-8222
accro	-8223
asaya	-8224
magne	-8225
▁crit	-8226
▁jɛgɛ	-8227
▁kaun	-8228
▁mali	-8229
▁nota	-8230
▁sɔng	-8231
▁écla	-8232
apôtre	-8233
diyara	-8234
hommes	-8235
itaire	-8236
▁falen	-8237
▁futur	-8238
▁style	-8239
attache	-8240
inabasi	-8241
▁caract	-8242
▁champs	-8243
▁cɛfari	-8244
▁djonan	-8245
▁gwengw	-8246
▁nouvel	-8247
▁compter	-8248
▁devenue	-8249
▁scienti	-8250
▁Samarita	-8251
▁diverses	-8252
▁entendit	-8253
▁kantigiya	-8254
▁Ezipitikaw	-8255
▁sanctuaire	-8256
▁~	-8257
:38	-8258
pir	-8259
ɔrɛ	-8260
▁BO	-8261
rira	-8262
Ɔrɔm	-8263
▁eye	-8264
▁iss	-8265
▁kui	-8266
▁plu	-8267
▁sit	-8268
Kalan	-8269
oudre	-8270
ressé	-8271
▁Ruti	-8272
▁chaî	-8273
▁fron	-8274
▁kizu	-8275
▁prié	-8276
entiel	-8277
▁Lagaw	-8278
▁benna	-8279
▁cadre	-8280
▁kablo	-8281
▁kolɔn	-8282
araître	-8283
intérêt	-8284
▁action	-8285
▁couple	-8286
▁fanŋga	-8287
▁kɔrɔfɔ	-8288
▁obtenu	-8289
▁single	-8290
▁tenait	-8291
▁Ezekiel	-8292
▁chameau	-8293
▁crurent	-8294
▁juguman	-8295
▁pensent	-8296
▁prononc	-8297
▁distance	-8298
▁protéger	-8299
▁compréhen	-8300
▁latigɛnin	-8301
▁permettre	-8302
.)	-8303
bol	-8304
era	-8305
nge	-8306
▁Sé	-8307
emos	-8308
lure	-8309
▁Gen	-8310
▁Tam	-8311
▁Vou	-8312
▁kor	-8313
▁pén	-8314
lande	-8315
vingt	-8316
▁Sont	-8317
▁anni	-8318
▁dili	-8319
▁froi	-8320
▁kene	-8321
▁lata	-8322
▁mâle	-8323
▁Êtes	-8324
bariya	-8325
phraïm	-8326
▁Diman	-8327
▁Musow	-8328
▁aloof	-8329
▁bɛɛri	-8330
▁jouer	-8331
▁lever	-8332
▁scène	-8333
▁vrais	-8334
mission	-8335
▁Israèl	-8336
▁argent	-8337
▁habite	-8338
▁miriya	-8339
▁modèle	-8340
▁tubabu	-8341
▁yanfan	-8342
▁célèbre	-8343
▁matinée	-8344
▁princes	-8345
▁sixième	-8346
▁victime	-8347
interroge	-8348
▁annoncer	-8349
▁arrivent	-8350
▁créateur	-8351
▁fonction	-8352
▁sacrific	-8353
▁processus	-8354
▁mɔgɔfagala	-8355
▁synagogues	-8356
AKI	-8357
mos	-8358
▁Ez	-8359
▁uf	-8360
▁»,	-8361
▁194	-8362
▁And	-8363
▁tal	-8364
Saint	-8365
venir	-8366
▁Koow	-8367
▁LIKE	-8368
▁awak	-8369
▁doct	-8370
▁domu	-8371
▁espé	-8372
▁fɔxɔ	-8373
▁hehe	-8374
▁soup	-8375
▁Douze	-8376
▁boule	-8377
▁kakan	-8378
▁kɔndɔ	-8379
▁Quatre	-8380
▁lèvres	-8381
▁miseli	-8382
▁refuse	-8383
▁croyant	-8384
▁matière	-8385
▁patient	-8386
▁sabemos	-8387
affection	-8388
▁baptiser	-8389
▁conduire	-8390
▁parfaite	-8391
Dugugwɛdafɛ	-8392
▁barikamanw	-8393
.3	-8394
”.	-8395
Ass	-8396
Olu	-8397
dɔn	-8398
▁Bɔ	-8399
alle	-8400
cipe	-8401
enfu	-8402
kɔti	-8403
nent	-8404
omob	-8405
rase	-8406
tika	-8407
yɔti	-8408
▁Cin	-8409
▁Eff	-8410
▁Pun	-8411
▁ana	-8412
▁bit	-8413
▁bur	-8414
▁kur	-8415
▁sat	-8416
finna	-8417
habit	-8418
ressi	-8419
ôgôya	-8420
▁Afin	-8421
▁Bara	-8422
▁Pard	-8423
▁jiba	-8424
▁kena	-8425
▁moto	-8426
▁6.000	-8427
▁bolow	-8428
▁démon	-8429
▁maris	-8430
▁salle	-8431
▁video	-8432
entends	-8433
olument	-8434
oreille	-8435
▁Certes	-8436
▁Mɛlɛkɛ	-8437
▁apprit	-8438
▁barque	-8439
▁dogonin	-8440
▁faibles	-8441
▁gwengwen	-8442
▁latigèra	-8443
▁sigasiga	-8444
▁lafiɲɛlon	-8445
▁Pharisiens	-8446
ŋɛ	-8447
Fun	-8448
daf	-8449
oss	-8450
▁CO	-8451
erra	-8452
nées	-8453
raid	-8454
▁art	-8455
▁dak	-8456
▁exh	-8457
▁pal	-8458
amuso	-8459
arité	-8460
jamin	-8461
▁dɔrɔ	-8462
▁séri	-8463
▁tels	-8464
▁yuun	-8465
▁Inter	-8466
▁adore	-8467
▁baliw	-8468
▁benin	-8469
▁lutte	-8470
▁nɔgɔn	-8471
▁Israel	-8472
▁Sɔgɔma	-8473
▁Zozuwe	-8474
▁afraid	-8475
▁brebis	-8476
▁confir	-8477
▁envisa	-8478
▁formes	-8479
▁foules	-8480
▁limite	-8481
▁transp	-8482
gyptiens	-8483
▁interro	-8484
▁halakira	-8485
▁demandent	-8486
▁kongosogo	-8487
▁retrouver	-8488
zɛ	-8489
atɔ	-8490
nie	-8491
pro	-8492
▁3:	-8493
Kɛlɛ	-8494
ceau	-8495
gwan	-8496
hali	-8497
tume	-8498
▁Der	-8499
▁Sou	-8500
▁Tes	-8501
▁bai	-8502
▁pen	-8503
▁sai	-8504
ensés	-8505
vages	-8506
▁Awak	-8507
▁Siga	-8508
▁Tala	-8509
▁Yafa	-8510
▁bòra	-8511
▁dite	-8512
▁joue	-8513
▁keli	-8514
▁kilo	-8515
▁mere	-8516
▁mute	-8517
▁Sarah	-8518
▁Sinaï	-8519
▁bukak	-8520
▁croya	-8521
▁emplo	-8522
▁gnini	-8523
▁kônon	-8524
Hɔrɔnya	-8525
▁Canada	-8526
▁cadeau	-8527
▁restés	-8528
▁senuma	-8529
▁wotoro	-8530
inations	-8531
▁Zonatan	-8532
▁faamuna	-8533
▁jamanaw	-8534
▁tumajan	-8535
▁demeures	-8536
▁lafiɲɛna	-8537
▁dugumɔgɔw	-8538
▁propriéta	-8539
▁référence	-8540
▁Alaɲasiran	-8541
▁disponibles	-8542
▁comportement	-8543
▁développement	-8544
LE	-8545
ONK	-8546
bal	-8547
got	-8548
ked	-8549
UMAW	-8550
anou	-8551
▁Hii	-8552
▁Uni	-8553
▁ask	-8554
▁jòn	-8555
▁kel	-8556
▁kum	-8557
▁Faut	-8558
▁Quoi	-8559
▁Sela	-8560
▁bwes	-8561
▁doun	-8562
▁déch	-8563
▁lage	-8564
▁mɔnɛ	-8565
dirent	-8566
foroko	-8567
luence	-8568
▁forêt	-8569
▁nataw	-8570
▁nyana	-8571
▁patri	-8572
▁swali	-8573
ONKUMAW	-8574
environ	-8575
▁Sinayi	-8576
▁connue	-8577
▁offrir	-8578
▁sɔtɔma	-8579
▁tanuli	-8580
▁tribun	-8581
▁ŋaniya	-8582
issaient	-8583
▁Hébreux	-8584
▁déclara	-8585
▁réjouit	-8586
▁tombeau	-8587
▁commandé	-8588
▁kizuushi	-8589
▁nalomanw	-8590
▁sɔgɔmada	-8591
obéissance	-8592
▁attendant	-8593
▁DADONKUMAW	-8594
▁enseignait	-8595
!›	-8596
6,	-8597
εε	-8598
met	-8599
▁Sh	-8600
▁dr	-8601
aara	-8602
auto	-8603
yali	-8604
▁Bat	-8605
▁Isc	-8606
▁agi	-8607
▁awa	-8608
▁ski	-8609
▁xan	-8610
agnol	-8611
allez	-8612
▁Leur	-8613
▁kaɲi	-8614
ancien	-8615
ɔnniya	-8616
▁2004.	-8617
▁grave	-8618
▁jeter	-8619
▁achevé	-8620
▁dirais	-8621
▁phénom	-8622
▁teriya	-8623
▁gbasaya	-8624
▁instant	-8625
▁kabirin	-8626
▁recevrez	-8627
▁sinikɛnɛ	-8628
▁tununinw	-8629
▁importants	-8630
st	-8631
▁「	-8632
esi	-8633
ffe	-8634
kɛn	-8635
▁ID	-8636
▁St	-8637
aces	-8638
arna	-8639
unin	-8640
éloi	-8641
▁2:4	-8642
▁bòn	-8643
▁flè	-8644
▁gri	-8645
▁hor	-8646
▁émo	-8647
dited	-8648
▁fare	-8649
▁gnin	-8650
▁mɔru	-8651
▁soɲa	-8652
▁spec	-8653
entraî	-8654
▁calme	-8655
▁findi	-8656
▁fixes	-8657
▁jɔncɛ	-8658
▁leele	-8659
▁pains	-8660
▁soign	-8661
▁Edited	-8662
▁Malgré	-8663
▁adulte	-8664
▁connus	-8665
▁daraka	-8666
▁rejoin	-8667
▁réguli	-8668
enseigne	-8669
essaloni	-8670
échapper	-8671
▁extrême	-8672
denyabolo	-8673
existence	-8674
▁tradition	-8675
▁déclaration	-8676
od	-8677
ODY	-8678
eee	-8679
éni	-8680
▁06	-8681
alon	-8682
mier	-8683
èrèn	-8684
▁Law	-8685
▁oeu	-8686
▁ump	-8687
gramu	-8688
meyɔn	-8689
tacle	-8690
▁Next	-8691
▁Taga	-8692
▁aidé	-8693
▁kôfè	-8694
▁maka	-8695
▁tɔɔn	-8696
dienne	-8697
fitini	-8698
mannin	-8699
éloign	-8700
▁GONNA	-8701
▁match	-8702
▁signa	-8703
▁survi	-8704
▁âgées	-8705
▁établ	-8706
▁NOBODY	-8707
▁beauté	-8708
▁dessin	-8709
▁lajɛnw	-8710
▁mannin	-8711
▁mɔɔilu	-8712
▁réflex	-8713
▁welela	-8714
▁yafara	-8715
▁Kuntigi	-8716
▁disparu	-8717
▁dizaine	-8718
▁moments	-8719
▁Fɔlɔfɔlɔ	-8720
▁boissons	-8721
▁dubadenw	-8722
▁kibaruya	-8723
▁oreilles	-8724
▁présenté	-8725
▁craignent	-8726
▁différente	-8727
▁kolatigɛninw	-8728
ŋa	-8729
ola	-8730
oth	-8731
ènè	-8732
▁Gi	-8733
▁^^	-8734
Kuma	-8735
ensé	-8736
firi	-8737
masu	-8738
oirs	-8739
▁fui	-8740
▁ger	-8741
▁one	-8742
gandi	-8743
▁ZAKI	-8744
▁diko	-8745
▁gèrè	-8746
▁zone	-8747
▁âgés	-8748
▁Enfin	-8749
▁kunba	-8750
▁mɔgɔs	-8751
▁niman	-8752
▁souvi	-8753
▁veuve	-8754
sankolo	-8755
▁Yahweh	-8756
▁fiyewu	-8757
▁risque	-8758
iningali	-8759
registre	-8760
▁gratuit	-8761
▁prirent	-8762
Adamadenw	-8763
améliorer	-8764
▁Souvenez	-8765
▁fantanya	-8766
▁folofolo	-8767
▁reprises	-8768
▁retourné	-8769
▁victoire	-8770
▁découvert	-8771
▁galontigɛ	-8772
▁principal	-8773
▁quotidien	-8774
▁rencontré	-8775
▁karamɔgɔdenw	-8776
El	-8777
tô	-8778
???	-8779
bum	-8780
▁2=	-8781
dans	-8782
lymp	-8783
rets	-8784
▁20.	-8785
▁Eza	-8786
▁Lan	-8787
▁pɔr	-8788
illon	-8789
▁Moab	-8790
▁Prés	-8791
▁Siya	-8792
▁Yeah	-8793
▁kôgô	-8794
▁kɛtɔ	-8795
▁pont	-8796
inrent	-8797
offrir	-8798
tières	-8799
▁diyan	-8800
▁dungu	-8801
▁dòròn	-8802
▁gbèrè	-8803
▁stupé	-8804
▁tenté	-8805
▁Sodome	-8806
▁auront	-8807
▁dɛsɛra	-8808
▁pleurs	-8809
▁recons	-8810
▁umpama	-8811
▁vivons	-8812
▁vɛrise	-8813
kariyɔti	-8814
▁connait	-8815
▁hauteur	-8816
▁kalanso	-8817
▁apprécié	-8818
▁commença	-8819
▁cherchent	-8820
▁nalomanya	-8821
▁ressemble	-8822
▁génération	-8823
▁responsable	-8824
RA	-8825
RE	-8826
fò	-8827
ɑn	-8828
▁ñ	-8829
▁Ŋ	-8830
Ara	-8831
dir	-8832
lic	-8833
tic	-8834
▁01	-8835
▁aî	-8836
▁ev	-8837
▁wù	-8838
aban	-8839
agré	-8840
daan	-8841
▁15.	-8842
▁Mas	-8843
▁bag	-8844
▁low	-8845
▁lɛɛ	-8846
diens	-8847
établ	-8848
▁Diɲɛ	-8849
▁Kore	-8850
▁lame	-8851
▁sawa	-8852
▁soli	-8853
▁sɔsɔ	-8854
▁vend	-8855
ziyasi	-8856
▁Peter	-8857
▁ayiwa	-8858
▁dirai	-8859
▁décès	-8860
▁kɛlen	-8861
▁sinon	-8862
honnête	-8863
▁Kanuya	-8864
▁essayé	-8865
▁ferait	-8866
▁reprit	-8867
▁soyons	-8868
▁suffis	-8869
▁tɔɔrɔw	-8870
▁ɲɔgɔmɛ	-8871
▁hɔrɔnya	-8872
▁labɛnna	-8873
▁lettres	-8874
issements	-8875
▁auraient	-8876
▁enceinte	-8877
▁physique	-8878
▁souffrir	-8879
kalasebaga	-8880
▁Néanmoins	-8881
▁condition	-8882
▁fadenyabolo	-8883
No	-8884
▁€	-8885
OLO	-8886
dix	-8887
gbɛ	-8888
ish	-8889
rus	-8890
▁98	-8891
▁má	-8892
▁300	-8893
▁50.	-8894
▁Bel	-8895
▁Yan	-8896
▁aku	-8897
▁kei	-8898
▁lai	-8899
▁nba	-8900
chiez	-8901
gwɛrɛ	-8902
teaux	-8903
ɲɛnin	-8904
▁lasɔ	-8905
▁sert	-8906
engage	-8907
illant	-8908
itionn	-8909
ɲasigi	-8910
▁mises	-8911
▁sanda	-8912
▁sɔnni	-8913
▁Ɲɔgɔn	-8914
▁Betɛli	-8915
▁dollar	-8916
▁flanan	-8917
▁kɔrɔkɛ	-8918
▁lahara	-8919
▁mépris	-8920
▁routes	-8921
▁écrits	-8922
Écriture	-8923
▁Sirikaw	-8924
▁aliment	-8925
▁birancɛ	-8926
▁méthode	-8927
▁passent	-8928
▁sarakaw	-8929
▁surface	-8930
▁ɲɛsinna	-8931
lications	-8932
▁magnifique	-8933
▁siniɲasigi	-8934
bés	-8935
chè	-8936
lén	-8937
niw	-8938
▁02	-8939
ango	-8940
assa	-8941
quie	-8942
risi	-8943
▁Jaa	-8944
▁fri	-8945
▁kaw	-8946
anngɛ	-8947
▁Béni	-8948
▁Char	-8949
▁Kɛra	-8950
▁Than	-8951
▁kadi	-8952
▁ligi	-8953
▁yeuh	-8954
▁ɲada	-8955
Kisili	-8956
kɔrɔta	-8957
semble	-8958
▁boleh	-8959
▁extra	-8960
▁kolow	-8961
▁kunko	-8962
▁yiiko	-8963
▁étiez	-8964
enfance	-8965
▁Jamais	-8966
▁correc	-8967
▁ikomin	-8968
▁kɔkɛnɛ	-8969
▁kɔɲɔya	-8970
▁revint	-8971
▁sortis	-8972
▁fɛntigi	-8973
▁serment	-8974
▁silence	-8975
▁Benjamin	-8976
▁affaires	-8977
▁convainc	-8978
▁gofɛrɛnɛ	-8979
▁minnifɛn	-8980
▁pourriez	-8981
▁voitures	-8982
▁véhicule	-8983
▁Kalandenw	-8984
▁barikatanw	-8985
▁fangatigiw	-8986
▁pourraient	-8987
0.	-8988
As	-8989
TA	-8990
YD	-8991
:35	-8992
hés	-8993
lek	-8994
▁sì	-8995
dali	-8996
▁Azi	-8997
▁dos	-8998
▁esu	-8999
▁bran	-9000
▁dèmè	-9001
▁esti	-9002
▁etre	-9003
▁jaaw	-9004
▁kabo	-9005
▁mugu	-9006
▁vues	-9007
▁xili	-9008
ellent	-9009
▁abord	-9010
▁yiran	-9011
▁jigitɔ	-9012
▁partis	-9013
alestini	-9014
antekɔti	-9015
llemagne	-9016
▁dugunin	-9017
▁limites	-9018
▁moisson	-9019
▁nafaman	-9020
▁woronwula	-9021
▁Nazarɛtika	-9022
▁Thessaloni	-9023
▁appartient	-9024
▁protection	-9025
▁Isikariyɔti	-9026
▁adolescents	-9027
▁complètement	-9028
ANS	-9029
loo	-9030
lun	-9031
van	-9032
▁Ag	-9033
▁gɔ	-9034
oise	-9035
▁1.1	-9036
▁18;	-9037
▁24-	-9038
▁fus	-9039
▁gro	-9040
▁ile	-9041
▁leo	-9042
▁mio	-9043
anche	-9044
asaga	-9045
tanga	-9046
▁Elie	-9047
▁Jigɛ	-9048
▁Kayi	-9049
▁caté	-9050
▁jala	-9051
▁sina	-9052
▁tutu	-9053
▁Anges	-9054
▁dunun	-9055
▁kouma	-9056
▁latin	-9057
▁liens	-9058
▁mɔ̀gɔ	-9059
▁yiriw	-9060
chaient	-9061
hôpital	-9062
▁jijara	-9063
▁matéri	-9064
▁venues	-9065
endormir	-9066
▁jɔnmuso	-9067
▁labanna	-9068
Pantekɔti	-9069
▁kɛnɛkɛnɛ	-9070
▁poursuit	-9071
▁Farisiènw	-9072
▁kabakuruw	-9073
▁religions	-9074
▁jalakiyɔrɔ	-9075
interprétation	-9076
▁continuellement	-9077
ɛ̄	-9078
:32	-9079
Mon	-9080
emb	-9081
gué	-9082
mbu	-9083
opé	-9084
ŋgo	-9085
▁7-	-9086
arie	-9087
cula	-9088
dant	-9089
deux	-9090
itez	-9091
omas	-9092
trui	-9093
wiin	-9094
ypse	-9095
▁Ber	-9096
▁Fɔɔ	-9097
▁Tur	-9098
▁dao	-9099
▁pin	-9100
▁yam	-9101
ctifs	-9102
roits	-9103
trois	-9104
▁Afuɛ	-9105
▁Baba	-9106
▁Sole	-9107
▁bile	-9108
▁lion	-9109
▁look	-9110
▁maza	-9111
▁ɲuma	-9112
emploi	-9113
▁Edɔmu	-9114
▁Pense	-9115
▁alive	-9116
▁cɛnna	-9117
▁sɛgɛn	-9118
▁yɛrɛw	-9119
issants	-9120
▁Messie	-9121
▁destin	-9122
▁enlevé	-9123
▁prince	-9124
alliance	-9125
itations	-9126
▁deliliw	-9127
▁jurumun	-9128
▁préparé	-9129
installer	-9130
▁conduite	-9131
▁glorifié	-9132
▁trouvera	-9133
▁présenter	-9134
▁spirituel	-9135
▁clairement	-9136
▁dògòmannin	-9137
▁préférable	-9138
▁puissances	-9139
▁Ɲɔgɔnkunbɛn	-9140
3.	-9141
RU	-9142
bie	-9143
din	-9144
éte	-9145
ɛnu	-9146
cide	-9147
diri	-9148
nɔgɔ	-9149
reau	-9150
xand	-9151
élic	-9152
▁24"	-9153
▁Env	-9154
▁Grè	-9155
▁Veu	-9156
▁gba	-9157
▁yeh	-9158
asira	-9159
pocal	-9160
zamɛn	-9161
▁Mako	-9162
▁Mata	-9163
▁Yahu	-9164
▁bada	-9165
▁chem	-9166
▁tobi	-9167
▁wulu	-9168
▁Kelly	-9169
▁amené	-9170
▁chers	-9171
▁fabri	-9172
▁hypoc	-9173
▁lenen	-9174
▁think	-9175
empêche	-9176
uissant	-9177
▁Gloire	-9178
▁cheval	-9179
▁équipe	-9180
▁arrière	-9181
▁corresp	-9182
▁défense	-9183
▁oeuvres	-9184
▁petites	-9185
▁pécheur	-9186
lɔnbariya	-9187
▁Sagajigi	-9188
▁ministère	-9189
▁passeront	-9190
▁traitement	-9191
▁extrêmement	-9192
▁internation	-9193
▁actuellement	-9194
-)	-9195
1]	-9196
5,	-9197
uxu	-9198
élo	-9199
ɛki	-9200
▁LA	-9201
▁ɔ́	-9202
Hɛrɛ	-9203
ceur	-9204
deya	-9205
dies	-9206
minè	-9207
ning	-9208
pour	-9209
uter	-9210
▁10-	-9211
▁10.	-9212
▁Kar	-9213
▁bel	-9214
▁gal	-9215
Minnu	-9216
chées	-9217
insin	-9218
▁Hɛrɛ	-9219
▁kela	-9220
▁sɔgɔ	-9221
▁sɔɔn	-9222
enfuit	-9223
issons	-9224
▁Erɔdi	-9225
▁chien	-9226
▁citoy	-9227
▁coupe	-9228
▁forcé	-9229
▁hérit	-9230
▁lɔnni	-9231
▁Sanngɛ	-9232
▁cinéma	-9233
▁multip	-9234
▁tagatɔ	-9235
▁wiwiin	-9236
▁yaraga	-9237
offrande	-9238
▁devriez	-9239
▁balimakè	-9240
▁coupable	-9241
▁dizaines	-9242
▁regardez	-9243
▁autorités	-9244
▁compagnie	-9245
▁hamijuguw	-9246
▁porogramu	-9247
▁transport	-9248
▁gouverneur	-9249
▁sigiɲɔgɔnw	-9250
▁profondément	-9251
▁siralɔnbariya	-9252
▁hakilitigiyako	-9253
/20	-9254
bor	-9255
dun	-9256
roo	-9257
▁er	-9258
▁tà	-9259
bran	-9260
kôrô	-9261
labo	-9262
yrie	-9263
▁8:1	-9264
▁Aut	-9265
▁Bas	-9266
▁ase	-9267
▁cle	-9268
▁fɛɛ	-9269
▁gnè	-9270
▁ini	-9271
envie	-9272
gment	-9273
ouest	-9274
▁Duni	-9275
▁Môgô	-9276
▁bian	-9277
▁béni	-9278
▁fama	-9279
▁jina	-9280
▁kere	-9281
▁évid	-9282
Yakuba	-9283
habite	-9284
quième	-9285
tances	-9286
▁batiz	-9287
▁chine	-9288
▁embar	-9289
▁lampe	-9290
▁lasun	-9291
▁minɛn	-9292
▁seize	-9293
▁simil	-9294
▁touma	-9295
▁vertu	-9296
▁désire	-9297
▁fautes	-9298
▁goyara	-9299
▁kunndɛ	-9300
▁mɛnilu	-9301
▁située	-9302
▁tranqu	-9303
Evangile	-9304
▁couleur	-9305
▁diyanye	-9306
pocalypse	-9307
▁Première	-9308
▁méchance	-9309
▁prennent	-9310
▁quantité	-9311
▁résister	-9312
▁ɲagamini	-9313
▁comprends	-9314
▁Traduction	-9315
▁absolument	-9316
▁enseignera	-9317
▁destruction	-9318
▁directement	-9319
EC	-9320
rr	-9321
Den	-9322
Oui	-9323
hin	-9324
Ngue	-9325
kogo	-9326
osse	-9327
tɛrɛ	-9328
yɔsi	-9329
éder	-9330
▁Déc	-9331
▁Fin	-9332
▁duu	-9333
▁get	-9334
▁ide	-9335
▁sal	-9336
areil	-9337
▁BOYD	-9338
▁Prin	-9339
▁hont	-9340
▁irré	-9341
▁jeun	-9342
isseur	-9343
onnier	-9344
▁Etats	-9345
▁Wanna	-9346
▁formu	-9347
▁kɔnɔw	-9348
▁rouge	-9349
▁tamin	-9350
▁tugur	-9351
graphie	-9352
▁aiment	-9353
▁famili	-9354
▁ninnge	-9355
▁venant	-9356
▁étrang	-9357
adultère	-9358
▁Iscario	-9359
▁remplis	-9360
▁discussi	-9361
▁ɲanamanw	-9362
▁caractère	-9363
▁demandait	-9364
▁notamment	-9365
▁prochaine	-9366
▁reprendre	-9367
▁firiyamuso	-9368
▁conséquences	-9369
:'	-9370
but	-9371
cia	-9372
jɔn	-9373
▁Wi	-9374
▁sô	-9375
▁xD	-9376
Adam	-9377
kɛlɛ	-9378
État	-9379
▁18"	-9380
▁Fem	-9381
▁jon	-9382
quait	-9383
▁agit	-9384
▁amun	-9385
▁fati	-9386
▁join	-9387
▁papa	-9388
▁sume	-9389
▁voul	-9390
▁woyo	-9391
istait	-9392
▁Efɛzi	-9393
▁gardé	-9394
▁local	-9395
▁nòòrò	-9396
▁porté	-9397
▁selen	-9398
▁souve	-9399
▁voyag	-9400
accepte	-9401
affaire	-9402
▁Nawomi	-9403
▁Zowabu	-9404
▁cartes	-9405
▁certes	-9406
▁kouman	-9407
▁kɔrɔgɔ	-9408
▁soeurs	-9409
▁vallée	-9410
▁visité	-9411
Amérique	-9412
kilitigi	-9413
▁dafalen	-9414
▁fariman	-9415
▁kojuguw	-9416
▁telefon	-9417
▁trésors	-9418
embrasser	-9419
▁arrivera	-9420
▁campagne	-9421
▁levèrent	-9422
▁quatrième	-9423
heureusement	-9424
!'	-9425
ID	-9426
xo	-9427
emo	-9428
pas	-9429
roi	-9430
▁Kl	-9431
▁NW	-9432
▁Zh	-9433
dame	-9434
onse	-9435
ther	-9436
▁Oli	-9437
▁dég	-9438
▁gak	-9439
▁lib	-9440
▁noo	-9441
▁rob	-9442
▁évo	-9443
inama	-9444
▁Béth	-9445
▁jɔrɔ	-9446
▁mago	-9447
▁note	-9448
▁tili	-9449
Kabini	-9450
aucune	-9451
orient	-9452
sitɛri	-9453
▁artis	-9454
▁dormi	-9455
▁infor	-9456
▁thème	-9457
alomanw	-9458
▁kasadi	-9459
▁sagona	-9460
▁sigama	-9461
administ	-9462
▁Julakan	-9463
▁explique	-9464
▁kasodenw	-9465
▁kɔnɔfɛnw	-9466
▁murutira	-9467
▁tagasaga	-9468
obligation	-9469
▁personnage	-9470
▁sanctifiés	-9471
▁constamment	-9472
▁descendance	-9473
▁Isirayɛliden	-9474
▁bienveillance	-9475
":	-9476
**	-9477
.,	-9478
mê	-9479
ƆN	-9480
ILA	-9481
inn	-9482
omb	-9483
ŋgɛ	-9484
▁ue	-9485
asen	-9486
itaw	-9487
onnu	-9488
▁16.	-9489
▁500	-9490
▁Ham	-9491
▁KAL	-9492
▁Sad	-9493
▁yàn	-9494
enses	-9495
ginni	-9496
mence	-9497
▁Kɛlɛ	-9498
▁Nabu	-9499
▁inbe	-9500
▁kisɛ	-9501
▁send	-9502
▁star	-9503
▁tɔrɔ	-9504
▁Punta	-9505
▁coups	-9506
▁héros	-9507
▁prévu	-9508
bɛɛtigi	-9509
ɛnamaya	-9510
▁Pilati	-9511
▁Soleil	-9512
▁devais	-9513
▁larmes	-9514
▁pousse	-9515
▁rempli	-9516
▁sɔrɔli	-9517
▁veuves	-9518
accepter	-9519
▁cɛɲuman	-9520
▁guerres	-9521
▁persécu	-9522
▁prophét	-9523
▁symbole	-9524
approcher	-9525
▁autorité	-9526
▁dafaninw	-9527
▁province	-9528
▁tendance	-9529
▁vêtement	-9530
tɔnkuntigi	-9531
▁kanbelenw	-9532
▁Barinabasi	-9533
▁disponible	-9534
eb	-9535
▁î	-9536
SUS	-9537
jin	-9538
ley	-9539
oma	-9540
ɛsi	-9541
▁JE	-9542
▁aj	-9543
ager	-9544
eren	-9545
vain	-9546
▁1:6	-9547
▁Eti	-9548
▁The	-9549
▁Zer	-9550
▁eng	-9551
▁fav	-9552
▁suw	-9553
arɛti	-9554
asiri	-9555
▁Face	-9556
▁Kira	-9557
▁dant	-9558
▁kiye	-9559
▁lead	-9560
▁paie	-9561
▁pire	-9562
▁rési	-9563
▁sala	-9564
arrêta	-9565
enfuir	-9566
entour	-9567
irinin	-9568
lusion	-9569
éviter	-9570
▁Suman	-9571
▁avril	-9572
▁bibli	-9573
▁danni	-9574
▁forts	-9575
▁pouss	-9576
▁préfé	-9577
▁prête	-9578
▁sache	-9579
▁yɔrɔw	-9580
heureux	-9581
▁avions	-9582
▁batɛmu	-9583
▁former	-9584
▁quarti	-9585
▁royale	-9586
▁soirée	-9587
▁voyait	-9588
accompli	-9589
▁enverra	-9590
▁mansaya	-9591
▁sachiez	-9592
▁sugandi	-9593
▁Jonathan	-9594
▁Nalomanw	-9595
▁Veuillez	-9596
▁consiste	-9597
▁yɛlɛmani	-9598
▁Efarayimu	-9599
▁promesses	-9600
▁badenmailu	-9601
▁méchanceté	-9602
▁poursuivre	-9603
▁signifiait	-9604
26	-9605
ɔm	-9606
▁›	-9607
Zan	-9608
▁Mé	-9609
anso	-9610
mman	-9611
nage	-9612
osow	-9613
yabi	-9614
▁???	-9615
▁Bal	-9616
▁Ima	-9617
▁Tel	-9618
▁abi	-9619
▁aur	-9620
▁dus	-9621
▁pot	-9622
▁sap	-9623
▁ste	-9624
▁tow	-9625
inale	-9626
ortez	-9627
▁1:20	-9628
▁adap	-9629
▁kiko	-9630
▁purs	-9631
▁uflɛ	-9632
▁unto	-9633
▁éner	-9634
mankan	-9635
▁Itali	-9636
▁exemp	-9637
▁incap	-9638
▁pièce	-9639
▁bilara	-9640
▁chasse	-9641
▁lɔnnin	-9642
▁timina	-9643
objectif	-9644
▁Faɲuman	-9645
▁dollars	-9646
▁tremble	-9647
appellera	-9648
▁Mɔgɔbalu	-9649
▁kɔrɔbɔli	-9650
▁revanche	-9651
▁souriait	-9652
▁tchaaman	-9653
entreprise	-9654
▁Iscariote	-9655
▁dusukunna	-9656
▁messagers	-9657
▁différences	-9658
IP	-9659
iz	-9660
ooo	-9661
sun	-9662
sòn	-9663
éto	-9664
tifi	-9665
zira	-9666
ôtel	-9667
▁ade	-9668
▁beh	-9669
▁bra	-9670
▁klo	-9671
▁tue	-9672
ANSEN	-9673
gents	-9674
siran	-9675
écris	-9676
épous	-9677
▁2016	-9678
▁bulu	-9679
▁crée	-9680
▁domi	-9681
▁juif	-9682
▁rafi	-9683
▁rang	-9684
établi	-9685
▁avion	-9686
▁banta	-9687
▁chaud	-9688
▁médec	-9689
▁rejet	-9690
▁sépul	-9691
gwɛlɛya	-9692
▁Retour	-9693
▁Wajibi	-9694
▁divert	-9695
▁droits	-9696
▁guérir	-9697
▁guéris	-9698
▁kɛnɛma	-9699
▁lagamɛ	-9700
▁ordres	-9701
▁parent	-9702
▁rappro	-9703
▁yɛlema	-9704
Puissant	-9705
empereur	-9706
humilité	-9707
▁affaire	-9708
▁sanbɛrɛ	-9709
▁troupes	-9710
▁KALANSEN	-9711
▁empêcher	-9712
▁résoudre	-9713
▁accomplie	-9714
▁kunkɔrɔta	-9715
▁wolonfila	-9716
▁trouvaient	-9717
3,	-9718
̃ɔ	-9719
eue	-9720
êtu	-9721
▁1"	-9722
▁JÉ	-9723
▁Tr	-9724
▁tw	-9725
▁yɑ	-9726
-000	-9727
Foyi	-9728
chaî	-9729
iers	-9730
kisɛ	-9731
loya	-9732
phie	-9733
tons	-9734
ɲuma	-9735
▁400	-9736
▁Cro	-9737
▁Tom	-9738
▁air	-9739
▁flu	-9740
▁gla	-9741
▁haw	-9742
▁équ	-9743
fɛnnɛ	-9744
intro	-9745
▁KUMA	-9746
▁buku	-9747
▁cana	-9748
▁diye	-9749
▁doux	-9750
▁kako	-9751
▁obje	-9752
▁sana	-9753
▁senw	-9754
Piyɛri	-9755
giques	-9756
gwɛlɛn	-9757
ilikan	-9758
▁Isire	-9759
▁fanba	-9760
▁roman	-9761
▁situé	-9762
fection	-9763
▁Katugu	-9764
▁Thomas	-9765
▁Voyons	-9766
▁Yalaka	-9767
▁marifa	-9768
▁paraît	-9769
▁sépare	-9770
▁techni	-9771
lacement	-9772
▁dispose	-9773
▁méchant	-9774
▁plantes	-9775
▁planète	-9776
▁retenir	-9777
▁internet	-9778
▁kerecɛnw	-9779
▁objectif	-9780
▁yɛlɛtuma	-9781
▁dafabaliw	-9782
▁espérance	-9783
▁programme	-9784
accompagner	-9785
▁kabaforoko	-9786
▁mandiminin	-9787
▁commentaire	-9788
ED	-9789
nd	-9790
gas	-9791
get	-9792
▁Cu	-9793
▁Us	-9794
▁Zu	-9795
Yala	-9796
bɛli	-9797
geux	-9798
gnon	-9799
ison	-9800
étés	-9801
▁ALA	-9802
▁Che	-9803
▁Yer	-9804
▁biw	-9805
▁cèw	-9806
▁neu	-9807
▁poi	-9808
asses	-9809
kɔrɔw	-9810
▁Arri	-9811
▁Pero	-9812
▁Wala	-9813
▁anti	-9814
▁bobo	-9815
▁egil	-9816
▁jean	-9817
▁maxi	-9818
▁mène	-9819
▁onze	-9820
gèrent	-9821
humain	-9822
▁armée	-9823
▁birth	-9824
▁injus	-9825
▁jette	-9826
▁kɔ̀rɔ	-9827
▁sites	-9828
Assyrie	-9829
antongo	-9830
appelez	-9831
omobile	-9832
▁Marthe	-9833
▁dondaw	-9834
▁marqué	-9835
▁métier	-9836
▁rempla	-9837
▁traité	-9838
▁Kisibaa	-9839
▁laissée	-9840
▁devrions	-9841
▁prostern	-9842
▁sûrement	-9843
▁Makoyafɛn	-9844
▁farafinna	-9845
▁karamògòw	-9846
▁rejoindre	-9847
▁semblables	-9848
▁Kunmabɔsara	-9849
▁Sranantongo	-9850
▁demandèrent	-9851
▁responsables	-9852
)?	-9853
-5	-9854
Kɛ	-9855
OM	-9856
ïs	-9857
Que	-9858
kɔn	-9859
ple	-9860
red	-9861
utɔ	-9862
èma	-9863
▁Ɲɛ	-9864
▁3.1	-9865
▁EBU	-9866
▁KƆN	-9867
▁Nat	-9868
▁Pet	-9869
▁Tag	-9870
▁Zab	-9871
▁flo	-9872
▁mad	-9873
▁tur	-9874
▁œil	-9875
gneau	-9876
phèse	-9877
▁Cinq	-9878
▁Luti	-9879
▁bris	-9880
▁bɔbɔ	-9881
▁file	-9882
▁hana	-9883
▁lɔli	-9884
▁phil	-9885
▁sûre	-9886
cevoir	-9887
ptiste	-9888
▁Réjou	-9889
▁affec	-9890
▁améli	-9891
▁cellu	-9892
▁mɛnta	-9893
▁occup	-9894
▁ramen	-9895
aveugle	-9896
issante	-9897
tigɛkan	-9898
▁Donnez	-9899
▁batoko	-9900
▁boɲana	-9901
▁jamaba	-9902
▁soucis	-9903
▁traite	-9904
▁weleli	-9905
▁yɛlɛtɔ	-9906
▁acheter	-9907
▁divorce	-9908
▁miirili	-9909
▁mystère	-9910
▁alliance	-9911
▁chapitre	-9912
▁crucifié	-9913
▁hypocrit	-9914
▁alemankan	-9915
▁angilikan	-9916
▁cinquième	-9917
▁evolution	-9918
▁kunnafoni	-9919
▁néanmoins	-9920
▁populaire	-9921
▁possibles	-9922
▁suivirent	-9923
▁Ɲiningali	-9924
application	-9925
▁ninsɔndiya	-9926
▁pɔrtigɛkan	-9927
▁hakilitigiw	-9928
▁nisɔndiyanin	-9929
SG	-9930
zo	-9931
▁q	-9932
Qui	-9933
RUW	-9934
dra	-9935
duw	-9936
ɔnɛ	-9937
▁bê	-9938
▁tù	-9939
▁xɔ	-9940
FOLO	-9941
FƐNW	-9942
issa	-9943
lman	-9944
neuf	-9945
tter	-9946
usal	-9947
▁10"	-9948
▁12-	-9949
▁146	-9950
▁Bɛt	-9951
▁Dix	-9952
▁Fil	-9953
▁Ile	-9954
▁Jes	-9955
▁Réf	-9956
▁Sir	-9957
▁Val	-9958
▁nɔn	-9959
Aaron	-9960
estre	-9961
itant	-9962
oloca	-9963
▁3:11	-9964
▁KƆNƆ	-9965
▁Nini	-9966
▁batt	-9967
▁céré	-9968
▁hoti	-9969
▁jaan	-9970
▁laxi	-9971
▁pars	-9972
▁terr	-9973
▁zira	-9974
espace	-9975
▁JÉSUS	-9976
▁Thank	-9977
▁outre	-9978
▁sɔbɛw	-9979
▁youtu	-9980
▁EBURUW	-9981
▁Masakè	-9982
▁NAFOLO	-9983
▁Sodɔmu	-9984
▁dispar	-9985
▁espoir	-9986
▁kosson	-9987
▁kɔrɔtɔ	-9988
▁quitte	-9989
▁saying	-9990
oléances	-9991
▁Regarde	-9992
▁Sagaden	-9993
▁appeler	-9994
▁jaatika	-9995
▁environs	-9996
▁implique	-9997
▁ouvriers	-9998
▁soumises	-9999
▁milliards	-10000
▁personnel	-10001
▁puissants	-10002
▁NAFOLOFƐNW	-10003
▁laminikogo	-10004
▁principaux	-10005
ory	-10006
xɔn	-10007
▁1)	-10008
▁63	-10009
▁ky	-10010
▁ok	-10011
ders	-10012
segi	-10013
▁Kab	-10014
▁Naa	-10015
▁cho	-10016
▁hum	-10017
▁iko	-10018
▁jur	-10019
▁kir	-10020
▁ona	-10021
ative	-10022
iture	-10023
mbour	-10024
tiers	-10025
▁aate	-10026
▁bale	-10027
▁idea	-10028
▁nako	-10029
▁nuée	-10030
▁prét	-10031
▁renf	-10032
▁réel	-10033
▁siss	-10034
▁solo	-10035
▁sɔli	-10036
▁tche	-10037
itième	-10038
quérir	-10039
rateur	-10040
yances	-10041
▁Izira	-10042
▁James	-10043
▁Votre	-10044
▁abreu	-10045
▁ayons	-10046
▁cikgu	-10047
▁lanna	-10048
▁minkè	-10049
▁neige	-10050
▁tigiw	-10051
▁tiguè	-10052
mmanuel	-10053
usulman	-10054
▁Nation	-10055
▁africa	-10056
▁tombée	-10057
piration	-10058
▁domaine	-10059
▁espèces	-10060
▁regardé	-10061
▁sigɛnna	-10062
▁fariyara	-10063
▁maladies	-10064
▁sagonata	-10065
▁ɲamɔgɔya	-10066
▁Samarikaw	-10067
▁mouvement	-10068
▁premières	-10069
▁viendront	-10070
▁principales	-10071
▁Effectivement	-10072
0,	-10073
dô	-10074
eno	-10075
fun	-10076
tɔw	-10077
épr	-10078
ûte	-10079
ɲɔn	-10080
▁Mc	-10081
actu	-10082
amer	-10083
gnée	-10084
saan	-10085
▁Fɛn	-10086
▁Ste	-10087
▁cél	-10088
▁inp	-10089
▁oka	-10090
Voici	-10091
accou	-10092
babaw	-10093
pects	-10094
ricul	-10095
urumu	-10096
vidus	-10097
étail	-10098
▁1939	-10099
▁Duzu	-10100
▁Mise	-10101
▁came	-10102
dition	-10103
ɲumanw	-10104
▁chang	-10105
▁juive	-10106
▁tɔgɔw	-10107
denninw	-10108
▁Hérode	-10109
▁Pensez	-10110
▁animal	-10111
▁fadenw	-10112
▁kimasu	-10113
▁sentir	-10114
▁veille	-10115
tiennent	-10116
▁accordé	-10117
▁combats	-10118
▁dɔgɔnin	-10119
▁kununko	-10120
▁passera	-10121
▁persévé	-10122
▁birthday	-10123
▁héritage	-10124
▁individu	-10125
▁invitons	-10126
▁émotions	-10127
▁Seulement	-10128
▁tintinnin	-10129
explication	-10130
▁connaissez	-10131
▁répondirent	-10132
▁enseignement	-10133
II	-10134
dj	-10135
ún	-10136
▁ɓ	-10137
▁ע	-10138
ext	-10139
gga	-10140
▁pâ	-10141
▁yó	-10142
ANAN	-10143
allu	-10144
arat	-10145
ator	-10146
aube	-10147
quet	-10148
roni	-10149
ttez	-10150
yini	-10151
▁Ari	-10152
▁Ath	-10153
▁Hoo	-10154
▁blé	-10155
▁eka	-10156
▁kol	-10157
▁kén	-10158
▁ngɔ	-10159
▁sèg	-10160
amini	-10161
anman	-10162
mique	-10163
owamu	-10164
▁3:16	-10165
▁Kabi	-10166
▁Kuun	-10167
▁baby	-10168
▁deci	-10169
▁koli	-10170
▁kàra	-10171
▁midi	-10172
▁munu	-10173
▁reje	-10174
▁sexe	-10175
▁îles	-10176
veille	-10177
▁Faran	-10178
▁Kàlan	-10179
▁dɛmɛn	-10180
▁froid	-10181
▁ignor	-10182
▁nyini	-10183
▁quali	-10184
▁acheté	-10185
▁cancer	-10186
▁dunuya	-10187
▁levain	-10188
▁négati	-10189
▁parles	-10190
▁persua	-10191
▁Miséric	-10192
▁apparut	-10193
▁commune	-10194
▁kalanna	-10195
▁kɛwaati	-10196
▁meurent	-10197
▁soutien	-10198
▁Antiyɔsi	-10199
▁Dimanche	-10200
▁activité	-10201
▁capacité	-10202
▁croyance	-10203
▁kabakoma	-10204
artiennent	-10205
expression	-10206
▁autrefois	-10207
▁croyances	-10208
▁dumunifèn	-10209
▁lasigiden	-10210
▁troupeaux	-10211
▁correspond	-10212
▁religieuse	-10213
49	-10214
dh	-10215
▁|	-10216
:00	-10217
ike	-10218
onw	-10219
uri	-10220
wow	-10221
▁90	-10222
▁hy	-10223
guer	-10224
issé	-10225
isté	-10226
lien	-10227
âtre	-10228
▁1:5	-10229
▁Yaw	-10230
▁keh	-10231
▁lôn	-10232
▁pét	-10233
▁ran	-10234
▁sak	-10235
▁ven	-10236
▁éva	-10237
Funny	-10238
tante	-10239
▁Caph	-10240
▁Kari	-10241
▁Sois	-10242
▁annu	-10243
▁gana	-10244
▁hait	-10245
▁invo	-10246
▁lent	-10247
▁minu	-10248
▁mura	-10249
▁sako	-10250
▁sigu	-10251
▁tinɛ	-10252
▁woso	-10253
barras	-10254
délité	-10255
kourou	-10256
pitres	-10257
ressed	-10258
▁blanc	-10259
▁kaɲan	-10260
▁kunfɛ	-10261
▁large	-10262
▁peint	-10263
▁radio	-10264
▁Guerre	-10265
▁ancien	-10266
▁barima	-10267
▁détail	-10268
▁iFunny	-10269
▁objets	-10270
▁phrase	-10271
▁pleuré	-10272
▁priant	-10273
▁relève	-10274
▁règles	-10275
▁sujets	-10276
▁tienne	-10277
applique	-10278
explique	-10279
▁Enfants	-10280
▁FILANAN	-10281
▁masacɛw	-10282
▁parcour	-10283
▁précisé	-10284
▁ɲɔgɔnye	-10285
▁kɔlɔsili	-10286
appartient	-10287
▁Izirayɛli	-10288
▁inpressed	-10289
▁pardonnés	-10290
▁rendirent	-10291
▁saniyanin	-10292
▁sigiɲɔgɔn	-10293
▁kilomètres	-10294
▁rencontrer	-10295
▁sentiments	-10296
▁suffisamment	-10297
ין	-10298
▁Ù	-10299
:36	-10300
enɛ	-10301
tɛr	-10302
uil	-10303
▁tv	-10304
▁ut	-10305
amus	-10306
boam	-10307
char	-10308
diot	-10309
djou	-10310
erie	-10311
oies	-10312
ties	-10313
▁ate	-10314
▁nen	-10315
▁yir	-10316
▁épr	-10317
excus	-10318
isais	-10319
itent	-10320
étudi	-10321
▁nɛni	-10322
▁plat	-10323
essaye	-10324
ources	-10325
▁Autre	-10326
▁aimée	-10327
▁ameri	-10328
▁bɛmaw	-10329
▁furan	-10330
▁gotta	-10331
▁kawan	-10332
▁labèn	-10333
▁meure	-10334
▁niaan	-10335
▁venez	-10336
▁Grande	-10337
▁Mowabu	-10338
▁famous	-10339
▁fausse	-10340
▁moitié	-10341
▁tilara	-10342
▁unders	-10343
▁bweseru	-10344
▁devrais	-10345
▁dununya	-10346
▁raconté	-10347
▁yiranni	-10348
▁Bɛnzamɛn	-10349
▁dépasser	-10350
▁national	-10351
▁parcours	-10352
▁chapitres	-10353
alestiniens	-10354
▁scientifiques	-10355
fr	-10356
▁😉	-10357
:34	-10358
dja	-10359
dés	-10360
mel	-10361
ɔgɛ	-10362
▁Ps	-10363
▁RF	-10364
!!!!	-10365
Zɔbu	-10366
ball	-10367
mari	-10368
osun	-10369
tand	-10370
▁11.	-10371
▁Aza	-10372
▁Job	-10373
▁Wee	-10374
▁goo	-10375
▁haa	-10376
▁out	-10377
▁yor	-10378
anima	-10379
gnini	-10380
monie	-10381
▁Kɔrɔ	-10382
▁Lest	-10383
▁Tobi	-10384
▁Vrai	-10385
▁abro	-10386
▁beyi	-10387
▁diin	-10388
▁neni	-10389
▁nina	-10390
▁trah	-10391
besaba	-10392
dougou	-10393
ortent	-10394
▁Entre	-10395
▁avais	-10396
▁daari	-10397
▁kanne	-10398
▁kooba	-10399
▁tiers	-10400
▁tradu	-10401
▁Voulez	-10402
▁chante	-10403
▁désign	-10404
▁europé	-10405
▁farala	-10406
▁jɔrɔkɔ	-10407
▁laxira	-10408
▁perman	-10409
▁rentré	-10410
▁sommet	-10411
▁suivit	-10412
▁yɛrɛkɛ	-10413
▁contemp	-10414
▁djougou	-10415
▁histori	-10416
▁kobabaw	-10417
▁réunion	-10418
▁sigilen	-10419
▁Sebagaya	-10420
▁kuluyɔrɔ	-10421
▁mamadenw	-10422
▁Ephésiens	-10423
▁Faranfasi	-10424
▁événement	-10425
▁dirigeants	-10426
▁pleinement	-10427
▁prisonnier	-10428
▁véritablement	-10429
cy	-10430
bos	-10431
dar	-10432
kes	-10433
éti	-10434
̀gɔ	-10435
̀rɛ	-10436
▁67	-10437
▁CH	-10438
▁by	-10439
▁ɛn	-10440
abil	-10441
anse	-10442
brer	-10443
ings	-10444
kɔra	-10445
usée	-10446
éter	-10447
ôngô	-10448
▁Gir	-10449
▁Kat	-10450
▁Moo	-10451
▁amb	-10452
▁dap	-10453
▁fén	-10454
▁nna	-10455
▁עין	-10456
explo	-10457
istra	-10458
occup	-10459
▁1987	-10460
▁Mara	-10461
▁Maro	-10462
▁Saya	-10463
▁bɔnɔ	-10464
▁dafè	-10465
▁fine	-10466
▁lour	-10467
▁maît	-10468
▁mutu	-10469
▁nòfè	-10470
▁pero	-10471
......	-10472
duwani	-10473
onomie	-10474
unique	-10475
▁Buvez	-10476
▁akala	-10477
▁catho	-10478
▁djate	-10479
▁exauc	-10480
▁guéri	-10481
▁ngɔ̀n	-10482
▁nèèma	-10483
▁wèrèw	-10484
▁Decemb	-10485
▁Gardez	-10486
▁Hadama	-10487
▁Prends	-10488
▁bétail	-10489
▁lasɔmi	-10490
▁litigi	-10491
▁malgré	-10492
▁sendon	-10493
écoutent	-10494
▁Jiginni	-10495
▁attribu	-10496
▁chevaux	-10497
▁circons	-10498
▁magwɛrɛ	-10499
▁misaali	-10500
▁revient	-10501
▁stupide	-10502
▁vivante	-10503
▁écoutez	-10504
Fariziɲɛw	-10505
expliquer	-10506
▁actuelle	-10507
▁belebele	-10508
▁dɔgɔmuso	-10509
▁pardonné	-10510
▁réaliser	-10511
▁tɔɲɔgɔnw	-10512
▁Sɔlidasiw	-10513
▁accueilli	-10514
▁bololafɛn	-10515
▁mauvaises	-10516
▁understand	-10517
▁changements	-10518
▁gofɛrɛnɛman	-10519
▁propriétaire	-10520
▁reconnaissance	-10521
èm	-10522
épa	-10523
▁2:	-10524
▁3,	-10525
▁wé	-10526
Mògò	-10527
amis	-10528
céan	-10529
enna	-10530
fiée	-10531
lage	-10532
oche	-10533
oniw	-10534
ttra	-10535
émer	-10536
▁Bou	-10537
▁Dev	-10538
▁Kod	-10539
▁ata	-10540
▁bow	-10541
▁gos	-10542
▁nyi	-10543
▁yèn	-10544
anges	-10545
auras	-10546
risti	-10547
tagne	-10548
tɔɔrɔ	-10549
épend	-10550
ɔgɛnu	-10551
▁2021	-10552
▁Dɔgɔ	-10553
▁Mère	-10554
▁Mɔni	-10555
▁dort	-10556
▁flan	-10557
▁fɛrɛ	-10558
▁hari	-10559
▁jèya	-10560
▁lajè	-10561
▁musa	-10562
▁véri	-10563
▁wehe	-10564
instru	-10565
maient	-10566
ondres	-10567
▁Elize	-10568
▁Homme	-10569
▁Lajɛn	-10570
▁ainun	-10571
▁effic	-10572
▁exist	-10573
▁fanva	-10574
▁jurum	-10575
▁ouvre	-10576
▁récit	-10577
faction	-10578
gnation	-10579
itaires	-10580
olocaus	-10581
▁Naaman	-10582
▁Russie	-10583
▁espèce	-10584
▁jatira	-10585
▁offert	-10586
▁publié	-10587
▁quinze	-10588
▁tɛliya	-10589
annoncer	-10590
▁Réfléch	-10591
▁Simeyɔn	-10592
▁affirme	-10593
▁barokun	-10594
▁duninya	-10595
▁observa	-10596
▁rendons	-10597
▁science	-10598
▁senumaw	-10599
▁Ɛsitɛri	-10600
▁apparaît	-10601
▁cɛkɔrɔba	-10602
▁election	-10603
▁endroits	-10604
▁jeunesse	-10605
▁remettre	-10606
▁demeurent	-10607
▁kɔ̀rɔmuso	-10608
▁sɛnɛkɛlaw	-10609
▁accompagné	-10610
▁importantes	-10611
?!	-10612
AM	-10613
IS	-10614
IV	-10615
oh	-10616
mba	-10617
och	-10618
sia	-10619
tue	-10620
uga	-10621
▁8,	-10622
▁Dj	-10623
▁Fi	-10624
▁Hu	-10625
▁gê	-10626
alɔn	-10627
boli	-10628
daga	-10629
ento	-10630
fiez	-10631
invo	-10632
mara	-10633
mmes	-10634
téra	-10635
▁baw	-10636
▁bye	-10637
▁daw	-10638
▁joy	-10639
▁liɛ	-10640
▁lòn	-10641
▁nav	-10642
▁oli	-10643
effet	-10644
feere	-10645
illés	-10646
▁Baro	-10647
▁Jéro	-10648
▁Lève	-10649
▁couv	-10650
▁dôrô	-10651
▁fuck	-10652
▁joué	-10653
▁kita	-10654
▁ɲrun	-10655
Yusufu	-10656
amɔgɔw	-10657
effond	-10658
▁Fanga	-10659
▁Leurs	-10660
▁alako	-10661
▁eburu	-10662
▁mennu	-10663
▁resta	-10664
▁zones	-10665
▁évolu	-10666
kɔrɔnin	-10667
obowamu	-10668
▁Yafali	-10669
▁bureau	-10670
▁crédit	-10671
▁dunuɲa	-10672
▁défaut	-10673
▁dɔgɔma	-10674
▁entour	-10675
▁entrée	-10676
▁kɔɲɔcɛ	-10677
▁labɛnw	-10678
▁toolto	-10679
▁voleur	-10680
▁yafali	-10681
▁études	-10682
▁kunmabɔ	-10683
▁répandu	-10684
▁univers	-10685
▁verront	-10686
opération	-10687
▁Capharna	-10688
▁Jéroboam	-10689
▁abreuvés	-10690
▁distribu	-10691
▁dònbaliw	-10692
▁imbécile	-10693
▁qualités	-10694
▁descendre	-10695
▁prophétie	-10696
▁présentes	-10697
▁religieux	-10698
▁Maseduwani	-10699
▁permettent	-10700
▁tagamasiɲɛ	-10701
28	-10702
ONU	-10703
doo	-10704
dén	-10705
olɛ	-10706
oué	-10707
èce	-10708
ùso	-10709
▁9.	-10710
▁yɔ	-10711
%...	-10712
fili	-10713
kiyo	-10714
mogɔ	-10715
onso	-10716
orta	-10717
▁17.	-10718
▁LSG	-10719
▁Sar	-10720
▁lié	-10721
estin	-10722
ilier	-10723
kurun	-10724
uwɛli	-10725
▁Sous	-10726
▁Voie	-10727
▁allu	-10728
▁baka	-10729
▁dula	-10730
▁labi	-10731
▁méta	-10732
▁tɛgɛ	-10733
▁wùlu	-10734
Kojugu	-10735
autant	-10736
avança	-10737
envoya	-10738
itigiw	-10739
mières	-10740
onnent	-10741
▁2:49.	-10742
▁Sitan	-10743
▁délai	-10744
▁kɛtaw	-10745
▁lumin	-10746
▁miles	-10747
▁panne	-10748
▁passi	-10749
▁placé	-10750
▁sacré	-10751
▁siège	-10752
▁sympa	-10753
▁tomba	-10754
èvement	-10755
énergie	-10756
▁Prière	-10757
▁acquis	-10758
▁dennin	-10759
▁dounou	-10760
▁hébreu	-10761
▁kunkun	-10762
▁leçons	-10763
▁lɛtɛrɛ	-10764
▁manana	-10765
▁mougan	-10766
▁posses	-10767
▁priait	-10768
▁saheli	-10769
▁sewara	-10770
▁sɔ̃ɔwa	-10771
▁yɔrɔla	-10772
dictions	-10773
▁aillent	-10774
▁chemins	-10775
▁jɛnitaw	-10776
▁restait	-10777
▁wotorow	-10778
▁December	-10779
▁batisera	-10780
▁kàramogɔ	-10781
▁provient	-10782
▁tooltool	-10783
▁tribunal	-10784
▁vendredi	-10785
▁considère	-10786
▁entendant	-10787
▁objectifs	-10788
▁réveillée	-10789
▁supporter	-10790
▁fonctionne	-10791
▁trouvèrent	-10792
▁connaissait	-10793
▁reconnaître	-10794
Be	-10795
cm	-10796
dro	-10797
fer	-10798
gbè	-10799
hom	-10800
juu	-10801
mma	-10802
nom	-10803
tɔɔ	-10804
̀nɔ	-10805
▁râ	-10806
MAYA	-10807
antu	-10808
fiɲɛ	-10809
lubi	-10810
orge	-10811
▁Grâ	-10812
▁PAR	-10813
▁Sac	-10814
▁Taa	-10815
▁gèn	-10816
▁tsu	-10817
yrics	-10818
èdent	-10819
▁2015	-10820
▁Balo	-10821
▁Hong	-10822
▁Wara	-10823
▁blas	-10824
▁ciko	-10825
▁code	-10826
▁fosi	-10827
▁gaye	-10828
▁koyi	-10829
▁nala	-10830
▁nege	-10831
▁sada	-10832
▁same	-10833
▁yiru	-10834
vaient	-10835
▁Corée	-10836
▁auxqu	-10837
▁bêtes	-10838
▁enfin	-10839
▁forum	-10840
▁jugés	-10841
▁levée	-10842
▁lions	-10843
▁cayara	-10844
▁devoir	-10845
▁empris	-10846
▁envoie	-10847
▁imagin	-10848
▁invite	-10849
▁jambes	-10850
▁manqué	-10851
▁muɲuna	-10852
▁sayang	-10853
▁sinsin	-10854
▁soɲali	-10855
▁sɔ̃ɔsi	-10856
▁tabali	-10857
Ecriture	-10858
encontre	-10859
mination	-10860
▁badencɛ	-10861
▁chaleur	-10862
▁faisais	-10863
▁mangent	-10864
esclavage	-10865
▁nimisara	-10866
▁yiridenw	-10867
▁Iburahima	-10868
▁supérieur	-10869
▁chrétienne	-10870
▁énormément	-10871
▁Samaritains	-10872
▁descendants	-10873
▁conformément	-10874
▁Zeruzalɛmukaw	-10875
27	-10876
Du	-10877
aj	-10878
án	-10879
▁ˈ	-10880
eza	-10881
fon	-10882
iye	-10883
oow	-10884
ren	-10885
èni	-10886
ɔgo	-10887
▁8"	-10888
dose	-10889
endi	-10890
oeil	-10891
yari	-10892
▁Ere	-10893
▁Fam	-10894
▁Kir	-10895
▁aaj	-10896
▁cla	-10897
▁fac	-10898
▁fas	-10899
▁gom	-10900
▁gou	-10901
▁jeû	-10902
▁mɑɑ	-10903
▁nor	-10904
▁use	-10905
quées	-10906
risse	-10907
▁1914	-10908
▁Lalo	-10909
▁débu	-10910
▁fenw	-10911
▁kodo	-10912
▁kèɲè	-10913
▁pang	-10914
▁race	-10915
▁réfu	-10916
cembro	-10917
kolonw	-10918
tchogo	-10919
▁dunuɲ	-10920
▁galen	-10921
▁hòròn	-10922
▁intro	-10923
▁janfa	-10924
▁kɔ̀nɔ	-10925
▁mafee	-10926
▁soeur	-10927
Zuwifuw	-10928
▁flamme	-10929
▁fleurs	-10930
▁idoles	-10931
▁livrer	-10932
▁lɔgɔbɔ	-10933
▁masɔrɔ	-10934
▁rendra	-10935
▁réseau	-10936
▁yulubi	-10937
estation	-10938
évangile	-10939
▁Balimaw	-10940
▁Lalofuɛ	-10941
▁kunsigi	-10942
▁mesures	-10943
évolution	-10944
▁articles	-10945
▁decembro	-10946
▁fɔɲɔbana	-10947
▁tiennent	-10948
▁Kàlandenw	-10949
▁descendit	-10950
▁Écritures	-10951
accomplisse	-10952
▁Capharnaüm	-10953
▁découverte	-10954
▁entreprise	-10955
▁merveilleux	-10956
▁communication	-10957
4,	-10958
4.	-10959
OI	-10960
_<	-10961
og	-10962
xy	-10963
ENT	-10964
Faa	-10965
amɔ	-10966
jon	-10967
las	-10968
los	-10969
mbé	-10970
mum	-10971
old	-10972
rhe	-10973
▁83	-10974
▁BI	-10975
▁mg	-10976
▁py	-10977
Abra	-10978
Aime	-10979
bòli	-10980
deni	-10981
dise	-10982
ilon	-10983
ŋolu	-10984
▁>_<	-10985
▁Jun	-10986
▁Kum	-10987
▁Mii	-10988
▁Rut	-10989
▁Tal	-10990
▁gem	-10991
▁jer	-10992
▁jɔɔ	-10993
▁kɔ̃	-10994
▁wil	-10995
ginan	-10996
hiver	-10997
▁Cher	-10998
▁Cour	-10999
▁Easy	-11000
▁Temp	-11001
▁Vers	-11002
▁chou	-11003
▁gout	-11004
▁kuat	-11005
▁sail	-11006
Agneau	-11007
identi	-11008
ronter	-11009
▁11:11	-11010
▁blank	-11011
▁débat	-11012
▁feras	-11013
▁gaman	-11014
▁noces	-11015
▁pêche	-11016
▁récol	-11017
effectu	-11018
▁Fransi	-11019
▁Maloya	-11020
▁Regard	-11021
▁esumɔɔ	-11022
▁grosse	-11023
▁jɛnina	-11024
▁kunkan	-11025
▁plaire	-11026
▁sougou	-11027
▁ɛrɛzɛn	-11028
cription	-11029
identité	-11030
▁cidenya	-11031
▁dinkira	-11032
▁fournir	-11033
▁girinya	-11034
▁intelli	-11035
▁masɔrɔn	-11036
▁reviens	-11037
ouverture	-11038
▁ancienne	-11039
▁conduits	-11040
▁détruits	-11041
▁ressenti	-11042
intéresser	-11043
▁forcément	-11044
▁ladilikan	-11045
▁telephone	-11046
▁Apocalypse	-11047
▁couramment	-11048
▁légèrement	-11049
▁recommanda	-11050
▁travaillons	-11051
',	-11052
Ab	-11053
Un	-11054
hɔ	-11055
lê	-11056
▁{	-11057
▁🙂	-11058
Com	-11059
ané	-11060
gli	-11061
ice	-11062
▁(3	-11063
▁bà	-11064
▁sn	-11065
▁yĩ	-11066
adop	-11067
bako	-11068
cien	-11069
liso	-11070
lɔsi	-11071
ores	-11072
▁1:4	-11073
▁DEL	-11074
▁Din	-11075
▁Pou	-11076
▁dar	-11077
▁dip	-11078
▁diy	-11079
▁doi	-11080
▁hen	-11081
▁lok	-11082
▁nne	-11083
▁paa	-11084
arrêt	-11085
banku	-11086
cieux	-11087
hique	-11088
initi	-11089
sures	-11090
▁Comp	-11091
▁Cond	-11092
▁Furu	-11093
▁Kɔni	-11094
▁bhii	-11095
▁feen	-11096
▁mori	-11097
▁payé	-11098
▁tɔnu	-11099
animal	-11100
aratɛɛ	-11101
envers	-11102
ilibre	-11103
nafoni	-11104
▁Grèce	-11105
▁Korea	-11106
▁bébés	-11107
▁civil	-11108
▁djama	-11109
▁félic	-11110
▁gundo	-11111
▁kakak	-11112
▁poids	-11113
▁sukun	-11114
▁wunɛn	-11115
engager	-11116
matique	-11117
▁DELILA	-11118
▁apôtre	-11119
▁cɛtigɛ	-11120
▁divine	-11121
▁faggot	-11122
▁fɔcogo	-11123
▁kokura	-11124
▁ladege	-11125
▁mousso	-11126
▁rendus	-11127
▁sumana	-11128
▁textes	-11129
burukalo	-11130
isations	-11131
▁Sankolo	-11132
▁baarala	-11133
▁composé	-11134
▁douceur	-11135
▁girɛkiw	-11136
▁ressens	-11137
▁vouloir	-11138
▁étonnés	-11139
Allemagne	-11140
▁binaanin	-11141
▁chambres	-11142
▁faudrait	-11143
▁persuadé	-11144
▁principe	-11145
▁seeginan	-11146
▁sentiers	-11147
▁servante	-11148
▁faribanku	-11149
▁satisfait	-11150
▁sigiyɔrɔw	-11151
▁Réjouissez	-11152
▁apprennent	-11153
▁bangebagaw	-11154
▁réjouissez	-11155
▁traditionn	-11156
▁dunuɲaratɛɛ	-11157
▁nécessaires	-11158
▁personnages	-11159
▁personnelle	-11160
▁sacrificateurs	-11161
▁Thessaloniciens	-11162
,'	-11163
xa	-11164
Non	-11165
gnè	-11166
▁Ef	-11167
▁Mɔ	-11168
iner	-11169
jeun	-11170
kisi	-11171
lòsi	-11172
lɔgɔ	-11173
ondô	-11174
tung	-11175
écar	-11176
ɛmun	-11177
▁Ass	-11178
▁Elo	-11179
▁Ont	-11180
▁afa	-11181
▁clé	-11182
▁gru	-11183
▁iné	-11184
▁ola	-11185
▁pes	-11186
▁sɔ̄	-11187
▁wit	-11188
accue	-11189
toire	-11190
▁Eman	-11191
▁Nɔgɔ	-11192
▁coût	-11193
▁hona	-11194
▁seni	-11195
▁soba	-11196
▁séch	-11197
▁time	-11198
▁Être	-11199
▁épée	-11200
▁ƝƐNA	-11201
ɛrɛzɛn	-11202
▁Ciden	-11203
▁Klist	-11204
▁Masih	-11205
▁Zhezu	-11206
▁agent	-11207
▁armes	-11208
▁blood	-11209
▁bulon	-11210
▁final	-11211
▁foyih	-11212
▁kanma	-11213
▁konni	-11214
▁lancé	-11215
▁neemo	-11216
▁reine	-11217
▁sabía	-11218
▁sinna	-11219
▁voile	-11220
asseoir	-11221
ouvrage	-11222
▁Marigi	-11223
▁Nowɛli	-11224
▁abroad	-11225
▁apparu	-11226
▁confié	-11227
▁danger	-11228
▁disons	-11229
▁fɔlɔta	-11230
▁kalama	-11231
▁mourra	-11232
▁vidéos	-11233
iniquité	-11234
▁apprend	-11235
▁cɛfariw	-11236
▁damanin	-11237
▁prépare	-11238
appellent	-11239
▁quartier	-11240
▁ƝƐNAMAYA	-11241
▁ɲagaliba	-11242
▁découvrir	-11243
▁entrepris	-11244
▁extraordin	-11245
▁fangabaara	-11246
▁litigieuse	-11247
▁ressuscite	-11248
▁quotidienne	-11249
ig	-11250
umé	-11251
zon	-11252
▁05	-11253
▁07	-11254
▁4,	-11255
▁Mɛ	-11256
▁fê	-11257
▁wè	-11258
Etat	-11259
cice	-11260
erte	-11261
fènw	-11262
lɔnw	-11263
quez	-11264
timi	-11265
▁Bre	-11266
▁Ena	-11267
▁Gom	-11268
▁Har	-11269
▁clu	-11270
▁tru	-11271
kumaw	-11272
ɲògòn	-11273
▁6:23	-11274
▁Gent	-11275
▁Joab	-11276
▁Zach	-11277
▁amou	-11278
▁bloo	-11279
▁dari	-11280
▁desu	-11281
▁hero	-11282
▁kado	-11283
▁kera	-11284
▁lawa	-11285
▁muɛ̄	-11286
▁relâ	-11287
▁subi	-11288
▁tiwo	-11289
▁wati	-11290
ctures	-11291
reuves	-11292
tuguni	-11293
▁acces	-11294
▁accès	-11295
▁glace	-11296
▁perte	-11297
▁ségui	-11298
▁tirer	-11299
▁tonɲa	-11300
▁époux	-11301
Aujourd	-11302
veilles	-11303
▁Kayifu	-11304
▁blessé	-11305
▁dabari	-11306
▁diront	-11307
▁emploi	-11308
▁gwɛman	-11309
▁kakdee	-11310
▁kòlòsi	-11311
▁madame	-11312
▁verset	-11313
intéress	-11314
▁Abidjan	-11315
▁besoins	-11316
▁couvrir	-11317
▁diminin	-11318
▁empêche	-11319
▁proster	-11320
▁Aussitôt	-11321
▁facebook	-11322
▁jamakulu	-11323
▁magistra	-11324
▁prescrit	-11325
▁demandons	-11326
▁duvɛnkɛnɛ	-11327
▁jagwɛlɛya	-11328
▁enseignant	-11329
▁kɔlɔsibaga	-11330
▁rappellera	-11331
accouchement	-11332
organisation	-11333
##	-11334
BA	-11335
ME	-11336
ân	-11337
---	-11338
:77	-11339
Bii	-11340
ank	-11341
gee	-11342
ilé	-11343
oly	-11344
own	-11345
uif	-11346
xim	-11347
édi	-11348
▁Hi	-11349
▁IL	-11350
▁Jn	-11351
▁mô	-11352
hous	-11353
mper	-11354
oler	-11355
unuŋ	-11356
érer	-11357
▁Acc	-11358
▁Rom	-11359
▁doh	-11360
▁nie	-11361
▁tle	-11362
enser	-11363
kanni	-11364
lable	-11365
ɔgɔwɔ	-11366
▁1:18	-11367
▁Heee	-11368
▁Syri	-11369
▁séle	-11370
▁tagi	-11371
▁tolo	-11372
▁unis	-11373
▁Deman	-11374
▁Singa	-11375
▁bagaw	-11376
▁crise	-11377
▁déran	-11378
▁enfer	-11379
▁exact	-11380
▁famou	-11381
▁inqui	-11382
▁keden	-11383
▁salon	-11384
▁tɛrɛn	-11385
▁ŋunuŋ	-11386
Ephraïm	-11387
appeler	-11388
▁Betani	-11389
▁conver	-11390
▁lɛgɛrɛ	-11391
▁penses	-11392
▁sandji	-11393
▁terres	-11394
▁tilefɛ	-11395
▁untung	-11396
ressions	-11397
▁Isireli	-11398
▁affirmé	-11399
▁jijanin	-11400
▁nourrir	-11401
▁Vraiment	-11402
▁sauvages	-11403
▁souriant	-11404
▁Apprendre	-11405
▁combattre	-11406
▁phénomène	-11407
▁réflexion	-11408
▁mɔgɔkɔrɔba	-11409
▁kojugukɛlaw	-11410
▁tremblement	-11411
▁condamnation	-11412
▁Malheureusement	-11413
45	-11414
kê	-11415
agi	-11416
amb	-11417
ash	-11418
cou	-11419
eul	-11420
gis	-11421
itɔ	-11422
wal	-11423
ɛɛ̄	-11424
▁6,	-11425
▁68	-11426
▁Jɛ	-11427
ands	-11428
chel	-11429
cter	-11430
ffee	-11431
itée	-11432
koro	-11433
▁19"	-11434
▁Lot	-11435
▁gui	-11436
▁her	-11437
▁ira	-11438
▁kau	-11439
▁lot	-11440
▁mea	-11441
▁sea	-11442
▁tie	-11443
acune	-11444
asisi	-11445
autés	-11446
crire	-11447
etait	-11448
infir	-11449
écran	-11450
▁1:10	-11451
▁Mean	-11452
▁Sini	-11453
▁bird	-11454
▁culp	-11455
▁cɛɲa	-11456
▁dégu	-11457
▁fonc	-11458
▁leye	-11459
▁lika	-11460
▁lɛsɛ	-11461
▁mett	-11462
▁piin	-11463
▁sabi	-11464
▁sien	-11465
▁yele	-11466
dulité	-11467
imagin	-11468
kofoni	-11469
rasɛli	-11470
▁Anani	-11471
▁Fanta	-11472
▁chute	-11473
▁colon	-11474
▁dange	-11475
▁domun	-11476
▁farin	-11477
▁films	-11478
▁gwɛra	-11479
▁illus	-11480
▁kanun	-11481
▁koowo	-11482
▁labla	-11483
▁lundi	-11484
▁parab	-11485
▁parfu	-11486
▁phone	-11487
▁silan	-11488
▁tuent	-11489
ulation	-11490
▁Europe	-11491
▁Yahutu	-11492
▁bɛgɛnw	-11493
▁classi	-11494
▁comple	-11495
▁habitu	-11496
▁kumafu	-11497
▁mètres	-11498
▁navire	-11499
▁oiseau	-11500
▁réconc	-11501
▁régime	-11502
▁sachez	-11503
▁tiɲɛko	-11504
appareil	-11505
arrivait	-11506
kɔrɔsigi	-11507
ologique	-11508
▁Kumasen	-11509
▁Premier	-11510
▁aspects	-11511
▁contact	-11512
▁dispers	-11513
▁kɔnɔgwɛ	-11514
▁louange	-11515
▁mɔgɔdaf	-11516
▁pharaon	-11517
▁philoso	-11518
▁rejoint	-11519
▁rembour	-11520
▁simples	-11521
▁sortent	-11522
▁versets	-11523
▁yɛrɛkun	-11524
▁Katuguni	-11525
▁aveugles	-11526
▁centaine	-11527
▁dencɛilu	-11528
▁défendre	-11529
▁musulman	-11530
▁soutenir	-11531
▁sɛnɛkɛla	-11532
▁venaient	-11533
enregistre	-11534
▁individus	-11535
▁justifiés	-11536
▁tɔɔrɔjugu	-11537
▁décourager	-11538
▁frankofoni	-11539
▁ressources	-11540
▁reviennent	-11541
▁connaissons	-11542
▁conséquence	-11543
▁Sebagayabɛɛtigi	-11544
7,	-11545
Ja	-11546
Ou	-11547
rɑ	-11548
ING	-11549
OLU	-11550
cel	-11551
cts	-11552
kôn	-11553
▁Ng	-11554
chet	-11555
dess	-11556
illi	-11557
koun	-11558
ɔɔnɛ	-11559
▁Ago	-11560
▁Coo	-11561
▁Too	-11562
▁kai	-11563
▁res	-11564
Celui	-11565
Siyɔn	-11566
athie	-11567
sigui	-11568
xanŋo	-11569
▁Janu	-11570
▁batu	-11571
▁biɲɛ	-11572
▁cɛya	-11573
▁défa	-11574
▁lôni	-11575
▁préd	-11576
▁repr	-11577
▁romp	-11578
▁seri	-11579
laires	-11580
ternet	-11581
▁1466.	-11582
▁Louis	-11583
▁chass	-11584
▁dɛndɛ	-11585
▁favor	-11586
▁gnong	-11587
▁modes	-11588
▁régna	-11589
emparer	-11590
rateurs	-11591
▁Elizab	-11592
▁adored	-11593
▁banque	-11594
▁chiens	-11595
▁désobé	-11596
▁excell	-11597
▁graves	-11598
▁normal	-11599
▁nowɛli	-11600
▁parten	-11601
▁passée	-11602
▁sentez	-11603
▁tagawa	-11604
▁touche	-11605
▁touché	-11606
alestine	-11607
éloigner	-11608
▁Londres	-11609
▁femelle	-11610
▁fugulan	-11611
▁nourris	-11612
▁ordonna	-11613
▁passion	-11614
▁rendait	-11615
▁sanjiba	-11616
abondance	-11617
quisition	-11618
▁Barnabas	-11619
▁Souviens	-11620
▁aiguille	-11621
▁amoureux	-11622
▁attendez	-11623
▁dogoyɔrɔ	-11624
▁enseigné	-11625
▁makarila	-11626
▁messager	-11627
▁américain	-11628
▁entrèrent	-11629
▁kasadiman	-11630
▁considérés	-11631
▁discussion	-11632
▁principale	-11633
▁production	-11634
▁intelligence	-11635
.*	-11636
fê	-11637
ng	-11638
rÉ	-11639
▁ç	-11640
:31	-11641
IOT	-11642
OUR	-11643
cra	-11644
fɔɔ	-11645
hah	-11646
lɛk	-11647
ted	-11648
ôts	-11649
▁4:	-11650
▁75	-11651
▁Bɛ	-11652
▁UN	-11653
▁os	-11654
▁up	-11655
cées	-11656
gala	-11657
gili	-11658
ints	-11659
mail	-11660
mité	-11661
ɲini	-11662
▁Eve	-11663
▁Nìn	-11664
▁TIM	-11665
▁avi	-11666
▁gat	-11667
▁vac	-11668
▁wla	-11669
lɛnin	-11670
ories	-11671
rasiw	-11672
▁Abis	-11673
▁Gɔɔn	-11674
▁Lire	-11675
▁bayo	-11676
▁cria	-11677
▁duru	-11678
▁lado	-11679
▁lass	-11680
▁maji	-11681
▁rede	-11682
▁récu	-11683
▁siɲa	-11684
▁surp	-11685
▁yɛɛn	-11686
▁zéro	-11687
coutez	-11688
kɛbaga	-11689
quatre	-11690
▁Grâce	-11691
▁Monde	-11692
▁Naani	-11693
▁awake	-11694
▁douce	-11695
▁festi	-11696
▁telen	-11697
Univers	-11698
adressa	-11699
ritanni	-11700
▁Caïphe	-11701
▁Manase	-11702
▁denilu	-11703
▁gwanna	-11704
▁mirila	-11705
▁places	-11706
▁précip	-11707
▁prêché	-11708
▁remont	-11709
▁révèle	-11710
▁wariko	-11711
entrerez	-11712
▁January	-11713
▁compose	-11714
▁cuisine	-11715
▁financi	-11716
▁kɔrɔman	-11717
▁rendant	-11718
▁réjouir	-11719
▁torosun	-11720
▁vieille	-11721
▁évident	-11722
▁Ibrahima	-11723
▁allemand	-11724
▁kalangwɛ	-11725
▁kumacogo	-11726
▁kɔnɔnako	-11727
▁kɔrɔmuso	-11728
▁remarqué	-11729
▁suivants	-11730
▁pardonnez	-11731
▁sortirent	-11732
▁arriveront	-11733
▁possession	-11734
-10	-11735
;-)	-11736
aud	-11737
few	-11738
har	-11739
inu	-11740
ouw	-11741
umu	-11742
▁AD	-11743
▁xe	-11744
Dieu	-11745
gène	-11746
ourg	-11747
rasi	-11748
rich	-11749
saga	-11750
élas	-11751
▁Sow	-11752
▁Suf	-11753
▁Tɔn	-11754
▁[1]	-11755
▁eko	-11756
▁gil	-11757
▁gwa	-11758
▁hin	-11759
▁kay	-11760
▁sto	-11761
▁war	-11762
▁éli	-11763
▁ɲen	-11764
aisse	-11765
dique	-11766
lines	-11767
onnan	-11768
osent	-11769
rient	-11770
tueux	-11771
▁Bang	-11772
▁Kuru	-11773
▁Mort	-11774
▁Sais	-11775
▁agir	-11776
▁haïs	-11777
▁kuna	-11778
▁laka	-11779
▁liga	-11780
▁murs	-11781
▁rira	-11782
▁tang	-11783
▁waan	-11784
allais	-11785
▁1959.	-11786
▁Voyez	-11787
▁bɛɛrɛ	-11788
▁châti	-11789
▁desse	-11790
▁konin	-11791
▁sable	-11792
▁tigui	-11793
▁tɔmbu	-11794
dessous	-11795
gations	-11796
▁Duniɲa	-11797
▁Femmes	-11798
▁avanta	-11799
▁décide	-11800
▁tourne	-11801
apporter	-11802
observer	-11803
▁Juillet	-11804
▁artiste	-11805
▁coucher	-11806
▁donnait	-11807
▁donnant	-11808
▁mandimi	-11809
▁million	-11810
influence	-11811
▁Facebook	-11812
▁batofɛnw	-11813
▁carrière	-11814
▁chrétien	-11815
▁dalakuma	-11816
▁longueur	-11817
▁sɔlidasi	-11818
▁Ɔrɔmukaw	-11819
▁dernières	-11820
▁propriété	-11821
▁structure	-11822
▁évidemment	-11823
▁enseignants	-11824
▁accomplissez	-11825
accompagnement	-11826
2:	-11827
70	-11828
9,	-11829
AH	-11830
yɑ	-11831
ayi	-11832
vra	-11833
yew	-11834
▁73	-11835
▁XV	-11836
janw	-11837
leke	-11838
masa	-11839
romp	-11840
rète	-11841
ésie	-11842
ɛnti	-11843
▁30.	-11844
▁Asi	-11845
▁hmm	-11846
▁kut	-11847
▁nuŋ	-11848
▁ɔɔn	-11849
achel	-11850
ctive	-11851
herbe	-11852
inɛri	-11853
isser	-11854
osité	-11855
raine	-11856
ville	-11857
zaine	-11858
▁4:13	-11859
▁aman	-11860
▁famu	-11861
▁foto	-11862
▁menu	-11863
▁musi	-11864
▁prud	-11865
▁sɑ̃ɑ	-11866
▁tɔɲɔ	-11867
IPIKAW	-11868
aminer	-11869
randes	-11870
▁Ayant	-11871
▁Gonna	-11872
▁IDIOT	-11873
▁bénit	-11874
▁corru	-11875
▁créée	-11876
▁dadon	-11877
▁djaté	-11878
▁gwili	-11879
▁haïss	-11880
▁inafô	-11881
▁initi	-11882
▁jɛŋgɛ	-11883
▁lonni	-11884
▁loonw	-11885
▁march	-11886
▁natte	-11887
▁saine	-11888
animaux	-11889
▁Nombre	-11890
▁auriez	-11891
▁bognan	-11892
▁bènbaw	-11893
▁décrit	-11894
▁démont	-11895
▁exclus	-11896
▁lyrics	-11897
▁nyɔɔnɛ	-11898
▁partit	-11899
▁passés	-11900
▁poussi	-11901
▁proxim	-11902
▁téléph	-11903
▁walasa	-11904
apprécie	-11905
▁Manassé	-11906
▁compara	-11907
▁désagré	-11908
▁konnigɛ	-11909
▁logique	-11910
▁renonce	-11911
▁videwow	-11912
▁Religion	-11913
▁balimakɛ	-11914
▁denɲɛnin	-11915
▁méthodes	-11916
▁secondes	-11917
▁surprise	-11918
▁tenaient	-11919
▁witamini	-11920
▁Ezekiyasi	-11921
▁FILIPIKAW	-11922
▁activités	-11923
▁efficaces	-11924
▁entendent	-11925
▁gravement	-11926
▁imbéciles	-11927
▁justement	-11928
▁politesse	-11929
▁réfléchir	-11930
▁adamadenya	-11931
▁merveilles	-11932
▁permettant	-11933
▁spirituels	-11934
▁réalisation	-11935
▁sincèrement	-11936
administration	-11937
33	-11938
ón	-11939
ẹ́	-11940
kon	-11941
tur	-11942
éna	-11943
▁2)	-11944
▁=)	-11945
▁Ek	-11946
▁Mt	-11947
Anti	-11948
anne	-11949
fura	-11950
jala	-11951
ocat	-11952
orie	-11953
tiki	-11954
yeee	-11955
▁Abs	-11956
▁Jim	-11957
▁Mel	-11958
▁eau	-11959
▁fir	-11960
▁kún	-11961
▁mos	-11962
▁sco	-11963
▁xin	-11964
▁édi	-11965
aumes	-11966
cules	-11967
céens	-11968
emmen	-11969
hanga	-11970
ligan	-11971
lisée	-11972
océan	-11973
ugais	-11974
viers	-11975
▁Goli	-11976
▁Juif	-11977
▁Madu	-11978
▁Sira	-11979
▁Wolo	-11980
▁cɛkɛ	-11981
▁gala	-11982
▁kapa	-11983
▁nugu	-11984
▁papi	-11985
▁pure	-11986
▁soif	-11987
▁tags	-11988
▁toum	-11989
▁vive	-11990
aajuli	-11991
appela	-11992
ctionn	-11993
firiki	-11994
orieux	-11995
étions	-11996
▁Damas	-11997
▁deuil	-11998
▁frais	-11999
▁guide	-12000
▁jugez	-12001
▁kikoo	-12002
▁lance	-12003
▁mélan	-12004
▁prodi	-12005
▁sabou	-12006
▁tâche	-12007
▁utile	-12008
▁visit	-12009
horreur	-12010
ristian	-12011
utilise	-12012
édition	-12013
épisode	-12014
▁Genèse	-12015
▁Rachel	-12016
▁Tasuma	-12017
▁frappé	-12018
▁kilila	-12019
▁portée	-12020
▁sekɔra	-12021
▁totale	-12022
▁tumana	-12023
kuntigiw	-12024
▁Paradis	-12025
▁Puisque	-12026
▁collabo	-12027
▁condole	-12028
▁prenant	-12029
▁sangaso	-12030
▁souffle	-12031
▁Baptiste	-12032
▁accident	-12033
▁commerce	-12034
▁divinité	-12035
▁espagnol	-12036
▁gentille	-12037
▁profiter	-12038
▁écoutent	-12039
université	-12040
▁directeur	-12041
▁maintenir	-12042
▁masirinin	-12043
▁politiques	-12044
▁réputation	-12045
▁kɔlɔsibagaw	-12046
▁témoignages	-12047
▁mɔgɔdafaninw	-12048
,.	-12049
uk	-12050
èw	-12051
Say	-12052
elu	-12053
gua	-12054
lor	-12055
lue	-12056
▁4"	-12057
Boon	-12058
chec	-12059
cili	-12060
dure	-12061
fuge	-12062
géta	-12063
koli	-12064
mira	-12065
mugu	-12066
oooo	-12067
page	-12068
yati	-12069
▁All	-12070
▁Eux	-12071
▁For	-12072
▁Kol	-12073
▁Nee	-12074
▁Vos	-12075
▁kag	-12076
▁kpe	-12077
▁nnɔ	-12078
Siyaw	-12079
brari	-12080
gorie	-12081
insta	-12082
pɛrɛn	-12083
▁Awas	-12084
▁Dari	-12085
▁Edɛn	-12086
▁Even	-12087
▁aéri	-12088
▁bang	-12089
▁bleu	-12090
▁démo	-12091
▁dɔɔ̄	-12092
▁ekun	-12093
▁gosi	-12094
▁mant	-12095
▁said	-12096
▁sida	-12097
▁tùma	-12098
▁wogo	-12099
▁wuri	-12100
▁yire	-12101
jeuner	-12102
▁Jesus	-12103
▁Munaa	-12104
▁Trava	-12105
▁aidez	-12106
▁allée	-12107
▁benko	-12108
▁kunti	-12109
▁tuées	-12110
▁volon	-12111
▁étape	-12112
tations	-12113
éroport	-12114
▁Cooper	-12115
▁Jigɛba	-12116
▁Parlez	-12117
▁ajouta	-12118
▁gomina	-12119
▁mettez	-12120
▁mienne	-12121
▁posent	-12122
▁préser	-12123
▁quator	-12124
▁tourné	-12125
▁voisin	-12126
adresser	-12127
térieure	-12128
▁Afrique	-12129
▁Césarée	-12130
▁Gentils	-12131
▁boisson	-12132
▁cadeaux	-12133
▁contenu	-12134
▁dilanna	-12135
▁docteur	-12136
▁donkili	-12137
▁garçons	-12138
▁hommage	-12139
▁intérêt	-12140
▁miirira	-12141
▁reposer	-12142
▁serpent	-12143
▁tourner	-12144
▁Églises	-12145
▁Abisalɔn	-12146
▁Baaraden	-12147
▁Denmisɛn	-12148
▁Klistfuɛ	-12149
▁Toujours	-12150
▁batizeli	-12151
▁marchent	-12152
▁préparés	-12153
▁sadayeee	-12154
▁Quiconque	-12155
▁bienfaits	-12156
▁offrandes	-12157
▁proximité	-12158
▁tagahanga	-12159
▁étrangère	-12160
▁domination	-12161
▁habitaient	-12162
▁yɔrɔlakolon	-12163
Lu	-12164
Mi	-12165
eh	-12166
30.	-12167
arc	-12168
emm	-12169
vnw	-12170
▁5,	-12171
▁Of	-12172
▁Ts	-12173
▁dî	-12174
fana	-12175
ouvé	-12176
ɛmɛn	-12177
▁Aga	-12178
▁Fer	-12179
▁Lis	-12180
▁Mai	-12181
▁Ndi	-12182
▁Nul	-12183
▁RFI	-12184
▁amp	-12185
▁mux	-12186
oroba	-12187
phère	-12188
tatut	-12189
titue	-12190
yɔɔrɔ	-12191
▁1:11	-12192
▁Apol	-12193
▁Arti	-12194
▁Kong	-12195
▁Lolo	-12196
▁Maan	-12197
▁Solo	-12198
▁affi	-12199
▁donw	-12200
▁dédi	-12201
▁dévo	-12202
▁sika	-12203
▁sédu	-12204
▁tamo	-12205
▁traî	-12206
▁wann	-12207
▁wonu	-12208
Jamana	-12209
Sayuli	-12210
acités	-12211
aspect	-12212
chives	-12213
endras	-12214
ieuses	-12215
istant	-12216
médiat	-12217
mɔɔilu	-12218
sibles	-12219
▁Livre	-12220
▁aperç	-12221
▁benan	-12222
▁copie	-12223
▁denkè	-12224
▁eligi	-12225
▁jɛnna	-12226
▁kunma	-12227
▁kénlé	-12228
▁monte	-12229
▁règle	-12230
▁situe	-12231
▁vendu	-12232
lɛkisan	-12233
▁11:11.	-12234
▁armées	-12235
▁blasph	-12236
▁commet	-12237
▁courte	-12238
▁débuts	-12239
▁figure	-12240
▁kumala	-12241
▁makoya	-12242
▁naforo	-12243
▁racine	-12244
▁réveil	-12245
▁saisit	-12246
fɛrinama	-12247
▁Quelque	-12248
▁château	-12249
▁décider	-12250
▁honteux	-12251
▁lévites	-12252
▁périsse	-12253
▁regarda	-12254
▁trouvez	-12255
▁waajibi	-12256
▁yebaliw	-12257
▁confront	-12258
▁domicile	-12259
▁hauteurs	-12260
▁laissant	-12261
▁lannakow	-12262
▁tɔɔrɔkow	-12263
▁violence	-12264
▁Président	-12265
▁compliqué	-12266
lɛkisandiri	-12267
▁kongosogow	-12268
▁résistance	-12269
▁anniversaire	-12270
▁enseignements	-12271
?:	-12272
];	-12273
.""	-12274
OTE	-12275
dat	-12276
ker	-12277
ney	-12278
pel	-12279
pou	-12280
siɑ	-12281
vel	-12282
win	-12283
yak	-12284
yth	-12285
▁72	-12286
▁Sɛ	-12287
▁tì	-12288
Baba	-12289
EREC	-12290
insp	-12291
nait	-12292
ombe	-12293
zifa	-12294
▁(20	-12295
▁Fɛf	-12296
▁Gre	-12297
▁VIH	-12298
▁coo	-12299
▁crè	-12300
▁cɛw	-12301
▁mei	-12302
▁nis	-12303
▁obs	-12304
▁xun	-12305
Laban	-12306
andis	-12307
aperç	-12308
moine	-12309
perçu	-12310
tahun	-12311
vants	-12312
▁Cors	-12313
▁Hakɛ	-12314
▁Rest	-12315
▁Zeri	-12316
▁alli	-12317
▁amas	-12318
▁blow	-12319
▁boit	-12320
▁bɔrɔ	-12321
▁draw	-12322
▁foni	-12323
▁gere	-12324
▁info	-12325
▁jela	-12326
images	-12327
kɔliso	-12328
taires	-12329
▁Ezayi	-12330
▁durer	-12331
▁explo	-12332
▁idées	-12333
▁murna	-12334
▁press	-12335
▁renom	-12336
▁surpr	-12337
▁woolo	-12338
housias	-12339
parents	-12340
éloigne	-12341
ɔgɔninw	-12342
▁Austra	-12343
▁Sainte	-12344
▁bulonɔ	-12345
▁détres	-12346
▁fransi	-12347
▁girɛki	-12348
▁kagala	-12349
▁obligé	-12350
▁prions	-12351
▁prises	-12352
▁sissan	-12353
▁statut	-12354
▁virent	-12355
▁wazifa	-12356
excusait	-12357
gination	-12358
illement	-12359
rédulité	-12360
▁Fɛfɛɛrɛ	-12361
▁dafalan	-12362
▁déroule	-12363
▁détails	-12364
▁gnouman	-12365
▁kèlèbaa	-12366
▁retirer	-12367
▁sariyas	-12368
▁publique	-12369
▁sanukuru	-12370
▁Prophètes	-12371
▁courageux	-12372
▁incapable	-12373
▁pratiques	-12374
▁rassemble	-12375
▁souhaitez	-12376
▁condoleeza	-12377
▁dɛsɛbagatɔ	-12378
▁baarakɛcogo	-12379
▁préparation	-12380
▁spécifiques	-12381
▁Alɛkisandiri	-12382
1:	-12383
Di	-12384
ɡe	-12385
:41	-12386
UNI	-12387
act	-12388
fia	-12389
fil	-12390
gea	-12391
ino	-12392
ket	-12393
pus	-12394
ɑri	-12395
▁86	-12396
▁Kp	-12397
▁Ow	-12398
▁PI	-12399
▁US	-12400
auff	-12401
cain	-12402
enou	-12403
▁Kil	-12404
▁Nor	-12405
▁bah	-12406
▁tas	-12407
▁wol	-12408
▁yea	-12409
▁ɲɔn	-12410
cheur	-12411
endie	-12412
gawns	-12413
invit	-12414
isses	-12415
oncis	-12416
ortée	-12417
rains	-12418
▁Sept	-12419
▁amie	-12420
▁cava	-12421
▁coin	-12422
▁dise	-12423
▁fufa	-12424
▁keme	-12425
▁ladj	-12426
▁lait	-12427
▁mach	-12428
▁wɑ̃ɑ	-12429
▁yeni	-12430
dennin	-12431
excusa	-12432
usalèm	-12433
▁KEREC	-12434
▁Miira	-12435
▁abond	-12436
▁benba	-12437
▁croyi	-12438
▁danse	-12439
▁exper	-12440
▁fleur	-12441
▁kaane	-12442
▁kabin	-12443
▁moder	-12444
▁tabɛn	-12445
▁tɔnmɔ	-12446
▁yɔɔrɔ	-12447
illesse	-12448
▁Kirisi	-12449
▁Nɔgɔya	-12450
▁Verset	-12451
▁banner	-12452
▁buruju	-12453
▁bònsòn	-12454
▁chauff	-12455
▁cɛnnin	-12456
▁expéri	-12457
▁mangez	-12458
▁masiri	-12459
▁misère	-12460
▁nuŋgba	-12461
▁regret	-12462
▁réfugi	-12463
▁sisiba	-12464
▁Gusunɔn	-12465
▁Nations	-12466
▁attendu	-12467
▁bigawns	-12468
▁commett	-12469
▁egilisi	-12470
▁haminan	-12471
▁miracul	-12472
Kalandenw	-12473
accomplit	-12474
▁KERECƐNW	-12475
▁Maridose	-12476
▁Tesaloni	-12477
▁consacré	-12478
▁démarche	-12479
▁déplacer	-12480
▁puissent	-12481
▁bibliques	-12482
▁capacités	-12483
▁demandant	-12484
▁faamubali	-12485
▁partirent	-12486
▁rendaient	-12487
▁Éphésiens	-12488
▁Zerobowamu	-12489
▁baaraɲuman	-12490
intervention	-12491
établissement	-12492
▁dusukunnakow	-12493
▁compréhension	-12494
37	-12495
9:	-12496
nz	-12497
awa	-12498
col	-12499
fic	-12500
mor	-12501
odi	-12502
riw	-12503
tak	-12504
ych	-12505
émo	-12506
ɲia	-12507
▁Rd	-12508
▁hâ	-12509
▁kì	-12510
Tout	-12511
alla	-12512
oriw	-12513
tais	-12514
wulu	-12515
écla	-12516
▁Aye	-12517
▁Maa	-12518
▁Pla	-12519
▁Sor	-12520
▁anj	-12521
▁hoy	-12522
▁méd	-12523
▁teh	-12524
Quand	-12525
enais	-12526
inion	-12527
ismes	-12528
isson	-12529
▁1:27	-12530
▁Bolo	-12531
▁assi	-12532
▁cert	-12533
▁copa	-12534
▁déro	-12535
▁lili	-12536
▁mera	-12537
▁nɔnɔ	-12538
▁rand	-12539
▁vêtu	-12540
▁wìla	-12541
▁your	-12542
andili	-12543
raires	-12544
▁Franç	-12545
▁Gomor	-12546
▁Isaïe	-12547
▁Manya	-12548
▁Titre	-12549
▁affli	-12550
▁conçu	-12551
▁lolow	-12552
▁légis	-12553
▁tigil	-12554
archite	-12555
entoure	-12556
kɛbagaw	-12557
écoutes	-12558
▁Durant	-12559
▁Sababu	-12560
▁adress	-12561
▁compat	-12562
▁dirait	-12563
▁désirs	-12564
▁dɛmɛna	-12565
▁ekobee	-12566
▁feeren	-12567
▁kalila	-12568
▁nuages	-12569
▁perfor	-12570
▁presse	-12571
▁remise	-12572
▁repose	-12573
▁réunis	-12574
▁sombre	-12575
▁transg	-12576
▁voulut	-12577
▁Arasɛli	-12578
▁Lɔnniya	-12579
▁choisir	-12580
▁délivre	-12581
▁faganin	-12582
▁nisɔngɔ	-12583
▁passant	-12584
▁regards	-12585
▁suivent	-12586
▁surpris	-12587
▁tableau	-12588
▁vitesse	-12589
▁ɲininna	-12590
▁Béthanie	-12591
▁complexe	-12592
▁contient	-12593
▁embarras	-12594
▁fidélité	-12595
▁habitent	-12596
▁insensés	-12597
▁lakɔlifa	-12598
▁parvenus	-12599
▁rappeler	-12600
▁frontière	-12601
▁catholique	-12602
▁faranyɔrɔw	-12603
▁hypocrites	-12604
▁recherches	-12605
▁tigilamɔgɔ	-12606
alimentation	-12607
▁ressemblent	-12608
▁Réfléchissez	-12609
▁régulièrement	-12610
AP	-12611
EM	-12612
Te	-12613
mɑ	-12614
zz	-12615
gre	-12616
hos	-12617
lia	-12618
ric	-12619
ule	-12620
▁Cr	-12621
▁Fà	-12622
▁ul	-12623
ason	-12624
aule	-12625
bato	-12626
incu	-12627
jira	-12628
ompe	-12629
umes	-12630
usés	-12631
▁48.	-12632
▁Boo	-12633
▁Nde	-12634
▁Sun	-12635
▁civ	-12636
▁djè	-12637
▁igi	-12638
▁lux	-12639
▁pya	-12640
▁sim	-12641
attra	-12642
avion	-12643
extra	-12644
intég	-12645
lenge	-12646
proch	-12647
rants	-12648
tumes	-12649
ventu	-12650
vième	-12651
ɲinin	-12652
▁1:17	-12653
▁Bɛɛn	-12654
▁Chɛɛ	-12655
▁Jack	-12656
▁Jeux	-12657
▁Saba	-12658
▁Yawe	-12659
▁afuɛ	-12660
▁cous	-12661
▁daaw	-12662
▁djin	-12663
▁déga	-12664
▁dégo	-12665
▁fans	-12666
▁kong	-12667
▁kosa	-12668
▁maux	-12669
▁nice	-12670
▁nuan	-12671
▁siin	-12672
▁tuna	-12673
Sariya	-12674
geance	-12675
getara	-12676
épanou	-12677
▁3:1-5	-12678
▁Baali	-12679
▁Bange	-12680
▁Lucas	-12681
▁Sanin	-12682
▁bienv	-12683
▁dépar	-12684
▁forow	-12685
▁kaari	-12686
▁kaman	-12687
▁olymp	-12688
▁saisi	-12689
▁yinri	-12690
oration	-12691
urgence	-12692
▁Barika	-12693
▁Ladili	-12694
▁Matiyo	-12695
▁TIMOTE	-12696
▁adorer	-12697
▁chaîne	-12698
▁courir	-12699
▁domini	-12700
▁humble	-12701
▁kuturu	-12702
▁kòròfò	-12703
▁nɛnili	-12704
▁renfor	-12705
▁végéta	-12706
▁éclair	-12707
activité	-12708
attitude	-12709
▁Afiriki	-12710
▁Prenons	-12711
▁augment	-12712
▁essenti	-12713
▁fisaman	-12714
▁fitinin	-12715
▁kasobon	-12716
▁moindre	-12717
▁moyenne	-12718
▁pensons	-12719
▁pourras	-12720
▁précise	-12721
▁raisonn	-12722
▁réaction	-12723
▁ɲɛyirali	-12724
▁Dergetara	-12725
▁excellent	-12726
▁fonctions	-12727
▁irréproch	-12728
▁lɔnbaliya	-12729
▁reviendra	-12730
▁réconcili	-12731
acquisition	-12732
inspiration	-12733
▁gufɛrinama	-12734
▁commentaires	-12735
▁Miséricordieux	-12736
▁responsabilité	-12737
-18	-12738
Dɔw	-12739
Par	-12740
Wan	-12741
adi	-12742
obo	-12743
îte	-12744
▁""	-12745
▁1/	-12746
▁It	-12747
▁[3	-12748
▁sm	-12749
bere	-12750
onin	-12751
ople	-12752
osɔn	-12753
élan	-12754
▁16-	-12755
▁Cam	-12756
▁Gɔm	-12757
▁HIV	-12758
▁fyɛ	-12759
▁gam	-12760
▁hot	-12761
▁put	-12762
▁run	-12763
▁tha	-12764
▁zen	-12765
Baara	-12766
chage	-12767
chool	-12768
terre	-12769
évalu	-12770
▁100%	-12771
▁1950	-12772
▁5:14	-12773
▁Alle	-12774
▁Bata	-12775
▁Maza	-12776
▁Répu	-12777
▁Yɛrɛ	-12778
▁dame	-12779
▁deep	-12780
▁deni	-12781
▁déni	-12782
▁makè	-12783
▁moti	-12784
▁nali	-12785
▁orig	-12786
▁rass	-12787
▁reme	-12788
▁rose	-12789
▁tiga	-12790
▁turu	-12791
▁vier	-12792
▁visi	-12793
agneau	-12794
auront	-12795
avions	-12796
bayɛli	-12797
lamanw	-12798
regist	-12799
vuyiri	-12800
▁Munna	-12801
▁céléb	-12802
▁forma	-12803
▁nusɔn	-12804
▁outil	-12805
▁sùrun	-12806
▁taako	-12807
▁techn	-12808
abonner	-12809
▁Gɔmɔri	-12810
▁Tandis	-12811
▁alcool	-12812
▁djigui	-12813
▁faamaw	-12814
▁fiyɛra	-12815
▁gwɛnna	-12816
▁invité	-12817
▁kènèya	-12818
▁ordonn	-12819
▁orient	-12820
▁promet	-12821
▁refuge	-12822
▁tagala	-12823
▁touris	-12824
▁yirige	-12825
▁ɲadenw	-12826
exercice	-12827
ternelle	-12828
▁Abinɛri	-12829
▁Corsair	-12830
▁endormi	-12831
▁féminin	-12832
▁inscrit	-12833
▁jiginna	-12834
▁progrès	-12835
▁projets	-12836
▁suicide	-12837
▁visiter	-12838
fications	-12839
▁Belgique	-12840
▁Gomorrhe	-12841
▁bâtiment	-12842
▁citoyens	-12843
▁contrain	-12844
▁document	-12845
▁enregist	-12846
▁espérons	-12847
▁huitième	-12848
▁miliyari	-12849
▁produire	-12850
▁saniyara	-12851
▁setigiya	-12852
▁sexuelle	-12853
▁totalité	-12854
▁Emanuwɛli	-12855
▁Pardonnez	-12856
▁constitue	-12857
▁magistrats	-12858
▁patrimoine	-12859
▁telefɔniko	-12860
▁dominations	-12861
▁mutuellement	-12862
55	-12863
DD	-12864
LU	-12865
kɑ	-12866
̃ɛ	-12867
Emp	-12868
cen	-12869
diw	-12870
fén	-12871
ota	-12872
▁Fo	-12873
▁yè	-12874
kama	-12875
léem	-12876
ména	-12877
ngan	-12878
yane	-12879
▁Hel	-12880
▁Jòn	-12881
▁Kya	-12882
▁Sab	-12883
▁Sez	-12884
▁bln	-12885
▁boh	-12886
▁kad	-12887
▁meu	-12888
▁nye	-12889
▁swĩ	-12890
▁sév	-12891
▁tax	-12892
▁tte	-12893
▁wud	-12894
▁yon	-12895
▁Ɔri	-12896
▁ƝIN	-12897
:1818	-12898
assit	-12899
inage	-12900
kodon	-12901
trice	-12902
éloge	-12903
▁Koni	-12904
▁Read	-12905
▁Sang	-12906
▁arra	-12907
▁bésé	-12908
▁enni	-12909
▁féri	-12910
▁fìla	-12911
▁kisa	-12912
▁late	-12913
▁malé	-12914
▁miyé	-12915
▁mɔna	-12916
▁nyer	-12917
▁paci	-12918
▁tian	-12919
▁tire	-12920
▁tiré	-12921
▁ɲama	-12922
Jurumu	-12923
assent	-12924
erecɛn	-12925
excell	-12926
prêtre	-12927
tiyopi	-12928
▁Sidon	-12929
▁cibaa	-12930
▁desɛn	-12931
▁diras	-12932
▁enter	-12933
▁excep	-12934
▁fanfè	-12935
adapter	-12936
attaque	-12937
ducéens	-12938
▁ajouté	-12939
▁décède	-12940
▁faudra	-12941
▁fufafu	-12942
▁kalanw	-12943
▁leader	-12944
▁lutter	-12945
▁oeuvre	-12946
▁répète	-12947
▁secour	-12948
▁écrite	-12949
▁énorme	-12950
aiguille	-12951
national	-12952
▁ajouter	-12953
▁dantuma	-12954
▁diyanin	-12955
▁furancɛ	-12956
▁mɛncogo	-12957
▁navires	-12958
▁oublier	-12959
▁pensait	-12960
▁prenons	-12961
▁tempête	-12962
honnêteté	-12963
ilanbagaw	-12964
événement	-12965
▁Bethléem	-12966
▁Saninman	-12967
▁attitude	-12968
▁devienne	-12969
▁détruite	-12970
▁générale	-12971
▁mensonge	-12972
▁messages	-12973
▁médicaux	-12974
▁reproche	-12975
▁respecte	-12976
▁vacances	-12977
▁versions	-12978
▁waatijan	-12979
▁accueille	-12980
▁française	-12981
▁possédait	-12982
▁tentation	-12983
▁comprenait	-12984
▁dadonkumaw	-12985
▁dounougnan	-12986
▁repentance	-12987
▁révélation	-12988
▁principalement	-12989
7:	-12990
UE	-12991
ww	-12992
:43	-12993
:46	-12994
chu	-12995
ggu	-12996
lik	-12997
ues	-12998
unt	-12999
▁$.	-13000
▁NE	-13001
acte	-13002
emar	-13003
enni	-13004
lama	-13005
matɔ	-13006
mise	-13007
olue	-13008
onie	-13009
rête	-13010
yala	-13011
▁4:3	-13012
▁Jii	-13013
▁Mac	-13014
▁Otu	-13015
▁Pos	-13016
▁beb	-13017
▁old	-13018
:2323	-13019
autor	-13020
credi	-13021
estes	-13022
ousse	-13023
épuis	-13024
▁3:18	-13025
▁Afri	-13026
▁Draw	-13027
▁Page	-13028
▁Réve	-13029
▁Tour	-13030
▁biru	-13031
▁bouc	-13032
▁jiri	-13033
▁land	-13034
▁légu	-13035
▁obéi	-13036
▁stra	-13037
▁supe	-13038
▁tien	-13039
▁tɛri	-13040
▁yomi	-13041
antanw	-13042
koulou	-13043
talité	-13044
▁Reste	-13045
▁Sanji	-13046
▁Sidɔn	-13047
▁adoré	-13048
▁crime	-13049
▁jujɔn	-13050
▁kanto	-13051
▁mères	-13052
▁mécré	-13053
▁obéir	-13054
▁saali	-13055
▁vents	-13056
▁vivez	-13057
▁Écris	-13058
ɔgwɛlɛn	-13059
▁Rendez	-13060
▁Walisa	-13061
▁bɔlɔnw	-13062
▁gentil	-13063
▁kiyama	-13064
▁lakunu	-13065
▁makònò	-13066
▁masaso	-13067
▁précis	-13068
▁salari	-13069
▁sanula	-13070
▁souris	-13071
▁suppri	-13072
▁étapes	-13073
▁ƝINING	-13074
aéroport	-13075
viennent	-13076
▁Environ	-13077
▁Turquie	-13078
▁arrêter	-13079
▁clients	-13080
▁concent	-13081
▁dorment	-13082
▁décédés	-13083
▁encoura	-13084
▁meurtre	-13085
▁ouvrage	-13086
▁plateau	-13087
▁preuves	-13088
▁secrets	-13089
▁traiter	-13090
ressement	-13091
épaisseur	-13092
▁Dugukolo	-13093
▁approche	-13094
▁bayɛlɛma	-13095
▁continué	-13096
▁patients	-13097
▁précieux	-13098
▁Jerusalèm	-13099
▁Yahudiyan	-13100
▁autrement	-13101
▁certitude	-13102
▁condamnés	-13103
▁convaincu	-13104
▁documents	-13105
▁dɔnkilila	-13106
▁portugais	-13107
▁tilennenw	-13108
▁République	-13109
▁commettras	-13110
▁comprirent	-13111
▁excellente	-13112
▁yɛrɛboɲala	-13113
▁kunkanbaara	-13114
▁kunmabɔsara	-13115
▁correctement	-13116
▁tilenbaliyako	-13117
Re	-13118
UT	-13119
,..	-13120
all	-13121
eso	-13122
ffé	-13123
ism	-13124
mpe	-13125
org	-13126
tee	-13127
yme	-13128
▁Aa	-13129
▁Ho	-13130
▁gâ	-13131
Kogo	-13132
Père	-13133
aume	-13134
dais	-13135
fere	-13136
guus	-13137
mero	-13138
pens	-13139
rila	-13140
▁250	-13141
▁Rab	-13142
▁fol	-13143
▁pee	-13144
▁pue	-13145
▁ŋun	-13146
Erɔdi	-13147
Kiraw	-13148
achat	-13149
illit	-13150
▁Inbe	-13151
▁dafɛ	-13152
▁digi	-13153
▁gbɛn	-13154
▁goût	-13155
▁grin	-13156
▁judi	-13157
▁prov	-13158
▁wélé	-13159
allait	-13160
impose	-13161
inclin	-13162
rables	-13163
tèrent	-13164
▁Ezawu	-13165
▁Gafew	-13166
▁Kɔngɔ	-13167
▁auras	-13168
▁black	-13169
▁créés	-13170
▁discu	-13171
▁jolie	-13172
▁kagni	-13173
▁kiero	-13174
▁kisse	-13175
▁leçon	-13176
▁noire	-13177
▁quête	-13178
▁retra	-13179
▁résid	-13180
▁voies	-13181
efforts	-13182
enematɔ	-13183
éprouve	-13184
▁Kabako	-13185
▁Kɛcogo	-13186
▁Safari	-13187
▁banakɔ	-13188
▁bisigi	-13189
▁chargé	-13190
▁couché	-13191
▁dignes	-13192
▁diyana	-13193
▁double	-13194
▁furula	-13195
▁gardez	-13196
▁kunkow	-13197
▁moteur	-13198
▁profit	-13199
▁retira	-13200
▁saurez	-13201
▁sayako	-13202
▁wantin	-13203
▁Absalom	-13204
▁Parfois	-13205
▁Zuwifuw	-13206
▁bateaux	-13207
▁faranna	-13208
▁joueurs	-13209
▁littéra	-13210
▁propiti	-13211
▁servent	-13212
▁support	-13213
▁volguus	-13214
enfuirent	-13215
▁britanni	-13216
▁demandes	-13217
▁kɛlɛbolo	-13218
▁nourriss	-13219
▁prostitu	-13220
▁sensible	-13221
abandonner	-13222
accueillir	-13223
▁Isirelibɑ	-13224
▁spectacle	-13225
▁ƝININGALI	-13226
▁difficulté	-13227
▁kolɔnbagaw	-13228
▁entendirent	-13229
▁intéressant	-13230
▁nafolotigiw	-13231
▁sɔngɔgwɛlɛn	-13232
▁Palestiniens	-13233
▁fonctionnent	-13234
▁signification	-13235
2]	-13236
AC	-13237
Ki	-13238
kò	-13239
sô	-13240
Én	-13241
òs	-13242
▁ì	-13243
Can	-13244
anu	-13245
bla	-13246
duc	-13247
uii	-13248
urs	-13249
ŋge	-13250
ɲin	-13251
▁BE	-13252
▁Pé	-13253
▁dɑ	-13254
▁jô	-13255
▁nt	-13256
▁Ɲa	-13257
RIST	-13258
____	-13259
aria	-13260
erts	-13261
muna	-13262
rami	-13263
rani	-13264
yèrè	-13265
▁1,5	-13266
▁14.	-13267
▁15-	-13268
▁33-	-13269
▁="6	-13270
▁Bla	-13271
▁Jax	-13272
▁Jɛn	-13273
▁Moy	-13274
▁Mus	-13275
▁Tyr	-13276
▁Yir	-13277
▁Yon	-13278
▁ada	-13279
▁cui	-13280
▁glo	-13281
▁hos	-13282
▁ila	-13283
▁kuu	-13284
▁lel	-13285
▁pàa	-13286
▁sel	-13287
▁épi	-13288
ainsi	-13289
forme	-13290
galen	-13291
gnent	-13292
guiya	-13293
issue	-13294
laban	-13295
mɔnin	-13296
nenya	-13297
trait	-13298
▁Kaan	-13299
▁Tiri	-13300
▁fuir	-13301
▁funu	-13302
▁mùso	-13303
▁sisé	-13304
▁sisɛ	-13305
Dumuni	-13306
Yeelen	-13307
aloman	-13308
cheurs	-13309
cieuse	-13310
empris	-13311
oppose	-13312
valent	-13313
xandre	-13314
▁Alain	-13315
▁Jeune	-13316
▁campa	-13317
▁djati	-13318
▁décro	-13319
▁fonde	-13320
▁netto	-13321
▁porno	-13322
▁récip	-13323
▁sifaw	-13324
▁souci	-13325
▁versé	-13326
▁wooda	-13327
kodonoz	-13328
▁Silasi	-13329
▁chants	-13330
▁déclin	-13331
▁découv	-13332
▁détrui	-13333
▁faniso	-13334
▁guérie	-13335
▁inféri	-13336
▁inspir	-13337
▁latuma	-13338
▁locale	-13339
▁locaux	-13340
▁nommée	-13341
▁procès	-13342
▁seerew	-13343
▁talent	-13344
▁titres	-13345
▁échapp	-13346
arrivais	-13347
▁amasɔtɔ	-13348
▁fortifi	-13349
▁indique	-13350
▁jurumut	-13351
▁morning	-13352
▁offrent	-13353
▁revenus	-13354
▁utilise	-13355
attachera	-13356
attendais	-13357
karamɔgɔw	-13358
▁Erection	-13359
▁couleurs	-13360
▁couronne	-13361
▁effectué	-13362
▁kantigiw	-13363
▁kanulenw	-13364
▁mépriser	-13365
▁nafoloba	-13366
▁tilennen	-13367
▁tiɲɛkuma	-13368
▁Ɲenematɔ	-13369
interroger	-13370
▁fondament	-13371
imagination	-13372
▁Hakilitigi	-13373
▁conception	-13374
▁disposition	-13375
▁entreprises	-13376
▁firiyamusow	-13377
▁rencontrent	-13378
▁batizelikɛla	-13379
▁cinquantaine	-13380
▁fadenyabolow	-13381
▁instructions	-13382
▁Ɲenematɔmɔnin	-13383
▁Sarakalasebaga	-13384
82	-13385
rg	-13386
?›,	-13387
Jii	-13388
oue	-13389
pin	-13390
rui	-13391
ush	-13392
ŋgɔ	-13393
▁5:	-13394
▁Ac	-13395
▁Ih	-13396
Arɔn	-13397
hɛmu	-13398
riya	-13399
sure	-13400
tɛɛn	-13401
épar	-13402
▁120	-13403
▁20"	-13404
▁Ana	-13405
▁Enj	-13406
▁Gén	-13407
▁Kon	-13408
▁Sol	-13409
▁Yaa	-13410
▁ché	-13411
▁dɛɛ	-13412
▁hao	-13413
▁mir	-13414
▁nɡe	-13415
▁srɛ	-13416
▁vus	-13417
▁Ɲin	-13418
exécu	-13419
fiant	-13420
hôtel	-13421
impôt	-13422
▁8:17	-13423
▁DUNI	-13424
▁Juli	-13425
▁acte	-13426
▁cɛɛn	-13427
▁disi	-13428
▁fyew	-13429
▁févr	-13430
▁give	-13431
▁noob	-13432
▁rive	-13433
▁saye	-13434
▁sege	-13435
▁siɲè	-13436
▁tura	-13437
▁yabi	-13438
Nafolo	-13439
estime	-13440
farinw	-13441
isance	-13442
jourou	-13443
▁Abiga	-13444
▁Avoir	-13445
▁Leila	-13446
▁Levez	-13447
▁Telle	-13448
▁Temps	-13449
▁aille	-13450
▁avert	-13451
▁banni	-13452
▁bòlen	-13453
▁hakir	-13454
▁japon	-13455
▁kaban	-13456
▁karne	-13457
▁ladki	-13458
▁nuked	-13459
▁redou	-13460
▁sabau	-13461
▁yɔrɔn	-13462
brarika	-13463
enlever	-13464
olateur	-13465
épouser	-13466
▁Balima	-13467
▁Komiji	-13468
▁Marita	-13469
▁Zuwifu	-13470
▁baraga	-13471
▁kantan	-13472
▁koulou	-13473
▁kɛlɛba	-13474
▁posées	-13475
▁privil	-13476
▁retard	-13477
▁récupé	-13478
▁siraba	-13479
▁trouva	-13480
angoisse	-13481
gleterre	-13482
▁balimak	-13483
▁chasser	-13484
▁hòrònya	-13485
▁réponds	-13486
équilibre	-13487
▁chiffres	-13488
▁dugutigi	-13489
▁définiti	-13490
▁feuilles	-13491
▁fréquent	-13492
▁jamanjan	-13493
▁labanlon	-13494
▁logement	-13495
▁pouvoirs	-13496
▁welelike	-13497
▁Ɲɛnamaya	-13498
▁Ɲɛyirali	-13499
enseignant	-13500
kodonozɔri	-13501
▁Librarika	-13502
▁challenge	-13503
▁jurumukow	-13504
▁pourrions	-13505
▁reconstru	-13506
▁voyageurs	-13507
▁élections	-13508
▁convaincre	-13509
▁tɔɔrɔbagaw	-13510
▁balimamusow	-13511
▁générations	-13512
▁kantigimanw	-13513
▁ɑ	-13514
▁—	-13515
.11	-13516
ENG	-13517
aré	-13518
kha	-13519
kpo	-13520
rat	-13521
èsè	-13522
ɛnw	-13523
▁>>	-13524
▁?!	-13525
▁ET	-13526
▁Fu	-13527
▁wɑ	-13528
Ange	-13529
Haut	-13530
dege	-13531
quit	-13532
êtus	-13533
▁800	-13534
▁Aux	-13535
▁Bro	-13536
▁Dun	-13537
▁Eni	-13538
▁NUN	-13539
▁Sal	-13540
▁Tan	-13541
▁Tha	-13542
▁Van	-13543
▁Vol	-13544
▁cos	-13545
▁dje	-13546
▁fle	-13547
▁gbo	-13548
▁paï	-13549
▁yɑ̃	-13550
▁Ɛsi	-13551
aison	-13552
chisé	-13553
envoi	-13554
ilati	-13555
kɛrɛn	-13556
milon	-13557
rieux	-13558
usage	-13559
▁2:13	-13560
▁Dusu	-13561
▁Jara	-13562
▁Mard	-13563
▁Must	-13564
▁andi	-13565
▁boko	-13566
▁bonn	-13567
▁days	-13568
▁dedo	-13569
▁infe	-13570
▁kowo	-13571
▁lamu	-13572
▁lila	-13573
▁lɛrɛ	-13574
▁nino	-13575
▁plén	-13576
▁réta	-13577
▁tina	-13578
▁ɲɔti	-13579
christ	-13580
▁2013:	-13581
▁Begɛn	-13582
▁Vérit	-13583
▁alone	-13584
▁attra	-13585
▁bride	-13586
▁foyer	-13587
▁jetés	-13588
▁munum	-13589
▁paris	-13590
apporte	-13591
quaient	-13592
▁Nafolo	-13593
▁compli	-13594
▁kɔseyi	-13595
▁nounou	-13596
▁occupe	-13597
▁plante	-13598
▁renouv	-13599
▁sympat	-13600
▁étoile	-13601
▁ɲasuma	-13602
▁Korɛnti	-13603
▁batɛmun	-13604
▁convers	-13605
▁céleste	-13606
▁dimilon	-13607
▁journal	-13608
▁kalanba	-13609
▁kasoden	-13610
▁morceau	-13611
▁nankɔtu	-13612
▁nombres	-13613
▁restera	-13614
▁Antioche	-13615
▁Zacharie	-13616
▁médicale	-13617
▁quittera	-13618
▁raconter	-13619
aajulikɛla	-13620
▁Kanaankaw	-13621
▁communion	-13622
▁cɛɲumanba	-13623
▁participé	-13624
▁recommand	-13625
▁remercier	-13626
▁répandait	-13627
▁Égyptiens	-13628
▁bénéficier	-13629
▁tagamacogo	-13630
▁culpabilité	-13631
▁nusɔndiyara	-13632
▁nafolobatigi	-13633
▁professionnel	-13634
-8	-13635
44	-13636
46	-13637
Ee	-13638
èr	-13639
Abi	-13640
App	-13641
gôt	-13642
rah	-13643
évo	-13644
▁Gw	-13645
▁cm	-13646
▁ém	-13647
▁ɔk	-13648
aman	-13649
atti	-13650
bola	-13651
gami	-13652
jama	-13653
môgô	-13654
yɛni	-13655
▁Cou	-13656
▁Las	-13657
▁Leo	-13658
▁Sch	-13659
▁bac	-13660
▁bia	-13661
▁ehe	-13662
▁fro	-13663
▁gir	-13664
▁kuɑ	-13665
▁wou	-13666
anter	-13667
gwɛli	-13668
tants	-13669
▁1968	-13670
▁3:10	-13671
▁Aman	-13672
▁Caïn	-13673
▁Cuba	-13674
▁Haut	-13675
▁Mogo	-13676
▁aɲia	-13677
▁baih	-13678
▁bèrè	-13679
▁dɔɔn	-13680
▁hakè	-13681
▁male	-13682
▁méda	-13683
▁rédi	-13684
▁tumɛ	-13685
▁yili	-13686
bolila	-13687
illité	-13688
ordonn	-13689
éliens	-13690
▁Denkɛ	-13691
▁Kolɔn	-13692
▁biala	-13693
▁bikin	-13694
▁collè	-13695
▁fèèrè	-13696
▁fêtes	-13697
▁kiiti	-13698
▁kouna	-13699
▁makɔn	-13700
▁reçue	-13701
▁sɛnrɛ	-13702
▁tulon	-13703
anayɛli	-13704
cemment	-13705
chiséde	-13706
tements	-13707
▁Demain	-13708
▁Dougou	-13709
▁Imagin	-13710
▁Wariko	-13711
▁belles	-13712
▁dogora	-13713
▁format	-13714
▁gardes	-13715
▁outils	-13716
▁ouvrit	-13717
▁prient	-13718
▁sìrila	-13719
▁tinxin	-13720
▁vieill	-13721
▁élimin	-13722
▁Personn	-13723
▁daminan	-13724
▁faamuya	-13725
▁kitabuw	-13726
▁mettait	-13727
▁médical	-13728
▁ouverte	-13729
▁proposé	-13730
▁refaire	-13731
▁station	-13732
▁superbe	-13733
▁sɔrasiw	-13734
▁théorie	-13735
accueille	-13736
actualité	-13737
adoration	-13738
entretien	-13739
oublierai	-13740
▁discuter	-13741
▁halakiko	-13742
▁mɔgɔsɔbɛ	-13743
▁neuvième	-13744
▁persécut	-13745
▁sigarɛti	-13746
▁yɛrɛminɛ	-13747
▁Réveillez	-13748
▁croyaient	-13749
▁divisions	-13750
▁faranfasi	-13751
▁jugements	-13752
▁naturelle	-13753
▁nécessite	-13754
▁plénitude	-13755
▁Alabatosow	-13756
▁kojugukɛla	-13757
▁kɛrɛnkɛrɛn	-13758
▁perfection	-13759
▁profondeur	-13760
▁stupéfaits	-13761
▁demandaient	-13762
▁consommation	-13763
▁International	-13764
&#	-13765
Bo	-13766
Fɔ	-13767
TE	-13768
aü	-13769
.."	-13770
.13	-13771
Ezi	-13772
guu	-13773
gɔn	-13774
him	-13775
mmy	-13776
nay	-13777
pre	-13778
six	-13779
unw	-13780
yée	-13781
ûté	-13782
▁6:	-13783
▁Ap	-13784
▁Mì	-13785
▁mr	-13786
auth	-13787
bert	-13788
chab	-13789
conf	-13790
endo	-13791
fice	-13792
huna	-13793
ited	-13794
kise	-13795
muru	-13796
rêts	-13797
tila	-13798
tège	-13799
ɛris	-13800
▁750	-13801
▁?."	-13802
▁LUI	-13803
▁Mɛn	-13804
▁Pho	-13805
▁Set	-13806
▁Tit	-13807
▁bud	-13808
▁gre	-13809
▁iye	-13810
▁kɔs	-13811
▁yau	-13812
Kɔngɔ	-13813
ciers	-13814
faran	-13815
raire	-13816
vable	-13817
écrou	-13818
▁Mary	-13819
▁Mike	-13820
▁Mɛli	-13821
▁baat	-13822
▁club	-13823
▁dôgô	-13824
▁lada	-13825
▁loup	-13826
▁miel	-13827
▁sali	-13828
▁âmes	-13829
effort	-13830
graver	-13831
hanaël	-13832
invite	-13833
échapp	-13834
équité	-13835
▁Abɛli	-13836
▁Bibia	-13837
▁Enjoy	-13838
▁Nuhan	-13839
▁Sungu	-13840
▁aimed	-13841
▁battu	-13842
▁bezan	-13843
▁bière	-13844
▁dépos	-13845
▁gonna	-13846
▁josɔn	-13847
▁mardi	-13848
▁masse	-13849
▁musom	-13850
▁stade	-13851
▁tenez	-13852
▁tourn	-13853
▁école	-13854
▁ŋgban	-13855
Ezipiti	-13856
affiche	-13857
djougou	-13858
endrait	-13859
tionnel	-13860
▁Ninivu	-13861
▁banget	-13862
▁chanté	-13863
▁emmené	-13864
▁kulera	-13865
▁kèlenw	-13866
▁landaw	-13867
▁mascul	-13868
▁mentir	-13869
▁occupé	-13870
▁option	-13871
▁romain	-13872
▁ɲɔgɔnw	-13873
apprends	-13874
auraient	-13875
entement	-13876
installe	-13877
olescent	-13878
puissant	-13879
ternance	-13880
▁croyiez	-13881
▁dessein	-13882
▁dépasse	-13883
▁kungolo	-13884
▁lagwɛli	-13885
▁longues	-13886
▁malheur	-13887
▁maɲinin	-13888
▁préfère	-13889
▁Rappelez	-13890
▁entendue	-13891
▁interpré	-13892
▁mangerai	-13893
▁pleurait	-13894
▁tɔɔrɔnin	-13895
▁éloignés	-13896
inquiétude	-13897
▁Véritable	-13898
▁conserver	-13899
▁devinrent	-13900
▁faamuyali	-13901
▁labancogo	-13902
▁poussière	-13903
▁reconnaît	-13904
▁résidence	-13905
▁Melchiséde	-13906
▁kɔnɔnakuma	-13907
▁prophéties	-13908
▁sariyasɛbɛ	-13909
▁satisfaire	-13910
▁disparaître	-13911
▁spécialistes	-13912
39	-13913
Ex	-13914
Om	-13915
ek	-13916
ov	-13917
ên	-13918
̃.	-13919
KAN	-13920
med	-13921
nya	-13922
tor	-13923
way	-13924
éen	-13925
êrê	-13926
▁00	-13927
▁61	-13928
▁Af	-13929
▁xi	-13930
Buru	-13931
Ibra	-13932
abin	-13933
dɛna	-13934
ghan	-13935
goya	-13936
kami	-13937
kola	-13938
liwɛ	-13939
mega	-13940
roup	-13941
zani	-13942
▁Ami	-13943
▁Dji	-13944
▁Kam	-13945
▁Nyɛ	-13946
▁djô	-13947
▁elf	-13948
▁gud	-13949
▁ifi	-13950
▁los	-13951
▁mol	-13952
▁nas	-13953
▁piy	-13954
▁sex	-13955
▁uka	-13956
effor	-13957
ettez	-13958
risto	-13959
▁10:6	-13960
▁Assu	-13961
▁Bons	-13962
▁Cɛɛw	-13963
▁Hist	-13964
▁Koyi	-13965
▁Lisa	-13966
▁Peur	-13967
▁Rock	-13968
▁Seul	-13969
▁aîné	-13970
▁creo	-13971
▁cuba	-13972
▁dada	-13973
▁dina	-13974
▁dôni	-13975
▁idio	-13976
▁inci	-13977
▁kahe	-13978
▁lele	-13979
▁mets	-13980
▁numu	-13981
▁vert	-13982
entret	-13983
▁1948,	-13984
▁1991.	-13985
▁bobow	-13986
▁doués	-13987
▁fyɛwu	-13988
▁jeudi	-13989
▁kalaw	-13990
▁lanen	-13991
▁nanni	-13992
▁nanti	-13993
▁piste	-13994
▁réuss	-13995
▁sayin	-13996
▁sogow	-13997
▁vente	-13998
▁weenɛ	-13999
▁états	-14000
actions	-14001
ɛrisɛsi	-14002
▁Damasi	-14003
▁Kojugu	-14004
▁Vendre	-14005
▁accusé	-14006
▁genoux	-14007
▁nôgôya	-14008
▁parfum	-14009
▁restes	-14010
▁tigiya	-14011
▁wunnin	-14012
▁yɛtɛɛn	-14013
authenti	-14014
olutions	-14015
▁Francis	-14016
▁arrêtés	-14017
▁chargés	-14018
▁chaînes	-14019
▁exclusi	-14020
▁exhorte	-14021
▁gestion	-14022
▁kasikan	-14023
▁modèles	-14024
▁passées	-14025
▁prépara	-14026
▁réjouis	-14027
▁tombent	-14028
araissent	-14029
essentiel	-14030
▁Demandez	-14031
▁assassin	-14032
▁endormis	-14033
▁fitininw	-14034
▁réunions	-14035
▁vivaient	-14036
▁Taamasiɲɛ	-14037
▁accomplir	-14038
▁accomplis	-14039
▁boulevers	-14040
▁encourage	-14041
▁fondation	-14042
▁manifeste	-14043
▁maɲininka	-14044
▁musobaara	-14045
▁nationale	-14046
▁développer	-14047
▁identiques	-14048
▁kirayakuma	-14049
▁similaires	-14050
▁situations	-14051
▁yɛrɛyɛrɛla	-14052
▁compétences	-14053
▁précisément	-14054
▁respectueux	-14055
▁Yahudiyanuna	-14056
▁particulière	-14057
▁gouvernements	-14058
MI	-14059
To	-14060
bn	-14061
ik	-14062
ky	-14063
▁È	-14064
OUS	-14065
clé	-14066
dui	-14067
ity	-14068
rɛn	-14069
thi	-14070
îme	-14071
▁91	-14072
▁AH	-14073
▁Gé	-14074
▁Xa	-14075
▁ts	-14076
▁tɑ	-14077
▁uw	-14078
2...	-14079
Isra	-14080
aine	-14081
arry	-14082
dimi	-14083
dɛli	-14084
essé	-14085
lend	-14086
luge	-14087
▁17"	-14088
▁600	-14089
▁Bén	-14090
▁Del	-14091
▁Vue	-14092
▁dau	-14093
▁gaz	-14094
▁jôé	-14095
▁mba	-14096
▁van	-14097
▁yad	-14098
▁òlu	-14099
▁ɲɔ̀	-14100
alisa	-14101
cence	-14102
dɛndɛ	-14103
ennen	-14104
euble	-14105
▁1:30	-14106
▁Anne	-14107
▁Dunu	-14108
▁Fari	-14109
▁Mini	-14110
▁NUNU	-14111
▁Ruth	-14112
▁Sani	-14113
▁asan	-14114
▁baar	-14115
▁bɛma	-14116
▁dɔxɔ	-14117
▁kaye	-14118
▁kpɛn	-14119
▁kèni	-14120
▁kĩru	-14121
▁nawa	-14122
▁nogo	-14123
▁nɔni	-14124
▁pony	-14125
▁sons	-14126
▁waka	-14127
ENGOLU	-14128
aimons	-14129
atoire	-14130
cèrent	-14131
galité	-14132
iladel	-14133
illées	-14134
midité	-14135
médier	-14136
ouvoir	-14137
▁Kunun	-14138
▁Mased	-14139
▁Omega	-14140
▁Waati	-14141
▁doron	-14142
▁grain	-14143
▁kaali	-14144
▁kogow	-14145
▁nyɛrɛ	-14146
▁socha	-14147
▁verra	-14148
▁yikes	-14149
▁Bamakɔ	-14150
▁Esther	-14151
▁cɛmanw	-14152
▁divisé	-14153
▁effets	-14154
▁fantas	-14155
▁ferons	-14156
▁gɛlɛya	-14157
▁kɔnɔni	-14158
▁magara	-14159
▁manges	-14160
▁nôtres	-14161
▁perdus	-14162
▁reçues	-14163
▁troupe	-14164
▁verser	-14165
▁yibɛrɛ	-14166
▁étouff	-14167
▁ɲènama	-14168
▁ɲɛminɛ	-14169
▁Siniman	-14170
▁attaché	-14171
▁charité	-14172
▁coutume	-14173
▁destiné	-14174
▁dɔgɔkun	-14175
▁gouttes	-14176
▁honnête	-14177
▁mention	-14178
▁mettant	-14179
▁naturel	-14180
▁patɔrɔn	-14181
▁termine	-14182
▁Corinthe	-14183
▁Farahuna	-14184
▁Mɛlikise	-14185
▁Question	-14186
▁accordée	-14187
▁cultures	-14188
▁exemples	-14189
▁glorieux	-14190
▁lumières	-14191
▁remercie	-14192
▁remédier	-14193
▁tɛmɛsira	-14194
▁utilisés	-14195
▁ŋunuŋunu	-14196
▁bangebaga	-14197
▁bɔnsɔnilu	-14198
▁catégorie	-14199
▁distances	-14200
▁dougouman	-14201
▁fortement	-14202
▁pensaient	-14203
▁racontera	-14204
▁commandant	-14205
▁descendant	-14206
▁kininkinin	-14207
▁destination	-14208
▁deviendront	-14209
▁hakiritigiw	-14210
▁information	-14211
▁spirituelle	-14212
▁participants	-14213
▁appartiennent	-14214
gg	-14215
▁]	-14216
.10	-14217
Isa	-14218
Sim	-14219
UIS	-14220
bit	-14221
sur	-14222
vle	-14223
▁8:	-14224
▁Bɑ	-14225
▁Ep	-14226
▁bÃ	-14227
▁vô	-14228
BULU	-14229
Eden	-14230
Wafa	-14231
allé	-14232
ania	-14233
atch	-14234
cess	-14235
fenw	-14236
fond	-14237
geur	-14238
haut	-14239
oncé	-14240
phes	-14241
rata	-14242
rite	-14243
yiti	-14244
ysée	-14245
▁11-	-14246
▁12.	-14247
▁17-	-14248
▁9:5	-14249
▁Anɛ	-14250
▁Dgo	-14251
▁Hin	-14252
▁Uru	-14253
▁ava	-14254
▁gaa	-14255
▁mys	-14256
▁nam	-14257
▁ner	-14258
▁shɔ	-14259
▁zai	-14260
:2424	-14261
anamu	-14262
ceaux	-14263
duguw	-14264
illir	-14265
lenya	-14266
masen	-14267
rages	-14268
ranch	-14269
▁1000	-14270
▁1:24	-14271
▁Cham	-14272
▁Kɔgɔ	-14273
▁Kɔnɔ	-14274
▁Lune	-14275
▁Muxu	-14276
▁Tony	-14277
▁Vide	-14278
▁Yiri	-14279
▁bôra	-14280
▁choc	-14281
▁conv	-14282
▁coqu	-14283
▁côte	-14284
▁dekh	-14285
▁dign	-14286
▁fatɔ	-14287
▁fixé	-14288
▁guer	-14289
▁infi	-14290
▁loko	-14291
▁mons	-14292
▁nɛgɛ	-14293
▁pili	-14294
▁rire	-14295
▁sabo	-14296
▁syri	-14297
▁tama	-14298
achète	-14299
autrui	-14300
ctrice	-14301
deyawu	-14302
ession	-14303
▁17.30	-14304
▁2....	-14305
▁Akabu	-14306
▁Atlan	-14307
▁Parti	-14308
▁Vingt	-14309
▁basig	-14310
▁blogs	-14311
▁bénis	-14312
▁coupé	-14313
▁dontɔ	-14314
▁falan	-14315
▁ferez	-14316
▁finir	-14317
▁gbeen	-14318
▁jumèn	-14319
▁kuraw	-14320
▁mener	-14321
▁meurs	-14322
▁nôtre	-14323
▁prédi	-14324
▁récla	-14325
▁souli	-14326
▁taatɔ	-14327
▁truii	-14328
▁tryin	-14329
▁vainc	-14330
▁ɔkutɔ	-14331
apprend	-14332
exprime	-14333
▁Aucune	-14334
▁BIBULU	-14335
▁Mettez	-14336
▁barila	-14337
▁bigger	-14338
▁cogodi	-14339
▁copain	-14340
▁déposé	-14341
▁examen	-14342
▁ferais	-14343
▁levais	-14344
▁lilato	-14345
▁mɔgɛnu	-14346
▁sabari	-14347
▁trompé	-14348
▁Lumière	-14349
▁Madiyan	-14350
▁Sebaaya	-14351
▁accepte	-14352
▁dumukun	-14353
▁enfance	-14354
▁millier	-14355
▁musoman	-14356
▁ouverts	-14357
▁prendra	-14358
▁réserve	-14359
▁sources	-14360
▁sumansi	-14361
▁toucher	-14362
▁écrites	-14363
entendent	-14364
▁Cɛfarinw	-14365
▁Dɔnkiliw	-14366
▁Internet	-14367
▁Subayɛli	-14368
▁Yɛdeyawu	-14369
▁dénombre	-14370
▁dɔgɔninw	-14371
▁kɛlɛbaga	-14372
▁makɔnɔna	-14373
▁terrible	-14374
approchant	-14375
assistance	-14376
▁Manyadali	-14377
▁Sodɔmukaw	-14378
▁campagnes	-14379
▁châtiment	-14380
▁commettre	-14381
▁puissions	-14382
▁sankolola	-14383
▁accessible	-14384
▁dakɔrɔsigi	-14385
▁discipline	-14386
▁karanbagaw	-14387
▁nomination	-14388
▁rencontres	-14389
▁cherchaient	-14390
▁alimentation	-14391
▁modifications	-14392
?)	-14393
Ad	-14394
LI	-14395
wn	-14396
ENA	-14397
Moi	-14398
aum	-14399
elé	-14400
fla	-14401
iii	-14402
kaa	-14403
kur	-14404
lom	-14405
mad	-14406
ope	-14407
ork	-14408
▁3)	-14409
▁Aj	-14410
▁DE	-14411
▁YE	-14412
▁fâ	-14413
▁ɲé	-14414
Tous	-14415
alie	-14416
arra	-14417
auts	-14418
elin	-14419
gies	-14420
hier	-14421
igno	-14422
iler	-14423
jara	-14424
leme	-14425
ords	-14426
▁130	-14427
▁4:6	-14428
▁Joo	-14429
▁bug	-14430
▁ido	-14431
▁ika	-14432
▁koi	-14433
▁sté	-14434
▁vec	-14435
:1010	-14436
:2525	-14437
endue	-14438
eries	-14439
esian	-14440
gance	-14441
garde	-14442
inbow	-14443
lailu	-14444
phant	-14445
reurs	-14446
écrit	-14447
▁Ayez	-14448
▁atun	-14449
▁daka	-14450
▁ford	-14451
▁fula	-14452
▁kafa	-14453
▁kakè	-14454
▁kòse	-14455
▁luma	-14456
▁olou	-14457
▁pari	-14458
▁pilo	-14459
▁rele	-14460
▁sugg	-14461
▁sɔmb	-14462
▁tali	-14463
▁tlan	-14464
▁toil	-14465
tables	-14466
▁Abram	-14467
▁Kafar	-14468
▁accro	-14469
▁adult	-14470
▁album	-14471
▁bantu	-14472
▁besse	-14473
▁broke	-14474
▁bwese	-14475
▁bɔ̀rɛ	-14476
▁cycle	-14477
▁dépou	-14478
▁exige	-14479
▁kirin	-14480
▁kɔsie	-14481
▁kɛlon	-14482
▁lɔnna	-14483
▁probe	-14484
▁seliw	-14485
▁terew	-14486
▁virus	-14487
▁wɛɛrɛ	-14488
▁ɲaari	-14489
Comment	-14490
bilités	-14491
dɔnkili	-14492
fugulan	-14493
glement	-14494
oiseaux	-14495
▁Franse	-14496
▁Pâques	-14497
▁Suisse	-14498
▁Tobiya	-14499
▁amoriw	-14500
▁boulot	-14501
▁fermes	-14502
▁grince	-14503
▁guérit	-14504
▁ingana	-14505
▁légiti	-14506
▁revoir	-14507
▁régner	-14508
▁saisis	-14509
▁surnom	-14510
▁survie	-14511
▁sɔgɔwɔ	-14512
▁tarika	-14513
▁tobili	-14514
▁tombés	-14515
▁venons	-14516
▁vivait	-14517
arrivera	-14518
▁auteurs	-14519
▁chiffre	-14520
▁dormait	-14521
▁déteste	-14522
▁feuille	-14523
▁pouvant	-14524
▁recueil	-14525
▁réalise	-14526
▁éternel	-14527
▁Imaginez	-14528
▁National	-14529
▁Vendredi	-14530
▁demeurer	-14531
▁furakɛla	-14532
▁mangeait	-14533
▁mercredi	-14534
▁parvenir	-14535
▁puissiez	-14536
▁rapports	-14537
▁royaumes	-14538
▁échapper	-14539
▁épargnée	-14540
▁épreuves	-14541
iladelphie	-14542
▁Ananiyasi	-14543
▁Nathanaël	-14544
▁mɔgɔsɔbɛw	-14545
▁nécessité	-14546
▁possèdent	-14547
▁suivantes	-14548
association	-14549
▁Dilanbagaw	-14550
▁Kafaranamu	-14551
▁commencent	-14552
▁considérer	-14553
▁deviennent	-14554
▁dimikojugu	-14555
▁restaurant	-14556
▁taamasiɲɛw	-14557
entraînement	-14558
▁proposition	-14559
▁condoléances	-14560
emprisonnement	-14561
enregistrement	-14562
▁ɔkutɔburukalo	-14563
▁professionnels	-14564
Où	-14565
cè	-14566
Asa	-14567
Aut	-14568
ano	-14569
ege	-14570
gos	-14571
ily	-14572
ith	-14573
lab	-14574
pie	-14575
yoo	-14576
ïti	-14577
̀lɔ	-14578
▁Ed	-14579
▁Fl	-14580
▁Gn	-14581
▁Ir	-14582
▁ey	-14583
?...	-14584
Elle	-14585
Inde	-14586
Taga	-14587
basi	-14588
dɛki	-14589
gile	-14590
guru	-14591
géni	-14592
illu	-14593
jɛrɛ	-14594
trer	-14595
yaga	-14596
yani	-14597
ŋana	-14598
▁1:7	-14599
▁8:5	-14600
▁Foi	-14601
▁Pau	-14602
▁Sɔn	-14603
▁Tai	-14604
▁aun	-14605
▁bœu	-14606
▁fis	-14607
▁gee	-14608
▁gni	-14609
▁guo	-14610
▁kwn	-14611
▁she	-14612
▁wuu	-14613
Comme	-14614
Sungu	-14615
chogo	-14616
conde	-14617
ffice	-14618
idiot	-14619
iseli	-14620
prême	-14621
éclat	-14622
▁Déjà	-14623
▁Jéri	-14624
▁Port	-14625
▁Star	-14626
▁Usfs	-14627
▁cɛra	-14628
▁daji	-14629
▁dèsè	-14630
▁gila	-14631
▁holy	-14632
▁kare	-14633
▁lela	-14634
▁rare	-14635
▁sogi	-14636
▁sɔmi	-14637
▁tipu	-14638
▁tres	-14639
▁yita	-14640
jouter	-14641
liques	-14642
masɔtɔ	-14643
étonne	-14644
▁Alifa	-14645
▁Améri	-14646
▁Metro	-14647
▁Sudan	-14648
▁Ville	-14649
▁alert	-14650
▁aviez	-14651
▁candi	-14652
▁diver	-14653
▁formé	-14654
▁incar	-14655
▁indis	-14656
▁kɛnɛn	-14657
▁mbele	-14658
▁misiw	-14659
▁passa	-14660
▁poign	-14661
▁puede	-14662
▁pèrèn	-14663
▁périr	-14664
▁segui	-14665
▁tiile	-14666
▁tiɲan	-14667
▁today	-14668
▁vecnu	-14669
▁yôrôw	-14670
emporte	-14671
erreurs	-14672
veiller	-14673
▁Auprès	-14674
▁Celles	-14675
▁Halibi	-14676
▁Jɛhova	-14677
▁Kilisi	-14678
▁Laisse	-14679
▁Makari	-14680
▁Sitanè	-14681
▁accusa	-14682
▁appare	-14683
▁apport	-14684
▁assuré	-14685
▁bagara	-14686
▁fangan	-14687
▁galiba	-14688
▁ouvrir	-14689
▁papier	-14690
▁patron	-14691
▁poussé	-14692
▁relevé	-14693
▁tinmin	-14694
▁traces	-14695
▁économ	-14696
accident	-14697
attaquer	-14698
humidité	-14699
miration	-14700
▁Koɲuman	-14701
▁absence	-14702
▁confort	-14703
▁daminin	-14704
▁decides	-14705
▁entrent	-14706
▁gardien	-14707
▁indiqué	-14708
▁kamyabi	-14709
▁rendent	-14710
▁sauvage	-14711
▁séparés	-14712
▁valeurs	-14713
▁visible	-14714
adressent	-14715
épendance	-14716
▁Djamanan	-14717
▁Mariyama	-14718
▁Sɔgɔmada	-14719
▁Zoziyasi	-14720
▁arrivées	-14721
▁atteinte	-14722
▁boɲafɛnw	-14723
▁entendus	-14724
▁farimanw	-14725
▁kalatara	-14726
▁labènnen	-14727
▁miiriyaw	-14728
▁offrande	-14729
▁paiement	-14730
▁paraître	-14731
▁recevant	-14732
▁renommée	-14733
▁répandit	-14734
▁yiriwara	-14735
▁ɲɛnabɔla	-14736
▁Ecritures	-14737
▁christian	-14738
▁créatures	-14739
▁dangereux	-14740
▁fondement	-14741
▁officiers	-14742
▁parlaient	-14743
▁proposent	-14744
▁puissante	-14745
▁sugandili	-14746
▁photograph	-14747
▁sarakalasebaaw	-14748
Bi	-14749
Ci	-14750
OS	-14751
oa	-14752
òw	-14753
."]	-14754
/10	-14755
:1,	-14756
daa	-14757
foo	-14758
gel	-14759
ght	-14760
mig	-14761
orn	-14762
pée	-14763
tik	-14764
▁87	-14765
▁9-	-14766
▁MP	-14767
▁Sà	-14768
▁ol	-14769
▁̀.	-14770
Sɔli	-14771
esté	-14772
fati	-14773
ftes	-14774
moni	-14775
nité	-14776
osor	-14777
pagn	-14778
pore	-14779
tari	-14780
tɛmɛ	-14781
wuli	-14782
yeur	-14783
▁13.	-14784
▁="3	-14785
▁Hen	-14786
▁Rob	-14787
▁adv	-14788
▁eni	-14789
▁nah	-14790
▁ron	-14791
▁réb	-14792
▁saf	-14793
▁sip	-14794
▁suf	-14795
▁sàm	-14796
▁wɔn	-14797
▁yuu	-14798
Suman	-14799
abîme	-14800
ignes	-14801
orent	-14802
risie	-14803
xiété	-14804
ɛrɛsi	-14805
▁2:19	-14806
▁Hace	-14807
▁Jina	-14808
▁Jude	-14809
▁abat	-14810
▁amus	-14811
▁atom	-14812
▁basi	-14813
▁capt	-14814
▁chat	-14815
▁dɔmi	-14816
▁hain	-14817
▁jaɲa	-14818
▁kelé	-14819
▁keta	-14820
▁klun	-14821
▁laki	-14822
▁muet	-14823
▁scan	-14824
▁sine	-14825
▁suan	-14826
▁sura	-14827
▁tons	-14828
ftesho	-14829
goninw	-14830
maines	-14831
éclair	-14832
▁Coran	-14833
▁Micha	-14834
▁Nyɛmɛ	-14835
▁Siyaw	-14836
▁baroo	-14837
▁daram	-14838
▁demeu	-14839
▁fonds	-14840
▁gamme	-14841
▁guère	-14842
▁music	-14843
▁notes	-14844
▁risen	-14845
▁sport	-14846
▁tarde	-14847
▁teles	-14848
arrière	-14849
essence	-14850
inverse	-14851
isateur	-14852
▁Diinan	-14853
▁Sarayi	-14854
▁Tamari	-14855
▁adopté	-14856
▁bɔnɛna	-14857
▁dourou	-14858
▁déluge	-14859
▁keliya	-14860
▁london	-14861
▁rejeté	-14862
▁tourna	-14863
▁utiles	-14864
▁vierge	-14865
▁étudié	-14866
Ibrayima	-14867
Kalanden	-14868
amertume	-14869
immédiat	-14870
▁Amasɔtɔ	-14871
▁América	-14872
▁Kerecɛn	-14873
▁chacune	-14874
▁dɛndɛna	-14875
▁envoyer	-14876
▁nyagari	-14877
▁rébelli	-14878
▁sariɲan	-14879
▁sɔngɔrɔ	-14880
▁élément	-14881
animation	-14882
appliquer	-14883
▁Emmanuel	-14884
▁célébrer	-14885
▁demeurez	-14886
▁hakɛkɛla	-14887
▁installé	-14888
▁instants	-14889
▁kɛlɛyɔrɔ	-14890
▁ladiliba	-14891
▁prononcé	-14892
▁solofere	-14893
▁sépulcre	-14894
▁tougouni	-14895
encourager	-14896
olocaustes	-14897
▁Ezekiyɛli	-14898
▁contribué	-14899
▁dannabaaw	-14900
▁disparaît	-14901
▁dusuɲuman	-14902
▁détestent	-14903
▁intéresse	-14904
▁kabakoman	-14905
▁kabakurun	-14906
▁provoquer	-14907
▁Hakilijigi	-14908
▁koloftesho	-14909
▁nisɔndiyara	-14910
▁transmettre	-14911
▁Mɛlikisedɛki	-14912
▁bénédictions	-14913
▁tranquillité	-14914
▁Personnellement	-14915
:.	-14916
YƐ	-14917
nɔ	-14918
yl	-14919
▁Ò	-14920
dad	-14921
hua	-14922
kia	-14923
koe	-14924
lié	-14925
vah	-14926
vɛr	-14927
▁az	-14928
▁fÉ	-14929
dits	-14930
enai	-14931
gibu	-14932
isie	-14933
omne	-14934
ouma	-14935
▁19-	-14936
▁Air	-14937
▁Her	-14938
▁Mɔɔ	-14939
▁PAS	-14940
▁Pak	-14941
▁afi	-14942
▁cun	-14943
▁ego	-14944
▁emm	-14945
▁etc	-14946
▁eus	-14947
▁idé	-14948
▁mut	-14949
▁nje	-14950
▁yak	-14951
asaba	-14952
cepti	-14953
culer	-14954
envir	-14955
illis	-14956
isigi	-14957
kansi	-14958
mashy	-14959
ougou	-14960
tɔrɔw	-14961
veaux	-14962
ɛnɛti	-14963
▁Appr	-14964
▁Essa	-14965
▁Facɛ	-14966
▁Kara	-14967
▁Mori	-14968
▁Rois	-14969
▁Sali	-14970
▁Yili	-14971
▁afew	-14972
▁busk	-14973
▁bôla	-14974
▁cɛɲɛ	-14975
▁done	-14976
▁dura	-14977
▁déçu	-14978
▁kofe	-14979
▁meme	-14980
▁nwon	-14981
▁sebe	-14982
▁sick	-14983
▁tilé	-14984
▁tuyo	-14985
▁upon	-14986
▁were	-14987
Sɔgɔma	-14988
Zowabu	-14989
dankan	-14990
eresse	-14991
heures	-14992
issaba	-14993
ologne	-14994
yɔrɔko	-14995
çaient	-14996
échias	-14997
▁Dites	-14998
▁Gbana	-14999
▁Kenya	-15000
▁Mardo	-15001
▁Natan	-15002
▁Saraï	-15003
▁boonw	-15004
▁centi	-15005
▁conne	-15006
▁dalen	-15007
▁dangu	-15008
▁denma	-15009
▁démis	-15010
▁fanka	-15011
▁handi	-15012
▁impri	-15013
▁kɛɛrɛ	-15014
▁lagey	-15015
▁malad	-15016
▁négli	-15017
▁segin	-15018
▁stimu	-15019
▁tufan	-15020
Lɔnniya	-15021
accorde	-15022
affirme	-15023
ilennin	-15024
liquent	-15025
▁Basnay	-15026
▁DUNIYA	-15027
▁Prince	-15028
▁assise	-15029
▁better	-15030
▁cachés	-15031
▁craint	-15032
▁cɛncɛn	-15033
▁finale	-15034
▁france	-15035
▁frappe	-15036
▁hategi	-15037
▁lɔgɔma	-15038
▁menace	-15039
▁millén	-15040
▁perspe	-15041
▁piyɔni	-15042
▁prolon	-15043
▁restez	-15044
▁retenu	-15045
▁tilant	-15046
attacher	-15047
isateurs	-15048
titution	-15049
▁Demande	-15050
▁Paroles	-15051
▁Seconde	-15052
▁Syriens	-15053
▁danfara	-15054
▁délivré	-15055
▁faciles	-15056
▁finance	-15057
▁findixi	-15058
▁intenti	-15059
▁kòsegin	-15060
▁minnɔgɔ	-15061
▁portant	-15062
▁prêcher	-15063
▁sagaden	-15064
▁saurait	-15065
▁verrons	-15066
encourage	-15067
inquiéter	-15068
ologiques	-15069
▁Cherchez	-15070
▁bilayɔrɔ	-15071
▁docteurs	-15072
▁doctrine	-15073
▁jalakira	-15074
▁maîtrise	-15075
▁mourrait	-15076
▁musomanw	-15077
▁mystères	-15078
▁médecins	-15079
▁paraîtra	-15080
▁pression	-15081
▁pɛrɛnkan	-15082
▁repentir	-15083
▁taamashy	-15084
▁voudrait	-15085
▁évidence	-15086
alternance	-15087
excellence	-15088
équitation	-15089
▁assemblée	-15090
▁basiginin	-15091
▁constater	-15092
▁dɔmiiriya	-15093
▁largement	-15094
▁numanbolo	-15095
▁randonnée	-15096
▁remarquer	-15097
▁souverain	-15098
▁tasumaman	-15099
▁barikatigi	-15100
▁continuent	-15101
Mɔgɔtilennin	-15102
▁circulation	-15103
▁gentillesse	-15104
▁israélienne	-15105
▁Philadelphie	-15106
▁divertissant	-15107
▁persévérance	-15108
▁présentation	-15109
▁environnement	-15110
tɔnkuntigidankan	-15111
!」	-15112
kp	-15113
.24	-15114
:40	-15115
ato	-15116
bei	-15117
bul	-15118
ely	-15119
hem	-15120
kas	-15121
ols	-15122
rac	-15123
tiw	-15124
vet	-15125
vla	-15126
wer	-15127
yee	-15128
▁Mr	-15129
▁dh	-15130
▁dí	-15131
▁Ɲe	-15132
Deen	-15133
Pɔli	-15134
Yɛrɛ	-15135
ache	-15136
blée	-15137
exte	-15138
ggle	-15139
kòrò	-15140
lits	-15141
look	-15142
orun	-15143
ouer	-15144
oyan	-15145
peau	-15146
rali	-15147
ulte	-15148
▁25.	-15149
▁Hun	-15150
▁Mil	-15151
▁Sis	-15152
▁Ter	-15153
▁Yoo	-15154
▁bèe	-15155
▁cur	-15156
▁dik	-15157
▁exi	-15158
▁fau	-15159
▁gas	-15160
▁kom	-15161
▁pil	-15162
▁sla	-15163
▁tɛn	-15164
expul	-15165
ituma	-15166
kpoyi	-15167
leman	-15168
rasse	-15169
▁Dire	-15170
▁Jeph	-15171
▁Like	-15172
▁Lɔgɔ	-15173
▁Sogo	-15174
▁boni	-15175
▁buli	-15176
▁busy	-15177
▁béna	-15178
▁bôni	-15179
▁bɔtɔ	-15180
▁fòli	-15181
▁kahi	-15182
▁kame	-15183
▁kimi	-15184
▁koon	-15185
▁kêmê	-15186
▁mami	-15187
▁maro	-15188
▁maso	-15189
▁maud	-15190
▁paru	-15191
▁stew	-15192
▁susc	-15193
▁tlon	-15194
▁yĩsi	-15195
Zuwifu	-15196
accent	-15197
encens	-15198
envisa	-15199
illage	-15200
kannin	-15201
orizon	-15202
tiguiw	-15203
▁.....	-15204
▁24:44	-15205
▁Alako	-15206
▁Compr	-15207
▁Kayɛn	-15208
▁Moyen	-15209
▁Price	-15210
▁Silas	-15211
▁Yinnɛ	-15212
▁affer	-15213
▁alent	-15214
▁chars	-15215
▁culti	-15216
▁dossi	-15217
▁fière	-15218
▁hiver	-15219
▁kanna	-15220
▁labil	-15221
▁queue	-15222
▁reali	-15223
▁stand	-15224
▁suive	-15225
▁yelen	-15226
▁écras	-15227
fiɲɛlon	-15228
gnongon	-15229
icacité	-15230
olation	-15231
▁50%...	-15232
▁Galaad	-15233
▁Lajɛnw	-15234
▁Saduse	-15235
▁Zeriko	-15236
▁amoniw	-15237
▁balawu	-15238
▁barisa	-15239
▁barish	-15240
▁bènnen	-15241
▁consci	-15242
▁discer	-15243
▁enfuis	-15244
▁entrés	-15245
▁estime	-15246
▁fortes	-15247
▁fɔbali	-15248
▁jinatɔ	-15249
▁limité	-15250
▁makɔnɔ	-15251
▁ménage	-15252
▁pattes	-15253
▁songon	-15254
▁tendre	-15255
▁verres	-15256
▁yigiya	-15257
▁yiriwa	-15258
▁église	-15259
▁Ɲejira	-15260
▁ɲɛnajɛ	-15261
existent	-15262
économie	-15263
émission	-15264
▁Famille	-15265
▁Jehovah	-15266
▁Jéricho	-15267
▁Veillez	-15268
▁excuses	-15269
▁gbɛlɛya	-15270
▁italien	-15271
▁mamaden	-15272
▁montant	-15273
▁méprise	-15274
▁parlais	-15275
▁wololon	-15276
▁yelifɛn	-15277
videmment	-15278
▁Kurumari	-15279
▁Monsieur	-15280
▁arrivait	-15281
▁complète	-15282
▁coutumes	-15283
▁débarras	-15284
▁détresse	-15285
▁kalansen	-15286
▁occasion	-15287
▁ouvertes	-15288
▁piyɔniye	-15289
▁pouvions	-15290
▁solitude	-15291
▁souhaité	-15292
▁sɛbɛnnin	-15293
▁terminée	-15294
apparition	-15295
▁Gɔmɔrikaw	-15296
▁alentours	-15297
▁baptisant	-15298
▁bolokinin	-15299
▁détruites	-15300
▁fankannin	-15301
▁histoires	-15302
▁retournée	-15303
▁sanyɛlɛma	-15304
▁sumalenya	-15305
▁utilisées	-15306
▁Bangebagaw	-15307
▁Yinnɛkpoyi	-15308
▁baarakèlaw	-15309
▁fiɲɛntɔman	-15310
▁meilleures	-15311
▁originaire	-15312
▁supérieure	-15313
▁taamashyèn	-15314
▁populations	-15315
▁Résurrection	-15316
▁commencèrent	-15317
▁conversation	-15318
▁kɛrɛnkɛrɛnnin	-15319
Oh	-15320
ey	-15321
my	-15322
ẹẹ	-15323
-35	-15324
Fɛn	-15325
bèè	-15326
dow	-15327
fiw	-15328
fɔm	-15329
lâh	-15330
pet	-15331
ulu	-15332
èmè	-15333
▁TV	-15334
▁Tɛ	-15335
▁Zé	-15336
▁bm	-15337
▁mw	-15338
andi	-15339
arse	-15340
bɛka	-15341
dons	-15342
fils	-15343
kisu	-15344
kusi	-15345
lade	-15346
miez	-15347
pful	-15348
wanè	-15349
▁Bul	-15350
▁MIN	-15351
▁Mau	-15352
▁Mol	-15353
▁She	-15354
▁Soo	-15355
▁Yuu	-15356
▁bua	-15357
▁bɛr	-15358
▁fre	-15359
▁jwo	-15360
▁lẹẹ	-15361
▁mah	-15362
▁nar	-15363
▁ɔwɔ	-15364
...."	-15365
Abram	-15366
Aimez	-15367
alpha	-15368
empar	-15369
errer	-15370
geait	-15371
hypoc	-15372
mands	-15373
misme	-15374
onomi	-15375
rents	-15376
rette	-15377
ustus	-15378
▁2...	-15379
▁2008	-15380
▁Bref	-15381
▁Cara	-15382
▁Cogo	-15383
▁Jabi	-15384
▁Mart	-15385
▁Nugu	-15386
▁awlo	-15387
▁favo	-15388
▁fere	-15389
▁foot	-15390
▁fédé	-15391
▁girl	-15392
▁janf	-15393
▁kaau	-15394
▁kafu	-15395
▁kake	-15396
▁kyun	-15397
▁mail	-15398
▁modé	-15399
▁odio	-15400
▁titi	-15401
▁tonn	-15402
▁vole	-15403
▁wɔrɔ	-15404
▁yafe	-15405
▁Ɲɔrɔ	-15406
auriez	-15407
chodon	-15408
enture	-15409
envoyé	-15410
ignent	-15411
outant	-15412
étoile	-15413
▁13:49	-15414
▁Durée	-15415
▁Salon	-15416
▁Tamar	-15417
▁enfui	-15418
▁expos	-15419
▁facil	-15420
▁folie	-15421
▁kilin	-15422
▁kinda	-15423
▁liqui	-15424
▁nanya	-15425
▁nulle	-15426
▁pèler	-15427
▁russe	-15428
▁sanam	-15429
▁signé	-15430
anxiété	-15431
nafoniw	-15432
ortable	-15433
tention	-15434
émotion	-15435
▁Bakari	-15436
▁Kariba	-15437
▁PARENA	-15438
▁Zakari	-15439
▁aimera	-15440
▁aniaan	-15441
▁baaraw	-15442
▁couvre	-15443
▁datumo	-15444
▁fondée	-15445
▁fourni	-15446
▁gengen	-15447
▁kɛndɛn	-15448
▁lointa	-15449
▁montés	-15450
▁realii	-15451
▁retiré	-15452
▁somɔgɔ	-15453
▁walaka	-15454
kikikiki	-15455
matiques	-15456
ventions	-15457
▁Etiyopi	-15458
▁Helpful	-15459
▁History	-15460
▁Listing	-15461
▁bergers	-15462
▁djourou	-15463
▁donnons	-15464
▁fagalon	-15465
▁fèèrèbò	-15466
▁menteur	-15467
▁parlons	-15468
▁polisiw	-15469
▁remplie	-15470
▁remplir	-15471
▁réduire	-15472
▁sentais	-15473
▁suprême	-15474
▁talents	-15475
▁théâtre	-15476
▁wilinin	-15477
sociation	-15478
▁Chapitre	-15479
▁Kisibaga	-15480
▁artistes	-15481
▁danganin	-15482
▁festival	-15483
▁gerennen	-15484
▁généreux	-15485
▁intérêts	-15486
▁jatiminɛ	-15487
▁kalansow	-15488
▁kisibaya	-15489
▁lẹẹkansi	-15490
▁parabole	-15491
▁semblait	-15492
▁troubles	-15493
adversaire	-15494
approchent	-15495
chodonosor	-15496
entretenir	-15497
▁Elizabɛti	-15498
▁Masedwanè	-15499
▁bâtiments	-15500
▁bénéfices	-15501
▁datugulan	-15502
▁héritiers	-15503
▁jagokɛlaw	-15504
▁kodogonin	-15505
▁nimanfɛnw	-15506
▁principes	-15507
▁regardent	-15508
▁touristes	-15509
[...]
