{
  "<unk>": 0,
  "<s>": 1,
  "</s>": 2,
  "▁k": 3,
  "▁d": 4,
  "▁l": 5,
  "an": 6,
  "▁n": 7,
  "▁s": 8,
  "en": 9,
  "▁m": 10,
  "▁b": 11,
  "es": 12,
  "▁t": 13,
  "▁y": 14,
  "▁a": 15,
  "▁p": 16,
  "on": 17,
  "in": 18,
  "▁ka": 19,
  "ou": 20,
  "▁f": 21,
  "▁c": 22,
  "▁la": 23,
  "is": 24,
  "un": 25,
  "▁ye": 26,
  "▁de": 27,
  "re": 28,
  "ra": 29,
  "qu": 30,
  "il": 31,
  "it": 32,
  "▁qu": 33,
  "er": 34,
  "▁j": 35,
  "ar": 36,
  "ent": 37,
  "▁ko": 38,
  "eu": 39,
  "▁be": 40,
  "as": 41,
  "▁A": 42,
  "▁v": 43,
  "le": 44,
  "▁le": 45,
  "▁e": 46,
  "▁ma": 47,
  "la": 48,
  "est": 49,
  "ma": 50,
  "us": 51,
  "▁ne": 52,
  "ɔn": 53,
  "ous": 54,
  "▁w": 55,
  "our": 56,
  "ga": 57,
  "ti": 58,
  "om": 59,
  "▁ni": 60,
  "▁na": 61,
  "▁I": 62,
  "▁o": 63,
  "▁J": 64,
  "▁et": 65,
  "▁\"": 66,
  "el": 67,
  "▁L": 68,
  "▁sa": 69,
  "▁kɛ": 70,
  "▁se": 71,
  "▁min": 72,
  "▁à": 73,
  "▁pas": 74,
  "▁an": 75,
  "..": 76,
  "▁N": 77,
  "li": 78,
  "ɔg": 79,
  "▁M": 80,
  "ya": 81,
  "▁1": 82,
  "oi": 83,
  "or": 84,
  "ɛn": 85,
  "me": 86,
  "▁en": 87,
  "▁fa": 88,
  "▁i": 89,
  "▁C": 90,
  "▁un": 91,
  "ta": 92,
  "▁que": 93,
  "ɔgɔ": 94,
  "ɔr": 95,
  "ba": 96,
  "▁kan": 97,
  "ri": 98,
  "▁les": 99,
  "▁S": 100,
  "ant": 101,
  "▁D": 102,
  "aa": 103,
  "ɔrɔ": 104,
  "man": 105,
  "▁di": 106,
  "▁si": 107,
  "ont": 108,
  "▁h": 109,
  "▁ɲ": 110,
  "▁lo": 111,
  "▁du": 112,
  "te": 113,
  "gu": 114,
  "gi": 115,
  "▁su": 116,
  "ce": 117,
  "▁E": 118,
  "▁fɔ": 119,
  "▁r": 120,
  "▁2": 121,
  "ɛɛ": 122,
  "▁tun": 123,
  "ai": 124,
  "eur": 125,
  "▁ce": 126,
  "ui": 127,
  "▁g": 128,
  "▁é": 129,
  "▁ta": 130,
  "▁u": 131,
  "ve": 132,
  "ari": 133,
  "▁tu": 134,
  "▁aw": 135,
  "ment": 136,
  "ol": 137,
  "▁?": 138,
  "és": 139,
  "▁est": 140,
  "ans": 141,
  "▁au": 142,
  "▁Il": 143,
  "▁par": 144,
  "ons": 145,
  "▁vous": 146,
  "▁des": 147,
  "ana": 148,
  "au": 149,
  "onn": 150,
  "si": 151,
  "▁bɛɛ": 152,
  "▁qui": 153,
  "▁P": 154,
  "ro": 155,
  "▁O": 156,
  "▁il": 157,
  "ena": 158,
  "▁pour": 159,
  "▁Je": 160,
  "ch": 161,
  "tre": 162,
  "se": 163,
  ".\"": 164,
  "ka": 165,
  "▁K": 166,
  "de": 167,
  "ɛr": 168,
  "▁je": 169,
  "▁fɛ": 170,
  "▁Ala": 171,
  "▁ba": 172,
  "res": 173,
  "▁dans": 174,
  "▁Y": 175,
  "▁wa": 176,
  "ɛrɛ": 177,
  "go": 178,
  "na": 179,
  "▁mɔgɔ": 180,
  "▁te": 181,
  "va": 182,
  "▁com": 183,
  "▁T": 184,
  "▁to": 185,
  "▁bena": 186,
  "...": 187,
  "▁ch": 188,
  "▁yo": 189,
  "▁nin": 190,
  "ez": 191,
  "end": 192,
  "ieu": 193,
  "▁B": 194,
  "▁tou": 195,
  "▁pl": 196,
  "▁bi": 197,
  "▁3": 198,
  "am": 199,
  "ur": 200,
  "▁re": 201,
  "ge": 202,
  "ère": 203,
  "té": 204,
  "▁dɔ": 205,
  "▁kɔn": 206,
  "▁une": 207,
  "▁tɛ": 208,
  "ée": 209,
  "▁-": 210,
  "▁Ma": 211,
  "▁fil": 212,
  "gn": 213,
  "▁ani": 214,
  "▁ku": 215,
  "os": 216,
  "▁koo": 217,
  "▁plus": 218,
  "ris": 219,
  "da": 220,
  "mp": 221,
  "ran": 222,
  "▁dé": 223,
  "▁da": 224,
  "lu": 225,
  "▁man": 226,
  "olo": 227,
  "ko": 228,
  "ogo": 229,
  "ci": 230,
  "eux": 231,
  "pp": 232,
  "tion": 233,
  "▁F": 234,
  "elen": 235,
  "al": 236,
  "di": 237,
  "rè": 238,
  "▁Le": 239,
  "▁Ne": 240,
  "asa": 241,
  "▁nous": 242,
  "ers": 243,
  "▁Dieu": 244,
  "ir": 245,
  "▁ya": 246,
  "▁U": 247,
  "ili": 248,
  "tait": 249,
  "les": 250,
  "▁ja": 251,
  "▁4": 252,
  "▁ti": 253,
  "den": 254,
  "▁Q": 255,
  "▁lui": 256,
  "▁sont": 257,
  "▁kɔnɔ": 258,
  "▁taga": 259,
  "▁kelen": 260,
  "▁kɔ": 261,
  "yi": 262,
  "▁sur": 263,
  "▁mon": 264,
  "oo": 265,
  "tes": 266,
  "ie": 267,
  "elle": 268,
  "ire": 269,
  "ff": 270,
  "▁pr": 271,
  "et": 272,
  "▁ré": 273,
  "▁bɔ": 274,
  "que": 275,
  "▁La": 276,
  "mi": 277,
  "▁!": 278,
  "▁fait": 279,
  "int": 280,
  "▁ave": 281,
  "▁sɔrɔ": 282,
  "▁ha": 283,
  "▁dit": 284,
  "▁fana": 285,
  "lɛ": 286,
  "rit": 287,
  "lle": 288,
  "ut": 289,
  "▁san": 290,
  "tigi": 291,
  "ila": 292,
  "▁yɛrɛ": 293,
  "▁Qu": 294,
  "▁don": 295,
  "▁lɔn": 296,
  "ils": 297,
  "▁jour": 298,
  "ni": 299,
  "cɛ": 300,
  "uso": 301,
  "▁bari": 302,
  "ois": 303,
  "▁peu": 304,
  "ort": 305,
  "ouv": 306,
  "aw": 307,
  "▁mi": 308,
  "▁mais": 309,
  "oir": 310,
  "▁minw": 311,
  "fa": 312,
  "mes": 313,
  "▁V": 314,
  "bi": 315,
  "ins": 316,
  "ens": 317,
  "être": 318,
  "ɲɛ": 319,
  "omme": 320,
  "▁pro": 321,
  "▁son": 322,
  "▁tout": 323,
  "▁Les": 324,
  "▁avec": 325,
  "▁kun": 326,
  "tu": 327,
  "▁ai": 328,
  "ab": 329,
  "▁kos": 330,
  "▁ju": 331,
  "▁den": 332,
  "▁dis": 333,
  "▁cogo": 334,
  "▁Aw": 335,
  "em": 336,
  "ini": 337,
  "▁kuma": 338,
  "▁yi": 339,
  "ux": 340,
  "iti": 341,
  "▁suis": 342,
  "▁ki": 343,
  "▁Et": 344,
  "vait": 345,
  "▁5": 346,
  "rès": 347,
  "lan": 348,
  "▁ji": 349,
  "mɛ": 350,
  "ezu": 351,
  "ésus": 352,
  "ne": 353,
  "▁ra": 354,
  "ile": 355,
  "▁été": 356,
  "▁Jésus": 357,
  "jour": 358,
  "▁comme": 359,
  "lo": 360,
  "▁yen": 361,
  "ɔgɔn": 362,
  "ême": 363,
  "▁Se": 364,
  "▁An": 365,
  "eurs": 366,
  "kɛ": 367,
  "▁baa": 368,
  "rai": 369,
  "▁so": 370,
  "▁faire": 371,
  "▁dugu": 372,
  "ré": 373,
  "baga": 374,
  "anna": 375,
  "▁moi": 376,
  "uru": 377,
  "▁6": 378,
  "▁li": 379,
  "▁kɔrɔ": 380,
  "ors": 381,
  "▁tuma": 382,
  "onne": 383,
  "ille": 384,
  "ants": 385,
  "▁R": 386,
  "▁Z": 387,
  "tres": 388,
  "iss": 389,
  "▁me": 390,
  "▁av": 391,
  "isi": 392,
  "inin": 393,
  "ign": 394,
  "isa": 395,
  "une": 396,
  "rent": 397,
  "▁ci": 398,
  "▁Yezu": 399,
  "ac": 400,
  "ussi": 401,
  "▁baara": 402,
  "bɛ": 403,
  "▁Mais": 404,
  "at": 405,
  "▁Ce": 406,
  "denw": 407,
  "▁kɛra": 408,
  "▁tugu": 409,
  "▁tous": 410,
  "▁20": 411,
  "▁mun": 412,
  "vi": 413,
  "ble": 414,
  "▁ban": 415,
  "fi": 416,
  "▁con": 417,
  "bu": 418,
  "lɔ": 419,
  "ter": 420,
  "était": 421,
  "ité": 422,
  "▁bon": 423,
  "▁vi": 424,
  "▁kana": 425,
  "ɛlɛ": 426,
  "▁no": 427,
  "ine": 428,
  "▁ent": 429,
  "ite": 430,
  "▁G": 431,
  "uman": 432,
  "▁.": 433,
  "▁mo": 434,
  "▁10": 435,
  "du": 436,
  "▁ans": 437,
  "▁aussi": 438,
  "▁ale": 439,
  "▁H": 440,
  "ki": 441,
  "ani": 442,
  "▁8": 443,
  "mu": 444,
  "▁ca": 445,
  "▁ɲa": 446,
  "▁ou": 447,
  "▁yɔrɔ": 448,
  "▁bien": 449,
  "▁ri": 450,
  "▁kanu": 451,
  "▁al": 452,
  "▁ils": 453,
  "mana": 454,
  "▁ter": 455,
  "▁ont": 456,
  "▁enf": 457,
  "▁tr": 458,
  "▁in": 459,
  "lé": 460,
  "ance": 461,
  "che": 462,
  "▁mɛn": 463,
  "▁sara": 464,
  "▁cɛ": 465,
  "▁donn": 466,
  "▁leur": 467,
  "▁pa": 468,
  "▁wanna": 469,
  "▁était": 470,
  "▁Ni": 471,
  "▁7": 472,
  "ore": 473,
  "▁masa": 474,
  "éc": 475,
  "▁nom": 476,
  "▁fo": 477,
  "▁wo": 478,
  "Ne": 479,
  "▁sera": 480,
  "▁bo": 481,
  "▁être": 482,
  "▁kalan": 483,
  "▁olu": 484,
  "▁Si": 485,
  "▁tra": 486,
  "▁En": 487,
  "▁vo": 488,
  "uni": 489,
  "vez": 490,
  "oup": 491,
  "uis": 492,
  "▁app": 493,
  "▁9": 494,
  "bre": 495,
  "and": 496,
  "òn": 497,
  "▁Sa": 498,
  "▁muso": 499,
  "▁Ils": 500,
  "tte": 501,
  "▁monde": 502,
  "hui": 503,
  "▁Pour": 504,
  "jourd": 505,
  "▁19": 506,
  "▁dɛ": 507,
  "▁tɔ": 508,
  "▁même": 509,
  "▁kè": 510,
  "▁ses": 511,
  "app": 512,
  "▁gw": 513,
  "lima": 514,
  "▁ɲɔgɔn": 515,
  "to": 516,
  "kolo": 517,
  "▁peut": 518,
  "▁bè": 519,
  "ommes": 520,
  "ess": 521,
  "▁jama": 522,
  "yɛ": 523,
  "▁nga": 524,
  "▁comp": 525,
  "gɛ": 526,
  "▁pers": 527,
  "ru": 528,
  "▁nun": 529,
  "nin": 530,
  "▁jus": 531,
  "ugu": 532,
  "▁sira": 533,
  "▁fem": 534,
  "vous": 535,
  "uma": 536,
  "▁saba": 537,
  "▁ar": 538,
  "▁mɔgɔw": 539,
  "asi": 540,
  "ph": 541,
  "aient": 542,
  "?\"": 543,
  "▁ke": 544,
  "igneur": 545,
  "ji": 546,
  "▁aux": 547,
  "out": 548,
  "▁ten": 549,
  "yɔrɔ": 550,
  "endre": 551,
  "▁saan": 552,
  "▁wɛrɛ": 553,
  "av": 554,
  "▁avait": 555,
  "▁jaa": 556,
  "▁loon": 557,
  "esp": 558,
  "quoi": 559,
  "tions": 560,
  "▁mort": 561,
  "ɛna": 562,
  "▁fɔlɔ": 563,
  "▁Ch": 564,
  "▁ex": 565,
  "ill": 566,
  "▁Nous": 567,
  "▁Vous": 568,
  "▁taa": 569,
  "ais": 570,
  "▁ɲinin": 571,
  "▁tena": 572,
  "▁Bi": 573,
  "lement": 574,
  "usu": 575,
  "▁gran": 576,
  "wa": 577,
  "▁Es": 578,
  "ait": 579,
  "▁do": 580,
  "▁fan": 581,
  "▁vie": 582,
  "▁Elle": 583,
  "▁Seigneur": 584,
  "▁elle": 585,
  "▁barika": 586,
  "▁fɔɔ": 587,
  "▁rép": 588,
  "▁Mun": 589,
  "ariya": 590,
  "aaman": 591,
  "▁(": 592,
  "mé": 593,
  "elui": 594,
  ":1": 595,
  "▁enfants": 596,
  "mis": 597,
  "▁cons": 598,
  "▁cont": 599,
  "ul": 600,
  "▁tan": 601,
  "ina": 602,
  "▁cette": 603,
  "homme": 604,
  "▁tɔgɔ": 605,
  "ue": 606,
  "ord": 607,
  "▁cela": 608,
  "ex": 609,
  "▁deux": 610,
  "usa": 611,
  "rist": 612,
  "▁seu": 613,
  "▁fɛɛn": 614,
  "▁quel": 615,
  "▁jigi": 616,
  "▁env": 617,
  "▁caaman": 618,
  "▁18": 619,
  "ence": 620,
  "▁W": 621,
  "▁15": 622,
  "▁enc": 623,
  "▁tile": 624,
  "▁temp": 625,
  "kili": 626,
  "▁lab": 627,
  "ées": 628,
  "▁dev": 629,
  "kan": 630,
  "▁as": 631,
  "▁kama": 632,
  "▁for": 633,
  "près": 634,
  "▁Mɔgɔ": 635,
  "▁Ya": 636,
  "▁Tu": 637,
  "▁Kris": 638,
  "ɔrɔn": 639,
  "eure": 640,
  "fɛ": 641,
  "▁12": 642,
  "ɔbɛ": 643,
  "ond": 644,
  "▁11": 645,
  "be": 646,
  "ara": 647,
  "▁tro": 648,
  "▁ga": 649,
  "▁fils": 650,
  "éta": 651,
  "▁Matigi": 652,
  "pe": 653,
  "isan": 654,
  "▁13": 655,
  "ard": 656,
  "▁ben": 657,
  "▁encore": 658,
  "▁daa": 659,
  "▁sigi": 660,
  "▁nu": 661,
  "cc": 662,
  "▁ser": 663,
  "▁nunu": 664,
  "oire": 665,
  "muso": 666,
  "ient": 667,
  "▁Nka": 668,
  "ouve": 669,
  "▁fila": 670,
  "▁kosɔn": 671,
  "vais": 672,
  "sra": 673,
  "endant": 674,
  "anin": 675,
  "vre": 676,
  "yɛli": 677,
  "ye": 678,
  "ges": 679,
  "aime": 680,
  "ces": 681,
  "ho": 682,
  "ger": 683,
  "▁deen": 684,
  "ose": 685,
  "▁car": 686,
  "Aw": 687,
  "▁aujourd": 688,
  "mɛn": 689,
  "òg": 690,
  "▁femme": 691,
  "▁Masa": 692,
  "ép": 693,
  "ts": 694,
  "▁très": 695,
  "▁we": 696,
  "▁yira": 697,
  "▁lon": 698,
  "érit": 699,
  "▁conn": 700,
  "▁14": 701,
  "sira": 702,
  "▁dɔw": 703,
  "▁kala": 704,
  "▁ceux": 705,
  "iri": 706,
  "▁tɛmɛ": 707,
  "▁Al": 708,
  "itu": 709,
  "▁17": 710,
  "▁siran": 711,
  "▁jamana": 712,
  "fu": 713,
  "ɔni": 714,
  "esu": 715,
  "▁jours": 716,
  "jugu": 717,
  "ku": 718,
  "00": 719,
  "ow": 720,
  "▁homme": 721,
  "ques": 722,
  "êtes": 723,
  "▁po": 724,
  "▁waa": 725,
  "ation": 726,
  "rait": 727,
  "▁Ka": 728,
  "▁pos": 729,
  "▁tigi": 730,
  "zi": 731,
  "én": 732,
  "ise": 733,
  "▁On": 734,
  "née": 735,
  "▁yan": 736,
  "▁père": 737,
  "ys": 738,
  "ël": 739,
  "▁rien": 740,
  "▁faga": 741,
  "▁foyi": 742,
  "▁fò": 743,
  "▁pu": 744,
  "▁filɛ": 745,
  "entre": 746,
  "▁pla": 747,
  "ion": 748,
  "▁fe": 749,
  "▁déc": 750,
  "▁temps": 751,
  "dé": 752,
  "▁jaabi": 753,
  "▁bolo": 754,
  "inɛ": 755,
  "▁toi": 756,
  "▁dire": 757,
  "èn": 758,
  "ieux": 759,
  "▁sɔn": 760,
  "▁vrai": 761,
  "uda": 762,
  "▁éc": 763,
  "▁Est": 764,
  "▁_": 765,
  "auc": 766,
  "▁celui": 767,
  "oy": 768,
  "tant": 769,
  "▁donc": 770,
  "▁nka": 771,
  "tern": 772,
  "▁ɲininga": 773,
  "▁mara": 774,
  "▁16": 775,
  "▁jan": 776,
  "▁grand": 777,
  "▁kosɔbɛ": 778,
  "ole": 779,
  "▁De": 780,
  "▁peur": 781,
  "ɔɔ": 782,
  "ler": 783,
  "▁on": 784,
  "bagaw": 785,
  "enir": 786,
  "òr": 787,
  "vent": 788,
  "▁soo": 789,
  "▁deman": 790,
  "▁ces": 791,
  "ème": 792,
  "▁waga": 793,
  "▁sou": 794,
  "enu": 795,
  "ça": 796,
  "kun": 797,
  "èrent": 798,
  "dama": 799,
  "erre": 800,
  "▁maison": 801,
  "so": 802,
  "▁jusqu": 803,
  "ja": 804,
  "▁dam": 805,
  "▁pass": 806,
  "ɲa": 807,
  "▁minɛ": 808,
  "▁bu": 809,
  "▁pri": 810,
  "fe": 811,
  "▁dusu": 812,
  "ction": 813,
  "yara": 814,
  "▁dan": 815,
  ":2": 816,
  "sraël": 817,
  "▁es": 818,
  "ita": 819,
  "sirayɛli": 820,
  "▁eu": 821,
  "▁per": 822,
  "▁fois": 823,
  "▁éta": 824,
  "rô": 825,
  "▁où": 826,
  "tɔ": 827,
  "acc": 828,
  "▁bila": 829,
  "gne": 830,
  "vé": 831,
  "tt": 832,
  "▁Yesu": 833,
  "muni": 834,
  "▁Jé": 835,
  "use": 836,
  "▁êtes": 837,
  "▁parti": 838,
  "▁diɲɛ": 839,
  "▁bɛ": 840,
  "▁rest": 841,
  "▁22": 842,
  "aucoup": 843,
  "▁fi": 844,
  "bra": 845,
  "▁mu": 846,
  "▁autres": 847,
  "▁kɛlɛ": 848,
  "▁Un": 849,
  "ɔgɔw": 850,
  "oya": 851,
  "elles": 852,
  "▁Krista": 853,
  "▁jo": 854,
  "▁Com": 855,
  "▁24": 856,
  "ments": 857,
  "éri": 858,
  "hi": 859,
  "jours": 860,
  "▁eux": 861,
  "▁fara": 862,
  "autres": 863,
  "fin": 864,
  "▁Par": 865,
  "▁non": 866,
  "▁soit": 867,
  "▁masacɛ": 868,
  "ad": 869,
  "▁bɔra": 870,
  "bali": 871,
  "wu": 872,
  "....": 873,
  "▁terre": 874,
  "eli": 875,
  "▁nan": 876,
  "ête": 877,
  "▁Au": 878,
  "insi": 879,
  "òrò": 880,
  "▁sɛ": 881,
  "▁toujours": 882,
  "mer": 883,
  "▁sommes": 884,
  "▁sisan": 885,
  "▁see": 886,
  "▁Den": 887,
  "ob": 888,
  "ag": 889,
  "orte": 890,
  "▁Isirayɛli": 891,
  "▁lɔ": 892,
  "▁21": 893,
  "▁hakili": 894,
  "ense": 895,
  "▁dɛmɛ": 896,
  "▁là": 897,
  "ver": 898,
  "▁miiri": 899,
  "▁ça": 900,
  "tin": 901,
  "▁roi": 902,
  "▁'": 903,
  "▁nana": 904,
  "lon": 905,
  "mb": 906,
  "▁Christ": 907,
  "ze": 908,
  "▁ret": 909,
  "ògò": 910,
  "▁cɛɛ": 911,
  "▁eff": 912,
  "▁ville": 913,
  "▁[": 914,
  "érité": 915,
  "oro": 916,
  "▁Fils": 917,
  "omp": 918,
  "isɔn": 919,
  "▁pris": 920,
  "▁pre": 921,
  "je": 922,
  "autre": 923,
  "▁kuntigi": 924,
  "▁arri": 925,
  "cip": 926,
  "▁Père": 927,
  "▁ɲi": 928,
  "gw": 929,
  "ist": 930,
  "rais": 931,
  "▁jamais": 932,
  "ôrô": 933,
  "▁vou": 934,
  "▁Masaba": 935,
  "▁beaucoup": 936,
  "▁Nga": 937,
  "▁...": 938,
  "▁toute": 939,
  "▁23": 940,
  "emp": 941,
  "▁kab": 942,
  "olon": 943,
  "▁trois": 944,
  "▁personn": 945,
  "len": 946,
  "ents": 947,
  "▁ɲini": 948,
  "éch": 949,
  "fɛn": 950,
  "▁jugu": 951,
  "▁sin": 952,
  "eau": 953,
  "ke": 954,
  "aire": 955,
  "▁sariya": 956,
  "diya": 957,
  "▁gu": 958,
  "▁tagara": 959,
  "▁25": 960,
  "▁sais": 961,
  "▁wagati": 962,
  "▁z": 963,
  "mo": 964,
  "▁À": 965,
  "enant": 966,
  "▁pourquoi": 967,
  "▁trava": 968,
  "▁lan": 969,
  "▁x": 970,
  "bli": 971,
  "gan": 972,
  "▁,": 973,
  "min": 974,
  "isse": 975,
  "uli": 976,
  "bar": 977,
  "▁ɲɛ": 978,
  "ct": 979,
  "oute": 980,
  "▁dumuni": 981,
  "▁balima": 982,
  "▁nisɔn": 983,
  "uw": 984,
  "▁kɔni": 985,
  "èrè": 986,
  "▁yɛlɛ": 987,
  "pt": 988,
  "▁kisi": 989,
  "▁seul": 990,
  "lè": 991,
  "▁va": 992,
  "▁fin": 993,
  "vit": 994,
  "▁cɛma": 995,
  "age": 996,
  "ante": 997,
  "▁taama": 998,
  "▁leurs": 999,
  "▁veux": 1000,
  "yez": 1001,
  "étais": 1002,
  "nu": 1003,
  "▁parce": 1004,
  "its": 1005,
  "ras": 1006,
  "fs": 1007,
  "même": 1008,
  "▁ɲana": 1009,
  "ass": 1010,
  "▁hommes": 1011,
  "▁vérité": 1012,
  "▁fam": 1013,
  "der": 1014,
  "▁faut": 1015,
  "▁comm": 1016,
  "Israël": 1017,
  "▁mère": 1018,
  "▁pays": 1019,
  "oin": 1020,
  "▁mis": 1021,
  "▁ton": 1022,
  "ouver": 1023,
  "ouveau": 1024,
  "kɔrɔ": 1025,
  "▁sɔ": 1026,
  "oses": 1027,
  "▁diff": 1028,
  "▁cro": 1029,
  "▁walima": 1030,
  "▁pe": 1031,
  "▁Car": 1032,
  "ume": 1033,
  "▁nouveau": 1034,
  "▁dugukolo": 1035,
  "▁Une": 1036,
  "▁entre": 1037,
  "▁notre": 1038,
  "▁Oui": 1039,
  "anw": 1040,
  "▁Yala": 1041,
  "▁peux": 1042,
  "▁sau": 1043,
  "▁kaba": 1044,
  "avais": 1045,
  "▁wele": 1046,
  "▁choses": 1047,
  "▁rep": 1048,
  "▁alors": 1049,
  "▁til": 1050,
  "▁Comment": 1051,
  "là": 1052,
  "▁jɛn": 1053,
  "!\"": 1054,
  "▁prés": 1055,
  "pi": 1056,
  "▁Na": 1057,
  "cher": 1058,
  "▁premi": 1059,
  "▁personne": 1060,
  "enc": 1061,
  "▁masaya": 1062,
  "aut": 1063,
  "▁quoi": 1064,
  "▁mar": 1065,
  "▁yé": 1066,
  "▁bes": 1067,
  "▁yafa": 1068,
  "amu": 1069,
  "gé": 1070,
  "rez": 1071,
  "▁Ti": 1072,
  "œur": 1073,
  "▁nombre": 1074,
  "▁mari": 1075,
  "▁toutes": 1076,
  "cti": 1077,
  "▁donné": 1078,
  "▁conna": 1079,
  "▁mes": 1080,
  "▁too": 1081,
  "ing": 1082,
  "endu": 1083,
  "▁fut": 1084,
  "▁sun": 1085,
  "ori": 1086,
  "▁dou": 1087,
  "▁waati": 1088,
  "eru": 1089,
  "aux": 1090,
  "avez": 1091,
  "▁pet": 1092,
  "gue": 1093,
  "▁afin": 1094,
  "▁fisa": 1095,
  "▁peup": 1096,
  "oyaume": 1097,
  "yp": 1098,
  "▁part": 1099,
  "▁Tout": 1100,
  "hova": 1101,
  "▁dés": 1102,
  "▁tɔɔrɔ": 1103,
  "▁sankolo": 1104,
  "ôt": 1105,
  "▁Ayi": 1106,
  "▁acc": 1107,
  "▁étaient": 1108,
  "▁wi": 1109,
  "ca": 1110,
  "▁votre": 1111,
  "▁Pourquoi": 1112,
  "gent": 1113,
  "olu": 1114,
  "▁personnes": 1115,
  "rères": 1116,
  "▁201": 1117,
  "oie": 1118,
  "▁gens": 1119,
  "▁vu": 1120,
  "▁sour": 1121,
  "▁vraiment": 1122,
  "▁vers": 1123,
  "▁dɔɔni": 1124,
  "▁fu": 1125,
  "An": 1126,
  "▁bii": 1127,
  "▁saraka": 1128,
  "▁jɔn": 1129,
  "erta": 1130,
  "rer": 1131,
  "gun": 1132,
  "th": 1133,
  "▁quest": 1134,
  "ase": 1135,
  "▁tè": 1136,
  "intenant": 1137,
  "▁mois": 1138,
  "▁Qui": 1139,
  "ɛmu": 1140,
  "ɲuman": 1141,
  "▁Alors": 1142,
  "▁ainsi": 1143,
  "▁26": 1144,
  "bat": 1145,
  "prit": 1146,
  "▁ny": 1147,
  "▁dencɛ": 1148,
  "▁té": 1149,
  "sion": 1150,
  "laki": 1151,
  "▁mé": 1152,
  "▁cas": 1153,
  "▁kojugu": 1154,
  "jet": 1155,
  "lait": 1156,
  "▁Dans": 1157,
  "ali": 1158,
  "ɲɛn": 1159,
  "gô": 1160,
  "ban": 1161,
  "nɛ": 1162,
  "▁bonne": 1163,
  "▁wal": 1164,
  "▁dè": 1165,
  "▁Faa": 1166,
  "▁yɛ": 1167,
  "puis": 1168,
  "▁simp": 1169,
  "Es": 1170,
  "iste": 1171,
  "▁nisɔndiya": 1172,
  "lles": 1173,
  "▁teri": 1174,
  "▁contre": 1175,
  "▁daminɛ": 1176,
  "▁dun": 1177,
  "lem": 1178,
  "▁kaan": 1179,
  "inw": 1180,
  "▁avoir": 1181,
  "enn": 1182,
  "avait": 1183,
  "▁fr": 1184,
  "ternel": 1185,
  "▁avons": 1186,
  "▁28": 1187,
  "▁wolo": 1188,
  "▁besoin": 1189,
  "▁sig": 1190,
  "▁prop": 1191,
  "enf": 1192,
  "ître": 1193,
  "▁chose": 1194,
  "▁co": 1195,
  "sa": 1196,
  "▁janko": 1197,
  "usalem": 1198,
  "▁lu": 1199,
  "▁frères": 1200,
  "ona": 1201,
  "▁bato": 1202,
  "bɛn": 1203,
  "inter": 1204,
  "ines": 1205,
  "▁sans": 1206,
  "cile": 1207,
  "▁gr": 1208,
  "gwɛ": 1209,
  "▁point": 1210,
  "▁laj": 1211,
  "KA": 1212,
  "gaw": 1213,
  "ères": 1214,
  "▁hali": 1215,
  "▁fɔra": 1216,
  "▁moins": 1217,
  "▁éga": 1218,
  "▁kalo": 1219,
  "▁avez": 1220,
  "▁Da": 1221,
  "▁cré": 1222,
  "▁adama": 1223,
  "▁pi": 1224,
  "▁tiɲɛ": 1225,
  "kè": 1226,
  "▁am": 1227,
  "▁imp": 1228,
  "▁dama": 1229,
  "▁Dencɛ": 1230,
  "▁lors": 1231,
  "▁walisa": 1232,
  "nan": 1233,
  "▁pou": 1234,
  "▁rés": 1235,
  "rusalem": 1236,
  "▁nɔgɔ": 1237,
  "ama": 1238,
  "▁Jérusalem": 1239,
  "▁bara": 1240,
  "▁Que": 1241,
  "kɛla": 1242,
  "▁labɛn": 1243,
  "issance": 1244,
  "▁peuple": 1245,
  "fɔ": 1246,
  "▁mil": 1247,
  "Mɔgɔ": 1248,
  "▁Mo": 1249,
  "▁siya": 1250,
  "kari": 1251,
  "vers": 1252,
  "▁répond": 1253,
  "awuda": 1254,
  "▁cor": 1255,
  "▁fè": 1256,
  "▁che": 1257,
  "rance": 1258,
  "▁journée": 1259,
  "▁sav": 1260,
  "▁dɔrɔn": 1261,
  "zal": 1262,
  "do": 1263,
  "ôgô": 1264,
  "▁puis": 1265,
  "▁far": 1266,
  "enne": 1267,
  "pa": 1268,
  "ôn": 1269,
  "ɔgɔma": 1270,
  "su": 1271,
  "▁gwɛlɛ": 1272,
  "vid": 1273,
  "▁ab": 1274,
  "▁autre": 1275,
  "gɔ": 1276,
  "eruzal": 1277,
  "mɔgɔw": 1278,
  "eruzalɛmu": 1279,
  "ente": 1280,
  "▁É": 1281,
  "enuman": 1282,
  "▁furu": 1283,
  "▁pouv": 1284,
  "eut": 1285,
  "▁bɔn": 1286,
  "▁kalandenw": 1287,
  "▁ele": 1288,
  "▁pendant": 1289,
  "▁auc": 1290,
  "▁cha": 1291,
  "jan": 1292,
  "▁Zeruzalɛmu": 1293,
  "▁mont": 1294,
  "▁comment": 1295,
  "for": 1296,
  "oni": 1297,
  "ha": 1298,
  "▁nafa": 1299,
  "▁matin": 1300,
  "▁travail": 1301,
  "▁bé": 1302,
  "▁cour": 1303,
  "▁wɛrɛw": 1304,
  "onc": 1305,
  "ɲɔgɔn": 1306,
  "ang": 1307,
  "▁oui": 1308,
  "▁envoy": 1309,
  "▁fais": 1310,
  "▁également": 1311,
  "▁quand": 1312,
  "moi": 1313,
  "bɔ": 1314,
  "▁mògò": 1315,
  "▁seen": 1316,
  "illes": 1317,
  "▁fari": 1318,
  "▁kɛnɛ": 1319,
  "za": 1320,
  "▁boɲa": 1321,
  "▁retour": 1322,
  "ɛɛn": 1323,
  "enti": 1324,
  "▁nouv": 1325,
  "▁tora": 1326,
  "▁nii": 1327,
  "imp": 1328,
  "ula": 1329,
  "amour": 1330,
  "▁parole": 1331,
  "▁chez": 1332,
  "▁rec": 1333,
  "kɔ": 1334,
  "Nga": 1335,
  "til": 1336,
  "▁aime": 1337,
  "▁saga": 1338,
  "▁sui": 1339,
  "▁faamu": 1340,
  "▁Nii": 1341,
  "▁donne": 1342,
  "ture": 1343,
  ":3": 1344,
  "able": 1345,
  "▁30": 1346,
  "▁jumɛn": 1347,
  "▁depuis": 1348,
  "▁déb": 1349,
  "▁wari": 1350,
  "▁après": 1351,
  "▁Bari": 1352,
  "▁.\"": 1353,
  "▁dɔgɔ": 1354,
  "▁Ɔ": 1355,
  "▁met": 1356,
  "▁dafa": 1357,
  "cha": 1358,
  "ere": 1359,
  "els": 1360,
  "vant": 1361,
  "▁discip": 1362,
  "▁No": 1363,
  "rɛ": 1364,
  "▁dom": 1365,
  "▁ɲaa": 1366,
  "▁Bible": 1367,
  "Esprit": 1368,
  "▁heure": 1369,
  "▁Isirayɛlidenw": 1370,
  "eures": 1371,
  "▁27": 1372,
  "ck": 1373,
  "att": 1374,
  "!!": 1375,
  "ɛnɛ": 1376,
  "des": 1377,
  "aix": 1378,
  "▁Dawuda": 1379,
  "cogo": 1380,
  "▁Mon": 1381,
  "▁mana": 1382,
  "▁ciel": 1383,
  "▁att": 1384,
  "baru": 1385,
  "bili": 1386,
  "▁laban": 1387,
  "▁say": 1388,
  "▁tugun": 1389,
  "▁mal": 1390,
  "▁prê": 1391,
  "itigi": 1392,
  "▁Cela": 1393,
  "gyp": 1394,
  "▁foi": 1395,
  "▁kaso": 1396,
  "piti": 1397,
  "▁kabako": 1398,
  "▁vais": 1399,
  "▁passé": 1400,
  "▁péch": 1401,
  "▁‹": 1402,
  "bo": 1403,
  "abu": 1404,
  "▁dép": 1405,
  "▁voir": 1406,
  "▁Min": 1407,
  "▁loi": 1408,
  "▁diyara": 1409,
  "▁mako": 1410,
  "ét": 1411,
  "▁Ɲ": 1412,
  "▁ɲuman": 1413,
  "rendre": 1414,
  "▁Ezi": 1415,
  "▁dòn": 1416,
  "▁or": 1417,
  "Ch": 1418,
  "yo": 1419,
  "▁koow": 1420,
  "▁simple": 1421,
  "▁confi": 1422,
  "misɛn": 1423,
  "emin": 1424,
  "▁saa": 1425,
  "ure": 1426,
  "id": 1427,
  "▁saya": 1428,
  "▁maintenant": 1429,
  "▁kow": 1430,
  "maya": 1431,
  "▁bèè": 1432,
  ".'": 1433,
  "▁segi": 1434,
  "baw": 1435,
  "Ni": 1436,
  "éra": 1437,
  "▁cr": 1438,
  "▁Musa": 1439,
  "▁enfant": 1440,
  "ront": 1441,
  "▁bana": 1442,
  "▁David": 1443,
  "▁gl": 1444,
  "ellement": 1445,
  "ps": 1446,
  "▁effet": 1447,
  "qui": 1448,
  "▁pens": 1449,
  "▁bar": 1450,
  "Christ": 1451,
  "▁gar": 1452,
  "▁sɔgɔma": 1453,
  "▁daali": 1454,
  "kil": 1455,
  "▁donna": 1456,
  "▁juman": 1457,
  "▁Ezipiti": 1458,
  "oient": 1459,
  "▁ense": 1460,
  "avoir": 1461,
  "▁ann": 1462,
  "sible": 1463,
  "▁sii": 1464,
  "▁kabini": 1465,
  "ilu": 1466,
  "oix": 1467,
  "▁frère": 1468,
  "yé": 1469,
  "▁Mi": 1470,
  "▁paix": 1471,
  "agit": 1472,
  "▁doit": 1473,
  "ète": 1474,
  "kaw": 1475,
  "▁quelqu": 1476,
  "▁suu": 1477,
  "▁nuit": 1478,
  "Yezu": 1479,
  "▁début": 1480,
  "▁lad": 1481,
  "arri": 1482,
  "ît": 1483,
  "▁29": 1484,
  "dre": 1485,
  "▁sababu": 1486,
  "ud": 1487,
  "▁lajɛn": 1488,
  "▁sor": 1489,
  "▁sé": 1490,
  "▁appel": 1491,
  "mble": 1492,
  "▁uns": 1493,
  "▁ob": 1494,
  "argent": 1495,
  "dez": 1496,
  "vres": 1497,
  "▁kunun": 1498,
  "ale": 1499,
  "▁répons": 1500,
  "▁40": 1501,
  "oso": 1502,
  "▁proph": 1503,
  "▁Senuman": 1504,
  "▁denmuso": 1505,
  "▁famille": 1506,
  "▁royaume": 1507,
  ".›": 1508,
  "▁Ale": 1509,
  "tru": 1510,
  "ham": 1511,
  "folo": 1512,
  "▁kon": 1513,
  "▁â": 1514,
  "▁disciples": 1515,
  "▁livre": 1516,
  "tement": 1517,
  "▁diman": 1518,
  "ɛlɛkɛ": 1519,
  "▁ép": 1520,
  "▁envoyé": 1521,
  "rés": 1522,
  "lase": 1523,
  "▁fit": 1524,
  "▁fili": 1525,
  "art": 1526,
  "gypte": 1527,
  "▁avant": 1528,
  "illeurs": 1529,
  "bres": 1530,
  "▁mas": 1531,
  "▁denw": 1532,
  "▁deenw": 1533,
  "▁esp": 1534,
  "▁écrit": 1535,
  "▁diya": 1536,
  "ves": 1537,
  "▁0": 1538,
  "▁cher": 1539,
  "ïse": 1540,
  "▁coup": 1541,
  "▁mani": 1542,
  "▁diffé": 1543,
  "▁lagaw": 1544,
  "▁kɔse": 1545,
  "mage": 1546,
  "oles": 1547,
  "▁fille": 1548,
  "▁Moïse": 1549,
  "gou": 1550,
  "▁fanga": 1551,
  "▁ad": 1552,
  "▁souff": 1553,
  "▁grande": 1554,
  "jà": 1555,
  "▁sabu": 1556,
  "▁Pi": 1557,
  "▁rev": 1558,
  "gar": 1559,
  "▁mala": 1560,
  "▁certa": 1561,
  "▁ac": 1562,
  "▁der": 1563,
  "bolo": 1564,
  ",\"": 1565,
  "▁Ko": 1566,
  "▁kɛmɛ": 1567,
  "▁question": 1568,
  "tr": 1569,
  "pendant": 1570,
  "he": 1571,
  "cle": 1572,
  "▁facile": 1573,
  "▁pré": 1574,
  "ends": 1575,
  "▁Moi": 1576,
  "▁chemin": 1577,
  "▁facɛ": 1578,
  "▁devant": 1579,
  "cer": 1580,
  "▁jii": 1581,
  "ition": 1582,
  "▁cause": 1583,
  "gl": 1584,
  "lah": 1585,
  "▁long": 1586,
  "çon": 1587,
  "Masa": 1588,
  "▁bata": 1589,
  "▁peuvent": 1590,
  "▁Des": 1591,
  "▁femmes": 1592,
  "▁31": 1593,
  "▁cɛn": 1594,
  "gard": 1595,
  "Ala": 1596,
  "dement": 1597,
  "▁savez": 1598,
  "▁mour": 1599,
  "ɛbɛ": 1600,
  "enez": 1601,
  "▁cou": 1602,
  "▁lam": 1603,
  "hu": 1604,
  "ser": 1605,
  "tigɛ": 1606,
  "▁kara": 1607,
  "ites": 1608,
  "▁Ba": 1609,
  "▁déjà": 1610,
  "▁heures": 1611,
  "AN": 1612,
  "▁nos": 1613,
  "▁tigɛ": 1614,
  "exc": 1615,
  "▁ɲɛna": 1616,
  "▁confiance": 1617,
  "Il": 1618,
  "ɔɔrɔ": 1619,
  "▁bou": 1620,
  "▁mer": 1621,
  "▁dro": 1622,
  "hun": 1623,
  "▁tɔɔ": 1624,
  "▁joona": 1625,
  "im": 1626,
  "per": 1627,
  "▁kira": 1628,
  "▁morts": 1629,
  "▁hɛrɛ": 1630,
  "asse": 1631,
  "ions": 1632,
  "oici": 1633,
  "▁aba": 1634,
  "▁venu": 1635,
  "▁lieu": 1636,
  "▁entendu": 1637,
  "▁ins": 1638,
  "▁trouv": 1639,
  "bulu": 1640,
  "▁makari": 1641,
  "iser": 1642,
  "▁cœur": 1643,
  "▁kuun": 1644,
  "ché": 1645,
  "aul": 1646,
  "ennin": 1647,
  "ay": 1648,
  "▁Ki": 1649,
  "▁sago": 1650,
  "▁yèrè": 1651,
  "▁faan": 1652,
  "▁manger": 1653,
  "gni": 1654,
  "▁ŋ": 1655,
  "▁tom": 1656,
  "▁33": 1657,
  "▁ɲiningali": 1658,
  "▁Fa": 1659,
  "▁MA": 1660,
  "▁kibaru": 1661,
  "▁présent": 1662,
  "▁dɔn": 1663,
  "▁souv": 1664,
  "▁auprès": 1665,
  "▁parler": 1666,
  "jou": 1667,
  "▁kulu": 1668,
  "▁Jehova": 1669,
  "▁Quand": 1670,
  "ieurs": 1671,
  "cé": 1672,
  "▁kasi": 1673,
  "▁soir": 1674,
  "▁wili": 1675,
  "▁hakɛ": 1676,
  ".†": 1677,
  "▁cin": 1678,
  "gin": 1679,
  "▁vient": 1680,
  "ee": 1681,
  "mɔgɔ": 1682,
  "▁Bibulu": 1683,
  "▁sec": 1684,
  "08": 1685,
  "braham": 1686,
  "▁38": 1687,
  "▁mom": 1688,
  "lent": 1689,
  "▁col": 1690,
  "▁cieux": 1691,
  "ɔɔn": 1692,
  "exp": 1693,
  "Je": 1694,
  "ches": 1695,
  "▁ph": 1696,
  "▁yaa": 1697,
  "▁minkɛ": 1698,
  "▁Krisita": 1699,
  "iya": 1700,
  "▁Aujourd": 1701,
  "▁seulement": 1702,
  "ON": 1703,
  "▁premier": 1704,
  "▁Kana": 1705,
  "▁kɔsegi": 1706,
  "ds": 1707,
  "▁wala": 1708,
  "rê": 1709,
  "▁pense": 1710,
  "▁Dɔ": 1711,
  "▁wolon": 1712,
  "▁nouvelle": 1713,
  "▁tour": 1714,
  "▁aga": 1715,
  "▁*": 1716,
  "▁derni": 1717,
  "▁parle": 1718,
  "▁vol": 1719,
  "bles": 1720,
  "▁wasa": 1721,
  "▁ver": 1722,
  "▁balimaw": 1723,
  "ùn": 1724,
  "KAW": 1725,
  "▁teli": 1726,
  "▁Ar": 1727,
  "urun": 1728,
  "▁comman": 1729,
  "▁sous": 1730,
  "▁32": 1731,
  "▁love": 1732,
  "ilan": 1733,
  "▁dont": 1734,
  "▁heureux": 1735,
  "▁hai": 1736,
  "pé": 1737,
  "▁corps": 1738,
  "▁kɔmɔgɔw": 1739,
  "▁Saint": 1740,
  "uifs": 1741,
  "▁Jean": 1742,
  "▁denmisɛn": 1743,
  "▁disp": 1744,
  "aires": 1745,
  "atre": 1746,
  "▁nafolo": 1747,
  "▁ah": 1748,
  "▁kanuya": 1749,
  "▁34": 1750,
  "ògòn": 1751,
  "irent": 1752,
  "urent": 1753,
  "▁place": 1754,
  "igne": 1755,
  "▁kelenpe": 1756,
  "ann": 1757,
  "avons": 1758,
  "ention": 1759,
  "▁mɛnni": 1760,
  "▁sujet": 1761,
  "▁avaient": 1762,
  "000": 1763,
  "ette": 1764,
  "▁hakil": 1765,
  "▁réponse": 1766,
  "▁del": 1767,
  "▁huma": 1768,
  "gɛn": 1769,
  "▁bɛn": 1770,
  "▁reç": 1771,
  "sé": 1772,
  "▁grâ": 1773,
  "appelle": 1774,
  "▁tch": 1775,
  "▁dja": 1776,
  "cu": 1777,
  "▁main": 1778,
  "▁Mari": 1779,
  "▁gb": 1780,
  "oman": 1781,
  "▁lara": 1782,
  "▁Non": 1783,
  "env": 1784,
  "gui": 1785,
  "▁juru": 1786,
  "xi": 1787,
  "▁Re": 1788,
  "▁gn": 1789,
  "▁Celui": 1790,
  "▁jeune": 1791,
  "ɲè": 1792,
  "▁Can": 1793,
  "cri": 1794,
  "cation": 1795,
  "▁aff": 1796,
  "▁anw": 1797,
  "▁dois": 1798,
  "▁Ha": 1799,
  "elon": 1800,
  "▁fani": 1801,
  "ong": 1802,
  "▁hab": 1803,
  "▁monta": 1804,
  "▁fɛn": 1805,
  "▁kam": 1806,
  "▁kɛɲɛ": 1807,
  "mière": 1808,
  "TI": 1809,
  "▁ago": 1810,
  "▁abada": 1811,
  "AL": 1812,
  "▁trouve": 1813,
  "▁mɛlɛkɛ": 1814,
  "▁mɔ": 1815,
  "▁tiɲɛn": 1816,
  "▁50": 1817,
  "bé": 1818,
  "ès": 1819,
  "Al": 1820,
  "▁rend": 1821,
  "▁kp": 1822,
  "mɔ": 1823,
  "▁tɔw": 1824,
  "▁lé": 1825,
  "▁Puis": 1826,
  "lie": 1827,
  "▁Ibra": 1828,
  "uwi": 1829,
  "▁Alabat": 1830,
  "DC": 1831,
  "▁gloire": 1832,
  "▁sy": 1833,
  "▁cap": 1834,
  "▁prof": 1835,
  "co": 1836,
  "▁quelques": 1837,
  "ennent": 1838,
  "▁komi": 1839,
  "niya": 1840,
  "yima": 1841,
  "▁servit": 1842,
  "▁sɛbɛ": 1843,
  "cep": 1844,
  "▁donner": 1845,
  "▁AK": 1846,
  "▁jija": 1847,
  "▁deli": 1848,
  "accomp": 1849,
  "▁go": 1850,
  "▁waasa": 1851,
  "▁plusieurs": 1852,
  "▁dô": 1853,
  "▁possible": 1854,
  "▁Or": 1855,
  "▁quelque": 1856,
  "▁Comme": 1857,
  "kin": 1858,
  "ités": 1859,
  "emple": 1860,
  "▁35": 1861,
  "▁ɲògòn": 1862,
  ":4": 1863,
  "KDC": 1864,
  "uwifu": 1865,
  "▁AKKDC": 1866,
  "▁ɲɛnamaya": 1867,
  "▁ɲaga": 1868,
  "▁siɲɛ": 1869,
  "ique": 1870,
  "▁voitu": 1871,
  "▁Lu": 1872,
  "▁Sam": 1873,
  "▁ɲin": 1874,
  "rain": 1875,
  "▁>": 1876,
  "isé": 1877,
  "▁vos": 1878,
  "▁kosòn": 1879,
  "ttre": 1880,
  "▁savoir": 1881,
  "▁resp": 1882,
  "▁fou": 1883,
  "wula": 1884,
  "▁nɛn": 1885,
  "issent": 1886,
  "més": 1887,
  "rɔ": 1888,
  "▁tila": 1889,
  "▁yiri": 1890,
  "▁minnu": 1891,
  "rée": 1892,
  "▁prendre": 1893,
  "vo": 1894,
  "▁exp": 1895,
  "ert": 1896,
  "▁moment": 1897,
  "fé": 1898,
  "gna": 1899,
  "▁ɔ": 1900,
  "▁kit": 1901,
  "▁=": 1902,
  "élé": 1903,
  "heure": 1904,
  "ange": 1905,
  "▁bamuso": 1906,
  "sɛ": 1907,
  "▁off": 1908,
  "▁sang": 1909,
  "▁Alabatoso": 1910,
  "▁Paul": 1911,
  "▁suite": 1912,
  "▁adamaden": 1913,
  "▁Lors": 1914,
  "▁kou": 1915,
  "▁inter": 1916,
  "êmes": 1917,
  "▁Mar": 1918,
  "▁halaki": 1919,
  "▁prison": 1920,
  "cla": 1921,
  "ailleurs": 1922,
  "ala": 1923,
  "▁rapp": 1924,
  "▁Zan": 1925,
  "tique": 1926,
  "ration": 1927,
  "▁Ibrayima": 1928,
  "ier": 1929,
  "téri": 1930,
  "mée": 1931,
  "▁reste": 1932,
  "utes": 1933,
  "▁train": 1934,
  "▁cet": 1935,
  "▁tulo": 1936,
  "raient": 1937,
  "ɔli": 1938,
  "▁aimé": 1939,
  "bè": 1940,
  "▁desc": 1941,
  "▁kiti": 1942,
  "▁aura": 1943,
  "Bari": 1944,
  "▁mus": 1945,
  "▁jalaki": 1946,
  "onné": 1947,
  "▁eut": 1948,
  "▁ét": 1949,
  "lais": 1950,
  "▁milli": 1951,
  "▁petit": 1952,
  "occ": 1953,
  "▁Ca": 1954,
  "manw": 1955,
  "onté": 1956,
  "glise": 1957,
  "▁sòrò": 1958,
  "ƐW": 1959,
  "▁wuli": 1960,
  "▁sorti": 1961,
  "lus": 1962,
  ").": 1963,
  ".1": 1964,
  "▁nɛɛ": 1965,
  "abord": 1966,
  "▁kò": 1967,
  "▁kosɛbɛ": 1968,
  "▁parents": 1969,
  "▁dj": 1970,
  "▁France": 1971,
  "▁sini": 1972,
  "anta": 1973,
  "▁Quel": 1974,
  "▁font": 1975,
  "▁cond": 1976,
  "▁gwɛlɛya": 1977,
  "kow": 1978,
  "▁?\"": 1979,
  "arch": 1980,
  "▁pani": 1981,
  "▁Ja": 1982,
  "▁wu": 1983,
  "▁bali": 1984,
  "▁ress": 1985,
  "▁pouvoir": 1986,
  "▁kunna": 1987,
  "▁veut": 1988,
  "▁envie": 1989,
  "▁répondit": 1990,
  "▁200": 1991,
  "▁bapt": 1992,
  "▁Tous": 1993,
  "▁quatre": 1994,
  "œu": 1995,
  "▁th": 1996,
  "▁hakilitigi": 1997,
  "▁sarakalase": 1998,
  "▁malo": 1999,
  "Éternel": 2000,
  "▁gi": 2001,
  "▁différent": 2002,
  "ène": 2003,
  "ligi": 2004,
  "forma": 2005,
  "▁pard": 2006,
  "▁aut": 2007,
  "▁again": 2008,
  "▁commenc": 2009,
  "um": 2010,
  "▁mieux": 2011,
  "20": 2012,
  "▁nɛ": 2013,
  "euse": 2014,
  "▁vis": 2015,
  "▁Ph": 2016,
  "▁So": 2017,
  "▁Juifs": 2018,
  "tuma": 2019,
  "▁passe": 2020,
  "▁voiture": 2021,
  "▁emp": 2022,
  "kolon": 2023,
  "aali": 2024,
  "▁In": 2025,
  "▁util": 2026,
  "issez": 2027,
  "▁kura": 2028,
  "riture": 2029,
  "▁kumana": 2030,
  "▁seront": 2031,
  "▁Son": 2032,
  "▁ici": 2033,
  "▁ho": 2034,
  "vée": 2035,
  "accord": 2036,
  "onna": 2037,
  "▁dogo": 2038,
  "Eternel": 2039,
  "▁laiss": 2040,
  "▁elles": 2041,
  "ɛli": 2042,
  "anan": 2043,
  "asuma": 2044,
  "▁selon": 2045,
  "▁trans": 2046,
  "appro": 2047,
  "▁rais": 2048,
  "▁chaque": 2049,
  "law": 2050,
  "bagatɔ": 2051,
  "▁langue": 2052,
  "▁siginin": 2053,
  "▁Elles": 2054,
  "▁aucune": 2055,
  "kulu": 2056,
  "iller": 2057,
  "▁Be": 2058,
  "user": 2059,
  "▁Kal": 2060,
  "tigiw": 2061,
  "esse": 2062,
  "uire": 2063,
  "▁Lui": 2064,
  "▁tant": 2065,
  "▁cè": 2066,
  "kuma": 2067,
  "▁jati": 2068,
  "mon": 2069,
  "tice": 2070,
  "▁fer": 2071,
  "▁Wa": 2072,
  "bari": 2073,
  "▁amis": 2074,
  "▁Adama": 2075,
  "▁aller": 2076,
  "▁façon": 2077,
  "fè": 2078,
  "▁bò": 2079,
  "▁venir": 2080,
  "▁feu": 2081,
  "▁dix": 2082,
  "▁yeux": 2083,
  "agn": 2084,
  "una": 2085,
  "yant": 2086,
  "▁Man": 2087,
  "▁cent": 2088,
  "▁mugan": 2089,
  "▁dariya": 2090,
  "▁grâce": 2091,
  "▁dò": 2092,
  "▁signi": 2093,
  "bl": 2094,
  "▁ass": 2095,
  "▁kar": 2096,
  "▁sait": 2097,
  "▁Di": 2098,
  "▁diffi": 2099,
  "▁lumière": 2100,
  "aff": 2101,
  "arti": 2102,
  "uses": 2103,
  "▁45": 2104,
  "▁fô": 2105,
  "▁ɲam": 2106,
  "▁Li": 2107,
  "▁rɔ": 2108,
  "wo": 2109,
  "▁joie": 2110,
  "▁Jo": 2111,
  "▁fant": 2112,
  "aso": 2113,
  "▁por": 2114,
  "▁dara": 2115,
  "▁tɛna": 2116,
  "▁porte": 2117,
  "ress": 2118,
  "▁tard": 2119,
  "usufu": 2120,
  "▁loo": 2121,
  "▁loin": 2122,
  "Ti": 2123,
  "vient": 2124,
  "fie": 2125,
  "gues": 2126,
  "▁ali": 2127,
  "▁trop": 2128,
  "▁étern": 2129,
  "▁prin": 2130,
  "▁soyez": 2131,
  "cin": 2132,
  "▁Où": 2133,
  "encont": 2134,
  "▁lamɛn": 2135,
  "ec": 2136,
  "gement": 2137,
  "mbre": 2138,
  "▁sen": 2139,
  "▁guerre": 2140,
  "▁pau": 2141,
  "▁demande": 2142,
  "▁aucun": 2143,
  "▁gra": 2144,
  "▁banbali": 2145,
  "olom": 2146,
  "▁dem": 2147,
  "tan": 2148,
  "vés": 2149,
  "▁kak": 2150,
  "▁Olu": 2151,
  "▁sigiyɔrɔ": 2152,
  "▁wolonwula": 2153,
  "NA": 2154,
  "▁Jac": 2155,
  "hovah": 2156,
  "▁Cependant": 2157,
  "▁pie": 2158,
  "moins": 2159,
  "enfant": 2160,
  "fɛnw": 2161,
  "▁muru": 2162,
  "quer": 2163,
  "▁partout": 2164,
  "yan": 2165,
  "▁rendre": 2166,
  "▁lafi": 2167,
  "▁sœur": 2168,
  "▁partie": 2169,
  "▁ɲè": 2170,
  "▁mobili": 2171,
  "▁kà": 2172,
  "▁compr": 2173,
  "▁ag": 2174,
  "▁tanu": 2175,
  "▁duni": 2176,
  "▁42": 2177,
  "▁Gal": 2178,
  "▁ham": 2179,
  "qué": 2180,
  "Ka": 2181,
  "▁37": 2182,
  "▁fon": 2183,
  "▁paroles": 2184,
  "main": 2185,
  "▁Ayiwa": 2186,
  "alité": 2187,
  "ɛɛrɛ": 2188,
  "kɛlaw": 2189,
  "▁contin": 2190,
  "▁:": 2191,
  "▁réve": 2192,
  "one": 2193,
  "▁las": 2194,
  "▁lɔnniya": 2195,
  "▁all": 2196,
  "▁tilan": 2197,
  "▁minutes": 2198,
  "tal": 2199,
  "enus": 2200,
  "tɔrɔ": 2201,
  "▁nɔɔ": 2202,
  "▁saint": 2203,
  "▁fort": 2204,
  "nous": 2205,
  "gra": 2206,
  "▁situ": 2207,
  "▁faa": 2208,
  "esprit": 2209,
  "oû": 2210,
  "▁39": 2211,
  "RI": 2212,
  "ele": 2213,
  "▁Jéhovah": 2214,
  "él": 2215,
  "▁can": 2216,
  "▁muɲ": 2217,
  "resse": 2218,
  "ɛrɛn": 2219,
  "istoire": 2220,
  "Mun": 2221,
  "isation": 2222,
  "▁compte": 2223,
  "▁bat": 2224,
  "▁préc": 2225,
  "▁Search": 2226,
  "▁face": 2227,
  "▁belle": 2228,
  "omi": 2229,
  "iles": 2230,
  "▁Isra": 2231,
  "▁prom": 2232,
  "▁tête": 2233,
  "acun": 2234,
  "▁kɔrɔt": 2235,
  "▁im": 2236,
  "▁dumu": 2237,
  "issant": 2238,
  "▁yɛlɛma": 2239,
  "▁juste": 2240,
  "▁péché": 2241,
  "▁né": 2242,
  "▁foro": 2243,
  "▁pouvez": 2244,
  "itude": 2245,
  "▁soient": 2246,
  "▁zuwifu": 2247,
  "fois": 2248,
  "▁sourire": 2249,
  "anto": 2250,
  "ingt": 2251,
  "▁back": 2252,
  "▁Ah": 2253,
  "ALI": 2254,
  "han": 2255,
  "▁lɔgɔ": 2256,
  "▁at": 2257,
  "anni": 2258,
  "uve": 2259,
  "▁sept": 2260,
  "rage": 2261,
  "éné": 2262,
  "illa": 2263,
  "▁som": 2264,
  "▁nour": 2265,
  "ber": 2266,
  "▁année": 2267,
  "▁religi": 2268,
  "fan": 2269,
  "gara": 2270,
  "▁Baa": 2271,
  "??": 2272,
  "▁Ç": 2273,
  "▁Yusufu": 2274,
  "oseph": 2275,
  "▁produ": 2276,
  "médi": 2277,
  "▁sema": 2278,
  "mun": 2279,
  "ɔgɔnin": 2280,
  "▁maloya": 2281,
  "▁jou": 2282,
  "vement": 2283,
  "ly": 2284,
  "temp": 2285,
  "▁rapi": 2286,
  "arrive": 2287,
  "po": 2288,
  "▁dor": 2289,
  "▁Voici": 2290,
  "▁naani": 2291,
  "▁juguw": 2292,
  "▁kɔfɛ": 2293,
  "▁Après": 2294,
  "rec": 2295,
  "▁yɛn": 2296,
  "▁lorsque": 2297,
  "▁Koo": 2298,
  "▁accomp": 2299,
  "rir": 2300,
  "isait": 2301,
  "▁près": 2302,
  "▁ge": 2303,
  "ɔrɔnin": 2304,
  "né": 2305,
  "▁sifa": 2306,
  "UN": 2307,
  "▁char": 2308,
  "▁parmi": 2309,
  "▁adamadenw": 2310,
  "son": 2311,
  "▁bele": 2312,
  "▁boli": 2313,
  "▁chef": 2314,
  "▁furent": 2315,
  "▁mettre": 2316,
  "lar": 2317,
  "▁Ça": 2318,
  "▁joli": 2319,
  "▁Israël": 2320,
  "où": 2321,
  "▁Sy": 2322,
  "mɛna": 2323,
  "fuɛ": 2324,
  "▁Sin": 2325,
  "▁kin": 2326,
  "▁vois": 2327,
  "▁rencont": 2328,
  "ilila": 2329,
  "▁Alabatosoba": 2330,
  "▁Royaume": 2331,
  "▁gwɛrɛ": 2332,
  "ner": 2333,
  "▁duuru": 2334,
  "▁faites": 2335,
  "▁propos": 2336,
  "▁LU": 2337,
  "▁Tiɲɛ": 2338,
  "▁trou": 2339,
  "lée": 2340,
  "▁sufɛ": 2341,
  "enw": 2342,
  "endra": 2343,
  "gon": 2344,
  "orter": 2345,
  "Ayi": 2346,
  "kali": 2347,
  "ours": 2348,
  "▁yôrô": 2349,
  "▁perme": 2350,
  "▁Joseph": 2351,
  "▁sû": 2352,
  "▁trouvé": 2353,
  "▁ǹ": 2354,
  "▁To": 2355,
  "temps": 2356,
  "dul": 2357,
  "dɛ": 2358,
  "éd": 2359,
  "tra": 2360,
  "▁As": 2361,
  "▁LO": 2362,
  "yɛri": 2363,
  "éli": 2364,
  "▁lanin": 2365,
  "▁kali": 2366,
  "▁sungu": 2367,
  "mè": 2368,
  "ros": 2369,
  "▁kɔlɔ": 2370,
  "▁sɛbɛn": 2371,
  "▁wun": 2372,
  "▁questions": 2373,
  "jibi": 2374,
  "▁bɛna": 2375,
  "▁Su": 2376,
  "▁Certa": 2377,
  "rin": 2378,
  "run": 2379,
  "▁tò": 2380,
  "▁fla": 2381,
  "eff": 2382,
  "▁Lo": 2383,
  "guni": 2384,
  "suite": 2385,
  "Masaba": 2386,
  "jigi": 2387,
  "▁supp": 2388,
  "▁domma": 2389,
  "▁haali": 2390,
  "▁import": 2391,
  "▁Kan": 2392,
  "▁how": 2393,
  "▁bati": 2394,
  "▁nations": 2395,
  "opp": 2396,
  "âge": 2397,
  "ii": 2398,
  "Abraham": 2399,
  "▁commence": 2400,
  "dè": 2401,
  "air": 2402,
  "tats": 2403,
  "▁bɔyɔrɔ": 2404,
  "▁ɲanagwɛ": 2405,
  "▁36": 2406,
  "▁kunbɛn": 2407,
  "▁latigɛ": 2408,
  "▁manière": 2409,
  "onte": 2410,
  "▁damin": 2411,
  "ònò": 2412,
  "▁crois": 2413,
  "▁juguya": 2414,
  "▁sè": 2415,
  "▁tele": 2416,
  "▁années": 2417,
  "▁dirent": 2418,
  "baa": 2419,
  "kuru": 2420,
  "▁arrivé": 2421,
  "▁tasuma": 2422,
  "▁gwɛ": 2423,
  "▁voya": 2424,
  "aie": 2425,
  "▁he": 2426,
  "▁nɔ": 2427,
  "manɛ": 2428,
  "cul": 2429,
  "taw": 2430,
  "▁..": 2431,
  "dugu": 2432,
  "▁danna": 2433,
  "▁kongo": 2434,
  "▁route": 2435,
  "▁ɲakɔrɔ": 2436,
  "▁première": 2437,
  "ɔnɔ": 2438,
  "▁000": 2439,
  "▁Cette": 2440,
  "▁regard": 2441,
  "▁Ainsi": 2442,
  "▁Ai": 2443,
  "▁katu": 2444,
  "▁seule": 2445,
  "rie": 2446,
  "▁Pas": 2447,
  "▁Sere": 2448,
  "▁habit": 2449,
  "▁tɛmanɛ": 2450,
  "▁Cɛ": 2451,
  "▁ess": 2452,
  "con": 2453,
  "▁mourir": 2454,
  "ome": 2455,
  "▁teriw": 2456,
  "▁filanan": 2457,
  "▁nombreuses": 2458,
  "▁Ye": 2459,
  "ju": 2460,
  "mar": 2461,
  "▁ru": 2462,
  "▁Zuda": 2463,
  "kuba": 2464,
  "mina": 2465,
  "▁prép": 2466,
  "▁janto": 2467,
  "▁rece": 2468,
  "ɲɔ": 2469,
  "▁dali": 2470,
  "étaient": 2471,
  "leur": 2472,
  "année": 2473,
  "▁quit": 2474,
  "▁partir": 2475,
  "▁montagne": 2476,
  "itié": 2477,
  "▁nya": 2478,
  "év": 2479,
  "▁tag": 2480,
  "mment": 2481,
  "rant": 2482,
  "▁tɛmɛna": 2483,
  "▁servi": 2484,
  "▁prophète": 2485,
  "gnes": 2486,
  "rise": 2487,
  "▁din": 2488,
  "Ma": 2489,
  "chi": 2490,
  "unes": 2491,
  "voir": 2492,
  "▁haut": 2493,
  "▁dɔgɔtɔrɔ": 2494,
  "▁id": 2495,
  "▁Bien": 2496,
  "ression": 2497,
  "bila": 2498,
  "vec": 2499,
  "▁trouver": 2500,
  "iron": 2501,
  "▁San": 2502,
  "▁Muso": 2503,
  "▁fɛti": 2504,
  "▁kurun": 2505,
  "▁koɲuman": 2506,
  "▁éternelle": 2507,
  "▁ren": 2508,
  "▁parlé": 2509,
  "ayez": 2510,
  "oupe": 2511,
  "▁suma": 2512,
  "▁Sisan": 2513,
  "▁mains": 2514,
  "▁demandé": 2515,
  "aide": 2516,
  "▁celle": 2517,
  "▁tɛmɛn": 2518,
  "▁div": 2519,
  "▁beau": 2520,
  "▁teliya": 2521,
  "▁volonté": 2522,
  "yen": 2523,
  "▁Me": 2524,
  "Allah": 2525,
  "été": 2526,
  "▁Du": 2527,
  "▁mɔɔ": 2528,
  "▁remp": 2529,
  "Tiɲɛ": 2530,
  "laire": 2531,
  "▁serait": 2532,
  "▁ro": 2533,
  "enue": 2534,
  "hana": 2535,
  "aimer": 2536,
  "▁fewu": 2537,
  "rou": 2538,
  "▁bol": 2539,
  "▁sens": 2540,
  "▁daf": 2541,
  "▁dès": 2542,
  "▁justice": 2543,
  "gle": 2544,
  "idé": 2545,
  "lut": 2546,
  "▁bl": 2547,
  "èrement": 2548,
  "▁cô": 2549,
  "▁dét": 2550,
  "▁temple": 2551,
  "▁Hali": 2552,
  "▁dimi": 2553,
  "▁lɛ": 2554,
  "▁sɔɔ": 2555,
  "▁mess": 2556,
  "▁tilennin": 2557,
  "▁Saan": 2558,
  "▁ve": 2559,
  "▁xa": 2560,
  "▁sab": 2561,
  "ses": 2562,
  "▁vue": 2563,
  "oun": 2564,
  "isogo": 2565,
  "▁reçu": 2566,
  "▁perdu": 2567,
  "▁passer": 2568,
  "▁and": 2569,
  "▁môgô": 2570,
  "▁pourrait": 2571,
  "▁̀": 2572,
  "▁Pers": 2573,
  "▁cinq": 2574,
  "▁disant": 2575,
  "▁longtemps": 2576,
  "▁mbe": 2577,
  "onner": 2578,
  "▁bɛɛn": 2579,
  "▁méde": 2580,
  "▁but": 2581,
  "▁fun": 2582,
  "▁47": 2583,
  "▁vin": 2584,
  "térieur": 2585,
  "sez": 2586,
  "▁Ses": 2587,
  "▁kôn": 2588,
  "ances": 2589,
  "▁nɔgɔnin": 2590,
  "▁Ou": 2591,
  "▁connu": 2592,
  "▁entend": 2593,
  "occu": 2594,
  "arisi": 2595,
  "▁seko": 2596,
  "▁droit": 2597,
  "▁commencé": 2598,
  ":11": 2599,
  "▁Ta": 2600,
  "▁wɔ": 2601,
  "▁LUKA": 2602,
  "▁41": 2603,
  "isés": 2604,
  "▁men": 2605,
  "▁fura": 2606,
  "▁Kit": 2607,
  "▁ref": 2608,
  "▁kònò": 2609,
  "▁régi": 2610,
  "▁publi": 2611,
  "▁rester": 2612,
  "alo": 2613,
  "▁kɛla": 2614,
  "▁sages": 2615,
  "▁kalanden": 2616,
  ":5": 2617,
  "▁end": 2618,
  "▁para": 2619,
  "oign": 2620,
  "▁gén": 2621,
  "▁tri": 2622,
  "ɔnin": 2623,
  "▁sacri": 2624,
  "▁mɔgɔba": 2625,
  "▁Bo": 2626,
  "dayi": 2627,
  "▁banna": 2628,
  "ision": 2629,
  "▁ord": 2630,
  "▁Parce": 2631,
  "▁raison": 2632,
  "yɔn": 2633,
  "▁chacun": 2634,
  "amp": 2635,
  "inte": 2636,
  "▁MATI": 2637,
  "▁connais": 2638,
  "atan": 2639,
  "rier": 2640,
  "▁mau": 2641,
  "ilité": 2642,
  "▁pieds": 2643,
  "teur": 2644,
  "▁Peut": 2645,
  "▁voie": 2646,
  "iter": 2647,
  "▁wilila": 2648,
  "▁60": 2649,
  "▁mɛ": 2650,
  "▁MATIY": 2651,
  "▁Sara": 2652,
  "▁sort": 2653,
  "▁bonya": 2654,
  "ook": 2655,
  "▁Eh": 2656,
  "oivent": 2657,
  "▁Baara": 2658,
  "issement": 2659,
  "▁!\"": 2660,
  "▁Eli": 2661,
  "écoute": 2662,
  "▁sacrifi": 2663,
  "▁hu": 2664,
  "5.": 2665,
  "▁ò": 2666,
  "▁kɛwa": 2667,
  "▁télé": 2668,
  "▁miiriya": 2669,
  "▁rue": 2670,
  "▁dɛsɛ": 2671,
  "▁NO": 2672,
  "are": 2673,
  "dent": 2674,
  "mani": 2675,
  "lez": 2676,
  "▁cul": 2677,
  "fo": 2678,
  "cité": 2679,
  "▁boire": 2680,
  "inc": 2681,
  "▁kudayi": 2682,
  "▁prière": 2683,
  "lɔn": 2684,
  "▁Jama": 2685,
  "ansi": 2686,
  "▁farisogo": 2687,
  "▁gɛrɛ": 2688,
  "▁Quels": 2689,
  "op": 2690,
  "▁bla": 2691,
  "▁réc": 2692,
  "tation": 2693,
  "▁savait": 2694,
  "pu": 2695,
  "off": 2696,
  "▁Wo": 2697,
  "▁déf": 2698,
  "▁mauvais": 2699,
  "èlè": 2700,
  "▁voix": 2701,
  "ah": 2702,
  "▁kini": 2703,
  "▁Samari": 2704,
  "▁kɔlɔsi": 2705,
  "cles": 2706,
  "ième": 2707,
  "▁Yah": 2708,
  "▁int": 2709,
  "▁pan": 2710,
  "▁conf": 2711,
  "▁maître": 2712,
  "▁MATIYO": 2713,
  "▁lorsqu": 2714,
  "▁chi": 2715,
  "▁yɔrɔnin": 2716,
  "lation": 2717,
  "▁existe": 2718,
  "sɔn": 2719,
  "yons": 2720,
  "▁new": 2721,
  "▁wɔɔrɔ": 2722,
  "gɛrɛ": 2723,
  "▁sol": 2724,
  "▁signifie": 2725,
  "ach": 2726,
  "tis": 2727,
  "tée": 2728,
  "▁viv": 2729,
  "ƆL": 2730,
  "▁Piyɛri": 2731,
  "▁vivre": 2732,
  "▁nombreux": 2733,
  "▁pourtant": 2734,
  "ONI": 2735,
  "don": 2736,
  "▁cru": 2737,
  "▁sép": 2738,
  "mir": 2739,
  "▁lè": 2740,
  "▁sanji": 2741,
  "▁petits": 2742,
  "▁hakilitigiya": 2743,
  "gence": 2744,
  "▁conse": 2745,
  "▁faisait": 2746,
  "▁^": 2747,
  "▁sɔ̃": 2748,
  "▁sinɔgɔ": 2749,
  "toi": 2750,
  "kasi": 2751,
  "▁nih": 2752,
  "▁batize": 2753,
  "▁chan": 2754,
  "anté": 2755,
  "ètes": 2756,
  "▁mira": 2757,
  "▁suuw": 2758,
  "aimerais": 2759,
  "▁réal": 2760,
  "informa": 2761,
  "baya": 2762,
  "itre": 2763,
  "ll": 2764,
  "util": 2765,
  "▁Lun": 2766,
  "ences": 2767,
  "▁kuru": 2768,
  "▁kɔnɔn": 2769,
  "▁kanubaga": 2770,
  "fri": 2771,
  "▁alu": 2772,
  "▁devez": 2773,
  "▁soon": 2774,
  "▁meill": 2775,
  "▁continu": 2776,
  "riez": 2777,
  "espère": 2778,
  "nement": 2779,
  "▁aimés": 2780,
  "hab": 2781,
  "▁rè": 2782,
  "ciens": 2783,
  "▁Alla": 2784,
  "espoir": 2785,
  "▁Yakuba": 2786,
  "▁villes": 2787,
  "▁prêtres": 2788,
  "▁labɛnnin": 2789,
  "▁dibi": 2790,
  "▁voud": 2791,
  "lique": 2792,
  "▁retr": 2793,
  "kɔrɔbaw": 2794,
  "▁X": 2795,
  "▁toun": 2796,
  "ueil": 2797,
  "▁val": 2798,
  "▁foule": 2799,
  "▁déclar": 2800,
  "▁ɲanaman": 2801,
  "bana": 2802,
  "▁gwan": 2803,
  "▁image": 2804,
  "▁vingt": 2805,
  "zu": 2806,
  "ƆLƆ": 2807,
  "ables": 2808,
  "▁Juda": 2809,
  "▁serviteur": 2810,
  "ira": 2811,
  "elli": 2812,
  "▁mur": 2813,
  "▁dira": 2814,
  "▁wula": 2815,
  "▁kal": 2816,
  "▁indi": 2817,
  "issait": 2818,
  "▁concer": 2819,
  "▁Pro": 2820,
  "mêmes": 2821,
  "▁décla": 2822,
  "▁ɲinina": 2823,
  "isme": 2824,
  "▁kis": 2825,
  "▁lagi": 2826,
  "▁kinibolo": 2827,
  "▁puissance": 2828,
  "tro": 2829,
  "mata": 2830,
  "▁kari": 2831,
  "▁muɲu": 2832,
  "isième": 2833,
  "ood": 2834,
  "▁Lorsque": 2835,
  "▁œu": 2836,
  "▁Mes": 2837,
  "▁delila": 2838,
  "▁esprit": 2839,
  "ɔri": 2840,
  "▁Jɔn": 2841,
  "▁bois": 2842,
  "inan": 2843,
  "▁Mer": 2844,
  "après": 2845,
  "▁déci": 2846,
  "▁serez": 2847,
  "▁miniti": 2848,
  "▁dɔnkili": 2849,
  "men": 2850,
  "▁kolo": 2851,
  "▁procha": 2852,
  "▁propre": 2853,
  "écess": 2854,
  "erreur": 2855,
  "▁pain": 2856,
  "▁tòòrò": 2857,
  "▁croire": 2858,
  "ƐR": 2859,
  "▁49": 2860,
  "▁sad": 2861,
  "▁crain": 2862,
  "bes": 2863,
  "▁yu": 2864,
  "▁musow": 2865,
  "NAF": 2866,
  "▁KUN": 2867,
  "▁sir": 2868,
  "▁plut": 2869,
  "▁aider": 2870,
  "▁48": 2871,
  "ƐRƐW": 2872,
  "NAFONI": 2873,
  "▁WƐRƐW": 2874,
  "▁KUNNAFONI": 2875,
  "▁mògòw": 2876,
  "▁devait": 2877,
  "▁médecin": 2878,
  "dam": 2879,
  "▁Ro": 2880,
  "▁inc": 2881,
  "▁daga": 2882,
  "▁layi": 2883,
  "▁ladili": 2884,
  "▁sarakalasebagaw": 2885,
  "vɛn": 2886,
  "chez": 2887,
  "▁blo": 2888,
  "▁gwɛn": 2889,
  "équ": 2890,
  "▁sp": 2891,
  "aati": 2892,
  "▁sûr": 2893,
  "ateur": 2894,
  "êtres": 2895,
  "▁plaît": 2896,
  "olution": 2897,
  "▁commandement": 2898,
  "die": 2899,
  "Ayiwa": 2900,
  "▁mots": 2901,
  "▁jeunes": 2902,
  "▁yeelen": 2903,
  "dɔ": 2904,
  "▁Th": 2905,
  "▁br": 2906,
  "heur": 2907,
  "▁envers": 2908,
  "▁savons": 2909,
  "ak": 2910,
  "tri": 2911,
  "ouse": 2912,
  "▁fra": 2913,
  "▁sogo": 2914,
  "▁fɛtiw": 2915,
  "▁contra": 2916,
  "▁sauver": 2917,
  "▁troisième": 2918,
  "orts": 2919,
  "roit": 2920,
  "▁jira": 2921,
  "▁généra": 2922,
  "▁dernier": 2923,
  "liw": 2924,
  "▁kòrò": 2925,
  "▁rapidement": 2926,
  "KI": 2927,
  "▁fran": 2928,
  "▁faran": 2929,
  "▁surun": 2930,
  "▁baaraden": 2931,
  "▁anges": 2932,
  "▁villa": 2933,
  "▁kuntigiw": 2934,
  "50": 2935,
  "hɔn": 2936,
  "sit": 2937,
  "aider": 2938,
  "▁mange": 2939,
  "▁mille": 2940,
  "oc": 2941,
  "appe": 2942,
  "▁Cor": 2943,
  "▁compris": 2944,
  "aron": 2945,
  "▁buru": 2946,
  "ene": 2947,
  "gés": 2948,
  "▁sep": 2949,
  "▁deuxième": 2950,
  "▁•": 2951,
  "▁Ga": 2952,
  "▁Kun": 2953,
  "▁anima": 2954,
  "▁libre": 2955,
  "▁pɛrɛn": 2956,
  "▁exemple": 2957,
  "inté": 2958,
  "▁wee": 2959,
  "▁Jacob": 2960,
  "▁bas": 2961,
  "▁Kitabu": 2962,
  "▁demander": 2963,
  "mages": 2964,
  "oubli": 2965,
  "▁condu": 2966,
  "▁force": 2967,
  ":27": 2968,
  "▁46": 2969,
  "ende": 2970,
  "▁Ces": 2971,
  "▁rac": 2972,
  "▁lamini": 2973,
  "▁nécess": 2974,
  "kura": 2975,
  "▁Masaya": 2976,
  "▁halibi": 2977,
  "▁cl": 2978,
  "▁pop": 2979,
  "▁jurumu": 2980,
  "▁Maintenant": 2981,
  "RƆ": 2982,
  "ss": 2983,
  "lir": 2984,
  "▁côté": 2985,
  "baliya": 2986,
  "▁Quelles": 2987,
  "▁jaabili": 2988,
  "masi": 2989,
  "▁Anw": 2990,
  "▁ami": 2991,
  "▁mem": 2992,
  "▁mit": 2993,
  "▁gɛrɛfɛ": 2994,
  "▁segira": 2995,
  "▁cu": 2996,
  "▁Jud": 2997,
  "▁connaître": 2998,
  "▁Luc": 2999,
  "▁aband": 3000,
  "▁olugu": 3001,
  "▁Personne": 3002,
  "▁connaissance": 3003,
  "kala": 3004,
  "bagaya": 3005,
  "ree": 3006,
  "alom": 3007,
  "▁sugu": 3008,
  "▁sanni": 3009,
  "▁plutôt": 3010,
  "▁pouvait": 3011,
  "▁somɔgɔw": 3012,
  "▁Pɔli": 3013,
  "▁mise": 3014,
  "▁répon": 3015,
  "▁combat": 3016,
  "▁denmisɛnw": 3017,
  "tat": 3018,
  "▁Fɛɛn": 3019,
  "▁kélé": 3020,
  "▁arrive": 3021,
  "▁recher": 3022,
  "▁mariage": 3023,
  "▁»": 3024,
  "▁Parole": 3025,
  "ode": 3026,
  "▁70": 3027,
  "▁pol": 3028,
  "▁kunu": 3029,
  "▁sent": 3030,
  "▁gouver": 3031,
  "▁bâ": 3032,
  "lenw": 3033,
  "▁1:1": 3034,
  "laient": 3035,
  "▁apprendre": 3036,
  "dit": 3037,
  "usi": 3038,
  "cs": 3039,
  "▁jɛ": 3040,
  "▁garde": 3041,
  "▁Pourtant": 3042,
  "▁appelé": 3043,
  "▁doivent": 3044,
  "éric": 3045,
  "▁ait": 3046,
  "Égypte": 3047,
  "▁suman": 3048,
  "▁wajibi": 3049,
  "▁ple": 3050,
  "▁sɔbɛ": 3051,
  "▁demanda": 3052,
  "▁44": 3053,
  "rence": 3054,
  "ignement": 3055,
  "MU": 3056,
  "▁sole": 3057,
  "aujourd": 3058,
  "▁Isi": 3059,
  "belen": 3060,
  "▁princip": 3061,
  "▁«": 3062,
  "▁bô": 3063,
  "▁pra": 3064,
  "▁Avec": 3065,
  "▁kèra": 3066,
  "▁Marie": 3067,
  "▁somme": 3068,
  "▁dusukasi": 3069,
  "uro": 3070,
  "ctions": 3071,
  "▁seegi": 3072,
  "▁soleil": 3073,
  "▁tagama": 3074,
  "▁milliers": 3075,
  "▁1:": 3076,
  "▁tum": 3077,
  "▁Plus": 3078,
  "▁sourit": 3079,
  "▁humains": 3080,
  "baliw": 3081,
  "▁siranna": 3082,
  "EU": 3083,
  "lis": 3084,
  "▁tig": 3085,
  "▁péri": 3086,
  "▁serai": 3087,
  "ron": 3088,
  "▁yoo": 3089,
  "▁dabila": 3090,
  "▁milieu": 3091,
  "▁nourriture": 3092,
  "ourou": 3093,
  "▁sɔnna": 3094,
  "écu": 3095,
  "▁gbɛ": 3096,
  "▁Ɔrɔ": 3097,
  "▁lakali": 3098,
  "▁descend": 3099,
  "▁katuguni": 3100,
  "▁difficile": 3101,
  "ilà": 3102,
  "RƆMU": 3103,
  "▁Deen": 3104,
  "▁ƆRƆMU": 3105,
  "▁déclaré": 3106,
  "▁zuwifuw": 3107,
  "▁disaient": 3108,
  "▁ƆRƆMUKAW": 3109,
  "▁woro": 3110,
  "▁voulu": 3111,
  "▁disait": 3112,
  "▁saban": 3113,
  "▁langues": 3114,
  "▁karamɔgɔ": 3115,
  "▁Aoû": 3116,
  "▁six": 3117,
  "▁jɔɔn": 3118,
  "▁dilan": 3119,
  "excuser": 3120,
  "▁Pierre": 3121,
  "▁dusukun": 3122,
  "▁Nu": 3123,
  "cteur": 3124,
  "▁revi": 3125,
  "▁dougou": 3126,
  "yer": 3127,
  "fɔlɔ": 3128,
  "▁mesu": 3129,
  "▁ɲininka": 3130,
  "▁kw": 3131,
  "▁kô": 3132,
  "▁lit": 3133,
  "▁Arɔn": 3134,
  "▁gafe": 3135,
  "▁ala": 3136,
  "▁Dani": 3137,
  "▁yeli": 3138,
  "▁enseign": 3139,
  "up": 3140,
  "▁mak": 3141,
  "▁tɔn": 3142,
  "▁pauvres": 3143,
  "▁Bar": 3144,
  "▁exc": 3145,
  "▁popula": 3146,
  "▁<": 3147,
  "iens": 3148,
  "▁Bab": 3149,
  "▁meur": 3150,
  "Si": 3151,
  "▁bee": 3152,
  "▁chefs": 3153,
  "▁cours": 3154,
  "ast": 3155,
  "unu": 3156,
  "▁fl": 3157,
  "assi": 3158,
  "▁sagesse": 3159,
  "▁Cɛɛ": 3160,
  "▁lah": 3161,
  "masiɲɛ": 3162,
  "▁kɛnɛya": 3163,
  "▁Abraham": 3164,
  "-1": 3165,
  "En": 3166,
  "enait": 3167,
  "▁siyaw": 3168,
  "rons": 3169,
  "▁3:1": 3170,
  "▁devons": 3171,
  "▁Pr": 3172,
  "▁Ɔrɔmu": 3173,
  "▁bolila": 3174,
  "▁nal": 3175,
  "▁mogo": 3176,
  "▁sani": 3177,
  "ect": 3178,
  "▁st": 3179,
  "manan": 3180,
  "▁créé": 3181,
  "▁sanu": 3182,
  "rection": 3183,
  "▁péchés": 3184,
  "histoire": 3185,
  "▁considé": 3186,
  "▁kɔrɔtanin": 3187,
  "IKAW": 3188,
  "▁har": 3189,
  "▁café": 3190,
  "eni": 3191,
  "▁Kɛ": 3192,
  "gine": 3193,
  "▁duvɛn": 3194,
  "▁serviteurs": 3195,
  "▁Is": 3196,
  "▁bad": 3197,
  "▁rou": 3198,
  "▁veu": 3199,
  "▁conc": 3200,
  "▁témoi": 3201,
  "▁aurait": 3202,
  "▁tes": 3203,
  "chant": 3204,
  "yɔrɔw": 3205,
  "méri": 3206,
  "▁fru": 3207,
  "▁éle": 3208,
  "avenir": 3209,
  "▁environ": 3210,
  "nis": 3211,
  "olé": 3212,
  "▁Emi": 3213,
  "▁béné": 3214,
  "▁faaw": 3215,
  "▁mili": 3216,
  "▁réjou": 3217,
  "▁sigɛn": 3218,
  "▁souvent": 3219,
  "▁Ré": 3220,
  "▁dév": 3221,
  "tiques": 3222,
  "▁bouche": 3223,
  "̀n": 3224,
  "▁jeu": 3225,
  "▁Bana": 3226,
  "ɛnŋ": 3227,
  "isir": 3228,
  "juguw": 3229,
  "▁vont": 3230,
  "▁constru": 3231,
  "▁cependant": 3232,
  "kɛnɛ": 3233,
  "▁Don": 3234,
  "▁mùn": 3235,
  "▁ouv": 3236,
  "▁étran": 3237,
  "once": 3238,
  "orma": 3239,
  "minin": 3240,
  "▁sari": 3241,
  "▁parfa": 3242,
  "▁ɲamɔgɔ": 3243,
  "▁pourrais": 3244,
  "pô": 3245,
  "▁dji": 3246,
  "▁lar": 3247,
  "avaient": 3248,
  "▁certains": 3249,
  "arer": 3250,
  "▁siè": 3251,
  "▁jɛni": 3252,
  "emis": 3253,
  "inqui": 3254,
  "▁écou": 3255,
  "▁ɲɛfɔ": 3256,
  "▁kɔngɔ": 3257,
  "▁kanbelen": 3258,
  "ici": 3259,
  "mez": 3260,
  "▁maga": 3261,
  "▁yèrèw": 3262,
  "gie": 3263,
  "réti": 3264,
  "veur": 3265,
  "truire": 3266,
  "▁Kalan": 3267,
  "▁fanan": 3268,
  "▁sabanan": 3269,
  "▁colère": 3270,
  "▁grands": 3271,
  "▁kɔrɔta": 3272,
  "▁ressus": 3273,
  "▁pouvons": 3274,
  "▁semaine": 3275,
  "▁comprendre": 3276,
  "fié": 3277,
  "oru": 3278,
  "tés": 3279,
  "biri": 3280,
  "▁inté": 3281,
  "▁vête": 3282,
  "▁Ab": 3283,
  "média": 3284,
  "▁Ceux": 3285,
  "▁Kuma": 3286,
  "▁dege": 3287,
  "▁sanfɛ": 3288,
  "oque": 3289,
  "▁cra": 3290,
  "▁fête": 3291,
  "▁delili": 3292,
  "mait": 3293,
  "entrer": 3294,
  "▁appris": 3295,
  "▁mɔgɔɲɔgɔn": 3296,
  "\">": 3297,
  "▁=\"": 3298,
  "chent": 3299,
  "essus": 3300,
  "ɛnŋɛlɛ": 3301,
  "▁prend": 3302,
  "▁riche": 3303,
  "▁sɔrɔla": 3304,
  "tilennin": 3305,
  "▁fantanw": 3306,
  "▁pho": 3307,
  "▁daan": 3308,
  "▁fera": 3309,
  "▁tanga": 3310,
  "▁jigira": 3311,
  "▁Yɛnŋɛlɛ": 3312,
  "▁/": 3313,
  "llez": 3314,
  "▁mɛɛn": 3315,
  "▁donnée": 3316,
  "lin": 3317,
  "▁sc": 3318,
  "miɛn": 3319,
  "Matigi": 3320,
  "▁Allah": 3321,
  "▁santé": 3322,
  "▁situation": 3323,
  "antes": 3324,
  "ût": 3325,
  "▁wɛ": 3326,
  "honn": 3327,
  "entôt": 3328,
  "▁prêtre": 3329,
  "adore": 3330,
  "▁boon": 3331,
  "▁lɔra": 3332,
  "▁siranya": 3333,
  "▁Certains": 3334,
  "▁kil": 3335,
  "▁Ɛ": 3336,
  "▁pat": 3337,
  "▁wan": 3338,
  "▁site": 3339,
  "▁sôrô": 3340,
  "▁prophètes": 3341,
  "▁43": 3342,
  "▁enn": 3343,
  "▁semb": 3344,
  "cal": 3345,
  "édé": 3346,
  "▁reti": 3347,
  "▁prise": 3348,
  "▁sorte": 3349,
  "▁travers": 3350,
  "ɛti": 3351,
  "urité": 3352,
  "ot": 3353,
  "▁bataki": 3354,
  "AR": 3355,
  "US": 3356,
  "çons": 3357,
  "▁Loi": 3358,
  "▁dieu": 3359,
  "▁kumaw": 3360,
  "▁nigɛ": 3361,
  "▁assez": 3362,
  "▁bange": 3363,
  "▁seere": 3364,
  "▁revenir": 3365,
  "30": 3366,
  "uya": 3367,
  "▁Nom": 3368,
  "▁religion": 3369,
  "▁wolom": 3370,
  "▁farati": 3371,
  "▁mɛlɛkɛw": 3372,
  "▁ensemble": 3373,
  "we": 3374,
  "péci": 3375,
  "▁gard": 3376,
  "▁vivant": 3377,
  "▁tand": 3378,
  "▁jumɛnw": 3379,
  "▁sunguru": 3380,
  "ES": 3381,
  "▁nà": 3382,
  "illez": 3383,
  "▁sɛgɛrɛ": 3384,
  "tent": 3385,
  "tugu": 3386,
  "▁Zoo": 3387,
  "ordre": 3388,
  "▁bonheur": 3389,
  "gée": 3390,
  "▁been": 3391,
  "▁bɔsi": 3392,
  "▁pois": 3393,
  "importe": 3394,
  "▁duniya": 3395,
  "nen": 3396,
  "tɔn": 3397,
  "œil": 3398,
  "▁How": 3399,
  "▁suiv": 3400,
  "yst": 3401,
  "ɔti": 3402,
  "▁Tou": 3403,
  "▁adul": 3404,
  "▁cidenw": 3405,
  "▁filles": 3406,
  "▁groupe": 3407,
  "▁unique": 3408,
  "▁étions": 3409,
  "VE": 3410,
  "onnes": 3411,
  "▁year": 3412,
  "angile": 3413,
  "▁&": 3414,
  "▁faim": 3415,
  "▁juga": 3416,
  "▁siri": 3417,
  "▁Merci": 3418,
  "▁petite": 3419,
  "bun": 3420,
  "▁bw": 3421,
  "▁mou": 3422,
  "appel": 3423,
  "sions": 3424,
  "▁chois": 3425,
  "▁nation": 3426,
  "▁sortir": 3427,
  "vité": 3428,
  "▁laga": 3429,
  "▁reconn": 3430,
  "▁nz": 3431,
  "ident": 3432,
  "▁Donc": 3433,
  "▁kele": 3434,
  "antage": 3435,
  "kalase": 3436,
  "▁tellement": 3437,
  "aan": 3438,
  "ero": 3439,
  "este": 3440,
  "▁tilenninya": 3441,
  "anci": 3442,
  "▁Eso": 3443,
  "▁kas": 3444,
  "▁droite": 3445,
  "juli": 3446,
  "▁Syn": 3447,
  "▁kpa": 3448,
  "aband": 3449,
  "▁ouver": 3450,
  "▁spéci": 3451,
  "▁représ": 3452,
  "atta": 3453,
  "▁kaa": 3454,
  "▁majigi": 3455,
  "médiatement": 3456,
  "▁ferai": 3457,
  "arisiens": 3458,
  "▁Denkè": 3459,
  "▁ciden": 3460,
  "▁Pa": 3461,
  "bien": 3462,
  "▁anu": 3463,
  "utana": 3464,
  "▁filè": 3465,
  "▁Aaron": 3466,
  "▁yaala": 3467,
  "▁denbaya": 3468,
  "Qu": 3469,
  "▁cri": 3470,
  "▁sis": 3471,
  "▁ɲafɛ": 3472,
  "▁ayant": 3473,
  "▁senti": 3474,
  "▁layidu": 3475,
  "▁kununna": 3476,
  "▁kojuguba": 3477,
  "▁voudrais": 3478,
  "▁témoins": 3479,
  "▁mat": 3480,
  "▁pye": 3481,
  "▁Tuma": 3482,
  "Masacɛ": 3483,
  "▁regar": 3484,
  "▁Masacɛ": 3485,
  "▁ennemis": 3486,
  "▁prochain": 3487,
  "rém": 3488,
  "▁,\"": 3489,
  "gage": 3490,
  "▁Vie": 3491,
  "▁ayi": 3492,
  "▁fidè": 3493,
  "▁étant": 3494,
  "▁malade": 3495,
  "▁entendre": 3496,
  "tenir": 3497,
  "▁biri": 3498,
  "anmiɛn": 3499,
  "▁Pendant": 3500,
  "▁gwɛrɛla": 3501,
  "▁warigwɛ": 3502,
  "tie": 3503,
  "▁2012": 3504,
  "▁diɲè": 3505,
  "▁bientôt": 3506,
  "▁message": 3507,
  "▁vit": 3508,
  "▁étu": 3509,
  "▁lonan": 3510,
  "▁humain": 3511,
  "▁miséric": 3512,
  "fara": 3513,
  "▁Roi": 3514,
  "▁yii": 3515,
  "▁Matt": 3516,
  "▁sebagaya": 3517,
  "dis": 3518,
  "eri": 3519,
  "onni": 3520,
  "▁KƐW": 3521,
  "▁réf": 3522,
  "▁Sinji": 3523,
  "▁honte": 3524,
  "▁lafiɲɛ": 3525,
  "▁plaisir": 3526,
  "vu": 3527,
  "▁$": 3528,
  "osé": 3529,
  "sie": 3530,
  "▁(2": 3531,
  "écri": 3532,
  "▁Fait": 3533,
  "▁MARI": 3534,
  "wɔ": 3535,
  "ura": 3536,
  "...]": 3537,
  "ALIW": 3538,
  "baro": 3539,
  "dire": 3540,
  "raign": 3541,
  "▁hami": 3542,
  "▁prie": 3543,
  "▁KƐWALIW": 3544,
  "culi": 3545,
  "baara": 3546,
  "▁assis": 3547,
  "▁résul": 3548,
  "▁--": 3549,
  "▁Ji": 3550,
  "▁Bet": 3551,
  "▁Misi": 3552,
  "▁sœurs": 3553,
  "▁annonc": 3554,
  "▁kabakuru": 3555,
  "gati": 3556,
  "illé": 3557,
  "elopp": 3558,
  "▁fond": 3559,
  "▁nata": 3560,
  "▁mêmes": 3561,
  "▁kaburu": 3562,
  "▁permet": 3563,
  "▁ensuite": 3564,
  "▁répondre": 3565,
  "lɛn": 3566,
  "medi": 3567,
  "▁yeo": 3568,
  "reuve": 3569,
  "▁bout": 3570,
  "Egypte": 3571,
  "quelle": 3572,
  "accompl": 3573,
  "▁kɔniya": 3574,
  "ènw": 3575,
  "▁sois": 3576,
  "▁yanni": 3577,
  "itement": 3578,
  "jo": 3579,
  "▁Yes": 3580,
  "▁nax": 3581,
  "bagatɔw": 3582,
  "▁demeure": 3583,
  "▁service": 3584,
  "▁safe": 3585,
  "itions": 3586,
  "▁tugunni": 3587,
  "▁particuli": 3588,
  "9.": 3589,
  "▁ɔn": 3590,
  "mini": 3591,
  "onde": 3592,
  "▁aide": 3593,
  "▁disc": 3594,
  "▁lala": 3595,
  "▁ohun": 3596,
  "▁MARIKI": 3597,
  "▁chréti": 3598,
  "▁connaiss": 3599,
  "▁ɛ": 3600,
  "semb": 3601,
  "yôrô": 3602,
  "▁mɛnna": 3603,
  "▁kɛlɛdenw": 3604,
  "endez": 3605,
  "▁autant": 3606,
  "▁Nin": 3607,
  "▁kaam": 3608,
  "tigiya": 3609,
  "▁ɲamɔgɔw": 3610,
  ":)": 3611,
  "IL": 3612,
  "uie": 3613,
  "▁tere": 3614,
  "▁Esprit": 3615,
  "lô": 3616,
  "▁liv": 3617,
  ".....": 3618,
  "teurs": 3619,
  "ɔrɔnya": 3620,
  "▁nɛɛma": 3621,
  "éro": 3622,
  "▁mii": 3623,
  "▁try": 3624,
  "▁yala": 3625,
  "▁voici": 3626,
  "▁jumanw": 3627,
  ":17": 3628,
  "réci": 3629,
  "▁“": 3630,
  "usé": 3631,
  "▁Vo": 3632,
  "aran": 3633,
  "buru": 3634,
  "▁free": 3635,
  "▁condam": 3636,
  "▁mesure": 3637,
  "▁immédiatement": 3638,
  "ret": 3639,
  "lons": 3640,
  "▁dest": 3641,
  "▁pous": 3642,
  "▁farikolo": 3643,
  "▁aa": 3644,
  "ires": 3645,
  "▁tent": 3646,
  "érance": 3647,
  "▁Sutana": 3648,
  "▁daminè": 3649,
  "▁jugement": 3650,
  "▁laquelle": 3651,
  "ctu": 3652,
  "mas": 3653,
  "orde": 3654,
  "▁Jour": 3655,
  "▁LOVE": 3656,
  "▁serv": 3657,
  "▁région": 3658,
  "▁voulait": 3659,
  "elligence": 3660,
  "▁kanubagaw": 3661,
  "tez": 3662,
  "▁it": 3663,
  "òròn": 3664,
  "▁!!!": 3665,
  "▁lou": 3666,
  "blème": 3667,
  "ɲɛntɔ": 3668,
  "▁leva": 3669,
  "▁dormir": 3670,
  "▁dafanin": 3671,
  "image": 3672,
  "▁duba": 3673,
  "▁autour": 3674,
  "▁appelés": 3675,
  "▁198": 3676,
  "▁1:2": 3677,
  "▁mɔn": 3678,
  "▁yin": 3679,
  "▁poser": 3680,
  "▁habitants": 3681,
  "▁mot": 3682,
  "▁rois": 3683,
  "▁escla": 3684,
  "oyez": 3685,
  "▁Dis": 3686,
  "▁lettre": 3687,
  "▁saints": 3688,
  "▁han": 3689,
  "▁four": 3690,
  "▁kôrô": 3691,
  "▁port": 3692,
  "▁voit": 3693,
  "enseignement": 3694,
  "arrê": 3695,
  "▁allé": 3696,
  "▁méch": 3697,
  "▁lɔnin": 3698,
  "▁Mariya": 3699,
  "▁contraire": 3700,
  "Et": 3701,
  "mons": 3702,
  "▁niin": 3703,
  "▁Matth": 3704,
  "▁Toute": 3705,
  "▁sauvé": 3706,
  "▁commun": 3707,
  "▁kitabu": 3708,
  "appelait": 3709,
  "urrection": 3710,
  "oura": 3711,
  "▁lim": 3712,
  "▁mèn": 3713,
  "▁sub": 3714,
  "▁tin": 3715,
  "▁tris": 3716,
  "▁manif": 3717,
  "▁animaux": 3718,
  "▁Matthieu": 3719,
  "IR": 3720,
  "Cɛɛ": 3721,
  "lam": 3722,
  "sin": 3723,
  "▁ras": 3724,
  "▁kwla": 3725,
  "ude": 3726,
  "énè": 3727,
  "▁Dan": 3728,
  "▁balo": 3729,
  "▁cham": 3730,
  "▁kɔgɔ": 3731,
  "▁prêt": 3732,
  "▁sama": 3733,
  "▁Terre": 3734,
  "▁entier": 3735,
  "▁membres": 3736,
  "▁yoro": 3737,
  "▁kɔsegira": 3738,
  "▁wolomanin": 3739,
  "lò": 3740,
  "isiw": 3741,
  "Sisan": 3742,
  "▁2017": 3743,
  "▁arrê": 3744,
  "▁plan": 3745,
  "▁sran": 3746,
  "▁écri": 3747,
  "▁begɛn": 3748,
  "▁Galile": 3749,
  "▁village": 3750,
  "▁oh": 3751,
  "▁nim": 3752,
  "▁oubli": 3753,
  "▁parta": 3754,
  "EN": 3755,
  "▁joo": 3756,
  "mation": 3757,
  "▁savais": 3758,
  "asy": 3759,
  "▁ZAN": 3760,
  "▁dimanche": 3761,
  "▁problème": 3762,
  "dan": 3763,
  "Mais": 3764,
  "▁[...]": 3765,
  "▁baden": 3766,
  "▁nature": 3767,
  "▁naissance": 3768,
  ":6": 3769,
  "asion": 3770,
  "▁enti": 3771,
  "▁pres": 3772,
  "▁règne": 3773,
  "▁devenu": 3774,
  "tɛ": 3775,
  "orté": 3776,
  "yana": 3777,
  "▁taba": 3778,
  "▁minan": 3779,
  "▁nzila": 3780,
  "▁trent": 3781,
  "duction": 3782,
  "▁Ɲanmiɛn": 3783,
  "▁convient": 3784,
  "kɔli": 3785,
  "▁ari": 3786,
  "▁gen": 3787,
  "▁pati": 3788,
  "▁consul": 3789,
  "▁sigira": 3790,
  "tun": 3791,
  "orer": 3792,
  "teau": 3793,
  "▁ɲɛɛ": 3794,
  "▁Mali": 3795,
  "▁dije": 3796,
  "aurais": 3797,
  "▁Zoova": 3798,
  "▁nouvelles": 3799,
  "soci": 3800,
  "vier": 3801,
  "▁tué": 3802,
  "▁aimer": 3803,
  "▁chant": 3804,
  "▁kɔrɔbɔ": 3805,
  "▁familles": 3806,
  "▁ʻ": 3807,
  "▁kɑ": 3808,
  "▁suff": 3809,
  "▁choix": 3810,
  "▁dannaya": 3811,
  "▁Ci": 3812,
  "▁Cana": 3813,
  "▁créa": 3814,
  "▁galon": 3815,
  "sigi": 3816,
  "▁bɔnɛ": 3817,
  "▁douze": 3818,
  "▁salut": 3819,
  "▁fiɲɛntɔ": 3820,
  "wan": 3821,
  "gnan": 3822,
  "▁jin": 3823,
  "yanin": 3824,
  "▁ɲinɛ": 3825,
  "MA": 3826,
  "indre": 3827,
  "▁kafe": 3828,
  "▁aimez": 3829,
  "▁entra": 3830,
  "▁craign": 3831,
  "▁produit": 3832,
  "▁bin": 3833,
  "▁kid": 3834,
  "école": 3835,
  "▁baro": 3836,
  "▁bles": 3837,
  "▁kale": 3838,
  "▁karan": 3839,
  "énèbres": 3840,
  "▁demand": 3841,
  "lés": 3842,
  "élè": 3843,
  "yasi": 3844,
  "▁âgé": 3845,
  "▁jɛnkulu": 3846,
  "▁reconna": 3847,
  "arr": 3848,
  "nago": 3849,
  "vantage": 3850,
  "▁Quelle": 3851,
  "intérieur": 3852,
  "▁baptisés": 3853,
  "bas": 3854,
  "ctes": 3855,
  "eter": 3856,
  "fari": 3857,
  "▁law": 3858,
  "▁bord": 3859,
  "années": 3860,
  "Unis": 3861,
  "ayer": 3862,
  "▁Galil": 3863,
  "▁vêtements": 3864,
  "▁;": 3865,
  "dɛn": 3866,
  "raw": 3867,
  "▁Bon": 3868,
  "▁Isa": 3869,
  "cture": 3870,
  "orité": 3871,
  "ussit": 3872,
  "▁diri": 3873,
  "▁lève": 3874,
  "▁davantage": 3875,
  "Ale": 3876,
  "▁Là": 3877,
  "enya": 3878,
  "esti": 3879,
  "▁chev": 3880,
  "▁Dɔɔni": 3881,
  "▁marche": 3882,
  "yɛrɛ": 3883,
  "épée": 3884,
  "▁bhi": 3885,
  "▁fal": 3886,
  "▁arti": 3887,
  "▁good": 3888,
  "▁lati": 3889,
  "▁répondu": 3890,
  "xe": 3891,
  "▁rô": 3892,
  "▁création": 3893,
  "▁fɔlɔfɔlɔ": 3894,
  "▁ténèbres": 3895,
  "yɛlɛ": 3896,
  "▁baji": 3897,
  "ɲɔgɔnw": 3898,
  "▁change": 3899,
  "▁synago": 3900,
  "▁travailler": 3901,
  ":10": 3902,
  "▁ang": 3903,
  "conque": 3904,
  "origine": 3905,
  "crit": 3906,
  "▁nak": 3907,
  "▁soci": 3908,
  "▁kɔnɔna": 3909,
  "▁connaissent": 3910,
  "▁Ô": 3911,
  "sons": 3912,
  "▁prit": 3913,
  "▁révé": 3914,
  "▁prier": 3915,
  "▁resté": 3916,
  "▁pouvais": 3917,
  "▁tɛmɛnin": 3918,
  "aba": 3919,
  "guè": 3920,
  "▁Lé": 3921,
  "gers": 3922,
  "lili": 3923,
  "▁boo": 3924,
  "▁soi": 3925,
  "▁yee": 3926,
  "▁dabi": 3927,
  "▁déli": 3928,
  "excuse": 3929,
  "▁Satan": 3930,
  "▁suivant": 3931,
  "ute": 3932,
  "▁bro": 3933,
  "▁maa": 3934,
  "vangile": 3935,
  "▁duniɲa": 3936,
  "▁simplement": 3937,
  "ilɛ": 3938,
  "fiés": 3939,
  "zare": 3940,
  "▁cal": 3941,
  "▁fen": 3942,
  "▁iru": 3943,
  "épreuve": 3944,
  "▁preuve": 3945,
  "pr": 3946,
  "xt": 3947,
  "▁Yu": 3948,
  "▁occ": 3949,
  "▁piè": 3950,
  "▁Fili": 3951,
  "▁Rome": 3952,
  "▁senuman": 3953,
  "▁Aimez": 3954,
  "▁pitié": 3955,
  "▁tombe": 3956,
  "▁proche": 3957,
  "▁différentes": 3958,
  "faga": 3959,
  "lati": 3960,
  "rière": 3961,
  "▁détru": 3962,
  "enfants": 3963,
  "▁quelle": 3964,
  "▁mɔgɔtilennin": 3965,
  "bon": 3966,
  "▁fai": 3967,
  "▁woo": 3968,
  "istes": 3969,
  "▁mila": 3970,
  "▁week": 3971,
  "▁recherche": 3972,
  "1.": 3973,
  "bee": 3974,
  "▁zi": 3975,
  "▁Toi": 3976,
  "Homme": 3977,
  "eligi": 3978,
  "tembre": 3979,
  "▁Jamana": 3980,
  "umanbolo": 3981,
  "▁lajɛnnin": 3982,
  "OU": 3983,
  "▁2-": 3984,
  "▁kanw": 3985,
  "Église": 3986,
  "▁disent": 3987,
  "▁lookin": 3988,
  "▁faisons": 3989,
  "▁waajuli": 3990,
  "▁témoigna": 3991,
  "gné": 3992,
  "mèn": 3993,
  "▁exac": 3994,
  "▁laba": 3995,
  "▁prix": 3996,
  "lément": 3997,
  "▁caman": 3998,
  "▁demain": 3999,
  "▁respec": 4000,
  "▁kongokolon": 4001,
  "ed": 4002,
  "ède": 4003,
  "▁7.": 4004,
  "quel": 4005,
  "▁maladie": 4006,
  "10": 4007,
  "Le": 4008,
  "gè": 4009,
  "zar": 4010,
  "éré": 4011,
  "fier": 4012,
  "écou": 4013,
  "▁bus": 4014,
  "escla": 4015,
  "▁tôgô": 4016,
  "▁appar": 4017,
  "▁duguw": 4018,
  "▁rendu": 4019,
  "▁désert": 4020,
  "▁Beaucoup": 4021,
  "▁abandonné": 4022,
  "▁juge": 4023,
  "▁yòrò": 4024,
  "rement": 4025,
  "inement": 4026,
  "impression": 4027,
  "▁Ri": 4028,
  "▁croy": 4029,
  "▁vidé": 4030,
  "▁ninnu": 4031,
  "▁États": 4032,
  "ell": 4033,
  "inf": 4034,
  "étu": 4035,
  "onnés": 4036,
  "▁nama": 4037,
  "▁chair": 4038,
  "▁permis": 4039,
  "▁utiliser": 4040,
  "▁important": 4041,
  "ales": 4042,
  "▁Ver": 4043,
  "▁may": 4044,
  "illet": 4045,
  "▁9:27": 4046,
  "▁Miis": 4047,
  "▁Minw": 4048,
  "▁croient": 4049,
  "▁commencement": 4050,
  "?›": 4051,
  "▁Co": 4052,
  "alan": 4053,
  "▁tol": 4054,
  "quent": 4055,
  "▁fuun": 4056,
  "▁post": 4057,
  "▁forme": 4058,
  "▁verre": 4059,
  "▁Walima": 4060,
  "▁arriver": 4061,
  "Ar": 4062,
  "aise": 4063,
  "▁Abi": 4064,
  "▁stu": 4065,
  "▁prob": 4066,
  "▁naloman": 4067,
  "▁taamasiɲɛ": 4068,
  "▁cir": 4069,
  "▁inf": 4070,
  "▁caya": 4071,
  "▁tuun": 4072,
  "▁accep": 4073,
  "▁pères": 4074,
  "▁MiisKa": 4075,
  "▁riches": 4076,
  "▁anciens": 4077,
  "vis": 4078,
  "▁sta": 4079,
  "▁Lorsqu": 4080,
  "▁sac": 4081,
  "erres": 4082,
  "onnez": 4083,
  "▁Timo": 4084,
  "▁médi": 4085,
  "▁signe": 4086,
  "▁êtres": 4087,
  "honneur": 4088,
  "érience": 4089,
  "▁miiran": 4090,
  "▁kumakan": 4091,
  "▁viendra": 4092,
  "jus": 4093,
  "▁Dé": 4094,
  "ctif": 4095,
  "gner": 4096,
  "▁bru": 4097,
  "▁tex": 4098,
  "▁ɲɛn": 4099,
  "▁denmis": 4100,
  ":7": 4101,
  "▁#": 4102,
  "▁Oh": 4103,
  "équi": 4104,
  "ination": 4105,
  "▁accord": 4106,
  "▁kalifa": 4107,
  "▁niyɔrɔ": 4108,
  "▁particip": 4109,
  "ƐN": 4110,
  "euf": 4111,
  "▁taw": 4112,
  "itigɛ": 4113,
  "▁FƆLƆ": 4114,
  "▁yera": 4115,
  "dio": 4116,
  "foni": 4117,
  "▁Mal": 4118,
  "▁naan": 4119,
  "▁tɛrɛ": 4120,
  "▁peine": 4121,
  "▁laisse": 4122,
  "▁pierre": 4123,
  "▁trente": 4124,
  "▁murujan": 4125,
  "▁développ": 4126,
  "▁Gu": 4127,
  "▁Jus": 4128,
  "▁tau": 4129,
  "▁tel": 4130,
  "▁2013": 4131,
  "▁numé": 4132,
  "cience": 4133,
  "univers": 4134,
  "ussitôt": 4135,
  "▁foroba": 4136,
  "hn": 4137,
  "wɛ": 4138,
  "ɲi": 4139,
  "sui": 4140,
  "tit": 4141,
  "▁is": 4142,
  "chée": 4143,
  "▁Mògò": 4144,
  "▁invit": 4145,
  "▁bonnes": 4146,
  "▁manifest": 4147,
  "▁el": 4148,
  "dafɛ": 4149,
  "onnon": 4150,
  "▁blan": 4151,
  "dessus": 4152,
  "▁frapp": 4153,
  "▁sauve": 4154,
  "▁Religi": 4155,
  "▁laissé": 4156,
  "▁prières": 4157,
  "dou": 4158,
  "▁Jon": 4159,
  "ansan": 4160,
  "ongon": 4161,
  "waati": 4162,
  "▁soow": 4163,
  "▁yere": 4164,
  "▁profond": 4165,
  "▁commande": 4166,
  "aac": 4167,
  "abɔ": 4168,
  "ages": 4169,
  "midi": 4170,
  "▁age": 4171,
  "▁cam": 4172,
  "armée": 4173,
  "▁Ceci": 4174,
  "▁yeri": 4175,
  "▁Mɔgɔw": 4176,
  "▁viens": 4177,
  "▁pauvre": 4178,
  "▁résurrection": 4179,
  "vie": 4180,
  "▁2\"": 4181,
  "▁mɔ̀": 4182,
  "▁âme": 4183,
  "▁gros": 4184,
  "▁ladi": 4185,
  "▁meilleur": 4186,
  "▁recevoir": 4187,
  "pit": 4188,
  "▁Yo": 4189,
  "▁Bɛɛ": 4190,
  "▁fèn": 4191,
  "▁vas": 4192,
  "▁amour": 4193,
  "▁sanin": 4194,
  "▁conséqu": 4195,
  "▁pé": 4196,
  "titu": 4197,
  "iriya": 4198,
  "▁Même": 4199,
  "▁malɔ": 4200,
  "inalement": 4201,
  "▁Mariyamu": 4202,
  "mm": 4203,
  "xɔ": 4204,
  "ɔbu": 4205,
  "▁bɑ": 4206,
  "érie": 4207,
  "▁Tra": 4208,
  "▁bina": 4209,
  "▁yigi": 4210,
  "▁coeur": 4211,
  "▁kɔnna": 4212,
  "▁projet": 4213,
  "▁djamana": 4214,
  "▁kabakoyara": 4215,
  "bara": 4216,
  "usun": 4217,
  "▁mul": 4218,
  "▁mina": 4219,
  "▁tari": 4220,
  "matama": 4221,
  "▁nahana": 4222,
  "▁kunbiri": 4223,
  "▁Namatama": 4224,
  "▁rencontre": 4225,
  "▁6.": 4226,
  "▁ori": 4227,
  "▁yɛɛ": 4228,
  "mains": 4229,
  "▁tuer": 4230,
  "▁pleure": 4231,
  "onnement": 4232,
  "▁devrait": 4233,
  "▁septembre": 4234,
  "daw": 4235,
  "yɛn": 4236,
  "enons": 4237,
  "isent": 4238,
  "▁biin": 4239,
  "▁Kiris": 4240,
  "▁hɛɛrɛ": 4241,
  "▁ɲumanya": 4242,
  ":14": 4243,
  "gali": 4244,
  "▁blog": 4245,
  "▁nili": 4246,
  "▁crainte": 4247,
  "asig": 4248,
  "▁Awa": 4249,
  "▁Deux": 4250,
  "▁lana": 4251,
  "▁erreur": 4252,
  "▁sunɔgɔ": 4253,
  "▁respons": 4254,
  "▁barikaman": 4255,
  "▁kɔrɔtɔnin": 4256,
  "fô": 4257,
  "▁Ju": 4258,
  "▁eh": 4259,
  "...\"": 4260,
  "▁Cet": 4261,
  "Adama": 4262,
  "ations": 4263,
  "▁daminɛtuma": 4264,
  "ecti": 4265,
  "arizi": 4266,
  "istre": 4267,
  "▁succ": 4268,
  "▁voyez": 4269,
  "▁kɛcogo": 4270,
  "▁voulez": 4271,
  "▁voyage": 4272,
  "▁compagn": 4273,
  "▁efforts": 4274,
  ":18": 4275,
  "git": 4276,
  "léch": 4277,
  "para": 4278,
  "ribu": 4279,
  "▁LOL": 4280,
  "▁Temple": 4281,
  "▁rapport": 4282,
  "del": 4283,
  "ises": 4284,
  "▁veo": 4285,
  "▁cara": 4286,
  "▁noon": 4287,
  "▁tchè": 4288,
  "▁tunu": 4289,
  "▁faama": 4290,
  "▁tenir": 4291,
  "▁bolola": 4292,
  "▁kɔrɔcɛ": 4293,
  "▁wolobagaw": 4294,
  "oli": 4295,
  "▁Zo": 4296,
  "▁sọ": 4297,
  "foro": 4298,
  "▁Sau": 4299,
  "kohun": 4300,
  "▁cess": 4301,
  "▁Galilée": 4302,
  "▁devenir": 4303,
  "▁ohunkohun": 4304,
  "Am": 4305,
  "▁·": 4306,
  "Nin": 4307,
  "▁SA": 4308,
  "jana": 4309,
  "▁fur": 4310,
  "▁luu": 4311,
  "▁Fura": 4312,
  "▁senu": 4313,
  "▁Salom": 4314,
  "▁mangé": 4315,
  "ensemble": 4316,
  "▁Sur": 4317,
  "▁ama": 4318,
  "▁brû": 4319,
  "▁kɔɔ": 4320,
  "▁tii": 4321,
  "iritu": 4322,
  "rions": 4323,
  "▁kɛnɛyara": 4324,
  "IN": 4325,
  "ɑ̃": 4326,
  "gré": 4327,
  "yaw": 4328,
  "▁lô": 4329,
  "▁nk": 4330,
  "▁Ali": 4331,
  "▁tor": 4332,
  "▁Marc": 4333,
  "▁bugɔ": 4334,
  "▁sein": 4335,
  "▁siga": 4336,
  "▁jugak": 4337,
  "▁allait": 4338,
  "▁certain": 4339,
  "nés": 4340,
  "▁Bé": 4341,
  "bele": 4342,
  "bugu": 4343,
  "lace": 4344,
  "▁éch": 4345,
  "ennes": 4346,
  "▁trés": 4347,
  "intelligence": 4348,
  "oon": 4349,
  "oyi": 4350,
  "▁<3": 4351,
  "ganin": 4352,
  "▁Adam": 4353,
  "cembre": 4354,
  "▁nɔɔrɔ": 4355,
  "▁tota": 4356,
  "▁faite": 4357,
  "▁pɛrɛnna": 4358,
  "▁pharisiens": 4359,
  "▁hi": 4360,
  "dait": 4361,
  "▁NOB": 4362,
  "▁abs": 4363,
  "▁cool": 4364,
  "▁Tiɲɛn": 4365,
  "▁Yahut": 4366,
  "▁looru": 4367,
  "▁repos": 4368,
  "▁Setigi": 4369,
  "▁sembla": 4370,
  "▁maisons": 4371,
  "▁retrouv": 4372,
  "▁chercher": 4373,
  "!!!": 4374,
  "ath": 4375,
  "trg": 4376,
  "uns": 4377,
  "asin": 4378,
  "▁gna": 4379,
  "gique": 4380,
  "▁jard": 4381,
  "▁size": 4382,
  "asiran": 4383,
  "▁Salomon": 4384,
  "▁connaît": 4385,
  "▁grandes": 4386,
  "▁Ben": 4387,
  "esses": 4388,
  "sionn": 4389,
  "▁tilen": 4390,
  "▁firent": 4391,
  "▁sommeil": 4392,
  "▁yɛrɛyɛrɛ": 4393,
  "▁consulter": 4394,
  "upart": 4395,
  "▁Cons": 4396,
  "▁koun": 4397,
  "▁ɲèna": 4398,
  "▁moyen": 4399,
  "▁Kanaan": 4400,
  "▁second": 4401,
  "▁plupart": 4402,
  "▁Za": 4403,
  "attend": 4404,
  "illent": 4405,
  "▁meurt": 4406,
  "ariziɲɛ": 4407,
  "▁lɔyɔrɔ": 4408,
  "▁seconde": 4409,
  "kalasebagaw": 4410,
  "pon": 4411,
  "cool": 4412,
  "euve": 4413,
  "irin": 4414,
  "▁jɛrɛ": 4415,
  "▁like": 4416,
  "cteurs": 4417,
  "▁Faites": 4418,
  "▁appelle": 4419,
  "▁semaines": 4420,
  "▁population": 4421,
  "ua": 4422,
  "ati": 4423,
  "ɔsi": 4424,
  "▁195": 4425,
  "▁wul": 4426,
  "▁2004": 4427,
  "▁lakɔli": 4428,
  "▁penser": 4429,
  ";)": 4430,
  "▁@": 4431,
  "gal": 4432,
  "kis": 4433,
  "▁1-": 4434,
  "empê": 4435,
  "▁wow": 4436,
  "▁atte": 4437,
  "▁gnan": 4438,
  "▁karo": 4439,
  "▁parc": 4440,
  "existe": 4441,
  "▁poursui": 4442,
  "▁mɔgɔbaba": 4443,
  "▁Am": 4444,
  "▁op": 4445,
  "▁kat": 4446,
  "lanan": 4447,
  "égard": 4448,
  "▁appr": 4449,
  "▁désir": 4450,
  "numanbolo": 4451,
  "▁nécessaire": 4452,
  ":23": 4453,
  "▁LE": 4454,
  "▁rê": 4455,
  "dasi": 4456,
  "▁Col": 4457,
  "▁eso": 4458,
  "human": 4459,
  "lèmes": 4460,
  "▁Samu": 4461,
  "nation": 4462,
  "▁Notre": 4463,
  "accueil": 4464,
  "▁dɔgɔcɛ": 4465,
  "▁foncti": 4466,
  "▁kasira": 4467,
  "▁déclare": 4468,
  "▁trouvait": 4469,
  "bou": 4470,
  "▁YIR": 4471,
  "▁kabi": 4472,
  "▁Vérité": 4473,
  "▁YIRALI": 4474,
  "▁%": 4475,
  "ela": 4476,
  "vin": 4477,
  "ossi": 4478,
  "siri": 4479,
  "aimes": 4480,
  "▁celles": 4481,
  "àn": 4482,
  "oit": 4483,
  "▁199": 4484,
  "▁gun": 4485,
  "▁Senu": 4486,
  "▁hago": 4487,
  "▁lama": 4488,
  "▁sooo": 4489,
  "olomani": 4490,
  "▁puisse": 4491,
  "▁tilenn": 4492,
  "▁yɛlɛla": 4493,
  "▁sariyaw": 4494,
  "espérance": 4495,
  "OL": 4496,
  "obé": 4497,
  "▁App": 4498,
  "▁cii": 4499,
  "runin": 4500,
  "▁pros": 4501,
  "▁yèlè": 4502,
  "▁Depuis": 4503,
  "▁manque": 4504,
  "▁spiritu": 4505,
  "informations": 4506,
  ".2": 4507,
  "▁ek": 4508,
  "amuse": 4509,
  "irila": 4510,
  "viter": 4511,
  "▁ceci": 4512,
  "▁lade": 4513,
  "▁lajɛ": 4514,
  "vèrent": 4515,
  "▁quant": 4516,
  "▁tunun": 4517,
  "▁images": 4518,
  "▁termin": 4519,
  "▁woloma": 4520,
  "AD": 4521,
  "ben": 4522,
  "ures": 4523,
  "▁Simon": 4524,
  "attente": 4525,
  "▁ɲɛnabɔ": 4526,
  "▁problèmes": 4527,
  "▁lég": 4528,
  "▁déta": 4529,
  "▁lagu": 4530,
  "▁nord": 4531,
  "▁vite": 4532,
  "adress": 4533,
  "ankolo": 4534,
  "▁ladon": 4535,
  "▁organ": 4536,
  "▁changé": 4537,
  "▁pourra": 4538,
  "▁Romains": 4539,
  "▁conseils": 4540,
  "▁derniers": 4541,
  "▁histoire": 4542,
  "▁réponses": 4543,
  "ɛl": 4544,
  "reux": 4545,
  "▁100": 4546,
  "▁atta": 4547,
  "▁bugu": 4548,
  "▁devi": 4549,
  "▁sèbè": 4550,
  "assemb": 4551,
  "▁décidé": 4552,
  "▁jukɔrɔ": 4553,
  "▁saniya": 4554,
  "▁suivre": 4555,
  "▁arijana": 4556,
  "Tu": 4557,
  "▁ɡ": 4558,
  "Min": 4559,
  "gez": 4560,
  "▁vé": 4561,
  "Pour": 4562,
  "▁Eze": 4563,
  "▁aww": 4564,
  "▁idée": 4565,
  "▁croit": 4566,
  "▁matigi": 4567,
  "xu": 4568,
  "abs": 4569,
  "gir": 4570,
  "lou": 4571,
  "▁ty": 4572,
  "Nous": 4573,
  "▁18-": 4574,
  "▁bir": 4575,
  "▁sud": 4576,
  "▁kogo": 4577,
  "entend": 4578,
  "instant": 4579,
  "▁réussi": 4580,
  "▁ɲagami": 4581,
  "▁période": 4582,
  "apprendre": 4583,
  "▁concerne": 4584,
  "▁sarakalasebaga": 4585,
  ":13": 4586,
  "ton": 4587,
  "baaw": 4588,
  "▁jun": 4589,
  "▁laf": 4590,
  "recɛn": 4591,
  "▁obser": 4592,
  "▁vérit": 4593,
  "▁ɲafan": 4594,
  "▁mankan": 4595,
  "▁voient": 4596,
  "inquiète": 4597,
  "▁capable": 4598,
  "oût": 4599,
  "indi": 4600,
  "tala": 4601,
  "▁Àyi": 4602,
  "▁film": 4603,
  "▁franç": 4604,
  "▁source": 4605,
  "▁daalili": 4606,
  "can": 4607,
  "ets": 4608,
  "maw": 4609,
  "idée": 4610,
  "▁Cha": 4611,
  "▁aye": 4612,
  "▁fɛ̀": 4613,
  "ombre": 4614,
  "▁Pila": 4615,
  "▁remar": 4616,
  "ɲɔgɔnya": 4617,
  "▁kuntigiya": 4618,
  "val": 4619,
  "▁oo": 4620,
  "▁bén": 4621,
  "▁chau": 4622,
  "▁vide": 4623,
  "Eglise": 4624,
  "▁pluie": 4625,
  "ordieux": 4626,
  "▁Kibaru": 4627,
  "▁fantan": 4628,
  "▁numéro": 4629,
  "▁certaines": 4630,
  "hé": 4631,
  "▁51": 4632,
  "▁él": 4633,
  "▁demi": 4634,
  "▁tèna": 4635,
  "▁lende": 4636,
  "▁diinan": 4637,
  "▁premiers": 4638,
  "▁souffrance": 4639,
  "▁rév": 4640,
  "▁ache": 4641,
  "▁kasa": 4642,
  "▁allez": 4643,
  "▁super": 4644,
  "intention": 4645,
  "▁balimamuso": 4646,
  "▁Yɔrɔ": 4647,
  "frique": 4648,
  "élites": 4649,
  "▁Gusun": 4650,
  "▁Seere": 4651,
  "▁dakun": 4652,
  "▁resse": 4653,
  "▁tagar": 4654,
  "▁durant": 4655,
  "▁nimisa": 4656,
  "▁wolola": 4657,
  "▁kititigɛ": 4658,
  "▁lendemain": 4659,
  "mme": 4660,
  "ɛri": 4661,
  "▁1,": 4662,
  "▁Sud": 4663,
  "▁koba": 4664,
  "▁tulu": 4665,
  "▁tɔɔw": 4666,
  "▁Heure": 4667,
  "▁venue": 4668,
  "▁étudi": 4669,
  "▁bɛnnin": 4670,
  "▁politi": 4671,
  "▁informa": 4672,
  "attention": 4673,
  "▁mɔgɔkɔrɔbaw": 4674,
  "14": 4675,
  "ŋo": 4676,
  "meri": 4677,
  "▁mor": 4678,
  "étant": 4679,
  "▁Gran": 4680,
  "▁fini": 4681,
  "▁maan": 4682,
  "bilité": 4683,
  "entrée": 4684,
  "▁puiss": 4685,
  "cations": 4686,
  "▁datugu": 4687,
  "versaire": 4688,
  "amin": 4689,
  "▁bre": 4690,
  "▁fix": 4691,
  "▁ferme": 4692,
  "▁cogoya": 4693,
  "lication": 4694,
  "▁SE": 4695,
  "▁hé": 4696,
  "envoy": 4697,
  "▁ange": 4698,
  "▁kind": 4699,
  "▁recom": 4700,
  "▁capita": 4701,
  "▁dispos": 4702,
  "▁musique": 4703,
  ":20": 4704,
  "ned": 4705,
  "fila": 4706,
  "▁fév": 4707,
  "▁nyo": 4708,
  "graph": 4709,
  "▁trad": 4710,
  "▁kolon": 4711,
  "▁lesqu": 4712,
  "▁valeur": 4713,
  "▁pratique": 4714,
  "▁baarakɛla": 4715,
  "information": 4716,
  "OR": 4717,
  "sɛn": 4718,
  "▁gé": 4719,
  "lant": 4720,
  "père": 4721,
  "▁empê": 4722,
  "▁feel": 4723,
  "▁parv": 4724,
  "▁Verse": 4725,
  "▁appro": 4726,
  "▁feere": 4727,
  "▁fagara": 4728,
  "▁garçon": 4729,
  "▁ressuscité": 4730,
  "].": 4731,
  "ral": 4732,
  "▁Bu": 4733,
  "kalo": 4734,
  "mand": 4735,
  "▁Ani": 4736,
  "▁Far": 4737,
  "▁Mùn": 4738,
  "▁cer": 4739,
  "▁hala": 4740,
  "gation": 4741,
  "▁baasi": 4742,
  "▁filɛli": 4743,
  "occasion": 4744,
  "hen": 4745,
  "▁kn": 4746,
  "ongo": 4747,
  "ayant": 4748,
  "prise": 4749,
  "étran": 4750,
  "▁Judée": 4751,
  "▁affir": 4752,
  "▁kɔrɔn": 4753,
  "▁montre": 4754,
  "▁tandis": 4755,
  "▁kerecɛn": 4756,
  "▁peuples": 4757,
  "Isirayɛli": 4758,
  "cté": 4759,
  "▁Fɔ": 4760,
  "▁Jan": 4761,
  "▁eur": 4762,
  "▁wɛ̃": 4763,
  "accep": 4764,
  "ilipp": 4765,
  "▁seli": 4766,
  "▁tcha": 4767,
  "▁tomb": 4768,
  "▁Actes": 4769,
  "▁jigin": 4770,
  "▁taara": 4771,
  "▁tromp": 4772,
  "▁venus": 4773,
  "▁semble": 4774,
  "▁retourn": 4775,
  "▁témoignage": 4776,
  ":8": 4777,
  "ic": 4778,
  "bia": 4779,
  "èse": 4780,
  "▁apô": 4781,
  "▁folo": 4782,
  "▁fɔta": 4783,
  "▁minè": 4784,
  "▁état": 4785,
  "époque": 4786,
  "▁duguma": 4787,
  "▁mourut": 4788,
  "▁écoute": 4789,
  "hs": 4790,
  "▁ik": 4791,
  "▁Noé": 4792,
  "▁ole": 4793,
  "▁proc": 4794,
  "▁suru": 4795,
  "▁togo": 4796,
  "▁attend": 4797,
  "▁masòrò": 4798,
  "▁portes": 4799,
  "▁parties": 4800,
  "cée": 4801,
  "phone": 4802,
  "▁table": 4803,
  "▁prends": 4804,
  "--": 4805,
  "▁Vi": 4806,
  "rées": 4807,
  "œuvre": 4808,
  "▁alla": 4809,
  "▁test": 4810,
  "arrivée": 4811,
  "▁kɛlɛkɛ": 4812,
  "▁communi": 4813,
  "▁dernière": 4814,
  "▁enseigne": 4815,
  "hh": 4816,
  "nè": 4817,
  "ged": 4818,
  "▁em": 4819,
  "▁Dugu": 4820,
  "▁lire": 4821,
  "▁otro": 4822,
  "occupe": 4823,
  "▁nuits": 4824,
  "▁dencɛw": 4825,
  "fication": 4826,
  "▁Certaines": 4827,
  "La": 4828,
  "ry": 4829,
  "ɑɑ": 4830,
  "ami": 4831,
  "▁52": 4832,
  "▁Ku": 4833,
  "▁Nba": 4834,
  "▁big": 4835,
  "▁Zude": 4836,
  "▁baga": 4837,
  "▁huit": 4838,
  "isions": 4839,
  "liquer": 4840,
  "article": 4841,
  "▁livres": 4842,
  "▁pardon": 4843,
  "▁œuvres": 4844,
  "▁différents": 4845,
  "In": 4846,
  "ito": 4847,
  "Jama": 4848,
  "▁Tro": 4849,
  "▁wèrè": 4850,
  "▁ligne": 4851,
  "▁possi": 4852,
  "▁bɔnsɔn": 4853,
  ",...": 4854,
  "ilen": 4855,
  "port": 4856,
  "▁fɔla": 4857,
  "▁yari": 4858,
  "▁yɛle": 4859,
  "▁Laban": 4860,
  "▁biens": 4861,
  "▁daman": 4862,
  "▁dites": 4863,
  "▁satis": 4864,
  "▁souri": 4865,
  "enseign": 4866,
  "▁épouse": 4867,
  "▁Ensuite": 4868,
  "no": 4869,
  "▁oise": 4870,
  "▁visa": 4871,
  "▁forte": 4872,
  "▁respect": 4873,
  "àa": 4874,
  "yaka": 4875,
  "▁tre": 4876,
  "▁mérit": 4877,
  "▁prépar": 4878,
  "▁parlait": 4879,
  "▁solution": 4880,
  "ima": 4881,
  "▁nò": 4882,
  "lair": 4883,
  "zari": 4884,
  "▁wor": 4885,
  "▁hier": 4886,
  "▁photo": 4887,
  "▁charge": 4888,
  "▁pensez": 4889,
  "▁Adamaden": 4890,
  "▁présence": 4891,
  "▁ŋa": 4892,
  "énom": 4893,
  "▁cre": 4894,
  "abini": 4895,
  "araon": 4896,
  "▁sair": 4897,
  "▁yara": 4898,
  "▁Maria": 4899,
  "▁Soyez": 4900,
  "▁donko": 4901,
  "▁maana": 4902,
  "▁jardin": 4903,
  "▁ɲagali": 4904,
  "▁lɔgɔkun": 4905,
  "▁présente": 4906,
  "fen": 4907,
  "hou": 4908,
  "taa": 4909,
  "ɔru": 4910,
  "▁ow": 4911,
  "▁bori": 4912,
  "▁date": 4913,
  "▁roya": 4914,
  "▁kônôn": 4915,
  "▁kɛnin": 4916,
  "▁minni": 4917,
  "▁décédé": 4918,
  "▁sairly": 4919,
  "▁endroit": 4920,
  "▁promesse": 4921,
  "▁cɛkɔrɔbaw": 4922,
  "▁représent": 4923,
  "awo": 4924,
  "ɛmɛ": 4925,
  "dili": 4926,
  "vage": 4927,
  "▁séc": 4928,
  "vites": 4929,
  "▁bɔna": 4930,
  "▁cira": 4931,
  "▁dons": 4932,
  "▁vote": 4933,
  "▁pensé": 4934,
  "▁prêts": 4935,
  "▁kiraya": 4936,
  "humanité": 4937,
  "▁fallait": 4938,
  "▁Israélites": 4939,
  "sc": 4940,
  "▁+": 4941,
  "▁53": 4942,
  "▁sus": 4943,
  "▁2014": 4944,
  "▁Levi": 4945,
  "▁kora": 4946,
  "action": 4947,
  "blement": 4948,
  "ération": 4949,
  "▁kibaro": 4950,
  "IG": 4951,
  "oti": 4952,
  "veau": 4953,
  "▁bri": 4954,
  "▁haï": 4955,
  "▁kii": 4956,
  "▁laa": 4957,
  "▁élé": 4958,
  "▁book": 4959,
  "▁dess": 4960,
  "▁juin": 4961,
  "▁janvier": 4962,
  "__": 4963,
  ":25": 4964,
  "gil": 4965,
  "koo": 4966,
  "kaba": 4967,
  "▁Ele": 4968,
  "▁Zon": 4969,
  "ement": 4970,
  "expri": 4971,
  "fique": 4972,
  "▁Tiga": 4973,
  "▁kèlè": 4974,
  "▁syst": 4975,
  "▁colle": 4976,
  "▁œuvre": 4977,
  "ectivement": 4978,
  "▁surunyana": 4979,
  "cho": 4980,
  "low": 4981,
  "ìla": 4982,
  "Dugu": 4983,
  "tien": 4984,
  "oncer": 4985,
  "▁sɛnɛ": 4986,
  "▁Duman": 4987,
  "▁faniw": 4988,
  "▁masaw": 4989,
  "chèrent": 4990,
  "▁aimeras": 4991,
  "▁masasig": 4992,
  "▁Solomani": 4993,
  "▁montagnes": 4994,
  "NAN": 4995,
  "aru": 4996,
  "agne": 4997,
  "dɔmu": 4998,
  "▁ris": 4999,
  "▁Siri": 5000,
  "▁actu": 5001,
  "▁soro": 5002,
  "▁kasih": 5003,
  "▁konnon": 5004,
  "▁décembre": 5005,
  "dap": 5006,
  "éle": 5007,
  "ɲan": 5008,
  "▁jɔ": 5009,
  "▁éto": 5010,
  "isant": 5011,
  "▁hinɛ": 5012,
  "▁kule": 5013,
  "▁pare": 5014,
  "éritage": 5015,
  "▁famine": 5016,
  "▁sauvés": 5017,
  "▁gwansan": 5018,
  "▁laisser": 5019,
  "▁attendre": 5020,
  "▁seigneur": 5021,
  "▁facilement": 5022,
  ":16": 5023,
  "nes": 5024,
  "tif": 5025,
  "rité": 5026,
  "▁lut": 5027,
  "▁tôt": 5028,
  "▁tara": 5029,
  "▁durée": 5030,
  "▁lamèn": 5031,
  "▁banned": 5032,
  "▁miracles": 5033,
  "▁Toutefois": 5034,
  "50.": 5035,
  "ust": 5036,
  "▁Te": 5037,
  "atri": 5038,
  "taga": 5039,
  "▁lase": 5040,
  "▁nani": 5041,
  "mɛniya": 5042,
  "▁Regar": 5043,
  "▁kiraw": 5044,
  "▁victi": 5045,
  "▁Corint": 5046,
  "▁descendu": 5047,
  "bèn": 5048,
  "▁!!": 5049,
  "nhɔn": 5050,
  "▁Bii": 5051,
  "asser": 5052,
  "arrête": 5053,
  "taient": 5054,
  "▁Ezeki": 5055,
  "▁tèmèn": 5056,
  "interro": 5057,
  "▁points": 5058,
  "▁aussitôt": 5059,
  "iné": 5060,
  "▁of": 5061,
  "▁kɛr": 5062,
  "▁yal": 5063,
  "▁acti": 5064,
  "▁ment": 5065,
  "import": 5066,
  "▁plein": 5067,
  "▁soins": 5068,
  "▁souha": 5069,
  "diction": 5070,
  "▁masasigilan": 5071,
  "uu": 5072,
  "▁1.": 5073,
  "olée": 5074,
  "▁196": 5075,
  "▁ara": 5076,
  "▁nùn": 5077,
  "▁koko": 5078,
  "▁quar": 5079,
  "▁vaut": 5080,
  "urance": 5081,
  "▁vidéo": 5082,
  "▁récomp": 5083,
  "▁tchogo": 5084,
  "▁if": 5085,
  "huit": 5086,
  "minɛ": 5087,
  "orow": 5088,
  "▁pron": 5089,
  "endroit": 5090,
  "▁kakala": 5091,
  "▁tagged": 5092,
  "▁fagayɔrɔ": 5093,
  "▁ɲiningaliw": 5094,
  "],": 5095,
  "êt": 5096,
  "Anw": 5097,
  "ectu": 5098,
  "sara": 5099,
  "tière": 5100,
  "▁bons": 5101,
  "▁équi": 5102,
  "liance": 5103,
  "▁savent": 5104,
  "Pourquoi": 5105,
  "▁tilannin": 5106,
  "18": 5107,
  "Is": 5108,
  ":19": 5109,
  "▁%%": 5110,
  "▁ƝƐ": 5111,
  "▁miri": 5112,
  "▁choisi": 5113,
  "▁faisant": 5114,
  "▁différence": 5115,
  ":24": 5116,
  "Jɔn": 5117,
  "Koo": 5118,
  "▁dì": 5119,
  "ciles": 5120,
  "▁amen": 5121,
  "▁juma": 5122,
  "▁kèla": 5123,
  "▁murut": 5124,
  "▁cibaga": 5125,
  "▁dirige": 5126,
  "▁combien": 5127,
  "13": 5128,
  "6.": 5129,
  "lew": 5130,
  "èbè": 5131,
  "cent": 5132,
  "chés": 5133,
  "mabɔ": 5134,
  "▁Saa": 5135,
  "▁juu": 5136,
  "▁sɔs": 5137,
  "owabu": 5138,
  "tième": 5139,
  "▁rent": 5140,
  "▁soin": 5141,
  "▁tran": 5142,
  "▁Babil": 5143,
  "▁bataille": 5144,
  "▁pouvaient": 5145,
  "▁sungurunin": 5146,
  "yon": 5147,
  "▁Dou": 5148,
  "▁Yin": 5149,
  "aller": 5150,
  "▁Sina": 5151,
  "▁hors": 5152,
  "▁mout": 5153,
  "▁sɛgɛ": 5154,
  "▁texte": 5155,
  "▁kɔmɔgɔ": 5156,
  "▁Isiyaka": 5157,
  "▁Philipp": 5158,
  "gb": 5159,
  "wi": 5160,
  "▁55": 5161,
  "Sara": 5162,
  "assé": 5163,
  "▁hou": 5164,
  "▁easy": 5165,
  "▁nɛnɛ": 5166,
  "kɔrɔba": 5167,
  "église": 5168,
  "▁décéd": 5169,
  "▁proté": 5170,
  "▁siraw": 5171,
  "▁sisen": 5172,
  "▁grâces": 5173,
  "▁ɲumanw": 5174,
  "▁baarakɛlaw": 5175,
  "▁Ex": 5176,
  "ƆLƆS": 5177,
  "▁obé": 5178,
  "▁rem": 5179,
  "arbre": 5180,
  "▁rich": 5181,
  "fiques": 5182,
  "issage": 5183,
  "ouvrir": 5184,
  "▁Judas": 5185,
  "▁KƆLƆS": 5186,
  "▁mandi": 5187,
  "▁voilà": 5188,
  "▁diable": 5189,
  "▁justes": 5190,
  "▁courant": 5191,
  "▁poisson": 5192,
  "▁KƆLƆSIKAW": 5193,
  "▁mɔgɔjuguw": 5194,
  "▁gouvernement": 5195,
  "▁wà": 5196,
  "itan": 5197,
  "▁Anu": 5198,
  "▁Ara": 5199,
  "▁Pol": 5200,
  "▁dug": 5201,
  "▁flɛ": 5202,
  "▁yɛ̃": 5203,
  "▁août": 5204,
  "▁réun": 5205,
  "▁Liban": 5206,
  "▁cinqu": 5207,
  "▁fasse": 5208,
  "▁dimina": 5209,
  "▁sabati": 5210,
  "▁soumis": 5211,
  "▁nafolotigi": 5212,
  "▁thé": 5213,
  "▁yɔn": 5214,
  "titude": 5215,
  "▁dɔgɔya": 5216,
  "▁entrer": 5217,
  "Ce": 5218,
  "EUR": 5219,
  "ary": 5220,
  "osu": 5221,
  "ŋga": 5222,
  "▁El": 5223,
  "▁Té": 5224,
  "vaux": 5225,
  "▁kya": 5226,
  "▁nul": 5227,
  "berté": 5228,
  "table": 5229,
  "▁that": 5230,
  "▁morte": 5231,
  "▁sabar": 5232,
  "▁kisili": 5233,
  "▁nyɔgɔn": 5234,
  "▁Égypte": 5235,
  "▁Samarie": 5236,
  "▁kabakow": 5237,
  "▁résultats": 5238,
  "pec": 5239,
  "tho": 5240,
  "▁bèn": 5241,
  "oupes": 5242,
  "tient": 5243,
  "ttent": 5244,
  "veill": 5245,
  "resser": 5246,
  "ɔrɔnan": 5247,
  "▁telef": 5248,
  "attends": 5249,
  "▁Daniel": 5250,
  "▁Toutes": 5251,
  "▁confor": 5252,
  "▁appréci": 5253,
  "▁qualité": 5254,
  "▁reconnu": 5255,
  "▁Adamadenw": 5256,
  "▁synagogue": 5257,
  "Ai": 5258,
  "oux": 5259,
  "ône": 5260,
  "▁kh": 5261,
  "ards": 5262,
  "munin": 5263,
  "▁page": 5264,
  "▁tògò": 5265,
  "▁wara": 5266,
  "▁fɛɛrɛ": 5267,
  "▁gbɛlɛ": 5268,
  "▁impos": 5269,
  "▁plait": 5270,
  "▁tiens": 5271,
  "enaient": 5272,
  "esclave": 5273,
  "▁dibaga": 5274,
  "▁adultes": 5275,
  "▁arrivés": 5276,
  "▁rassemb": 5277,
  "▁totalement": 5278,
  "ilo": 5279,
  "babu": 5280,
  "▁197": 5281,
  "▁ndɛ": 5282,
  "▁bras": 5283,
  "▁tala": 5284,
  "Dawuda": 5285,
  "nements": 5286,
  "▁croyants": 5287,
  "dji": 5288,
  "▁Ke": 5289,
  "▁jè": 5290,
  "mais": 5291,
  "suis": 5292,
  "▁Han": 5293,
  "▁Pre": 5294,
  "▁mai": 5295,
  "▁nde": 5296,
  "Ɔnhɔn": 5297,
  "▁aveu": 5298,
  "▁type": 5299,
  "▁mondi": 5300,
  "▁naxan": 5301,
  "ènement": 5302,
  "▁begɛnw": 5303,
  "▁crains": 5304,
  "▁dugusa": 5305,
  "9-": 5306,
  "Sa": 5307,
  "Se": 5308,
  "Kara": 5309,
  "uche": 5310,
  "▁bisa": 5311,
  "▁gent": 5312,
  "▁noms": 5313,
  "▁poli": 5314,
  "▁faits": 5315,
  "▁fɔtaw": 5316,
  "▁sɔrɔn": 5317,
  "entendre": 5318,
  "▁Jacques": 5319,
  "▁kɛwaliw": 5320,
  "▁parlent": 5321,
  "21": 5322,
  "her": 5323,
  "uré": 5324,
  "▁56": 5325,
  "▁kê": 5326,
  "fait": 5327,
  "▁lat": 5328,
  "▁John": 5329,
  "alcool": 5330,
  "rances": 5331,
  "▁glori": 5332,
  "ternité": 5333,
  "▁siècle": 5334,
  "ariziɲɛw": 5335,
  "▁veulent": 5336,
  "▁attention": 5337,
  "yin": 5338,
  "▁DI": 5339,
  "cier": 5340,
  "éssé": 5341,
  "▁50/": 5342,
  "▁pur": 5343,
  "lance": 5344,
  "▁jate": 5345,
  "▁kaka": 5346,
  "▁kòni": 5347,
  "▁obli": 5348,
  "▁jaman": 5349,
  "aimerai": 5350,
  "endront": 5351,
  "▁propri": 5352,
  "paravant": 5353,
  "▁cheveux": 5354,
  "pré": 5355,
  "▁If": 5356,
  "▁Ru": 5357,
  "▁zu": 5358,
  "ting": 5359,
  "▁May": 5360,
  "▁moy": 5361,
  "euses": 5362,
  "▁Nkan": 5363,
  "▁ɲinɛna": 5364,
  "▁découver": 5365,
  "ese": 5366,
  "Hali": 5367,
  "ieur": 5368,
  "lier": 5369,
  "nant": 5370,
  "▁dii": 5371,
  "▁Souv": 5372,
  "▁camp": 5373,
  "▁ɲafɔ": 5374,
  "mérica": 5375,
  "▁Maître": 5376,
  "▁Seerew": 5377,
  "▁consta": 5378,
  "▁langage": 5379,
  "▁yɔrɔjan": 5380,
  "cie": 5381,
  "bout": 5382,
  "ninw": 5383,
  "▁sòn": 5384,
  "▁xɔn": 5385,
  "▁kowa": 5386,
  "▁souh": 5387,
  "▁tana": 5388,
  "cident": 5389,
  "▁repas": 5390,
  "▁badenw": 5391,
  "▁conser": 5392,
  "▁Yahutuw": 5393,
  "▁réalité": 5394,
  "▁seereya": 5395,
  "▁voulais": 5396,
  "▁tigitigi": 5397,
  "▁chrétiens": 5398,
  "▁président": 5399,
  "▁oc": 5400,
  "▁vint": 5401,
  "▁jɔɔnw": 5402,
  "▁telle": 5403,
  "▁Heureux": 5404,
  "extérieur": 5405,
  "▁wɔɔrɔnan": 5406,
  "▁quiconque": 5407,
  "quis": 5408,
  "▁évé": 5409,
  "▁Loon": 5410,
  "▁koro": 5411,
  "▁mama": 5412,
  "▁tint": 5413,
  "mettre": 5414,
  "oublie": 5415,
  "occuper": 5416,
  "▁Wagati": 5417,
  "▁kalans": 5418,
  "▁nɔgɔya": 5419,
  "▁culture": 5420,
  "▁Né": 5421,
  "cule": 5422,
  "▁fali": 5423,
  "▁kèmè": 5424,
  "▁champ": 5425,
  "▁sigui": 5426,
  "▁nyogon": 5427,
  "▁samedi": 5428,
  "▁souhait": 5429,
  "▁tchaman": 5430,
  "▁fanibugu": 5431,
  "▁fiɲɛntɔw": 5432,
  "▁mɔgɔbabaw": 5433,
  "▁̈": 5434,
  "omè": 5435,
  "▁xo": 5436,
  "dien": 5437,
  "▁Bala": 5438,
  "▁tiin": 5439,
  "▁batofɛn": 5440,
  "▁donnera": 5441,
  "▁pierres": 5442,
  "fɛr": 5443,
  "gées": 5444,
  "duire": 5445,
  "leurs": 5446,
  "talen": 5447,
  "urope": 5448,
  "▁Avez": 5449,
  "▁bébé": 5450,
  "▁nahi": 5451,
  "▁Yanni": 5452,
  "▁proba": 5453,
  "▁réser": 5454,
  "▁Filipu": 5455,
  "▁détour": 5456,
  "▁naanin": 5457,
  "▁reçoit": 5458,
  "▁système": 5459,
  "▁esclaves": 5460,
  "▁lemɛniya": 5461,
  "▁sécurité": 5462,
  "mɔɔ": 5463,
  "tar": 5464,
  "▁Enc": 5465,
  "▁tak": 5466,
  "▁bâti": 5467,
  "▁ɲɔɔn": 5468,
  "▁dieux": 5469,
  "▁duman": 5470,
  "▁livré": 5471,
  "▁repris": 5472,
  "▁tugura": 5473,
  "▁disponi": 5474,
  "▁tumabee": 5475,
  "▁tɔɲɔgɔn": 5476,
  "assemblée": 5477,
  "▁Babilɔni": 5478,
  "▁nyogonfe": 5479,
  "▁banabagatɔ": 5480,
  "▁souffrances": 5481,
  "ɑ̃ɑ": 5482,
  "reur": 5483,
  "▁nyè": 5484,
  "gnait": 5485,
  "▁kɔɲɔ": 5486,
  "▁laaa": 5487,
  "▁soix": 5488,
  "ormais": 5489,
  "▁tuman": 5490,
  "istance": 5491,
  "▁damani": 5492,
  "▁fleuve": 5493,
  "▁ventre": 5494,
  "rentissage": 5495,
  "▁pardonner": 5496,
  "▁réellement": 5497,
  "ER": 5498,
  "mɔn": 5499,
  "par": 5500,
  "▁év": 5501,
  "▁foli": 5502,
  "▁Cieux": 5503,
  "▁weele": 5504,
  "essayer": 5505,
  "▁donnés": 5506,
  "▁départ": 5507,
  "▁article": 5508,
  "çu": 5509,
  "00.": 5510,
  "aya": 5511,
  "veil": 5512,
  "▁ado": 5513,
  "▁wot": 5514,
  "dence": 5515,
  "hiens": 5516,
  "▁ayez": 5517,
  "▁degi": 5518,
  "▁diza": 5519,
  "rèrent": 5520,
  "▁Voilà": 5521,
  "▁commis": 5522,
  "▁sortes": 5523,
  "▁terikɛ": 5524,
  "▁voulons": 5525,
  "▁conscience": 5526,
  "Na": 5527,
  "oré": 5528,
  "▁58": 5529,
  "yira": 5530,
  "▁1:3": 5531,
  "▁kpĩ": 5532,
  "▁ɛrɛ": 5533,
  "avant": 5534,
  "▁Lɔti": 5535,
  "▁eaux": 5536,
  "▁jara": 5537,
  "▁kiya": 5538,
  "▁symp": 5539,
  "▁fruit": 5540,
  "▁merci": 5541,
  "▁50/50.": 5542,
  "▁Quelqu": 5543,
  "▁minɛna": 5544,
  "▁travaux": 5545,
  "▁Ń": 5546,
  "UMA": 5547,
  "boo": 5548,
  "mògò": 5549,
  "objet": 5550,
  "▁Anti": 5551,
  "▁ajou": 5552,
  "▁sɔ̃ɔ": 5553,
  "équipe": 5554,
  "▁Nuhun": 5555,
  "▁bɛnna": 5556,
  "▁digne": 5557,
  "▁croyez": 5558,
  "▁façons": 5559,
  "▁lanaya": 5560,
  "▁mariés": 5561,
  "▁comporte": 5562,
  "▁dugusagwɛ": 5563,
  ":9": 5564,
  "IGN": 5565,
  "lui": 5566,
  "ôte": 5567,
  "liqu": 5568,
  "ttes": 5569,
  "▁Seu": 5570,
  "▁hau": 5571,
  "ister": 5572,
  "obser": 5573,
  "▁000)": 5574,
  "▁Tile": 5575,
  "▁hare": 5576,
  "▁préf": 5577,
  "▁Proph": 5578,
  "lations": 5579,
  "▁douleur": 5580,
  "15": 5581,
  "bò": 5582,
  "kar": 5583,
  "▁Pu": 5584,
  "▁jù": 5585,
  "▁mâ": 5586,
  "tout": 5587,
  "▁fiyɛ": 5588,
  "▁know": 5589,
  "▁pewu": 5590,
  "misɛnw": 5591,
  "▁lieux": 5592,
  "▁dɔgɔtɔrɔso": 5593,
  "▁exactement": 5594,
  "ane": 5595,
  "rêt": 5596,
  "̀wɔ": 5597,
  "▁Hé": 5598,
  "appr": 5599,
  "▁Cré": 5600,
  "▁leh": 5601,
  "▁circ": 5602,
  "▁Ɔ̀wɔ": 5603,
  "▁norma": 5604,
  "▁quoti": 5605,
  "▁remis": 5606,
  "▁offici": 5607,
  "agissait": 5608,
  "▁laissez": 5609,
  "▁société": 5610,
  "▁daminɛna": 5611,
  "ind": 5612,
  "kit": 5613,
  "▁2.": 5614,
  "euvre": 5615,
  "tures": 5616,
  "▁kɛrɛ": 5617,
  "▁vari": 5618,
  "▁suivi": 5619,
  "onsieur": 5620,
  "▁public": 5621,
  "▁servir": 5622,
  "▁Sauveur": 5623,
  "▁juillet": 5624,
  "▁balimacɛ": 5625,
  "▁denmusow": 5626,
  "▁kabakoya": 5627,
  "-3": 5628,
  "11": 5629,
  "iw": 5630,
  "ize": 5631,
  "▁Auc": 5632,
  "▁Baby": 5633,
  "▁centa": 5634,
  "▁lequel": 5635,
  "▁sancti": 5636,
  "▁cherche": 5637,
  "▁devenus": 5638,
  "▁février": 5639,
  "kh": 5640,
  "som": 5641,
  "zɛn": 5642,
  "Wili": 5643,
  "état": 5644,
  "▁bil": 5645,
  "▁dén": 5646,
  "▁now": 5647,
  "▁saw": 5648,
  "itiri": 5649,
  "▁DIEU": 5650,
  "▁Saga": 5651,
  "▁fɔɲɔ": 5652,
  "▁carte": 5653,
  "itation": 5654,
  "▁liberté": 5655,
  "▁réfléch": 5656,
  "▁Kirisita": 5657,
  "▁français": 5658,
  "gor": 5659,
  "▁KA": 5660,
  "bras": 5661,
  "gles": 5662,
  "inya": 5663,
  "liya": 5664,
  "vées": 5665,
  "▁miw": 5666,
  "chait": 5667,
  "faits": 5668,
  "▁Kalo": 5669,
  "▁jago": 5670,
  "▁nɔrɔ": 5671,
  "▁perd": 5672,
  "IGNEUR": 5673,
  "▁allons": 5674,
  "▁fidèle": 5675,
  "▁SEIGNEUR": 5676,
  "▁worodugu": 5677,
  "ITI": 5678,
  "bel": 5679,
  "cɛn": 5680,
  "aura": 5681,
  "auté": 5682,
  "ésar": 5683,
  "▁Zez": 5684,
  "▁nag": 5685,
  "▁agré": 5686,
  "▁fala": 5687,
  "▁fast": 5688,
  "▁lain": 5689,
  "▁lere": 5690,
  "▁viol": 5691,
  "▁Avant": 5692,
  "▁Gusunɔ": 5693,
  "▁battre": 5694,
  "▁établi": 5695,
  "▁Faransi": 5696,
  "▁continue": 5697,
  "ïe": 5698,
  "dia": 5699,
  "▁sh": 5700,
  "ande": 5701,
  "enda": 5702,
  "isée": 5703,
  "▁Per": 5704,
  "▁soy": 5705,
  "▁sup": 5706,
  "onnée": 5707,
  "▁jula": 5708,
  "▁birin": 5709,
  "▁entré": 5710,
  "anmoins": 5711,
  "▁buguri": 5712,
  "▁jigiya": 5713,
  "▁lalaga": 5714,
  "▁territ": 5715,
  "abandonne": 5716,
  "▁kakalaya": 5717,
  "bri": 5718,
  "ysi": 5719,
  "▁54": 5720,
  "kɔnɔ": 5721,
  "line": 5722,
  "lées": 5723,
  "▁ber": 5724,
  "▁doo": 5725,
  "▁kah": 5726,
  "▁nyɔ": 5727,
  "instal": 5728,
  "jectif": 5729,
  "▁hɔrɔn": 5730,
  "▁junman": 5731,
  "▁tulogw": 5732,
  "▁actions": 5733,
  "▁décision": 5734,
  "▁commandements": 5735,
  "Or": 5736,
  "bus": 5737,
  "▁pè": 5738,
  "tées": 5739,
  "▁Ton": 5740,
  "▁enj": 5741,
  "▁koe": 5742,
  "aniya": 5743,
  "▁Sans": 5744,
  "▁must": 5745,
  "▁poss": 5746,
  "▁autor": 5747,
  "▁jinaw": 5748,
  "▁sanga": 5749,
  "▁solda": 5750,
  "ception": 5751,
  "▁Israɛl": 5752,
  "▁Témoins": 5753,
  "▁sankaba": 5754,
  "▁taamana": 5755,
  "▁capitale": 5756,
  "▁souvenez": 5757,
  "▁meilleure": 5758,
  "▁semblable": 5759,
  "ìn": 5760,
  "▁Ê": 5761,
  ":28": 5762,
  "ace": 5763,
  "▁ak": 5764,
  "▁ii": 5765,
  "eaux": 5766,
  "raie": 5767,
  "ɔbɛw": 5768,
  "▁Dès": 5769,
  "▁sil": 5770,
  "▁rivi": 5771,
  "▁César": 5772,
  "▁Quant": 5773,
  "▁Trois": 5774,
  "▁appela": 5775,
  "▁contrô": 5776,
  "▁pièces": 5777,
  "▁porter": 5778,
  "▁baarakɛ": 5779,
  "▁cherché": 5780,
  "▁kanulen": 5781,
  "▁salaire": 5782,
  "accomplir": 5783,
  "apprentissage": 5784,
  "45.": 5785,
  "iez": 5786,
  "▁65": 5787,
  "▁LEO": 5788,
  "tobre": 5789,
  "▁Bama": 5790,
  "▁Nouv": 5791,
  "▁faux": 5792,
  "▁pied": 5793,
  "▁répu": 5794,
  "▁tɔnɔ": 5795,
  "▁dérou": 5796,
  "▁signes": 5797,
  "▁tununa": 5798,
  "Karamɔgɔ": 5799,
  "Évangile": 5800,
  "étranger": 5801,
  "▁Quelques": 5802,
  "▁mɔgɔfaga": 5803,
  "▁miséricordieux": 5804,
  "lit": 5805,
  "tara": 5806,
  "▁Say": 5807,
  "▁gan": 5808,
  "▁jij": 5809,
  "▁naa": 5810,
  "▁suun": 5811,
  "▁Encore": 5812,
  "▁distin": 5813,
  "▁laaaan": 5814,
  "▁nyinin": 5815,
  "▁profes": 5816,
  "▁sacrifices": 5817,
  "▁Va": 5818,
  "érir": 5819,
  "▁bun": 5820,
  "▁élè": 5821,
  "▁Kilɛ": 5822,
  "▁Komi": 5823,
  "▁Phil": 5824,
  "▁baba": 5825,
  "▁pose": 5826,
  "▁bwisi": 5827,
  "▁réuni": 5828,
  "▁muruti": 5829,
  "▁sabali": 5830,
  "écriture": 5831,
  "▁vivants": 5832,
  "expérience": 5833,
  "Ko": 5834,
  "wɑ": 5835,
  "loi": 5836,
  "▁4-": 5837,
  "▁ir": 5838,
  "amen": 5839,
  "lone": 5840,
  "▁Ser": 5841,
  "▁foo": 5842,
  "▁maj": 5843,
  "▁....": 5844,
  "▁seras": 5845,
  "approche": 5846,
  "▁regarde": 5847,
  "▁détruire": 5848,
  "▁miséricorde": 5849,
  "5:": 5850,
  "8.1": 5851,
  "hor": 5852,
  "how": 5853,
  "ved": 5854,
  "9-20": 5855,
  "kiri": 5856,
  "yila": 5857,
  "▁193": 5858,
  "▁Dam": 5859,
  "▁Dɔw": 5860,
  "▁bal": 5861,
  "▁susu": 5862,
  "▁tend": 5863,
  "▁dents": 5864,
  "▁nalon": 5865,
  "osition": 5866,
  "▁debout": 5867,
  "▁changer": 5868,
  "▁tulogwer": 5869,
  "approchèrent": 5870,
  "-2": 5871,
  "ía": 5872,
  "Uni": 5873,
  "far": 5874,
  "▁Sil": 5875,
  "▁emb": 5876,
  "aimés": 5877,
  "▁Cool": 5878,
  "▁anci": 5879,
  "▁fôlô": 5880,
  "▁gari": 5881,
  "▁yeah": 5882,
  "somɔgɔ": 5883,
  "ɔnkili": 5884,
  "▁Cɛman": 5885,
  "▁marié": 5886,
  "artient": 5887,
  "criture": 5888,
  "▁bénéfi": 5889,
  "▁damina": 5890,
  "▁disais": 5891,
  "▁gauche": 5892,
  "▁lonanw": 5893,
  "▁pensée": 5894,
  "▁signifi": 5895,
  "▁ailleurs": 5896,
  "▁murutili": 5897,
  "▁sacrifice": 5898,
  "▁informations": 5899,
  "▁kalandensomɔgɔ": 5900,
  "rc": 5901,
  "èl": 5902,
  ":12": 5903,
  "▁dɛn": 5904,
  "▁Voir": 5905,
  "▁cade": 5906,
  "▁yalor": 5907,
  "▁Sariya": 5908,
  "▁bɔnnin": 5909,
  "▁niveau": 5910,
  "▁gnongon": 5911,
  "▁naaninan": 5912,
  "▁quarante": 5913,
  "▁souhaite": 5914,
  "Au": 5915,
  "iru": 5916,
  "mil": 5917,
  "zan": 5918,
  "▁kua": 5919,
  "▁Jusqu": 5920,
  "▁amata": 5921,
  "▁cesse": 5922,
  "▁titre": 5923,
  "▁total": 5924,
  "▁Chaque": 5925,
  "▁Egypte": 5926,
  "▁mirent": 5927,
  "▁rendit": 5928,
  "▁apporter": 5929,
  "▁dagamunin": 5930,
  "▁Religieuse": 5931,
  "ap": 5932,
  "bɑ": 5933,
  "ige": 5934,
  "▁Fr": 5935,
  "hors": 5936,
  "kèla": 5937,
  "wali": 5938,
  "▁jui": 5939,
  "▁uni": 5940,
  "arche": 5941,
  "▁boro": 5942,
  "▁chal": 5943,
  "▁levé": 5944,
  "▁vent": 5945,
  "▁siara": 5946,
  "envoyer": 5947,
  "vention": 5948,
  "▁ninsɔn": 5949,
  "▁noonoo": 5950,
  "▁ouvert": 5951,
  "▁puisqu": 5952,
  "▁sirana": 5953,
  "▁terima": 5954,
  "▁conduit": 5955,
  "▁moutons": 5956,
  "▁puisque": 5957,
  "▁millions": 5958,
  "▁forobayɔrɔw": 5959,
  "7.": 5960,
  "gba": 5961,
  "tah": 5962,
  "▁sw": 5963,
  "dain": 5964,
  "oser": 5965,
  "ɲɛna": 5966,
  "▁dòw": 5967,
  "▁lor": 5968,
  "améli": 5969,
  "enfui": 5970,
  "▁next": 5971,
  "▁verse": 5972,
  "▁Sayuli": 5973,
  "▁commen": 5974,
  "▁fruits": 5975,
  "▁rapide": 5976,
  "▁reviend": 5977,
  "'.": 5978,
  "ny": 5979,
  ":22": 5980,
  "cre": 5981,
  "ril": 5982,
  "▁5.": 5983,
  "▁af": 5984,
  "▁kĩ": 5985,
  "bɛrɛ": 5986,
  "dite": 5987,
  "▁700": 5988,
  "▁FIL": 5989,
  "▁KOR": 5990,
  "▁ach": 5991,
  "9-20)": 5992,
  "aimez": 5993,
  "musow": 5994,
  "talie": 5995,
  "▁Gala": 5996,
  "▁Grec": 5997,
  "▁baru": 5998,
  "▁cɛɛw": 5999,
  "▁défi": 6000,
  "▁réfé": 6001,
  "maniya": 6002,
  "▁(28.1": 6003,
  "▁Isaac": 6004,
  "▁Jérém": 6005,
  "▁caché": 6006,
  "▁gbɛrɛ": 6007,
  "▁woman": 6008,
  "Afrique": 6009,
  "▁ladegi": 6010,
  "▁malades": 6011,
  "▁vinrent": 6012,
  "▁(28.19-20)": 6013,
  "▁Corinthiens": 6014,
  "ɛt": 6015,
  "▁Alu": 6016,
  "▁Aww": 6017,
  "▁bis": 6018,
  "▁ign": 6019,
  "▁inv": 6020,
  "▁kaf": 6021,
  "ayons": 6022,
  "▁Sabu": 6023,
  "▁siko": 6024,
  "▁wali": 6025,
  "▁Paris": 6026,
  "▁bɔnin": 6027,
  "▁donda": 6028,
  "▁repro": 6029,
  "▁sèbèn": 6030,
  "▁revenu": 6031,
  "ducation": 6032,
  "▁voulaient": 6033,
  "▁tulogwerenw": 6034,
  "cap": 6035,
  "com": 6036,
  "▁Pâ": 6037,
  "ESUS": 6038,
  "breu": 6039,
  "mbéc": 6040,
  "▁ima": 6041,
  "▁djan": 6042,
  "▁fata": 6043,
  "▁kɛsu": 6044,
  "amuser": 6045,
  "▁Nazar": 6046,
  "▁furakɛ": 6047,
  "▁jɛnsɛn": 6048,
  "▁labaan": 6049,
  "▁éloign": 6050,
  "▁ɲanabɔ": 6051,
  "mentation": 6052,
  "▁préparer": 6053,
  "▁comprenez": 6054,
  "▁construction": 6055,
  ":15": 6056,
  "kou": 6057,
  "leh": 6058,
  "vil": 6059,
  "▁He": 6060,
  "▁ee": 6061,
  "cale": 6062,
  "obsc": 6063,
  "asigi": 6064,
  "▁ayei": 6065,
  "▁bala": 6066,
  "▁popo": 6067,
  "▁sere": 6068,
  "termin": 6069,
  "▁Isira": 6070,
  "▁fonda": 6071,
  "▁fourn": 6072,
  "▁juifs": 6073,
  "▁longue": 6074,
  "▁batizera": 6075,
  "▁intéress": 6076,
  "lémentaires": 6077,
  "utilisation": 6078,
  "▁auparavant": 6079,
  "▁finalement": 6080,
  "ùgu": 6081,
  "▁59": 6082,
  "Fɛɛn": 6083,
  "fani": 6084,
  "tifs": 6085,
  "▁Tun": 6086,
  "▁wie": 6087,
  "tinya": 6088,
  "▁avis": 6089,
  "▁mans": 6090,
  "▁sɔtɔ": 6091,
  "auteur": 6092,
  "outent": 6093,
  "▁JESUS": 6094,
  "▁métho": 6095,
  "▁woilu": 6096,
  "▁divers": 6097,
  "▁muruku": 6098,
  "▁triste": 6099,
  "▁apôtres": 6100,
  "▁ordonné": 6101,
  "▁passait": 6102,
  "▁difficul": 6103,
  "▁yɛlɛmana": 6104,
  "▁entièrement": 6105,
  "tè": 6106,
  "âme": 6107,
  "▁3.": 6108,
  "anti": 6109,
  "hima": 6110,
  "▁Rés": 6111,
  "▁ext": 6112,
  "eremi": 6113,
  "▁fòlò": 6114,
  "▁lamp": 6115,
  "▁quin": 6116,
  "▁NOBAR": 6117,
  "usement": 6118,
  "▁Intinya": 6119,
  "▁courage": 6120,
  "▁kɛwalew": 6121,
  "▁siaramɔ": 6122,
  "▁étrangers": 6123,
  "▁communauté": 6124,
  "faw": 6125,
  "▁tú": 6126,
  "boɲa": 6127,
  "▁34-": 6128,
  "▁Bes": 6129,
  "▁tir": 6130,
  "▁Aawo": 6131,
  "▁Domi": 6132,
  "▁dunu": 6133,
  "aiment": 6134,
  "avance": 6135,
  "envoie": 6136,
  "▁garder": 6137,
  "▁litiri": 6138,
  "▁suruta": 6139,
  "▁wulila": 6140,
  "▁kantigi": 6141,
  "▁ressusc": 6142,
  "▁continuer": 6143,
  "▁construire": 6144,
  "dy": 6145,
  "ia": 6146,
  "assu": 6147,
  "dité": 6148,
  "yimu": 6149,
  "▁pon": 6150,
  "mande": 6151,
  "▁rôle": 6152,
  "▁Chine": 6153,
  "▁monté": 6154,
  "▁pleurer": 6155,
  "importance": 6156,
  "duit": 6157,
  "mées": 6158,
  "usse": 6159,
  "▁Ina": 6160,
  "aloni": 6161,
  "étude": 6162,
  "▁misi": 6163,
  "▁aurez": 6164,
  "adresse": 6165,
  "▁effect": 6166,
  "▁arrivée": 6167,
  "▁oiseaux": 6168,
  "▁craindre": 6169,
  "hy": 6170,
  "hum": 6171,
  "tos": 6172,
  "▁66": 6173,
  "Musa": 6174,
  "orce": 6175,
  "▁sag": 6176,
  "▁sɛn": 6177,
  "organ": 6178,
  "orgue": 6179,
  "riers": 6180,
  "tiens": 6181,
  "unité": 6182,
  "▁Kala": 6183,
  "▁Sɔli": 6184,
  "▁kènè": 6185,
  "▁neuf": 6186,
  "òrònin": 6187,
  "▁rends": 6188,
  "▁saalo": 6189,
  "▁sɔngɔ": 6190,
  "▁dehors": 6191,
  "▁namara": 6192,
  "▁venait": 6193,
  "éternité": 6194,
  "▁erreurs": 6195,
  "▁spécial": 6196,
  "▁travaille": 6197,
  "AS": 6198,
  "Ils": 6199,
  "ven": 6200,
  "avan": 6201,
  "juru": 6202,
  "▁aie": 6203,
  "oires": 6204,
  "omanw": 6205,
  "ennemi": 6206,
  "▁maman": 6207,
  "exemple": 6208,
  "▁natuma": 6209,
  "▁salenw": 6210,
  "▁voyons": 6211,
  "utiliser": 6212,
  "▁Alatala": 6213,
  "▁kelenna": 6214,
  "▁miliyɔn": 6215,
  "▁profess": 6216,
  "▁soixante": 6217,
  "▁difficiles": 6218,
  "bô": 6219,
  "pes": 6220,
  "reg": 6221,
  "▁Ra": 6222,
  "▁dû": 6223,
  "▁én": 6224,
  "yiri": 6225,
  "ypes": 6226,
  "▁fɔn": 6227,
  "▁jra": 6228,
  "▁kia": 6229,
  "huile": 6230,
  "ément": 6231,
  "▁Kisi": 6232,
  "▁dùgu": 6233,
  "▁allés": 6234,
  "▁chans": 6235,
  "▁loved": 6236,
  "▁nommé": 6237,
  "▁bateau": 6238,
  "▁fidèles": 6239,
  "▁Daniyɛli": 6240,
  "▁wajibiya": 6241,
  "Wa": 6242,
  "ât": 6243,
  ":26": 6244,
  "mal": 6245,
  "évé": 6246,
  "▁57": 6247,
  "▁tô": 6248,
  "enin": 6249,
  "mère": 6250,
  "vert": 6251,
  "▁aje": 6252,
  "▁hun": 6253,
  "▁let": 6254,
  "alest": 6255,
  "isées": 6256,
  "offre": 6257,
  "▁Zɔbu": 6258,
  "▁bless": 6259,
  "▁cents": 6260,
  "▁nyètaa": 6261,
  "▁sortit": 6262,
  "▁supéri": 6263,
  "▁allèrent": 6264,
  "▁craignez": 6265,
  "▁demandez": 6266,
  "▁discours": 6267,
  "▁kititigɛlaw": 6268,
  "accomplissement": 6269,
  "tage": 6270,
  "tali": 6271,
  "thée": 6272,
  "▁Yee": 6273,
  "▁mém": 6274,
  "▁sti": 6275,
  "▁ɛɛn": 6276,
  "baaya": 6277,
  "enfer": 6278,
  "ɛlɛya": 6279,
  "▁noir": 6280,
  "ateurs": 6281,
  "istins": 6282,
  "rirent": 6283,
  "épouse": 6284,
  "oubliez": 6285,
  "▁ngalon": 6286,
  "▁Jérémie": 6287,
  "▁devient": 6288,
  "obscurité": 6289,
  "▁septième": 6290,
  "▁sunguruw": 6291,
  "▁devraient": 6292,
  "▁kuntigiba": 6293,
  "▁réveiller": 6294,
  "▁taamacogo": 6295,
  "nn": 6296,
  "ide": 6297,
  "tch": 6298,
  "Vous": 6299,
  "▁dôw": 6300,
  "▁hon": 6301,
  "▁lin": 6302,
  "▁lun": 6303,
  "▁nge": 6304,
  "▁obt": 6305,
  "▁ŋga": 6306,
  "acité": 6307,
  "▁duré": 6308,
  "▁lois": 6309,
  "▁poro": 6310,
  "▁stru": 6311,
  "▁ordre": 6312,
  "▁Kalans": 6313,
  "▁consac": 6314,
  "▁fisaya": 6315,
  "▁instru": 6316,
  "▁mɛɛnna": 6317,
  "▁Nouvelle": 6318,
  "▁kɛmɛkulu": 6319,
  "▁désormais": 6320,
  "▁retourner": 6321,
  "LA": 6322,
  "fit": 6323,
  "▁bh": 6324,
  "Muso": 6325,
  "tiyo": 6326,
  "▁Con": 6327,
  "▁Peu": 6328,
  "▁aka": 6329,
  "▁lee": 6330,
  "pagne": 6331,
  "tesse": 6332,
  "▁Yisa": 6333,
  "▁mous": 6334,
  "vation": 6335,
  "▁Bonne": 6336,
  "▁coura": 6337,
  "▁Farisi": 6338,
  "▁claire": 6339,
  "▁diiman": 6340,
  "▁Philippe": 6341,
  "▁direction": 6342,
  "▁¿": 6343,
  "iso": 6344,
  "lex": 6345,
  "ung": 6346,
  "▁Yi": 6347,
  "▁anc": 6348,
  "ettes": 6349,
  "illée": 6350,
  "étend": 6351,
  "▁Suis": 6352,
  "▁mena": 6353,
  "▁need": 6354,
  "▁puri": 6355,
  "▁conta": 6356,
  "▁konon": 6357,
  "▁môgôw": 6358,
  "chement": 6359,
  "▁centre": 6360,
  "▁visage": 6361,
  "▁yirala": 6362,
  "▁époque": 6363,
  "▁Pharaon": 6364,
  "▁accueil": 6365,
  "▁lonanya": 6366,
  "▁denmisèn": 6367,
  "▁commencer": 6368,
  "lai": 6369,
  "▁69": 6370,
  "▁Gar": 6371,
  "▁boi": 6372,
  "▁boy": 6373,
  "▁chɛ": 6374,
  "▁Fais": 6375,
  "▁dɔ̀n": 6376,
  "▁espè": 6377,
  "▁kata": 6378,
  "▁rêve": 6379,
  "▁sisi": 6380,
  "▁vécu": 6381,
  "zareth": 6382,
  "▁conva": 6383,
  "▁physi": 6384,
  "▁karaba": 6385,
  "▁layɔrɔ": 6386,
  "▁restent": 6387,
  "▁relation": 6388,
  "▁comprennent": 6389,
  "hon": 6390,
  "mie": 6391,
  "▁EF": 6392,
  "▁nè": 6393,
  "▁od": 6394,
  "injus": 6395,
  "▁kafo": 6396,
  "▁modè": 6397,
  "▁Ameri": 6398,
  "▁hakɛw": 6399,
  "▁trône": 6400,
  "▁instal": 6401,
  "Adamaden": 6402,
  "▁Laissez": 6403,
  "▁nouveaux": 6404,
  "▁rappelle": 6405,
  "▁trouvent": 6406,
  "▁territoire": 6407,
  "ɔw": 6408,
  "▁4.": 6409,
  "gana": 6410,
  "tiri": 6411,
  "▁Att": 6412,
  "▁uso": 6413,
  "endor": 6414,
  "ininw": 6415,
  "réhen": 6416,
  "▁2020": 6417,
  "▁want": 6418,
  "▁crier": 6419,
  "▁envir": 6420,
  "Sankolo": 6421,
  "wulanan": 6422,
  "▁katugu": 6423,
  "▁données": 6424,
  "▁lecture": 6425,
  "▁obtenir": 6426,
  "▁accompli": 6427,
  "▁retrouvé": 6428,
  "▁sentiment": 6429,
  "▁Philistins": 6430,
  "▁wolonwulanan": 6431,
  "by": 6432,
  "yu": 6433,
  "eil": 6434,
  "eth": 6435,
  "fèn": 6436,
  "utu": 6437,
  "irai": 6438,
  "maan": 6439,
  "▁Mis": 6440,
  "▁day": 6441,
  "▁dur": 6442,
  "▁fag": 6443,
  "▁possé": 6444,
  "▁Chemin": 6445,
  "▁feelin": 6446,
  "▁annoncé": 6447,
  "▁étoiles": 6448,
  "▁farisogobana": 6449,
  "oof": 6450,
  "phe": 6451,
  "▁cy": 6452,
  "jɛnɛ": 6453,
  "omin": 6454,
  "▁reg": 6455,
  "▁ɲan": 6456,
  "amɔgɔ": 6457,
  "gunin": 6458,
  "▁Rien": 6459,
  "▁kiri": 6460,
  "▁last": 6461,
  "▁life": 6462,
  "▁says": 6463,
  "Mɛlɛkɛ": 6464,
  "▁Faire": 6465,
  "▁arbre": 6466,
  "ossiens": 6467,
  "▁Prenez": 6468,
  "▁dadili": 6469,
  "▁content": 6470,
  "▁gouvern": 6471,
  "▁accompagn": 6472,
  "▁Ad": 6473,
  "phra": 6474,
  "▁asi": 6475,
  "▁nou": 6476,
  "apper": 6477,
  "▁base": 6478,
  "▁ngan": 6479,
  "aurait": 6480,
  "▁Penda": 6481,
  "▁kanin": 6482,
  "▁Samedi": 6483,
  "▁arbres": 6484,
  "▁arrêté": 6485,
  "▁dafara": 6486,
  "▁quitté": 6487,
  "▁termes": 6488,
  "▁filisiw": 6489,
  "▁parfois": 6490,
  "▁Kalansen": 6491,
  "▁impossible": 6492,
  "BU": 6493,
  "▁(1": 6494,
  "▁Kɔ": 6495,
  "wara": 6496,
  "çait": 6497,
  "▁Ama": 6498,
  "▁Zezi": 6499,
  "▁basa": 6500,
  "▁faam": 6501,
  "▁symb": 6502,
  "▁lɔnko": 6503,
  "▁vieux": 6504,
  "demment": 6505,
  "▁cikura": 6506,
  "▁domuni": 6507,
  "▁firiya": 6508,
  "▁sɔrɔko": 6509,
  "▁kowagara": 6510,
  "▁professionn": 6511,
  "cis": 6512,
  "île": 6513,
  "tier": 6514,
  "▁SAP": 6515,
  "▁châ": 6516,
  "▁fût": 6517,
  "▁sci": 6518,
  "gonin": 6519,
  "▁faso": 6520,
  "mément": 6521,
  "▁gratu": 6522,
  "▁ɔnhɔn": 6523,
  "▁ɲɛsin": 6524,
  "▁oublié": 6525,
  "▁wulafɛ": 6526,
  "▁julakan": 6527,
  "▁presque": 6528,
  "▁tɔɔrɔla": 6529,
  "▁Babylone": 6530,
  "▁mondiale": 6531,
  "▁éléments": 6532,
  "Sarakalasebagaw": 6533,
  "dal": 6534,
  "mit": 6535,
  "uss": 6536,
  "xan": 6537,
  "Zuda": 6538,
  "enga": 6539,
  "land": 6540,
  "écut": 6541,
  "▁amo": 6542,
  "▁hoo": 6543,
  "kèlaw": 6544,
  "taine": 6545,
  "tance": 6546,
  "usion": 6547,
  "▁aint": 6548,
  "▁enne": 6549,
  "▁tiɲè": 6550,
  "▁aient": 6551,
  "▁prote": 6552,
  "▁sépar": 6553,
  "▁tente": 6554,
  "▁Lazari": 6555,
  "▁dumunifɛn": 6556,
  "▁souffrent": 6557,
  "▁tilennenya": 6558,
  "OT": 6559,
  "bs": 6560,
  "car": 6561,
  "ora": 6562,
  "▁âge": 6563,
  "ITIRI": 6564,
  "taire": 6565,
  "▁Fran": 6566,
  "▁here": 6567,
  "▁koto": 6568,
  "▁sout": 6569,
  "▁surv": 6570,
  "amment": 6571,
  "illons": 6572,
  "▁Grand": 6573,
  "▁jùmɛn": 6574,
  "▁parla": 6575,
  "▁bisaba": 6576,
  "▁repent": 6577,
  "▁caracté": 6578,
  "▁Nazareth": 6579,
  "▁SAPITIRI": 6580,
  "▁gwɛlɛyaw": 6581,
  "▁retourne": 6582,
  "▁viennent": 6583,
  "▁Isirayila": 6584,
  "uh": 6585,
  "ats": 6586,
  "onan": 6587,
  "riss": 6588,
  "▁New": 6589,
  "▁cik": 6590,
  "▁dia": 6591,
  "▁kaj": 6592,
  "▁lak": 6593,
  "kelen": 6594,
  "olesc": 6595,
  "▁Fara": 6596,
  "▁Joli": 6597,
  "▁mine": 6598,
  "▁rues": 6599,
  "▁sibo": 6600,
  "amitié": 6601,
  "▁endor": 6602,
  "▁kɛrɛn": 6603,
  "▁payer": 6604,
  "▁years": 6605,
  "▁ɲinan": 6606,
  "kuntigi": 6607,
  "orgueil": 6608,
  "▁complè": 6609,
  "▁donnez": 6610,
  "▁vendre": 6611,
  "▁américa": 6612,
  "▁invités": 6613,
  "▁ɲinibagaw": 6614,
  "▁Colossiens": 6615,
  "ƐZ": 6616,
  "lat": 6617,
  "siw": 6618,
  "the": 6619,
  "▁80": 6620,
  "▁za": 6621,
  "abri": 6622,
  "cemb": 6623,
  "pris": 6624,
  "çant": 6625,
  "▁Dja": 6626,
  "▁dee": 6627,
  "▁tuu": 6628,
  "Amour": 6629,
  "èlèya": 6630,
  "▁2018": 6631,
  "▁EFƐZ": 6632,
  "▁Mont": 6633,
  "▁Noël": 6634,
  "▁sinc": 6635,
  "▁suka": 6636,
  "assion": 6637,
  "▁Parmi": 6638,
  "▁provo": 6639,
  "▁sanfè": 6640,
  "▁stupi": 6641,
  "▁Lazare": 6642,
  "▁latigè": 6643,
  "▁serais": 6644,
  "▁Danbaga": 6645,
  "▁ressemb": 6646,
  "▁tagaman": 6647,
  "▁EFƐZIKAW": 6648,
  ":33": 6649,
  "uwe": 6650,
  "▁mà": 6651,
  "▁yg": 6652,
  "Kana": 6653,
  "levé": 6654,
  "▁190": 6655,
  "▁was": 6656,
  "gɛnin": 6657,
  "▁cité": 6658,
  "▁savi": 6659,
  "▁Mùnna": 6660,
  "▁croix": 6661,
  "▁diina": 6662,
  "▁genre": 6663,
  "▁kuluw": 6664,
  "▁saved": 6665,
  "▁types": 6666,
  "▁Canaan": 6667,
  "▁Yuhana": 6668,
  "▁tryina": 6669,
  "▁visite": 6670,
  "▁marcher": 6671,
  "▁Timothée": 6672,
  "▁sarakabɔ": 6673,
  "▁cinquante": 6674,
  "▁traduction": 6675,
  "bil": 6676,
  "kiw": 6677,
  "▁ap": 6678,
  "rɔdi": 6679,
  "▁opp": 6680,
  "▁pun": 6681,
  "▁yar": 6682,
  "limaw": 6683,
  "xième": 6684,
  "▁Mboo": 6685,
  "▁Très": 6686,
  "▁gayi": 6687,
  "▁lamɔ": 6688,
  "▁mini": 6689,
  "▁prév": 6690,
  "▁Savez": 6691,
  "▁Simɔn": 6692,
  "quement": 6693,
  "▁18-45.": 6694,
  "▁Chacun": 6695,
  "▁muntah": 6696,
  "▁ntalen": 6697,
  "▁prophé": 6698,
  "▁susuli": 6699,
  "▁Misiran": 6700,
  "▁lakolon": 6701,
  "▁raconte": 6702,
  "▁ɲasiran": 6703,
  "▁compagnons": 6704,
  "▁retournèrent": 6705,
  "ld": 6706,
  "Les": 6707,
  "non": 6708,
  "pic": 6709,
  "yri": 6710,
  "▁ps": 6711,
  "▁kpɛ": 6712,
  "Yanni": 6713,
  "araît": 6714,
  "exist": 6715,
  "écria": 6716,
  "▁prog": 6717,
  "▁wusu": 6718,
  "aimais": 6719,
  "▁posté": 6720,
  "▁remer": 6721,
  "▁aimait": 6722,
  "▁sabbat": 6723,
  "isɔndiya": 6724,
  "▁humaine": 6725,
  "▁rivière": 6726,
  "▁sachant": 6727,
  "▁pauvreté": 6728,
  "▁poissons": 6729,
  "▁fangatigi": 6730,
  "▁travaillé": 6731,
  "ül": 6732,
  "▁ń": 6733,
  "▁Do": 6734,
  "▁Ze": 6735,
  "cace": 6736,
  "enen": 6737,
  "gitɔ": 6738,
  "▁Cap": 6739,
  "▁See": 6740,
  "▁YOU": 6741,
  "▁bam": 6742,
  "▁nte": 6743,
  "îtres": 6744,
  "▁Luka": 6745,
  "▁posé": 6746,
  "▁Grecs": 6747,
  "▁magni": 6748,
  "▁vraie": 6749,
  "▁woron": 6750,
  "▁Pilate": 6751,
  "▁mérite": 6752,
  "▁naître": 6753,
  "▁rappel": 6754,
  "▁apporté": 6755,
  "▁boɲafɛn": 6756,
  "▁produits": 6757,
  "▁jalakibali": 6758,
  "▁parfaitement": 6759,
  "24": 6760,
  "UI": 6761,
  ":29": 6762,
  "Est": 6763,
  "blu": 6764,
  "uté": 6765,
  "▁3-": 6766,
  "▁At": 6767,
  "Loon": 6768,
  "ario": 6769,
  "cinq": 6770,
  "elez": 6771,
  "essa": 6772,
  "mant": 6773,
  "▁Rép": 6774,
  "rande": 6775,
  "rista": 6776,
  "▁grec": 6777,
  "▁kami": 6778,
  "▁tɛma": 6779,
  "aimait": 6780,
  "kanuya": 6781,
  "vembre": 6782,
  "▁imbéc": 6783,
  "▁jɔnya": 6784,
  "▁tient": 6785,
  "▁Zeremi": 6786,
  "▁fariya": 6787,
  "▁kɔrɔla": 6788,
  "▁kɔrɔsi": 6789,
  "▁serons": 6790,
  "▁écouté": 6791,
  "▁miirila": 6792,
  "▁wagatiw": 6793,
  "accompagn": 6794,
  "▁dumuniba": 6795,
  "▁pardonne": 6796,
  "▁sinɔgɔra": 6797,
  "▁karamɔgɔw": 6798,
  "▁bololafɛnw": 6799,
  "bur": 6800,
  "fee": 6801,
  "pol": 6802,
  "book": 6803,
  "onom": 6804,
  "sɛgɛ": 6805,
  "▁mép": 6806,
  "▁mɛɛ": 6807,
  "▁nee": 6808,
  "▁ore": 6809,
  "▁sar": 6810,
  "▁you": 6811,
  "tigui": 6812,
  "▁Dɛmɛ": 6813,
  "▁joow": 6814,
  "minanw": 6815,
  "▁Celle": 6816,
  "▁dépla": 6817,
  "▁fanin": 6818,
  "▁fɔlɔw": 6819,
  "▁terme": 6820,
  "annonce": 6821,
  "▁banana": 6822,
  "médiaire": 6823,
  "▁désolée": 6824,
  "injustice": 6825,
  "▁cherchez": 6826,
  "▁donnerai": 6827,
  "▁kelennama": 6828,
  "▁représente": 6829,
  "YA": 6830,
  "gh": 6831,
  "gen": 6832,
  "san": 6833,
  "djan": 6834,
  "emba": 6835,
  "▁dil": 6836,
  "▁ina": 6837,
  "▁top": 6838,
  "denya": 6839,
  "ption": 6840,
  "ressa": 6841,
  "▁?...": 6842,
  "▁Saül": 6843,
  "▁cèma": 6844,
  "alités": 6845,
  "glises": 6846,
  "vision": 6847,
  "▁Syrie": 6848,
  "▁justi": 6849,
  "▁priez": 6850,
  "arrêter": 6851,
  "▁Besoin": 6852,
  "▁Hanbun": 6853,
  "▁batise": 6854,
  "▁chaman": 6855,
  "▁demeur": 6856,
  "▁désolé": 6857,
  "▁photos": 6858,
  "▁verrez": 6859,
  "▁Lévites": 6860,
  "▁miracle": 6861,
  "▁Comments": 6862,
  "▁constitu": 6863,
  "▁kɔnɔntɔn": 6864,
  "▁méchants": 6865,
  "▁kɔrɔtalen": 6866,
  "),": 6867,
  "17": 6868,
  "aga": 6869,
  "dee": 6870,
  "ost": 6871,
  "ƐNW": 6872,
  "delà": 6873,
  "fasi": 6874,
  "▁cli": 6875,
  "▁moo": 6876,
  "breux": 6877,
  "▁tech": 6878,
  "embras": 6879,
  "minist": 6880,
  "▁karoo": 6881,
  "▁seenw": 6882,
  "ourager": 6883,
  "▁Timote": 6884,
  "▁ennemi": 6885,
  "▁gwɛnin": 6886,
  "▁parlez": 6887,
  "▁sortie": 6888,
  "▁viande": 6889,
  "▁mémoire": 6890,
  "▁quelles": 6891,
  "▁quitter": 6892,
  "▁Nazarɛti": 6893,
  "▁savaient": 6894,
  "▁Plusieurs": 6895,
  "▁faisaient": 6896,
  "bis": 6897,
  "day": 6898,
  "▁ME": 6899,
  "▁km": 6900,
  "▁mè": 6901,
  "▁nô": 6902,
  "▁Now": 6903,
  "▁dah": 6904,
  "▁gbe": 6905,
  "▁sty": 6906,
  "entra": 6907,
  "pital": 6908,
  "▁Last": 6909,
  "▁djou": 6910,
  "▁isra": 6911,
  "▁modi": 6912,
  "▁Yahvé": 6913,
  "▁doute": 6914,
  "▁juger": 6915,
  "▁Images": 6916,
  "▁kɛwali": 6917,
  "▁marque": 6918,
  "▁nagasi": 6919,
  "▁élèves": 6920,
  "Seigneur": 6921,
  "▁badenma": 6922,
  "▁propres": 6923,
  "▁soldats": 6924,
  "▁terrain": 6925,
  "▁comprend": 6926,
  "▁entendez": 6927,
  "▁→": 6928,
  "Kan": 6929,
  "▁Gr": 6930,
  "▁pê": 6931,
  "agir": 6932,
  "lève": 6933,
  "▁DAD": 6934,
  "▁cɛ̀": 6935,
  "antan": 6936,
  "arita": 6937,
  "ɛrise": 6938,
  "▁kunn": 6939,
  "▁lady": 6940,
  "▁lani": 6941,
  "▁logo": 6942,
  "▁mens": 6943,
  "▁tani": 6944,
  "ologie": 6945,
  "▁Image": 6946,
  "▁kàlan": 6947,
  "▁pleur": 6948,
  "▁associ": 6949,
  "▁fagali": 6950,
  "mabɔsara": 6951,
  "▁baptême": 6952,
  "▁murukuw": 6953,
  "▁proches": 6954,
  "▁sɛbɛnna": 6955,
  "▁mauvaise": 6956,
  "▁ɲagaminin": 6957,
  "DY": 6958,
  "elo": 6959,
  "nal": 6960,
  "phés": 6961,
  "▁lac": 6962,
  "pôtre": 6963,
  "ɔrɔgɔ": 6964,
  "▁beso": 6965,
  "▁figu": 6966,
  "▁lalɔ": 6967,
  "▁mass": 6968,
  "kunbɛn": 6969,
  "▁tando": 6970,
  "▁tombé": 6971,
  "▁waaju": 6972,
  "mérique": 6973,
  "▁classe": 6974,
  "▁filila": 6975,
  "▁voyant": 6976,
  "ancienne": 6977,
  "▁alijɛnɛ": 6978,
  "▁décédée": 6979,
  "▁kɔgɔdugu": 6980,
  "▁puissant": 6981,
  "▁éternellement": 6982,
  "/0": 6983,
  "?'": 6984,
  "cte": 6985,
  "▁Go": 6986,
  "▁jò": 6987,
  "mine": 6988,
  "sogo": 6989,
  "ƐNTI": 6990,
  "ɲana": 6991,
  "▁ahi": 6992,
  "▁dol": 6993,
  "Jésus": 6994,
  "▁Faso": 6995,
  "▁duga": 6996,
  "▁jigɛ": 6997,
  "▁kaga": 6998,
  "▁lien": 6999,
  "▁tenu": 7000,
  "▁banan": 7001,
  "▁dunya": 7002,
  "▁kpuro": 7003,
  "▁répan": 7004,
  "ƐNTIKAW": 7005,
  "▁Frères": 7006,
  "▁Kabini": 7007,
  "▁aimons": 7008,
  "▁minanw": 7009,
  "▁refusé": 7010,
  "phésiens": 7011,
  "▁apporte": 7012,
  "▁taayɔrɔ": 7013,
  "assurance": 7014,
  "▁Regardez": 7015,
  "▁djamanan": 7016,
  "▁limaniya": 7017,
  "▁regarder": 7018,
  "▁KORƐNTIKAW": 7019,
  "▁compassion": 7020,
  "▁concernant": 7021,
  "▁connaissais": 7022,
  "tò": 7023,
  "How": 7024,
  "▁08": 7025,
  "▁Mu": 7026,
  "▁Pe": 7027,
  "Minw": 7028,
  "adul": 7029,
  "▁rej": 7030,
  "▁yes": 7031,
  "gueur": 7032,
  "laman": 7033,
  "quête": 7034,
  "écart": 7035,
  "▁Foyi": 7036,
  "▁Nord": 7037,
  "▁sila": 7038,
  "ourage": 7039,
  "▁Aucun": 7040,
  "▁bonté": 7041,
  "▁béssé": 7042,
  "▁cɛnni": 7043,
  "▁défin": 7044,
  "▁terri": 7045,
  "appréci": 7046,
  "▁Misira": 7047,
  "▁dépend": 7048,
  "▁faveur": 7049,
  "▁matins": 7050,
  "▁écrire": 7051,
  "▁détruit": 7052,
  "▁esprits": 7053,
  "▁wusulan": 7054,
  "veillance": 7055,
  "▁Jourdain": 7056,
  "▁toutefois": 7057,
  "▁téléphone": 7058,
  "ls": 7059,
  ":30": 7060,
  "src": 7061,
  "▁tâ": 7062,
  "isez": 7063,
  "kiki": 7064,
  "ouff": 7065,
  "rine": 7066,
  "ypoc": 7067,
  "▁few": 7068,
  "▁imm": 7069,
  "irili": 7070,
  "ouvre": 7071,
  "ustra": 7072,
  "▁afri": 7073,
  "▁agak": 7074,
  "▁kônô": 7075,
  "▁kɛli": 7076,
  "▁lang": 7077,
  "▁tigè": 7078,
  "▁butun": 7079,
  "▁démar": 7080,
  "▁gafew": 7081,
  "▁multi": 7082,
  "▁sijan": 7083,
  "▁tribu": 7084,
  "anglais": 7085,
  "▁consom": 7086,
  "▁envoya": 7087,
  "▁kilomè": 7088,
  "▁moyens": 7089,
  "▁séjour": 7090,
  "▁souvenir": 7091,
  "▁sɛgɛsɛgɛ": 7092,
  "23": 7093,
  "Ele": 7094,
  "▁ɲɔ": 7095,
  "ctri": 7096,
  "mori": 7097,
  "sept": 7098,
  "▁bha": 7099,
  "▁ikɔ": 7100,
  "▁myé": 7101,
  "ignor": 7102,
  "▁Bali": 7103,
  "▁célé": 7104,
  "▁dure": 7105,
  "▁gban": 7106,
  "▁énor": 7107,
  "▁ɲimi": 7108,
  "blique": 7109,
  "estion": 7110,
  "▁Sinon": 7111,
  "▁comba": 7112,
  "▁girin": 7113,
  "▁mogow": 7114,
  "abilité": 7115,
  "diyanin": 7116,
  "ondance": 7117,
  "▁finman": 7118,
  "▁monter": 7119,
  "▁procla": 7120,
  "▁Combien": 7121,
  "▁monsieur": 7122,
  "▁richesse": 7123,
  "▁souffert": 7124,
  "▁fonctionn": 7125,
  "▁arrivèrent": 7126,
  "▁conditions": 7127,
  "intermédiaire": 7128,
  "2,": 7129,
  "ST": 7130,
  "yr": 7131,
  "éva": 7132,
  "▁Ge": 7133,
  "▁Gl": 7134,
  "tera": 7135,
  "▁alo": 7136,
  "▁dow": 7137,
  "▁dra": 7138,
  "▁kle": 7139,
  "▁red": 7140,
  "aucun": 7141,
  "liqué": 7142,
  "maine": 7143,
  "▁alle": 7144,
  "▁bawo": 7145,
  "▁bira": 7146,
  "▁ving": 7147,
  "garamu": 7148,
  "▁bɛgɛn": 7149,
  "▁kinin": 7150,
  "▁landa": 7151,
  "▁seuls": 7152,
  "▁marier": 7153,
  "▁provin": 7154,
  "▁sainte": 7155,
  "▁nilifɛn": 7156,
  "▁raisons": 7157,
  "▁karamògò": 7158,
  "▁mɔgɔjugu": 7159,
  "▁pécheurs": 7160,
  "▁furuɲɔgɔn": 7161,
  "kara": 7162,
  "tère": 7163,
  "▁win": 7164,
  "▁2019": 7165,
  "▁buka": 7166,
  "▁jugé": 7167,
  "▁Pente": 7168,
  "▁dingɛ": 7169,
  "▁kwlaa": 7170,
  "▁commer": 7171,
  "▁promis": 7172,
  "habitude": 7173,
  "héritage": 7174,
  "▁contribu": 7175,
  "▁jaabiliw": 7176,
  "De": 7177,
  "▁wì": 7178,
  "▁yū": 7179,
  "alen": 7180,
  "osué": 7181,
  "▁Kor": 7182,
  "▁Zoz": 7183,
  "▁cris": 7184,
  "▁mode": 7185,
  "▁Selon": 7186,
  "▁aimes": 7187,
  "▁poste": 7188,
  "▁procé": 7189,
  "▁teris": 7190,
  "alement": 7191,
  "onniers": 7192,
  "▁couver": 7193,
  "▁djaman": 7194,
  "▁détest": 7195,
  "▁fitinɛ": 7196,
  "▁précéd": 7197,
  "▁conseil": 7198,
  "▁mettent": 7199,
  "▁montrer": 7200,
  "▁octobre": 7201,
  "▁disciple": 7202,
  "▁relations": 7203,
  "▁lesquelles": 7204,
  "yn": 7205,
  "ïm": 7206,
  ":37": 7207,
  "let": 7208,
  "▁Yū": 7209,
  "▁nn": 7210,
  "▁sà": 7211,
  "rale": 7212,
  "baari": 7213,
  "ertes": 7214,
  "intes": 7215,
  "pitre": 7216,
  "▁Cont": 7217,
  "▁lune": 7218,
  "▁navi": 7219,
  "▁show": 7220,
  "▁wana": 7221,
  "itesse": 7222,
  "approcha": 7223,
  "autorité": 7224,
  "enseigner": 7225,
  "▁réveille": 7226,
  "mou": 7227,
  "net": 7228,
  "▁5-": 7229,
  "▁Nɛ": 7230,
  "uves": 7231,
  "ènes": 7232,
  "▁lay": 7233,
  "▁Zuru": 7234,
  "▁dògò": 7235,
  "rences": 7236,
  "▁Josué": 7237,
  "▁Tɔɔrɔ": 7238,
  "▁annon": 7239,
  "▁écris": 7240,
  "assurer": 7241,
  "▁batoso": 7242,
  "▁nyuman": 7243,
  "▁Zurudɛn": 7244,
  "▁accepté": 7245,
  "▁croyons": 7246,
  "▁souffre": 7247,
  "▁ancêtres": 7248,
  "▁récompense": 7249,
  "imm": 7250,
  "▁Az": 7251,
  "oure": 7252,
  "èmes": 7253,
  "▁Lee": 7254,
  "▁Lon": 7255,
  "aurez": 7256,
  "▁assu": 7257,
  "▁fier": 7258,
  "▁girɛ": 7259,
  "▁libé": 7260,
  "▁régu": 7261,
  "▁yɛgɛ": 7262,
  "kojugu": 7263,
  "▁culte": 7264,
  "▁cœurs": 7265,
  "▁série": 7266,
  "▁entraî": 7267,
  "▁racont": 7268,
  "▁rentre": 7269,
  "▁secret": 7270,
  "exprimer": 7271,
  "▁tileben": 7272,
  "▁utilisé": 7273,
  "▁terisɔbɛw": 7274,
  "▁tilenbaliya": 7275,
  "Ye": 7276,
  "▁ô": 7277,
  "ias": 7278,
  "inv": 7279,
  "qua": 7280,
  "▁fé": 7281,
  "Siya": 7282,
  "Tiɲè": 7283,
  "abuw": 7284,
  "bies": 7285,
  "pent": 7286,
  "unan": 7287,
  "▁oyé": 7288,
  "▁the": 7289,
  "dasiw": 7290,
  "minan": 7291,
  "vités": 7292,
  "▁best": 7293,
  "▁kiss": 7294,
  "▁lolo": 7295,
  "Europe": 7296,
  "Italie": 7297,
  "▁2005:": 7298,
  "▁Allez": 7299,
  "▁convi": 7300,
  "▁Hakili": 7301,
  "▁danfɛn": 7302,
  "▁fitini": 7303,
  "▁taille": 7304,
  "▁tintin": 7305,
  "▁touman": 7306,
  "appelles": 7307,
  "▁bwisiku": 7308,
  "▁Samuyɛli": 7309,
  "▁yɛrɛboɲa": 7310,
  "accompagne": 7311,
  "▁sarakabɔyɔrɔ": 7312,
  "1,": 7313,
  "2.": 7314,
  "Nii": 7315,
  "▁09": 7316,
  "▁nw": 7317,
  "Tile": 7318,
  "perç": 7319,
  "▁aya": 7320,
  "kinwa": 7321,
  "tionn": 7322,
  "truis": 7323,
  "Ɲɔgɔn": 7324,
  "▁!...": 7325,
  "▁Toke": 7326,
  "▁bann": 7327,
  "▁célè": 7328,
  "▁tchi": 7329,
  "essaie": 7330,
  "▁effra": 7331,
  "▁faute": 7332,
  "▁nankɔ": 7333,
  "gwɛdafɛ": 7334,
  "▁arriva": 7335,
  "▁kourou": 7336,
  "▁progra": 7337,
  "▁Makinwa": 7338,
  "▁maîtres": 7339,
  "▁séparer": 7340,
  "▁wasanin": 7341,
  "adressant": 7342,
  "▁retourna": 7343,
  "jɛ": 7344,
  "yɔ": 7345,
  "▁Po": 7346,
  "lité": 7347,
  "éner": 7348,
  "▁Naw": 7349,
  "▁Pri": 7350,
  "▁ind": 7351,
  "▁kɛn": 7352,
  "▁mag": 7353,
  "affir": 7354,
  "ieuse": 7355,
  "ɔgɔmɛ": 7356,
  "▁jeux": 7357,
  "▁mean": 7358,
  "▁meri": 7359,
  "▁wale": 7360,
  "▁Asiri": 7361,
  "▁bruit": 7362,
  "▁makar": 7363,
  "▁talen": 7364,
  "▁Dumuni": 7365,
  "▁litres": 7366,
  "▁succès": 7367,
  "▁éviter": 7368,
  "attendre": 7369,
  "▁effectu": 7370,
  "éducation": 7371,
  "▁manamana": 7372,
  "▁villages": 7373,
  "▁Fariziɲɛw": 7374,
  "▁construit": 7375,
  "▁miligaramu": 7376,
  "▁effectivement": 7377,
  "▁mɔgɔtilenninw": 7378,
  "40": 7379,
  "ks": 7380,
  "aro": 7381,
  "bow": 7382,
  "èle": 7383,
  "ɔna": 7384,
  "▁Kà": 7385,
  "▁om": 7386,
  "isit": 7387,
  "obli": 7388,
  "▁côt": 7389,
  "▁jam": 7390,
  "faire": 7391,
  "isode": 7392,
  "▁labɔ": 7393,
  "▁myst": 7394,
  "▁occu": 7395,
  "▁sage": 7396,
  "▁tort": 7397,
  "▁véhi": 7398,
  "uwifuw": 7399,
  "▁Yinni": 7400,
  "▁talon": 7401,
  "▁égard": 7402,
  "▁extrém": 7403,
  "▁gagner": 7404,
  "▁labila": 7405,
  "▁trésor": 7406,
  "▁Hɔrɔnya": 7407,
  "▁esclave": 7408,
  "▁passage": 7409,
  "▁certaine": 7410,
  "▁kisibaga": 7411,
  "▁ministre": 7412,
  "On": 7413,
  "gt": 7414,
  "bin": 7415,
  "ève": 7416,
  "▁6-": 7417,
  "▁LI": 7418,
  "▁zo": 7419,
  "avec": 7420,
  "exer": 7421,
  "giri": 7422,
  "moin": 7423,
  "▁jig": 7424,
  "▁ooo": 7425,
  "▁won": 7426,
  "athan": 7427,
  "▁Gafe": 7428,
  "▁faud": 7429,
  "▁tool": 7430,
  "▁tués": 7431,
  "▁vict": 7432,
  "▁wôrô": 7433,
  "ignait": 7434,
  "lèrent": 7435,
  "érable": 7436,
  "▁Minnu": 7437,
  "▁kɔnin": 7438,
  "▁faible": 7439,
  "▁feront": 7440,
  "▁lafiya": 7441,
  "▁libres": 7442,
  "▁nafama": 7443,
  "▁saninw": 7444,
  "▁tomber": 7445,
  "▁vienne": 7446,
  "▁yèlèma": 7447,
  "empêcher": 7448,
  "▁essayer": 7449,
  "▁fagakun": 7450,
  "▁kɛlɛden": 7451,
  "▁réalisé": 7452,
  "▁surtout": 7453,
  "▁novembre": 7454,
  "▁enseigner": 7455,
  "▁tristesse": 7456,
  "▁banabagatɔw": 7457,
  "Isirayɛlidenw": 7458,
  "Ba": 7459,
  "awu": 7460,
  "ink": 7461,
  "mat": 7462,
  "▁mì": 7463,
  "▁nɑ": 7464,
  "Kira": 7465,
  "irer": 7466,
  "itoy": 7467,
  "▁Dal": 7468,
  "▁bul": 7469,
  "▁nés": 7470,
  "▁éti": 7471,
  "▁ƝƐƐ": 7472,
  "istan": 7473,
  "kinin": 7474,
  "lever": 7475,
  "trême": 7476,
  "▁Mase": 7477,
  "▁Saul": 7478,
  "▁Sran": 7479,
  "▁auto": 7480,
  "▁bête": 7481,
  "▁honn": 7482,
  "▁kabô": 7483,
  "▁timi": 7484,
  "▁baraka": 7485,
  "▁kosèbè": 7486,
  "▁2012...": 7487,
  "▁terminé": 7488,
  "▁nyininka": 7489,
  "Ɲɔgɔnkanuya": 7490,
  "16": 7491,
  "▁ay": 7492,
  "Sɛbɛ": 7493,
  "meau": 7494,
  "ɔgwɛ": 7495,
  "▁Bàa": 7496,
  "▁Lou": 7497,
  "▁shi": 7498,
  "▁sug": 7499,
  "▁tùn": 7500,
  "aurai": 7501,
  "ordin": 7502,
  "▁dent": 7503,
  "▁ence": 7504,
  "▁gars": 7505,
  "▁gbɔn": 7506,
  "▁hist": 7507,
  "▁naxa": 7508,
  "▁scri": 7509,
  "ection": 7510,
  "▁actes": 7511,
  "▁clair": 7512,
  "▁fɛɛnw": 7513,
  "▁liste": 7514,
  "▁sagaw": 7515,
  "▁sarah": 7516,
  "▁trait": 7517,
  "▁appart": 7518,
  "▁batoli": 7519,
  "▁compét": 7520,
  "▁kisira": 7521,
  "▁longer": 7522,
  "▁révélé": 7523,
  "▁sauvée": 7524,
  "▁appelée": 7525,
  "▁bamanan": 7526,
  "▁envoyés": 7527,
  "▁teliman": 7528,
  "▁contrôle": 7529,
  "▁devaient": 7530,
  "▁halakili": 7531,
  "▁retrouve": 7532,
  "▁véritable": 7533,
  "Pi": 7534,
  "Ya": 7535,
  "xin": 7536,
  "Asie": 7537,
  "affi": 7538,
  "bura": 7539,
  "gban": 7540,
  "sili": 7541,
  "▁Ret": 7542,
  "▁bei": 7543,
  "▁cat": 7544,
  "▁lal": 7545,
  "▁tòw": 7546,
  "appar": 7547,
  "▁bare": 7548,
  "▁doni": 7549,
  "▁kofɔ": 7550,
  "▁mars": 7551,
  "▁peau": 7552,
  "assiez": 7553,
  "kilila": 7554,
  "oeuvre": 7555,
  "▁côtés": 7556,
  "absence": 7557,
  "aration": 7558,
  "▁Kibaro": 7559,
  "▁Samuel": 7560,
  "▁lafili": 7561,
  "▁Ameriki": 7562,
  "▁Saamori": 7563,
  "▁accompl": 7564,
  "▁daganin": 7565,
  "▁fassiez": 7566,
  "▁nalonma": 7567,
  "▁sababou": 7568,
  "▁secours": 7569,
  "avènement": 7570,
  "▁Kalanden": 7571,
  "▁capables": 7572,
  "▁patience": 7573,
  "▁recomman": 7574,
  "▁multitude": 7575,
  "▁politique": 7576,
  "▁conséquent": 7577,
  "hô": 7578,
  "nw": 7579,
  "asu": 7580,
  "kir": 7581,
  "lot": 7582,
  "▁II": 7583,
  "▁NA": 7584,
  "côte": 7585,
  "mont": 7586,
  "ouss": 7587,
  "vons": 7588,
  "▁GON": 7589,
  "▁kɛɛ": 7590,
  "▁méc": 7591,
  "▁née": 7592,
  "aninw": 7593,
  "joint": 7594,
  "▁cuis": 7595,
  "▁datu": 7596,
  "▁essa": 7597,
  "▁wafa": 7598,
  "▁âgée": 7599,
  "Krista": 7600,
  "associ": 7601,
  "guille": 7602,
  "▁13:11": 7603,
  "▁1905.": 7604,
  "▁Aussi": 7605,
  "▁Jasin": 7606,
  "▁biran": 7607,
  "▁danga": 7608,
  "▁fòlen": 7609,
  "▁refus": 7610,
  "▁étais": 7611,
  "▁compos": 7612,
  "▁démons": 7613,
  "▁kolati": 7614,
  "▁montré": 7615,
  "▁yamaan": 7616,
  "▁atteint": 7617,
  "▁général": 7618,
  "▁partage": 7619,
  "▁yòrònin": 7620,
  "▁résultat": 7621,
  "▁suivante": 7622,
  "▁baaradenw": 7623,
  "▁richesses": 7624,
  "▁vingtaine": 7625,
  "▁bénédiction": 7626,
  "▁dɛsɛbagatɔw": 7627,
  "▁certainement": 7628,
  "kô": 7629,
  "ms": 7630,
  "avi": 7631,
  "éma": 7632,
  "▁».": 7633,
  "dala": 7634,
  "▁cop": 7635,
  "coute": 7636,
  "zième": 7637,
  "▁sexu": 7638,
  "▁Pâque": 7639,
  "▁accue": 7640,
  "▁kabak": 7641,
  "▁kuman": 7642,
  "▁sabia": 7643,
  "▁Bamako": 7644,
  "▁dessus": 7645,
  "▁joueur": 7646,
  "▁police": 7647,
  "▁tigɛra": 7648,
  "▁tougou": 7649,
  "▁mission": 7650,
  "▁ɲènamaya": 7651,
  "▁formation": 7652,
  "▁caractéris": 7653,
  "▁participer": 7654,
  "▁événements": 7655,
  ".:": 7656,
  "EL": 7657,
  "bɛɛ": 7658,
  "▁IS": 7659,
  "Saan": 7660,
  "aimé": 7661,
  "vrez": 7662,
  "▁ain": 7663,
  "▁fré": 7664,
  "▁fuu": 7665,
  "▁lol": 7666,
  "entes": 7667,
  "▁bisi": 7668,
  "▁moon": 7669,
  "▁Japon": 7670,
  "écouter": 7671,
  "▁boirai": 7672,
  "▁duguba": 7673,
  "▁eurent": 7674,
  "▁tribus": 7675,
  "▁tuguni": 7676,
  "▁pensées": 7677,
  "intéresse": 7678,
  "▁Créateur": 7679,
  "▁Prophète": 7680,
  "▁derrière": 7681,
  "▁manières": 7682,
  "▁wasabali": 7683,
  "▁bwisikumɔ": 7684,
  "▁manifesté": 7685,
  "▁mɔgɔɲuman": 7686,
  "▁supplémentaires": 7687,
  "Car": 7688,
  "cés": 7689,
  "jɛn": 7690,
  "avis": 7691,
  "ɔngɔ": 7692,
  "icace": 7693,
  "verse": 7694,
  "érode": 7695,
  "▁adop": 7696,
  "▁jera": 7697,
  "▁nian": 7698,
  "▁toro": 7699,
  "tivité": 7700,
  "yɛlɛma": 7701,
  "▁Donne": 7702,
  "▁Efara": 7703,
  "▁Priez": 7704,
  "▁fuite": 7705,
  "▁objet": 7706,
  "▁égaux": 7707,
  "antaine": 7708,
  "▁gèlèya": 7709,
  "▁jakuma": 7710,
  "▁marché": 7711,
  "▁prénom": 7712,
  "▁saison": 7713,
  "ablement": 7714,
  "▁baptisé": 7715,
  "▁jumalon": 7716,
  "▁pourrez": 7717,
  "▁setigiw": 7718,
  "▁aliments": 7719,
  "▁allaient": 7720,
  "▁partager": 7721,
  "▁présents": 7722,
  "▁services": 7723,
  "▁Attention": 7724,
  "▁centaines": 7725,
  "▁particulier": 7726,
  "▁prisonniers": 7727,
  "▁kɛlɛkɛminanw": 7728,
  "Ha": 7729,
  ":49": 7730,
  "too": 7731,
  "lila": 7732,
  "▁Ang": 7733,
  "Mɔgɔw": 7734,
  "Waati": 7735,
  "doine": 7736,
  "ereur": 7737,
  "kalan": 7738,
  "ounou": 7739,
  "▁Macé": 7740,
  "▁Para": 7741,
  "▁enga": 7742,
  "▁exer": 7743,
  "▁géné": 7744,
  "▁hèrè": 7745,
  "▁miss": 7746,
  "▁Biblu": 7747,
  "▁chiff": 7748,
  "obtenir": 7749,
  "▁kɔgɔji": 7750,
  "▁months": 7751,
  "▁vision": 7752,
  "interpré": 7753,
  "ignorance": 7754,
  "▁teliyara": 7755,
  "▁Nisɔndiya": 7756,
  "▁décisions": 7757,
  "ft": 7758,
  "▁lâ": 7759,
  "elly": 7760,
  "▁Caï": 7761,
  "▁Jer": 7762,
  "▁Lko": 7763,
  "▁Six": 7764,
  "▁web": 7765,
  "accès": 7766,
  "élève": 7767,
  "▁Paix": 7768,
  "▁avan": 7769,
  "▁bere": 7770,
  "▁bɔni": 7771,
  "▁kèrè": 7772,
  "▁naga": 7773,
  "▁pleu": 7774,
  "▁Jonas": 7775,
  "▁cruci": 7776,
  "▁juges": 7777,
  "▁pages": 7778,
  "▁quels": 7779,
  "▁troup": 7780,
  "atrième": 7781,
  "▁Lkoinw": 7782,
  "▁finita": 7783,
  "▁mariée": 7784,
  "▁Dɔnkili": 7785,
  "▁chanson": 7786,
  "▁donnent": 7787,
  "▁israéli": 7788,
  "▁régions": 7789,
  "▁position": 7790,
  "▁tɛmɛnnen": 7791,
  "▁ɲagamina": 7792,
  "▁Denmisɛnw": 7793,
  "▁bamanankan": 7794,
  "▁changement": 7795,
  "▁extrémités": 7796,
  "ns": 7797,
  "̀rɔ": 7798,
  "▁2,": 7799,
  "heli": 7800,
  "ones": 7801,
  "vidu": 7802,
  "yusi": 7803,
  "▁103": 7804,
  "▁dɔɔ": 7805,
  "▁ram": 7806,
  "▁rég": 7807,
  "Alors": 7808,
  "agers": 7809,
  "iques": 7810,
  "▁bɔgɔ": 7811,
  "▁docu": 7812,
  "▁nayi": 7813,
  "▁salu": 7814,
  "onnant": 7815,
  "▁Barna": 7816,
  "▁gnana": 7817,
  "▁haute": 7818,
  "▁topic": 7819,
  "▁vigne": 7820,
  "biesage": 7821,
  "▁dajuru": 7822,
  "▁dɔɔnin": 7823,
  "▁pareil": 7824,
  "▁positi": 7825,
  "▁sebari": 7826,
  "▁telles": 7827,
  "critures": 7828,
  "▁parfait": 7829,
  "▁agréable": 7830,
  "▁postérité": 7831,
  "▁réveillez": 7832,
  "▁importante": 7833,
  "▁Mboobiesage": 7834,
  "▁kumaɲɔgɔnya": 7835,
  "12": 7836,
  "uel": 7837,
  "zam": 7838,
  "éga": 7839,
  "▁??": 7840,
  "▁VI": 7841,
  "▁sù": 7842,
  "cris": 7843,
  "golo": 7844,
  "onge": 7845,
  "ungu": 7846,
  "▁Dés": 7847,
  "▁Met": 7848,
  "▁Wal": 7849,
  "▁bor": 7850,
  "▁dum": 7851,
  "▁ita": 7852,
  "▁tar": 7853,
  "▁tee": 7854,
  "assin": 7855,
  "chons": 7856,
  "▁fair": 7857,
  "▁suit": 7858,
  "▁vies": 7859,
  "▁yaga": 7860,
  "écrire": 7861,
  "▁Russi": 7862,
  "▁enjoy": 7863,
  "▁maint": 7864,
  "▁maraw": 7865,
  "▁révol": 7866,
  "▁assemb": 7867,
  "▁course": 7868,
  "▁kɛyɔrɔ": 7869,
  "▁membre": 7870,
  "▁muɲuli": 7871,
  "▁restée": 7872,
  "▁sanctu": 7873,
  "▁possède": 7874,
  "▁créature": 7875,
  "▁transfor": 7876,
  "▁généralement": 7877,
  "8.": 7878,
  "oz": 7879,
  ":21": 7880,
  "Eli": 7881,
  "eng": 7882,
  "pan": 7883,
  "pri": 7884,
  "tir": 7885,
  "tta": 7886,
  "ège": 7887,
  "▁62": 7888,
  "▁Yɛ": 7889,
  "▁ze": 7890,
  "caux": 7891,
  "siez": 7892,
  "▁Pré": 7893,
  "▁kee": 7894,
  "▁Abra": 7895,
  "▁Ciel": 7896,
  "▁dala": 7897,
  "gɛninw": 7898,
  "▁créer": 7899,
  "▁dimin": 7900,
  "▁offre": 7901,
  "▁prati": 7902,
  "▁épous": 7903,
  "▁Maison": 7904,
  "▁baiser": 7905,
  "▁consid": 7906,
  "▁identi": 7907,
  "▁restau": 7908,
  "▁propose": 7909,
  "▁rentrer": 7910,
  "▁douleurs": 7911,
  "▁détermin": 7912,
  "▁dɛmɛbaga": 7913,
  "▁pourront": 7914,
  "▁étranger": 7915,
  "▁Macédoine": 7916,
  "8,": 7917,
  "KE": 7918,
  "lâ": 7919,
  "mn": 7920,
  ":44": 7921,
  "osa": 7922,
  "yés": 7923,
  "zab": 7924,
  "▁lì": 7925,
  "▁ng": 7926,
  "▁Fan": 7927,
  "▁Ici": 7928,
  "▁Sod": 7929,
  "▁nyɛ": 7930,
  "▁tit": 7931,
  "▁vir": 7932,
  "cient": 7933,
  "ouman": 7934,
  "quant": 7935,
  "▁1959": 7936,
  "▁Fɔlɔ": 7937,
  "▁Tiɲè": 7938,
  "▁jogo": 7939,
  "▁kuwo": 7940,
  "▁téré": 7941,
  "ugulan": 7942,
  "▁conon": 7943,
  "▁lorou": 7944,
  "▁duurun": 7945,
  "▁vivent": 7946,
  "eusement": 7947,
  "▁Pentecôte": 7948,
  "▁trouverez": 7949,
  "▁ɲininkali": 7950,
  "▁expérience": 7951,
  "▁reviendrai": 7952,
  "22": 7953,
  "ty": 7954,
  "èri": 7955,
  "▁8.": 7956,
  "▁gɛ": 7957,
  "kira": 7958,
  "liba": 7959,
  "tive": 7960,
  "▁Bɛn": 7961,
  "▁gué": 7962,
  "▁hom": 7963,
  "▁iya": 7964,
  "▁mod": 7965,
  "▁nus": 7966,
  "eront": 7967,
  "quité": 7968,
  "▁Jula": 7969,
  "▁Papa": 7970,
  "▁anin": 7971,
  "▁bɛrɛ": 7972,
  "▁dila": 7973,
  "▁kila": 7974,
  "▁Parle": 7975,
  "▁banba": 7976,
  "▁convo": 7977,
  "▁court": 7978,
  "▁menti": 7979,
  "▁Zonasi": 7980,
  "▁palais": 7981,
  "▁pleine": 7982,
  "▁prenez": 7983,
  "▁rendez": 7984,
  "▁jurumuw": 7985,
  "▁waliman": 7986,
  "▁interdit": 7987,
  "▁souviens": 7988,
  "▁considéré": 7989,
  "▁respecter": 7990,
  ".-": 7991,
  "üm": 7992,
  "bɔn": 7993,
  "hoo": 7994,
  "pha": 7995,
  "yas": 7996,
  "ɛni": 7997,
  "cept": 7998,
  "face": 7999,
  "quée": 8000,
  "▁Mat": 8001,
  "▁Sɔrɔ": 8002,
  "▁jang": 8003,
  "▁koni": 8004,
  "▁odds": 8005,
  "batigi": 8006,
  "istère": 8007,
  "kɛyɔrɔ": 8008,
  "▁14:17": 8009,
  "▁Maana": 8010,
  "▁beyen": 8011,
  "▁gagné": 8012,
  "▁koura": 8013,
  "▁mouve": 8014,
  "▁tolon": 8015,
  "arriver": 8016,
  "▁annonce": 8017,
  "▁entière": 8018,
  "▁ressent": 8019,
  "▁sebaaya": 8020,
  "▁écouter": 8021,
  "▁efficace": 8022,
  "▁sɔgɔmadafɛ": 8023,
  "▁Sarakalasebagaw": 8024,
  ",,": 8025,
  "weh": 8026,
  "▁03": 8027,
  "▁64": 8028,
  "▁Ve": 8029,
  "Tuma": 8030,
  "anie": 8031,
  "atte": 8032,
  "tanw": 8033,
  "ushi": 8034,
  "▁Aka": 8035,
  "▁Nos": 8036,
  "▁sam": 8037,
  "asiga": 8038,
  "yafɛn": 8039,
  "▁atti": 8040,
  "▁fiye": 8041,
  "▁fɔli": 8042,
  "▁hate": 8043,
  "▁kili": 8044,
  "▁natɔ": 8045,
  "▁vain": 8046,
  "yirali": 8047,
  "▁Miiri": 8048,
  "▁bande": 8049,
  "▁cessé": 8050,
  "▁divin": 8051,
  "▁déliv": 8052,
  "▁weeks": 8053,
  "▁cacher": 8054,
  "▁dating": 8055,
  "▁destru": 8056,
  "▁perdre": 8057,
  "▁saviez": 8058,
  "▁suffit": 8059,
  "▁joindre": 8060,
  "▁kibaari": 8061,
  "▁scribes": 8062,
  "▁duurunan": 8063,
  "▁merveill": 8064,
  "▁réveillé": 8065,
  "▁étudiants": 8066,
  "▁jɛnɲɔgɔnya": 8067,
  "▁professeur": 8068,
  "anniversaire": 8069,
  "▁difficultés": 8070,
  "▁possibilité": 8071,
  "gs": 8072,
  "ŋɔ": 8073,
  "ies": 8074,
  "ésé": 8075,
  "ɔtɔ": 8076,
  "aveu": 8077,
  "huma": 8078,
  "pect": 8079,
  "▁Ban": 8080,
  "▁Jam": 8081,
  "▁Nan": 8082,
  "▁jal": 8083,
  "▁lis": 8084,
  "▁oya": 8085,
  "Isaac": 8086,
  "autel": 8087,
  "diyan": 8088,
  "ondon": 8089,
  "▁Beth": 8090,
  "▁Gaza": 8091,
  "▁Wari": 8092,
  "▁jusu": 8093,
  "▁kɛta": 8094,
  "▁subs": 8095,
  "▁tèmè": 8096,
  "▁épar": 8097,
  "▁bible": 8098,
  "▁siens": 8099,
  "acheter": 8100,
  "ɲasiran": 8101,
  "▁distri": 8102,
  "▁forces": 8103,
  "▁lasigi": 8104,
  "▁répand": 8105,
  "▁sɔsɔli": 8106,
  "▁tericɛ": 8107,
  "▁adolesc": 8108,
  "▁anglais": 8109,
  "▁chambre": 8110,
  "▁chanter": 8111,
  "▁groupes": 8112,
  "▁pensais": 8113,
  "▁siècles": 8114,
  "▁version": 8115,
  "▁voisins": 8116,
  "▁heureuse": 8117,
  "▁seraient": 8118,
  "▁télévision": 8119,
  "25": 8120,
  "_.": 8121,
  "ado": 8122,
  "dom": 8123,
  "dée": 8124,
  "eus": 8125,
  "ful": 8126,
  "tou": 8127,
  "Ɔrɔ": 8128,
  "▁mm": 8129,
  "▁ur": 8130,
  "onda": 8131,
  "▁cel": 8132,
  "▁net": 8133,
  "▁évi": 8134,
  "▁Zaki": 8135,
  "▁jeté": 8136,
  "▁mien": 8137,
  "▁sauf": 8138,
  "▁Ibura": 8139,
  "▁Maman": 8140,
  "▁expri": 8141,
  "▁gofɛr": 8142,
  "▁ordin": 8143,
  "▁élevé": 8144,
  "ctement": 8145,
  "écoutez": 8146,
  "▁Mɔgɔba": 8147,
  "▁chance": 8148,
  "▁devint": 8149,
  "▁aveugle": 8150,
  "▁paradis": 8151,
  "▁Dɛmɛbaga": 8152,
  "▁condamné": 8153,
  "▁meilleurs": 8154,
  "▁Finalement": 8155,
  "▁Israɛldenw": 8156,
  "▁uniquement": 8157,
  "▁probablement": 8158,
  "▁connaissances": 8159,
  "19": 8160,
  "ɛf": 8161,
  "▁Â": 8162,
  "cro": 8163,
  "▁04": 8164,
  "▁8-": 8165,
  "▁my": 8166,
  "adap": 8167,
  "inab": 8168,
  "qués": 8169,
  "resp": 8170,
  "▁._.": 8171,
  "▁Efɛ": 8172,
  "▁Loo": 8173,
  "▁Yen": 8174,
  "▁ayé": 8175,
  "▁not": 8176,
  "liers": 8177,
  "rable": 8178,
  "▁Mana": 8179,
  "▁Masi": 8180,
  "▁bour": 8181,
  "▁fòra": 8182,
  "▁gwen": 8183,
  "▁yoli": 8184,
  "isible": 8185,
  "▁Sekit": 8186,
  "▁cɛman": 8187,
  "▁emmen": 8188,
  "▁haine": 8189,
  "▁ninja": 8190,
  "▁dayɛlɛ": 8191,
  "▁labato": 8192,
  "▁origin": 8193,
  "▁poursu": 8194,
  "▁relati": 8195,
  "▁témoin": 8196,
  "▁attenti": 8197,
  "▁danbaga": 8198,
  "▁kotoolu": 8199,
  "▁ladiliw": 8200,
  "▁dusukunw": 8201,
  "▁lesquels": 8202,
  "▁répondra": 8203,
  "▁senumanw": 8204,
  "▁telefɔni": 8205,
  "▁victimes": 8206,
  "▁Sekitemba": 8207,
  "▁denmisènw": 8208,
  "▁kowagarazu": 8209,
  "▁travaillent": 8210,
  "\"?": 8211,
  "IM": 8212,
  "Kis": 8213,
  "gari": 8214,
  "kunu": 8215,
  "yaan": 8216,
  "▁1:8": 8217,
  "▁Dur": 8218,
  "▁Enf": 8219,
  "▁Voy": 8220,
  "▁alé": 8221,
  "▁amé": 8222,
  "▁kpɑ": 8223,
  "▁reb": 8224,
  "▁usa": 8225,
  "accro": 8226,
  "asaya": 8227,
  "magne": 8228,
  "▁crit": 8229,
  "▁jɛgɛ": 8230,
  "▁kaun": 8231,
  "▁mali": 8232,
  "▁nota": 8233,
  "▁sɔng": 8234,
  "▁écla": 8235,
  "apôtre": 8236,
  "diyara": 8237,
  "hommes": 8238,
  "itaire": 8239,
  "▁falen": 8240,
  "▁futur": 8241,
  "▁style": 8242,
  "attache": 8243,
  "inabasi": 8244,
  "▁caract": 8245,
  "▁champs": 8246,
  "▁cɛfari": 8247,
  "▁djonan": 8248,
  "▁gwengw": 8249,
  "▁nouvel": 8250,
  "▁compter": 8251,
  "▁devenue": 8252,
  "▁scienti": 8253,
  "▁Samarita": 8254,
  "▁diverses": 8255,
  "▁entendit": 8256,
  "▁kantigiya": 8257,
  "▁Ezipitikaw": 8258,
  "▁sanctuaire": 8259,
  "▁~": 8260,
  ":38": 8261,
  "pir": 8262,
  "ɔrɛ": 8263,
  "▁BO": 8264,
  "rira": 8265,
  "Ɔrɔm": 8266,
  "▁eye": 8267,
  "▁iss": 8268,
  "▁kui": 8269,
  "▁plu": 8270,
  "▁sit": 8271,
  "Kalan": 8272,
  "oudre": 8273,
  "ressé": 8274,
  "▁Ruti": 8275,
  "▁chaî": 8276,
  "▁fron": 8277,
  "▁kizu": 8278,
  "▁prié": 8279,
  "entiel": 8280,
  "▁Lagaw": 8281,
  "▁benna": 8282,
  "▁cadre": 8283,
  "▁kablo": 8284,
  "▁kolɔn": 8285,
  "araître": 8286,
  "intérêt": 8287,
  "▁action": 8288,
  "▁couple": 8289,
  "▁fanŋga": 8290,
  "▁kɔrɔfɔ": 8291,
  "▁obtenu": 8292,
  "▁single": 8293,
  "▁tenait": 8294,
  "▁Ezekiel": 8295,
  "▁chameau": 8296,
  "▁crurent": 8297,
  "▁juguman": 8298,
  "▁pensent": 8299,
  "▁prononc": 8300,
  "▁distance": 8301,
  "▁protéger": 8302,
  "▁compréhen": 8303,
  "▁latigɛnin": 8304,
  "▁permettre": 8305,
  ".)": 8306,
  "bol": 8307,
  "era": 8308,
  "nge": 8309,
  "▁Sé": 8310,
  "emos": 8311,
  "lure": 8312,
  "▁Gen": 8313,
  "▁Tam": 8314,
  "▁Vou": 8315,
  "▁kor": 8316,
  "▁pén": 8317,
  "lande": 8318,
  "vingt": 8319,
  "▁Sont": 8320,
  "▁anni": 8321,
  "▁dili": 8322,
  "▁froi": 8323,
  "▁kene": 8324,
  "▁lata": 8325,
  "▁mâle": 8326,
  "▁Êtes": 8327,
  "bariya": 8328,
  "phraïm": 8329,
  "▁Diman": 8330,
  "▁Musow": 8331,
  "▁aloof": 8332,
  "▁bɛɛri": 8333,
  "▁jouer": 8334,
  "▁lever": 8335,
  "▁scène": 8336,
  "▁vrais": 8337,
  "mission": 8338,
  "▁Israèl": 8339,
  "▁argent": 8340,
  "▁habite": 8341,
  "▁miriya": 8342,
  "▁modèle": 8343,
  "▁tubabu": 8344,
  "▁yanfan": 8345,
  "▁célèbre": 8346,
  "▁matinée": 8347,
  "▁princes": 8348,
  "▁sixième": 8349,
  "▁victime": 8350,
  "interroge": 8351,
  "▁annoncer": 8352,
  "▁arrivent": 8353,
  "▁créateur": 8354,
  "▁fonction": 8355,
  "▁sacrific": 8356,
  "▁processus": 8357,
  "▁mɔgɔfagala": 8358,
  "▁synagogues": 8359,
  "AKI": 8360,
  "mos": 8361,
  "▁Ez": 8362,
  "▁uf": 8363,
  "▁»,": 8364,
  "▁194": 8365,
  "▁And": 8366,
  "▁tal": 8367,
  "Saint": 8368,
  "venir": 8369,
  "▁Koow": 8370,
  "▁LIKE": 8371,
  "▁awak": 8372,
  "▁doct": 8373,
  "▁domu": 8374,
  "▁espé": 8375,
  "▁fɔxɔ": 8376,
  "▁hehe": 8377,
  "▁soup": 8378,
  "▁Douze": 8379,
  "▁boule": 8380,
  "▁kakan": 8381,
  "▁kɔndɔ": 8382,
  "▁Quatre": 8383,
  "▁lèvres": 8384,
  "▁miseli": 8385,
  "▁refuse": 8386,
  "▁croyant": 8387,
  "▁matière": 8388,
  "▁patient": 8389,
  "▁sabemos": 8390,
  "affection": 8391,
  "▁baptiser": 8392,
  "▁conduire": 8393,
  "▁parfaite": 8394,
  "Dugugwɛdafɛ": 8395,
  "▁barikamanw": 8396,
  ".3": 8397,
  "”.": 8398,
  "Ass": 8399,
  "Olu": 8400,
  "dɔn": 8401,
  "▁Bɔ": 8402,
  "alle": 8403,
  "cipe": 8404,
  "enfu": 8405,
  "kɔti": 8406,
  "nent": 8407,
  "omob": 8408,
  "rase": 8409,
  "tika": 8410,
  "yɔti": 8411,
  "▁Cin": 8412,
  "▁Eff": 8413,
  "▁Pun": 8414,
  "▁ana": 8415,
  "▁bit": 8416,
  "▁bur": 8417,
  "▁kur": 8418,
  "▁sat": 8419,
  "finna": 8420,
  "habit": 8421,
  "ressi": 8422,
  "ôgôya": 8423,
  "▁Afin": 8424,
  "▁Bara": 8425,
  "▁Pard": 8426,
  "▁jiba": 8427,
  "▁kena": 8428,
  "▁moto": 8429,
  "▁6.000": 8430,
  "▁bolow": 8431,
  "▁démon": 8432,
  "▁maris": 8433,
  "▁salle": 8434,
  "▁video": 8435,
  "entends": 8436,
  "olument": 8437,
  "oreille": 8438,
  "▁Certes": 8439,
  "▁Mɛlɛkɛ": 8440,
  "▁apprit": 8441,
  "▁barque": 8442,
  "▁dogonin": 8443,
  "▁faibles": 8444,
  "▁gwengwen": 8445,
  "▁latigèra": 8446,
  "▁sigasiga": 8447,
  "▁lafiɲɛlon": 8448,
  "▁Pharisiens": 8449,
  "ŋɛ": 8450,
  "Fun": 8451,
  "daf": 8452,
  "oss": 8453,
  "▁CO": 8454,
  "erra": 8455,
  "nées": 8456,
  "raid": 8457,
  "▁art": 8458,
  "▁dak": 8459,
  "▁exh": 8460,
  "▁pal": 8461,
  "amuso": 8462,
  "arité": 8463,
  "jamin": 8464,
  "▁dɔrɔ": 8465,
  "▁séri": 8466,
  "▁tels": 8467,
  "▁yuun": 8468,
  "▁Inter": 8469,
  "▁adore": 8470,
  "▁baliw": 8471,
  "▁benin": 8472,
  "▁lutte": 8473,
  "▁nɔgɔn": 8474,
  "▁Israel": 8475,
  "▁Sɔgɔma": 8476,
  "▁Zozuwe": 8477,
  "▁afraid": 8478,
  "▁brebis": 8479,
  "▁confir": 8480,
  "▁envisa": 8481,
  "▁formes": 8482,
  "▁foules": 8483,
  "▁limite": 8484,
  "▁transp": 8485,
  "gyptiens": 8486,
  "▁interro": 8487,
  "▁halakira": 8488,
  "▁demandent": 8489,
  "▁kongosogo": 8490,
  "▁retrouver": 8491,
  "zɛ": 8492,
  "atɔ": 8493,
  "nie": 8494,
  "pro": 8495,
  "▁3:": 8496,
  "Kɛlɛ": 8497,
  "ceau": 8498,
  "gwan": 8499,
  "hali": 8500,
  "tume": 8501,
  "▁Der": 8502,
  "▁Sou": 8503,
  "▁Tes": 8504,
  "▁bai": 8505,
  "▁pen": 8506,
  "▁sai": 8507,
  "ensés": 8508,
  "vages": 8509,
  "▁Awak": 8510,
  "▁Siga": 8511,
  "▁Tala": 8512,
  "▁Yafa": 8513,
  "▁bòra": 8514,
  "▁dite": 8515,
  "▁joue": 8516,
  "▁keli": 8517,
  "▁kilo": 8518,
  "▁mere": 8519,
  "▁mute": 8520,
  "▁Sarah": 8521,
  "▁Sinaï": 8522,
  "▁bukak": 8523,
  "▁croya": 8524,
  "▁emplo": 8525,
  "▁gnini": 8526,
  "▁kônon": 8527,
  "Hɔrɔnya": 8528,
  "▁Canada": 8529,
  "▁cadeau": 8530,
  "▁restés": 8531,
  "▁senuma": 8532,
  "▁wotoro": 8533,
  "inations": 8534,
  "▁Zonatan": 8535,
  "▁faamuna": 8536,
  "▁jamanaw": 8537,
  "▁tumajan": 8538,
  "▁demeures": 8539,
  "▁lafiɲɛna": 8540,
  "▁dugumɔgɔw": 8541,
  "▁propriéta": 8542,
  "▁référence": 8543,
  "▁Alaɲasiran": 8544,
  "▁disponibles": 8545,
  "▁comportement": 8546,
  "▁développement": 8547,
  "LE": 8548,
  "ONK": 8549,
  "bal": 8550,
  "got": 8551,
  "ked": 8552,
  "UMAW": 8553,
  "anou": 8554,
  "▁Hii": 8555,
  "▁Uni": 8556,
  "▁ask": 8557,
  "▁jòn": 8558,
  "▁kel": 8559,
  "▁kum": 8560,
  "▁Faut": 8561,
  "▁Quoi": 8562,
  "▁Sela": 8563,
  "▁bwes": 8564,
  "▁doun": 8565,
  "▁déch": 8566,
  "▁lage": 8567,
  "▁mɔnɛ": 8568,
  "dirent": 8569,
  "foroko": 8570,
  "luence": 8571,
  "▁forêt": 8572,
  "▁nataw": 8573,
  "▁nyana": 8574,
  "▁patri": 8575,
  "▁swali": 8576,
  "ONKUMAW": 8577,
  "environ": 8578,
  "▁Sinayi": 8579,
  "▁connue": 8580,
  "▁offrir": 8581,
  "▁sɔtɔma": 8582,
  "▁tanuli": 8583,
  "▁tribun": 8584,
  "▁ŋaniya": 8585,
  "issaient": 8586,
  "▁Hébreux": 8587,
  "▁déclara": 8588,
  "▁réjouit": 8589,
  "▁tombeau": 8590,
  "▁commandé": 8591,
  "▁kizuushi": 8592,
  "▁nalomanw": 8593,
  "▁sɔgɔmada": 8594,
  "obéissance": 8595,
  "▁attendant": 8596,
  "▁DADONKUMAW": 8597,
  "▁enseignait": 8598,
  "!›": 8599,
  "6,": 8600,
  "εε": 8601,
  "met": 8602,
  "▁Sh": 8603,
  "▁dr": 8604,
  "aara": 8605,
  "auto": 8606,
  "yali": 8607,
  "▁Bat": 8608,
  "▁Isc": 8609,
  "▁agi": 8610,
  "▁awa": 8611,
  "▁ski": 8612,
  "▁xan": 8613,
  "agnol": 8614,
  "allez": 8615,
  "▁Leur": 8616,
  "▁kaɲi": 8617,
  "ancien": 8618,
  "ɔnniya": 8619,
  "▁2004.": 8620,
  "▁grave": 8621,
  "▁jeter": 8622,
  "▁achevé": 8623,
  "▁dirais": 8624,
  "▁phénom": 8625,
  "▁teriya": 8626,
  "▁gbasaya": 8627,
  "▁instant": 8628,
  "▁kabirin": 8629,
  "▁recevrez": 8630,
  "▁sinikɛnɛ": 8631,
  "▁tununinw": 8632,
  "▁importants": 8633,
  "st": 8634,
  "▁「": 8635,
  "esi": 8636,
  "ffe": 8637,
  "kɛn": 8638,
  "▁ID": 8639,
  "▁St": 8640,
  "aces": 8641,
  "arna": 8642,
  "unin": 8643,
  "éloi": 8644,
  "▁2:4": 8645,
  "▁bòn": 8646,
  "▁flè": 8647,
  "▁gri": 8648,
  "▁hor": 8649,
  "▁émo": 8650,
  "dited": 8651,
  "▁fare": 8652,
  "▁gnin": 8653,
  "▁mɔru": 8654,
  "▁soɲa": 8655,
  "▁spec": 8656,
  "entraî": 8657,
  "▁calme": 8658,
  "▁findi": 8659,
  "▁fixes": 8660,
  "▁jɔncɛ": 8661,
  "▁leele": 8662,
  "▁pains": 8663,
  "▁soign": 8664,
  "▁Edited": 8665,
  "▁Malgré": 8666,
  "▁adulte": 8667,
  "▁connus": 8668,
  "▁daraka": 8669,
  "▁rejoin": 8670,
  "▁réguli": 8671,
  "enseigne": 8672,
  "essaloni": 8673,
  "échapper": 8674,
  "▁extrême": 8675,
  "denyabolo": 8676,
  "existence": 8677,
  "▁tradition": 8678,
  "▁déclaration": 8679,
  "od": 8680,
  "ODY": 8681,
  "eee": 8682,
  "éni": 8683,
  "▁06": 8684,
  "alon": 8685,
  "mier": 8686,
  "èrèn": 8687,
  "▁Law": 8688,
  "▁oeu": 8689,
  "▁ump": 8690,
  "gramu": 8691,
  "meyɔn": 8692,
  "tacle": 8693,
  "▁Next": 8694,
  "▁Taga": 8695,
  "▁aidé": 8696,
  "▁kôfè": 8697,
  "▁maka": 8698,
  "▁tɔɔn": 8699,
  "dienne": 8700,
  "fitini": 8701,
  "mannin": 8702,
  "éloign": 8703,
  "▁GONNA": 8704,
  "▁match": 8705,
  "▁signa": 8706,
  "▁survi": 8707,
  "▁âgées": 8708,
  "▁établ": 8709,
  "▁NOBODY": 8710,
  "▁beauté": 8711,
  "▁dessin": 8712,
  "▁lajɛnw": 8713,
  "▁mannin": 8714,
  "▁mɔɔilu": 8715,
  "▁réflex": 8716,
  "▁welela": 8717,
  "▁yafara": 8718,
  "▁Kuntigi": 8719,
  "▁disparu": 8720,
  "▁dizaine": 8721,
  "▁moments": 8722,
  "▁Fɔlɔfɔlɔ": 8723,
  "▁boissons": 8724,
  "▁dubadenw": 8725,
  "▁kibaruya": 8726,
  "▁oreilles": 8727,
  "▁présenté": 8728,
  "▁craignent": 8729,
  "▁différente": 8730,
  "▁kolatigɛninw": 8731,
  "ŋa": 8732,
  "ola": 8733,
  "oth": 8734,
  "ènè": 8735,
  "▁Gi": 8736,
  "▁^^": 8737,
  "Kuma": 8738,
  "ensé": 8739,
  "firi": 8740,
  "masu": 8741,
  "oirs": 8742,
  "▁fui": 8743,
  "▁ger": 8744,
  "▁one": 8745,
  "gandi": 8746,
  "▁ZAKI": 8747,
  "▁diko": 8748,
  "▁gèrè": 8749,
  "▁zone": 8750,
  "▁âgés": 8751,
  "▁Enfin": 8752,
  "▁kunba": 8753,
  "▁mɔgɔs": 8754,
  "▁niman": 8755,
  "▁souvi": 8756,
  "▁veuve": 8757,
  "sankolo": 8758,
  "▁Yahweh": 8759,
  "▁fiyewu": 8760,
  "▁risque": 8761,
  "iningali": 8762,
  "registre": 8763,
  "▁gratuit": 8764,
  "▁prirent": 8765,
  "Adamadenw": 8766,
  "améliorer": 8767,
  "▁Souvenez": 8768,
  "▁fantanya": 8769,
  "▁folofolo": 8770,
  "▁reprises": 8771,
  "▁retourné": 8772,
  "▁victoire": 8773,
  "▁découvert": 8774,
  "▁galontigɛ": 8775,
  "▁principal": 8776,
  "▁quotidien": 8777,
  "▁rencontré": 8778,
  "▁karamɔgɔdenw": 8779,
  "El": 8780,
  "tô": 8781,
  "???": 8782,
  "bum": 8783,
  "▁2=": 8784,
  "dans": 8785,
  "lymp": 8786,
  "rets": 8787,
  "▁20.": 8788,
  "▁Eza": 8789,
  "▁Lan": 8790,
  "▁pɔr": 8791,
  "illon": 8792,
  "▁Moab": 8793,
  "▁Prés": 8794,
  "▁Siya": 8795,
  "▁Yeah": 8796,
  "▁kôgô": 8797,
  "▁kɛtɔ": 8798,
  "▁pont": 8799,
  "inrent": 8800,
  "offrir": 8801,
  "tières": 8802,
  "▁diyan": 8803,
  "▁dungu": 8804,
  "▁dòròn": 8805,
  "▁gbèrè": 8806,
  "▁stupé": 8807,
  "▁tenté": 8808,
  "▁Sodome": 8809,
  "▁auront": 8810,
  "▁dɛsɛra": 8811,
  "▁pleurs": 8812,
  "▁recons": 8813,
  "▁umpama": 8814,
  "▁vivons": 8815,
  "▁vɛrise": 8816,
  "kariyɔti": 8817,
  "▁connait": 8818,
  "▁hauteur": 8819,
  "▁kalanso": 8820,
  "▁apprécié": 8821,
  "▁commença": 8822,
  "▁cherchent": 8823,
  "▁nalomanya": 8824,
  "▁ressemble": 8825,
  "▁génération": 8826,
  "▁responsable": 8827,
  "RA": 8828,
  "RE": 8829,
  "fò": 8830,
  "ɑn": 8831,
  "▁ñ": 8832,
  "▁Ŋ": 8833,
  "Ara": 8834,
  "dir": 8835,
  "lic": 8836,
  "tic": 8837,
  "▁01": 8838,
  "▁aî": 8839,
  "▁ev": 8840,
  "▁wù": 8841,
  "aban": 8842,
  "agré": 8843,
  "daan": 8844,
  "▁15.": 8845,
  "▁Mas": 8846,
  "▁bag": 8847,
  "▁low": 8848,
  "▁lɛɛ": 8849,
  "diens": 8850,
  "établ": 8851,
  "▁Diɲɛ": 8852,
  "▁Kore": 8853,
  "▁lame": 8854,
  "▁sawa": 8855,
  "▁soli": 8856,
  "▁sɔsɔ": 8857,
  "▁vend": 8858,
  "ziyasi": 8859,
  "▁Peter": 8860,
  "▁ayiwa": 8861,
  "▁dirai": 8862,
  "▁décès": 8863,
  "▁kɛlen": 8864,
  "▁sinon": 8865,
  "honnête": 8866,
  "▁Kanuya": 8867,
  "▁essayé": 8868,
  "▁ferait": 8869,
  "▁reprit": 8870,
  "▁soyons": 8871,
  "▁suffis": 8872,
  "▁tɔɔrɔw": 8873,
  "▁ɲɔgɔmɛ": 8874,
  "▁hɔrɔnya": 8875,
  "▁labɛnna": 8876,
  "▁lettres": 8877,
  "issements": 8878,
  "▁auraient": 8879,
  "▁enceinte": 8880,
  "▁physique": 8881,
  "▁souffrir": 8882,
  "kalasebaga": 8883,
  "▁Néanmoins": 8884,
  "▁condition": 8885,
  "▁fadenyabolo": 8886,
  "No": 8887,
  "▁€": 8888,
  "OLO": 8889,
  "dix": 8890,
  "gbɛ": 8891,
  "ish": 8892,
  "rus": 8893,
  "▁98": 8894,
  "▁má": 8895,
  "▁300": 8896,
  "▁50.": 8897,
  "▁Bel": 8898,
  "▁Yan": 8899,
  "▁aku": 8900,
  "▁kei": 8901,
  "▁lai": 8902,
  "▁nba": 8903,
  "chiez": 8904,
  "gwɛrɛ": 8905,
  "teaux": 8906,
  "ɲɛnin": 8907,
  "▁lasɔ": 8908,
  "▁sert": 8909,
  "engage": 8910,
  "illant": 8911,
  "itionn": 8912,
  "ɲasigi": 8913,
  "▁mises": 8914,
  "▁sanda": 8915,
  "▁sɔnni": 8916,
  "▁Ɲɔgɔn": 8917,
  "▁Betɛli": 8918,
  "▁dollar": 8919,
  "▁flanan": 8920,
  "▁kɔrɔkɛ": 8921,
  "▁lahara": 8922,
  "▁mépris": 8923,
  "▁routes": 8924,
  "▁écrits": 8925,
  "Écriture": 8926,
  "▁Sirikaw": 8927,
  "▁aliment": 8928,
  "▁birancɛ": 8929,
  "▁méthode": 8930,
  "▁passent": 8931,
  "▁sarakaw": 8932,
  "▁surface": 8933,
  "▁ɲɛsinna": 8934,
  "lications": 8935,
  "▁magnifique": 8936,
  "▁siniɲasigi": 8937,
  "bés": 8938,
  "chè": 8939,
  "lén": 8940,
  "niw": 8941,
  "▁02": 8942,
  "ango": 8943,
  "assa": 8944,
  "quie": 8945,
  "risi": 8946,
  "▁Jaa": 8947,
  "▁fri": 8948,
  "▁kaw": 8949,
  "anngɛ": 8950,
  "▁Béni": 8951,
  "▁Char": 8952,
  "▁Kɛra": 8953,
  "▁Than": 8954,
  "▁kadi": 8955,
  "▁ligi": 8956,
  "▁yeuh": 8957,
  "▁ɲada": 8958,
  "Kisili": 8959,
  "kɔrɔta": 8960,
  "semble": 8961,
  "▁boleh": 8962,
  "▁extra": 8963,
  "▁kolow": 8964,
  "▁kunko": 8965,
  "▁yiiko": 8966,
  "▁étiez": 8967,
  "enfance": 8968,
  "▁Jamais": 8969,
  "▁correc": 8970,
  "▁ikomin": 8971,
  "▁kɔkɛnɛ": 8972,
  "▁kɔɲɔya": 8973,
  "▁revint": 8974,
  "▁sortis": 8975,
  "▁fɛntigi": 8976,
  "▁serment": 8977,
  "▁silence": 8978,
  "▁Benjamin": 8979,
  "▁affaires": 8980,
  "▁convainc": 8981,
  "▁gofɛrɛnɛ": 8982,
  "▁minnifɛn": 8983,
  "▁pourriez": 8984,
  "▁voitures": 8985,
  "▁véhicule": 8986,
  "▁Kalandenw": 8987,
  "▁barikatanw": 8988,
  "▁fangatigiw": 8989,
  "▁pourraient": 8990,
  "0.": 8991,
  "As": 8992,
  "TA": 8993,
  "YD": 8994,
  ":35": 8995,
  "hés": 8996,
  "lek": 8997,
  "▁sì": 8998,
  "dali": 8999,
  "▁Azi": 9000,
  "▁dos": 9001,
  "▁esu": 9002,
  "▁bran": 9003,
  "▁dèmè": 9004,
  "▁esti": 9005,
  "▁etre": 9006,
  "▁jaaw": 9007,
  "▁kabo": 9008,
  "▁mugu": 9009,
  "▁vues": 9010,
  "▁xili": 9011,
  "ellent": 9012,
  "▁abord": 9013,
  "▁yiran": 9014,
  "▁jigitɔ": 9015,
  "▁partis": 9016,
  "alestini": 9017,
  "antekɔti": 9018,
  "llemagne": 9019,
  "▁dugunin": 9020,
  "▁limites": 9021,
  "▁moisson": 9022,
  "▁nafaman": 9023,
  "▁woronwula": 9024,
  "▁Nazarɛtika": 9025,
  "▁Thessaloni": 9026,
  "▁appartient": 9027,
  "▁protection": 9028,
  "▁Isikariyɔti": 9029,
  "▁adolescents": 9030,
  "▁complètement": 9031,
  "ANS": 9032,
  "loo": 9033,
  "lun": 9034,
  "van": 9035,
  "▁Ag": 9036,
  "▁gɔ": 9037,
  "oise": 9038,
  "▁1.1": 9039,
  "▁18;": 9040,
  "▁24-": 9041,
  "▁fus": 9042,
  "▁gro": 9043,
  "▁ile": 9044,
  "▁leo": 9045,
  "▁mio": 9046,
  "anche": 9047,
  "asaga": 9048,
  "tanga": 9049,
  "▁Elie": 9050,
  "▁Jigɛ": 9051,
  "▁Kayi": 9052,
  "▁caté": 9053,
  "▁jala": 9054,
  "▁sina": 9055,
  "▁tutu": 9056,
  "▁Anges": 9057,
  "▁dunun": 9058,
  "▁kouma": 9059,
  "▁latin": 9060,
  "▁liens": 9061,
  "▁mɔ̀gɔ": 9062,
  "▁yiriw": 9063,
  "chaient": 9064,
  "hôpital": 9065,
  "▁jijara": 9066,
  "▁matéri": 9067,
  "▁venues": 9068,
  "endormir": 9069,
  "▁jɔnmuso": 9070,
  "▁labanna": 9071,
  "Pantekɔti": 9072,
  "▁kɛnɛkɛnɛ": 9073,
  "▁poursuit": 9074,
  "▁Farisiènw": 9075,
  "▁kabakuruw": 9076,
  "▁religions": 9077,
  "▁jalakiyɔrɔ": 9078,
  "interprétation": 9079,
  "▁continuellement": 9080,
  "ɛ̄": 9081,
  ":32": 9082,
  "Mon": 9083,
  "emb": 9084,
  "gué": 9085,
  "mbu": 9086,
  "opé": 9087,
  "ŋgo": 9088,
  "▁7-": 9089,
  "arie": 9090,
  "cula": 9091,
  "dant": 9092,
  "deux": 9093,
  "itez": 9094,
  "omas": 9095,
  "trui": 9096,
  "wiin": 9097,
  "ypse": 9098,
  "▁Ber": 9099,
  "▁Fɔɔ": 9100,
  "▁Tur": 9101,
  "▁dao": 9102,
  "▁pin": 9103,
  "▁yam": 9104,
  "ctifs": 9105,
  "roits": 9106,
  "trois": 9107,
  "▁Afuɛ": 9108,
  "▁Baba": 9109,
  "▁Sole": 9110,
  "▁bile": 9111,
  "▁lion": 9112,
  "▁look": 9113,
  "▁maza": 9114,
  "▁ɲuma": 9115,
  "emploi": 9116,
  "▁Edɔmu": 9117,
  "▁Pense": 9118,
  "▁alive": 9119,
  "▁cɛnna": 9120,
  "▁sɛgɛn": 9121,
  "▁yɛrɛw": 9122,
  "issants": 9123,
  "▁Messie": 9124,
  "▁destin": 9125,
  "▁enlevé": 9126,
  "▁prince": 9127,
  "alliance": 9128,
  "itations": 9129,
  "▁deliliw": 9130,
  "▁jurumun": 9131,
  "▁préparé": 9132,
  "installer": 9133,
  "▁conduite": 9134,
  "▁glorifié": 9135,
  "▁trouvera": 9136,
  "▁présenter": 9137,
  "▁spirituel": 9138,
  "▁clairement": 9139,
  "▁dògòmannin": 9140,
  "▁préférable": 9141,
  "▁puissances": 9142,
  "▁Ɲɔgɔnkunbɛn": 9143,
  "3.": 9144,
  "RU": 9145,
  "bie": 9146,
  "din": 9147,
  "éte": 9148,
  "ɛnu": 9149,
  "cide": 9150,
  "diri": 9151,
  "nɔgɔ": 9152,
  "reau": 9153,
  "xand": 9154,
  "élic": 9155,
  "▁24\"": 9156,
  "▁Env": 9157,
  "▁Grè": 9158,
  "▁Veu": 9159,
  "▁gba": 9160,
  "▁yeh": 9161,
  "asira": 9162,
  "pocal": 9163,
  "zamɛn": 9164,
  "▁Mako": 9165,
  "▁Mata": 9166,
  "▁Yahu": 9167,
  "▁bada": 9168,
  "▁chem": 9169,
  "▁tobi": 9170,
  "▁wulu": 9171,
  "▁Kelly": 9172,
  "▁amené": 9173,
  "▁chers": 9174,
  "▁fabri": 9175,
  "▁hypoc": 9176,
  "▁lenen": 9177,
  "▁think": 9178,
  "empêche": 9179,
  "uissant": 9180,
  "▁Gloire": 9181,
  "▁cheval": 9182,
  "▁équipe": 9183,
  "▁arrière": 9184,
  "▁corresp": 9185,
  "▁défense": 9186,
  "▁oeuvres": 9187,
  "▁petites": 9188,
  "▁pécheur": 9189,
  "lɔnbariya": 9190,
  "▁Sagajigi": 9191,
  "▁ministère": 9192,
  "▁passeront": 9193,
  "▁traitement": 9194,
  "▁extrêmement": 9195,
  "▁internation": 9196,
  "▁actuellement": 9197,
  "-)": 9198,
  "1]": 9199,
  "5,": 9200,
  "uxu": 9201,
  "élo": 9202,
  "ɛki": 9203,
  "▁LA": 9204,
  "▁ɔ́": 9205,
  "Hɛrɛ": 9206,
  "ceur": 9207,
  "deya": 9208,
  "dies": 9209,
  "minè": 9210,
  "ning": 9211,
  "pour": 9212,
  "uter": 9213,
  "▁10-": 9214,
  "▁10.": 9215,
  "▁Kar": 9216,
  "▁bel": 9217,
  "▁gal": 9218,
  "Minnu": 9219,
  "chées": 9220,
  "insin": 9221,
  "▁Hɛrɛ": 9222,
  "▁kela": 9223,
  "▁sɔgɔ": 9224,
  "▁sɔɔn": 9225,
  "enfuit": 9226,
  "issons": 9227,
  "▁Erɔdi": 9228,
  "▁chien": 9229,
  "▁citoy": 9230,
  "▁coupe": 9231,
  "▁forcé": 9232,
  "▁hérit": 9233,
  "▁lɔnni": 9234,
  "▁Sanngɛ": 9235,
  "▁cinéma": 9236,
  "▁multip": 9237,
  "▁tagatɔ": 9238,
  "▁wiwiin": 9239,
  "▁yaraga": 9240,
  "offrande": 9241,
  "▁devriez": 9242,
  "▁balimakè": 9243,
  "▁coupable": 9244,
  "▁dizaines": 9245,
  "▁regardez": 9246,
  "▁autorités": 9247,
  "▁compagnie": 9248,
  "▁hamijuguw": 9249,
  "▁porogramu": 9250,
  "▁transport": 9251,
  "▁gouverneur": 9252,
  "▁sigiɲɔgɔnw": 9253,
  "▁profondément": 9254,
  "▁siralɔnbariya": 9255,
  "▁hakilitigiyako": 9256,
  "/20": 9257,
  "bor": 9258,
  "dun": 9259,
  "roo": 9260,
  "▁er": 9261,
  "▁tà": 9262,
  "bran": 9263,
  "kôrô": 9264,
  "labo": 9265,
  "yrie": 9266,
  "▁8:1": 9267,
  "▁Aut": 9268,
  "▁Bas": 9269,
  "▁ase": 9270,
  "▁cle": 9271,
  "▁fɛɛ": 9272,
  "▁gnè": 9273,
  "▁ini": 9274,
  "envie": 9275,
  "gment": 9276,
  "ouest": 9277,
  "▁Duni": 9278,
  "▁Môgô": 9279,
  "▁bian": 9280,
  "▁béni": 9281,
  "▁fama": 9282,
  "▁jina": 9283,
  "▁kere": 9284,
  "▁évid": 9285,
  "Yakuba": 9286,
  "habite": 9287,
  "quième": 9288,
  "tances": 9289,
  "▁batiz": 9290,
  "▁chine": 9291,
  "▁embar": 9292,
  "▁lampe": 9293,
  "▁lasun": 9294,
  "▁minɛn": 9295,
  "▁seize": 9296,
  "▁simil": 9297,
  "▁touma": 9298,
  "▁vertu": 9299,
  "▁désire": 9300,
  "▁fautes": 9301,
  "▁goyara": 9302,
  "▁kunndɛ": 9303,
  "▁mɛnilu": 9304,
  "▁située": 9305,
  "▁tranqu": 9306,
  "Evangile": 9307,
  "▁couleur": 9308,
  "▁diyanye": 9309,
  "pocalypse": 9310,
  "▁Première": 9311,
  "▁méchance": 9312,
  "▁prennent": 9313,
  "▁quantité": 9314,
  "▁résister": 9315,
  "▁ɲagamini": 9316,
  "▁comprends": 9317,
  "▁Traduction": 9318,
  "▁absolument": 9319,
  "▁enseignera": 9320,
  "▁destruction": 9321,
  "▁directement": 9322,
  "EC": 9323,
  "rr": 9324,
  "Den": 9325,
  "Oui": 9326,
  "hin": 9327,
  "Ngue": 9328,
  "kogo": 9329,
  "osse": 9330,
  "tɛrɛ": 9331,
  "yɔsi": 9332,
  "éder": 9333,
  "▁Déc": 9334,
  "▁Fin": 9335,
  "▁duu": 9336,
  "▁get": 9337,
  "▁ide": 9338,
  "▁sal": 9339,
  "areil": 9340,
  "▁BOYD": 9341,
  "▁Prin": 9342,
  "▁hont": 9343,
  "▁irré": 9344,
  "▁jeun": 9345,
  "isseur": 9346,
  "onnier": 9347,
  "▁Etats": 9348,
  "▁Wanna": 9349,
  "▁formu": 9350,
  "▁kɔnɔw": 9351,
  "▁rouge": 9352,
  "▁tamin": 9353,
  "▁tugur": 9354,
  "graphie": 9355,
  "▁aiment": 9356,
  "▁famili": 9357,
  "▁ninnge": 9358,
  "▁venant": 9359,
  "▁étrang": 9360,
  "adultère": 9361,
  "▁Iscario": 9362,
  "▁remplis": 9363,
  "▁discussi": 9364,
  "▁ɲanamanw": 9365,
  "▁caractère": 9366,
  "▁demandait": 9367,
  "▁notamment": 9368,
  "▁prochaine": 9369,
  "▁reprendre": 9370,
  "▁firiyamuso": 9371,
  "▁conséquences": 9372,
  ":'": 9373,
  "but": 9374,
  "cia": 9375,
  "jɔn": 9376,
  "▁Wi": 9377,
  "▁sô": 9378,
  "▁xD": 9379,
  "Adam": 9380,
  "kɛlɛ": 9381,
  "État": 9382,
  "▁18\"": 9383,
  "▁Fem": 9384,
  "▁jon": 9385,
  "quait": 9386,
  "▁agit": 9387,
  "▁amun": 9388,
  "▁fati": 9389,
  "▁join": 9390,
  "▁papa": 9391,
  "▁sume": 9392,
  "▁voul": 9393,
  "▁woyo": 9394,
  "istait": 9395,
  "▁Efɛzi": 9396,
  "▁gardé": 9397,
  "▁local": 9398,
  "▁nòòrò": 9399,
  "▁porté": 9400,
  "▁selen": 9401,
  "▁souve": 9402,
  "▁voyag": 9403,
  "accepte": 9404,
  "affaire": 9405,
  "▁Nawomi": 9406,
  "▁Zowabu": 9407,
  "▁cartes": 9408,
  "▁certes": 9409,
  "▁kouman": 9410,
  "▁kɔrɔgɔ": 9411,
  "▁soeurs": 9412,
  "▁vallée": 9413,
  "▁visité": 9414,
  "Amérique": 9415,
  "kilitigi": 9416,
  "▁dafalen": 9417,
  "▁fariman": 9418,
  "▁kojuguw": 9419,
  "▁telefon": 9420,
  "▁trésors": 9421,
  "embrasser": 9422,
  "▁arrivera": 9423,
  "▁campagne": 9424,
  "▁levèrent": 9425,
  "▁quatrième": 9426,
  "heureusement": 9427,
  "!'": 9428,
  "ID": 9429,
  "xo": 9430,
  "emo": 9431,
  "pas": 9432,
  "roi": 9433,
  "▁Kl": 9434,
  "▁NW": 9435,
  "▁Zh": 9436,
  "dame": 9437,
  "onse": 9438,
  "ther": 9439,
  "▁Oli": 9440,
  "▁dég": 9441,
  "▁gak": 9442,
  "▁lib": 9443,
  "▁noo": 9444,
  "▁rob": 9445,
  "▁évo": 9446,
  "inama": 9447,
  "▁Béth": 9448,
  "▁jɔrɔ": 9449,
  "▁mago": 9450,
  "▁note": 9451,
  "▁tili": 9452,
  "Kabini": 9453,
  "aucune": 9454,
  "orient": 9455,
  "sitɛri": 9456,
  "▁artis": 9457,
  "▁dormi": 9458,
  "▁infor": 9459,
  "▁thème": 9460,
  "alomanw": 9461,
  "▁kasadi": 9462,
  "▁sagona": 9463,
  "▁sigama": 9464,
  "administ": 9465,
  "▁Julakan": 9466,
  "▁explique": 9467,
  "▁kasodenw": 9468,
  "▁kɔnɔfɛnw": 9469,
  "▁murutira": 9470,
  "▁tagasaga": 9471,
  "obligation": 9472,
  "▁personnage": 9473,
  "▁sanctifiés": 9474,
  "▁constamment": 9475,
  "▁descendance": 9476,
  "▁Isirayɛliden": 9477,
  "▁bienveillance": 9478,
  "\":": 9479,
  "**": 9480,
  ".,": 9481,
  "mê": 9482,
  "ƆN": 9483,
  "ILA": 9484,
  "inn": 9485,
  "omb": 9486,
  "ŋgɛ": 9487,
  "▁ue": 9488,
  "asen": 9489,
  "itaw": 9490,
  "onnu": 9491,
  "▁16.": 9492,
  "▁500": 9493,
  "▁Ham": 9494,
  "▁KAL": 9495,
  "▁Sad": 9496,
  "▁yàn": 9497,
  "enses": 9498,
  "ginni": 9499,
  "mence": 9500,
  "▁Kɛlɛ": 9501,
  "▁Nabu": 9502,
  "▁inbe": 9503,
  "▁kisɛ": 9504,
  "▁send": 9505,
  "▁star": 9506,
  "▁tɔrɔ": 9507,
  "▁Punta": 9508,
  "▁coups": 9509,
  "▁héros": 9510,
  "▁prévu": 9511,
  "bɛɛtigi": 9512,
  "ɛnamaya": 9513,
  "▁Pilati": 9514,
  "▁Soleil": 9515,
  "▁devais": 9516,
  "▁larmes": 9517,
  "▁pousse": 9518,
  "▁rempli": 9519,
  "▁sɔrɔli": 9520,
  "▁veuves": 9521,
  "accepter": 9522,
  "▁cɛɲuman": 9523,
  "▁guerres": 9524,
  "▁persécu": 9525,
  "▁prophét": 9526,
  "▁symbole": 9527,
  "approcher": 9528,
  "▁autorité": 9529,
  "▁dafaninw": 9530,
  "▁province": 9531,
  "▁tendance": 9532,
  "▁vêtement": 9533,
  "tɔnkuntigi": 9534,
  "▁kanbelenw": 9535,
  "▁Barinabasi": 9536,
  "▁disponible": 9537,
  "eb": 9538,
  "▁î": 9539,
  "SUS": 9540,
  "jin": 9541,
  "ley": 9542,
  "oma": 9543,
  "ɛsi": 9544,
  "▁JE": 9545,
  "▁aj": 9546,
  "ager": 9547,
  "eren": 9548,
  "vain": 9549,
  "▁1:6": 9550,
  "▁Eti": 9551,
  "▁The": 9552,
  "▁Zer": 9553,
  "▁eng": 9554,
  "▁fav": 9555,
  "▁suw": 9556,
  "arɛti": 9557,
  "asiri": 9558,
  "▁Face": 9559,
  "▁Kira": 9560,
  "▁dant": 9561,
  "▁kiye": 9562,
  "▁lead": 9563,
  "▁paie": 9564,
  "▁pire": 9565,
  "▁rési": 9566,
  "▁sala": 9567,
  "arrêta": 9568,
  "enfuir": 9569,
  "entour": 9570,
  "irinin": 9571,
  "lusion": 9572,
  "éviter": 9573,
  "▁Suman": 9574,
  "▁avril": 9575,
  "▁bibli": 9576,
  "▁danni": 9577,
  "▁forts": 9578,
  "▁pouss": 9579,
  "▁préfé": 9580,
  "▁prête": 9581,
  "▁sache": 9582,
  "▁yɔrɔw": 9583,
  "heureux": 9584,
  "▁avions": 9585,
  "▁batɛmu": 9586,
  "▁former": 9587,
  "▁quarti": 9588,
  "▁royale": 9589,
  "▁soirée": 9590,
  "▁voyait": 9591,
  "accompli": 9592,
  "▁enverra": 9593,
  "▁mansaya": 9594,
  "▁sachiez": 9595,
  "▁sugandi": 9596,
  "▁Jonathan": 9597,
  "▁Nalomanw": 9598,
  "▁Veuillez": 9599,
  "▁consiste": 9600,
  "▁yɛlɛmani": 9601,
  "▁Efarayimu": 9602,
  "▁promesses": 9603,
  "▁badenmailu": 9604,
  "▁méchanceté": 9605,
  "▁poursuivre": 9606,
  "▁signifiait": 9607,
  "26": 9608,
  "ɔm": 9609,
  "▁›": 9610,
  "Zan": 9611,
  "▁Mé": 9612,
  "anso": 9613,
  "mman": 9614,
  "nage": 9615,
  "osow": 9616,
  "yabi": 9617,
  "▁???": 9618,
  "▁Bal": 9619,
  "▁Ima": 9620,
  "▁Tel": 9621,
  "▁abi": 9622,
  "▁aur": 9623,
  "▁dus": 9624,
  "▁pot": 9625,
  "▁sap": 9626,
  "▁ste": 9627,
  "▁tow": 9628,
  "inale": 9629,
  "ortez": 9630,
  "▁1:20": 9631,
  "▁adap": 9632,
  "▁kiko": 9633,
  "▁purs": 9634,
  "▁uflɛ": 9635,
  "▁unto": 9636,
  "▁éner": 9637,
  "mankan": 9638,
  "▁Itali": 9639,
  "▁exemp": 9640,
  "▁incap": 9641,
  "▁pièce": 9642,
  "▁bilara": 9643,
  "▁chasse": 9644,
  "▁lɔnnin": 9645,
  "▁timina": 9646,
  "objectif": 9647,
  "▁Faɲuman": 9648,
  "▁dollars": 9649,
  "▁tremble": 9650,
  "appellera": 9651,
  "▁Mɔgɔbalu": 9652,
  "▁kɔrɔbɔli": 9653,
  "▁revanche": 9654,
  "▁souriait": 9655,
  "▁tchaaman": 9656,
  "entreprise": 9657,
  "▁Iscariote": 9658,
  "▁dusukunna": 9659,
  "▁messagers": 9660,
  "▁différences": 9661,
  "IP": 9662,
  "iz": 9663,
  "ooo": 9664,
  "sun": 9665,
  "sòn": 9666,
  "éto": 9667,
  "tifi": 9668,
  "zira": 9669,
  "ôtel": 9670,
  "▁ade": 9671,
  "▁beh": 9672,
  "▁bra": 9673,
  "▁klo": 9674,
  "▁tue": 9675,
  "ANSEN": 9676,
  "gents": 9677,
  "siran": 9678,
  "écris": 9679,
  "épous": 9680,
  "▁2016": 9681,
  "▁bulu": 9682,
  "▁crée": 9683,
  "▁domi": 9684,
  "▁juif": 9685,
  "▁rafi": 9686,
  "▁rang": 9687,
  "établi": 9688,
  "▁avion": 9689,
  "▁banta": 9690,
  "▁chaud": 9691,
  "▁médec": 9692,
  "▁rejet": 9693,
  "▁sépul": 9694,
  "gwɛlɛya": 9695,
  "▁Retour": 9696,
  "▁Wajibi": 9697,
  "▁divert": 9698,
  "▁droits": 9699,
  "▁guérir": 9700,
  "▁guéris": 9701,
  "▁kɛnɛma": 9702,
  "▁lagamɛ": 9703,
  "▁ordres": 9704,
  "▁parent": 9705,
  "▁rappro": 9706,
  "▁yɛlema": 9707,
  "Puissant": 9708,
  "empereur": 9709,
  "humilité": 9710,
  "▁affaire": 9711,
  "▁sanbɛrɛ": 9712,
  "▁troupes": 9713,
  "▁KALANSEN": 9714,
  "▁empêcher": 9715,
  "▁résoudre": 9716,
  "▁accomplie": 9717,
  "▁kunkɔrɔta": 9718,
  "▁wolonfila": 9719,
  "▁trouvaient": 9720,
  "3,": 9721,
  "̃ɔ": 9722,
  "eue": 9723,
  "êtu": 9724,
  "▁1\"": 9725,
  "▁JÉ": 9726,
  "▁Tr": 9727,
  "▁tw": 9728,
  "▁yɑ": 9729,
  "-000": 9730,
  "Foyi": 9731,
  "chaî": 9732,
  "iers": 9733,
  "kisɛ": 9734,
  "loya": 9735,
  "phie": 9736,
  "tons": 9737,
  "ɲuma": 9738,
  "▁400": 9739,
  "▁Cro": 9740,
  "▁Tom": 9741,
  "▁air": 9742,
  "▁flu": 9743,
  "▁gla": 9744,
  "▁haw": 9745,
  "▁équ": 9746,
  "fɛnnɛ": 9747,
  "intro": 9748,
  "▁KUMA": 9749,
  "▁buku": 9750,
  "▁cana": 9751,
  "▁diye": 9752,
  "▁doux": 9753,
  "▁kako": 9754,
  "▁obje": 9755,
  "▁sana": 9756,
  "▁senw": 9757,
  "Piyɛri": 9758,
  "giques": 9759,
  "gwɛlɛn": 9760,
  "ilikan": 9761,
  "▁Isire": 9762,
  "▁fanba": 9763,
  "▁roman": 9764,
  "▁situé": 9765,
  "fection": 9766,
  "▁Katugu": 9767,
  "▁Thomas": 9768,
  "▁Voyons": 9769,
  "▁Yalaka": 9770,
  "▁marifa": 9771,
  "▁paraît": 9772,
  "▁sépare": 9773,
  "▁techni": 9774,
  "lacement": 9775,
  "▁dispose": 9776,
  "▁méchant": 9777,
  "▁plantes": 9778,
  "▁planète": 9779,
  "▁retenir": 9780,
  "▁internet": 9781,
  "▁kerecɛnw": 9782,
  "▁objectif": 9783,
  "▁yɛlɛtuma": 9784,
  "▁dafabaliw": 9785,
  "▁espérance": 9786,
  "▁programme": 9787,
  "accompagner": 9788,
  "▁kabaforoko": 9789,
  "▁mandiminin": 9790,
  "▁commentaire": 9791,
  "ED": 9792,
  "nd": 9793,
  "gas": 9794,
  "get": 9795,
  "▁Cu": 9796,
  "▁Us": 9797,
  "▁Zu": 9798,
  "Yala": 9799,
  "bɛli": 9800,
  "geux": 9801,
  "gnon": 9802,
  "ison": 9803,
  "étés": 9804,
  "▁ALA": 9805,
  "▁Che": 9806,
  "▁Yer": 9807,
  "▁biw": 9808,
  "▁cèw": 9809,
  "▁neu": 9810,
  "▁poi": 9811,
  "asses": 9812,
  "kɔrɔw": 9813,
  "▁Arri": 9814,
  "▁Pero": 9815,
  "▁Wala": 9816,
  "▁anti": 9817,
  "▁bobo": 9818,
  "▁egil": 9819,
  "▁jean": 9820,
  "▁maxi": 9821,
  "▁mène": 9822,
  "▁onze": 9823,
  "gèrent": 9824,
  "humain": 9825,
  "▁armée": 9826,
  "▁birth": 9827,
  "▁injus": 9828,
  "▁jette": 9829,
  "▁kɔ̀rɔ": 9830,
  "▁sites": 9831,
  "Assyrie": 9832,
  "antongo": 9833,
  "appelez": 9834,
  "omobile": 9835,
  "▁Marthe": 9836,
  "▁dondaw": 9837,
  "▁marqué": 9838,
  "▁métier": 9839,
  "▁rempla": 9840,
  "▁traité": 9841,
  "▁Kisibaa": 9842,
  "▁laissée": 9843,
  "▁devrions": 9844,
  "▁prostern": 9845,
  "▁sûrement": 9846,
  "▁Makoyafɛn": 9847,
  "▁farafinna": 9848,
  "▁karamògòw": 9849,
  "▁rejoindre": 9850,
  "▁semblables": 9851,
  "▁Kunmabɔsara": 9852,
  "▁Sranantongo": 9853,
  "▁demandèrent": 9854,
  "▁responsables": 9855,
  ")?": 9856,
  "-5": 9857,
  "Kɛ": 9858,
  "OM": 9859,
  "ïs": 9860,
  "Que": 9861,
  "kɔn": 9862,
  "ple": 9863,
  "red": 9864,
  "utɔ": 9865,
  "èma": 9866,
  "▁Ɲɛ": 9867,
  "▁3.1": 9868,
  "▁EBU": 9869,
  "▁KƆN": 9870,
  "▁Nat": 9871,
  "▁Pet": 9872,
  "▁Tag": 9873,
  "▁Zab": 9874,
  "▁flo": 9875,
  "▁mad": 9876,
  "▁tur": 9877,
  "▁œil": 9878,
  "gneau": 9879,
  "phèse": 9880,
  "▁Cinq": 9881,
  "▁Luti": 9882,
  "▁bris": 9883,
  "▁bɔbɔ": 9884,
  "▁file": 9885,
  "▁hana": 9886,
  "▁lɔli": 9887,
  "▁phil": 9888,
  "▁sûre": 9889,
  "cevoir": 9890,
  "ptiste": 9891,
  "▁Réjou": 9892,
  "▁affec": 9893,
  "▁améli": 9894,
  "▁cellu": 9895,
  "▁mɛnta": 9896,
  "▁occup": 9897,
  "▁ramen": 9898,
  "aveugle": 9899,
  "issante": 9900,
  "tigɛkan": 9901,
  "▁Donnez": 9902,
  "▁batoko": 9903,
  "▁boɲana": 9904,
  "▁jamaba": 9905,
  "▁soucis": 9906,
  "▁traite": 9907,
  "▁weleli": 9908,
  "▁yɛlɛtɔ": 9909,
  "▁acheter": 9910,
  "▁divorce": 9911,
  "▁miirili": 9912,
  "▁mystère": 9913,
  "▁alliance": 9914,
  "▁chapitre": 9915,
  "▁crucifié": 9916,
  "▁hypocrit": 9917,
  "▁alemankan": 9918,
  "▁angilikan": 9919,
  "▁cinquième": 9920,
  "▁evolution": 9921,
  "▁kunnafoni": 9922,
  "▁néanmoins": 9923,
  "▁populaire": 9924,
  "▁possibles": 9925,
  "▁suivirent": 9926,
  "▁Ɲiningali": 9927,
  "application": 9928,
  "▁ninsɔndiya": 9929,
  "▁pɔrtigɛkan": 9930,
  "▁hakilitigiw": 9931,
  "▁nisɔndiyanin": 9932,
  "SG": 9933,
  "zo": 9934,
  "▁q": 9935,
  "Qui": 9936,
  "RUW": 9937,
  "dra": 9938,
  "duw": 9939,
  "ɔnɛ": 9940,
  "▁bê": 9941,
  "▁tù": 9942,
  "▁xɔ": 9943,
  "FOLO": 9944,
  "FƐNW": 9945,
  "issa": 9946,
  "lman": 9947,
  "neuf": 9948,
  "tter": 9949,
  "usal": 9950,
  "▁10\"": 9951,
  "▁12-": 9952,
  "▁146": 9953,
  "▁Bɛt": 9954,
  "▁Dix": 9955,
  "▁Fil": 9956,
  "▁Ile": 9957,
  "▁Jes": 9958,
  "▁Réf": 9959,
  "▁Sir": 9960,
  "▁Val": 9961,
  "▁nɔn": 9962,
  "Aaron": 9963,
  "estre": 9964,
  "itant": 9965,
  "oloca": 9966,
  "▁3:11": 9967,
  "▁KƆNƆ": 9968,
  "▁Nini": 9969,
  "▁batt": 9970,
  "▁céré": 9971,
  "▁hoti": 9972,
  "▁jaan": 9973,
  "▁laxi": 9974,
  "▁pars": 9975,
  "▁terr": 9976,
  "▁zira": 9977,
  "espace": 9978,
  "▁JÉSUS": 9979,
  "▁Thank": 9980,
  "▁outre": 9981,
  "▁sɔbɛw": 9982,
  "▁youtu": 9983,
  "▁EBURUW": 9984,
  "▁Masakè": 9985,
  "▁NAFOLO": 9986,
  "▁Sodɔmu": 9987,
  "▁dispar": 9988,
  "▁espoir": 9989,
  "▁kosson": 9990,
  "▁kɔrɔtɔ": 9991,
  "▁quitte": 9992,
  "▁saying": 9993,
  "oléances": 9994,
  "▁Regarde": 9995,
  "▁Sagaden": 9996,
  "▁appeler": 9997,
  "▁jaatika": 9998,
  "▁environs": 9999,
  "▁implique": 10000,
  "▁ouvriers": 10001,
  "▁soumises": 10002,
  "▁milliards": 10003,
  "▁personnel": 10004,
  "▁puissants": 10005,
  "▁NAFOLOFƐNW": 10006,
  "▁laminikogo": 10007,
  "▁principaux": 10008,
  "ory": 10009,
  "xɔn": 10010,
  "▁1)": 10011,
  "▁63": 10012,
  "▁ky": 10013,
  "▁ok": 10014,
  "ders": 10015,
  "segi": 10016,
  "▁Kab": 10017,
  "▁Naa": 10018,
  "▁cho": 10019,
  "▁hum": 10020,
  "▁iko": 10021,
  "▁jur": 10022,
  "▁kir": 10023,
  "▁ona": 10024,
  "ative": 10025,
  "iture": 10026,
  "mbour": 10027,
  "tiers": 10028,
  "▁aate": 10029,
  "▁bale": 10030,
  "▁idea": 10031,
  "▁nako": 10032,
  "▁nuée": 10033,
  "▁prét": 10034,
  "▁renf": 10035,
  "▁réel": 10036,
  "▁siss": 10037,
  "▁solo": 10038,
  "▁sɔli": 10039,
  "▁tche": 10040,
  "itième": 10041,
  "quérir": 10042,
  "rateur": 10043,
  "yances": 10044,
  "▁Izira": 10045,
  "▁James": 10046,
  "▁Votre": 10047,
  "▁abreu": 10048,
  "▁ayons": 10049,
  "▁cikgu": 10050,
  "▁lanna": 10051,
  "▁minkè": 10052,
  "▁neige": 10053,
  "▁tigiw": 10054,
  "▁tiguè": 10055,
  "mmanuel": 10056,
  "usulman": 10057,
  "▁Nation": 10058,
  "▁africa": 10059,
  "▁tombée": 10060,
  "piration": 10061,
  "▁domaine": 10062,
  "▁espèces": 10063,
  "▁regardé": 10064,
  "▁sigɛnna": 10065,
  "▁fariyara": 10066,
  "▁maladies": 10067,
  "▁sagonata": 10068,
  "▁ɲamɔgɔya": 10069,
  "▁Samarikaw": 10070,
  "▁mouvement": 10071,
  "▁premières": 10072,
  "▁viendront": 10073,
  "▁principales": 10074,
  "▁Effectivement": 10075,
  "0,": 10076,
  "dô": 10077,
  "eno": 10078,
  "fun": 10079,
  "tɔw": 10080,
  "épr": 10081,
  "ûte": 10082,
  "ɲɔn": 10083,
  "▁Mc": 10084,
  "actu": 10085,
  "amer": 10086,
  "gnée": 10087,
  "saan": 10088,
  "▁Fɛn": 10089,
  "▁Ste": 10090,
  "▁cél": 10091,
  "▁inp": 10092,
  "▁oka": 10093,
  "Voici": 10094,
  "accou": 10095,
  "babaw": 10096,
  "pects": 10097,
  "ricul": 10098,
  "urumu": 10099,
  "vidus": 10100,
  "étail": 10101,
  "▁1939": 10102,
  "▁Duzu": 10103,
  "▁Mise": 10104,
  "▁came": 10105,
  "dition": 10106,
  "ɲumanw": 10107,
  "▁chang": 10108,
  "▁juive": 10109,
  "▁tɔgɔw": 10110,
  "denninw": 10111,
  "▁Hérode": 10112,
  "▁Pensez": 10113,
  "▁animal": 10114,
  "▁fadenw": 10115,
  "▁kimasu": 10116,
  "▁sentir": 10117,
  "▁veille": 10118,
  "tiennent": 10119,
  "▁accordé": 10120,
  "▁combats": 10121,
  "▁dɔgɔnin": 10122,
  "▁kununko": 10123,
  "▁passera": 10124,
  "▁persévé": 10125,
  "▁birthday": 10126,
  "▁héritage": 10127,
  "▁individu": 10128,
  "▁invitons": 10129,
  "▁émotions": 10130,
  "▁Seulement": 10131,
  "▁tintinnin": 10132,
  "explication": 10133,
  "▁connaissez": 10134,
  "▁répondirent": 10135,
  "▁enseignement": 10136,
  "II": 10137,
  "dj": 10138,
  "ún": 10139,
  "▁ɓ": 10140,
  "▁ע": 10141,
  "ext": 10142,
  "gga": 10143,
  "▁pâ": 10144,
  "▁yó": 10145,
  "ANAN": 10146,
  "allu": 10147,
  "arat": 10148,
  "ator": 10149,
  "aube": 10150,
  "quet": 10151,
  "roni": 10152,
  "ttez": 10153,
  "yini": 10154,
  "▁Ari": 10155,
  "▁Ath": 10156,
  "▁Hoo": 10157,
  "▁blé": 10158,
  "▁eka": 10159,
  "▁kol": 10160,
  "▁kén": 10161,
  "▁ngɔ": 10162,
  "▁sèg": 10163,
  "amini": 10164,
  "anman": 10165,
  "mique": 10166,
  "owamu": 10167,
  "▁3:16": 10168,
  "▁Kabi": 10169,
  "▁Kuun": 10170,
  "▁baby": 10171,
  "▁deci": 10172,
  "▁koli": 10173,
  "▁kàra": 10174,
  "▁midi": 10175,
  "▁munu": 10176,
  "▁reje": 10177,
  "▁sexe": 10178,
  "▁îles": 10179,
  "veille": 10180,
  "▁Faran": 10181,
  "▁Kàlan": 10182,
  "▁dɛmɛn": 10183,
  "▁froid": 10184,
  "▁ignor": 10185,
  "▁nyini": 10186,
  "▁quali": 10187,
  "▁acheté": 10188,
  "▁cancer": 10189,
  "▁dunuya": 10190,
  "▁levain": 10191,
  "▁négati": 10192,
  "▁parles": 10193,
  "▁persua": 10194,
  "▁Miséric": 10195,
  "▁apparut": 10196,
  "▁commune": 10197,
  "▁kalanna": 10198,
  "▁kɛwaati": 10199,
  "▁meurent": 10200,
  "▁soutien": 10201,
  "▁Antiyɔsi": 10202,
  "▁Dimanche": 10203,
  "▁activité": 10204,
  "▁capacité": 10205,
  "▁croyance": 10206,
  "▁kabakoma": 10207,
  "artiennent": 10208,
  "expression": 10209,
  "▁autrefois": 10210,
  "▁croyances": 10211,
  "▁dumunifèn": 10212,
  "▁lasigiden": 10213,
  "▁troupeaux": 10214,
  "▁correspond": 10215,
  "▁religieuse": 10216,
  "49": 10217,
  "dh": 10218,
  "▁|": 10219,
  ":00": 10220,
  "ike": 10221,
  "onw": 10222,
  "uri": 10223,
  "wow": 10224,
  "▁90": 10225,
  "▁hy": 10226,
  "guer": 10227,
  "issé": 10228,
  "isté": 10229,
  "lien": 10230,
  "âtre": 10231,
  "▁1:5": 10232,
  "▁Yaw": 10233,
  "▁keh": 10234,
  "▁lôn": 10235,
  "▁pét": 10236,
  "▁ran": 10237,
  "▁sak": 10238,
  "▁ven": 10239,
  "▁éva": 10240,
  "Funny": 10241,
  "tante": 10242,
  "▁Caph": 10243,
  "▁Kari": 10244,
  "▁Sois": 10245,
  "▁annu": 10246,
  "▁gana": 10247,
  "▁hait": 10248,
  "▁invo": 10249,
  "▁lent": 10250,
  "▁minu": 10251,
  "▁mura": 10252,
  "▁sako": 10253,
  "▁sigu": 10254,
  "▁tinɛ": 10255,
  "▁woso": 10256,
  "barras": 10257,
  "délité": 10258,
  "kourou": 10259,
  "pitres": 10260,
  "ressed": 10261,
  "▁blanc": 10262,
  "▁kaɲan": 10263,
  "▁kunfɛ": 10264,
  "▁large": 10265,
  "▁peint": 10266,
  "▁radio": 10267,
  "▁Guerre": 10268,
  "▁ancien": 10269,
  "▁barima": 10270,
  "▁détail": 10271,
  "▁iFunny": 10272,
  "▁objets": 10273,
  "▁phrase": 10274,
  "▁pleuré": 10275,
  "▁priant": 10276,
  "▁relève": 10277,
  "▁règles": 10278,
  "▁sujets": 10279,
  "▁tienne": 10280,
  "applique": 10281,
  "explique": 10282,
  "▁Enfants": 10283,
  "▁FILANAN": 10284,
  "▁masacɛw": 10285,
  "▁parcour": 10286,
  "▁précisé": 10287,
  "▁ɲɔgɔnye": 10288,
  "▁kɔlɔsili": 10289,
  "appartient": 10290,
  "▁Izirayɛli": 10291,
  "▁inpressed": 10292,
  "▁pardonnés": 10293,
  "▁rendirent": 10294,
  "▁saniyanin": 10295,
  "▁sigiɲɔgɔn": 10296,
  "▁kilomètres": 10297,
  "▁rencontrer": 10298,
  "▁sentiments": 10299,
  "▁suffisamment": 10300,
  "ין": 10301,
  "▁Ù": 10302,
  ":36": 10303,
  "enɛ": 10304,
  "tɛr": 10305,
  "uil": 10306,
  "▁tv": 10307,
  "▁ut": 10308,
  "amus": 10309,
  "boam": 10310,
  "char": 10311,
  "diot": 10312,
  "djou": 10313,
  "erie": 10314,
  "oies": 10315,
  "ties": 10316,
  "▁ate": 10317,
  "▁nen": 10318,
  "▁yir": 10319,
  "▁épr": 10320,
  "excus": 10321,
  "isais": 10322,
  "itent": 10323,
  "étudi": 10324,
  "▁nɛni": 10325,
  "▁plat": 10326,
  "essaye": 10327,
  "ources": 10328,
  "▁Autre": 10329,
  "▁aimée": 10330,
  "▁ameri": 10331,
  "▁bɛmaw": 10332,
  "▁furan": 10333,
  "▁gotta": 10334,
  "▁kawan": 10335,
  "▁labèn": 10336,
  "▁meure": 10337,
  "▁niaan": 10338,
  "▁venez": 10339,
  "▁Grande": 10340,
  "▁Mowabu": 10341,
  "▁famous": 10342,
  "▁fausse": 10343,
  "▁moitié": 10344,
  "▁tilara": 10345,
  "▁unders": 10346,
  "▁bweseru": 10347,
  "▁devrais": 10348,
  "▁dununya": 10349,
  "▁raconté": 10350,
  "▁yiranni": 10351,
  "▁Bɛnzamɛn": 10352,
  "▁dépasser": 10353,
  "▁national": 10354,
  "▁parcours": 10355,
  "▁chapitres": 10356,
  "alestiniens": 10357,
  "▁scientifiques": 10358,
  "fr": 10359,
  "▁😉": 10360,
  ":34": 10361,
  "dja": 10362,
  "dés": 10363,
  "mel": 10364,
  "ɔgɛ": 10365,
  "▁Ps": 10366,
  "▁RF": 10367,
  "!!!!": 10368,
  "Zɔbu": 10369,
  "ball": 10370,
  "mari": 10371,
  "osun": 10372,
  "tand": 10373,
  "▁11.": 10374,
  "▁Aza": 10375,
  "▁Job": 10376,
  "▁Wee": 10377,
  "▁goo": 10378,
  "▁haa": 10379,
  "▁out": 10380,
  "▁yor": 10381,
  "anima": 10382,
  "gnini": 10383,
  "monie": 10384,
  "▁Kɔrɔ": 10385,
  "▁Lest": 10386,
  "▁Tobi": 10387,
  "▁Vrai": 10388,
  "▁abro": 10389,
  "▁beyi": 10390,
  "▁diin": 10391,
  "▁neni": 10392,
  "▁nina": 10393,
  "▁trah": 10394,
  "besaba": 10395,
  "dougou": 10396,
  "ortent": 10397,
  "▁Entre": 10398,
  "▁avais": 10399,
  "▁daari": 10400,
  "▁kanne": 10401,
  "▁kooba": 10402,
  "▁tiers": 10403,
  "▁tradu": 10404,
  "▁Voulez": 10405,
  "▁chante": 10406,
  "▁désign": 10407,
  "▁europé": 10408,
  "▁farala": 10409,
  "▁jɔrɔkɔ": 10410,
  "▁laxira": 10411,
  "▁perman": 10412,
  "▁rentré": 10413,
  "▁sommet": 10414,
  "▁suivit": 10415,
  "▁yɛrɛkɛ": 10416,
  "▁contemp": 10417,
  "▁djougou": 10418,
  "▁histori": 10419,
  "▁kobabaw": 10420,
  "▁réunion": 10421,
  "▁sigilen": 10422,
  "▁Sebagaya": 10423,
  "▁kuluyɔrɔ": 10424,
  "▁mamadenw": 10425,
  "▁Ephésiens": 10426,
  "▁Faranfasi": 10427,
  "▁événement": 10428,
  "▁dirigeants": 10429,
  "▁pleinement": 10430,
  "▁prisonnier": 10431,
  "▁véritablement": 10432,
  "cy": 10433,
  "bos": 10434,
  "dar": 10435,
  "kes": 10436,
  "éti": 10437,
  "̀gɔ": 10438,
  "̀rɛ": 10439,
  "▁67": 10440,
  "▁CH": 10441,
  "▁by": 10442,
  "▁ɛn": 10443,
  "abil": 10444,
  "anse": 10445,
  "brer": 10446,
  "ings": 10447,
  "kɔra": 10448,
  "usée": 10449,
  "éter": 10450,
  "ôngô": 10451,
  "▁Gir": 10452,
  "▁Kat": 10453,
  "▁Moo": 10454,
  "▁amb": 10455,
  "▁dap": 10456,
  "▁fén": 10457,
  "▁nna": 10458,
  "▁עין": 10459,
  "explo": 10460,
  "istra": 10461,
  "occup": 10462,
  "▁1987": 10463,
  "▁Mara": 10464,
  "▁Maro": 10465,
  "▁Saya": 10466,
  "▁bɔnɔ": 10467,
  "▁dafè": 10468,
  "▁fine": 10469,
  "▁lour": 10470,
  "▁maît": 10471,
  "▁mutu": 10472,
  "▁nòfè": 10473,
  "▁pero": 10474,
  "......": 10475,
  "duwani": 10476,
  "onomie": 10477,
  "unique": 10478,
  "▁Buvez": 10479,
  "▁akala": 10480,
  "▁catho": 10481,
  "▁djate": 10482,
  "▁exauc": 10483,
  "▁guéri": 10484,
  "▁ngɔ̀n": 10485,
  "▁nèèma": 10486,
  "▁wèrèw": 10487,
  "▁Decemb": 10488,
  "▁Gardez": 10489,
  "▁Hadama": 10490,
  "▁Prends": 10491,
  "▁bétail": 10492,
  "▁lasɔmi": 10493,
  "▁litigi": 10494,
  "▁malgré": 10495,
  "▁sendon": 10496,
  "écoutent": 10497,
  "▁Jiginni": 10498,
  "▁attribu": 10499,
  "▁chevaux": 10500,
  "▁circons": 10501,
  "▁magwɛrɛ": 10502,
  "▁misaali": 10503,
  "▁revient": 10504,
  "▁stupide": 10505,
  "▁vivante": 10506,
  "▁écoutez": 10507,
  "Fariziɲɛw": 10508,
  "expliquer": 10509,
  "▁actuelle": 10510,
  "▁belebele": 10511,
  "▁dɔgɔmuso": 10512,
  "▁pardonné": 10513,
  "▁réaliser": 10514,
  "▁tɔɲɔgɔnw": 10515,
  "▁Sɔlidasiw": 10516,
  "▁accueilli": 10517,
  "▁bololafɛn": 10518,
  "▁mauvaises": 10519,
  "▁understand": 10520,
  "▁changements": 10521,
  "▁gofɛrɛnɛman": 10522,
  "▁propriétaire": 10523,
  "▁reconnaissance": 10524,
  "èm": 10525,
  "épa": 10526,
  "▁2:": 10527,
  "▁3,": 10528,
  "▁wé": 10529,
  "Mògò": 10530,
  "amis": 10531,
  "céan": 10532,
  "enna": 10533,
  "fiée": 10534,
  "lage": 10535,
  "oche": 10536,
  "oniw": 10537,
  "ttra": 10538,
  "émer": 10539,
  "▁Bou": 10540,
  "▁Dev": 10541,
  "▁Kod": 10542,
  "▁ata": 10543,
  "▁bow": 10544,
  "▁gos": 10545,
  "▁nyi": 10546,
  "▁yèn": 10547,
  "anges": 10548,
  "auras": 10549,
  "risti": 10550,
  "tagne": 10551,
  "tɔɔrɔ": 10552,
  "épend": 10553,
  "ɔgɛnu": 10554,
  "▁2021": 10555,
  "▁Dɔgɔ": 10556,
  "▁Mère": 10557,
  "▁Mɔni": 10558,
  "▁dort": 10559,
  "▁flan": 10560,
  "▁fɛrɛ": 10561,
  "▁hari": 10562,
  "▁jèya": 10563,
  "▁lajè": 10564,
  "▁musa": 10565,
  "▁véri": 10566,
  "▁wehe": 10567,
  "instru": 10568,
  "maient": 10569,
  "ondres": 10570,
  "▁Elize": 10571,
  "▁Homme": 10572,
  "▁Lajɛn": 10573,
  "▁ainun": 10574,
  "▁effic": 10575,
  "▁exist": 10576,
  "▁fanva": 10577,
  "▁jurum": 10578,
  "▁ouvre": 10579,
  "▁récit": 10580,
  "faction": 10581,
  "gnation": 10582,
  "itaires": 10583,
  "olocaus": 10584,
  "▁Naaman": 10585,
  "▁Russie": 10586,
  "▁espèce": 10587,
  "▁jatira": 10588,
  "▁offert": 10589,
  "▁publié": 10590,
  "▁quinze": 10591,
  "▁tɛliya": 10592,
  "annoncer": 10593,
  "▁Réfléch": 10594,
  "▁Simeyɔn": 10595,
  "▁affirme": 10596,
  "▁barokun": 10597,
  "▁duninya": 10598,
  "▁observa": 10599,
  "▁rendons": 10600,
  "▁science": 10601,
  "▁senumaw": 10602,
  "▁Ɛsitɛri": 10603,
  "▁apparaît": 10604,
  "▁cɛkɔrɔba": 10605,
  "▁election": 10606,
  "▁endroits": 10607,
  "▁jeunesse": 10608,
  "▁remettre": 10609,
  "▁demeurent": 10610,
  "▁kɔ̀rɔmuso": 10611,
  "▁sɛnɛkɛlaw": 10612,
  "▁accompagné": 10613,
  "▁importantes": 10614,
  "?!": 10615,
  "AM": 10616,
  "IS": 10617,
  "IV": 10618,
  "oh": 10619,
  "mba": 10620,
  "och": 10621,
  "sia": 10622,
  "tue": 10623,
  "uga": 10624,
  "▁8,": 10625,
  "▁Dj": 10626,
  "▁Fi": 10627,
  "▁Hu": 10628,
  "▁gê": 10629,
  "alɔn": 10630,
  "boli": 10631,
  "daga": 10632,
  "ento": 10633,
  "fiez": 10634,
  "invo": 10635,
  "mara": 10636,
  "mmes": 10637,
  "téra": 10638,
  "▁baw": 10639,
  "▁bye": 10640,
  "▁daw": 10641,
  "▁joy": 10642,
  "▁liɛ": 10643,
  "▁lòn": 10644,
  "▁nav": 10645,
  "▁oli": 10646,
  "effet": 10647,
  "feere": 10648,
  "illés": 10649,
  "▁Baro": 10650,
  "▁Jéro": 10651,
  "▁Lève": 10652,
  "▁couv": 10653,
  "▁dôrô": 10654,
  "▁fuck": 10655,
  "▁joué": 10656,
  "▁kita": 10657,
  "▁ɲrun": 10658,
  "Yusufu": 10659,
  "amɔgɔw": 10660,
  "effond": 10661,
  "▁Fanga": 10662,
  "▁Leurs": 10663,
  "▁alako": 10664,
  "▁eburu": 10665,
  "▁mennu": 10666,
  "▁resta": 10667,
  "▁zones": 10668,
  "▁évolu": 10669,
  "kɔrɔnin": 10670,
  "obowamu": 10671,
  "▁Yafali": 10672,
  "▁bureau": 10673,
  "▁crédit": 10674,
  "▁dunuɲa": 10675,
  "▁défaut": 10676,
  "▁dɔgɔma": 10677,
  "▁entour": 10678,
  "▁entrée": 10679,
  "▁kɔɲɔcɛ": 10680,
  "▁labɛnw": 10681,
  "▁toolto": 10682,
  "▁voleur": 10683,
  "▁yafali": 10684,
  "▁études": 10685,
  "▁kunmabɔ": 10686,
  "▁répandu": 10687,
  "▁univers": 10688,
  "▁verront": 10689,
  "opération": 10690,
  "▁Capharna": 10691,
  "▁Jéroboam": 10692,
  "▁abreuvés": 10693,
  "▁distribu": 10694,
  "▁dònbaliw": 10695,
  "▁imbécile": 10696,
  "▁qualités": 10697,
  "▁descendre": 10698,
  "▁prophétie": 10699,
  "▁présentes": 10700,
  "▁religieux": 10701,
  "▁Maseduwani": 10702,
  "▁permettent": 10703,
  "▁tagamasiɲɛ": 10704,
  "28": 10705,
  "ONU": 10706,
  "doo": 10707,
  "dén": 10708,
  "olɛ": 10709,
  "oué": 10710,
  "èce": 10711,
  "ùso": 10712,
  "▁9.": 10713,
  "▁yɔ": 10714,
  "%...": 10715,
  "fili": 10716,
  "kiyo": 10717,
  "mogɔ": 10718,
  "onso": 10719,
  "orta": 10720,
  "▁17.": 10721,
  "▁LSG": 10722,
  "▁Sar": 10723,
  "▁lié": 10724,
  "estin": 10725,
  "ilier": 10726,
  "kurun": 10727,
  "uwɛli": 10728,
  "▁Sous": 10729,
  "▁Voie": 10730,
  "▁allu": 10731,
  "▁baka": 10732,
  "▁dula": 10733,
  "▁labi": 10734,
  "▁méta": 10735,
  "▁tɛgɛ": 10736,
  "▁wùlu": 10737,
  "Kojugu": 10738,
  "autant": 10739,
  "avança": 10740,
  "envoya": 10741,
  "itigiw": 10742,
  "mières": 10743,
  "onnent": 10744,
  "▁2:49.": 10745,
  "▁Sitan": 10746,
  "▁délai": 10747,
  "▁kɛtaw": 10748,
  "▁lumin": 10749,
  "▁miles": 10750,
  "▁panne": 10751,
  "▁passi": 10752,
  "▁placé": 10753,
  "▁sacré": 10754,
  "▁siège": 10755,
  "▁sympa": 10756,
  "▁tomba": 10757,
  "èvement": 10758,
  "énergie": 10759,
  "▁Prière": 10760,
  "▁acquis": 10761,
  "▁dennin": 10762,
  "▁dounou": 10763,
  "▁hébreu": 10764,
  "▁kunkun": 10765,
  "▁leçons": 10766,
  "▁lɛtɛrɛ": 10767,
  "▁manana": 10768,
  "▁mougan": 10769,
  "▁posses": 10770,
  "▁priait": 10771,
  "▁saheli": 10772,
  "▁sewara": 10773,
  "▁sɔ̃ɔwa": 10774,
  "▁yɔrɔla": 10775,
  "dictions": 10776,
  "▁aillent": 10777,
  "▁chemins": 10778,
  "▁jɛnitaw": 10779,
  "▁restait": 10780,
  "▁wotorow": 10781,
  "▁December": 10782,
  "▁batisera": 10783,
  "▁kàramogɔ": 10784,
  "▁provient": 10785,
  "▁tooltool": 10786,
  "▁tribunal": 10787,
  "▁vendredi": 10788,
  "▁considère": 10789,
  "▁entendant": 10790,
  "▁objectifs": 10791,
  "▁réveillée": 10792,
  "▁supporter": 10793,
  "▁fonctionne": 10794,
  "▁trouvèrent": 10795,
  "▁connaissait": 10796,
  "▁reconnaître": 10797,
  "Be": 10798,
  "cm": 10799,
  "dro": 10800,
  "fer": 10801,
  "gbè": 10802,
  "hom": 10803,
  "juu": 10804,
  "mma": 10805,
  "nom": 10806,
  "tɔɔ": 10807,
  "̀nɔ": 10808,
  "▁râ": 10809,
  "MAYA": 10810,
  "antu": 10811,
  "fiɲɛ": 10812,
  "lubi": 10813,
  "orge": 10814,
  "▁Grâ": 10815,
  "▁PAR": 10816,
  "▁Sac": 10817,
  "▁Taa": 10818,
  "▁gèn": 10819,
  "▁tsu": 10820,
  "yrics": 10821,
  "èdent": 10822,
  "▁2015": 10823,
  "▁Balo": 10824,
  "▁Hong": 10825,
  "▁Wara": 10826,
  "▁blas": 10827,
  "▁ciko": 10828,
  "▁code": 10829,
  "▁fosi": 10830,
  "▁gaye": 10831,
  "▁koyi": 10832,
  "▁nala": 10833,
  "▁nege": 10834,
  "▁sada": 10835,
  "▁same": 10836,
  "▁yiru": 10837,
  "vaient": 10838,
  "▁Corée": 10839,
  "▁auxqu": 10840,
  "▁bêtes": 10841,
  "▁enfin": 10842,
  "▁forum": 10843,
  "▁jugés": 10844,
  "▁levée": 10845,
  "▁lions": 10846,
  "▁cayara": 10847,
  "▁devoir": 10848,
  "▁empris": 10849,
  "▁envoie": 10850,
  "▁imagin": 10851,
  "▁invite": 10852,
  "▁jambes": 10853,
  "▁manqué": 10854,
  "▁muɲuna": 10855,
  "▁sayang": 10856,
  "▁sinsin": 10857,
  "▁soɲali": 10858,
  "▁sɔ̃ɔsi": 10859,
  "▁tabali": 10860,
  "Ecriture": 10861,
  "encontre": 10862,
  "mination": 10863,
  "▁badencɛ": 10864,
  "▁chaleur": 10865,
  "▁faisais": 10866,
  "▁mangent": 10867,
  "esclavage": 10868,
  "▁nimisara": 10869,
  "▁yiridenw": 10870,
  "▁Iburahima": 10871,
  "▁supérieur": 10872,
  "▁chrétienne": 10873,
  "▁énormément": 10874,
  "▁Samaritains": 10875,
  "▁descendants": 10876,
  "▁conformément": 10877,
  "▁Zeruzalɛmukaw": 10878,
  "27": 10879,
  "Du": 10880,
  "aj": 10881,
  "án": 10882,
  "▁ˈ": 10883,
  "eza": 10884,
  "fon": 10885,
  "iye": 10886,
  "oow": 10887,
  "ren": 10888,
  "èni": 10889,
  "ɔgo": 10890,
  "▁8\"": 10891,
  "dose": 10892,
  "endi": 10893,
  "oeil": 10894,
  "yari": 10895,
  "▁Ere": 10896,
  "▁Fam": 10897,
  "▁Kir": 10898,
  "▁aaj": 10899,
  "▁cla": 10900,
  "▁fac": 10901,
  "▁fas": 10902,
  "▁gom": 10903,
  "▁gou": 10904,
  "▁jeû": 10905,
  "▁mɑɑ": 10906,
  "▁nor": 10907,
  "▁use": 10908,
  "quées": 10909,
  "risse": 10910,
  "▁1914": 10911,
  "▁Lalo": 10912,
  "▁débu": 10913,
  "▁fenw": 10914,
  "▁kodo": 10915,
  "▁kèɲè": 10916,
  "▁pang": 10917,
  "▁race": 10918,
  "▁réfu": 10919,
  "cembro": 10920,
  "kolonw": 10921,
  "tchogo": 10922,
  "▁dunuɲ": 10923,
  "▁galen": 10924,
  "▁hòròn": 10925,
  "▁intro": 10926,
  "▁janfa": 10927,
  "▁kɔ̀nɔ": 10928,
  "▁mafee": 10929,
  "▁soeur": 10930,
  "Zuwifuw": 10931,
  "▁flamme": 10932,
  "▁fleurs": 10933,
  "▁idoles": 10934,
  "▁livrer": 10935,
  "▁lɔgɔbɔ": 10936,
  "▁masɔrɔ": 10937,
  "▁rendra": 10938,
  "▁réseau": 10939,
  "▁yulubi": 10940,
  "estation": 10941,
  "évangile": 10942,
  "▁Balimaw": 10943,
  "▁Lalofuɛ": 10944,
  "▁kunsigi": 10945,
  "▁mesures": 10946,
  "évolution": 10947,
  "▁articles": 10948,
  "▁decembro": 10949,
  "▁fɔɲɔbana": 10950,
  "▁tiennent": 10951,
  "▁Kàlandenw": 10952,
  "▁descendit": 10953,
  "▁Écritures": 10954,
  "accomplisse": 10955,
  "▁Capharnaüm": 10956,
  "▁découverte": 10957,
  "▁entreprise": 10958,
  "▁merveilleux": 10959,
  "▁communication": 10960,
  "4,": 10961,
  "4.": 10962,
  "OI": 10963,
  "_<": 10964,
  "og": 10965,
  "xy": 10966,
  "ENT": 10967,
  "Faa": 10968,
  "amɔ": 10969,
  "jon": 10970,
  "las": 10971,
  "los": 10972,
  "mbé": 10973,
  "mum": 10974,
  "old": 10975,
  "rhe": 10976,
  "▁83": 10977,
  "▁BI": 10978,
  "▁mg": 10979,
  "▁py": 10980,
  "Abra": 10981,
  "Aime": 10982,
  "bòli": 10983,
  "deni": 10984,
  "dise": 10985,
  "ilon": 10986,
  "ŋolu": 10987,
  "▁>_<": 10988,
  "▁Jun": 10989,
  "▁Kum": 10990,
  "▁Mii": 10991,
  "▁Rut": 10992,
  "▁Tal": 10993,
  "▁gem": 10994,
  "▁jer": 10995,
  "▁jɔɔ": 10996,
  "▁kɔ̃": 10997,
  "▁wil": 10998,
  "ginan": 10999,
  "hiver": 11000,
  "▁Cher": 11001,
  "▁Cour": 11002,
  "▁Easy": 11003,
  "▁Temp": 11004,
  "▁Vers": 11005,
  "▁chou": 11006,
  "▁gout": 11007,
  "▁kuat": 11008,
  "▁sail": 11009,
  "Agneau": 11010,
  "identi": 11011,
  "ronter": 11012,
  "▁11:11": 11013,
  "▁blank": 11014,
  "▁débat": 11015,
  "▁feras": 11016,
  "▁gaman": 11017,
  "▁noces": 11018,
  "▁pêche": 11019,
  "▁récol": 11020,
  "effectu": 11021,
  "▁Fransi": 11022,
  "▁Maloya": 11023,
  "▁Regard": 11024,
  "▁esumɔɔ": 11025,
  "▁grosse": 11026,
  "▁jɛnina": 11027,
  "▁kunkan": 11028,
  "▁plaire": 11029,
  "▁sougou": 11030,
  "▁ɛrɛzɛn": 11031,
  "cription": 11032,
  "identité": 11033,
  "▁cidenya": 11034,
  "▁dinkira": 11035,
  "▁fournir": 11036,
  "▁girinya": 11037,
  "▁intelli": 11038,
  "▁masɔrɔn": 11039,
  "▁reviens": 11040,
  "ouverture": 11041,
  "▁ancienne": 11042,
  "▁conduits": 11043,
  "▁détruits": 11044,
  "▁ressenti": 11045,
  "intéresser": 11046,
  "▁forcément": 11047,
  "▁ladilikan": 11048,
  "▁telephone": 11049,
  "▁Apocalypse": 11050,
  "▁couramment": 11051,
  "▁légèrement": 11052,
  "▁recommanda": 11053,
  "▁travaillons": 11054,
  "',": 11055,
  "Ab": 11056,
  "Un": 11057,
  "hɔ": 11058,
  "lê": 11059,
  "▁{": 11060,
  "▁🙂": 11061,
  "Com": 11062,
  "ané": 11063,
  "gli": 11064,
  "ice": 11065,
  "▁(3": 11066,
  "▁bà": 11067,
  "▁sn": 11068,
  "▁yĩ": 11069,
  "adop": 11070,
  "bako": 11071,
  "cien": 11072,
  "liso": 11073,
  "lɔsi": 11074,
  "ores": 11075,
  "▁1:4": 11076,
  "▁DEL": 11077,
  "▁Din": 11078,
  "▁Pou": 11079,
  "▁dar": 11080,
  "▁dip": 11081,
  "▁diy": 11082,
  "▁doi": 11083,
  "▁hen": 11084,
  "▁lok": 11085,
  "▁nne": 11086,
  "▁paa": 11087,
  "arrêt": 11088,
  "banku": 11089,
  "cieux": 11090,
  "hique": 11091,
  "initi": 11092,
  "sures": 11093,
  "▁Comp": 11094,
  "▁Cond": 11095,
  "▁Furu": 11096,
  "▁Kɔni": 11097,
  "▁bhii": 11098,
  "▁feen": 11099,
  "▁mori": 11100,
  "▁payé": 11101,
  "▁tɔnu": 11102,
  "animal": 11103,
  "aratɛɛ": 11104,
  "envers": 11105,
  "ilibre": 11106,
  "nafoni": 11107,
  "▁Grèce": 11108,
  "▁Korea": 11109,
  "▁bébés": 11110,
  "▁civil": 11111,
  "▁djama": 11112,
  "▁félic": 11113,
  "▁gundo": 11114,
  "▁kakak": 11115,
  "▁poids": 11116,
  "▁sukun": 11117,
  "▁wunɛn": 11118,
  "engager": 11119,
  "matique": 11120,
  "▁DELILA": 11121,
  "▁apôtre": 11122,
  "▁cɛtigɛ": 11123,
  "▁divine": 11124,
  "▁faggot": 11125,
  "▁fɔcogo": 11126,
  "▁kokura": 11127,
  "▁ladege": 11128,
  "▁mousso": 11129,
  "▁rendus": 11130,
  "▁sumana": 11131,
  "▁textes": 11132,
  "burukalo": 11133,
  "isations": 11134,
  "▁Sankolo": 11135,
  "▁baarala": 11136,
  "▁composé": 11137,
  "▁douceur": 11138,
  "▁girɛkiw": 11139,
  "▁ressens": 11140,
  "▁vouloir": 11141,
  "▁étonnés": 11142,
  "Allemagne": 11143,
  "▁binaanin": 11144,
  "▁chambres": 11145,
  "▁faudrait": 11146,
  "▁persuadé": 11147,
  "▁principe": 11148,
  "▁seeginan": 11149,
  "▁sentiers": 11150,
  "▁servante": 11151,
  "▁faribanku": 11152,
  "▁satisfait": 11153,
  "▁sigiyɔrɔw": 11154,
  "▁Réjouissez": 11155,
  "▁apprennent": 11156,
  "▁bangebagaw": 11157,
  "▁réjouissez": 11158,
  "▁traditionn": 11159,
  "▁dunuɲaratɛɛ": 11160,
  "▁nécessaires": 11161,
  "▁personnages": 11162,
  "▁personnelle": 11163,
  "▁sacrificateurs": 11164,
  "▁Thessaloniciens": 11165,
  ",'": 11166,
  "xa": 11167,
  "Non": 11168,
  "gnè": 11169,
  "▁Ef": 11170,
  "▁Mɔ": 11171,
  "iner": 11172,
  "jeun": 11173,
  "kisi": 11174,
  "lòsi": 11175,
  "lɔgɔ": 11176,
  "ondô": 11177,
  "tung": 11178,
  "écar": 11179,
  "ɛmun": 11180,
  "▁Ass": 11181,
  "▁Elo": 11182,
  "▁Ont": 11183,
  "▁afa": 11184,
  "▁clé": 11185,
  "▁gru": 11186,
  "▁iné": 11187,
  "▁ola": 11188,
  "▁pes": 11189,
  "▁sɔ̄": 11190,
  "▁wit": 11191,
  "accue": 11192,
  "toire": 11193,
  "▁Eman": 11194,
  "▁Nɔgɔ": 11195,
  "▁coût": 11196,
  "▁hona": 11197,
  "▁seni": 11198,
  "▁soba": 11199,
  "▁séch": 11200,
  "▁time": 11201,
  "▁Être": 11202,
  "▁épée": 11203,
  "▁ƝƐNA": 11204,
  "ɛrɛzɛn": 11205,
  "▁Ciden": 11206,
  "▁Klist": 11207,
  "▁Masih": 11208,
  "▁Zhezu": 11209,
  "▁agent": 11210,
  "▁armes": 11211,
  "▁blood": 11212,
  "▁bulon": 11213,
  "▁final": 11214,
  "▁foyih": 11215,
  "▁kanma": 11216,
  "▁konni": 11217,
  "▁lancé": 11218,
  "▁neemo": 11219,
  "▁reine": 11220,
  "▁sabía": 11221,
  "▁sinna": 11222,
  "▁voile": 11223,
  "asseoir": 11224,
  "ouvrage": 11225,
  "▁Marigi": 11226,
  "▁Nowɛli": 11227,
  "▁abroad": 11228,
  "▁apparu": 11229,
  "▁confié": 11230,
  "▁danger": 11231,
  "▁disons": 11232,
  "▁fɔlɔta": 11233,
  "▁kalama": 11234,
  "▁mourra": 11235,
  "▁vidéos": 11236,
  "iniquité": 11237,
  "▁apprend": 11238,
  "▁cɛfariw": 11239,
  "▁damanin": 11240,
  "▁prépare": 11241,
  "appellent": 11242,
  "▁quartier": 11243,
  "▁ƝƐNAMAYA": 11244,
  "▁ɲagaliba": 11245,
  "▁découvrir": 11246,
  "▁entrepris": 11247,
  "▁extraordin": 11248,
  "▁fangabaara": 11249,
  "▁litigieuse": 11250,
  "▁ressuscite": 11251,
  "▁quotidienne": 11252,
  "ig": 11253,
  "umé": 11254,
  "zon": 11255,
  "▁05": 11256,
  "▁07": 11257,
  "▁4,": 11258,
  "▁Mɛ": 11259,
  "▁fê": 11260,
  "▁wè": 11261,
  "Etat": 11262,
  "cice": 11263,
  "erte": 11264,
  "fènw": 11265,
  "lɔnw": 11266,
  "quez": 11267,
  "timi": 11268,
  "▁Bre": 11269,
  "▁Ena": 11270,
  "▁Gom": 11271,
  "▁Har": 11272,
  "▁clu": 11273,
  "▁tru": 11274,
  "kumaw": 11275,
  "ɲògòn": 11276,
  "▁6:23": 11277,
  "▁Gent": 11278,
  "▁Joab": 11279,
  "▁Zach": 11280,
  "▁amou": 11281,
  "▁bloo": 11282,
  "▁dari": 11283,
  "▁desu": 11284,
  "▁hero": 11285,
  "▁kado": 11286,
  "▁kera": 11287,
  "▁lawa": 11288,
  "▁muɛ̄": 11289,
  "▁relâ": 11290,
  "▁subi": 11291,
  "▁tiwo": 11292,
  "▁wati": 11293,
  "ctures": 11294,
  "reuves": 11295,
  "tuguni": 11296,
  "▁acces": 11297,
  "▁accès": 11298,
  "▁glace": 11299,
  "▁perte": 11300,
  "▁ségui": 11301,
  "▁tirer": 11302,
  "▁tonɲa": 11303,
  "▁époux": 11304,
  "Aujourd": 11305,
  "veilles": 11306,
  "▁Kayifu": 11307,
  "▁blessé": 11308,
  "▁dabari": 11309,
  "▁diront": 11310,
  "▁emploi": 11311,
  "▁gwɛman": 11312,
  "▁kakdee": 11313,
  "▁kòlòsi": 11314,
  "▁madame": 11315,
  "▁verset": 11316,
  "intéress": 11317,
  "▁Abidjan": 11318,
  "▁besoins": 11319,
  "▁couvrir": 11320,
  "▁diminin": 11321,
  "▁empêche": 11322,
  "▁proster": 11323,
  "▁Aussitôt": 11324,
  "▁facebook": 11325,
  "▁jamakulu": 11326,
  "▁magistra": 11327,
  "▁prescrit": 11328,
  "▁demandons": 11329,
  "▁duvɛnkɛnɛ": 11330,
  "▁jagwɛlɛya": 11331,
  "▁enseignant": 11332,
  "▁kɔlɔsibaga": 11333,
  "▁rappellera": 11334,
  "accouchement": 11335,
  "organisation": 11336,
  "##": 11337,
  "BA": 11338,
  "ME": 11339,
  "ân": 11340,
  "---": 11341,
  ":77": 11342,
  "Bii": 11343,
  "ank": 11344,
  "gee": 11345,
  "ilé": 11346,
  "oly": 11347,
  "own": 11348,
  "uif": 11349,
  "xim": 11350,
  "édi": 11351,
  "▁Hi": 11352,
  "▁IL": 11353,
  "▁Jn": 11354,
  "▁mô": 11355,
  "hous": 11356,
  "mper": 11357,
  "oler": 11358,
  "unuŋ": 11359,
  "érer": 11360,
  "▁Acc": 11361,
  "▁Rom": 11362,
  "▁doh": 11363,
  "▁nie": 11364,
  "▁tle": 11365,
  "enser": 11366,
  "kanni": 11367,
  "lable": 11368,
  "ɔgɔwɔ": 11369,
  "▁1:18": 11370,
  "▁Heee": 11371,
  "▁Syri": 11372,
  "▁séle": 11373,
  "▁tagi": 11374,
  "▁tolo": 11375,
  "▁unis": 11376,
  "▁Deman": 11377,
  "▁Singa": 11378,
  "▁bagaw": 11379,
  "▁crise": 11380,
  "▁déran": 11381,
  "▁enfer": 11382,
  "▁exact": 11383,
  "▁famou": 11384,
  "▁inqui": 11385,
  "▁keden": 11386,
  "▁salon": 11387,
  "▁tɛrɛn": 11388,
  "▁ŋunuŋ": 11389,
  "Ephraïm": 11390,
  "appeler": 11391,
  "▁Betani": 11392,
  "▁conver": 11393,
  "▁lɛgɛrɛ": 11394,
  "▁penses": 11395,
  "▁sandji": 11396,
  "▁terres": 11397,
  "▁tilefɛ": 11398,
  "▁untung": 11399,
  "ressions": 11400,
  "▁Isireli": 11401,
  "▁affirmé": 11402,
  "▁jijanin": 11403,
  "▁nourrir": 11404,
  "▁Vraiment": 11405,
  "▁sauvages": 11406,
  "▁souriant": 11407,
  "▁Apprendre": 11408,
  "▁combattre": 11409,
  "▁phénomène": 11410,
  "▁réflexion": 11411,
  "▁mɔgɔkɔrɔba": 11412,
  "▁kojugukɛlaw": 11413,
  "▁tremblement": 11414,
  "▁condamnation": 11415,
  "▁Malheureusement": 11416,
  "45": 11417,
  "kê": 11418,
  "agi": 11419,
  "amb": 11420,
  "ash": 11421,
  "cou": 11422,
  "eul": 11423,
  "gis": 11424,
  "itɔ": 11425,
  "wal": 11426,
  "ɛɛ̄": 11427,
  "▁6,": 11428,
  "▁68": 11429,
  "▁Jɛ": 11430,
  "ands": 11431,
  "chel": 11432,
  "cter": 11433,
  "ffee": 11434,
  "itée": 11435,
  "koro": 11436,
  "▁19\"": 11437,
  "▁Lot": 11438,
  "▁gui": 11439,
  "▁her": 11440,
  "▁ira": 11441,
  "▁kau": 11442,
  "▁lot": 11443,
  "▁mea": 11444,
  "▁sea": 11445,
  "▁tie": 11446,
  "acune": 11447,
  "asisi": 11448,
  "autés": 11449,
  "crire": 11450,
  "etait": 11451,
  "infir": 11452,
  "écran": 11453,
  "▁1:10": 11454,
  "▁Mean": 11455,
  "▁Sini": 11456,
  "▁bird": 11457,
  "▁culp": 11458,
  "▁cɛɲa": 11459,
  "▁dégu": 11460,
  "▁fonc": 11461,
  "▁leye": 11462,
  "▁lika": 11463,
  "▁lɛsɛ": 11464,
  "▁mett": 11465,
  "▁piin": 11466,
  "▁sabi": 11467,
  "▁sien": 11468,
  "▁yele": 11469,
  "dulité": 11470,
  "imagin": 11471,
  "kofoni": 11472,
  "rasɛli": 11473,
  "▁Anani": 11474,
  "▁Fanta": 11475,
  "▁chute": 11476,
  "▁colon": 11477,
  "▁dange": 11478,
  "▁domun": 11479,
  "▁farin": 11480,
  "▁films": 11481,
  "▁gwɛra": 11482,
  "▁illus": 11483,
  "▁kanun": 11484,
  "▁koowo": 11485,
  "▁labla": 11486,
[...]
