<unk>	0
<s>	0
</s>	0
▁ka	-3.35617
.	-3.42816
,	-3.70547
▁a	-3.80793
▁ni	-3.88823
▁la	-4.05092
w	-4.22801
▁ye	-4.35411
▁ko	-4.55382
a	-4.62645
▁o	-4.6346
▁bi	-4.65191
n	-4.68357
▁be	-4.75191
▁ani	-4.82392
▁yé	-4.84304
la	-4.88901
'	-4.93689
▁mi	-4.94292
i	-4.98149
▁na	-4.99966
▁n	-5.03482
▁	-5.07577
ni	-5.17243
▁i	-5.19091
▁ta	-5.19876
▁kan	-5.22027
▁le	-5.38188
▁ma	-5.38503
li	-5.39063
▁kè	-5.39522
▁bé	-5.415
▁ya	-5.42404
▁lo	-5.46183
▁min	-5.53835
ya	-5.54152
▁bè	-5.64471
ra	-5.67392
▁san	-5.6796
▁ba	-5.68102
e	-5.71459
▁ra	-5.72868
▁sira	-5.74851
▁tun	-5.77271
▁nin	-5.86574
▁se	-5.90818
na	-5.94552
▁man	-5.94888
▁A	-5.97899
▁dô	-5.98175
▁do	-5.99413
▁an	-6.00504
o	-6.05902
s	-6.06435
▁nan	-6.11396
man	-6.11604
▁yôrô	-6.13587
▁wa	-6.13627
▁fila	-6.1637
▁kɛ	-6.24928
▁y	-6.25302
▁tan	-6.28157
nan	-6.29936
▁toun	-6.30533
▁di	-6.31639
?	-6.31728
▁fô	-6.3237
▁(	-6.32486
▁taga	-6.33211
▁yi	-6.35121
-	-6.36018
▁fè	-6.3701
▁bara	-6.39583
▁O	-6.39627
▁k	-6.40716
▁ti	-6.41356
ka	-6.41382
ba	-6.42876
▁môgô	-6.43024
▁kélé	-6.43844
ri	-6.45543
▁b	-6.47158
▁kelen	-6.47502
▁wagati	-6.51226
▁sôrô	-6.52113
▁fɛ	-6.52381
u	-6.54288
▁fo	-6.54912
ma	-6.55456
▁“	-6.55751
▁yoro	-6.56095
▁tou	-6.56343
▁te	-6.5685
ou	-6.574
yé	-6.59068
▁lé	-6.60389
)	-6.61552
an	-6.63752
▁dougou	-6.6622
▁da	-6.66706
▁sé	-6.69687
▁bolo	-6.70668
▁Ni	-6.70744
ko	-6.71485
▁fan	-6.71877
ta	-6.72607
▁saba	-6.73629
▁ne	-6.73928
▁bo	-6.76136
▁djamana	-6.77916
▁mogo	-6.78199
ti	-6.79511
▁ke	-6.80199
▁bɛ	-6.81411
▁waga	-6.82021
si	-6.82471
▁kalan	-6.8267
▁yira	-6.83019
ssé	-6.84665
▁bô	-6.84874
h	-6.85888
ga	-6.86385
kan	-6.86673
▁tôgô	-6.88084
lo	-6.88639
”	-6.89142
▁dɔ	-6.91954
▁dji	-6.92139
▁yèrè	-6.92403
mi	-6.92875
▁de	-6.92904
r	-6.93287
▁to	-6.9457
▁kôrô	-6.95614
▁tè	-6.95774
▁kele	-6.95912
▁fana	-6.97376
▁ban	-6.97573
▁konnon	-6.97996
le	-6.98729
▁kèla	-7.03641
▁fɔ	-7.04303
▁fara	-7.04428
▁gnan	-7.04798
▁yɔrɔ	-7.06138
ye	-7.07024
▁kônôn	-7.071
é	-7.0727
t	-7.08765
▁aw	-7.08991
▁mɔgɔ	-7.10556
▁tchaman	-7.11948
▁té	-7.12005
k	-7.12225
▁kô	-7.13141
▁nga	-7.13566
▁dugu	-7.13981
▁hou	-7.13986
▁lon	-7.14982
▁tchè	-7.15123
▁sɔrɔ	-7.15263
▁walima	-7.16093
▁si	-7.16316
▁ou	-7.17597
▁San	-7.1883
y	-7.18996
▁bina	-7.20273
▁fla	-7.21342
▁I	-7.2196
on	-7.22488
▁bila	-7.22639
▁so	-7.2284
▁sigui	-7.23848
▁gnongon	-7.23929
▁togo	-7.24098
yôrô	-7.24249
d	-7.24794
l	-7.25076
▁soro	-7.2529
▁Ka	-7.2583
▁kɔnɔ	-7.26156
da	-7.26984
▁sèbè	-7.27295
▁fôlô	-7.27718
▁kèmè	-7.2806
ki	-7.28636
g	-7.30859
▁konon	-7.31728
▁ro	-7.32086
▁lô	-7.32088
▁tchogo	-7.32573
▁ale	-7.32869
▁den	-7.34356
▁minan	-7.34481
bé	-7.34809
▁ow	-7.34876
▁miw	-7.35962
▁kuma	-7.3597
▁dan	-7.36403
▁S	-7.36909
▁li	-7.3755
▁môgôw	-7.39982
so	-7.40261
▁kèra	-7.40432
▁fin	-7.40491
▁bori	-7.42366
kè	-7.42589
▁yan	-7.42636
▁fen	-7.4294
▁dôw	-7.43144
▁bon	-7.43333
▁mun	-7.43742
▁chaman	-7.44232
hou	-7.44426
▁s	-7.445
sse	-7.44528
▁tagama	-7.46098
to	-7.4661
▁myé	-7.47511
nin	-7.47954
▁koun	-7.47958
▁là	-7.48082
▁yɛrɛ	-7.48401
▁djamanan	-7.49043
▁sara	-7.49094
▁d	-7.49095
▁kɛra	-7.49601
▁laban	-7.49697
▁son	-7.4986
▁K	-7.49937
▁kèlè	-7.50141
▁gna	-7.50427
▁sigi	-7.50664
▁u	-7.50704
▁cɛ	-7.51186
lé	-7.52018
▁boro	-7.52445
▁t	-7.52802
▁touman	-7.52845
▁fe	-7.53061
▁mogow	-7.53958
▁kun	-7.54149
▁wari	-7.5476
do	-7.55035
▁oyé	-7.55278
▁bèè	-7.5536
▁nou	-7.55405
▁mara	-7.55681
▁bɔ	-7.55844
▁muso	-7.57
▁wôrô	-7.57427
baga	-7.57724
▁baga	-7.5774
ji	-7.58672
bè	-7.59431
▁kourou	-7.59451
▁m	-7.59528
▁sanfè	-7.59646
▁don	-7.59703
▁sogo	-7.60025
▁kabô	-7.60177
▁bana	-7.60352
▁nunu	-7.60781
sé	-7.61266
di	-7.61309
▁jamana	-7.61535
bi	-7.61754
▁sa	-7.62158
▁kow	-7.62468
▁koura	-7.6301
▁bla	-7.63462
▁fanga	-7.63538
▁tɔgɔ	-7.63683
▁ki	-7.64085
zi	-7.64234
▁sisan	-7.64509
▁aka	-7.65331
▁fɛn	-7.65392
▁?	-7.65447
▁tari	-7.6632
▁mugan	-7.66609
▁lorou	-7.66694
▁djonan	-7.67532
▁yo	-7.67738
▁kônon	-7.68893
▁waliman	-7.68939
▁nana	-7.69042
▁tuma	-7.69067
▁kalo	-7.69218
▁D	-7.70317
).	-7.70345
te	-7.70789
en	-7.71275
▁cogo	-7.71375
▁djan	-7.71746
▁kata	-7.72129
gnan	-7.72192
ne	-7.72342
▁ga	-7.7241
▁koro	-7.72535
be	-7.72807
▁sariya	-7.73347
▁fa	-7.74015
▁sababou	-7.74326
▁mako	-7.74341
▁baara	-7.74525
▁djaman	-7.75158
yi	-7.7519
▁bei	-7.7542
▁P	-7.75986
▁komi	-7.76255
▁ayé	-7.76897
▁aya	-7.77929
▁dow	-7.7822
▁tara	-7.78393
▁N	-7.78991
ng	-7.79166
▁mobili	-7.79176
▁kôfè	-7.80114
▁kônô	-7.80892
▁hakili	-7.81
▁boli	-7.81007
▁rô	-7.81435
▁téré	-7.824
▁bâ	-7.82618
▁G	-7.82823
▁chi	-7.82868
▁ahi	-7.83051
▁conon	-7.83386
▁mina	-7.83493
▁C	-7.83801
▁caman	-7.83804
▁wili	-7.84652
”.	-7.84839
▁nani	-7.85325
▁foyi	-7.86241
▁timi	-7.86419
▁T	-7.86475
▁fari	-7.86701
▁mine	-7.868
è	-7.87152
▁F	-7.87438
fè	-7.87987
▁kana	-7.88229
▁alé	-7.88435
▁kuru	-7.88476
m	-7.89053
▁ala	-7.89167
▁kouman	-7.89393
▁Môgô	-7.89777
▁yere	-7.90731
bolo	-7.90788
rô	-7.91522
sira	-7.91764
sa	-7.91961
▁non	-7.92294
▁tu	-7.92609
se	-7.92952
tè	-7.93008
▁Ko	-7.93163
▁bena	-7.93174
▁tèmè	-7.93662
min	-7.93867
▁mɔgɔw	-7.93956
▁kouma	-7.94628
▁wele	-7.94903
▁kaɲi	-7.9498
▁miriya	-7.95084
ro	-7.95229
▁mu	-7.95409
▁tchaaman	-7.95653
▁minw	-7.9652
▁oya	-7.96642
go	-7.97051
nafô	-7.97364
bagaw	-7.97461
sso	-7.97701
▁mousso	-7.97726
▁gnini	-7.98501
:	-7.98529
▁ca	-7.98594
▁tchi	-7.98713
▁hali	-7.98719
▁sugu	-7.99067
▁su	-7.99199
▁l	-7.99229
▁kɔ	-7.99528
re	-7.99602
▁naani	-7.99809
er	-8.00262
▁kadi	-8.00628
▁kosson	-8.0097
▁djigui	-8.01093
▁tô	-8.01815
fan	-8.02107
▁woro	-8.02163
▁fitini	-8.0225
▁tɛ	-8.02733
▁damina	-8.02906
▁baa	-8.02932
▁gnè	-8.03706
▁yiri	-8.04435
ssa	-8.04792
▁kei	-8.04907
▁ségui	-8.0498
▁jan	-8.05438
;	-8.06949
▁M	-8.07143
▁touma	-8.07566
▁miri	-8.08134
▁mougan	-8.08629
gi	-8.08882
▁e	-8.09053
tô	-8.09095
▁wé	-8.09183
▁beyi	-8.09271
▁ton	-8.0948
▁wolo	-8.09944
▁wèrè	-8.1014
in	-8.1036
▁kabo	-8.10561
▁dia	-8.10848
▁yèlè	-8.11125
bô	-8.1146
▁tugu	-8.1173
▁ji	-8.11804
▁flè	-8.13562
▁Djamana	-8.13741
▁dɔw	-8.13958
z	-8.13982
▁B	-8.13998
▁olu	-8.14068
▁lɔn	-8.14404
▁bɛɛ	-8.14436
▁tiguè	-8.14559
▁munu	-8.15353
▁doh	-8.15426
bo	-8.15832
▁waati	-8.16394
▁tougou	-8.16417
▁djama	-8.167
▁kura	-8.17005
▁ɲɔgɔn	-8.17237
▁tigi	-8.17264
▁fani	-8.17385
▁kɛmɛ	-8.17465
▁gnin	-8.17565
gan	-8.18
▁kolo	-8.18496
▁oka	-8.1851
▁djate	-8.18554
bali	-8.1927
ow	-8.19744
▁sandji	-8.20146
▁kela	-8.20185
yan	-8.20462
▁Ma	-8.20466
▁dja	-8.20967
▁bato	-8.21067
hu	-8.2107
▁gbèrè	-8.21125
▁kabi	-8.21661
▁ayi	-8.21761
▁lonni	-8.22049
fin	-8.22188
▁dilan	-8.22794
▁dounougna	-8.22942
▁bognan	-8.23056
▁fanba	-8.23561
▁f	-8.23705
▁diya	-8.23727
▁massa	-8.23823
▁leye	-8.23927
▁sougou	-8.24224
c	-8.24515
▁bagaw	-8.24838
ô	-8.2525
▁E	-8.25476
▁foh	-8.25745
kôrô	-8.2598
▁sani	-8.26026
▁wolonfila	-8.26406
▁minè	-8.26738
▁wo	-8.26825
▁tɛmɛ	-8.26834
▁kanu	-8.27039
▁sou	-8.27082
dô	-8.27084
▁du	-8.27287
kalo	-8.27452
▁tuguni	-8.27553
lon	-8.27661
▁sabou	-8.2777
▁karan	-8.28596
non	-8.2875
▁Mi	-8.28826
▁g	-8.28883
▁filɛ	-8.29023
kèla	-8.29279
▁keme	-8.30628
▁faga	-8.3079
▁miniti	-8.30801
▁tere	-8.30844
▁avion	-8.31087
▁fén	-8.31342
kɛ	-8.32003
law	-8.32236
▁p	-8.32503
dan	-8.32553
de	-8.32581
ke	-8.3293
tchè	-8.33294
▁râ	-8.33353
cɛ	-8.34198
▁filè	-8.34231
▁sera	-8.34371
▁mɛ	-8.35028
▁L	-8.35423
b	-8.35556
▁ali	-8.35634
là	-8.35732
kolo	-8.35863
▁bu	-8.36307
tigui	-8.36916
kaw	-8.3721
▁juma	-8.37288
son	-8.37507
▁télé	-8.37887
▁tile	-8.37969
▁kɔrɔ	-8.37978
ɛn	-8.37997
fe	-8.38669
▁fanan	-8.38765
▁fenw	-8.38882
▁tuman	-8.39055
▁wati	-8.39185
▁fɔlɔ	-8.39345
us	-8.39394
▁Hali	-8.39496
▁foo	-8.39637
▁segui	-8.3982
es	-8.40007
▁kakan	-8.40008
▁we	-8.40048
0	-8.40048
▁ja	-8.40071
▁sama	-8.40082
▁ɲa	-8.40098
▁folo	-8.40308
▁bésé	-8.40407
▁lôni	-8.40518
▁nafolo	-8.40942
▁baw	-8.41292
▁sɛbɛ	-8.41872
hi	-8.42095
▁Ameriki	-8.4231
▁kagni	-8.42471
▁c	-8.42475
▁kénlé	-8.42496
▁tigui	-8.42869
ɔn	-8.42986
▁djaté	-8.43299
▁miyé	-8.43686
▁sissan	-8.43986
▁dén	-8.442
ci	-8.44443
▁Bi	-8.44489
▁daman	-8.44495
▁mou	-8.44633
▁mo	-8.45289
ge	-8.45641
ouw	-8.45677
▁gnouman	-8.45679
▁seegi	-8.45693
▁daminan	-8.4618
▁bin	-8.46227
▁nne	-8.46993
▁yala	-8.47234
▁bisaba	-8.47737
ton	-8.48183
▁jii	-8.48298
▁kilomèt	-8.4835
ssi	-8.48932
▁wɛrɛ	-8.49124
▁fanfè	-8.49133
▁ɲanaman	-8.49321
▁nanni	-8.49451
lan	-8.49679
▁bɔra	-8.49792
▁lamini	-8.49906
▁yèlèma	-8.49912
▁minɛ	-8.5003
▁bii	-8.50572
▁dourou	-8.50776
▁sini	-8.50796
▁fôla	-8.52046
▁nafa	-8.52135
▁duuru	-8.52307
▁djati	-8.52535
▁nounou	-8.52654
▁minu	-8.52696
▁dôrô	-8.52705
ce	-8.52754
▁kama	-8.52794
▁tala	-8.53482
▁Dji	-8.53694
tchogo	-8.53703
▁sebe	-8.53714
me	-8.53899
▁Mogo	-8.54085
▁Nga	-8.54286
▁nôgôya	-8.54323
▁deni	-8.5458
▁ɲɛ	-8.54681
▁U	-8.54742
ch	-8.54747
▁vi	-8.55092
▁bèrè	-8.55137
!	-8.55172
fa	-8.55482
▁dôgô	-8.55571
▁dougouman	-8.55848
▁W	-8.56205
dji	-8.56297
▁ku	-8.56691
▁tougouni	-8.56789
▁djougou	-8.56939
▁no	-8.57052
▁bali	-8.57082
▁lɔ	-8.57219
▁domini	-8.57679
▁fi	-8.57689
▁bôra	-8.57799
▁wala	-8.58448
▁Dougou	-8.58751
▁ina	-8.58854
ur	-8.58953
ve	-8.59067
bili	-8.59227
▁Wagati	-8.59516
▁million	-8.59519
▁daminin	-8.59527
▁dôni	-8.60006
lô	-8.60023
▁lôn	-8.60744
fé	-8.6088
▁kèrè	-8.61078
▁bê	-8.61692
san	-8.61747
▁kelé	-8.61768
▁ola	-8.61779
▁yɛlɛ	-8.61884
kourou	-8.61957
▁tche	-8.62007
▁bari	-8.62774
ry	-8.62814
môgô	-8.63357
fo	-8.63439
▁bôni	-8.63496
▁lu	-8.63846
▁H	-8.63971
ougou	-8.64657
▁daga	-8.64701
▁toum	-8.64958
ru	-8.65012
ron	-8.65116
yara	-8.65153
▁famba	-8.65297
▁tinmin	-8.65316
▁kêmê	-8.65321
▁New	-8.65345
▁kɔfɛ	-8.65443
▁songon	-8.65584
▁boh	-8.65609
koulou	-8.65826
▁An	-8.66309
▁masa	-8.66519
▁doni	-8.66553
▁famou	-8.66931
qui	-8.6696
yɔrɔ	-8.67241
▁djourou	-8.67339
▁dugukolo	-8.67408
gua	-8.67793
den	-8.67878
▁anw	-8.67914
dé	-8.68116
▁bôla	-8.68121
▁uw	-8.68124
chi	-8.68435
▁kê	-8.68672
▁sanga	-8.68815
▁balo	-8.68898
▁wélé	-8.68924
▁fangan	-8.69142
▁kakè	-8.69238
bon	-8.69272
▁banan	-8.69281
▁Kan	-8.69371
▁bissaba	-8.69387
▁fama	-8.69436
tigi	-8.69474
▁dèmè	-8.69675
▁djo	-8.69855
▁iya	-8.69948
pou	-8.69983
▁gban	-8.7003
▁tilé	-8.70065
ɛ	-8.70209
▁dogo	-8.70348
▁dou	-8.70527
▁kongo	-8.70538
sara	-8.70682
▁béna	-8.71168
kun	-8.71468
▁Wa	-8.71531
yèrè	-8.71533
été	-8.71592
▁jaa	-8.71621
▁fê	-8.71835
▁siya	-8.71996
▁ha	-8.72013
niw	-8.72031
f	-8.72628
▁So	-8.72983
▁fourou	-8.73727
ɛr	-8.73849
▁segi	-8.73998
▁kafô	-8.74119
baw	-8.74863
nw	-8.74896
▁djin	-8.74947
▁tchama	-8.74977
▁ben	-8.7517
▁tchin	-8.7577
S	-8.75838
▁aye	-8.75863
▁La	-8.75949
▁kèni	-8.76003
▁dougoukolo	-8.76029
▁tchogoya	-8.7618
▁yèlèman	-8.76584
▁Do	-8.76844
▁ɲi	-8.76914
▁fu	-8.76975
gui	-8.77023
▁pan	-8.77109
tan	-8.77112
▁kélén	-8.77374
minan	-8.77414
1	-8.77868
▁Australi	-8.77933
▁guun	-8.77941
▁toumbé	-8.78095
▁en	-8.78161
▁kaban	-8.78327
▁yôrôw	-8.78374
▁-	-8.78398
dugu	-8.7845
ali	-8.78459
▁walas	-8.78491
▁tagara	-8.79641
▁koni	-8.7973
▁nu	-8.79821
▁juman	-8.79985
▁tchèman	-8.79995
bei	-8.80241
sèbè	-8.80301
▁kodjougou	-8.80353
yira	-8.80408
▁filanan	-8.80872
▁dama	-8.80877
▁deen	-8.80949
don	-8.81142
ê	-8.81207
▁siraba	-8.81305
▁bou	-8.81653
▁kɛlɛ	-8.82439
▁dɛmɛ	-8.82544
▁tani	-8.82667
▁Ba	-8.83288
ara	-8.83363
▁tina	-8.83581
▁teme	-8.84662
▁John	-8.84913
▁katimi	-8.84963
▁môbili	-8.84964
▁hakè	-8.85019
▁sen	-8.85019
ini	-8.85034
▁dakun	-8.85063
▁joli	-8.85123
▁foroba	-8.8515
▁dafè	-8.85254
x	-8.85324
▁kor	-8.85442
▁yara	-8.85913
▁sɛn	-8.85916
gna	-8.86055
▁dɛ	-8.8614
▁jigi	-8.86307
inw	-8.86384
M	-8.86496
v	-8.86601
▁lonan	-8.86636
▁saya	-8.86667
▁sababu	-8.87013
fèn	-8.87144
▁kɔsɔbɛ	-8.87353
▁co	-8.87363
▁dôyé	-8.87364
▁fili	-8.8738
▁sabu	-8.87396
▁teri	-8.87475
▁dumuni	-8.87554
▁fiman	-8.87659
▁fé	-8.87771
▁tagabolo	-8.87885
▁kunu	-8.88001
▁sanni	-8.88031
N	-8.88095
▁kasôrô	-8.88308
5	-8.88403
mina	-8.88535
ɔ	-8.88772
▁binani	-8.88775
▁yongon	-8.89281
koun	-8.89293
▁mankan	-8.89398
▁wi	-8.89552
kê	-8.89572
▁déni	-8.896
len	-8.89686
iti	-8.89781
▁kogo	-8.89797
▁grupu	-8.89852
▁wakati	-8.89895
▁chariya	-8.89979
tiki	-8.9049
▁teli	-8.90652
lougou	-8.91134
D	-8.91367
▁lou	-8.91401
▁for	-8.9159
▁donkili	-8.91667
yoro	-8.91668
iw	-8.91699
sôrô	-8.91712
kélé	-8.91782
▁dimi	-8.92067
▁taa	-8.9214
▁Se	-8.92351
▁djè	-8.92404
▁barakɛ	-8.92471
▁sɔn	-8.9255
▁chiaman	-8.92554
▁bilorou	-8.92557
▁koulou	-8.92574
▁Amériki	-8.92589
▁Touman	-8.92604
▁kojugu	-8.92685
▁gbe	-8.92759
tri	-8.92767
▁teyi	-8.92876
▁diamana	-8.92895
▁J	-8.92961
▁souman	-8.93209
▁dé	-8.93349
djan	-8.93352
▁kasso	-8.9351
mu	-8.93755
▁bié	-8.93776
▁léyé	-8.93906
▁h	-8.93971
▁jati	-8.94141
▁kofe	-8.94214
▁Ali	-8.94258
fô	-8.94308
▁al	-8.94345
guè	-8.94381
shi	-8.94684
fɛ	-8.94789
▁Di	-8.95024
▁jigɛ	-8.95059
▁fèn	-8.95203
kuru	-8.95295
▁fere	-8.95406
▁gbèrèw	-8.95433
▁siran	-8.95474
maya	-8.95712
ing	-8.95947
nni	-8.96234
denw	-8.96281
▁bɛn	-8.96407
▁chama	-8.96634
eman	-8.9679
▁toh	-8.96849
▁tcha	-8.97149
▁jamanan	-8.97229
▁kènè	-8.97232
▁tagaman	-8.9728
is	-8.97418
▁mon	-8.97593
▁yèrèman	-8.9762
▁Su	-8.97894
▁kera	-8.98038
7	-8.98059
▁abé	-8.98064
gnin	-8.98161
co	-8.98295
▁é	-8.98372
▁lagnini	-8.98883
▁karo	-8.98929
▁sèbèli	-8.98942
gbè	-8.98975
no	-8.98979
▁Z	-8.99254
èri	-8.99295
gnongon	-8.99332
▁Sa	-8.99342
muso	-8.99456
et	-8.99814
▁jama	-8.99868
▁kou	-8.99905
mou	-8.99961
▁kilo	-9.00156
▁duru	-9.00342
▁sanfe	-9.00404
masôrô	-9.00466
▁Japon	-9.00508
▁kuman	-9.00529
▁bow	-9.00544
▁kôgôji	-9.00569
▁woyo	-9.00598
▁saaba	-9.00653
▁kônondô	-9.00672
gnon	-9.0081
▁tulon	-9.00939
▁nèguè	-9.01066
▁"	-9.01143
▁kèmèsi	-9.01159
p	-9.01331
ôn	-9.01488
um	-9.01518
fara	-9.01595
▁gu	-9.01677
▁djougouya	-9.01991
▁kaba	-9.02455
▁pi	-9.02605
▁timini	-9.02691
4	-9.0278
▁douw	-9.02862
fila	-9.03308
▁cha	-9.03329
koro	-9.03764
▁tilan	-9.03776
▁ibi	-9.03802
▁kissè	-9.03906
▁faso	-9.03951
jan	-9.03988
▁tôw	-9.04343
▁koo	-9.04493
▁souma	-9.04885
▁djô	-9.05168
▁Mo	-9.05332
▁barakè	-9.05419
▁yôrôla	-9.05523
▁djago	-9.06405
▁wolofila	-9.06409
▁ski	-9.06824
▁pa	-9.06931
▁Si	-9.07096
pe	-9.07407
▁mè	-9.07574
likè	-9.08095
▁tôn	-9.08463
dia	-9.08555
"	-9.08689
▁bagara	-9.08867
▁caro	-9.089
▁famu	-9.08926
que	-9.09191
tiguè	-9.09218
dougou	-9.09245
▁nafama	-9.09283
▁go	-9.09328
▁tchèma	-9.09347
’	-9.09356
▁kôgôdji	-9.09393
▁gbere	-9.09399
▁flà	-9.09415
▁doumini	-9.09423
taga	-9.09449
ssoro	-9.09474
▁internet	-9.09475
▁tchanman	-9.09482
▁sôbè	-9.0958
▁dron	-9.0958
▁nogoya	-9.09616
gue	-9.09625
▁lèri	-9.09766
kô	-9.09925
▁wara	-9.10083
▁Lo	-9.10119
▁sôn	-9.10237
▁Ya	-9.10514
▁201	-9.10525
▁olougou	-9.10586
tiguiw	-9.10661
▁kounou	-9.10753
▁tɔ	-9.10881
▁gnongonnan	-9.10908
▁un	-9.10937
▁siguiyôrô	-9.1105
▁R	-9.11149
gu	-9.1163
▁behi	-9.1165
té	-9.1165
▁nô	-9.11681
▁Na	-9.11904
▁latanga	-9.11976
pi	-9.11978
▁tagala	-9.11983
iri	-9.12024
▁kɔni	-9.12058
▁walm	-9.12095
inmin	-9.12125
▁kountigui	-9.12136
I	-9.12166
kiri	-9.12239
fen	-9.12307
▁joona	-9.12483
▁furu	-9.12573
▁tigè	-9.12629
▁tama	-9.12684
▁foli	-9.12988
▁gni	-9.13005
tu	-9.13059
ori	-9.13075
ze	-9.13078
▁foto	-9.13082
▁kôgô	-9.13158
▁djoli	-9.13171
tion	-9.13489
▁koula	-9.13491
▁diman	-9.13509
▁yiriwa	-9.13593
low	-9.13703
▁seko	-9.13745
▁je	-9.13779
ck	-9.14152
▁kaburu	-9.14226
▁téri	-9.14253
nè	-9.14612
▁Sé	-9.14629
▁lalô	-9.149
▁kèrèfè	-9.14928
▁datougou	-9.1495
▁obé	-9.15061
ré	-9.15112
▁tchien	-9.15274
za	-9.15345
▁saman	-9.15381
▁suma	-9.15424
yo	-9.15428
kura	-9.15726
▁ɲafɛ	-9.15733
▁wɔrɔ	-9.15744
sion	-9.15927
▁lassé	-9.1596
▁bènan	-9.16096
▁loni	-9.16103
ɔrɔ	-9.16341
djigui	-9.16361
▁lolo	-9.1646
▁soo	-9.16484
ld	-9.16492
sɔn	-9.16503
8	-9.16709
▁kêla	-9.16995
▁tanni	-9.17028
tou	-9.17083
▁Ta	-9.17182
▁ce	-9.17293
▁kɛcogo	-9.17294
▁ɲamɔgɔ	-9.17486
rè	-9.17538
▁Chi	-9.17737
su	-9.17994
fenw	-9.1809
▁maga	-9.18598
▁baraka	-9.18612
▁sigɛn	-9.18645
▁Itali	-9.18723
▁Ja	-9.18863
▁gbèlè	-9.1888
▁galasi	-9.1905
▁dôgôtôrô	-9.19079
▁Ho	-9.19102
▁jamakulu	-9.19111
▁tâ	-9.19137
▁djogo	-9.19167
tiguiya	-9.1917
▁jɔn	-9.19178
▁jugu	-9.19284
▁tumbé	-9.19328
nôgô	-9.19448
▁famouya	-9.197
ran	-9.19792
▁kiti	-9.19793
▁were	-9.20033
vi	-9.20115
kelen	-9.204
▁môgôhou	-9.20503
▁labèn	-9.21072
▁Kabi	-9.21172
▁Va	-9.21311
kow	-9.21388
▁Pa	-9.21442
▁lela	-9.21543
▁dusu	-9.21633
▁nanan	-9.21787
▁deli	-9.22061
fi	-9.2214
▁fisa	-9.22162
fla	-9.22263
▁capital	-9.22375
▁kataga	-9.22401
ku	-9.22414
▁farafina	-9.22549
▁dɔɔni	-9.22554
▁polisi	-9.22577
▁tora	-9.22636
po	-9.22852
▁tolon	-9.23004
▁ɲuman	-9.23025
▁doun	-9.23166
▁gnanaman	-9.23167
saba	-9.23173
▁kaɲ	-9.23196
ney	-9.23202
▁shi	-9.2352
fê	-9.23637
6	-9.23855
▁Be	-9.23882
▁nafaman	-9.23975
▁lè	-9.2403
▁ten	-9.24123
▁kɔnɔna	-9.24148
kulu	-9.24223
▁jo	-9.24595
▁gnôngô	-9.25023
▁gbè	-9.2523
▁Ro	-9.2534
arisa	-9.25418
▁ho	-9.25631
▁hi	-9.25812
▁bôli	-9.2587
▁pe	-9.25876
▁daminè	-9.26096
▁mogô	-9.26184
kadi	-9.26191
▁wɔɔrɔ	-9.26344
▁lalaga	-9.26471
▁tow	-9.26521
▁pilasi	-9.26527
▁kon	-9.26888
▁abe	-9.26948
▁ole	-9.27361
▁yoror	-9.27516
▁yêrê	-9.27708
▁waa	-9.2771
▁bor	-9.27775
bouoh	-9.27833
▁zan	-9.28014
▁djen	-9.28113
uw	-9.28201
▁fou	-9.2823
ssôrô	-9.28289
sigi	-9.28309
▁Fara	-9.28501
▁tola	-9.28539
▁fei	-9.28556
▁ele	-9.28644
▁sangan	-9.28744
deo	-9.28993
▁bigan	-9.29181
▁koffei	-9.29764
▁kôsôn	-9.29765
▁wulu	-9.29766
▁dulan	-9.29841
▁haki	-9.29857
▁fonnon	-9.29857
kissè	-9.29953
▁sôngô	-9.29997
▁lôgô	-9.30037
▁tchiai	-9.3008
▁me	-9.30108
▁kisè	-9.30151
▁barra	-9.30212
el	-9.30227
▁Aliman	-9.30321
▁kibaroh	-9.30332
▁yaala	-9.30341
▁tlan	-9.30349
▁kofè	-9.3042
▁farati	-9.3061
▁loru	-9.30626
èn	-9.3066
▁2	-9.30714
▁Tai	-9.3093
bla	-9.30947
èrè	-9.3096
▁minin	-9.31137
Ɔ	-9.31165
▁duguba	-9.31179
▁filèli	-9.31198
▁To	-9.31201
golo	-9.31254
▁hakilila	-9.31345
▁kounan	-9.31655
▁kahan	-9.31746
à	-9.3193
▁barake	-9.31931
yôrôw	-9.31967
▁1	-9.32143
▁mɛn	-9.32294
tôn	-9.32303
▁Ra	-9.32413
▁minou	-9.32653
▁goun	-9.32779
▁sud	-9.32838
riki	-9.3298
wo	-9.32991
▁tigɛ	-9.3302
▁falen	-9.33147
al	-9.33236
▁tanga	-9.33541
▁barika	-9.33601
▁daminɛ	-9.33639
sogo	-9.33645
▁voyag	-9.33669
▁facɛ	-9.33729
▁mien	-9.33737
airi	-9.33765
▁toumbi	-9.33803
▁yelen	-9.34012
ɔr	-9.34482
▁dari	-9.34935
▁kanou	-9.3508
▁dôn	-9.35134
▁diara	-9.35185
▁j	-9.35306
tala	-9.35336
▁nôgô	-9.35456
▁tiɲɛ	-9.35728
ssigui	-9.35801
▁toumana	-9.35816
O	-9.359
▁ameriki	-9.36025
R	-9.36319
▁iyé	-9.3632
▁ô	-9.36354
▁Ou	-9.36478
▁djamanaw	-9.36766
▁kɛnɛ	-9.3683
▁kèko	-9.36972
C	-9.37048
▁faan	-9.37077
▁kolon	-9.37089
sigui	-9.37247
▁telefoni	-9.37626
▁carti	-9.3763
▁livru	-9.37648
▁jaman	-9.37679
▁dabila	-9.37718
▁dôgôya	-9.37747
▁fon	-9.37807
▁dara	-9.37888
lôn	-9.37979
sen	-9.38173
▁caaman	-9.38193
▁logo	-9.38291
▁kètchogo	-9.38373
▁akili	-9.38666
lɛ	-9.38961
▁!	-9.39151
▁dôla	-9.39199
▁beh	-9.39206
▁ké	-9.39226
▁kêlê	-9.39288
▁tabali	-9.39532
▁kacha	-9.39941
▁yeleman	-9.40004
▁jang	-9.40214
kèyôrô	-9.40237
mp	-9.40272
▁ibé	-9.40339
urou	-9.40359
kou	-9.40409
▁Massa	-9.40429
▁gba	-9.40578
dén	-9.40652
nfan	-9.4067
2	-9.40718
tchi	-9.40818
▁Ale	-9.40874
soro	-9.40906
port	-9.40977
/	-9.41016
▁Djama	-9.41031
▁bénan	-9.41035
tèmè	-9.41146
ation	-9.41249
bara	-9.41285
▁Vi	-9.41307
iki	-9.41399
gnè	-9.4161
gni	-9.41678
▁kola	-9.41685
▁nôn	-9.41687
▁mandimi	-9.41752
▁dor	-9.41755
kinolo	-9.4178
▁sosiyété	-9.41783
▁féré	-9.41816
▁Canada	-9.41821
▁Russi	-9.41825
▁duguman	-9.41829
▁Hong	-9.41833
▁tarikou	-9.41854
▁photo	-9.41854
▁Indien	-9.4188
▁donron	-9.41894
▁laben	-9.41944
▁yorô	-9.41984
▁gnongondan	-9.42009
▁Greenland	-9.42017
▁wayasi	-9.42041
▁Bato	-9.42058
▁denw	-9.42144
▁cononon	-9.42163
▁courou	-9.42173
▁Masa	-9.42186
▁toro	-9.423
▁Dugu	-9.42321
bu	-9.42356
▁mlan	-9.42359
▁re	-9.42385
▁nege	-9.42458
▁foura	-9.42464
▁nènè	-9.42477
▁dila	-9.42491
▁dogoni	-9.42521
▁kuntigui	-9.42556
▁gbele	-9.42564
▁soror	-9.42601
▁bisigui	-9.4281
▁sén	-9.42822
▁kôkan	-9.42829
▁né	-9.42841
rɛ	-9.4286
▁sôni	-9.43159
▁omi	-9.43195
kola	-9.43252
▁lonko	-9.4335
▁gnanan	-9.43465
yɛn	-9.43914
▁cɛma	-9.44045
dénw	-9.44128
▁daa	-9.44407
▁yele	-9.44448
▁djou	-9.44508
▁Sch	-9.44519
▁197	-9.44755
▁ibe	-9.44868
▁sin	-9.44931
bɛ	-9.44937
oun	-9.45129
▁douman	-9.45268
▁kounda	-9.45418
ju	-9.45472
gon	-9.45847
▁coura	-9.46107
▁denbaya	-9.46167
▁bisaaba	-9.46192
▁politiki	-9.46225
▁djala	-9.46279
▁binaani	-9.4628
▁biè	-9.463
▁kɔrɔsi	-9.46528
▁sow	-9.46568
▁kouna	-9.46765
▁degi	-9.46776
▁Re	-9.46822
▁teliya	-9.47008
pu	-9.4705
ani	-9.47102
▁mouw	-9.47148
▁siginin	-9.47292
▁Bana	-9.47324
▁nugu	-9.47369
▁wèrèw	-9.4741
dal	-9.47526
▁nata	-9.47684
▁Cu	-9.47752
▁djugu	-9.47793
▁suguya	-9.47843
▁kagnan	-9.4798
▁ɲan	-9.48127
ɛl	-9.48292
nikô	-9.48578
▁pé	-9.4866
toro	-9.48758
tèri	-9.48787
rou	-9.48863
▁wou	-9.48903
▁sii	-9.4895
▁wali	-9.4923
djou	-9.49431
deni	-9.49533
nani	-9.49573
▁beto	-9.49731
▁fein	-9.49774
▁gari	-9.49798
▁cɛn	-9.49886
rɛn	-9.50011
▁balon	-9.50081
yen	-9.50176
▁gnon	-9.50265
▁donni	-9.50525
fɛn	-9.50667
▁wale	-9.50675
▁jumɛ	-9.50676
▁sɔkɔ	-9.50677
▁labô	-9.50681
▁biwôrô	-9.50682
▁tubabu	-9.50692
▁nogo	-9.50703
▁kɔnɔtɔn	-9.50712
▁st	-9.50876
▁ouka	-9.50932
▁fanani	-9.50992
▁baarakè	-9.51006
▁labɛn	-9.51012
un	-9.51056
▁jamanaw	-9.51109
▁bamuso	-9.51256
mero	-9.51284
téssé	-9.51334
▁olou	-9.51341
▁temin	-9.5143
▁oye	-9.51455
▁siti	-9.51493
▁badji	-9.51569
▁Mu	-9.51597
kei	-9.5167
▁kôrôssi	-9.51987
▁fariman	-9.52056
▁djidja	-9.52231
▁gan	-9.52237
baliya	-9.52336
kele	-9.52387
▁ladjè	-9.52389
▁yirala	-9.52481
▁alu	-9.52698
ɲɛ	-9.52949
sson	-9.53107
H	-9.53151
▁labla	-9.5316
▁saa	-9.53353
▁daminana	-9.5341
▁bèna	-9.53425
èguè	-9.53651
▁see	-9.53693
G	-9.53895
B	-9.5392
▁douni	-9.5395
▁bélé	-9.54036
â	-9.5429
▁Olympi	-9.54353
pp	-9.54365
bourou	-9.54547
▁tasuma	-9.54656
bôla	-9.54719
kônôn	-9.54738
ssion	-9.54779
kônon	-9.54782
mer	-9.54963
omi	-9.55027
▁léla	-9.55053
▁inter	-9.5525
▁lara	-9.55406
▁Kong	-9.55412
▁Turqui	-9.55432
▁konondoh	-9.55432
▁Star	-9.55437
▁Pakistan	-9.55443
▁Yiri	-9.55444
▁gbanzan	-9.55448
▁kerefe	-9.55455
▁poyi	-9.55475
▁North	-9.55482
moulo	-9.55485
outh	-9.55486
▁oman	-9.55518
▁dolari	-9.55599
▁dignè	-9.55644
▁fanfɛ	-9.55659
▁dakoun	-9.55707
▁wiri	-9.55753
▁3	-9.55834
mɛ	-9.55882
▁kègnè	-9.55952
▁gnôgôn	-9.55969
▁Iran	-9.55972
▁Dj	-9.55979
▁wagua	-9.55984
▁De	-9.56045
▁Fo	-9.56084
▁lataga	-9.56141
▁kere	-9.56144
féng	-9.56222
100	-9.56388
▁gaz	-9.5643
▁féng	-9.56438
▁Kuru	-9.56453
▁demin	-9.56558
▁dunan	-9.56577
ja	-9.56587
▁Fen	-9.56598
kara	-9.56638
▁siga	-9.5667
▁fura	-9.56674
nèti	-9.56708
nounou	-9.56754
▁sabati	-9.56887
▁ch	-9.5695
▁po	-9.56951
▁douniya	-9.56967
▁walama	-9.57035
mè	-9.57171
▁boroman	-9.57225
▁Uni	-9.57295
siri	-9.57485
▁ju	-9.57687
▁mounou	-9.57719
▁gnanagbe	-9.57727
▁Kow	-9.57839
▁Ri	-9.57843
ca	-9.5817
▁Man	-9.58286
▁fö	-9.58299
▁kanka	-9.58415
▁Ha	-9.58571
nya	-9.58652
bolila	-9.58811
▁kaɲɛ	-9.58975
▁Jo	-9.59003
igui	-9.59115
dow	-9.59137
ngo	-9.59204
nô	-9.5925
▁lônni	-9.59286
▁Fa	-9.59504
konnon	-9.59576
gê	-9.59737
ɲan	-9.59796
▁korow	-9.59912
boli	-9.59934
yon	-9.60073
▁baliman	-9.60093
▁toli	-9.60094
kagni	-9.60108
▁djouma	-9.60154
▁sababoula	-9.60154
▁fran	-9.60183
vo	-9.60201
▁djabi	-9.60315
▁Ayé	-9.60379
▁kɔnɔntɔn	-9.60434
▁Rom	-9.606
▁radio	-9.60664
▁nɔgɔya	-9.60743
rra	-9.60744
▁duniya	-9.6075
wan	-9.60759
wèrè	-9.609
▁sanfɛ	-9.61105
ion	-9.61143
▁yè	-9.6117
▁loh	-9.61173
▁bouo	-9.61258
▁kin	-9.61281
▁samara	-9.61348
▁barala	-9.61369
▁nâ	-9.61377
▁kulu	-9.6143
▁gnaga	-9.61466
▁jon	-9.61492
...	-9.61512
▁dala	-9.61532
▁jida	-9.61997
▁Djaman	-9.62037
▁kumakan	-9.62041
liw	-9.62055
▁deou	-9.62083
▁dugutaga	-9.62314
mon	-9.62347
ll	-9.62497
▁kognan	-9.62548
▁lada	-9.6267
bila	-9.62799
▁dona	-9.62863
▁Mar	-9.62902
▁fol	-9.63108
▁ubé	-9.63129
lè	-9.63134
▁bèla	-9.63148
riya	-9.63323
men	-9.63438
▁gi	-9.63597
ssiri	-9.63828
zan	-9.63919
▁sôgô	-9.63982
sô	-9.64066
▁dina	-9.64146
oc	-9.6422
▁faran	-9.64302
▁bugɔ	-9.64496
ard	-9.64533
▁sar	-9.64607
▁sega	-9.64693
dɔ	-9.64782
▁Ken	-9.6519
▁kene	-9.65227
▁sɔgɔma	-9.6536
▁siguini	-9.65399
obiri	-9.65468
▁cama	-9.65674
▁gɛrɛfɛ	-9.65703
▁marifa	-9.65705
▁mesie	-9.65705
▁djoumè	-9.65706
▁biseegi	-9.65716
▁Cap	-9.65791
▁bisi	-9.65796
▁ɲanama	-9.65806
▁misali	-9.65818
▁danfara	-9.65823
▁cɛɲumani	-9.65839
▁faransi	-9.65854
pa	-9.65864
▁yɛlɛma	-9.65949
▁charia	-9.66055
▁ɲɔngɔn	-9.66067
▁Y	-9.66175
▁fotota	-9.66238
▁madimi	-9.66282
▁nunuw	-9.66294
▁satelit	-9.66337
vion	-9.6636
mbè	-9.6638
kalan	-9.66422
▁Ind	-9.66442
▁Bor	-9.66459
▁aviyon	-9.665
▁gnana	-9.66567
▁labin	-9.6665
▁banki	-9.66763
▁foro	-9.66797
▁donan	-9.66882
▁yɛlɛmani	-9.66899
▁Kouma	-9.66913
▁djigi	-9.66917
hya	-9.66991
ôrô	-9.67114
▁tôgôla	-9.67302
j	-9.67419
aya	-9.6743
▁ika	-9.67483
mani	-9.67619
baara	-9.67695
▁ah	-9.67826
A	-9.67948
▁bora	-9.67999
▁dje	-9.68074
laban	-9.68151
▁fagan	-9.68186
K	-9.68256
▁baro	-9.68434
▁Kô	-9.68474
sie	-9.68484
▁v	-9.68686
visa	-9.68702
▁yélé	-9.68721
▁tolo	-9.68968
▁cin	-9.6922
▁za	-9.69321
▁laman	-9.69354
▁tê	-9.69416
▁sigini	-9.69788
▁gnein	-9.69895
▁koson	-9.69969
bin	-9.70036
3	-9.70089
▁gné	-9.70159
llet	-9.70224
▁fôra	-9.70246
▁yôrômi	-9.70302
▁tèmèni	-9.70303
▁Tagama	-9.70353
rie	-9.70438
tɛ	-9.7045
▁worodougou	-9.70498
▁sans	-9.70509
▁fɔra	-9.70511
V	-9.70565
▁farala	-9.70695
kosson	-9.70744
ö	-9.70801
ôgô	-9.70846
▁dè	-9.70886
▁belebele	-9.70899
kêla	-9.70904
▁Yôrô	-9.71019
▁gnogon	-9.71211
▁ze	-9.71229
örö	-9.71251
▁Parti	-9.71251
▁Paris	-9.71251
▁kounafoni	-9.71251
▁Belgique	-9.71253
▁Filimou	-9.71255
▁dɔgɔmuso	-9.71259
▁gwansan	-9.71259
▁kônnondô	-9.71264
▁Afrik	-9.71272
▁kossôbè	-9.71277
▁glacé	-9.71284
▁Sariya	-9.71287
▁doyé	-9.71289
▁kogodji	-9.71296
▁Metro	-9.71313
▁ayiwa	-9.71318
▁piramidi	-9.71334
▁nɛrɛmuguman	-9.71337
▁bele	-9.71348
ama	-9.71349
▁George	-9.71349
▁tiogo	-9.71356
shing	-9.71356
▁sɔngɔ	-9.71361
▁worodugu	-9.71396
▁mumè	-9.71397
fili	-9.71424
▁madam	-9.71446
▁basiginin	-9.71454
▁fongnon	-9.71484
▁gwɛlɛya	-9.71488
▁sossi	-9.71497
▁djeme	-9.71502
▁keimin	-9.71551
▁The	-9.71583
éré	-9.7162
▁kônôndô	-9.71623
▁Bara	-9.71631
▁tôhou	-9.71657
▁djanto	-9.71669
▁tinminan	-9.71689
▁bà	-9.71711
▁ketchogo	-9.71731
gé	-9.71736
▁mitôgô	-9.71746
▁kônônala	-9.71754
teri	-9.71789
▁sèrè	-9.71831
▁sigiyôrô	-9.71926
▁iyèrè	-9.71952
▁toyi	-9.71956
▁Yèlèma	-9.71974
▁wori	-9.71985
▁dani	-9.72153
▁tle	-9.7216
▁magni	-9.72199
▁longo	-9.72253
▁Ahi	-9.72285
ha	-9.72306
▁sôrôla	-9.72316
▁dinmin	-9.72329
▁tcheman	-9.72343
▁Afi	-9.72373
▁barigo	-9.72383
▁katcha	-9.72437
llon	-9.72549
▁sèguè	-9.72566
▁kouroun	-9.72623
▁7	-9.72656
▁lônko	-9.72664
▁Co	-9.72741
▁fola	-9.72774
▁Chin	-9.72789
▁sebeli	-9.72883
▁kalaman	-9.72937
rain	-9.72975
▁mini	-9.73054
fén	-9.73055
▁para	-9.73061
▁ɲɛna	-9.73082
▁tadji	-9.73102
▁Ph	-9.73127
ire	-9.73145
ats	-9.73175
▁marali	-9.73282
▁ohé	-9.73289
▁bèrô	-9.73458
▁djaa	-9.73529
▁yɛlɛla	-9.73534
▁siguinan	-9.73619
▁biganw	-9.73623
▁koron	-9.7371
▁milliy	-9.73741
▁National	-9.73774
▁ɲana	-9.73824
▁yani	-9.73851
▁lassigui	-9.73865
▁miliy	-9.73866
nami	-9.74023
▁lassôrô	-9.74063
lini	-9.7408
lugu	-9.74115
▁gninigali	-9.7422
▁kemi	-9.7435
▁ama	-9.74453
▁Tôn	-9.74606
▁barakèla	-9.74668
▁bakè	-9.7472
eli	-9.74749
uya	-9.74923
▁16	-9.75089
▁wolola	-9.751
▁fle	-9.75127
ham	-9.75171
▁yirali	-9.75221
▁seere	-9.75223
▁Min	-9.7525
▁z	-9.75285
▁yèrèma	-9.75302
▁sè	-9.75342
nu	-9.75593
der	-9.75783
du	-9.75816
▁Tour	-9.75902
▁Mara	-9.75938
▁Com	-9.76102
mètri	-9.76305
▁dɔnkili	-9.76348
▁dɔni	-9.76359
bagatô	-9.76561
▁Al	-9.76698
▁mô	-9.76736
▁yiriw	-9.76769
▁gɛlɛya	-9.76771
▁djon	-9.76892
▁siraw	-9.76938
▁Ke	-9.76972
▁Ji	-9.77117
▁lanibala	-9.7714
▁farifaga	-9.77169
▁bola	-9.77275
▁balima	-9.77287
▁metri	-9.77319
gè	-9.77371
lu	-9.77398
wili	-9.77514
▁belebeleba	-9.77523
▁sô	-9.77543
▁lado	-9.77551
▁fèrè	-9.77555
▁abi	-9.77565
▁pari	-9.77578
▁beka	-9.77636
▁kɛlɛkɛ	-9.77648
▁boyan	-9.77794
▁kuntigi	-9.77836
▁tele	-9.7791
▁djona	-9.77965
▁ula	-9.78103
nga	-9.78188
bɔ	-9.78369
▁Aw	-9.78369
▁obi	-9.78389
▁koyé	-9.78397
zon	-9.78439
▁juru	-9.78533
hé	-9.78635
ɲ	-9.78696
▁fɛnw	-9.78731
▁firi	-9.78769
▁tɛmɛni	-9.78783
▁okan	-9.78845
▁tunu	-9.78994
né	-9.79152
léman	-9.79187
▁alou	-9.79242
nnan	-9.79245
gèn	-9.79561
▁mangan	-9.79576
▁digi	-9.79625
ansi	-9.79641
ssira	-9.79864
▁dun	-9.79894
lassi	-9.79932
▁bissé	-9.8006
▁soc	-9.80429
▁kènèma	-9.80476
▁yafô	-9.80576
daw	-9.80717
▁Ola	-9.80776
pé	-9.80805
▁gnouma	-9.80862
yala	-9.80875
buru	-9.80952
enya	-9.81204
tro	-9.81239
kar	-9.81517
▁mɔ	-9.81541
▁kafo	-9.81801
ley	-9.81826
▁lamɛ	-9.81853
va	-9.82093
manw	-9.82259
ité	-9.82263
yè	-9.82463
▁musoman	-9.82542
▁kono	-9.82585
ninw	-9.82625
▁dumu	-9.82878
▁kiri	-9.82968
sɔrɔ	-9.83138
ern	-9.83233
▁dumini	-9.8336
▁demissin	-9.83374
▁sorassi	-9.83389
▁jɛnkulu	-9.83395
sh	-9.83405
uti	-9.83443
▁kabakourou	-9.83451
▁yorola	-9.83775
▁mouso	-9.83786
▁dj	-9.8385
▁sorô	-9.83895
▁bɛgɛn	-9.83905
konon	-9.83909
▁Dja	-9.83942
lila	-9.83964
▁fissa	-9.84002
mbé	-9.84032
yɔn	-9.84035
anman	-9.84103
▁matchi	-9.84111
▁parki	-9.84209
▁ɛ	-9.84277
▁sigilan	-9.84311
▁djaabi	-9.84338
lɔn	-9.84352
▁beye	-9.84357
wolo	-9.84478
naya	-9.84581
▁and	-9.8462
niya	-9.84667
▁tɛmɛna	-9.84677
▁gre	-9.85143
▁djara	-9.85209
▁ladili	-9.85304
▁borila	-9.85424
ntan	-9.85511
▁of	-9.85532
▁Po	-9.85784
▁djam	-9.85819
▁Ang	-9.86081
▁fôli	-9.86096
ul	-9.86162
▁djèn	-9.86267
gɛ	-9.86372
▁koh	-9.86544
▁r	-9.86593
▁din	-9.8663
bê	-9.86956
▁ladon	-9.86997
▁mouga	-9.87163
koura	-9.87239
▁cou	-9.87489
▁kègna	-9.87533
▁Bo	-9.87573
bésé	-9.87668
yere	-9.87694
▁bomb	-9.87874
sra	-9.87908
djèni	-9.87993
ɛt	-9.88037
faga	-9.88076
▁voté	-9.88284
▁va	-9.88395
▁adamadé	-9.88469
▁ge	-9.8847
▁Ti	-9.88504
▁bolola	-9.88507
▁adamade	-9.88634
▁aba	-9.88697
▁Tuma	-9.88793
▁datugu	-9.88902
▁He	-9.88998
▁kôrôta	-9.89101
T	-9.8913
▁Jamana	-9.89167
kisè	-9.89321
fohi	-9.89374
fèsè	-9.89383
▁tchaama	-9.89393
▁duguma	-9.89422
kènè	-9.89446
fura	-9.89563
yéssé	-9.89613
ter	-9.8964
▁ci	-9.89657
▁lasse	-9.89665
▁Tu	-9.89801
▁18	-9.89815
▁ɲɛn	-9.89851
gnogo	-9.89893
▁200	-9.89896
▁Espagn	-9.89979
orgor	-9.89979
▁doussou	-9.90033
iramidi	-9.90044
▁Q	-9.9005
▁802.11	-9.9005
▁Kanjar	-9.9005
▁Sundarban	-9.9005
▁Universit	-9.9005
▁akisidan	-9.9005
▁kititigè	-9.9005
▁yoloyolo	-9.9005
▁ɔnhɔn	-9.9005
▁fitchini	-9.9005
▁suwandi	-9.9005
▁demissein	-9.90051
mara	-9.90051
▁Berlin	-9.90051
▁brev	-9.90051
▁carré	-9.90053
▁lamô	-9.90054
▁group	-9.9006
▁Louis	-9.90061
▁Singapo	-9.90063
▁woulou	-9.90067
▁Park	-9.90068
▁dôrôpé	-9.90072
▁kititiguè	-9.90074
▁saria	-9.90074
▁fiéré	-9.90075
▁classi	-9.90081
▁moumè	-9.90083
▁Tchè	-9.90088
▁lakika	-9.9009
▁tchégui	-9.90097
▁gwèrè	-9.90098
▁banakisè	-9.90104
▁Téré	-9.90106
▁con	-9.90109
▁seriko	-9.90116
▁gnanabô	-9.90119
▁kôsôbè	-9.90122
▁togô	-9.90133
ns	-9.90155
▁Union	-9.90162
▁djumlan	-9.90172
▁Doro	-9.90173
▁my	-9.90184
▁maflè	-9.90186
▁pila	-9.90197
▁Francis	-9.90198
▁bassigui	-9.90198
▁Rock	-9.902
▁gwɛrɛ	-9.9023
▁hun	-9.90234
▁kounafoli	-9.90252
▁Alleman	-9.9026
▁kônôdô	-9.9027
▁djagnan	-9.90296
▁woulé	-9.90296
▁woronvla	-9.90309
▁tchê	-9.90315
▁Goma	-9.90342
▁neguè	-9.90347
ssan	-9.90348
▁Cana	-9.90353
▁jean	-9.90372
▁konondon	-9.90383
▁maana	-9.90418
unawolo	-9.90434
▁chégui	-9.90462
▁dayèrè	-9.90483
▁Kalan	-9.90487
▁gwè	-9.90542
▁conondo	-9.90584
▁US	-9.90615
39	-9.90631
▁Chinoi	-9.90686
folo	-9.90704
▁faaman	-9.90723
▁kɔrɔta	-9.90732
▁gnanfè	-9.90739
ɛs	-9.90763
▁fèsè	-9.90769
▁sɛkɔ	-9.90821
▁Komi	-9.90847
tɛn	-9.90856
▁Alli	-9.90876
▁gniniga	-9.90905
▁dégui	-9.90919
▁Dan	-9.90982
▁keleen	-9.9102
▁missinw	-9.91125
taw	-9.91136
▁tônô	-9.91143
▁buo	-9.91152
déra	-9.9124
▁koulouba	-9.91271
▁Jamanan	-9.91272
▁à	-9.91273
▁sege	-9.91285
▁sarati	-9.91331
▁bourou	-9.91357
fɛnw	-9.91391
▁Duni	-9.9148
biri	-9.91487
jogo	-9.91552
▁lôniya	-9.91565
▁dira	-9.91588
osoni	-9.91634
▁Hind	-9.91689
ɲa	-9.91707
▁dlan	-9.91727
▁temeni	-9.91729
▁bissigui	-9.91778
▁Charl	-9.91805
▁Arab	-9.91869
komi	-9.91876
▁he	-9.9188
ounw	-9.91885
▁far	-9.91987
▁gnanama	-9.92065
kland	-9.92084
,000	-9.9211
mlan	-9.92122
▁coungo	-9.92211
rland	-9.92276
▁Br	-9.92379
▁yélén	-9.92387
tre	-9.92407
▁kèlèkè	-9.92504
▁yarala	-9.92512
ètri	-9.92544
▁mbi	-9.92593
▁djanya	-9.92706
sɛn	-9.92721
▁Tou	-9.92814
▁digui	-9.92821
▁Car	-9.92852
▁flanan	-9.92908
▁francai	-9.92912
▁siranya	-9.92982
▁199	-9.93061
▁Nan	-9.93451
▁poro	-9.93456
▁minugu	-9.93507
dè	-9.93661
▁baji	-9.93692
▁kêrê	-9.93867
eirei	-9.93868
yèri	-9.93919
▁touyé	-9.94097
▁intèr	-9.94309
▁gn	-9.94332
▁kari	-9.94335
nde	-9.94344
▁tiguèla	-9.94569
▁barada	-9.94583
ere	-9.94665
▁kôrôbô	-9.94728
▁tununa	-9.9475
aye	-9.94774
uc	-9.95036
▁faman	-9.95166
nèri	-9.95185
misèn	-9.9523
béri	-9.95263
▁tchila	-9.95323
lor	-9.95326
▁cogoya	-9.95357
▁danfe	-9.95397
▁kofô	-9.95604
rque	-9.95639
▁kôrôssili	-9.95644
ati	-9.95688
▁bilayôrô	-9.95713
▁gwèlè	-9.95848
▁bɔn	-9.95954
▁Alon	-9.96
▁kuw	-9.96054
tɛr	-9.96078
▁mɔn	-9.96083
che	-9.96149
▁kénlén	-9.96244
mousso	-9.96279
▁demi	-9.96295
▁tena	-9.96763
spi	-9.96771
▁batoli	-9.96772
lle	-9.96881
▁han	-9.96916
cogo	-9.96916
fani	-9.97056
dôw	-9.97154
▁biwolonfila	-9.97193
▁nimoro	-9.97193
▁biloru	-9.97198
▁nègè	-9.97203
▁televi	-9.97205
▁munumunu	-9.97217
▁ɲagami	-9.97217
▁lanibara	-9.97227
▁wotoro	-9.97237
▁tôrô	-9.97244
▁labato	-9.97249
▁kalama	-9.97252
▁kɔrɔmuso	-9.97256
▁faa	-9.97289
▁Baa	-9.973
▁kɛwale	-9.97327
▁glan	-9.97358
▁Bu	-9.97363
▁film	-9.97405
▁sirakan	-9.97418
▁ɲininga	-9.97456
ilé	-9.97486
▁kungo	-9.97489
▁bolila	-9.97652
▁gran	-9.97705
▁sago	-9.97726
▁yirika	-9.97735
▁blala	-9.97869
▁dénw	-9.97918
▁kalanso	-9.9811
fia	-9.98132
land	-9.9814
▁kulon	-9.98191
▁kɔn	-9.98241
oulou	-9.98256
teur	-9.98441
▁moun	-9.98459
▁lase	-9.9851
▁cii	-9.98584
▁kilomet	-9.98626
▁wolon	-9.98643
▁teriya	-9.98689
agi	-9.98714
▁17	-9.98746
▁Yo	-9.98762
▁sarala	-9.98897
▁tayé	-9.98955
▁Pe	-9.99073
▁nim	-9.9908
▁korô	-9.99276
▁kɔm	-9.99348
▁dougoudé	-9.9938
gari	-10.0003
▁tilen	-10.0015
▁Ca	-10.0019
zo	-10.002
▁makan	-10.0038
▁ɔn	-10.0043
lén	-10.0054
▁baba	-10.0067
▁pol	-10.0074
▁toulo	-10.0095
▁ɲini	-10.0111
ward	-10.0111
▁tah	-10.0123
or	-10.0133
▁nun	-10.0137
▁Bus	-10.0147
▁St	-10.0163
han	-10.0167
▁Maro	-10.017
ènè	-10.0177
▁misi	-10.018
▁Ci	-10.0194
yôrôla	-10.0198
nei	-10.02
▁buru	-10.021
▁kake	-10.0213
▁bôn	-10.024
ilasi	-10.0248
▁nina	-10.0274
fɔ	-10.0279
▁boɲɛ	-10.0312
ny	-10.0316
ère	-10.0325
zara	-10.035
mafen	-10.0356
▁dola	-10.0361
▁ɲɔgɔ	-10.0366
for	-10.0369
▁kèli	-10.0369
▁Ga	-10.0374
▁dju	-10.0397
èni	-10.0404
▁caama	-10.0416
▁akè	-10.0422
▁djeg	-10.0429
mba	-10.0436
tiɔn	-10.0439
▁damani	-10.0462
issi	-10.0467
▁sala	-10.0479
nhu	-10.0484
▁nɛnɛ	-10.0487
oû	-10.0488
▁biduuru	-10.0488
▁indien	-10.049
▁joué	-10.0491
▁kinibolo	-10.0491
▁kunafoli	-10.0492
▁drɔn	-10.0493
▁super	-10.0494
▁fiyen	-10.0494
▁île	-10.0495
▁lamaga	-10.0495
▁bougô	-10.0495
▁parti	-10.0497
▁kɛla	-10.0498
enter	-10.05
▁pur	-10.05
▁nunugu	-10.0502
▁kɔgɔ	-10.0503
▁jago	-10.0508
uxe	-10.0508
▁kibaria	-10.051
▁jalaki	-10.0517
▁Sam	-10.052
▁anka	-10.0528
anci	-10.0532
ho	-10.0534
▁founou	-10.0538
▁dougouba	-10.0541
sebe	-10.0544
▁bamba	-10.0561
▁bange	-10.0563
▁plasi	-10.0564
ɛtri	-10.0568
▁bougou	-10.0573
èlè	-10.0576
▁oh	-10.0577
▁kissi	-10.0581
van	-10.0587
▁Ban	-10.0595
karo	-10.0601
▁yiriwal	-10.0601
cha	-10.0601
▁gê	-10.0605
▁tlon	-10.0606
▁kènèya	-10.0607
▁sofa	-10.0628
▁dɔn	-10.063
ent	-10.063
▁lakali	-10.0635
vier	-10.0635
▁dɔrɔ	-10.0645
▁polo	-10.0655
▁sebaga	-10.0658
▁yèrèla	-10.0663
▁kassi	-10.0676
▁adamaden	-10.0693
▁Fe	-10.0712
sɛr	-10.0715
▁danan	-10.0721
▁kounba	-10.0724
▁Ve	-10.0731
▁Sh	-10.0739
hal	-10.0743
rid	-10.0743
▁bro	-10.0749
yɛr	-10.0755
▁ɛr	-10.0756
nanko	-10.0769
▁duguw	-10.077
ɔgɔ	-10.0779
il	-10.0783
▁ladjigui	-10.079
▁fri	-10.0796
élè	-10.08
▁loon	-10.0801
▁bafè	-10.0805
bana	-10.0832
▁afô	-10.0836
▁mandi	-10.0836
▁labila	-10.0836
tiri	-10.0842
rik	-10.0847
gban	-10.0852
▁mɛna	-10.0854
loni	-10.0866
seli	-10.0879
▁farani	-10.0899
▁djé	-10.0907
baya	-10.0912
tɔn	-10.0933
▁Bal	-10.0935
▁siri	-10.0954
ugou	-10.0968
yal	-10.0984
▁kamele	-10.0985
▁Te	-10.0992
goro	-10.0994
lou	-10.1001
gami	-10.1007
kônô	-10.1026
▁weleli	-10.1027
▁féw	-10.1034
mine	-10.1039
xi	-10.1039
▁kibaro	-10.1043
tôgô	-10.1048
bola	-10.1052
ff	-10.1066
mbour	-10.1072
èti	-10.1073
▁mirila	-10.1074
▁Air	-10.1098
mazo	-10.1102
▁séko	-10.1113
▁Lati	-10.1122
èèrè	-10.1138
9	-10.1153
000	-10.1153
ségui	-10.1159
▁tchogow	-10.1161
▁pro	-10.1161
gbèrè	-10.1176
rt	-10.118
▁minis	-10.1183
▁toron	-10.1193
▁filimou	-10.1196
▁suguru	-10.1199
erre	-10.12
nos	-10.1209
▁toumami	-10.1213
▁yɔrɔla	-10.1216
ille	-10.1219
olo	-10.1224
▁porogaram	-10.1227
▁seen	-10.1228
▁Las	-10.1231
magni	-10.1251
L	-10.1251
X	-10.1253
W	-10.1254
djabi	-10.1257
▁ladje	-10.1258
fissa	-10.1261
fôlô	-10.1262
▁Island	-10.1263
▁dili	-10.1265
▁séri	-10.1267
▁dɔgɔ	-10.1272
djougouya	-10.1278
▁sognan	-10.128
▁wu	-10.1285
▁gnôgô	-10.129
▁dantiguè	-10.1292
▁anga	-10.1295
jamana	-10.1295
gɔ	-10.1298
▁Wor	-10.1299
▁X	-10.1303
▁bélébélé	-10.1305
▁gbin	-10.1305
▁biro	-10.1307
tige	-10.1308
vel	-10.1309
▁tchian	-10.1316
▁minanw	-10.1317
_	-10.1322
▁Central	-10.1322
▁Sanskrit	-10.1322
▁bhajan	-10.1322
▁lasinsin	-10.1322
▁sègèsègè	-10.1322
▁tèrèmè	-10.1322
▁universit	-10.1322
▁Moriori	-10.1322
▁Picc	-10.1322
▁kunnafoni	-10.1322
▁Turki	-10.1322
▁angilɛ	-10.1322
▁fôgnô	-10.1322
▁Afghanistan	-10.1322
▁donguiri	-10.1322
▁kibaru	-10.1322
▁anguilè	-10.1322
▁Reid	-10.1322
▁septembr	-10.1322
▁Misali	-10.1322
▁Filipin	-10.1322
▁lagafia	-10.1322
▁sèguèsèguè	-10.1322
▁blâ	-10.1322
▁tchintchin	-10.1322
▁Saint	-10.1322
▁onhon	-10.1322
▁Atlantiki	-10.1323
▁ekɔl	-10.1323
▁ɲanabɔ	-10.1323
▁David	-10.1323
▁glassikourou	-10.1323
▁gwele	-10.1323
▁morif	-10.1323
▁Kôgôdji	-10.1323
▁turisi	-10.1323
▁dakabana	-10.1323
▁baleman	-10.1324
▁sugandi	-10.1324
▁Guru	-10.1324
▁electron	-10.1325
▁founde	-10.1325
arikou	-10.1325
▁ticket	-10.1325
▁gounkoun	-10.1325
▁denmisɛn	-10.1325
▁john	-10.1326
▁minisiri	-10.1326
▁mârâ	-10.1326
▁Lôgô	-10.1326
▁kalafili	-10.1326
▁dèsè	-10.1326
▁proton	-10.1326
▁Gran	-10.1327
▁Romani	-10.1327
▁Minisiri	-10.1327
▁Anglè	-10.1327
▁Anglais	-10.1328
▁lekoli	-10.1328
▁gbiliman	-10.1329
▁sawoura	-10.133
▁nônfè	-10.133
▁lɛ	-10.133
▁pèrè	-10.133
▁gnamima	-10.133
▁konron	-10.1331
▁papie	-10.1331
▁Monte	-10.1331
▁mâ	-10.1331
jo	-10.1332
▁gnangnini	-10.1332
▁Grè	-10.1332
▁bôçi	-10.1333
▁Togo	-10.1333
▁sounou	-10.1334
▁Sport	-10.1336
ison	-10.1337
▁adama	-10.1337
▁sêbê	-10.1339
▁34	-10.1339
▁kenekan	-10.134
▁fignè	-10.1341
▁kèrènkèrèn	-10.1341
▁demissinhou	-10.1342
▁djuru	-10.1342
▁Sogo	-10.1342
mark	-10.1343
▁djôyôrô	-10.1344
▁pasé	-10.1344
▁tulo	-10.1347
▁siguiyoro	-10.1347
▁doumouni	-10.135
▁intèrinèti	-10.135
▁Californi	-10.135
▁Tchèman	-10.135
▁Sisan	-10.1351
▁tigê	-10.1351
gnini	-10.1352
▁Koun	-10.1352
▁konnondo	-10.1352
▁Kru	-10.1353
▁Dô	-10.1353
▁Casa	-10.1353
▁welé	-10.1354
▁Jr	-10.1355
▁kassa	-10.1355
▁sèmè	-10.1356
▁60	-10.1356
▁tché	-10.1357
çi	-10.1358
▁gnen	-10.1359
▁maloya	-10.1364
▁paris	-10.1366
▁Angel	-10.1368
▁Go	-10.1369
▁Kongo	-10.137
▁gnagnini	-10.1371
▁kèrèkèla	-10.1371
▁Saan	-10.1372
▁woronfila	-10.1373
▁gɛrɛ	-10.1373
▁aviyôn	-10.1374
▁50	-10.1374
▁faratiman	-10.1374
▁bochi	-10.1374
▁gnamogo	-10.1375
▁kôdji	-10.1376
▁omɛr	-10.1377
▁yɛlɛko	-10.1379
▁djatigui	-10.1383
▁Abé	-10.1384
lèri	-10.1386
limaniya	-10.1386
▁kèmèss	-10.1387
▁Jui	-10.1388
▁Wari	-10.1389
▁badjou	-10.1389
▁keneya	-10.1393
▁Hotel	-10.1394
yété	-10.1395
▁miles	-10.1397
▁domou	-10.1399
▁bilasira	-10.14
▁4	-10.1405
▁Ze	-10.1405
▁Zap	-10.1408
▁dansigui	-10.1409
nènè	-10.1412
▁bassiguini	-10.1412
▁Sanfè	-10.1413
igh	-10.1414
▁mandjan	-10.1415
▁séng	-10.1416
▁gnuman	-10.1416
▁Moldav	-10.1417
▁kimi	-10.1418
nanw	-10.1418
▁présiden	-10.1419
▁donkililala	-10.142
▁Farans	-10.1421
▁fisaya	-10.1422
▁Sira	-10.1424
aland	-10.1434
▁Ski	-10.144
tic	-10.1441
▁daw	-10.1444
▁baasi	-10.1447
nness	-10.145
▁konnondon	-10.1452
▁yereman	-10.146
▁Kalo	-10.1464
▁nɔ	-10.1464
mé	-10.1465
▁siyôrô	-10.1465
▁gnoumanna	-10.1468
▁Saba	-10.1474
▁bagato	-10.1478
kin	-10.1479
▁olugu	-10.1482
▁oridinat	-10.1483
▁um	-10.1483
uli	-10.1483
▁Sara	-10.1483
fine	-10.1485
▁korota	-10.1485
gô	-10.1487
▁tasuman	-10.1504
▁202	-10.151
▁saheli	-10.151
▁salan	-10.1522
▁doron	-10.1522
▁Pri	-10.1524
▁cô	-10.1526
▁tanan	-10.1529
▁keleye	-10.1535
engen	-10.1539
endo	-10.1543
▁fanfê	-10.1544
▁djangnan	-10.1547
▁mayara	-10.1552
▁sarakan	-10.1559
▁bisigi	-10.156
teimin	-10.1571
fari	-10.1584
▁béhi	-10.1584
▁jona	-10.1587
missin	-10.1592
▁Art	-10.1593
▁Dun	-10.1596
lakoyaw	-10.1596
▁lamon	-10.16
▁gnongonan	-10.1606
▁sourou	-10.1608
▁sia	-10.1608
▁kèyôrô	-10.161
▁labaara	-10.1611
doni	-10.1613
▁sami	-10.1627
▁196	-10.163
bɛr	-10.1631
NP	-10.1633
mɔn	-10.1636
pound	-10.1637
▁koté	-10.1644
▁dèmi	-10.1656
tah	-10.1662
▁wéléli	-10.1666
▁djatéya	-10.1673
▁uka	-10.1683
tigiya	-10.1685
▁kumaden	-10.17
èli	-10.17
▁jen	-10.1706
dara	-10.1706
▁lasigui	-10.1716
wal	-10.1722
▁tiguiya	-10.1727
teli	-10.1729
ple	-10.1746
cé	-10.1747
happa	-10.1747
ariya	-10.1749
arolina	-10.1753
▁Sho	-10.177
ct	-10.177
elen	-10.1776
toun	-10.1777
ine	-10.1779
▁teh	-10.1786
rissi	-10.1786
▁borife	-10.1789
▁duman	-10.1799
ova	-10.1804
▁dounigna	-10.1806
eri	-10.1815
▁tien	-10.1817
▁Domini	-10.1819
▁11	-10.1829
▁filana	-10.1842
▁signa	-10.1874
▁yelema	-10.1877
▁latiguè	-10.1884
èla	-10.1892
▁bèn	-10.1898
▁toumanan	-10.1899
▁Appl	-10.1902
▁kuruli	-10.1902
war	-10.191
▁lahal	-10.1913
▁sumani	-10.1919
liti	-10.1931
tari	-10.1932
unugnan	-10.1935
▁demen	-10.1937
▁diyan	-10.1941
fri	-10.1943
▁sôrôda	-10.195
▁Fè	-10.195
▁Yor	-10.1961
▁Kun	-10.1968
bert	-10.1972
▁kèwali	-10.1976
▁Bou	-10.1978
kala	-10.199
▁Mars	-10.1991
rin	-10.1991
hog	-10.1991
ling	-10.1998
ication	-10.2001
nibɛ	-10.2015
▁kuran	-10.202
▁Mou	-10.2027
gnouman	-10.2031
▁sabana	-10.2031
ph	-10.2041
▁pori	-10.2044
araw	-10.2048
▁Fi	-10.2049
bèni	-10.2052
▁chia	-10.2058
▁nikô	-10.2058
éen	-10.206
▁fora	-10.2066
zu	-10.2066
▁kalanden	-10.2072
urg	-10.2077
▁Ow	-10.2078
elé	-10.2118
kha	-10.2121
▁duguden	-10.2121
▁2.	-10.2126
olu	-10.213
▁Ch	-10.213
▁am	-10.2133
P	-10.2134
▁tariku	-10.2134
ster	-10.2161
élé	-10.2182
gwè	-10.22
ty	-10.2207
▁mark	-10.221
▁Ju	-10.2218
liko	-10.2223
▁kélénan	-10.2226
▁hɛrɛ	-10.2229
▁sènè	-10.2232
▁lɔgɔkun	-10.2232
▁kii	-10.2234
▁dɔgɔcɛ	-10.2234
▁feere	-10.2239
▁tumadɔ	-10.224
US	-10.2242
▁Tan	-10.2245
▁tà	-10.2245
▁russi	-10.2249
▁ladjèl	-10.2251
▁hèrè	-10.2253
▁recor	-10.2262
ransi	-10.2262
▁gnimi	-10.2263
▁filaburu	-10.2265
▁biduru	-10.2265
▁dabla	-10.2265
▁Sen	-10.2269
▁kungolo	-10.2271
▁tèmin	-10.2271
môgôw	-10.2277
▁bamousso	-10.2279
▁kule	-10.228
▁yôrôdjan	-10.2285
▁cogodi	-10.2294
▁missin	-10.2296
▁yanfè	-10.2302
rsi	-10.2304
▁Cou	-10.232
souma	-10.2323
kela	-10.2325
▁Fl	-10.234
▁surun	-10.2341
▁caa	-10.2347
▁chou	-10.2359
jon	-10.2364
▁jigira	-10.2369
▁Lak	-10.2371
▁toulou	-10.2372
▁gilan	-10.2373
kili	-10.2379
mes	-10.2394
yap	-10.2398
▁tiguiw	-10.2403
▁olé	-10.2412
▁sèbèni	-10.2418
▁dafani	-10.2422
sti	-10.2426
ngan	-10.2432
ngné	-10.2444
ên	-10.2444
▁chiya	-10.245
▁lanib	-10.2458
▁djoussou	-10.2463
▁bougn	-10.2483
ock	-10.2484
amou	-10.2486
▁Gna	-10.2496
ourou	-10.2505
wɔrɔ	-10.2526
▁nigɛ	-10.2533
▁mansa	-10.2539
nidè	-10.2545
ege	-10.2549
mili	-10.2562
▁latin	-10.2566
by	-10.2575
▁mura	-10.2578
▁jaabi	-10.2578
ogo	-10.2587
▁sisi	-10.2598
▁koman	-10.2601
▁elect	-10.2606
▁deme	-10.2607
▁gnôngôna	-10.2612
ar	-10.2614
▁Et	-10.2615
▁dabô	-10.2617
▁alugu	-10.2619
▁saraka	-10.2645
▁dougouma	-10.2649
mail	-10.2653
ie	-10.2655
▁kalen	-10.2657
▁juguw	-10.2663
▁talon	-10.267
▁obè	-10.2683
ad	-10.2687
fein	-10.2694
ino	-10.275
▁kɔnɔni	-10.2756
▁Mac	-10.2785
▁sonna	-10.2791
▁sôrôli	-10.2797
onon	-10.2802
mbrou	-10.2817
▁pas	-10.2826
ction	-10.2842
▁Da	-10.2846
nca	-10.2851
sur	-10.2853
as	-10.2863
bul	-10.2887
▁kasa	-10.2889
▁sarl	-10.2906
▁Aya	-10.2906
▁vote	-10.2913
yani	-10.2914
ɔl	-10.2933
▁minkè	-10.2934
▁gin	-10.2938
▁tchèla	-10.2945
sôbè	-10.2945
▁gnama	-10.2957
djuguya	-10.2959
pori	-10.2981
jugu	-10.3006
▁doua	-10.3006
ide	-10.301
tɔ	-10.3016
nda	-10.3035
ola	-10.3036
ssouman	-10.3052
nté	-10.3075
ɛti	-10.3076
éssé	-10.3085
orro	-10.3096
▁tei	-10.3102
▁itali	-10.3114
▁jɛn	-10.3118
▁kalô	-10.3123
q	-10.3125
▁kaso	-10.3126
ounou	-10.3127
▁solo	-10.3127
sey	-10.3133
unteni	-10.3145
sén	-10.3146
gwɛ	-10.3148
sɛbɛ	-10.3152
▁es	-10.3159
ball	-10.3159
national	-10.316
▁Nov	-10.3171
▁mèn	-10.3177
▁ima	-10.3184
anda	-10.3186
▁Li	-10.3186
nger	-10.3193
she	-10.3203
▁ɲafɔ	-10.3205
tilen	-10.3216
▁hé	-10.3219
▁toi	-10.3229
tagama	-10.3229
▁biworo	-10.323
▁député	-10.3231
▁alabatoso	-10.3231
▁kitabou	-10.3231
▁denmisen	-10.3231
▁nɛgɛ	-10.3231
▁program	-10.3231
▁lalɔ	-10.3232
▁tɔnɔ	-10.3232
▁sinsin	-10.3232
▁fɔɲɔ	-10.3232
▁gɛ	-10.3232
▁nɔnɔ	-10.3232
▁saint	-10.3234
▁katoliki	-10.3236
▁dusukun	-10.3236
kula	-10.3237
▁kɔgɔji	-10.3238
▁epi	-10.3242
▁nôfè	-10.3244
▁djôrô	-10.3246
énéral	-10.3246
▁euro	-10.3249
▁tɔrɔ	-10.325
▁basi	-10.3252
iriya	-10.3256
wagati	-10.3256
▁wuleman	-10.326
▁nonnon	-10.3262
▁kalansoba	-10.3265
▁tchai	-10.3267
▁tr	-10.3269
▁Lon	-10.3269
▁gnèfè	-10.327
gne	-10.3271
▁kalifa	-10.3282
▁fasa	-10.3286
▁samaraba	-10.3289
▁annu	-10.329
▁toumba	-10.3302
uman	-10.3302
noi	-10.3305
achon	-10.331
▁sosso	-10.3311
▁mougou	-10.3311
▁gwɛlɛn	-10.3316
imi	-10.3322
▁marsi	-10.3327
▁kôgôd	-10.3332
char	-10.3332
▁laminɛ	-10.3334
▁binkan	-10.3335
▁fra	-10.3337
▁sangolo	-10.3343
▁Hi	-10.3359
gnou	-10.3365
▁sosi	-10.3366
isi	-10.3366
bèn	-10.3374
▁koulo	-10.338
▁Big	-10.3387
ouli	-10.3388
chu	-10.3393
▁gwa	-10.3394
vil	-10.3395
fagala	-10.3397
▁famuya	-10.3397
▁Kat	-10.3403
▁biyé	-10.3405
mo	-10.3405
▁Dis	-10.3409
▁béré	-10.341
mɛtri	-10.3419
▁tassouma	-10.3419
▁djakouman	-10.343
hô	-10.3437
urs	-10.3442
dj	-10.3446
▁tchaya	-10.3446
din	-10.3449
▁wote	-10.3457
rchi	-10.3461
▁wɛ	-10.3464
▁tchogola	-10.3467
▁golo	-10.3467
▁kilan	-10.3481
▁tagamana	-10.3493
▁Alle	-10.3494
▁jara	-10.3497
lap	-10.3497
▁cee	-10.3499
▁bɔni	-10.3501
▁tountè	-10.3504
▁bar	-10.3505
▁landa	-10.3518
urusi	-10.3539
▁mar	-10.354
bor	-10.3541
tanba	-10.355
▁nɔgɔ	-10.3556
nama	-10.3566
ktɛr	-10.3568
▁Up	-10.3585
▁tando	-10.3588
▁Douni	-10.359
use	-10.3595
▁Oh	-10.3599
baranin	-10.3604
▁Sou	-10.3623
hh	-10.3632
▁diyara	-10.3633
bru	-10.3633
mandi	-10.3651
liya	-10.3652
ngon	-10.3665
▁finman	-10.3666
▁balola	-10.3667
nt	-10.3669
▁Kè	-10.3675
▁suru	-10.3677
▁atom	-10.368
yèrèla	-10.3685
▁gnininga	-10.3689
▁woror	-10.3694
▁bien	-10.3705
lôgôlô	-10.3706
▁lasiri	-10.3716
▁ru	-10.3716
▁jui	-10.3724
▁ladi	-10.3728
▁aliman	-10.3736
▁gnagami	-10.3739
▁prim	-10.3745
ters	-10.3748
over	-10.3748
▁suu	-10.375
angui	-10.3753
ôdji	-10.376
irlin	-10.3764
▁balaw	-10.3779
▁téréma	-10.378
▁Ed	-10.3788
ville	-10.3791
▁jaati	-10.3796
erry	-10.3799
ronto	-10.3805
gnôgô	-10.3824
▁chamanw	-10.3826
▁kora	-10.3827
▁abena	-10.3828
▁sigira	-10.3841
▁tchei	-10.3842
aman	-10.3849
few	-10.3857
▁trans	-10.3879
nikɛ	-10.388
ger	-10.3881
▁tor	-10.3893
▁nela	-10.3927
76	-10.3931
▁Gi	-10.3943
▁denn	-10.3972
▁9	-10.3979
▁Ala	-10.3985
hab	-10.3987
▁dounou	-10.3991
▁fariya	-10.3992
▁caya	-10.3993
éng	-10.3993
▁Oya	-10.4008
▁Han	-10.4016
▁val	-10.4023
boro	-10.4028
▁kôfê	-10.403
▁kônôna	-10.4056
dɔr	-10.4077
zn	-10.4082
éli	-10.4082
▁dami	-10.4088
▁Jan	-10.409
▁Nor	-10.4095
koya	-10.4098
▁toka	-10.4117
▁Jam	-10.4123
▁cɛman	-10.4124
kanto	-10.4131
gɛn	-10.4142
djala	-10.415
ogon	-10.4162
kɔnɔ	-10.4163
▁Geo	-10.4167
▁Stan	-10.4168
apo	-10.4177
▁gwɛlɛ	-10.4177
▁marala	-10.4184
▁kumana	-10.419
▁tounou	-10.4191
wale	-10.4192
juguya	-10.4196
bina	-10.4199
▁sènèkè	-10.4209
▁soho	-10.4226
▁km	-10.423
▁Poli	-10.4231
▁sɛ	-10.4234
▁Franc	-10.4234
▁dibi	-10.4236
jata	-10.4237
ubé	-10.4238
▁kabako	-10.4243
▁kɔsɔ	-10.4249
rimati	-10.4249
rɛl	-10.4249
▁yaga	-10.425
tougouni	-10.4258
▁gnôngôn	-10.4262
polo	-10.4264
▁hotel	-10.4267
chégui	-10.427
woronfila	-10.4274
The	-10.4274
▁sisitèm	-10.4275
founou	-10.4276
ɲuman	-10.4276
▁diina	-10.4283
▁tumana	-10.4283
dougoukolo	-10.4284
▁Amérik	-10.4284
kg	-10.4285
conon	-10.4286
tèrènè	-10.4287
kèmè	-10.429
kôfè	-10.4291
sôngô	-10.4291
▁Kir	-10.4293
songon	-10.4294
▁pla	-10.4302
▁kôgôdou	-10.4308
toh	-10.4309
▁Atlant	-10.4311
nafolo	-10.4323
viri	-10.4323
tell	-10.4325
rich	-10.4326
50	-10.433
▁lassou	-10.4332
▁sèbèw	-10.4333
manbolo	-10.4333
ârâ	-10.4337
▁kossô	-10.4337
▁kosso	-10.4338
égué	-10.4339
▁jagoba	-10.4339
▁Gui	-10.434
rétien	-10.4342
▁UNES	-10.4342
fignê	-10.4342
lizabeth	-10.4342
nimassalakoulou	-10.4342
ögö	-10.4342
ü	-10.4342
—	-10.4342
▁Anguilétèri	-10.4342
▁Charlotte	-10.4342
▁Costello	-10.4342
▁Danielle	-10.4342
▁Ethiopi	-10.4342
▁Harbour	-10.4342
▁Hawaii	-10.4342
▁Jourdain	-10.4342
▁Norvèg	-10.4342
▁Siminoff	-10.4342
▁Texas	-10.4342
▁Venezuela	-10.4342
▁Zambie	-10.4342
▁crampon	-10.4342
▁faranfasi	-10.4342
▁gôrôtôn	-10.4342
▁hockey	-10.4342
▁kérétchen	-10.4342
▁octobr	-10.4342
▁olympi	-10.4342
▁oromèni	-10.4342
▁pyramid	-10.4342
▁reserv	-10.4342
▁sariyassoun	-10.4342
▁têmêlén	-10.4342
▁vancouver	-10.4342
▁Angilè	-10.4342
▁gɛlɛn	-10.4342
▁website	-10.4342
UTC	-10.4342
▁Taipei	-10.4342
▁kèreinkèrein	-10.4342
▁dinoz	-10.4342
▁dougalé	-10.4342
activ	-10.4342
ONU	-10.4342
▁Alexandr	-10.4342
▁kèkafilè	-10.4342
ssôgô	-10.4342
CEP	-10.4342
fricain	-10.4342
▁Falkland	-10.4342
▁djondjon	-10.4342
▁Javanes	-10.4342
segesege	-10.4342
CA	-10.4342
▁dôtrô	-10.4342
▁koffè	-10.4342
▁Dôtôrô	-10.4342
▁gbissi	-10.4342
▁Zagr	-10.4342
▁Chrétien	-10.4342
▁rugby	-10.4342
▁Golf	-10.4343
▁dougalen	-10.4343
▁Hurrican	-10.4343
▁Parag	-10.4343
▁kôkôdji	-10.4343
▁fanfei	-10.4343
▁kolasegi	-10.4343
▁latege	-10.4343
▁Buffalo	-10.4343
▁Apia	-10.4343
▁delilikan	-10.4343
▁jatiminè	-10.4343
▁1979	-10.4343
▁dèmèdèmè	-10.4343
▁cancer	-10.4343
▁Galapagos	-10.4343
▁kewali	-10.4343
▁adamande	-10.4344
▁gbèrein	-10.4344
▁wèlè	-10.4344
▁West	-10.4344
▁Romain	-10.4344
▁sissitèm	-10.4344
▁Tinnin	-10.4344
▁Black	-10.4344
▁ninakili	-10.4344
acifi	-10.4344
▁djangaro	-10.4344
▁Sanfignè	-10.4344
▁Harap	-10.4345
▁White	-10.4345
▁lôkôli	-10.4345
▁nuclé	-10.4345
▁albɛr	-10.4345
▁Fôlô	-10.4345
▁Anguilè	-10.4345
▁Inter	-10.4345
tournè	-10.4345
▁gnanagbè	-10.4345
▁Fernand	-10.4345
▁djoukoro	-10.4345
▁Huhn	-10.4346
uay	-10.4346
▁MP	-10.4346
▁gnanangbè	-10.4347
▁15	-10.4347
▁djèmè	-10.4347
▁wiza	-10.4347
▁Petersb	-10.4348
▁Taga	-10.4348
▁sissè	-10.4348
▁dunia	-10.4348
▁Baara	-10.4348
▁Hsie	-10.4349
▁sérikô	-10.4349
▁fèrèsira	-10.435
▁Swed	-10.435
bèè	-10.435
▁faragwɛl	-10.435
▁Wolo	-10.435
▁jaté	-10.4351
▁morgor	-10.4351
▁gouvèrènèman	-10.4351
▁sisikour	-10.4352
▁PA	-10.4352
▁Europu	-10.4352
▁banabagatô	-10.4353
▁ADN	-10.4353
▁Allah	-10.4353
▁voti	-10.4353
ôrôya	-10.4354
▁yamarouya	-10.4354
▁wéré	-10.4356
▁campagn	-10.4356
▁Tom	-10.4356
▁Massatchè	-10.4357
rafiti	-10.4358
ool	-10.4359
▁farikoro	-10.4359
▁kounoung	-10.4359
▁gnènè	-10.4359
▁Muso	-10.4359
▁Tilé	-10.4359
téré	-10.4359
▁boriféng	-10.4359
▁Yomi	-10.436
▁Tile	-10.436
tourouba	-10.436
▁Jeu	-10.4361
▁karti	-10.4361
▁Gian	-10.4362
hydor	-10.4362
▁gnèmôgô	-10.4363
▁dinosor	-10.4363
im	-10.4363
▁lônikèla	-10.4363
▁Iraqi	-10.4364
▁lassigiden	-10.4364
▁wotchè	-10.4364
▁mansin	-10.4364
▁fitinin	-10.4364
▁bélébéléba	-10.4365
▁gnaniya	-10.4365
▁gnannanman	-10.4365
▁Mill	-10.4365
▁téléfone	-10.4366
▁djoona	-10.4367
▁filmu	-10.4367
lley	-10.4367
▁Kôgô	-10.4368
ilèkasèbè	-10.4368
▁bombou	-10.4368
kission	-10.4368
▁waléya	-10.4368
bilako	-10.4369
▁King	-10.437
▁léhé	-10.437
▁siens	-10.437
▁Gazi	-10.437
▁Atlantiqu	-10.4372
▁nôgôman	-10.4372
▁bidourou	-10.4373
▁sojan	-10.4374
ktu	-10.4374
▁East	-10.4374
▁kélépé	-10.4374
▁yôrôtôgô	-10.4374
ɛri	-10.4375
▁Del	-10.4375
▁fien	-10.4375
▁Armenie	-10.4375
▁Bish	-10.4375
▁tɛmɛsira	-10.4376
▁Siraba	-10.4376
▁Zeland	-10.4377
▁djidj	-10.4378
hegi	-10.4378
▁djoro	-10.4378
▁wangol	-10.4379
Zulu	-10.438
▁gbolo	-10.4382
▁scan	-10.4382
onou	-10.4383
yaala	-10.4383
▁gnakun	-10.4383
▁Woro	-10.4383
▁soufè	-10.4385
▁tileben	-10.4386
▁kinda	-10.4386
▁$	-10.4387
▁show	-10.4388
▁sufè	-10.4388
tôgôla	-10.4389
▁gbiri	-10.439
▁kôrôlen	-10.439
djiein	-10.439
ussi	-10.439
▁Lôni	-10.439
▁kulɛr	-10.4391
▁tiyen	-10.4391
▁nafamafɛn	-10.4392
▁gbou	-10.4392
▁denmuso	-10.4392
ms	-10.4392
▁nonfè	-10.4393
naseben	-10.4394
nguili	-10.4394
▁Franci	-10.4395
▁labain	-10.4397
▁ayira	-10.4397
▁hakan	-10.4398
▁kumasen	-10.4398
▁lafèrè	-10.4398
▁dantchè	-10.4398
▁kôron	-10.4399
▁alibi	-10.4401
zari	-10.4401
▁bouô	-10.4401
▁yɛlɛmana	-10.4404
▁sugubè	-10.4404
▁janto	-10.4405
nsula	-10.4405
▁opti	-10.4405
▁téhi	-10.4406
▁nissodja	-10.4408
▁Dane	-10.4408
▁mm	-10.441
▁wadjibiya	-10.441
▁kôson	-10.441
mètèrè	-10.441
▁kènèkan	-10.4411
▁yorro	-10.4412
bele	-10.4412
▁Lônni	-10.4413
▁sisitèmou	-10.4415
zɛn	-10.4416
▁fangua	-10.4418
▁Lun	-10.4419
▁sê	-10.442
▁Feli	-10.4421
unbè	-10.4423
▁jue	-10.4424
▁kônnon	-10.4424
▁Za	-10.4427
▁bî	-10.4429
▁Bolo	-10.443
▁celil	-10.443
▁guèlèya	-10.4431
▁vɛn	-10.4432
▁djikôrô	-10.4434
ruyasèbè	-10.4434
▁térébé	-10.4434
▁Cha	-10.4435
dala	-10.4435
▁gninmogo	-10.4436
giw	-10.4437
▁maɲi	-10.4437
abo	-10.444
▁(2	-10.444
▁Islandi	-10.4442
▁Americainw	-10.4443
▁dafe	-10.4445
▁cira	-10.4445
▁diinan	-10.4446
▁India	-10.4447
▁galon	-10.4448
▁konnondô	-10.4449
limètri	-10.4451
▁AD	-10.4454
▁AC	-10.4456
▁barikaman	-10.4458
▁fleli	-10.4458
▁ɲinan	-10.4458
oukôrô	-10.4459
▁hɛr	-10.446
▁Xi	-10.4461
▁Giz	-10.4461
▁taco	-10.4462
90	-10.4465
▁laada	-10.4467
suba	-10.4467
▁dibila	-10.4468
▁fôtchogo	-10.4469
▁Tibet	-10.447
▁Hu	-10.4471
▁gnanran	-10.4471
▁kénléyé	-10.4471
▁sagama	-10.4471
ctur	-10.4473
▁our	-10.4474
▁8	-10.4477
▁sèli	-10.4478
it	-10.4481
▁nanfèn	-10.4482
▁Eu	-10.4483
▁pɔn	-10.4483
▁Mau	-10.4483
▁biségui	-10.4484
▁bɛra	-10.4485
▁forou	-10.4485
▁drô	-10.4488
▁sènèkèla	-10.4488
▁kalansira	-10.4488
▁Ven	-10.4489
▁Trans	-10.449
ntiri	-10.4495
▁Ru	-10.4496
▁Hakilila	-10.4497
▁sabanan	-10.4498
▁Shi	-10.4503
▁nôrô	-10.4506
▁kofôni	-10.4509
▁kètchogoya	-10.451
ain	-10.4511
▁dôlô	-10.4511
▁misɛn	-10.4512
▁kunda	-10.4512
kolon	-10.4513
▁soumaya	-10.4519
kissi	-10.4522
filɛ	-10.4523
▁tonon	-10.4524
bôni	-10.4525
▁tcho	-10.4525
▁femi	-10.4525
▁kôrôlé	-10.4525
▁sébaga	-10.4529
▁kouroukan	-10.4534
▁sababuya	-10.4539
▁Minan	-10.4541
nɔɔ	-10.4541
▁gbèni	-10.4543
gnannaman	-10.4543
▁nè	-10.4545
-3	-10.4545
▁woula	-10.4546
▁par	-10.4546
▁béfô	-10.4549
sistem	-10.4549
▁sanu	-10.4551
filê	-10.4552
▁5	-10.4553
▁gbèya	-10.4554
▁desse	-10.4554
▁Wara	-10.4556
▁tchienni	-10.4558
▁gafe	-10.4563
▁tchera	-10.4563
▁Sy	-10.4565
▁fanbè	-10.4565
▁uta	-10.4568
▁6	-10.457
resil	-10.4571
▁dôgôyala	-10.4575
▁donkilila	-10.4576
▁kimmi	-10.4577
▁Aus	-10.4578
▁Bomb	-10.4578
▁Adam	-10.4579
▁kourayé	-10.4584
uè	-10.4585
▁Lolo	-10.4585
▁Deni	-10.4588
▁181	-10.4594
▁oté	-10.4599
abéti	-10.4604
ete	-10.4604
▁Olympic	-10.4607
▁saga	-10.4611
▁somôgô	-10.4618
▁adamadén	-10.4623
▁watira	-10.4624
▁sinan	-10.4625
▁fèèrè	-10.4626
▁doro	-10.4627
▁Sanga	-10.4635
inrin	-10.4637
▁kassé	-10.4637
▁tax	-10.4639
▁Ross	-10.4643
gis	-10.4644
▁Polic	-10.4645
▁boloka	-10.4645
am	-10.465
▁kolossi	-10.4652
fiya	-10.4655
kênê	-10.4656
ecurit	-10.4659
▁Djin	-10.4662
dari	-10.468
ube	-10.4681
▁Mobi	-10.4685
▁gbanni	-10.4688
▁tchèw	-10.469
▁tagua	-10.4693
kuma	-10.4694
llan	-10.4696
are	-10.4702
▁Chini	-10.4708
▁sougouya	-10.4709
▁lolos	-10.4721
▁Fariko	-10.4729
▁gon	-10.4737
▁labein	-10.4738
24	-10.4738
▁yôrôbè	-10.4745
▁gosi	-10.4753
▁She	-10.4756
èsè	-10.4757
guèrè	-10.476
éri	-10.4764
djein	-10.4769
▁Farafina	-10.4772
▁sarama	-10.4775
▁kɔnɔn	-10.4778
▁Gar	-10.4781
lonni	-10.4783
▁bayèlèma	-10.4787
▁nougou	-10.4792
ɲi	-10.4793
▁cr	-10.4796
▁Vis	-10.4802
▁djeni	-10.4809
▁Sto	-10.4809
▁kôrôyé	-10.4821
▁Azi	-10.4822
féw	-10.4825
▁gnamat	-10.4829
▁Gnanf	-10.4829
▁kunna	-10.4841
▁donna	-10.4846
▁zo	-10.4848
▁Tchi	-10.4848
▁Mari	-10.4849
▁kateimin	-10.4849
▁mabô	-10.485
▁siguida	-10.4852
lôni	-10.4853
▁kɛrɛ	-10.4854
osa	-10.4858
▁tôgôma	-10.4863
▁dasi	-10.4864
▁fitiniw	-10.4869
▁Goun	-10.487
▁masôrô	-10.487
vɛr	-10.4874
gɛr	-10.4878
mbu	-10.4884
▁Shar	-10.4891
hangi	-10.4893
nino	-10.4894
▁koum	-10.49
▁tuu	-10.49
vid	-10.4904
teimein	-10.4912
yaga	-10.4914
ouroun	-10.4915
▁kisi	-10.4923
▁dégué	-10.4923
evil	-10.4926
▁gnannan	-10.493
hake	-10.4932
▁bala	-10.4932
lahou	-10.4935
▁taran	-10.4937
▁juguya	-10.4952
▁cur	-10.4953
▁watila	-10.4969
mɔ	-10.497
▁liz	-10.4971
via	-10.4979
nku	-10.4983
▁koumalas	-10.4986
▁barakɛla	-10.4988
cogoya	-10.4992
▁Pun	-10.4999
od	-10.4999
25	-10.5001
▁Au	-10.5006
▁Hang	-10.5012
▁yalala	-10.5013
▁djôn	-10.5015
▁makoya	-10.5019
▁ura	-10.5019
▁or	-10.5022
▁tourisi	-10.5029
fou	-10.5032
fôli	-10.5037
▁minbé	-10.5038
▁tra	-10.5047
lata	-10.5049
▁10	-10.5056
▁yiride	-10.5057
▁gniningali	-10.506
▁minɛn	-10.5072
▁Cur	-10.5076
▁boo	-10.5076
▁Dou	-10.5079
▁tarô	-10.509
Pl	-10.5094
nburu	-10.5096
▁fagala	-10.5101
▁sɛr	-10.5106
▁téna	-10.5113
▁nonni	-10.5123
▁toukonnon	-10.5124
SA	-10.5124
▁djiman	-10.5136
▁abla	-10.5138
▁souroun	-10.5151
▁vo	-10.5153
▁kéléyé	-10.516
tôla	-10.5168
▁Con	-10.5181
ima	-10.5184
▁masé	-10.5187
lyn	-10.5203
▁sèbèlikè	-10.5204
▁dôle	-10.5207
▁gnaman	-10.5211
ina	-10.5213
▁Le	-10.5215
oviétik	-10.5216
ud	-10.5219
▁Dow	-10.5222
▁lasôrô	-10.5227
nh	-10.5231
▁sit	-10.5233
meli	-10.5236
▁até	-10.5239
▁Iz	-10.524
diplomou	-10.5242
kèra	-10.5256
kelaw	-10.5265
▁rech	-10.5266
fu	-10.5267
▁gbani	-10.5277
oud	-10.5284
▁damana	-10.5297
▁bènka	-10.5299
▁kili	-10.5301
▁Hol	-10.5307
▁No	-10.5313
boh	-10.5315
abaranin	-10.5316
▁yêlêman	-10.5321
▁lor	-10.533
▁tchaa	-10.5331
genci	-10.5336
aflè	-10.5347
▁chaama	-10.5356
▁gnanra	-10.5361
udi	-10.537
tcheiman	-10.5387
êlêkê	-10.539
▁djidi	-10.5391
délôgô	-10.5394
mil	-10.5394
▁gar	-10.5399
▁br	-10.5408
▁bran	-10.5408
mie	-10.5411
ymnastic	-10.5428
▁Kour	-10.5434
yein	-10.5444
dian	-10.5448
▁sisit	-10.5449
tur	-10.5449
mad	-10.5452
▁dafa	-10.5452
mir	-10.5461
▁lôli	-10.5461
gen	-10.5462
mê	-10.5463
▁wɛrɛw	-10.5465
▁ito	-10.5468
▁fil	-10.547
▁In	-10.5471
▁anu	-10.5474
spa	-10.5474
▁pat	-10.5476
▁pl	-10.5485
degui	-10.5498
baro	-10.5512
firi	-10.5514
ç	-10.5518
▁nanko	-10.5519
▁mibe	-10.5527
▁lasa	-10.5545
▁sinɔgɔ	-10.5557
▁misen	-10.556
▁ɲiniga	-10.5567
▁djida	-10.5583
ot	-10.5588
phon	-10.559
▁mɔnt	-10.5591
sitrali	-10.5592
▁dɔtɔrɔ	-10.5592
▁gwiliman	-10.5592
▁kunbɛn	-10.5592
▁guvɛrn	-10.5592
▁crayon	-10.5592
▁jukɔrɔ	-10.5592
▁sɔbɛ	-10.5592
▁dugalen	-10.5593
▁avoka	-10.5593
▁durɔn	-10.5595
▁songo	-10.5596
▁bagan	-10.56
teau	-10.5603
▁tran	-10.5603
▁jakumani	-10.5604
sha	-10.5606
vri	-10.5606
▁pɛrɛn	-10.5609
▁alleman	-10.561
▁dɔra	-10.5612
▁coule	-10.5612
djigi	-10.5614
▁tɛnɛ	-10.5616
▁sekɔra	-10.5619
▁faamuya	-10.5619
▁nɔgɔman	-10.5621
▁mari	-10.5622
▁koulé	-10.5623
▁gwan	-10.5629
▁dogô	-10.5631
▁lɔnniya	-10.564
▁ɲinigali	-10.564
SP	-10.5641
▁diɲɛ	-10.5644
▁bret	-10.5653
▁koulouw	-10.5656
▁pɔri	-10.5657
bôssi	-10.5658
mako	-10.566
burg	-10.5662
▁ve	-10.5663
▁mugu	-10.5663
▁pɛr	-10.5665
▁pɔrti	-10.567
▁wɔrɔnan	-10.5673
ique	-10.5681
▁dɔgɔni	-10.5684
▁fantan	-10.5689
▁otè	-10.5696
riti	-10.57
▁bèssé	-10.57
▁mizi	-10.5701
dilan	-10.5704
▁marki	-10.5707
▁danbe	-10.571
▁gnôn	-10.5714
▁kɔsɔn	-10.5715
eb	-10.5726
▁kôrôw	-10.5732
▁sɔnna	-10.5736
▁lɔni	-10.5742
▁mèna	-10.5755
▁touba	-10.5763
▁fransi	-10.577
▁jate	-10.5778
▁sanfèla	-10.5779
▁ofè	-10.578
houla	-10.5783
▁Edi	-10.579
▁dég	-10.5795
▁yɛrɛkɛ	-10.5801
kongo	-10.5801
▁sigila	-10.5804
bôli	-10.5813
▁rɛn	-10.5816
▁tla	-10.582
▁vɛr	-10.5821
osiye	-10.5824
▁Fer	-10.583
CO	-10.5831
▁borola	-10.5837
▁kanma	-10.5839
uf	-10.5839
kali	-10.5846
ssola	-10.585
nugnan	-10.5857
▁sang	-10.5858
▁tɛmɛnin	-10.5864
ié	-10.5867
▁lili	-10.5871
djin	-10.5875
liyé	-10.5878
sala	-10.588
▁kanda	-10.5882
▁gnara	-10.5886
lar	-10.5889
▁balan	-10.5896
▁djabara	-10.5901
▁sinema	-10.5902
▁poli	-10.5912
cia	-10.5917
▁benkan	-10.5919
▁cong	-10.5923
▁kanga	-10.5931
▁suman	-10.5935
tis	-10.5938
▁naninan	-10.5939
▁fale	-10.594
ovembr	-10.5941
▁telef	-10.5948
▁youma	-10.5952
▁Los	-10.5955
▁dini	-10.5968
▁hakilinan	-10.5974
64	-10.5977
▁siko	-10.5977
▁kôrôba	-10.5988
▁pass	-10.5989
▁uti	-10.599
▁djatemin	-10.5994
▁jatila	-10.5995
▁missi	-10.6001
▁juw	-10.6006
kati	-10.6006
▁larala	-10.6009
lake	-10.6009
▁tugura	-10.6013
ranci	-10.6016
▁toga	-10.6021
yafô	-10.6023
▁dali	-10.6039
▁koré	-10.6039
énw	-10.6041
▁En	-10.6054
inɛ	-10.6056
▁dôbô	-10.6063
▁Yog	-10.6068
▁ladjèn	-10.6089
lamaya	-10.6108
sɛl	-10.6127
▁kelaw	-10.6129
leke	-10.6152
sera	-10.6155
▁Kara	-10.6159
tsu	-10.617
égui	-10.6173
tigɛ	-10.6177
▁koba	-10.6178
▁wayas	-10.6188
riw	-10.6196
ism	-10.6214
▁lasigi	-10.6237
▁baou	-10.6237
▁Ste	-10.6239
▁Sc	-10.624
1.	-10.6243
▁bèyé	-10.6248
▁lɔnni	-10.6254
umasen	-10.6264
ugu	-10.6264
▁Jaa	-10.6268
ission	-10.6269
▁siguili	-10.6271
lot	-10.6276
Cl	-10.6276
fɔr	-10.6279
▁vila	-10.6286
▁tɔw	-10.6292
▁Asi	-10.6292
est	-10.6297
▁Fé	-10.6297
▁soumani	-10.6298
kognan	-10.6312
tɔr	-10.6323
▁moi	-10.6332
▁ladina	-10.6333
▁sir	-10.6337
rdin	-10.6347
▁fôlôla	-10.6359
▁Du	-10.6361
▁sèbèla	-10.6362
▁sabari	-10.6368
lolo	-10.6372
▁Fan	-10.6373
▁djanfa	-10.6386
▁Her	-10.6403
ɔni	-10.6416
eh	-10.6418
éné	-10.6437
landi	-10.6437
pen	-10.6474
▁tila	-10.6491
▁We	-10.6496
ineti	-10.6497
rɔn	-10.6501
▁seli	-10.651
èw	-10.6512
rip	-10.6513
▁Gri	-10.6529
▁sirada	-10.6534
▁tugula	-10.6538
ech	-10.654
▁konô	-10.6544
gassi	-10.6547
mɔr	-10.6559
ôli	-10.6561
▁akan	-10.6578
tere	-10.6589
▁tro	-10.6597
▁dep	-10.6599
▁gɛn	-10.6602
ration	-10.6604
▁Met	-10.6623
djosso	-10.6634
bab	-10.664
èra	-10.6648
▁nyé	-10.6648
▁et	-10.6661
daga	-10.6678
nce	-10.668
▁abéna	-10.6688
aki	-10.67
▁gè	-10.6703
bre	-10.6712
▁ladin	-10.6714
eur	-10.673
▁doo	-10.6741
ssè	-10.6742
▁bôrô	-10.6745
djateya	-10.6745
ruwa	-10.6764
ski	-10.6766
minè	-10.6773
▁19	-10.6777
▁dalil	-10.6779
▁balontan	-10.6792
zen	-10.6799
my	-10.6808
▁kunba	-10.6814
▁bassi	-10.6815
▁gwɛn	-10.6824
êrê	-10.6828
F	-10.6835
▁gra	-10.6836
ipor	-10.684
▁bissa	-10.6844
tte	-10.6847
del	-10.6853
Hero	-10.6856
▁tian	-10.6856
▁soura	-10.6858
missa	-10.6861
▁gnami	-10.6862
▁hô	-10.6872
tèrè	-10.6876
▁dunu	-10.6878
arada	-10.6881
▁woloma	-10.6884
▁ɛn	-10.6896
▁coun	-10.6901
▁Ham	-10.6902
▁malo	-10.6912
ira	-10.6913
ux	-10.6916
wɛrɛ	-10.6924
▁fini	-10.693
rap	-10.6938
▁bɛgɛ	-10.6939
▁Er	-10.6952
viyon	-10.6954
radio	-10.6955
munu	-10.6956
▁chari	-10.6958
ɛsi	-10.6963
kɔrɔba	-10.6963
▁Gree	-10.6966
musa	-10.6967
▁dondo	-10.6972
dôgô	-10.698
gwan	-10.6983
▁dôlé	-10.6983
▁Pr	-10.6987
mougou	-10.6989
oiri	-10.699
umani	-10.699
▁jabi	-10.6994
neti	-10.6995
ôyô	-10.7001
▁ɔr	-10.7006
ŋ	-10.7018
▁biwɔɔrɔ	-10.7021
▁entrepri	-10.7021
▁espagnol	-10.7021
▁républi	-10.7021
▁aviyɔn	-10.7021
▁papiye	-10.7021
sɔgɔsɔgɔ	-10.7021
▁fatura	-10.7021
▁vidéo	-10.7021
▁basket	-10.7021
▁damadaman	-10.7021
▁berlin	-10.7021
▁magné	-10.7021
▁charle	-10.7022
▁laɲini	-10.7022
▁modɛl	-10.7023
▁kamelé	-10.7023
▁arabu	-10.7023
▁chegi	-10.7024
▁marfa	-10.7024
▁champ	-10.7026
▁anglè	-10.7026
marché	-10.703
▁sɔsɔ	-10.703
▁politi	-10.7031
ey	-10.7032
▁djatiminin	-10.7034
▁sɛnɛ	-10.7034
▁finɛtri	-10.7034
tes	-10.7036
kru	-10.7037
strat	-10.7038
dust	-10.704
toria	-10.7041
npik	-10.7042
wôlô	-10.7043
▁dèrè	-10.7049
▁cɛkaɲi	-10.7049
▁Per	-10.705
▁gnataga	-10.705
▁samian	-10.705
▁viris	-10.7053
▁glac	-10.7053
▁vitri	-10.7054
pine	-10.7058
▁tulu	-10.7058
▁yɔgɔ	-10.7059
▁kunawolo	-10.7061
▁korossi	-10.7062
▁pɛn	-10.7062
▁fatɔ	-10.7063
▁araba	-10.7064
▁Vo	-10.7065
▁dogoyara	-10.7066
▁lanilo	-10.7067
jor	-10.7069
IC	-10.707
lpha	-10.7072
▁wilibali	-10.7074
▁gun	-10.7075
▁acid	-10.7077
▁géo	-10.7079
ervi	-10.708
▁fɛrɛ	-10.708
▁tiyɛn	-10.7082
taki	-10.7083
▁siɲɛ	-10.7084
▁tobiri	-10.7088
nka	-10.709
▁lakoli	-10.7093
▁binan	-10.7102
▁balɔn	-10.7104
▁miliyar	-10.7107
▁lankolo	-10.7109
siyon	-10.711
▁sp	-10.7114
▁kossèbè	-10.7119
▁tobili	-10.7127
tine	-10.7132
▁national	-10.7133
réfè	-10.7136
▁miseni	-10.7137
▁V	-10.714
▁ché	-10.7143
ilisi	-10.7143
bama	-10.7144
▁civi	-10.7146
tuman	-10.7148
▁appl	-10.7148
ôti	-10.7154
▁stan	-10.7168
▁gô	-10.7169
ongo	-10.717
asi	-10.7173
▁saara	-10.7176
ôgôya	-10.7179
illè	-10.7186
nabô	-10.7193
▁casi	-10.7202
▁filɛri	-10.7208
eremi	-10.7212
▁frou	-10.7216
▁dege	-10.7218
▁kibarou	-10.7223
▁djila	-10.7224
marine	-10.7228
ngali	-10.7235
▁lamè	-10.7242
▁sogoma	-10.7246
▁tourou	-10.7248
▁bré	-10.7252
▁ɲ	-10.7252
saki	-10.7252
▁boyi	-10.7261
▁koung	-10.7261
▁saki	-10.7263
enos	-10.7274
▁ɛl	-10.7278
▁ren	-10.7279
▁diaman	-10.7289
▁esp	-10.729
▁Djat	-10.7292
tɛri	-10.7292
▁poin	-10.7295
▁mont	-10.7296
▁djanyan	-10.7299
▁fasso	-10.7309
ovi	-10.7313
▁tebe	-10.7316
▁dimina	-10.7316
▁ek	-10.732
▁sena	-10.7324
▁timb	-10.7324
erto	-10.7328
▁sosiy	-10.7329
liye	-10.7331
hur	-10.7334
nburg	-10.7342
▁Indi	-10.7345
chin	-10.7346
mit	-10.7353
assur	-10.7356
▁bakou	-10.7359
ner	-10.7361
jala	-10.7372
▁ili	-10.7377
Gh	-10.7379
tiya	-10.738
igg	-10.7387
▁Fre	-10.7388
▁karila	-10.7398
▁sumaya	-10.7402
▁senna	-10.7403
diya	-10.7406
▁pè	-10.741
▁plac	-10.742
fôra	-10.7433
lonbaga	-10.744
gwèlèn	-10.744
rɛt	-10.7445
▁banbali	-10.7449
▁dr	-10.7449
▁seri	-10.7451
ɛz	-10.7457
▁soso	-10.746
gin	-10.7465
dys	-10.7467
senw	-10.748
diri	-10.7485
yôrôyé	-10.7501
▁Pag	-10.7509
▁Bè	-10.7513
▁labèna	-10.7514
▁bèman	-10.7517
tèrin	-10.7529
ler	-10.7533
gbe	-10.7535
vɛn	-10.754
▁soroba	-10.7541
▁nɛ	-10.7546
▁fagali	-10.7563
▁téliya	-10.7567
swa	-10.7568
ber	-10.7568
▁mah	-10.7579
▁laminini	-10.758
▁jatigi	-10.7591
roya	-10.7595
▁maraw	-10.7603
▁tounbé	-10.7607
mènan	-10.7617
▁donda	-10.7618
▁daraka	-10.7618
noo	-10.7621
▁(3	-10.7624
enne	-10.7657
▁cɔ	-10.766
ntɛn	-10.7669
▁jigui	-10.7676
▁kounko	-10.7689
▁kilometr	-10.7691
tise	-10.7692
kuluw	-10.7693
ondi	-10.7703
siya	-10.7703
▁pap	-10.7709
▁dannan	-10.7711
▁telia	-10.7712
▁Mous	-10.7713
ereya	-10.772
▁sanima	-10.772
nèmaya	-10.772
ren	-10.7734
▁bl	-10.7744
red	-10.7751
▁domu	-10.7754
▁magaman	-10.776
▁cam	-10.7778
▁Abe	-10.7783
guila	-10.7783
band	-10.7785
▁sanou	-10.7786
horo	-10.7795
dɛn	-10.7798
▁kiun	-10.7819
▁dôh	-10.7822
val	-10.7825
dila	-10.7834
atimi	-10.7848
sê	-10.7849
▁kira	-10.7858
dili	-10.7861
▁Mini	-10.7865
likan	-10.7868
alasi	-10.7889
▁Republi	-10.7891
ming	-10.7893
risita	-10.7899
lom	-10.7902
neman	-10.791
▁nɔn	-10.7925
yɛl	-10.794
▁farafi	-10.794
tugu	-10.795
▁foni	-10.7952
▁kôn	-10.7956
▁kéle	-10.7957
▁djamananw	-10.7958
▁cu	-10.7963
▁soula	-10.7965
guê	-10.7966
ègui	-10.7971
▁cour	-10.7974
▁saha	-10.7984
iyon	-10.7986
▁koungo	-10.7986
▁kile	-10.7994
cté	-10.7996
▁dian	-10.7998
▁zu	-10.8002
▁Is	-10.801
dimi	-10.8012
tche	-10.8018
mogo	-10.8022
yongon	-10.8023
80	-10.8035
onasteri	-10.8038
▁gara	-10.8042
▁Camb	-10.8045
▁Sir	-10.8063
▁kalandé	-10.8089
▁Pu	-10.8096
èè	-10.8099
pan	-10.8116
dja	-10.8118
eria	-10.8121
▁gninina	-10.8125
eimein	-10.8136
▁Cell	-10.8152
uru	-10.8155
▁filakè	-10.8156
▁vil	-10.8161
ôtô	-10.8164
▁kɔnɔnin	-10.817
ug	-10.8171
ôri	-10.8175
banga	-10.8182
▁gou	-10.8183
juru	-10.8185
▁cl	-10.8188
oussou	-10.8191
▁gb	-10.8191
nel	-10.8193
▁tounté	-10.8196
▁kakôrô	-10.8196
sɛ	-10.8198
▁sèbèra	-10.8201
▁sôsô	-10.822
▁dug	-10.8227
cro	-10.8228
ramani	-10.8231
▁bonya	-10.8234
nomi	-10.8244
▁sango	-10.8257
▁Hal	-10.8271
16	-10.8272
▁wal	-10.8279
tei	-10.8288
▁woloba	-10.83
songô	-10.83
E	-10.8308
tcha	-10.8308
ungolo	-10.8309
guei	-10.8309
22	-10.8309
gonan	-10.8312
onstant	-10.8316
inman	-10.8327
oura	-10.833
per	-10.8335
▁All	-10.8336
▁Gb	-10.8339
▁the	-10.8341
kafil	-10.8345
vla	-10.8349
▁manga	-10.8373
▁doung	-10.8375
barani	-10.8377
▁filip	-10.8377
▁Sur	-10.8391
▁bogna	-10.8394
les	-10.8397
déniw	-10.8404
▁80	-10.8405
ens	-10.8406
minnan	-10.8408
▁dougoula	-10.8409
▁kom	-10.8409
hon	-10.8411
”)	-10.8416
▁ori	-10.8417
▁ité	-10.842
J	-10.8423
aï	-10.8428
▁kam	-10.8437
phi	-10.8442
ongô	-10.8451
▁kalankɛ	-10.846
▁kori	-10.8465
bariya	-10.8465
ogoh	-10.8471
▁sid	-10.8477
▁kini	-10.848
résiden	-10.8481
▁Gou	-10.8494
▁Hakili	-10.8494
kouya	-10.8502
▁pô	-10.8502
mɛr	-10.8503
▁satel	-10.8504
▁wilila	-10.8511
▁00	-10.8513
tal	-10.8518
▁Lôn	-10.8523
▁tch	-10.8525
fanga	-10.8528
▁pɔ	-10.8531
kek	-10.8533
djougou	-10.8534
tow	-10.8535
gwèlè	-10.8538
mogow	-10.8543
▁Americain	-10.8549
1:	-10.8553
▁siguignon	-10.8557
soft	-10.8561
▁gnuma	-10.8562
▁lass	-10.8569
djô	-10.8572
yer	-10.858
▁dabo	-10.858
TA	-10.8589
oula	-10.8592
tuma	-10.8593
▁kônno	-10.8596
araka	-10.8596
▁Nig	-10.8596
▁tchiei	-10.8598
▁yɛrɛyɛrɛ	-10.8599
▁tiɲɛn	-10.8599
kénlé	-10.8605
lorou	-10.8605
▁sokônô	-10.8608
▁Vic	-10.861
▁espagnôl	-10.8612
$	-10.8616
kisɛ	-10.8616
▁ɔhɔ	-10.8617
▁kibaroya	-10.8619
bouô	-10.8619
sèmè	-10.8619
gnuman	-10.8619
woronvla	-10.862
Jam	-10.862
30	-10.862
gnôngô	-10.862
Z	-10.8621
dèmè	-10.8621
sababou	-10.8621
fongnon	-10.8621
fala	-10.8622
gnanagbe	-10.8623
hakili	-10.8623
tchiai	-10.8623
yelema	-10.8624
tchê	-10.8624
segui	-10.8625
Môgô	-10.8626
bouo	-10.8627
korobo	-10.8628
Lun	-10.8628
ntèrinèti	-10.8629
▁Califor	-10.863
▁th	-10.8631
bâ	-10.8631
bà	-10.8632
fourou	-10.8633
miles	-10.8634
yorro	-10.8635
falen	-10.8635
▁Europ	-10.8636
êlê	-10.8637
bogna	-10.8638
▁kèrèkè	-10.8638
waati	-10.8641
ladje	-10.8642
djamana	-10.8648
▁Argentin	-10.8651
Uni	-10.8652
▁Gre	-10.8653
▁siècl	-10.8654
tériya	-10.8654
rèfè	-10.8655
▁kissei	-10.8655
jaman	-10.8656
▁coro	-10.8656
misɛn	-10.8658
▁lɔgɔ	-10.8658
▁lafar	-10.8658
dju	-10.866
▁kéré	-10.866
radjo	-10.8661
oumér	-10.8662
▁sôr	-10.8662
pagni	-10.8669
teme	-10.867
waliman	-10.867
▁téléfon	-10.8672
▁Ur	-10.8673
foura	-10.8674
jourou	-10.8676
damina	-10.8678
tôrôw	-10.8678
▁sekɔ	-10.8678
▁Ameri	-10.868
banni	-10.8681
avy	-10.8681
neri	-10.8681
foh	-10.8681
ôgôtôrô	-10.8682
▁premi	-10.8684
▁deniw	-10.8685
89	-10.8686
▁Pitt	-10.8687
▁Ecuador	-10.8687
▁compa	-10.8687
▁Assyri	-10.8687
▁Azerbai	-10.8687
▁Hesperonychus	-10.8687
▁TogiNet	-10.8687
▁enregistre	-10.8687
▁walifasomara	-10.8687
echnologi	-10.8687
erusalem	-10.8687
mayèlèmatchogo	-10.8687
ndelogola	-10.8687
sipagnoli	-10.8687
sipayoli	-10.8687
»	-10.8687
á	-10.8687
ä	-10.8687
▁1920	-10.8687
▁Brazilian	-10.8687
▁Chambers	-10.8687
▁Chandra	-10.8687
▁Emirates	-10.8687
▁Français	-10.8687
▁Gnôgônatè	-10.8687
▁Hydrogen	-10.8687
▁Livingston	-10.8687
▁METI	-10.8687
▁Namgy	-10.8687
▁Octobr	-10.8687
▁Philippin	-10.8687
▁REM	-10.8687
▁Speciation	-10.8687
▁Tasmania	-10.8687
▁Zeruzal	-10.8687
▁agnoumala	-10.8687
▁apilikatchôn	-10.8687
▁banabagatoh	-10.8687
▁bikɔnɔntɔn	-10.8687
▁canadien	-10.8687
▁cycads	-10.8687
▁diɲɛlatigɛ	-10.8687
▁djègongonya	-10.8687
▁djélégué	-10.8687
▁djéridjourou	-10.8687
▁doumoudougouma	-10.8687
▁drôtôsso	-10.8687
▁eBay	-10.8687
▁fonafolina	-10.8687
▁gnadelogo	-10.8687
▁gouverneman	-10.8687
▁ladéguili	-10.8687
▁léguilisi	-10.8687
▁mafèlèli	-10.8687
▁molecu	-10.8687
▁motobori	-10.8687
▁patisséri	-10.8687
▁préparé	-10.8687
▁sêguêssêguêli	-10.8687
▁tubabukongowulu	-10.8687
▁tôgômanséri	-10.8687
▁univerisite	-10.8687
▁wonlofila	-10.8687
▁yàrà	-10.8687
▁Ét	-10.8687
Eskimo	-10.8687
constitu	-10.8687
original	-10.8687
sɛgɛsɛgɛli	-10.8687
▁Layton	-10.8687
▁Nepal	-10.8687
▁Sagitta	-10.8687
▁Toubabou	-10.8687
▁djikankounou	-10.8687
▁dêssê	-10.8687
▁faragwê	-10.8687
▁guvern	-10.8687
▁hydrog	-10.8687
▁kosɔbɛ	-10.8687
▁neutrons	-10.8687
ñ	-10.8687
▁Copenhague	-10.8687
▁Denbaya	-10.8687
▁Jeff	-10.8687
▁Kalaall	-10.8687
▁Missouri	-10.8687
▁Zeneral	-10.8687
▁jèngè	-10.8687
▁masouba	-10.8687
▁sougandili	-10.8687
▁souwandi	-10.8687
nagbèlè	-10.8687
onservat	-10.8687
▁Frank	-10.8687
▁Sarasvat	-10.8687
▁ladinein	-10.8687
▁mangrov	-10.8687
▁smart	-10.8687
▁djitamba	-10.8687
▁pacifiqu	-10.8687
▁Bhutha	-10.8687
▁General	-10.8687
▁Soviet	-10.8687
▁amériki	-10.8687
▁Barcelon	-10.8687
▁Cook	-10.8687
▁Lenz	-10.8687
▁Radio	-10.8687
▁Romantis	-10.8687
▁djègnongonya	-10.8687
▁môbilibori	-10.8687
Pittsburg	-10.8687
▁kounanfoni	-10.8687
▁tamashin	-10.8687
▁Flags	-10.8687
NBA	-10.8687
▁binkélémany	-10.8687
▁dansiginin	-10.8687
rifinsira	-10.8687
▁gouvernemen	-10.8687
▁têmêna	-10.8687
heuri	-10.8687
▁dembaya	-10.8687
▁habada	-10.8687
▁ladèrès	-10.8687
wolvila	-10.8687
▁Bobek	-10.8687
▁Dream	-10.8687
▁Royaume	-10.8687
▁kôlôsi	-10.8687
▁taboulo	-10.8687
▁Iceland	-10.8687
▁Astro	-10.8687
▁Norveg	-10.8687
▁diyagoya	-10.8687
▁gnôgônatè	-10.8687
▁tèyélà	-10.8687
▁tôgômasséri	-10.8687
▁Ephes	-10.8687
Provenza	-10.8687
Zoom	-10.8687
▁Mapuch	-10.8687
▁Fair	-10.8687
djêlé	-10.8688
▁Spri	-10.8688
▁Thom	-10.8688
▁kônônasou	-10.8688
▁sanfèkaran	-10.8688
▁Saito	-10.8688
▁arabou	-10.8688
▁cônou	-10.8688
▁dôlôtôya	-10.8688
▁rôssama	-10.8688
▁dinosaur	-10.8688
▁Tarata	-10.8688
edecin	-10.8688
▁dunanjigi	-10.8688
▁Equat	-10.8688
▁Mediterane	-10.8688
▁Trump	-10.8688
tewart	-10.8688
▁Israel	-10.8688
▁koffé	-10.8688
sitarali	-10.8688
▁haramuya	-10.8688
▁lafien	-10.8688
▁tropical	-10.8688
▁Finland	-10.8688
▁kititèguè	-10.8688
▁Thai	-10.8688
▁ladégi	-10.8688
▁nèguèdjourou	-10.8688
▁gninmôgôya	-10.8688
▁club	-10.8688
▁avansi	-10.8688
▁Prince	-10.8688
▁Zéland	-10.8688
▁golf	-10.8688
1895	-10.8688
wôro	-10.8688
▁Thra	-10.8688
▁Adamadé	-10.8688
▁rachis	-10.8688
▁sourafén	-10.8688
40)	-10.8688
irayèli	-10.8688
▁Mariana	-10.8688
▁dessin	-10.8688
▁Civil	-10.8688
▁Donkili	-10.8688
resident	-10.8688
uddh	-10.8688
▁Darwin	-10.8688
▁53	-10.8688
▁navigat	-10.8688
▁koutourou	-10.8688
▁fleili	-10.8688
▁Liby	-10.8689
Penny	-10.8689
▁dorotoro	-10.8689
ntigè	-10.8689
AP	-10.8689
▁guvèrènè	-10.8689
▁Estoni	-10.8689
▁fiyê	-10.8689
lescope	-10.8689
▁Gordon	-10.8689
▁pankurun	-10.8689
omissèri	-10.8689
▁kounakolon	-10.8689
▁gnalagbè	-10.8689
▁tômaséré	-10.8689
▁federal	-10.8689
▁Brezil	-10.8689
▁GPS	-10.8689
▁pasaz	-10.8689
▁fɔlɔfɔlɔ	-10.8689
▁lonandjiguisso	-10.8689
rikolognanagbè	-10.8689
▁Versa	-10.8689
▁Portugai	-10.8689
▁Yira	-10.8689
▁jagokèyôrô	-10.8689
▁jensen	-10.8689
TB	-10.8689
▁Pologne	-10.8689
▁bouroudjou	-10.8689
▁soutara	-10.8689
▁balɔntan	-10.8689
▁piano	-10.8689
▁Yei	-10.869
▁yôrôdôla	-10.869
▁Jerry	-10.869
▁Danius	-10.869
▁manifesta	-10.869
▁kêrêfê	-10.869
▁gneinbila	-10.869
▁côgôya	-10.869
▁Amsterdam	-10.869
▁Angola	-10.869
2002)	-10.869
▁poritab	-10.869
▁djarasisi	-10.869
nogobo	-10.869
▁lukɔnɔ	-10.869
▁system	-10.869
▁zɔr	-10.869
▁Sintra	-10.869
tralopit	-10.869
ugby	-10.869
▁djènsè	-10.8691
gbê	-10.8691
gwêlê	-10.8691
▁nafolodilan	-10.8691
▁polici	-10.8691
▁affair	-10.8691
▁scientifiki	-10.8691
rudju	-10.8691
SW	-10.8691
tchegi	-10.8691
▁kôsségui	-10.8691
chama	-10.8691
▁tchegnouman	-10.8691
▁Glassikourou	-10.8691
▁télévision	-10.8691
▁militèri	-10.8691
▁kékou	-10.8691
EC	-10.8691
▁labôlisira	-10.8691
nkutun	-10.8691
▁kokèta	-10.8691
▁sariyasun	-10.8692
▁48	-10.8692
▁sisè	-10.8692
▁gongon	-10.8692
▁serikô	-10.8692
▁Egypt	-10.8692
▁Stephen	-10.8692
▁djagboya	-10.8692
▁Emm	-10.8692
▁kosôn	-10.8692
▁Ordinatèr	-10.8692
▁Inc	-10.8692
▁Sabou	-10.8692
▁1960	-10.8692
▁banankisè	-10.8693
▁Scott	-10.8693
▁Aires	-10.8693
▁lannaya	-10.8693
▁Viet	-10.8693
djow	-10.8693
▁Chase	-10.8693
▁tourist	-10.8693
▁gaari	-10.8693
▁hum	-10.8693
AS	-10.8694
▁dayɛlɛ	-10.8694
▁fanfèlala	-10.8694
▁dôrôtôrôso	-10.8694
▁gboro	-10.8694
▁téléfôn	-10.8694
▁Galasi	-10.8694
tham	-10.8694
▁jagabɔ	-10.8695
▁hakangnan	-10.8695
▁passipor	-10.8695
▁connon	-10.8695
ônabila	-10.8695
eline	-10.8695
▁demessen	-10.8695
▁Minisr	-10.8695
▁Tulon	-10.8695
▁kilara	-10.8695
poulo	-10.8695
Alasika	-10.8695
▁kogodougou	-10.8695
▁durisi	-10.8696
▁kossobe	-10.8696
côssim	-10.8696
▁kitabu	-10.8696
gboks	-10.8696
▁Samara	-10.8696
▁gouvèrinè	-10.8696
bêrêma	-10.8696
▁gnaminè	-10.8696
▁kônondoh	-10.8696
gbènè	-10.8696
nistri	-10.8696
umagnongonya	-10.8697
▁sereya	-10.8697
▁sekoyira	-10.8697
▁Antar	-10.8697
▁Kèmèsi	-10.8697
▁Béré	-10.8698
▁fasodén	-10.8698
▁kèlèkèbolo	-10.8698
lognanag	-10.8698
▁gbèssi	-10.8698
▁nèèma	-10.8698
▁tôgôssèbè	-10.8699
▁gnigui	-10.8699
▁Dje	-10.8699
ciation	-10.8699
uilacé	-10.8699
▁Koungo	-10.8699
▁flɛ	-10.8699
ienw	-10.8699
▁chouhou	-10.8699
▁Japonais	-10.8699
▁Ell	-10.87
vɛl	-10.87
ôssôbè	-10.87
tiguê	-10.87
▁galax	-10.87
▁Antartic	-10.87
▁Train	-10.8701
▁amino	-10.8701
▁tchôgô	-10.8701
▁fiti	-10.8701
▁sèbe	-10.8701
▁Jakar	-10.8701
▁ɲɛfɛ	-10.8702
▁latimi	-10.8702
▁Djona	-10.8702
▁chinoi	-10.8702
▁dantige	-10.8702
ffic	-10.8702
enogonya	-10.8702
▁tchignè	-10.8703
▁Nôgô	-10.8703
▁sorobanin	-10.8703
▁Musa	-10.8703
▁Leon	-10.8704
▁carbone	-10.8704
▁Floride	-10.8704
▁dorgor	-10.8704
atural	-10.8704
▁lamiri	-10.8704
▁woromani	-10.8704
▁soukaro	-10.8704
▁Farikolo	-10.8704
minèw	-10.8704
▁jô	-10.8704
▁exp	-10.8705
▁Tchan	-10.8705
▁kêlêbolo	-10.8705
▁Lamini	-10.8705
▁angle	-10.8705
▁Satel	-10.8705
▁abènan	-10.8706
▁Espagnol	-10.8706
▁nyès	-10.8706
▁Grant	-10.8706
▁siriwa	-10.8706
▁lassinan	-10.8706
jong	-10.8707
jabrani	-10.8707
▁siguinibè	-10.8707
dansi	-10.8708
▁Mald	-10.8708
tigue	-10.8708
▁Nei	-10.8708
fiye	-10.8709
other	-10.8709
tagne	-10.8709
macher	-10.8709
taliyèn	-10.8709
▁Daga	-10.871
▁Lagnini	-10.871
▁jikuru	-10.871
▁dumunikɛ	-10.871
▁kèwalé	-10.871
▁Aut	-10.871
▁ladôn	-10.8711
▁Diamana	-10.8711
▁gnanadjè	-10.8712
▁ordinatèr	-10.8712
▁lôdaw	-10.8712
▁dogohya	-10.8713
ède	-10.8713
▁Galil	-10.8713
▁bangu	-10.8714
▁Italie	-10.8714
sɔ	-10.8714
jah	-10.8715
▁fourakè	-10.8715
sene	-10.8715
▁KO	-10.8715
▁indépend	-10.8715
▁ingenie	-10.8715
▁djôssini	-10.8715
▁Santor	-10.8716
▁atomou	-10.8716
▁ambe	-10.8716
dru	-10.8716
▁terisira	-10.8717
▁Yé	-10.8718
▁35	-10.8718
banan	-10.8718
▁kèrèkèdén	-10.8719
▁Jago	-10.8719
▁feré	-10.8719
▁Khan	-10.8719
▁donkiri	-10.872
▁Sebe	-10.872
▁Simpson	-10.872
▁Squa	-10.872
▁220	-10.872
▁AOL	-10.872
▁sôgôsôgô	-10.872
▁virusi	-10.872
▁Arman	-10.872
▁kodjugu	-10.872
▁sup	-10.8721
alansoba	-10.8721
▁kachia	-10.8721
▁hôrôn	-10.8721
▁compagni	-10.8721
▁400	-10.8721
▁tumandô	-10.8721
▁gouvérénéman	-10.8722
▁djikankourouni	-10.8722
▁Virgini	-10.8722
▁mese	-10.8722
▁Lam	-10.8722
▁gnongô	-10.8722
▁lonbɛ	-10.8723
▁siècle	-10.8724
▁tomon	-10.8724
▁Argentine	-10.8724
▁Europe	-10.8724
▁figne	-10.8724
▁dèssè	-10.8724
▁Nyira	-10.8724
▁faragwèla	-10.8724
▁dayelela	-10.8724
▁warigbè	-10.8724
▁kabakoman	-10.8725
▁dawoula	-10.8725
ex	-10.8725
tinti	-10.8725
▁lasourou	-10.8725
▁Cad	-10.8726
▁makèya	-10.8726
graphi	-10.8726
▁noro	-10.8727
▁Alibi	-10.8727
▁GP	-10.8727
ubɛn	-10.8727
▁dowere	-10.8727
▁saranna	-10.8728
▁taganman	-10.8729
▁kisseiya	-10.8729
▁kunkelen	-10.8729
▁(9	-10.8729
▁sigiyoro	-10.873
▁djira	-10.873
▁dakègn	-10.873
chest	-10.873
▁fâ	-10.873
▁Form	-10.873
▁fagua	-10.8731
hariya	-10.8731
mogoya	-10.8732
▁sounôg	-10.8732
▁Sientifikou	-10.8732
▁falén	-10.8733
toru	-10.8733
▁II	-10.8733
▁Archi	-10.8733
ltur	-10.8734
▁kouday	-10.8734
▁sɛbɛrikɛ	-10.8735
▁gnayira	-10.8735
▁arabalon	-10.8735
vèri	-10.8735
▁Mc	-10.8736
▁Cabo	-10.8737
▁farikolo	-10.8737
▁kurakura	-10.8737
▁tchema	-10.8738
▁sinɔgɔra	-10.8738
800	-10.8739
▁Foto	-10.874
▁Misira	-10.874
▁sourô	-10.874
teroun	-10.8741
▁kognagnini	-10.8741
èlèya	-10.8742
togo	-10.8742
▁kambe	-10.8742
halaki	-10.8743
▁djamanandé	-10.8743
▁turu	-10.8743
▁kulé	-10.8743
ngile	-10.8743
▁civili	-10.8744
▁centi	-10.8744
▁dagnè	-10.8745
ariyalatagama	-10.8745
torow	-10.8746
ogonna	-10.8746
sanga	-10.8746
▁fatchè	-10.8747
▁maminè	-10.8747
▁gnassi	-10.8747
▁faragbè	-10.8748
▁tilébé	-10.8748
▁Wil	-10.8749
▁tôgo	-10.875
▁lafasabaga	-10.875
60	-10.8751
sabati	-10.8751
wang	-10.8751
▁maari	-10.8752
▁sébagaya	-10.8752
ethe	-10.8752
▁déé	-10.8753
▁ero	-10.8753
nsec	-10.8754
▁Les	-10.8754
▁Siradi	-10.8755
▁kɛnɛma	-10.8755
▁rene	-10.8755
▁kôrôfô	-10.8756
▁madjigi	-10.8756
rez	-10.8756
▁dôrôtôrô	-10.8757
▁Boo	-10.8757
tabul	-10.8757
▁koding	-10.8758
▁falenfe	-10.8758
▁Wèrè	-10.8758
▁Christi	-10.8759
▁Sougou	-10.8759
jagaro	-10.8759
mal	-10.876
▁wuléma	-10.8761
▁Djaa	-10.8761
▁ordinateri	-10.8761
▁Sing	-10.8762
touman	-10.8762
▁indep	-10.8762
▁espagnôli	-10.8763
▁tchayara	-10.8763
▁éti	-10.8764
▁fassa	-10.8764
▁corona	-10.8764
kegn	-10.8765
▁Pale	-10.8766
▁kallo	-10.8766
ilétèri	-10.8766
▁30	-10.8767
▁wolofla	-10.8767
simi	-10.8768
▁kèlèkèdén	-10.8768
▁Baltic	-10.8768
lamini	-10.8768
▁wil	-10.8768
▁kononton	-10.877
▁patin	-10.877
▁bènb	-10.8772
▁bognin	-10.8772
▁samiya	-10.8772
▁kônnôn	-10.8773
▁sendon	-10.8774
▁bolisira	-10.8774
fangan	-10.8775
▁lasagoli	-10.8775
▁massalabol	-10.8777
▁lafignè	-10.8777
▁borikèla	-10.8777
▁mandiminan	-10.8778
▁Tolon	-10.8778
▁Lag	-10.8778
chaman	-10.8778
▁gnogonna	-10.8778
▁Baarak	-10.878
pusi	-10.8781
▁torohn	-10.8781
▁shu	-10.8782
▁disik	-10.8782
cus	-10.8784
▁tchiein	-10.8785
▁konondô	-10.8785
▁frontier	-10.8787
▁kogoh	-10.8787
▁Eg	-10.8787
▁Old	-10.8788
ouvèrènéman	-10.8788
▁counou	-10.8788
cher	-10.8788
▁tôwu	-10.8789
▁Tama	-10.8789
▁dantiguèli	-10.879
▁gbinli	-10.879
▁djikourou	-10.8791
▁boud	-10.8791
nandjiguiyôrô	-10.8791
▁wuli	-10.8791
▁bôchi	-10.8792
▁kônônton	-10.8793
exi	-10.8793
▁Harv	-10.8794
▁pôsi	-10.8795
▁matôgô	-10.8795
npo	-10.8796
férikorognanagbè	-10.8797
▁Dav	-10.8798
▁Irak	-10.8799
tomati	-10.8799
▁tôrôya	-10.88
▁agen	-10.8801
▁Iwa	-10.8802
dindin	-10.8802
▁Peter	-10.8802
▁sɔgɔ	-10.8804
▁lôssa	-10.8805
▁gnanfe	-10.8805
1981	-10.8806
▁Ayéssé	-10.8806
▁hoteli	-10.8807
▁manogo	-10.8807
▁tlo	-10.8807
▁Lonni	-10.8807
▁gbèman	-10.8808
▁fôgnon	-10.8808
▁CO	-10.8809
▁baakè	-10.8809
▁Anta	-10.881
ssèbè	-10.8811
▁tangaman	-10.8811
jing	-10.8812
koson	-10.8813
▁midi	-10.8814
▁Sikh	-10.8814
▁lôniyara	-10.8814
▁sokônôn	-10.8815
▁By	-10.8815
▁gbèlèman	-10.8815
ATA	-10.8815
VI	-10.8816
▁bôlô	-10.8816
▁Mit	-10.8816
▁fèguè	-10.8817
kogoman	-10.8817
ouvè	-10.8818
▁Nou	-10.8818
eneti	-10.8819
than	-10.8819
▁mabo	-10.882
▁djéni	-10.882
▁nouman	-10.882
▁sawa	-10.8821
▁lagamou	-10.8821
tina	-10.8826
Panama	-10.8827
raib	-10.8827
▁fofo	-10.8827
▁My	-10.8827
▁Madam	-10.8829
arm	-10.883
▁Triceratop	-10.883
▁Gnongon	-10.8831
asub	-10.8832
▁Il	-10.8833
rfin	-10.8837
▁lalira	-10.8839
town	-10.8841
dɔn	-10.8841
issê	-10.8842
▁ubè	-10.8843
▁égli	-10.8845
▁wula	-10.8845
▁boloci	-10.8846
▁alasé	-10.8847
tball	-10.8849
atélit	-10.885
iguei	-10.885
ek	-10.8851
▁toumando	-10.8851
▁Djara	-10.8851
▁plan	-10.8853
kogo	-10.8854
▁kibaroyaw	-10.8855
▁Kh	-10.8856
suma	-10.8858
▁massiri	-10.8858
ôngô	-10.8858
borow	-10.8858
▁Woul	-10.8862
▁yeremani	-10.8862
▁bagarada	-10.8862
▁barakera	-10.8864
▁Bèn	-10.8865
▁djetigui	-10.8865
ôgôla	-10.8867
▁labén	-10.8868
▁katinmin	-10.887
▁sosow	-10.887
gnanman	-10.8871
▁Mer	-10.8871
55	-10.8872
▁tchogodi	-10.8873
wêrê	-10.8873
▁glas	-10.8874
▁Oce	-10.8876
▁Alex	-10.8876
▁gwanni	-10.8879
▁kouo	-10.888
ssegui	-10.8883
▁Italien	-10.889
▁juguman	-10.8891
chaisi	-10.8892
▁Aleman	-10.8893
▁porogaramou	-10.8894
▁ladji	-10.8895
▁Kounafo	-10.8896
▁dogoman	-10.8896
2006	-10.8897
viôn	-10.8898
ndo	-10.8898
▁bôssi	-10.89
▁Gouè	-10.8901
unigna	-10.8903
chôkô	-10.8903
▁Film	-10.8903
▁nafarasôr	-10.8904
Bi	-10.8906
▁baarada	-10.8907
▁balôn	-10.8907
▁jɛni	-10.8908
kôrôta	-10.8909
▁chimi	-10.8911
▁Sika	-10.8912
▁plane	-10.8912
▁snowboardi	-10.8914
▁senaya	-10.8916
▁yiriga	-10.8918
ngili	-10.8918
▁sabatini	-10.8919
▁Djaabi	-10.8919
▁sɛbɛri	-10.892
▁iner	-10.8921
tchèman	-10.8921
▁Dona	-10.8923
ccidan	-10.8923
sirila	-10.8925
gent	-10.8925
▁danbé	-10.8926
▁Yel	-10.8929
▁suruni	-10.8932
▁massaba	-10.8932
riwa	-10.8932
▁dɔnkilila	-10.8933
▁benni	-10.8937
▁kalande	-10.8937
tchogola	-10.8937
were	-10.8939
▁daro	-10.8939
rias	-10.8942
▁Pér	-10.8947
thè	-10.8947
1994	-10.8948
▁worodougoula	-10.8949
géni	-10.8953
pite	-10.8953
▁sariyakan	-10.8955
tali	-10.896
-1	-10.8965
berg	-10.8966
ore	-10.8967
▁yafa	-10.8968
▁Ott	-10.8968
eolog	-10.8969
richi	-10.8972
▁sooboli	-10.8972
▁sognani	-10.8973
▁diili	-10.8973
ouka	-10.8978
nombrou	-10.8979
ndè	-10.8979
▁Nama	-10.898
▁Fin	-10.8984
▁ladjen	-10.8984
▁alah	-10.8984
▁yôrôlô	-10.8985
▁bibl	-10.8986
▁Zu	-10.8986
joguidaw	-10.8994
temat	-10.8995
▁nasson	-10.8996
oroba	-10.8998
▁labinli	-10.9
onomi	-10.9
▁Yu	-10.9003
fognon	-10.9005
▁kɛnɛya	-10.9005
▁filan	-10.9006
natèri	-10.9007
▁oliv	-10.9007
▁bèguè	-10.9007
▁alassé	-10.9008
▁djanga	-10.9008
▁tha	-10.9008
▁datugula	-10.901
00.	-10.9013
Wales	-10.9014
▁Massaba	-10.9015
▁kassara	-10.9017
▁lab	-10.9019
▁massatch	-10.9019
Sissan	-10.902
kônôni	-10.902
▁dogoya	-10.9021
▁Blo	-10.9021
▁yèrèkè	-10.9026
car	-10.9026
▁toroh	-10.9027
gnili	-10.9027
ugô	-10.9031
▁Dani	-10.9032
charge	-10.9033
fêla	-10.9036
aut	-10.9037
▁Tagaman	-10.9038
▁Az	-10.9038
kata	-10.9038
scop	-10.9039
▁fɛɛr	-10.9042
cs	-10.9043
minɛ	-10.9044
▁marafé	-10.9044
▁èrè	-10.9045
▁tangali	-10.9046
▁hèr	-10.9046
▁souko	-10.9048
▁ôla	-10.905
▁tolonkè	-10.9053
▁obe	-10.9053
▁filimoun	-10.9055
▁votela	-10.9061
ahiri	-10.9065
▁tagasira	-10.907
▁ouye	-10.9073
founté	-10.9074
deri	-10.9076
▁kassodé	-10.9077
▁fôrô	-10.9077
▁lôh	-10.908
▁lanibɛ	-10.9081
▁jani	-10.9083
▁fèè	-10.9085
▁mèni	-10.9086
▁cia	-10.9087
selli	-10.9091
▁Ly	-10.9095
▁Nit	-10.9096
▁Har	-10.9098
cɛn	-10.9099
▁sigida	-10.9101
ale	-10.9107
▁Kah	-10.9107
▁Siki	-10.9108
tagala	-10.9113
▁sinangna	-10.9113
yôrôlô	-10.9119
▁sɛbɛra	-10.9121
▁panp	-10.9125
▁tèmènin	-10.913
gnégui	-10.9131
▁kômi	-10.9133
▁mourou	-10.9135
▁Fasod	-10.9136
▁danta	-10.9139
▁labôli	-10.9141
▁farabass	-10.9142
▁datougoula	-10.9146
▁gnoumaw	-10.915
bein	-10.915
▁dôhu	-10.9153
▁Kolo	-10.9154
▁Ar	-10.9154
▁ɲɔgɔnw	-10.9155
▁yɔrɔni	-10.9158
▁ec	-10.9158
▁minɛna	-10.916
hani	-10.9162
ayat	-10.9164
akistan	-10.9165
▁avia	-10.9166
▁votéla	-10.9169
▁Bow	-10.917
▁djonfo	-10.917
Ni	-10.9171
▁Rea	-10.9173
▁môn	-10.9175
upu	-10.9178
▁Nic	-10.9179
lomi	-10.9179
nandi	-10.9186
▁Guy	-10.9188
▁alle	-10.9189
▁sanfei	-10.919
▁198	-10.9192
oper	-10.9194
▁Phno	-10.9194
▁diplom	-10.9195
▁gnamini	-10.92
haya	-10.92
▁bissi	-10.9202
▁Non	-10.9202
télé	-10.9203
▁rol	-10.9204
▁mitou	-10.9204
▁mairi	-10.9207
▁bolora	-10.9207
▁Fis	-10.9207
▁livr	-10.9209
▁hakilina	-10.9209
siyɛn	-10.9214
▁sôsôli	-10.9215
las	-10.9219
ssiguini	-10.9224
oxi	-10.9228
nic	-10.9235
▁organi	-10.9238
▁labɔ	-10.9242
mugu	-10.9244
▁Opér	-10.9249
banin	-10.9251
▁bagabaga	-10.9251
jani	-10.9253
▁but	-10.9254
▁logofi	-10.926
▁yɛn	-10.926
elluli	-10.9261
▁Nadi	-10.9261
awou	-10.9262
▁Gnini	-10.9264
▁djanman	-10.9267
▁Cal	-10.9272
siti	-10.9275
▁Ter	-10.928
rés	-10.928
▁fag	-10.9283
▁oyo	-10.9283
balo	-10.9283
zani	-10.9288
▁forobaya	-10.9288
▁fleur	-10.929
▁kèrèni	-10.929
kɔ	-10.9291
bèri	-10.9291
▁Robert	-10.9294
ound	-10.9297
nɔ	-10.93
▁gnanta	-10.93
▁sigɛna	-10.9301
jaminidjan	-10.9301
▁giri	-10.9302
▁Adamande	-10.9302
▁djah	-10.9313
▁namou	-10.9317
lèw	-10.9324
isitiri	-10.9331
▁marasso	-10.9333
▁siguinin	-10.9335
▁Stand	-10.9338
▁com	-10.9339
▁sebeni	-10.9339
▁jala	-10.934
▁poroz	-10.934
▁toumamina	-10.9341
▁milimètèr	-10.9346
▁sôgôma	-10.9346
fêlala	-10.9352
edi	-10.9354
▁Bon	-10.9355
gnoumani	-10.9359
▁tchira	-10.9361
tôya	-10.9362
likalo	-10.9366
▁walé	-10.9369
▁Dut	-10.9381
khamu	-10.9382
pɔr	-10.9383
▁yèlèmanla	-10.9384
▁Tutan	-10.9386
▁abada	-10.9387
▁nron	-10.9391
tchogoya	-10.9393
▁Artic	-10.941
▁janya	-10.9414
▁Nord	-10.9418
allu	-10.9421
anyon	-10.9423
▁gninin	-10.9425
umu	-10.9427
▁kumande	-10.943
▁Bina	-10.9433
▁bere	-10.9437
▁Bôn	-10.9439
▁tougouli	-10.9441
▁Tch	-10.9444
▁yèrèmani	-10.9447
gongo	-10.945
nfon	-10.9453
▁gouni	-10.9455
▁sogoman	-10.9466
trier	-10.9471
▁yoromi	-10.9473
mmin	-10.9477
▁amerikin	-10.9487
▁Ber	-10.9499
▁Stra	-10.9501
iberal	-10.9502
yourougou	-10.9505
cô	-10.9508
▁Mans	-10.9508
▁Dougouk	-10.9512
▁konnonan	-10.9513
kunbèn	-10.9513
▁med	-10.9516
▁Range	-10.9523
▁Mario	-10.9525
basen	-10.9534
cian	-10.9537
▁enk	-10.9552
▁dagani	-10.9553
manyôrô	-10.9557
kôlis	-10.956
▁gnanam	-10.9562
lade	-10.9564
▁diagn	-10.9571
rdi	-10.9591
▁Fôl	-10.9594
▁centr	-10.9594
▁tumanan	-10.9612
▁bri	-10.9615
▁Heb	-10.9616
▁bonna	-10.9625
ite	-10.9627
▁dako	-10.9627
▁Baris	-10.963
cock	-10.9636
▁miman	-10.9647
veri	-10.9649
mph	-10.9652
djanva	-10.9657
vila	-10.9662
▁depi	-10.9666
latiguè	-10.9668
▁Pra	-10.9674
▁kuna	-10.9674
gnongonw	-10.9676
▁deri	-10.9682
▁vit	-10.9683
▁sɛz	-10.9685
▁flèni	-10.969
tuka	-10.9694
▁gnongonna	-10.9696
▁ochi	-10.9697
▁gnôg	-10.9701
▁inaf	-10.9701
▁kôh	-10.972
ɔtɔ	-10.9723
▁koumb	-10.9726
68	-10.9728
▁yin	-10.9746
▁Ina	-10.975
ômini	-10.9756
▁ossi	-10.9756
eth	-10.976
ouni	-10.9764
unda	-10.9764
isse	-10.9772
ble	-10.9779
▁marara	-10.9784
▁Str	-10.9785
▁gnade	-10.9789
▁Jug	-10.9796
▁kôrôtani	-10.98
▁bagarakè	-10.9802
▁Lan	-10.9809
▁war	-10.9811
bôra	-10.9814
mikan	-10.9825
djamanakountigui	-10.9837
▁jul	-10.9849
▁comit	-10.985
▁ladoni	-10.9852
▁kèrèkèrè	-10.9861
kourouni	-10.9862
ounassigui	-10.9878
sina	-10.9879
▁lassoro	-10.9893
▁péré	-10.9903
▁Arisit	-10.9903
▁djamaan	-10.9903
pont	-10.9906
lôla	-10.992
▁barakê	-10.9921
▁domuna	-10.9921
▁tagamara	-10.9922
bèrè	-10.9923
▁amand	-10.9927
wé	-10.9927
▁kôrôman	-10.9937
▁djoss	-10.9942
▁Barake	-10.9948
▁teriw	-10.9951
▁bagaman	-10.9955
▁jamanaden	-10.9956
iguein	-10.9959
▁bèkè	-10.9963
▁anidô	-10.9967
lassikourou	-10.9972
▁ladaw	-10.9975
atiw	-10.9979
rigo	-10.998
▁Dr	-10.998
anage	-10.9982
▁sog	-10.9982
▁too	-10.9983
▁faam	-10.999
négati	-10.9992
▁sita	-10.9994
▁120	-10.9996
tif	-10.9996
▁obei	-10.9996
lenw	-10.9996
laseguisèbè	-10.9997
▁bogn	-11.0004
fon	-11.0009
▁Kata	-11.001
▁Bali	-11.0012
hman	-11.0028
▁pra	-11.0045
▁ladow	-11.0054
cie	-11.0055
roukou	-11.0055
▁Ital	-11.0059
▁began	-11.0065
▁Sie	-11.0066
▁atomi	-11.0082
▁karama	-11.0089
makoun	-11.0096
rose	-11.01
▁hamina	-11.0108
▁Nin	-11.0108
nfe	-11.0121
▁dougounan	-11.0139
talo	-11.0154
ssida	-11.0159
els	-11.0174
pitè	-11.0174
ong	-11.0183
▁Ope	-11.0183
▁soun	-11.0188
oukala	-11.0193
nênê	-11.0194
▁benna	-11.0206
létèri	-11.0213
▁ataga	-11.0214
▁eco	-11.0222
nèguè	-11.0222
jén	-11.0244
▁Ama	-11.0248
lola	-11.0253
▁gnig	-11.0253
eni	-11.0265
vre	-11.027
▁Bab	-11.0284
istan	-11.0286
▁Dounia	-11.0292
▁tur	-11.0297
reng	-11.0302
▁Gor	-11.032
ivuru	-11.0335
jalatigi	-11.0337
Kham	-11.0338
èmètèrè	-11.034
▁Republik	-11.0345
▁bɛrɛ	-11.0356
▁Sha	-11.0365
umou	-11.0371
missen	-11.0377
▁mosasaur	-11.0385
nain	-11.0386
▁kokôrô	-11.0389
▁gwɛ	-11.0392
▁Sè	-11.0406
ɛmɛ	-11.0406
kɛbaga	-11.0407
▁Int	-11.0408
kôta	-11.0418
way	-11.043
▁park	-11.0439
ési	-11.0441
emb	-11.0444
▁Whi	-11.0451
▁cɛni	-11.0452
tèr	-11.0453
▁nayé	-11.0455
agwè	-11.0456
▁kuruka	-11.046
likèla	-11.0462
▁Indu	-11.047
uzé	-11.047
mɔgɔ	-11.0473
▁gnina	-11.0487
î	-11.0487
ggi	-11.05
▁fôka	-11.0505
▁tounouna	-11.052
nako	-11.0526
▁cho	-11.0528
▁Mad	-11.0533
elling	-11.0534
dou	-11.0546
▁Wal	-11.0546
tha	-11.0548
soumou	-11.057
gnèguè	-11.0576
rge	-11.0584
▁ɲɔngɔ	-11.059
▁ver	-11.059
▁tc	-11.0594
▁nân	-11.0595
rɔl	-11.0598
▁Alb	-11.0599
▁fiy	-11.0604
▁dana	-11.0618
yila	-11.0619
▁col	-11.062
yèlè	-11.0623
kɔrɔ	-11.0623
▁gnô	-11.0628
▁kato	-11.0632
tɛmɛ	-11.0633
▁Dist	-11.0635
bugu	-11.0639
▁yôrôyé	-11.0655
▁Vot	-11.0665
ers	-11.0666
▁kɛta	-11.0667
anistan	-11.0669
▁Tiri	-11.0674
▁prog	-11.068
mogô	-11.0682
▁Pame	-11.0685
èsi	-11.0687
▁zozɛf	-11.0687
▁sigɛsigɛ	-11.0687
▁klancɛ	-11.0687
▁kuturu	-11.0687
▁mesiye	-11.0687
lgérie	-11.0687
▁artikl	-11.0688
vélo	-11.069
▁gobele	-11.069
sigilan	-11.069
▁weele	-11.0691
▁gêlê	-11.0691
élen	-11.0691
▁bretɔn	-11.0691
▁zapon	-11.0691
▁ŋa	-11.0692
▁grip	-11.0692
▁jurumu	-11.0692
▁cɛmancɛ	-11.0693
▁kokɛta	-11.0693
▁mɔnbili	-11.0694
▁ɲɛnɛ	-11.0694
amankè	-11.0694
▁dɔnkɛ	-11.0696
▁wuru	-11.0696
▁duminikɛ	-11.0697
▁lakisi	-11.0697
▁sɛnɛkɛla	-11.0697
▁andre	-11.07
labènin	-11.07
minnin	-11.0702
▁franci	-11.0703
guru	-11.0703
▁dɔwɛrɛ	-11.0703
sbur	-11.0703
niyara	-11.0704
▁per	-11.0705
▁djinkoulou	-11.0708
▁yɛrɛsɔrɔ	-11.0709
▁simɔn	-11.0709
▁dôtôrô	-11.071
▁degun	-11.0711
régi	-11.0711
chaya	-11.0713
lɛs	-11.0714
▁tulokɛ	-11.0715
▁bisou	-11.0715
rnar	-11.0716
▁nankɔ	-11.0716
▁barakɛyɔrɔ	-11.0717
▁thé	-11.0722
▁faamu	-11.0724
▁cogoyasi	-11.0726
ɲɔl	-11.0726
▁kɔrɔcɛ	-11.0726
▁tumabɛ	-11.0727
▁ɲigi	-11.0727
▁gere	-11.0728
▁améric	-11.0729
▁barka	-11.0729
▁gudo	-11.0731
▁gwɛlɛman	-11.0733
djiguiya	-11.0734
▁funu	-11.0736
graf	-11.0736
▁prese	-11.0741
▁minninn	-11.0745
▁1.	-11.0746
ringi	-11.0746
pèrin	-11.0746
▁sawu	-11.0748
▁yéll	-11.0749
▁pantal	-11.075
ɔngɔn	-11.075
èrèw	-11.0751
▁sran	-11.0756
▁gama	-11.0758
▁yɔrɔjan	-11.076
▁Bot	-11.0769
sun	-11.077
▁wasa	-11.0771
ten	-11.0773
scan	-11.0773
epu	-11.0776
▁table	-11.0776
foli	-11.078
▁marko	-11.0781
gboya	-11.0781
▁kur	-11.0791
dron	-11.0794
▁Amerikin	-11.0794
fɔn	-11.0801
AF	-11.081
ssèni	-11.0812
▁yèna	-11.0815
▁roman	-11.082
▁nissôd	-11.0824
▁kalanbon	-11.0824
▁il	-11.0826
▁prɛ	-11.0829
▁bule	-11.083
▁jabili	-11.0832
▁Ari	-11.0833
tave	-11.0834
▁gnafè	-11.0837
▁por	-11.0843
▁sɔgɔmada	-11.0843
▁yanfe	-11.0847
har	-11.0847
▁gèlèya	-11.085
▁feyi	-11.0851
▁roma	-11.0853
▁kônondo	-11.0853
list	-11.086
llemagne	-11.0865
▁avril	-11.0875
▁feen	-11.0879
yirala	-11.0884
▁founte	-11.0894
gagnéla	-11.0899
uruku	-11.0911
▁Faragw	-11.0921
▁plas	-11.0927
▁dugulo	-11.0929
kôrôw	-11.0946
▁jogo	-11.0947
▁kabla	-11.0949
▁sobè	-11.0952
▁peru	-11.0957
wari	-11.0966
▁laminila	-11.0976
int	-11.0976
▁kabakoya	-11.0983
▁tiɲɛna	-11.0986
baliw	-11.0986
▁ponp	-11.0988
IR	-11.0995
opin	-11.1007
▁latigɛ	-11.101
ksi	-11.1012
▁mail	-11.1014
▁olo	-11.1025
kakè	-11.1031
▁eh	-11.1045
ɛndi	-11.105
lgar	-11.1052
▁marc	-11.1053
ugula	-11.1056
reni	-11.1062
kouna	-11.1062
▁djif	-11.1063
▁sab	-11.1074
bagatɔ	-11.108
▁ɲɛgɛ	-11.1085
▁cata	-11.1087
em	-11.1093
▁bɔsi	-11.1096
▁banba	-11.1098
▁mɔgɔsi	-11.1103
▁tapi	-11.1109
ning	-11.1121
edy	-11.1122
▁mɔgɔmin	-11.1124
ene	-11.1124
ise	-11.1128
▁zak	-11.1128
▁woo	-11.113
02	-11.1132
kêlahou	-11.1137
rme	-11.114
▁nɔr	-11.1144
bow	-11.1152
vec	-11.1154
stin	-11.1155
▁makogna	-11.1159
yuru	-11.116
nongondan	-11.1167
cks	-11.1171
ètiri	-11.1172
▁mars	-11.1176
uruw	-11.118
▁Baw	-11.119
▁mora	-11.1192
▁nɔrɔ	-11.1196
▁micro	-11.1198
▁sɔ	-11.1204
▁djamanara	-11.1207
▁Wo	-11.1214
cep	-11.1214
▁djaw	-11.1216
tchaiman	-11.1227
bagato	-11.123
▁sɔnni	-11.1236
laf	-11.1237
▁sôssô	-11.1239
▁fènsèn	-11.1239
▁jina	-11.1261
nje	-11.1263
▁sout	-11.1265
boko	-11.1272
▁bɛl	-11.1273
▁galo	-11.1282
gar	-11.1283
èrê	-11.1301
radjosso	-11.1306
▁wis	-11.1308
▁Naz	-11.1312
dr	-11.1315
uper	-11.1321
diyalan	-11.133
▁ther	-11.1335
▁kɔrɔni	-11.134
▁jɔrɔ	-11.1362
eleke	-11.1364
▁fiyè	-11.137
▁ɔnɔn	-11.1372
▁dougna	-11.1388
▁machi	-11.139
▁produ	-11.139
veni	-11.1393
missèni	-11.1401
gamou	-11.1407
kèrèfèyôrô	-11.1407
▁télén	-11.1417
▁mouna	-11.142
tumanan	-11.1421
▁kofôli	-11.1425
nada	-11.144
▁frans	-11.1448
▁filila	-11.1453
▁kelekele	-11.1454
▁pr	-11.1463
oba	-11.1465
nbolila	-11.147
ylo	-11.1472
ɔlɔn	-11.149
om	-11.1509
gnonkan	-11.1514
▁ɲɔ	-11.1517
▁Nag	-11.1527
▁Toumami	-11.1531
minw	-11.1531
inin	-11.1545
▁ôri	-11.1547
ignin	-11.1565
▁kapital	-11.1587
▁piyɛ	-11.1592
yata	-11.1595
▁turk	-11.1598
ink	-11.1603
pol	-11.1615
▁Jud	-11.1629
nɛt	-11.1635
▁genera	-11.1641
▁cra	-11.1643
▁sougna	-11.1655
▁ɲaman	-11.1657
▁banban	-11.166
riel	-11.1662
▁men	-11.1675
likê	-11.1684
inèti	-11.1694
▁jɔ	-11.1695
▁komu	-11.1737
ario	-11.1743
▁tagan	-11.1752
acks	-11.1753
▁daminn	-11.1756
▁gor	-11.1759
nbri	-11.1769
ord	-11.1775
▁janfa	-11.1781
▁yanama	-11.1785
▁bolibaga	-11.1811
▁lamɛn	-11.1816
▁jumana	-11.1826
▁danna	-11.1849
pɔl	-11.1866
gras	-11.1868
▁dende	-11.1886
nugu	-11.1929
domi	-11.1938
ginna	-11.196
gɛri	-11.1963
yato	-11.1982
siɔn	-11.1994
▁Obè	-11.2008
léyé	-11.2022
▁car	-11.2058
uruba	-11.2071
rse	-11.2074
nikɛla	-11.2089
endi	-11.2092
ɛm	-11.2103
▁télévi	-11.2116
abou	-11.2125
yêrêta	-11.2131
eland	-11.2136
rug	-11.2142
▁ob	-11.2143
dɛl	-11.2162
▁sigɛ	-11.2176
etri	-11.218
sanfè	-11.2181
apsul	-11.2182
▁dimini	-11.2184
▁yôrôdo	-11.2186
▁lorans	-11.2196
bit	-11.2203
Cor	-11.2206
IS	-11.2207
olyn	-11.2214
▁yélè	-11.2214
▁Ili	-11.2222
erit	-11.2228
év	-11.224
otro	-11.2254
lanbaga	-11.2263
▁fiè	-11.2265
ongondan	-11.2276
▁wolof	-11.2284
▁madi	-11.2285
▁cla	-11.2289
▁otumana	-11.2296
▁nuk	-11.2297
▁plat	-11.2297
siyɔn	-11.2299
▁mɔbi	-11.2309
diyen	-11.2311
▁magama	-11.2337
▁farini	-11.2344
roduc	-11.2359
▁cente	-11.2362
▁fiyèn	-11.239
vor	-11.2397
lemen	-11.2397
yéta	-11.2403
ékoyira	-11.2405
▁indi	-11.2414
▁doug	-11.2426
pè	-11.243
▁kiu	-11.2434
▁hamin	-11.2438
▁souraf	-11.2442
▁kéléna	-11.2457
▁gboy	-11.2466
▁pon	-11.2478
ônè	-11.2481
▁kounbi	-11.2482
bug	-11.2485
ifi	-11.2495
ork	-11.25
▁Toumamin	-11.2504
klas	-11.2524
▁fènsè	-11.2525
ht	-11.2532
var	-11.2534
oussousouman	-11.2542
kasila	-11.2548
▁Gnongonb	-11.255
eras	-11.2554
gɛrɛ	-11.2555
▁sora	-11.2562
mɔgɔw	-11.2566
keila	-11.2579
muni	-11.2603
▁Mic	-11.2617
remu	-11.2618
▁pom	-11.2628
rry	-11.2654
yagi	-11.2678
▁vers	-11.2681
ôc	-11.2691
tignè	-11.271
rèn	-11.2717
urb	-11.272
▁jeu	-11.2727
▁fɛta	-11.2735
nmini	-11.2736
ɲɔgɔn	-11.2736
▁sigè	-11.2739
▁mɔntr	-11.2747
tamati	-11.2748
fir	-11.2795
Tro	-11.2823
▁del	-11.2845
anto	-11.286
bɔra	-11.2863
▁accid	-11.2867
hara	-11.2872
anbagato	-11.2872
pua	-11.2875
nene	-11.2878
kètchogo	-11.288
lande	-11.2882
tɛl	-11.2892
▁yɛrɛma	-11.2902
▁Avi	-11.2904
zak	-11.2921
▁fl	-11.2931
▁sigɛni	-11.3008
mouso	-11.3012
sôdia	-11.3023
jama	-11.3028
▁sam	-11.3028
▁tum	-11.3035
▁jaama	-11.3037
▁fab	-11.3038
duru	-11.3059
metri	-11.3061
ps	-11.3066
Rio	-11.3066
waz	-11.3075
endem	-11.3096
▁kɔr	-11.3103
rly	-11.3105
fɔlɔ	-11.3106
▁Ferr	-11.3108
▁numér	-11.311
Nata	-11.3118
▁yêrêma	-11.3118
ɲɔngɔn	-11.3121
fitini	-11.3123
▁Caro	-11.3125
ɲanaman	-11.3126
46	-11.3127
tché	-11.3127
mar	-11.3128
gwɛrɛ	-11.3136
yôr	-11.3137
▁Ani	-11.3141
tagabolo	-11.3159
▁jɛ	-11.316
mont	-11.3164
▁Sor	-11.3169
▁jɔr	-11.3174
llah	-11.3177
▁layiri	-11.3177
tephen	-11.318
umanyé	-11.3183
▁gɛr	-11.3183
tler	-11.3184
lro	-11.3184
▁presidan	-11.3187
journal	-11.3187
môgoya	-11.3187
rofesseur	-11.3187
▁alfrɛ	-11.3187
▁dêmê	-11.3187
▁froide	-11.3187
▁isituari	-11.3187
▁nusɔndia	-11.3187
▁dafouroukou	-11.3187
▁dɛnmisɛn	-11.3187
▁hɛkɛ	-11.3187
▁sunguru	-11.3187
▁tumajuma	-11.3187
▁tômô	-11.3187
▁français	-11.3187
▁sigasiga	-11.3187
▁muyun	-11.3187
▁lafiɲɛ	-11.3187
▁peresi	-11.3187
▁bissimila	-11.3187
▁politikikɛla	-11.3187
▁yɔrk	-11.3187
▁madrid	-11.3187
▁yamaroya	-11.3187
▁zeneral	-11.3187
▁histori	-11.3188
▁soundogo	-11.3188
▁testé	-11.3188
▁makaritɔ	-11.3188
▁deminsè	-11.3188
▁nisondia	-11.3188
▁bɔɔra	-11.3188
▁gweman	-11.3188
▁volley	-11.3188
rgie	-11.3188
▁profesi	-11.3188
ristof	-11.3188
▁jɛkulu	-11.3188
▁distri	-11.3188
▁tchogô	-11.3188
▁surasi	-11.3188
éologi	-11.3188
▁wajibi	-11.3189
▁esansi	-11.3189
lisabeth	-11.3189
rkut	-11.3189
▁ɲasin	-11.3189
▁magankan	-11.3189
▁jatiminɛ	-11.319
▁monsieu	-11.319
▁wulafɛ	-11.319
▁prefe	-11.319
▁jɛngɛ	-11.319
▁sôbê	-11.319
▁sègè	-11.319
▁pologne	-11.319
▁ɛsk	-11.319
limpik	-11.319
▁ɛnfɔr	-11.319
eduzi	-11.3191
uguba	-11.3191
▁sapɛl	-11.3191
▁Pat	-11.3192
▁balti	-11.3192
▁howe	-11.3192
▁nɔfɛ	-11.3192
▁lɔndr	-11.3192
▁smith	-11.3192
▁canada	-11.3192
bë	-11.3193
mèna	-11.3193
ritanik	-11.3193
▁médi	-11.3193
▁prokir	-11.3194
▁potie	-11.3194
▁dɔgɔyara	-11.3194
uain	-11.3194
ugandi	-11.3194
▁medail	-11.3195
▁turne	-11.3195
▁essenc	-11.3195
fisie	-11.3195
▁vict	-11.3196
ganisa	-11.3196
quent	-11.3197
▁math	-11.3197
▁ekip	-11.3198
usondiya	-11.3198
hirosi	-11.3199
▁makari	-11.3199
▁alb	-11.32
▁zira	-11.32
chester	-11.32
▁klasi	-11.3201
asting	-11.3201
▁yongo	-11.3201
▁premiye	-11.3202
▁prodik	-11.3203
ón	-11.3203
▁sorasi	-11.3204
▁paul	-11.3204
▁môgo	-11.3205
▁piɛr	-11.3206
voir	-11.3207
▁kunbiri	-11.321
▁sisɛ	-11.3211
▁imprim	-11.3211
▁mufɛn	-11.3212
dro	-11.3213
andinav	-11.3214
▁wilen	-11.3214
▁sɛgɛ	-11.3214
▁warimara	-11.3215
▁trac	-11.3215
▁sanyɛlɛma	-11.3215
▁tchoga	-11.3216
▁kɔnɔnikɛ	-11.3216
▁bouton	-11.3217
cain	-11.3218
▁nalomanya	-11.3219
▁clav	-11.3219
▁kɛmɛfila	-11.3219
▁fifa	-11.322
▁mulu	-11.322
▁onz	-11.3221
▁gelé	-11.3221
yourou	-11.3221
▁kalansɛbɛ	-11.3221
▁duwa	-11.3221
fall	-11.3222
▁justi	-11.3224
nimisa	-11.3225
▁comm	-11.3226
▁hong	-11.3227
▁jamu	-11.3227
▁filɛru	-11.3228
▁styl	-11.3228
▁viɛn	-11.323
▁ɲɛmɔgɔ	-11.323
▁majigini	-11.3233
▁cɛjuguni	-11.3233
▁waribla	-11.3234
rectu	-11.3235
▁operati	-11.3236
▁mɔt	-11.3236
▁devo	-11.3237
▁yananman	-11.3238
▁solisi	-11.3238
▁puɛ	-11.3238
unti	-11.3239
▁muruti	-11.3241
▁jinkul	-11.3242
▁kafisa	-11.3242
▁dollar	-11.3243
▁pil	-11.3244
▁sougo	-11.3245
liban	-11.3249
▁kaburuso	-11.325
▁lɔyɔrɔ	-11.325
kognouman	-11.3254
rizie	-11.3255
▁woule	-11.3255
▁jijani	-11.3256
▁jarabi	-11.3256
ifik	-11.3257
▁hanri	-11.3258
▁command	-11.326
▁babos	-11.3263
teliya	-11.3267
▁zarid	-11.3268
▁Soul	-11.3268
▁suraf	-11.3269
▁bɔyɔrɔ	-11.3271
zamb	-11.3272
therm	-11.3273
tologi	-11.3274
▁cɛɛ	-11.3275
▁kouroussi	-11.3278
▁doumi	-11.3285
▁kuntan	-11.3287
▁bonbon	-11.3288
▁water	-11.329
andr	-11.3295
dogoni	-11.3296
▁Kèmè	-11.3296
urenc	-11.3296
▁melani	-11.3297
▁vikin	-11.3299
▁ziz	-11.3299
tangali	-11.33
▁ɲinina	-11.3301
▁chôkô	-11.3303
efile	-11.3305
▁toumbara	-11.3306
▁jolile	-11.3312
endemik	-11.3314
▁nɛni	-11.3314
lve	-11.3317
▁pisi	-11.3317
kurunb	-11.3318
▁faama	-11.3319
▁jɛnsɛ	-11.3319
▁sub	-11.3319
▁pele	-11.3321
▁kôfé	-11.3324
▁barke	-11.3327
ree	-11.3327
yor	-11.3328
cal	-11.3329
richu	-11.3332
▁albi	-11.3333
zé	-11.3336
▁awɔ	-11.3339
▁drag	-11.334
ôkô	-11.3342
▁jija	-11.3342
▁segɔnd	-11.3346
▁ɔhɔn	-11.3348
▁tehe	-11.3349
ôyôrô	-11.335
▁Faragb	-11.3352
▁bugu	-11.3355
▁py	-11.3361
▁cent	-11.3363
▁karaba	-11.3364
▁prox	-11.3365
▁gbé	-11.3368
eneya	-11.3369
▁nagasi	-11.337
▁gɛlɛyara	-11.337
kɛra	-11.337
lɛm	-11.3373
limani	-11.3373
eira	-11.3379
eva	-11.3379
ssandr	-11.3385
gatiw	-11.3387
othic	-11.3389
▁saramani	-11.3394
▁kanɲi	-11.3397
▁maɲ	-11.3401
▁Bell	-11.3402
▁antoine	-11.3402
▁boɲɛna	-11.3403
resso	-11.3404
ntile	-11.3405
kassi	-11.341
▁sɛk	-11.341
▁blak	-11.3412
êlà	-11.3412
▁ɲɔgɔnye	-11.3413
hristophe	-11.3413
nam	-11.3413
▁mèri	-11.3415
▁gnou	-11.3417
▁dansa	-11.3418
▁busi	-11.3426
▁milliar	-11.3429
▁firans	-11.3429
ôrôdjanyé	-11.3432
▁musu	-11.3436
▁pre	-11.3438
▁nôgômani	-11.3441
▁kɔrɔko	-11.3448
▁seera	-11.3456
▁lamɛna	-11.3457
▁post	-11.3459
▁gard	-11.3462
siɲɛ	-11.3463
the	-11.3466
▁tigɛra	-11.3472
tir	-11.3473
rois	-11.3481
▁flo	-11.3484
▁bangi	-11.3486
gèni	-11.3488
▁bobo	-11.3492
▁cos	-11.3496
fese	-11.3502
yte	-11.3505
jɛ	-11.3515
▁fankele	-11.3519
érie	-11.3519
balima	-11.3519
▁labalo	-11.3521
▁koroba	-11.3522
▁pasi	-11.3524
▁aras	-11.3531
▁Cart	-11.3531
▁jɔsi	-11.3532
bet	-11.3533
risiya	-11.3535
tagabaga	-11.3538
▁ceman	-11.354
rgar	-11.3541
▁gymnasti	-11.3547
▁asun	-11.3553
▁Bran	-11.3558
ivini	-11.3564
fort	-11.3566
flè	-11.3572
kɛri	-11.3573
pon	-11.3576
▁siranna	-11.3586
▁lonbè	-11.3588
sasaurus	-11.3589
ɲɔmɔgɔ	-11.3589
lif	-11.359
hor	-11.3604
▁Bô	-11.3605
▁fefe	-11.3605
ï	-11.3606
▁kolɔnn	-11.3606
▁sirila	-11.3609
▁votel	-11.361
▁card	-11.3611
gori	-11.3613
atre	-11.3613
ssondia	-11.3615
▁martɛ	-11.3616
oukonnon	-11.3622
SU	-11.3625
▁sus	-11.3628
gate	-11.3629
▁waliya	-11.3631
▁balontanla	-11.3645
▁gasi	-11.3647
umérik	-11.3649
siper	-11.365
stad	-11.3657
oungo	-11.3658
▁kɔrɔsili	-11.3662
▁bonkɔnɔ	-11.3666
eselo	-11.3671
▁boɲɛn	-11.3688
▁ninyɔrɔ	-11.369
innin	-11.3698
▁bz	-11.37
▁tchièn	-11.3702
▁janvie	-11.3702
ndul	-11.3708
▁/	-11.371
nafa	-11.3715
04	-11.3717
▁djor	-11.3718
cci	-11.3731
▁kêra	-11.3739
lus	-11.3745
▁balora	-11.375
▁mela	-11.3752
▁doz	-11.3763
▁boute	-11.3764
yip	-11.3766
▁tige	-11.3776
omor	-11.3778
▁zid	-11.3783
segi	-11.3783
94	-11.3786
manfe	-11.3787
▁filim	-11.3798
▁kɔngɔ	-11.3798
julie	-11.3803
kɛyɔrɔ	-11.3803
agara	-11.381
ecep	-11.3815
▁agenc	-11.382
ilama	-11.3827
▁Cam	-11.3834
astuc	-11.3836
▁cen	-11.3837
▁yêlêma	-11.3842
▁Bir	-11.3846
▁kɔrɔman	-11.387
nyini	-11.3883
▁lɔr	-11.3893
chaaman	-11.392
▁hy	-11.3922
lɛt	-11.3922
far	-11.3924
▁sassa	-11.3926
▁gninan	-11.3926
▁dusudi	-11.3932
ato	-11.3936
▁vɛ	-11.3938
▁guli	-11.3953
ɔndial	-11.3956
igiyɔrɔ	-11.3963
▁katala	-11.3975
▁mart	-11.3992
▁pak	-11.3993
▁pɔm	-11.3994
bassi	-11.3996
gal	-11.3997
▁feri	-11.4021
▁layir	-11.4029
▁moh	-11.403
kor	-11.4032
zezi	-11.4045
rth	-11.4052
umuni	-11.4055
▁saam	-11.4058
17	-11.4059
▁indiy	-11.406
jab	-11.4067
▁misè	-11.4074
▁Missi	-11.4076
▁kamana	-11.4076
▁lètè	-11.4077
fonyé	-11.4085
▁farakan	-11.4086
200	-11.409
mond	-11.4098
kub	-11.4111
zene	-11.4123
▁sovi	-11.413
otei	-11.4138
ozo	-11.414
▁diana	-11.4142
kɛlaw	-11.4143
diman	-11.4143
like	-11.4146
▁Kolasegui	-11.4149
▁contr	-11.4162
▁tèmn	-11.4187
▁gonga	-11.4188
tangan	-11.4193
èssi	-11.4194
▁kamansôr	-11.4198
stali	-11.4201
ouroussan	-11.4203
erekèyôrô	-11.4205
gnaga	-11.4208
▁kɔrɔba	-11.4209
▁bogot	-11.4209
▁jata	-11.4213
▁20	-11.4214
arawak	-11.4223
▁gnagb	-11.4224
guinibe	-11.4224
▁olivie	-11.4226
éc	-11.423
ois	-11.4239
▁mba	-11.4239
londo	-11.4248
sein	-11.4253
poz	-11.4262
▁galassi	-11.4268
koroba	-11.4274
êmin	-11.4275
▁monaster	-11.4297
izɛ	-11.4297
foor	-11.4299
▁commun	-11.4302
▁rez	-11.4308
▁fess	-11.4332
▁soba	-11.4332
ufê	-11.4332
èrèkèrèli	-11.436
ande	-11.4367
konnonfé	-11.4376
▁kameleni	-11.4378
▁luwa	-11.4392
sitèmou	-11.4401
kounan	-11.4413
▁cor	-11.4416
segue	-11.4418
▁wagatiyira	-11.4421
mènè	-11.4428
dant	-11.4449
sumana	-11.4452
▁port	-11.4459
kountigui	-11.4459
▁bonba	-11.4466
ermit	-11.4469
▁föl	-11.4474
ongonman	-11.4475
▁paz	-11.4485
ross	-11.4489
omo	-11.4498
dilanna	-11.4504
metiri	-11.4511
stɛr	-11.4512
NA	-11.4512
▁rusi	-11.4527
susu	-11.453
ênê	-11.4541
▁kunan	-11.4542
kounoun	-11.4551
kènèmaya	-11.4577
▁lawali	-11.4585
▁Belg	-11.4588
▁App	-11.4594
▁ɲamɔgɔya	-11.4595
karamôgô	-11.4596
cori	-11.4611
onw	-11.4618
▁Hom	-11.4624
djétigui	-11.4632
▁kium	-11.4644
vere	-11.4648
péré	-11.4661
kônôyôrô	-11.4662
▁gbo	-11.4668
sèguè	-11.467
▁Way	-11.4671
▁titan	-11.468
▁Fal	-11.4686
angola	-11.4693
bruk	-11.4695
▁milli	-11.4701
agati	-11.4733
▁izin	-11.474
undo	-11.4743
djèla	-11.4745
▁dalako	-11.4746
anscri	-11.4749
êguê	-11.4754
ssara	-11.4754
ouoh	-11.476
chy	-11.476
égé	-11.477
erera	-11.4772
▁Sis	-11.4775
▁Chha	-11.4791
▁keine	-11.4792
▁djamankoul	-11.4803
▁josi	-11.4804
emis	-11.4806
apitali	-11.4816
nkili	-11.4819
avari	-11.4835
lèma	-11.4852
je	-11.4856
ogotchè	-11.4866
rom	-11.4883
nnen	-11.489
▁fɔta	-11.4901
▁kiriy	-11.4902
hiti	-11.4908
ntiya	-11.4914
▁Saf	-11.4922
▁pein	-11.4925
Nationali	-11.493
ôpi	-11.493
▁pig	-11.4937
▁Dece	-11.4941
ourougou	-11.4942
touv	-11.4946
ins	-11.4949
▁bèrèbè	-11.4956
▁gnanagbel	-11.4962
▁kil	-11.4972
kêrên	-11.4975
▁Cro	-11.4978
▁wagakele	-11.4981
gativ	-11.4983
▁Suru	-11.5002
▁cir	-11.5005
▁mib	-11.5006
immi	-11.5012
Dé	-11.5012
▁kougo	-11.5013
vir	-11.502
afina	-11.5028
sl	-11.5031
dril	-11.5036
rum	-11.5041
▁Pol	-11.5056
ibu	-11.5062
gore	-11.5064
▁Séko	-11.5073
nkôrômadèmè	-11.5074
llas	-11.5079
▁gene	-11.5079
ôgnon	-11.5081
▁souf	-11.5083
rticli	-11.5113
yèlèman	-11.5126
trom	-11.5128
jalaki	-11.5138
ômi	-11.5147
▁For	-11.5151
▁communi	-11.5152
enti	-11.5154
rop	-11.5154
karaman	-11.5155
▁Mino	-11.5156
Ɔl	-11.516
plu	-11.5166
hoo	-11.5169
minike	-11.5172
utankham	-11.5174
▁dign	-11.5198
▁Cas	-11.5201
oute	-11.5213
niɲa	-11.5213
kɔnɔfɛ	-11.5214
ical	-11.5223
ding	-11.5225
dde	-11.5229
▁sunu	-11.5249
uatèr	-11.5255
▁sissik	-11.526
ôgôma	-11.5261
▁hal	-11.5275
▁Kibaro	-11.5297
kɛɲɛ	-11.5302
izai	-11.5302
êla	-11.5304
▁sɛt	-11.5305
lais	-11.5311
▁djamini	-11.5315
▁mɛnɛ	-11.5317
oats	-11.5319
▁Rober	-11.532
▁rɔm	-11.5322
▁cel	-11.5328
▁kelenkele	-11.5336
irina	-11.5336
▁comi	-11.5337
▁Adaman	-11.5352
▁jy	-11.5371
denhu	-11.5374
lankè	-11.5375
Gniniga	-11.539
▁gouvèrèn	-11.5391
ɔnɔnin	-11.5399
rome	-11.5402
▁gy	-11.5404
▁djek	-11.5408
fiè	-11.5409
▁Fari	-11.5411
oniki	-11.5411
ez	-11.5421
:0	-11.5429
kéla	-11.5433
▁organ	-11.5433
nandélôgô	-11.5438
▁saro	-11.5454
suman	-11.5455
kebaga	-11.5463
legel	-11.5468
▁kounaf	-11.5479
ogô	-11.5479
▁yɔrɔbɛ	-11.548
may	-11.5499
ince	-11.5501
zy	-11.5505
U	-11.5506
indou	-11.5507
flèli	-11.5509
public	-11.5511
cur	-11.5515
Tri	-11.5516
eq	-11.552
arike	-11.5522
èkè	-11.5529
rue	-11.5532
▁Che	-11.5539
ôron	-11.5541
koumbè	-11.5566
▁som	-11.557
foro	-11.5575
▁souho	-11.5581
▁prat	-11.5587
èbènni	-11.5587
▁fir	-11.5595
ôssôli	-11.5609
▁jou	-11.5609
logi	-11.561
rancais	-11.5612
masoro	-11.5619
ountiguiba	-11.5623
dagascar	-11.5626
▁pav	-11.5628
tangani	-11.563
▁Gard	-11.5635
▁Kêlê	-11.5639
mièn	-11.5648
cation	-11.5658
▁FI	-11.5671
reen	-11.5672
ɔlɔ	-11.5673
▁yɔng	-11.5675
tch	-11.5675
▁Faso	-11.5684
ankourouni	-11.5686
jé	-11.5687
▁cap	-11.5691
▁Farafi	-11.5697
10	-11.5698
tchègnouman	-11.5698
fing	-11.5704
▁fintchi	-11.5704
abli	-11.5705
▁fato	-11.5707
heliya	-11.5708
▁Oke	-11.5715
▁Char	-11.5717
robi	-11.5726
bachi	-11.5729
kunta	-11.5731
▁banakiss	-11.5742
odén	-11.5743
ft	-11.5753
sôli	-11.5756
▁sigignong	-11.5761
▁Pal	-11.5764
ambod	-11.5769
▁Colo	-11.577
ylan	-11.5787
furu	-11.5787
onma	-11.5788
etan	-11.5788
▁silam	-11.5791
ɲinini	-11.5798
werela	-11.5801
▁olivi	-11.5808
lova	-11.5808
dinatèri	-11.581
▁Souf	-11.581
waliya	-11.5815
▁Bissi	-11.5821
▁dipl	-11.5824
▁pɔr	-11.5833
roscop	-11.5837
▁Koho	-11.585
▁djangna	-11.5853
mafén	-11.5855
sarakala	-11.5858
iodi	-11.5858
▁wèè	-11.5859
iring	-11.586
nth	-11.586
pɔ	-11.5866
▁djouk	-11.5879
ichel	-11.5882
▁sysi	-11.5889
Noo	-11.5895
92	-11.59
loniya	-11.5902
kolossibaga	-11.5905
▁gnam	-11.5909
fre	-11.5912
masala	-11.5917
▁yana	-11.5918
ksu	-11.5929
▁djogui	-11.5934
▁akonno	-11.5937
kɔnɔna	-11.5937
riku	-11.5938
manɔgɔ	-11.5939
auri	-11.5951
tland	-11.5952
eimei	-11.5955
▁lakôl	-11.5957
koundaw	-11.5958
hannes	-11.5959
sub	-11.596
lê	-11.5962
foron	-11.5966
▁série	-11.597
▁wè	-11.597
unafoli	-11.5985
▁Domin	-11.5986
wéléla	-11.5987
djata	-11.5988
▁Famou	-11.5993
cana	-11.5995
▁vig	-11.6002
▁Cre	-11.6005
▁Lat	-11.6007
▁franca	-11.6007
ynd	-11.6009
ougan	-11.6013
enkulu	-11.6013
maɲ	-11.6014
▁nousson	-11.6015
ɔgɔli	-11.6016
▁Farafin	-11.6022
fangaman	-11.6027
93	-11.6032
▁Yèlè	-11.6038
▁kôô	-11.6057
stine	-11.6058
▁koumangn	-11.6065
▁demis	-11.6067
cc	-11.6067
▁Sev	-11.6072
ônô	-11.6074
itas	-11.608
ɛɛre	-11.6081
anjalan	-11.6088
merang	-11.6088
▁labil	-11.6095
▁présid	-11.6096
mono	-11.6096
êrêkê	-11.6107
ussar	-11.6115
▁Mold	-11.6115
Mur	-11.6119
▁pir	-11.6119
toto	-11.6119
lofi	-11.6124
mangou	-11.6124
▁Tibe	-11.6132
énez	-11.6136
ublic	-11.6138
taala	-11.614
ropoli	-11.6142
ɔp	-11.6143
▁Touma	-11.6147
cone	-11.6149
▁ɲuma	-11.6153
▁gagné	-11.6153
13	-11.6155
téri	-11.6155
avie	-11.6158
bank	-11.6162
▁Blog	-11.6169
amanaw	-11.6179
djè	-11.618
▁kadogo	-11.618
▁Fil	-11.6184
églis	-11.6186
inf	-11.6189
cop	-11.6192
▁déguina	-11.6198
lôtchogo	-11.6202
finnin	-11.6205
▁sèbèlitch	-11.6213
▁Miss	-11.6216
riceratopi	-11.6216
tinmin	-11.6217
evr	-11.6219
▁djal	-11.6227
ôtab	-11.6228
djen	-11.6233
fagayôrô	-11.6233
78	-11.6234
indu	-11.6239
▁latangaba	-11.624
▁jam	-11.6248
denb	-11.6253
ust	-11.6256
fignè	-11.6262
ôrôsi	-11.6264
▁amb	-11.6266
ntoine	-11.6268
▁lakolossi	-11.627
rot	-11.6271
▁lekon	-11.6275
tec	-11.6275
dassi	-11.6281
rikorognanagbè	-11.6286
lva	-11.6286
77	-11.6288
viyôn	-11.6289
jibon	-11.6289
▁Janv	-11.629
assar	-11.6291
▁wadjibi	-11.6297
madogo	-11.6303
rontieri	-11.6307
ssodja	-11.6311
▁gnangb	-11.6312
tounka	-11.6312
▁dij	-11.6314
rede	-11.6314
apolis	-11.6318
Fly	-11.6319
Af	-11.6328
pres	-11.6328
▁thc	-11.633
gninibaga	-11.6331
rôsik	-11.6332
▁Ut	-11.6333
èssè	-11.6333
▁gèlè	-11.6334
▁Nè	-11.6334
Y	-11.6335
sinniw	-11.6336
▁Aristo	-11.6341
ôbô	-11.6344
gnagnini	-11.6345
▁Greenlan	-11.6347
fèrè	-11.6348
▁japon	-11.6349
▁gouvèr	-11.6354
rôtrô	-11.6356
▁FA	-11.6356
▁gnei	-11.6356
trap	-11.6357
ôlô	-11.6357
▁allemagn	-11.6362
adesh	-11.6362
▁Touk	-11.6363
couno	-11.6364
egili	-11.6365
walima	-11.6366
▁Christ	-11.6367
odjougou	-11.6367
▁kulo	-11.6367
gbeni	-11.6372
▁kibari	-11.6375
pagos	-11.6379
kônôtô	-11.638
ofaya	-11.638
▁guèlè	-11.6381
gwe	-11.6386
▁lafasa	-11.6386
igiyôrô	-11.6386
Dun	-11.6387
eenko	-11.6389
poth	-11.639
▁mɛtr	-11.6391
▁amerik	-11.6394
ntonla	-11.6394
▁gnongo	-11.6394
nkani	-11.6395
udu	-11.6398
ristoph	-11.6399
▁basigini	-11.64
barakela	-11.6402
▁ordinater	-11.6403
Oper	-11.6404
wasa	-11.6405
gondan	-11.6405
▁sho	-11.6406
isabanan	-11.6408
Politi	-11.6409
▁Dar	-11.6409
chell	-11.641
▁Armeni	-11.641
▁Balti	-11.641
guèlè	-11.6414
ènéman	-11.6415
jeli	-11.6415
intin	-11.6418
koundam	-11.642
▁Or	-11.6421
had	-11.6421
djam	-11.6423
▁Sientifik	-11.6423
▁tchaam	-11.6424
kèrèfè	-11.6425
itabu	-11.6427
▁kônnô	-11.6427
aked	-11.6427
yɛlɛ	-11.6429
syn	-11.6429
yɛlɛma	-11.643
▁douniy	-11.6433
▁tchanma	-11.6433
ographi	-11.6436
▁ordinat	-11.6437
émis	-11.6437
obel	-11.6438
ngnongo	-11.6438
▁Toumam	-11.644
▁dayele	-11.6442
bro	-11.6442
borifén	-11.6442
▁sɔɔn	-11.6443
▁dounand	-11.6443
dourou	-11.6444
mobil	-11.6444
FA	-11.6445
▁djikankouroun	-11.6446
muruti	-11.6446
kafisa	-11.6446
▁Virgin	-11.6446
în	-11.6446
hul	-11.6446
sigidenya	-11.6447
▁cɛkaɲ	-11.6447
dollar	-11.6447
FI	-11.6447
ymp	-11.6448
Rai	-11.6448
▁Iraq	-11.6448
jarabi	-11.6448
améric	-11.6449
▁Gom	-11.6449
▁edi	-11.6449
AOL	-11.6449
Simpson	-11.6449
compagni	-11.6449
sôgôsôgô	-11.6449
Squa	-11.6449
virusi	-11.6449
kodjugu	-11.6449
400	-11.6449
sôsôli	-11.645
suraf	-11.645
14	-11.645
yèr	-11.645
yiriga	-11.645
ladegi	-11.645
funu	-11.6451
Amérik	-11.6451
vèr	-11.6452
kônnon	-11.6452
hôrôn	-11.6452
Rea	-11.6452
sanfiy	-11.6452
chigui	-11.6452
dinosor	-11.6452
Sanfè	-11.6452
doumouni	-11.6453
Tchè	-11.6453
GP	-11.6453
Up	-11.6453
Kalan	-11.6453
George	-11.6453
Kalo	-11.6453
figne	-11.6453
makèya	-11.6453
Miri	-11.6454
politiki	-11.6454
Jamana	-11.6454
orno	-11.6454
djumlan	-11.6454
Massa	-11.6454
Touman	-11.6455
saranna	-11.6455
bissaba	-11.6455
“	-11.6455
220	-11.6455
tchanman	-11.6455
banbali	-11.6456
▁arabalo	-11.6456
misali	-11.6456
kɛnɛ	-11.6456
Jud	-11.6457
gouvérénéman	-11.6457
Rock	-11.6458
labain	-11.6458
jigiya	-11.6458
Tai	-11.6458
tulu	-11.6458
kônnôn	-11.6459
môbili	-11.6459
Giz	-11.6459
nôgômani	-11.6459
dèssè	-11.6459
kêmê	-11.6459
rɔs	-11.646
▁Bar	-11.646
ngenie	-11.646
fonnon	-11.6461
arine	-11.6461
kèrènkèrèn	-11.6462
yêlê	-11.6462
falén	-11.6462
34	-11.6462
toumbé	-11.6462
Tchi	-11.6462
▁sisa	-11.6462
tôrô	-11.6463
wolofila	-11.6463
kɔm	-11.6463
coura	-11.6463
jatela	-11.6463
konondon	-11.6464
ndépend	-11.6464
kurakura	-11.6464
tɛnɛ	-11.6465
kôfê	-11.6465
fâ	-11.6465
Lar	-11.6466
yêrê	-11.6468
▁djèni	-11.6469
▁mouss	-11.6469
agas	-11.6469
CT	-11.6469
tchaaman	-11.647
▁Repub	-11.6471
mumè	-11.6471
gnein	-11.6471
▁gnanadj	-11.6472
Ahi	-11.6472
amber	-11.6472
woyo	-11.6473
conondo	-11.6473
Bre	-11.6474
▁Kôgôdou	-11.6474
konnondô	-11.6475
kêlê	-11.6476
chariya	-11.6477
seere	-11.6478
kɔrɔta	-11.6478
Chi	-11.6479
AC	-11.6479
kônondô	-11.6479
denmuso	-11.6481
sêbê	-11.6481
djourou	-11.6481
▁yamarou	-11.6481
kumasen	-11.6481
▁worodug	-11.6481
▁kôkô	-11.6481
▁cɛjugu	-11.6482
Bus	-11.6482
Mari	-11.6484
▁faragwè	-11.6484
sôgôma	-11.6485
pɛn	-11.6487
kénléyé	-11.6487
rostr	-11.6488
amian	-11.6488
▁Ikô	-11.6488
éréti	-11.6489
isè	-11.6489
cent	-11.6489
▁Florid	-11.649
▁tôho	-11.649
amanin	-11.649
igini	-11.649
▁djôssi	-11.649
keimin	-11.6491
barigo	-11.6492
gbiri	-11.6492
Vit	-11.6492
▁carbon	-11.6493
▁Kibar	-11.6493
ntartic	-11.6493
mericain	-11.6493
enci	-11.6493
hoton	-11.6494
èrènkèrèn	-11.6494
▁seib	-11.6494
nkililala	-11.6496
ônnôn	-11.6496
▁Tolo	-11.6496
▁naloman	-11.6497
mètr	-11.6497
êbê	-11.6498
▁dugukol	-11.6498
cons	-11.6498
èmèsi	-11.6499
ther	-11.65
guèlèya	-11.65
ôrôdjan	-11.65
yéléma	-11.6502
nglais	-11.6502
chèya	-11.6502
mounou	-11.6503
ouvèrinèman	-11.6503
tourou	-11.6503
epubliqu	-11.6503
emati	-11.6504
▁antoin	-11.6504
umaden	-11.6504
tagaba	-11.6505
▁Col	-11.6507
lefoni	-11.6508
▁Massatc	-11.6508
baarakètcho	-11.6509
20-	-11.6509
hakè	-11.6509
ouvérénéman	-11.651
sagon	-11.651
▁tilebe	-11.651
Doun	-11.6511
MA	-11.6512
cqu	-11.6512
▁majigi	-11.6512
ototabag	-11.6512
chogoya	-11.6512
▁Anguil	-11.6513
bêrê	-11.6513
cientifi	-11.6513
ystem	-11.6514
jènsè	-11.6514
▁marti	-11.6515
élévision	-11.6515
atoliki	-11.6515
OV	-11.6515
tchama	-11.6515
jèmè	-11.6515
anifesta	-11.6515
▁gouvè	-11.6515
▁tubab	-11.6516
unumunu	-11.6516
uvèrènè	-11.6516
emessen	-11.6516
▁Portug	-11.6517
forobatô	-11.6517
onandjiguisso	-11.6517
▁ketcho	-11.6517
keme	-11.6517
icket	-11.6517
vèn	-11.6517
▁America	-11.6518
egess	-11.6518
nanagbe	-11.6518
sigibaga	-11.6518
gypt	-11.6518
uffalo	-11.6518
orogaramou	-11.6518
uts	-11.6519
rokir	-11.6519
babuya	-11.6519
urrican	-11.6519
▁kèrènkèr	-11.6519
kèlèkèdé	-11.652
tropic	-11.652
Gol	-11.652
hogoyala	-11.652
▁telesc	-11.652
goyala	-11.652
kôrôssi	-11.652
▁Medit	-11.652
pagnôl	-11.652
▁farikologna	-11.652
▁Wh	-11.652
▁scientifi	-11.652
▁Copenhag	-11.6521
Djenk	-11.6521
õ	-11.6521
Ï	-11.6521
▁gninmôg	-11.6521
%	-11.6521
+	-11.6521
°	-11.6521
Â	-11.6521
Ö	-11.6521
ù	-11.6521
ğ	-11.6521
ō	-11.6521
̋	-11.6521
▁bɛrlɛn	-11.6521
▁deenmisɛ	-11.6521
▁karlɔs	-11.6521
▁kèreink	-11.6521
▁lafisali	-11.6521
▁tcjè	-11.6521
▁provɛnsi	-11.6521
▁gɛlɛman	-11.6521
▁katedral	-11.6521
▁ɔrleyan	-11.6521
▁egliz	-11.6521
▁rɛsto	-11.6521
&	-11.6521
▁neutr	-11.6521
count	-11.6521
▁bɔnbɔn	-11.6521
▁Afg	-11.6521
▁cɛgɛda	-11.6521
▁sokɔnɔɲa	-11.6521
▁fatc	-11.6521
▁figɛman	-11.6521
plic	-11.6521
▁klantchè	-11.6521
▁repiblik	-11.6521
antaf	-11.6521
▁Afghan	-11.6521
kék	-11.6521
éléké	-11.6521
▁ardɛn	-11.6521
▁bɛrtra	-11.6521
▁Elis	-11.6521
guèsèguèl	-11.6521
▁albɔm	-11.6521
lɔk	-11.6521
ɛrikɛn	-11.6521
▁djègnong	-11.6522
wolonwula	-11.6522
▁nalomaya	-11.6522
▁jɛgɛ	-11.6522
▁sutra	-11.6522
▁Prov	-11.6522
krit	-11.6522
boarding	-11.6522
▁basikɛt	-11.6522
▁Cost	-11.6522
▁zuwe	-11.6522
▁napole	-11.6522
ancer	-11.6522
▁latigê	-11.6522
▁walifas	-11.6522
▁scien	-11.6522
▁ordinate	-11.6522
ssss	-11.6523
▁makɔrɔbaw	-11.6523
cheng	-11.6523
▁ɲafɛmɔgɔ	-11.6523
jarasisi	-11.6523
▁ticke	-11.6523
akabana	-11.6523
kènèkan	-11.6523
kôség	-11.6524
▁valans	-11.6524
▁cyc	-11.6524
djuru	-11.6524
▁jɔyɔrɔ	-11.6524
nches	-11.6524
▁kogodou	-11.6524
▁Japonai	-11.6524
AB	-11.6524
ôtch	-11.6524
tônô	-11.6524
▁bartel	-11.6524
NE	-11.6524
▁gnagni	-11.6525
$1	-11.6525
libori	-11.6525
▁Mediter	-11.6525
96	-11.6525
▁flɛru	-11.6525
189	-11.6525
sɔndiya	-11.6525
vernemen	-11.6525
▁maxim	-11.6526
kinda	-11.6526
BC	-11.6526
▁Arc	-11.6526
▁lucie	-11.6527
pɛl	-11.6527
▁nɛnɛkiri	-11.6527
awoloma	-11.6527
ôgôlô	-11.6527
▁Java	-11.6527
kètchogoya	-11.6527
▁gabri	-11.6528
▁cm	-11.6528
ègèsè	-11.6528
CE	-11.6528
▁Môg	-11.6528
▁retar	-11.6528
▁wulada	-11.6528
▁12	-11.6528
▁cogojuma	-11.6528
▁jacque	-11.6529
Ar	-11.6529
Para	-11.653
ôgôsèbè	-11.653
▁humm	-11.653
fond	-11.653
myr	-11.653
▁40	-11.653
émanya	-11.653
▁pho	-11.6531
▁tric	-11.6531
jègnongon	-11.6531
▁ɛnpas	-11.6531
ngokono	-11.6531
▁pasek	-11.6531
stiv	-11.6532
stoni	-11.6532
akurun	-11.6533
▁jikɔnɔ	-11.6533
ikôlà	-11.6533
▁ɲakili	-11.6533
gst	-11.6534
▁wuladanin	-11.6534
nanaman	-11.6534
tâ	-11.6534
▁dɛsɛ	-11.6534
roup	-11.6535
nmôgôya	-11.6535
jigui	-11.6536
▁Minisi	-11.6536
djén	-11.6536
▁musokɔrɔba	-11.6537
endel	-11.6537
ajibi	-11.6537
▁Bob	-11.6537
Duni	-11.6537
61	-11.6537
▁pour	-11.6537
agadji	-11.6537
▁ziri	-11.6537
Som	-11.6538
▁bulalam	-11.6539
Mant	-11.6539
▁ɲanyɔrɔ	-11.6539
lasséko	-11.6539
▁balimacɛ	-11.6539
▁daje	-11.6539
maria	-11.654
▁elvi	-11.654
janjan	-11.654
▁Scot	-11.654
beth	-11.654
sec	-11.654
▁sawou	-11.6541
▁Pira	-11.6541
jikônô	-11.6542
rleyan	-11.6542
▁pɔrto	-11.6544
▁yinika	-11.6544
moto	-11.6544
jet	-11.6544
boroman	-11.6544
caro	-11.6544
▁guich	-11.6544
ɔrɔf	-11.6544
▁doumou	-11.6544
mobili	-11.6545
Net	-11.6545
▁ɲamɔgɔden	-11.6545
nanangbè	-11.6546
mith	-11.6546
▁dɔngili	-11.6546
▁chiama	-11.6546
▁Manc	-11.6547
walé	-11.6547
▁yɔrɔwɛrɛ	-11.6547
▁koutou	-11.6548
tp	-11.6548
▁limo	-11.6548
▁Dem	-11.6549
jigi	-11.6549
▁barikam	-11.6549
▁ɲɛlɛ	-11.6549
edit	-11.6549
▁sound	-11.6553
chem	-11.6554
peci	-11.6554
▁sof	-11.6555
osaur	-11.6555
sariya	-11.6555
▁mɛnɛna	-11.6556
kôlô	-11.6557
▁korobo	-11.6558
▁balobaga	-11.6558
▁UN	-11.6558
aradar	-11.6558
nininin	-11.6558
▁galass	-11.6559
dôléy	-11.6559
▁Tut	-11.6561
▁gɛɛni	-11.6561
▁tulonkɛ	-11.6561
sugu	-11.6562
araon	-11.6562
mey	-11.6562
▁gbili	-11.6562
bôyô	-11.6562
ôgnôgôn	-11.6563
djon	-11.6563
manogo	-11.6563
tts	-11.6564
barika	-11.6564
ourouy	-11.6565
lôkô	-11.6566
▁hakɛ	-11.6566
oguida	-11.6566
▁nicola	-11.6567
▁moris	-11.6567
kulo	-11.6567
▁hɔn	-11.6569
▁dawou	-11.6569
somara	-11.6569
▁alɛksi	-11.6571
▁sept	-11.6571
▁Comp	-11.6571
▁bougo	-11.6571
▁flori	-11.6572
iste	-11.6573
omɛn	-11.6573
ramogo	-11.6573
Afi	-11.6575
Ya	-11.6575
▁Gnon	-11.6575
isk	-11.6575
▁Aris	-11.6575
▁Tout	-11.6576
jiden	-11.6576
danfé	-11.6577
inq	-11.6577
houkèt	-11.6577
▁dép	-11.6578
ôbili	-11.658
▁kibariya	-11.658
akolossi	-11.658
▁tɛmɛyɔrɔ	-11.6581
▁Ver	-11.6581
rôgbè	-11.6581
▁mezi	-11.6581
hèrè	-11.6582
onic	-11.6582
enfi	-11.6583
oromani	-11.6584
ɛmu	-11.6585
▁yêlê	-11.6585
▁Nôn	-11.6585
êguêli	-11.6585
pele	-11.6585
gbinl	-11.6586
ranean	-11.6588
▁Jag	-11.659
euro	-11.6591
sèya	-11.6591
▁(90	-11.6591
Gy	-11.6591
leil	-11.6592
ubli	-11.6593
ifasso	-11.6593
▁porogar	-11.6594
yiriwa	-11.6595
esus	-11.6595
▁web	-11.6596
anranma	-11.6597
▁Eth	-11.6598
tail	-11.6598
▁rɔs	-11.6599
▁haram	-11.66
ntɛs	-11.6601
Hon	-11.6601
rley	-11.6602
barra	-11.6602
▁impr	-11.6602
tep	-11.6602
maséré	-11.6602
rabak	-11.6602
▁fef	-11.6603
suru	-11.6603
▁boyè	-11.6603
▁sɔɔni	-11.6604
vati	-11.6604
▁format	-11.6605
gninina	-11.6605
▁gɔn	-11.6606
quim	-11.6607
photo	-11.6607
sagoli	-11.6607
▁Barc	-11.6608
▁lɔgɔra	-11.6609
▁cono	-11.6611
rein	-11.6612
▁ladegi	-11.6612
osof	-11.6613
mary	-11.6613
engal	-11.6613
énba	-11.6616
rict	-11.6616
gniniga	-11.6617
angw	-11.6617
▁fitin	-11.6617
sèbèkè	-11.6618
▁jayan	-11.6618
èdi	-11.6618
hisi	-11.6618
ôgôf	-11.6618
▁lajɛni	-11.6618
nganin	-11.6619
donda	-11.6619
▁nogô	-11.662
eila	-11.662
éris	-11.6623
inch	-11.6623
esp	-11.6625
▁Sisa	-11.6625
▁Rus	-11.6626
tchei	-11.6626
▁baarake	-11.6626
èrein	-11.6627
kèrè	-11.6627
fanfè	-11.6628
nalagbè	-11.6628
kene	-11.663
atoli	-11.6631
▁brik	-11.6632
woloman	-11.6632
inik	-11.6632
koté	-11.6633
▁î	-11.6633
▁camp	-11.6635
ékour	-11.6636
eber	-11.6636
elika	-11.6636
ndonn	-11.6638
▁patri	-11.6639
▁Alp	-11.6639
barakan	-11.664
▁bɔgɔ	-11.6641
nuba	-11.6641
rène	-11.6642
▁borifén	-11.6643
orth	-11.6643
▁djatéy	-11.6643
bassigui	-11.6643
xy	-11.6644
stic	-11.6645
▁Est	-11.6645
waga	-11.6645
▁miselin	-11.6646
arch	-11.6646
djanga	-11.6646
yong	-11.6647
▁lemuru	-11.6647
ulka	-11.6647
▁gnadé	-11.6648
▁Polo	-11.6648
uit	-11.6649
nanfô	-11.6649
béleb	-11.6649
ounta	-11.6651
▁oroz	-11.6651
▁tcja	-11.6652
djiga	-11.6653
urisi	-11.6653
éland	-11.6654
yelen	-11.6654
öf	-11.6655
acid	-11.6655
gnongô	-11.6656
sieu	-11.6657
erz	-11.6658
erɔ	-11.6659
alapagos	-11.666
▁Tru	-11.666
▁Vir	-11.6661
▁nucl	-11.6664
regi	-11.6665
oloo	-11.6665
kouman	-11.6666
cinn	-11.6669
▁tobir	-11.6669
umè	-11.667
korota	-11.6671
tèguè	-11.6671
finè	-11.6673
▁ɲafɔra	-11.6674
lakoli	-11.6675
▁sum	-11.6677
fariya	-11.6677
dougouba	-11.6679
ansiguili	-11.668
▁kö	-11.6681
▁cɛɲuman	-11.6683
gnat	-11.6683
djôn	-11.6688
ë	-12.1509
ā	-12.1521
ó	-13.1427
ã	-13.1521
ò	-13.1521
ń	-13.1521
[	-13.7419
É	-13.742
«	-13.7421
û	-13.7422
Q	-13.7423
(	-13.7424
