<unk>	0
<s>	0
</s>	0
.	-3.13976
s	-3.26843
▁de	-3.4058
,	-3.49699
'	-3.70191
▁la	-4.02596
▁	-4.11028
▁le	-4.271
▁l	-4.31956
▁et	-4.35242
▁à	-4.40234
’	-4.41572
▁les	-4.46534
▁d	-4.49985
▁des	-4.56659
-	-4.76898
e	-4.7745
▁a	-4.83499
▁en	-4.83787
▁est	-4.90932
▁du	-4.98223
▁un	-5.04108
▁que	-5.13192
▁.	-5.16508
▁il	-5.17199
▁une	-5.22506
▁dans	-5.35937
▁pour	-5.36919
▁qui	-5.45397
▁plus	-5.47842
▁pas	-5.49206
est	-5.51759
▁vous	-5.53277
▁au	-5.57812
▁se	-5.62879
▁par	-5.63158
▁sur	-5.64551
▁sont	-5.66007
a	-5.67665
er	-5.70131
▁qu	-5.71866
r	-5.71892
ment	-5.74204
t	-5.79956
▁?	-5.81264
é	-5.81931
▁ne	-5.82455
▁s	-5.85118
▁n	-5.85674
▁c	-5.85899
▁été	-5.86138
▁Les	-5.88723
▁Le	-5.97163
▁ont	-5.98639
ant	-5.98782
▁ou	-5.99287
nt	-6.01903
ent	-6.04669
▁ce	-6.06172
es	-6.06342
▁je	-6.06684
un	-6.1502
il	-6.19873
▁son	-6.27318
avec	-6.3158
▁La	-6.33135
▁!	-6.33355
▁leur	-6.34713
▁elle	-6.36651
re	-6.39539
▁rue	-6.39706
▁«	-6.40402
▁deux	-6.45266
▁L	-6.45329
▁mais	-6.46028
en	-6.50369
▁comme	-6.51404
y	-6.51569
ait	-6.52116
une	-6.52231
on	-6.53187
▁Il	-6.53633
▁(	-6.5372
▁être	-6.5674
▁sa	-6.57522
▁aux	-6.58653
▁bien	-6.59665
▁tout	-6.62431
ce	-6.63426
▁»	-6.67072
▁peut	-6.6751
▁j	-6.69476
▁nous	-6.71025
▁fait	-6.71192
)	-6.74109
ez	-6.74339
▁tu	-6.84418
▁pays	-6.85057
▁on	-6.85407
▁y	-6.85858
▁également	-6.91316
▁était	-6.91859
▁si	-6.95268
ai	-6.95273
▁C	-6.97088
o	-6.97383
▁S	-6.98119
▁même	-6.98283
▁peuvent	-7.00976
le	-7.01579
cette	-7.05029
▁très	-7.06365
▁Ce	-7.08077
in	-7.09338
ont	-7.12273
i	-7.13163
▁faire	-7.13649
▁En	-7.14063
▁m	-7.15324
▁où	-7.16561
l	-7.1781
z	-7.18254
ée	-7.19304
aient	-7.20785
ation	-7.21387
▁après	-7.22807
pendant	-7.22992
autres	-7.25349
h	-7.25443
it	-7.25502
▁Un	-7.26529
c	-7.2666
▁personnes	-7.26825
n	-7.26861
▁A	-7.27737
▁avait	-7.29472
▁sous	-7.30351
▁lui	-7.31157
...	-7.31838
▁souvent	-7.31934
▁ça	-7.32451
▁:	-7.32482
▁trois	-7.32556
▁M	-7.32738
eau	-7.33198
ils	-7.33429
▁vot	-7.3499
vous	-7.35197
▁tous	-7.35319
que	-7.35711
?	-7.37216
▁ses	-7.37617
▁avoir	-7.38157
▁peu	-7.3918
▁aussi	-7.39343
▁entre	-7.39973
la	-7.41045
u	-7.4247
▁moins	-7.42484
▁t	-7.43348
▁temps	-7.43643
▁ces	-7.46574
▁vers	-7.4747
▁P	-7.48034
▁suis	-7.49558
▁monde	-7.49664
▁ville	-7.49698
▁plupart	-7.50193
▁déclaré	-7.50234
f	-7.51438
▁sans	-7.5258
▁cela	-7.53954
▁De	-7.55675
▁me	-7.55791
is	-7.5708
▁cent	-7.57517
!	-7.57567
▁autres	-7.58149
▁sûr	-7.59777
à	-7.59957
▁grand	-7.61072
elle	-7.61702
▁quatre	-7.61906
▁vingt	-7.62168
ux	-7.62262
▁ma	-7.6298
an	-7.63697
▁nombreux	-7.63706
▁fin	-7.65738
▁dix	-7.66095
▁toute	-7.66474
▁partie	-7.66854
hui	-7.67558
▁grande	-7.67882
▁ans	-7.68148
▁encore	-7.68368
▁avant	-7.69169
▁h	-7.7037
▁nord	-7.70384
▁soit	-7.70546
▁petit	-7.70604
▁p	-7.71044
▁Dan	-7.72142
être	-7.73129
▁donc	-7.73306
▁fois	-7.73484
al	-7.73656
x	-7.7379
de	-7.74642
▁T	-7.74719
▁dit	-7.76488
ou	-7.77688
▁route	-7.77755
▁nom	-7.78381
▁Si	-7.78499
▁non	-7.78535
▁car	-7.78613
▁premier	-7.79292
▁contre	-7.79304
▁b	-7.79551
▁gens	-7.79553
▁moi	-7.79656
▁ainsi	-7.80017
▁place	-7.80027
ieurs	-7.80095
▁avez	-7.80368
or	-7.80544
eur	-7.80903
▁beaucoup	-7.81575
▁environ	-7.8189
▁raison	-7.82013
ra	-7.82496
▁».	-7.82746
▁va	-7.82795
▁D	-7.82852
▁autre	-7.82858
d	-7.82966
▁depuis	-7.84761
▁alors	-7.84904
▁mon	-7.85592
▁certains	-7.85666
ième	-7.8571
▁cha	-7.85718
ci	-7.85841
mi	-7.86513
és	-7.86984
).	-7.87343
g	-7.87955
age	-7.88169
▁trouve	-7.88641
▁étaient	-7.89229
aux	-7.894
▁lors	-7.89433
elon	-7.90266
▁lorsqu	-7.91086
▁lieu	-7.91797
▁générale	-7.92409
p	-7.92809
▁nombre	-7.93163
▁eu	-7.93471
▁enfants	-7.94025
▁animaux	-7.94093
▁;	-7.94213
▁là	-7.94688
elles	-7.94846
▁première	-7.94983
▁cas	-7.95359
te	-7.95449
ons	-7.95528
▁jusqu	-7.95894
était	-7.96157
▁re	-7.96209
ur	-7.96564
ie	-7.96877
▁petite	-7.97125
▁V	-7.97161
▁certaine	-7.97276
▁mal	-7.97697
▁monsieur	-7.9771
eurs	-7.99015
vaient	-7.99272
ing	-8.00101
▁près	-8.00121
A	-8.00503
▁trente	-8.00566
m	-8.01184
▁gouvernement	-8.0147
▁Bien	-8.01488
▁H	-8.01667
▁B	-8.02377
▁aujourd	-8.03551
raient	-8.04191
▁elles	-8.04261
at	-8.04314
▁vie	-8.04383
▁États	-8.04824
▁fut	-8.05109
▁ré	-8.05256
▁faut	-8.05374
▁numéro	-8.06369
▁guerre	-8.0637
▁sud	-8.06409
▁On	-8.08347
▁in	-8.08352
▁reste	-8.08899
▁sera	-8.08946
ch	-8.09053
▁J	-8.09322
▁es	-8.09401
▁ta	-8.10174
▁N	-8.10327
ées	-8.10382
▁êtes	-8.10472
▁nombreuses	-8.10473
▁voir	-8.10976
▁jour	-8.11096
▁E	-8.11872
▁groupe	-8.13095
▁porte	-8.1327
▁cours	-8.13716
ne	-8.13779
▁voiture	-8.14253
▁km	-8.14766
me	-8.14925
autre	-8.14963
▁bon	-8.15756
▁nouveau	-8.1582
▁chemin	-8.1585
▁jamais	-8.15851
0	-8.16115
k	-8.16156
▁comment	-8.16196
▁région	-8.16385
▁Au	-8.16786
aire	-8.1773
ion	-8.1778
▁sept	-8.17905
▁toujours	-8.18131
▁long	-8.18421
agit	-8.19259
▁trop	-8.20373
▁assez	-8.20376
▁doit	-8.2057
▁ah	-8.21298
▁système	-8.21323
ité	-8.22408
000	-8.22453
▁siècle	-8.22468
▁fais	-8.22704
▁site	-8.22729
▁quelques	-8.23266
té	-8.23372
mment	-8.23761
/	-8.239
▁Pour	-8.23921
▁parc	-8.24101
▁puis	-8.24186
ement	-8.24253
▁principale	-8.24396
▁no	-8.24708
▁voyage	-8.24726
▁cinq	-8.24959
▁mort	-8.24964
▁mer	-8.25069
▁besoin	-8.25105
Unis	-8.25283
▁terre	-8.25301
au	-8.25457
▁million	-8.25463
▁personne	-8.26151
▁bonne	-8.26248
▁part	-8.26464
▁quel	-8.26581
▁scientifiques	-8.26733
▁seul	-8.26957
isme	-8.28461
▁eux	-8.28505
▁travers	-8.28547
vec	-8.28664
▁nouvelle	-8.28844
▁appelé	-8.29724
▁sœur	-8.30074
▁K	-8.30514
▁Par	-8.30546
b	-8.31303
▁moyen	-8.31383
▁chose	-8.31531
▁rien	-8.31867
▁mois	-8.32523
▁quand	-8.32808
▁!...	-8.33208
▁ici	-8.33327
us	-8.33408
▁ski	-8.33711
▁g	-8.33814
▁nuit	-8.33972
▁notre	-8.34029
▁trouver	-8.34482
▁r	-8.34614
et	-8.34738
▁Elle	-8.35397
▁signifie	-8.35401
▁simple	-8.3551
ier	-8.35631
▁pratique	-8.35655
▁début	-8.36027
▁cet	-8.36242
▁pouvez	-8.36697
O	-8.36715
as	-8.36776
▁vos	-8.37086
▁seule	-8.37189
vons	-8.37652
▁années	-8.3768
C	-8.37809
afin	-8.38129
ol	-8.38244
▁culture	-8.3849
▁vol	-8.38497
▁six	-8.38912
histoire	-8.39183
étant	-8.39856
quelle	-8.39987
▁telle	-8.4047
avez	-8.40501
▁tant	-8.40556
▁fond	-8.4074
▁difficile	-8.40823
▁possible	-8.40823
mille	-8.40829
▁manière	-8.40837
▁mieux	-8.40839
▁maison	-8.40914
ure	-8.4108
les	-8.41158
ard	-8.4126
▁prendre	-8.41512
tu	-8.41758
tte	-8.42153
▁niveau	-8.42207
▁zéro	-8.42253
▁parfois	-8.42278
▁quarante	-8.42282
▁cher	-8.4251
▁utilisé	-8.43382
▁compte	-8.44061
▁point	-8.44256
▁exemple	-8.44347
▁dire	-8.44449
I	-8.44878
▁bas	-8.4499
▁police	-8.45172
chez	-8.45306
▁droit	-8.45618
▁îles	-8.45731
ette	-8.46192
▁con	-8.46403
ique	-8.46476
▁soixante	-8.46664
▁R	-8.47066
▁pu	-8.47338
▁port	-8.4747
▁oui	-8.47589
▁livre	-8.47593
▁forme	-8.47786
▁rapport	-8.47916
▁probable	-8.4818
▁déjà	-8.4818
▁madame	-8.48188
▁problèmes	-8.48653
▁fort	-8.48912
▁langue	-8.49025
▁plu	-8.4921
entre	-8.49449
origine	-8.49699
▁type	-8.49718
▁comprendre	-8.49814
▁suite	-8.50054
▁saint	-8.5043
▁quelque	-8.51124
▁vu	-8.5115
▁voilà	-8.51281
▁aurait	-8.51449
▁chef	-8.52178
▁famille	-8.52354
▁grands	-8.52626
▁tel	-8.52735
▁existe	-8.52859
▁moment	-8.52999
▁arrivé	-8.54018
▁meilleur	-8.54029
el	-8.54461
▁commencé	-8.54481
▁propre	-8.54492
ri	-8.54695
▁main	-8.54705
▁2	-8.55379
île	-8.56107
▁journée	-8.5612
▁pouvoir	-8.56129
▁quelle	-8.56161
▁force	-8.56183
▁présent	-8.56847
▁jours	-8.57098
▁dernier	-8.57427
À	-8.57787
▁Terre	-8.57788
▁maintenant	-8.57825
▁celui	-8.57838
tre	-8.57875
▁général	-8.57947
▁haut	-8.57965
ais	-8.58055
▁font	-8.58687
▁pris	-8.58739
▁course	-8.58785
èrent	-8.58843
▁tête	-8.59482
oivent	-8.59482
▁tard	-8.5956
▁travail	-8.59589
▁président	-8.59595
▁ceux	-8.60334
▁unique	-8.60504
▁dé	-8.61058
▁—	-8.61206
▁temple	-8.61278
▁dis	-8.61763
▁donne	-8.61827
v	-8.61827
▁f	-8.6237
▁femmes	-8.6257
▁roi	-8.6264
ul	-8.62852
mb	-8.6317
▁mondiale	-8.63389
▁jean	-8.63861
▁année	-8.63944
▁classe	-8.6405
▁transport	-8.64561
▁choses	-8.6458
▁ministre	-8.64746
▁heures	-8.64785
▁presque	-8.64789
▁devrait	-8.64846
▁pourrait	-8.64943
ine	-8.65368
▁centre	-8.6557
▁W	-8.65735
ir	-8.65785
▁connu	-8.6594
aires	-8.65942
andis	-8.66442
argent	-8.66554
▁matière	-8.66564
▁vitesse	-8.66568
▁cause	-8.66571
▁reçu	-8.66614
même	-8.66657
able	-8.66744
G	-8.66771
▁père	-8.66915
▁base	-8.66961
▁loi	-8.67761
▁aimé	-8.68173
▁public	-8.6824
▁1	-8.68344
▁pourquoi	-8.68423
▁Sud	-8.68433
▁prix	-8.68436
▁ensuite	-8.68516
▁G	-8.68613
ac	-8.6888
▁locale	-8.6901
▁sorte	-8.6921
▁celle	-8.69368
▁points	-8.69469
▁heure	-8.69595
▁différents	-8.69869
▁rend	-8.70188
▁côté	-8.70291
▁matin	-8.70304
ve	-8.70368
sept	-8.7067
▁façon	-8.70905
ront	-8.71731
▁te	-8.71912
▁projet	-8.72023
▁particulier	-8.7223
université	-8.72238
▁population	-8.72308
▁match	-8.72317
5	-8.72448
▁meilleure	-8.72768
▁situé	-8.73004
ayant	-8.73386
huit	-8.73403
▁située	-8.73439
▁visite	-8.73819
▁facile	-8.73863
▁grandes	-8.73957
▁compagnie	-8.74187
▁période	-8.74187
▁terme	-8.74195
▁ligne	-8.74204
▁face	-8.74287
▁effet	-8.74432
co	-8.745
▁serait	-8.74589
▁étudiants	-8.74694
▁contrôle	-8.75681
▁co	-8.75745
um	-8.75935
▁sécurité	-8.7619
▁devant	-8.762
▁cadre	-8.76218
▁Certains	-8.76264
▁comportement	-8.76268
▁Cel	-8.76411
tôt	-8.7644
▁train	-8.76462
rie	-8.76548
▁pont	-8.76579
▁seulement	-8.76716
▁considéré	-8.76739
quel	-8.76878
▁partir	-8.77022
ions	-8.77125
▁Comme	-8.77316
gré	-8.77477
▁important	-8.77481
▁large	-8.77832
apprentissage	-8.78228
▁permis	-8.78228
▁autorités	-8.78239
▁com	-8.78263
▁millier	-8.78456
équipe	-8.78524
▁imp	-8.78524
▁savoir	-8.78531
aine	-8.78578
▁téléphone	-8.7868
▁mesure	-8.78845
▁mis	-8.78889
▁5	-8.78972
▁fer	-8.79155
▁combi	-8.79221
▁utilis	-8.79342
▁cependant	-8.79367
▁?...	-8.79704
▁é	-8.80177
▁corps	-8.8032
▁société	-8.80338
▁miles	-8.80367
▁endroits	-8.80395
▁capita	-8.80425
oire	-8.80695
▁femme	-8.80777
neuf	-8.80823
▁tour	-8.80841
▁saison	-8.80877
▁Nou	-8.81213
▁forte	-8.81582
▁aucun	-8.81799
▁état	-8.81818
▁visa	-8.82041
▁permet	-8.82082
▁homme	-8.82185
▁O	-8.82294
▁aérienne	-8.82466
▁terminé	-8.8256
ot	-8.82632
▁sites	-8.82899
école	-8.83048
▁service	-8.83049
▁fl	-8.83053
▁I	-8.83104
iens	-8.83197
après	-8.83267
ar	-8.83459
▁recherche	-8.83624
▁donné	-8.84343
end	-8.84389
▁dernière	-8.84615
▁longtemps	-8.8462
▁vue	-8.84641
▁taille	-8.84646
▁lumière	-8.84703
▁bord	-8.84724
▁soient	-8.84755
▁théorie	-8.84804
ue	-8.84872
▁facilement	-8.84972
▁zones	-8.85329
▁aller	-8.85349
▁100	-8.85371
asse	-8.85737
na	-8.8595
▁bi	-8.86075
▁offre	-8.86079
▁demande	-8.86131
▁mont	-8.86144
▁minutes	-8.86235
▁sol	-8.86368
▁neuf	-8.86438
▁20	-8.8682
▁vidéo	-8.86835
▁avenue	-8.86836
▁quoi	-8.86836
▁Chine	-8.86839
▁10	-8.8684
énergie	-8.86852
▁hier	-8.86918
▁membres	-8.86923
▁station	-8.87102
▁sommes	-8.87413
▁Cha	-8.87459
heure	-8.87496
▁maladie	-8.87509
▁régions	-8.87698
▁mots	-8.88074
▁11	-8.88152
▁ni	-8.88177
▁français	-8.88253
ville	-8.88271
▁voyageurs	-8.88419
▁Lorsqu	-8.88532
tour	-8.88682
am	-8.88714
th	-8.88732
▁maisons	-8.8879
▁pré	-8.88877
ta	-8.88982
–	-8.89107
▁cinquante	-8.89107
▁neige	-8.89115
vient	-8.8913
▁voulez	-8.89136
▁allez	-8.89145
3	-8.89298
eux	-8.89762
vingt	-8.89815
▁sujet	-8.89835
▁passer	-8.89857
▁pa	-8.90204
art	-8.90655
▁produit	-8.90729
▁importante	-8.90805
▁peur	-8.91021
ut	-8.91166
▁surface	-8.91433
▁mètres	-8.91452
▁santé	-8.91461
▁faible	-8.91537
▁ch	-8.91676
ia	-8.92052
année	-8.92271
▁sais	-8.9285
▁national	-8.9298
▁F	-8.93019
▁blessé	-8.9303
▁bus	-8.93089
ga	-8.93191
▁commence	-8.93469
▁nouvelles	-8.93799
▁processus	-8.93815
▁célèbre	-8.93831
▁humains	-8.94439
accord	-8.94583
homme	-8.94619
▁mot	-8.94947
▁aucune	-8.95022
rez	-8.95243
ton	-8.95374
▁froid	-8.95465
▁k	-8.95624
▁hommes	-8.95725
ous	-8.95751
iste	-8.9577
▁bar	-8.9585
▁essay	-8.95954
▁cour	-8.96024
▁glace	-8.96253
▁développement	-8.96266
4	-8.96394
▁perdu	-8.964
ouest	-8.96655
▁mère	-8.96837
▁conditions	-8.97083
▁bois	-8.97418
▁livres	-8.97457
▁changement	-8.97554
▁vais	-8.97702
▁différentes	-8.97794
▁voie	-8.9817
▁fils	-8.9872
▁touristique	-8.98753
▁relation	-8.98783
▁siège	-8.98789
▁merci	-8.98838
▁notamment	-8.98858
▁rapidement	-8.98902
▁courant	-8.99498
urs	-8.99566
ti	-8.99805
ay	-8.9985
▁30	-8.99993
ards	-9.0009
▁film	-9.0017
▁rare	-9.00246
▁propose	-9.00275
▁aider	-9.00322
ère	-9.00534
▁ami	-9.00807
▁huit	-9.00882
vi	-9.0115
▁comprend	-9.0117
années	-9.0118
▁détermin	-9.01317
▁mauvais	-9.01317
▁nourriture	-9.01317
▁randonnée	-9.01322
Allemagne	-9.01324
▁Après	-9.01382
▁%	-9.01425
ro	-9.0143
▁obtenir	-9.01558
▁marche	-9.01817
▁piste	-9.01919
▁ca	-9.02049
venir	-9.02073
▁politique	-9.02789
▁15	-9.02863
▁travaille	-9.03242
▁sauvages	-9.03433
ver	-9.0344
▁vrai	-9.03644
▁suffisa	-9.03686
▁sait	-9.03904
▁compris	-9.03948
▁risque	-9.0395
▁demain	-9.03951
▁peine	-9.03951
▁destination	-9.03984
avance	-9.04103
vez	-9.04164
▁fa	-9.04234
▁6	-9.04663
avait	-9.04713
do	-9.04845
espace	-9.0495
âge	-9.04988
accident	-9.05006
▁jou	-9.05184
▁longue	-9.05311
océan	-9.05345
▁habitants	-9.05454
▁semble	-9.05479
▁Mal	-9.05636
▁mange	-9.06224
▁Tout	-9.06333
▁permett	-9.06521
▁britannique	-9.06651
▁méthode	-9.06651
▁religion	-9.06651
agence	-9.06652
▁annoncé	-9.06653
▁chacun	-9.06661
▁surtout	-9.06707
▁ra	-9.06731
air	-9.06736
▁date	-9.06971
▁soir	-9.06991
▁crois	-9.0732
▁Ma	-9.07605
▁programme	-9.07608
abord	-9.07727
ille	-9.0773
tion	-9.07747
époque	-9.07769
Afrique	-9.07785
▁pense	-9.07987
▁fonctionne	-9.08166
▁semaine	-9.08301
▁paris	-9.08338
▁parti	-9.08519
▁provoqu	-9.08771
▁présente	-9.08978
im	-9.09084
près	-9.09111
if	-9.09158
▁prêt	-9.0925
▁plein	-9.09401
▁John	-9.09414
▁France	-9.09429
▁spectacle	-9.09429
▁tempête	-9.09429
▁conduit	-9.09429
▁billet	-9.09429
▁relative	-9.0943
▁campagne	-9.09431
▁civilisation	-9.09432
▁charge	-9.09438
▁ciel	-9.09442
▁Pend	-9.09497
▁Jeux	-9.0951
▁physique	-9.09553
ations	-9.09576
▁loin	-9.09586
▁Mais	-9.09612
li	-9.09684
▁ton	-9.09762
▁fonction	-9.09842
▁beau	-9.0985
né	-9.10038
appelle	-9.10406
▁toi	-9.10488
▁24	-9.10526
▁travailler	-9.10537
▁rester	-9.10583
image	-9.10712
▁7	-9.10917
là	-9.1103
▁villes	-9.11069
▁lettre	-9.11333
▁question	-9.11385
▁problème	-9.11394
utiliser	-9.11475
ign	-9.11615
▁4	-9.11679
▁parle	-9.12002
étude	-9.12226
▁position	-9.12286
▁coût	-9.12329
▁juste	-9.12333
▁rendre	-9.12531
▁San	-9.12958
▁parole	-9.13137
▁familles	-9.13368
▁langues	-9.13596
état	-9.13597
▁basé	-9.13844
deux	-9.13873
▁format	-9.14292
▁capacité	-9.14355
▁19	-9.14382
▁directe	-9.14391
▁mi	-9.14419
▁faites	-9.14665
▁série	-9.1489
▁jeunes	-9.15095
▁routes	-9.15117
▁situation	-9.15228
▁plantes	-9.15304
che	-9.15343
▁satellite	-9.15348
▁divers	-9.15403
▁Vo	-9.15571
▁passe	-9.15848
ba	-9.16122
▁principal	-9.16467
avoir	-9.16476
P	-9.16529
7	-9.16541
▁devenu	-9.16596
dessus	-9.16612
▁montre	-9.16739
moi	-9.16739
sion	-9.17062
▁propos	-9.17161
lon	-9.17412
▁scène	-9.17413
▁zone	-9.17539
▁but	-9.17709
▁retour	-9.17798
▁pr	-9.178
▁gros	-9.17914
▁dispose	-9.17945
▁activité	-9.18168
▁Japon	-9.18258
▁atteint	-9.18258
▁individu	-9.18258
▁juillet	-9.18258
▁possibilité	-9.18258
▁menace	-9.18259
▁grâce	-9.1826
▁rouge	-9.18261
▁particulière	-9.18262
Inde	-9.18262
▁voix	-9.18269
▁Nord	-9.18276
▁oh	-9.18316
av	-9.1843
▁provenan	-9.18434
▁environnement	-9.18494
▁assis	-9.18526
▁bo	-9.1856
▁Grande	-9.18725
▁Plus	-9.18861
▁troupes	-9.18906
▁touristes	-9.1906
▁ensemble	-9.19099
ture	-9.1938
▁compar	-9.19558
▁voitures	-9.19682
utilisation	-9.19719
cinq	-9.1976
▁mm	-9.19834
ables	-9.19883
pe	-9.2004
entrée	-9.20214
▁Pa	-9.20312
▁v	-9.20501
▁services	-9.2059
▁montagne	-9.20746
▁fille	-9.2075
▁peuple	-9.20761
▁vivant	-9.20895
ry	-9.20899
urant	-9.21103
▁trait	-9.21217
▁dieu	-9.2134
hôpital	-9.21383
▁excellent	-9.21388
▁commerce	-9.2139
▁revenu	-9.21395
▁gaz	-9.21437
▁signe	-9.21567
▁mé	-9.21632
▁ailleurs	-9.21672
▁dollars	-9.21698
▁déclaration	-9.21741
ni	-9.21838
▁découvert	-9.22018
▁coup	-9.22419
▁garde	-9.22598
▁avis	-9.22634
▁celles	-9.22657
▁réussi	-9.22687
▁spécifiques	-9.22834
émission	-9.22959
idée	-9.22997
ici	-9.23361
son	-9.23385
S	-9.23618
▁établi	-9.23993
Uni	-9.24134
▁soutien	-9.24296
mettre	-9.24452
▁séjour	-9.24608
▁club	-9.24608
▁kilomètres	-9.24608
▁règle	-9.24608
▁télévision	-9.24608
▁couleur	-9.24609
▁affirmé	-9.2461
▁direction	-9.24654
▁études	-9.24678
▁plait	-9.24716
▁connus	-9.24869
▁expérience	-9.24932
w	-9.2513
▁centrale	-9.25198
▁informations	-9.25239
▁dehors	-9.25358
▁connue	-9.25515
▁belle	-9.25554
▁dirige	-9.25704
▁mes	-9.25795
▁manque	-9.26165
▁nations	-9.26198
▁Je	-9.26276
ages	-9.2636
▁cr	-9.26362
▁appelée	-9.26397
land	-9.265
▁accident	-9.26796
ig	-9.26834
▁vo	-9.26872
grès	-9.26889
▁bout	-9.27457
▁connaissance	-9.27494
▁olympiques	-9.27561
ég	-9.27648
sur	-9.27695
▁extrême	-9.2774
ême	-9.27827
▁certain	-9.27886
ma	-9.27891
▁Depuis	-9.27942
▁Soleil	-9.27942
▁douze	-9.27942
▁trouvé	-9.27944
▁construction	-9.27944
▁tremblement	-9.2795
▁New	-9.27952
▁atomes	-9.27953
▁copie	-9.27977
▁60	-9.27978
▁marque	-9.28033
▁café	-9.28083
▁août	-9.28139
lo	-9.28163
ha	-9.28196
id	-9.28366
▁Internet	-9.2842
▁montagnes	-9.28629
▁ser	-9.28663
▁derniers	-9.28818
▁passé	-9.29335
▁fit	-9.29338
om	-9.2935
▁résultats	-9.29358
ley	-9.29583
▁venu	-9.29671
amendement	-9.29745
aime	-9.30156
▁navires	-9.30174
▁quelqu	-9.30314
▁source	-9.3097
▁réserve	-9.31041
▁marché	-9.31101
▁Dr	-9.31194
▁chasse	-9.31249
▁mett	-9.31371
▁radio	-9.31389
accès	-9.3139
▁terrain	-9.3139
▁gouverneur	-9.314
▁république	-9.314
▁éléphants	-9.31402
▁milieu	-9.31404
▁standard	-9.31414
▁vient	-9.31419
▁frère	-9.31421
▁gu	-9.31448
acheter	-9.3146
▁200	-9.31506
▁capable	-9.31604
eh	-9.31612
▁mise	-9.31687
ge	-9.31707
▁parents	-9.31754
▁civil	-9.31824
▁oiseaux	-9.31885
▁noire	-9.31948
▁an	-9.32078
▁...	-9.32293
▁chaises	-9.32468
▁amendement	-9.32649
▁16	-9.32703
▁po	-9.32785
ic	-9.32796
ill	-9.32831
▁jeu	-9.329
▁jeux	-9.32933
▁politiques	-9.32937
ed	-9.33149
qui	-9.33251
1	-9.33276
▁duré	-9.33331
ange	-9.33336
dix	-9.33371
▁américain	-9.33629
économie	-9.33736
tes	-9.33811
▁vents	-9.34022
bo	-9.34057
▁puisse	-9.34234
ya	-9.34426
▁suivi	-9.34605
▁véhicule	-9.34719
▁construit	-9.34799
▁Certain	-9.34822
▁membre	-9.34835
oubli	-9.34867
▁cœur	-9.34961
▁fête	-9.34961
▁pauvre	-9.34961
▁fleuve	-9.34963
▁causé	-9.34965
▁contact	-9.34965
▁lutte	-9.34974
▁pieds	-9.34984
▁veux	-9.34994
▁autant	-9.34999
▁dès	-9.35002
▁connaître	-9.35003
▁bras	-9.35022
▁production	-9.3504
lé	-9.3505
▁actuellement	-9.35086
▁qualité	-9.35114
▁juge	-9.35115
▁commission	-9.35117
▁hor	-9.35127
ag	-9.35321
T	-9.35364
▁vraiment	-9.35406
iers	-9.3558
ak	-9.35621
▁évite	-9.35671
ale	-9.35728
lieu	-9.35766
six	-9.35903
▁manger	-9.36016
▁endroit	-9.3606
ines	-9.36185
▁organisation	-9.36425
▁pêche	-9.36541
to	-9.36566
▁joue	-9.36572
j	-9.36576
objet	-9.36932
B	-9.37005
Europe	-9.3702
▁cellules	-9.37214
▁lire	-9.37257
tenir	-9.37363
▁mars	-9.37397
▁soi	-9.37592
▁ar	-9.37677
ienne	-9.37758
N	-9.37786
ction	-9.37939
▁arrêté	-9.38145
▁vis	-9.38182
▁présenté	-9.38361
è	-9.38364
our	-9.38426
▁populaires	-9.38546
▁cartes	-9.38548
▁bureau	-9.38618
ordre	-9.38631
▁bateau	-9.38631
▁grave	-9.38658
▁Turquie	-9.38665
▁principe	-9.38665
▁tsunami	-9.38665
▁combat	-9.38665
▁efficace	-9.38665
▁Moyen	-9.38665
▁champ	-9.38678
▁quantité	-9.38687
▁Canada	-9.38699
▁viens	-9.3872
▁formation	-9.38726
ng	-9.38793
▁pied	-9.38811
▁soleil	-9.38826
▁pi	-9.3883
▁lundi	-9.38847
▁élevée	-9.39013
▁exige	-9.39096
▁parler	-9.39142
▁sens	-9.39148
▁espèce	-9.39185
▁élections	-9.39207
▁avion	-9.39222
▁br	-9.39268
▁lieux	-9.39282
▁visiter	-9.39311
ante	-9.39352
▁allée	-9.39356
▁feuilles	-9.39491
▁ancienne	-9.39522
▁plages	-9.398
▁Sa	-9.39814
▁photos	-9.39822
ze	-9.39918
▁hôtels	-9.39946
▁objectifs	-9.39946
▁mains	-9.39967
rent	-9.40084
op	-9.40389
ern	-9.40741
ves	-9.40823
ire	-9.40841
hiver	-9.40875
▁pot	-9.41014
▁produits	-9.41036
trois	-9.41115
▁porter	-9.41277
▁pro	-9.41344
▁3	-9.41345
▁droite	-9.41346
▁Re	-9.41358
▁présen	-9.41432
bas	-9.41754
▁vit	-9.41778
▁presse	-9.41817
▁haute	-9.41972
▁appel	-9.41988
▁lit	-9.42091
▁pouv	-9.42139
▁demi	-9.42248
▁dépend	-9.42272
▁indien	-9.42373
▁constitue	-9.42511
▁véritable	-9.42511
▁cinquième	-9.42511
▁debout	-9.42513
▁contenu	-9.42527
▁manifestation	-9.42563
▁poste	-9.4261
▁veut	-9.42614
▁populaire	-9.42641
▁latin	-9.42754
▁perd	-9.42867
▁développé	-9.42928
aison	-9.42964
atique	-9.42972
▁envoyé	-9.43023
▁17	-9.43075
▁liste	-9.43079
▁attaque	-9.4308
▁vive	-9.43188
▁ro	-9.43715
ca	-9.43812
vait	-9.43915
▁chaud	-9.43967
▁carte	-9.43971
▁cri	-9.44184
▁affaires	-9.44212
▁feu	-9.44627
▁table	-9.4464
armée	-9.44912
out	-9.44991
▁frontière	-9.45005
enfant	-9.45127
▁fil	-9.45188
▁mari	-9.45226
▁recherches	-9.4549
rès	-9.45631
▁tôt	-9.45712
▁sports	-9.45904
ob	-9.46033
ales	-9.46103
▁banque	-9.46241
▁officielle	-9.46242
▁gri	-9.46242
▁danger	-9.46377
▁500	-9.46459
▁succès	-9.46511
▁température	-9.46511
▁victime	-9.46511
▁considère	-9.46511
▁davantage	-9.46512
▁vallée	-9.46517
▁paix	-9.46534
ateur	-9.46568
▁sommeil	-9.46568
▁passage	-9.4658
▁mariage	-9.46581
▁mo	-9.46612
▁of	-9.46684
▁auparavant	-9.46696
▁yeux	-9.4671
▁nécessaire	-9.46717
▁publique	-9.46731
▁structure	-9.4674
▁virus	-9.46749
▁met	-9.46784
▁catégorie	-9.46791
▁tourisme	-9.46799
▁proche	-9.46802
▁prépar	-9.46808
▁troisième	-9.46849
▁citoyens	-9.46919
▁titre	-9.47028
▁ordinateur	-9.47089
▁jeune	-9.47204
▁Go	-9.47387
▁vieille	-9.4767
▁agent	-9.47679
tation	-9.47833
▁questions	-9.47856
▁nationale	-9.47961
▁ouvert	-9.48063
▁concerne	-9.48368
avai	-9.48442
▁rencontre	-9.48452
8	-9.48653
F	-9.48918
▁utilisées	-9.48977
État	-9.48995
▁nécessite	-9.49117
▁fr	-9.49122
étaient	-9.49284
offre	-9.49418
▁figure	-9.49597
hi	-9.4962
ssent	-9.49654
ick	-9.49695
ger	-9.49775
▁retard	-9.49809
éd	-9.50234
ad	-9.503
▁indique	-9.50314
▁9	-9.50437
▁tradition	-9.5067
▁North	-9.50678
Amérique	-9.50678
▁conducteur	-9.50678
▁obtenu	-9.50678
▁choc	-9.50678
▁phénomène	-9.50678
▁Guerre	-9.50678
▁Groenland	-9.50679
▁Saint	-9.50681
▁légère	-9.50684
▁autrefois	-9.50687
▁35	-9.50697
▁400	-9.50703
▁rejoint	-9.50709
église	-9.50729
▁Sup	-9.50741
▁création	-9.50748
Zélande	-9.50769
▁affecte	-9.50798
▁réseau	-9.50817
irai	-9.50841
▁Paris	-9.50861
▁salle	-9.50883
▁faune	-9.50911
▁vieux	-9.50913
▁ferme	-9.51063
▁Sur	-9.51088
▁Deux	-9.5111
▁france	-9.51129
▁peux	-9.51137
tendre	-9.51143
▁Air	-9.51146
▁olympique	-9.51162
chet	-9.51254
▁Nouvel	-9.51303
▁pierre	-9.51385
▁lié	-9.51442
▁vont	-9.51443
▁U	-9.51479
▁cents	-9.51545
▁enquête	-9.51606
▁commune	-9.51667
ouverture	-9.51714
▁doct	-9.51756
21	-9.51968
▁demander	-9.52065
▁disponibles	-9.52133
mo	-9.52236
▁sub	-9.5229
▁quitt	-9.52365
▁ob	-9.52537
▁Europe	-9.52566
▁plan	-9.52586
▁aime	-9.52627
▁milli	-9.52633
▁éléments	-9.52645
tro	-9.52717
▁supplémentaires	-9.52812
outefois	-9.52888
ap	-9.52904
▁25	-9.5301
▁Afrique	-9.53221
man	-9.53255
nés	-9.53328
importe	-9.5333
▁fi	-9.53333
intérieur	-9.53339
▁venir	-9.53345
amour	-9.53356
«	-9.53413
organisation	-9.53417
▁w	-9.53755
▁pouvai	-9.53797
▁aura	-9.53875
▁joueurs	-9.54093
▁Ra	-9.5428
mont	-9.54578
éré	-9.54718
aï	-9.54738
ques	-9.54851
▁anti	-9.54876
da	-9.55008
agriculture	-9.55026
▁province	-9.55026
▁responsable	-9.55026
▁réservoir	-9.55026
▁mardi	-9.55026
▁preuve	-9.55029
▁secours	-9.55034
été	-9.55056
▁considérable	-9.55068
▁septembre	-9.55073
▁eaux	-9.55103
▁entier	-9.55103
mais	-9.55156
▁doute	-9.55165
▁regard	-9.55183
▁élevé	-9.55185
og	-9.55197
▁magasin	-9.55212
▁entraîne	-9.55285
▁soldats	-9.55295
gu	-9.55327
▁inclu	-9.55435
po	-9.55496
▁histoire	-9.55767
émie	-9.55853
▁sport	-9.55942
▁sortie	-9.56022
iez	-9.56043
▁patri	-9.5608
ran	-9.56128
irent	-9.56173
▁objets	-9.56184
▁servi	-9.56516
▁photographie	-9.56586
▁américaine	-9.56659
line	-9.56686
▁hiver	-9.56925
▁ancien	-9.57021
▁cré	-9.57036
▁rapports	-9.57191
approche	-9.57239
gue	-9.57611
ong	-9.57806
▁utilisés	-9.57827
▁bou	-9.57841
étranger	-9.57889
▁particip	-9.58368
▁aimera	-9.58538
ient	-9.58722
ises	-9.58798
▁trains	-9.5899
sse	-9.5909
▁tir	-9.59144
ib	-9.59363
▁o	-9.59382
▁per	-9.5943
▁législati	-9.59431
▁départ	-9.59505
▁basée	-9.59549
▁communication	-9.59571
▁dimanche	-9.59571
▁nucléaire	-9.59571
▁exigence	-9.59572
▁jardin	-9.59572
▁lancé	-9.59572
▁révél	-9.59572
▁tendance	-9.59576
▁libre	-9.59577
▁payer	-9.59578
▁réalité	-9.5959
▁conséquence	-9.59625
▁planète	-9.59626
▁roue	-9.59628
ira	-9.59629
▁dépenses	-9.59641
50	-9.59649
▁aimerait	-9.59651
▁nécessité	-9.59652
▁sommet	-9.59668
▁reine	-9.59671
▁onze	-9.59704
▁italien	-9.59735
▁camp	-9.5974
pa	-9.59745
▁stable	-9.59752
▁crayon	-9.59766
▁style	-9.59812
▁entoure	-9.59883
▁page	-9.59932
▁chercheur	-9.59941
▁ressemble	-9.59952
vé	-9.59956
▁aide	-9.60039
▁passant	-9.60157
▁ber	-9.60256
▁annonce	-9.60311
▁majeure	-9.60337
▁nommé	-9.60363
▁grotte	-9.6037
▁qualifié	-9.60374
leur	-9.60408
▁données	-9.60445
▁sauvage	-9.60479
▁touch	-9.6055
▁principales	-9.60579
▁rivière	-9.60679
▁pens	-9.60775
▁Con	-9.60844
▁sent	-9.60965
marins	-9.6115
ite	-9.61206
▁partage	-9.61275
va	-9.61312
▁lac	-9.61446
ana	-9.61488
▁allemande	-9.61551
▁voyager	-9.61724
lin	-9.6185
no	-9.61982
men	-9.62036
▁bâtiments	-9.62097
prennent	-9.62185
éco	-9.62213
par	-9.62338
▁air	-9.6236
▁panne	-9.62472
yn	-9.62484
▁chiens	-9.62512
Australie	-9.626
objectif	-9.62627
K	-9.62641
importan	-9.62658
arrivée	-9.62662
M	-9.6268
endroit	-9.62687
V	-9.62691
▁entend	-9.63238
onde	-9.63259
étai	-9.63312
▁donner	-9.6334
▁international	-9.63419
▁précis	-9.63424
▁équipes	-9.63453
ble	-9.63498
▁central	-9.63572
▁em	-9.63687
▁événements	-9.63705
uf	-9.63737
éro	-9.63855
▁équipe	-9.63861
▁vi	-9.63899
▁proches	-9.64003
ive	-9.64138
▁Hong	-9.64194
▁culturel	-9.64198
▁nature	-9.6428
aff	-9.64307
▁tarif	-9.64315
gène	-9.64332
Bretagne	-9.64333
▁appris	-9.64333
▁forêt	-9.64333
▁Berlin	-9.64333
▁phrase	-9.64333
▁chimique	-9.64333
▁novembre	-9.64334
▁Metro	-9.64334
▁bombe	-9.64334
▁métier	-9.64334
▁commissaire	-9.64334
▁Star	-9.64335
▁changé	-9.64336
▁mutation	-9.64336
▁descend	-9.64337
▁circulation	-9.64346
▁Aucun	-9.64349
▁technique	-9.64362
caractéristiques	-9.64363
▁Kong	-9.64364
▁camping	-9.64369
▁foule	-9.6438
oyau	-9.6439
▁graves	-9.64393
2	-9.64401
US	-9.64404
▁vaut	-9.64411
▁différent	-9.64428
nne	-9.64468
▁produire	-9.64476
▁Gu	-9.64497
▁quatorze	-9.64538
▁signalé	-9.64549
▁historique	-9.646
▁restant	-9.64611
▁couple	-9.64653
▁voyagez	-9.64675
▁Cour	-9.64789
▁avantage	-9.64877
▁40	-9.64921
iles	-9.64986
▁visiteurs	-9.6505
▁finale	-9.65156
ade	-9.65236
▁attention	-9.65272
▁entière	-9.65318
▁similaires	-9.65408
▁rendu	-9.65414
▁bataille	-9.65417
euses	-9.65421
▁pièce	-9.65429
▁document	-9.65438
▁Lo	-9.65518
▁joueur	-9.65572
800	-9.65615
▁chat	-9.65677
▁marine	-9.65703
▁dos	-9.65826
▁faite	-9.65833
▁normale	-9.65918
lent	-9.65948
▁cité	-9.66186
▁flotte	-9.6633
rait	-9.66358
▁pyramides	-9.66423
▁compt	-9.66536
ière	-9.66582
▁tenir	-9.66637
▁rares	-9.66723
▁émission	-9.66838
can	-9.67035
uch	-9.67037
▁image	-9.6718
▁X	-9.67203
enfants	-9.67366
aéroport	-9.67639
esprit	-9.67659
anglais	-9.67679
▁arrivée	-9.67727
▁matériel	-9.67741
▁école	-9.68099
▁consiste	-9.68102
▁documents	-9.68185
▁ha	-9.68263
▁découverte	-9.68316
▁for	-9.684
▁total	-9.6842
tor	-9.68469
▁présenter	-9.68691
aud	-9.68882
▁ét	-9.69046
bu	-9.69134
▁réel	-9.69268
▁boulevard	-9.69333
▁fatigué	-9.69333
▁rugby	-9.69333
▁semblable	-9.69333
▁douleur	-9.69334
▁cheval	-9.69334
▁musique	-9.69334
▁stade	-9.69341
▁majorité	-9.69346
▁lacs	-9.69356
erie	-9.69358
▁réunion	-9.69375
▁essentielle	-9.69378
▁arrive	-9.69382
aide	-9.69382
▁colline	-9.69388
euse	-9.6943
mer	-9.69451
▁gare	-9.69505
▁XVII	-9.69538
▁carrière	-9.69556
▁pilote	-9.69634
▁permettre	-9.69725
▁étudi	-9.69736
▁vent	-9.69787
▁noires	-9.69959
aise	-9.69959
étaire	-9.70046
omer	-9.7025
bre	-9.70278
▁soign	-9.70467
ty	-9.70601
▁village	-9.70602
▁ex	-9.70641
▁logique	-9.70647
▁distance	-9.70731
▁rempli	-9.70814
▁minute	-9.70859
▁article	-9.70861
ord	-9.70919
6	-9.7103
▁savez	-9.71034
aimerais	-9.71087
▁moderne	-9.71144
je	-9.71202
▁étoiles	-9.71294
▁ci	-9.71307
▁trans	-9.71335
▁événement	-9.71393
▁ju	-9.71503
▁cap	-9.7154
▁envisage	-9.71616
▁né	-9.71732
▁val	-9.71897
▁ai	-9.71906
nent	-9.72116
▁arrêt	-9.72377
io	-9.72703
▁composée	-9.72729
▁enregistré	-9.72863
ancien	-9.72923
hôtel	-9.7293
▁dessus	-9.72937
ix	-9.72975
▁aima	-9.7299
dans	-9.73043
voir	-9.73138
vin	-9.73201
▁vas	-9.73256
▁lune	-9.73598
▁japonais	-9.73736
viennent	-9.73862
▁devenue	-9.73964
▁décor	-9.74088
▁déclar	-9.74133
▁divis	-9.74147
▁refus	-9.74257
▁fini	-9.74261
▁ad	-9.74279
▁accepté	-9.74331
▁or	-9.74344
issé	-9.74386
▁nouvel	-9.74482
extérieur	-9.74556
▁caractère	-9.74596
▁choix	-9.74596
▁complexe	-9.74596
▁favorable	-9.74596
▁janvier	-9.74596
▁temporaire	-9.74596
▁âgé	-9.74596
▁débat	-9.74596
▁installations	-9.74596
▁aliments	-9.74597
▁photographe	-9.74597
▁web	-9.74597
▁régime	-9.74602
▁taxes	-9.74609
▁procédure	-9.74609
▁découvrir	-9.74611
▁athlètes	-9.74615
▁sexe	-9.74632
▁connaissez	-9.74666
▁communauté	-9.74668
▁ennemi	-9.74736
absen	-9.74742
▁montré	-9.74776
utilisateur	-9.74794
▁varient	-9.74809
▁russe	-9.74833
▁limites	-9.74841
▁pensez	-9.74901
▁prochaine	-9.74943
▁refusé	-9.74956
▁seize	-9.75005
▁marchand	-9.75031
▁chant	-9.75147
▁puissant	-9.75169
▁regarder	-9.75227
istes	-9.75284
▁personnelle	-9.75328
iques	-9.75386
▁médecine	-9.75401
▁devrai	-9.75562
▁ga	-9.75566
▁siècles	-9.75707
▁former	-9.75817
▁spécial	-9.75844
▁apporté	-9.75853
▁rapide	-9.75885
▁lancer	-9.75889
▁tombe	-9.75921
D	-9.76015
▁domaine	-9.76129
▁dinosaure	-9.76186
ium	-9.76395
▁change	-9.76471
▁voyageur	-9.76471
fs	-9.7651
▁dépass	-9.76538
▁créée	-9.76731
go	-9.77031
▁étrangers	-9.77113
mon	-9.7716
ka	-9.77204
nes	-9.77333
▁col	-9.77372
ition	-9.77453
▁marié	-9.77456
H	-9.77583
▁bis	-9.77835
ast	-9.77997
and	-9.78203
ien	-9.78217
▁plateau	-9.78364
▁inter	-9.7842
média	-9.78428
industrie	-9.78447
indépendance	-9.78473
expérience	-9.78508
parole	-9.78517
▁Av	-9.78517
aller	-9.78528
▁quant	-9.78537
▁local	-9.78545
quatre	-9.78547
environ	-9.7866
▁jo	-9.78672
▁tent	-9.78684
▁pièces	-9.78884
▁continuer	-9.79102
▁Grand	-9.79331
▁anciens	-9.79346
agiss	-9.79398
Italie	-9.79533
▁médecin	-9.79534
▁commun	-9.79551
ball	-9.79578
▁rêve	-9.79796
▁rédui	-9.79821
euil	-9.79866
▁combin	-9.79877
▁viol	-9.79926
▁chauds	-9.79935
▁continent	-9.79945
rier	-9.79947
▁faudra	-9.80078
▁""	-9.80152
ampoule	-9.80152
▁2010	-9.80152
▁Brésil	-9.80152
▁Pacifique	-9.80152
▁Singapour	-9.80152
▁Suède	-9.80152
▁carburant	-9.80152
▁connexion	-9.80152
▁dynastie	-9.80152
▁député	-9.80152
▁liquide	-9.80152
▁marqué	-9.80152
▁masculin	-9.80152
▁minuscule	-9.80152
▁procès	-9.80152
▁péninsule	-9.80152
▁représente	-9.80152
▁technologique	-9.80152
▁télescope	-9.80152
▁Chili	-9.80152
▁disparu	-9.80152
▁atteign	-9.80152
▁conscience	-9.80152
▁couramment	-9.80152
▁cerveau	-9.80152
▁défense	-9.80152
▁lentilles	-9.80152
▁variation	-9.80152
George	-9.80153
▁accusé	-9.80153
▁Premi	-9.80154
habitude	-9.80155
▁Rock	-9.80156
▁bouteille	-9.80159
▁Première	-9.80164
Charles	-9.80165
▁réaction	-9.80166
▁aidé	-9.8017
▁maintien	-9.80175
▁volcan	-9.80181
▁électrique	-9.80206
▁canal	-9.80214
▁explosé	-9.80248
▁avions	-9.80253
▁domestiques	-9.80254
▁espèces	-9.80258
▁remporté	-9.80304
▁pl	-9.80327
▁fallu	-9.80375
▁couvre	-9.8039
▁XI	-9.80396
▁déplacer	-9.80396
▁36	-9.80402
▁tourne	-9.80404
▁décidé	-9.80503
▁ru	-9.80539
▁limité	-9.80541
▁prox	-9.80544
▁lecture	-9.80591
▁É	-9.80621
▁sang	-9.80681
ph	-9.80696
▁affirme	-9.80747
▁mar	-9.80768
▁Runn	-9.80798
▁connaissances	-9.80919
▁retourner	-9.80929
▁culturelle	-9.80969
▁22	-9.80986
▁Du	-9.81018
▁voyages	-9.81036
oir	-9.81046
▁demanda	-9.81107
▁marcher	-9.81147
rgement	-9.8128
▁i	-9.81293
▁bu	-9.81377
hu	-9.81379
antes	-9.81397
▁carrés	-9.81418
▁vite	-9.81455
nu	-9.81551
▁8	-9.81558
▁activités	-9.81607
amp	-9.8163
▁représentants	-9.81648
ppe	-9.81938
▁animal	-9.81941
lles	-9.81949
▁frais	-9.81961
▁suggère	-9.8212
▁navire	-9.82164
▁côte	-9.82171
▁ri	-9.82349
▁violents	-9.82351
▁voler	-9.82371
rons	-9.82379
▁sac	-9.82541
▁(1	-9.8257
▁remonte	-9.82783
▁chutes	-9.82811
▁lo	-9.82823
▁Ro	-9.8293
▁films	-9.8298
▁fenêtres	-9.83045
▁présentes	-9.83157
▁jouer	-9.83306
eu	-9.8334
▁entreprise	-9.83341
9	-9.83411
étend	-9.83506
▁européennes	-9.83515
per	-9.83522
▁exemples	-9.83562
▁offr	-9.83579
▁supérieur	-9.83619
▁patients	-9.8375
▁anglais	-9.83821
▁seconde	-9.83984
ney	-9.84007
agent	-9.84068
ensemble	-9.84398
article	-9.84435
aki	-9.84797
▁sable	-9.84878
▁développ	-9.85003
ago	-9.8505
▁considérée	-9.85054
▁limit	-9.85185
ec	-9.85192
▁dure	-9.85267
▁mesures	-9.85305
nd	-9.85324
▁roul	-9.8565
▁profit	-9.85671
équilibre	-9.85705
▁réalisé	-9.85752
▁possède	-9.85777
▁cu	-9.85973
▁défavorable	-9.86034
▁officier	-9.86034
▁ressources	-9.86034
▁territoire	-9.86034
▁identiques	-9.86034
▁déroule	-9.86034
▁gauche	-9.86035
▁carbone	-9.86035
▁disposition	-9.86039
▁musée	-9.86042
▁soutenir	-9.86042
▁partout	-9.86077
phone	-9.86099
▁capitaine	-9.86127
▁bande	-9.86136
▁directeur	-9.86144
▁entendu	-9.86153
mandé	-9.86207
▁reconstruit	-9.86217
▁sortir	-9.86232
▁néanmoins	-9.86242
▁rec	-9.86273
épid	-9.86276
conseillé	-9.8628
▁accessible	-9.86315
▁retrouvé	-9.86338
▁déjeuner	-9.86344
▁habit	-9.86357
▁to	-9.86535
▁Hu	-9.86587
dore	-9.86592
▁lesquel	-9.86817
▁inciden	-9.86897
▁insectes	-9.86904
▁vêtements	-9.86904
▁aiment	-9.86936
▁blanc	-9.86955
▁américains	-9.87171
▁note	-9.8719
efforts	-9.8739
▁actions	-9.87399
▁placé	-9.8749
enc	-9.87549
▁écrit	-9.87561
assurer	-9.877
▁capacités	-9.87828
▁conseils	-9.87853
he	-9.87883
▁sciences	-9.88118
ack	-9.88194
avis	-9.88208
▁composé	-9.88229
▁chien	-9.88242
▁réponse	-9.88302
▁économique	-9.88331
▁patient	-9.88373
▁cellule	-9.88457
▁jaune	-9.88496
min	-9.88598
▁sort	-9.88603
▁bons	-9.88824
taire	-9.88891
▁respect	-9.88918
annes	-9.88932
▁vois	-9.89056
▁vert	-9.89081
▁mouvements	-9.8911
▁plats	-9.8914
▁courants	-9.89197
und	-9.8928
▁utilise	-9.89305
▁ja	-9.89332
▁chambres	-9.8936
▁fleurs	-9.89414
▁riches	-9.89492
ans	-9.90037
gne	-9.90054
port	-9.90192
▁parties	-9.90267
ey	-9.90272
▁armée	-9.90496
fond	-9.90625
moine	-9.90657
attendre	-9.9078
▁créé	-9.90817
▁travaill	-9.90885
logique	-9.91027
▁enfant	-9.91045
onne	-9.91079
tions	-9.91112
▁génér	-9.91126
établissement	-9.915
▁cache	-9.91532
ns	-9.91577
ly	-9.91583
riété	-9.91587
▁prononc	-9.9171
▁Se	-9.91755
▁varie	-9.91807
olo	-9.91831
▁retrouve	-9.91838
▁continue	-9.91921
▁batt	-9.91941
▁accueilli	-9.9195
▁Co	-9.92009
▁So	-9.92016
ède	-9.92201
▁grec	-9.92223
atmosphère	-9.92284
▁concentrer	-9.92284
▁effectué	-9.92284
▁excursion	-9.92284
▁internationaux	-9.92284
▁occidentale	-9.92284
▁poissons	-9.92284
▁principaux	-9.92284
▁professeur	-9.92284
▁suspect	-9.92284
hydro	-9.92284
▁john	-9.92284
▁protéine	-9.92284
▁thème	-9.92284
▁décès	-9.92284
▁viande	-9.92284
▁chanson	-9.92285
▁romain	-9.9229
▁identifié	-9.92292
sphère	-9.92293
▁tribunal	-9.92294
▁inventé	-9.92297
▁navigation	-9.92299
▁rennes	-9.92305
▁locaux	-9.92307
▁révolution	-9.92308
▁faim	-9.92311
▁micro	-9.92313
▁tension	-9.92331
▁quartier	-9.92335
▁brise	-9.9236
▁mission	-9.92361
▁bateaux	-9.92362
▁revenir	-9.9238
▁chance	-9.92387
▁tiers	-9.92416
▁répondre	-9.92437
▁cuisine	-9.92437
▁concurrent	-9.92468
▁parlez	-9.92475
▁naturelle	-9.92483
▁littéra	-9.92511
▁immédiat	-9.92525
▁quatrième	-9.92557
▁étape	-9.9256
▁vitre	-9.92621
▁originale	-9.92645
aug	-9.92648
▁tournée	-9.92656
▁ouragan	-9.92882
illon	-9.92908
▁organisme	-9.92912
▁aspect	-9.92991
▁grosse	-9.9301
▁espère	-9.93025
▁brut	-9.93085
▁fondée	-9.93347
▁défi	-9.93376
rois	-9.93511
▁paul	-9.93676
▁fournir	-9.93719
▁tornades	-9.93719
▁différences	-9.93721
▁publié	-9.93802
▁buts	-9.93952
▁poursuivi	-9.9397
▁précédent	-9.94065
▁ap	-9.94143
▁Lors	-9.94257
▁lettres	-9.94467
▁retire	-9.94471
des	-9.94494
E	-9.94587
uaire	-9.94675
améliorer	-9.94881
▁décision	-9.94925
▁Wi	-9.95024
▁phase	-9.95025
▁européenne	-9.95041
▁critique	-9.95093
▁riche	-9.95114
▁sou	-9.95168
Xe	-9.95393
éc	-9.9545
▁géant	-9.9555
▁ban	-9.95596
▁contribu	-9.95641
▁voies	-9.95659
mage	-9.95688
▁distincte	-9.957
▁rencontrer	-9.95762
riel	-9.95862
▁modes	-9.95898
▁rest	-9.96102
▁phases	-9.96102
abb	-9.96169
▁époque	-9.96193
▁stimul	-9.96212
▁différente	-9.96262
▁normal	-9.96273
▁bre	-9.96323
▁allemand	-9.96371
▁resté	-9.96387
▁entreprises	-9.96645
tou	-9.96679
oirs	-9.96733
▁tombes	-9.96889
arrière	-9.96908
▁évolu	-9.96939
ui	-9.96963
▁spéci	-9.96976
nos	-9.971
▁distances	-9.97102
▁80	-9.97193
appareil	-9.97231
occasion	-9.97231
pin	-9.97243
rais	-9.9726
annul	-9.97285
R	-9.97302
où	-9.97335
6,	-9.97338
▁mondial	-9.9734
L	-9.97347
oit	-9.97354
ancienne	-9.97357
ours	-9.97404
▁repas	-9.97412
▁00	-9.97494
gi	-9.97567
ju	-9.97592
▁gra	-9.97592
ières	-9.97689
mir	-9.97726
marine	-9.97775
▁organis	-9.97817
auteur	-9.97909
avant	-9.97924
viron	-9.97995
▁court	-9.98116
méricains	-9.98126
▁prise	-9.98332
ule	-9.98473
▁pri	-9.98551
econde	-9.98599
çant	-9.98637
▁répond	-9.98653
▁adapté	-9.98665
▁saut	-9.98682
▁remarqu	-9.98703
▁éducati	-9.98799
▁viv	-9.98869
ège	-9.98874
▁château	-9.9893
▁tribu	-9.9894
▁détail	-9.98948
▁canyon	-9.98951
ONU	-9.98951
▁2020	-9.98951
▁Ainsi	-9.98951
▁Kanjar	-9.98951
▁Russie	-9.98951
▁Sundarbans	-9.98951
▁Texas	-9.98951
▁Washington	-9.98951
▁accusations	-9.98951
▁autochtones	-9.98951
▁bénévol	-9.98951
▁catalan	-9.98951
▁catholique	-9.98951
▁championnat	-9.98951
▁cinéma	-9.98951
▁fruits	-9.98951
▁gamme	-9.98951
▁garçon	-9.98951
▁mercredi	-9.98951
▁météorologique	-9.98951
▁religieux	-9.98951
▁réservation	-9.98951
▁résoudre	-9.98951
▁sanskrit	-9.98951
▁stéréotype	-9.98951
▁Âge	-9.98951
Afghanistan	-9.98951
accu	-9.98951
▁Aujourd	-9.98951
▁originaire	-9.98951
▁raisonnable	-9.98951
▁sucre	-9.98951
▁Francis	-9.98951
orld	-9.98951
▁moitié	-9.98951
électeur	-9.98951
▁philippin	-9.98951
▁XVI	-9.98952
▁Louis	-9.98952
augmenter	-9.98953
▁Bush	-9.98954
▁subsistance	-9.98954
▁manifestants	-9.98955
extrémité	-9.98956
▁plumes	-9.98956
▁alpin	-9.98958
▁planification	-9.98958
▁installé	-9.98958
▁enfin	-9.98959
▁soviétique	-9.9896
▁concert	-9.98962
▁Belg	-9.98963
▁dois	-9.98966
▁2008	-9.98966
▁Goma	-9.98968
▁blanche	-9.98969
▁suscit	-9.9897
▁dangereux	-9.98975
▁solide	-9.98986
▁sombre	-9.98993
▁quotidienne	-9.98995
▁option	-9.99017
▁domination	-9.99021
▁70	-9.99022
▁relie	-9.99032
▁précéde	-9.99038
▁Tom	-9.99048
▁visage	-9.99059
▁Cap	-9.99068
▁soyez	-9.99073
▁muni	-9.99075
▁entraîné	-9.99095
▁pétrole	-9.991
▁justice	-9.99128
quare	-9.9913
▁Casa	-9.99135
▁puisqu	-9.99136
▁gardez	-9.9915
du	-9.99164
▁tests	-9.99185
▁clos	-9.99189
▁vend	-9.99215
▁mor	-9.99243
▁rythme	-9.99243
▁racine	-9.99244
▁surveillance	-9.99244
▁Mol	-9.99249
urine	-9.99256
her	-9.99273
vice	-9.99313
abet	-9.99319
▁clair	-9.99339
ow	-9.99387
▁rendez	-9.99399
▁normalement	-9.99444
archet	-9.99448
▁camper	-9.9947
urgence	-9.99511
▁portable	-9.99542
▁chanteur	-9.99561
▁valeur	-9.99565
▁prison	-9.99573
davi	-9.99573
▁district	-9.99592
▁wagons	-9.99651
▁résident	-9.99668
▁bonnes	-9.99673
▁basse	-9.99694
atif	-9.99761
▁trac	-9.99763
▁préfère	-9.99769
▁quitter	-9.99788
rak	-9.99812
▁intérêt	-9.99825
▁Ph	-9.99897
▁archipel	-9.99942
▁char	-9.99965
nique	-9.99971
▁prévoi	-10.0001
▁voisin	-10.0011
ètes	-10.0018
▁visible	-10.0033
▁dispos	-10.0034
▁adresse	-10.0042
▁vote	-10.0047
▁dommages	-10.0049
▁boissons	-10.0049
▁apprendre	-10.0051
lle	-10.0062
▁annul	-10.0065
ologie	-10.0066
▁systèmes	-10.0072
▁incendie	-10.0081
ements	-10.0097
impôts	-10.0105
▁ph	-10.0116
interprétation	-10.0118
jo	-10.0125
▁clients	-10.0134
▁mur	-10.0134
agir	-10.0137
▁impliqué	-10.0149
▁fonctions	-10.0152
ifs	-10.0158
▁Di	-10.0164
▁menée	-10.0167
▁al	-10.0172
▁régulière	-10.0178
▁34	-10.0181
▁bel	-10.0188
▁indépendante	-10.0197
▁internationales	-10.0198
▁sav	-10.0212
▁chambre	-10.0217
▁bâtiment	-10.022
▁mode	-10.022
▁tué	-10.0239
▁fleur	-10.0242
▁géante	-10.0248
▁infect	-10.025
ami	-10.0256
omp	-10.0265
▁changements	-10.0271
bles	-10.0282
ouvre	-10.0292
ang	-10.0292
cle	-10.0296
▁ouverte	-10.0312
▁fan	-10.0315
▁âge	-10.0326
▁men	-10.033
1,	-10.0335
ex	-10.0337
bourg	-10.0338
▁Toute	-10.0341
▁meurt	-10.0349
▁désor	-10.0361
▁comparé	-10.0375
4,	-10.0393
▁rapides	-10.0393
éz	-10.0396
▁assur	-10.0404
▁modernes	-10.042
▁all	-10.0433
▁apport	-10.0437
▁lions	-10.044
activité	-10.0445
▁tiré	-10.0457
imité	-10.0478
▁rivières	-10.0479
▁néo	-10.0482
▁volé	-10.0486
rose	-10.0488
▁Ar	-10.0489
ki	-10.0499
▁attend	-10.0504
rom	-10.0505
▁confi	-10.0508
uel	-10.0527
▁profond	-10.0547
▁enseign	-10.057
▁transporté	-10.0585
▁18	-10.0587
▁Sch	-10.0591
avocat	-10.0603
îne	-10.0607
▁domin	-10.0608
▁distingu	-10.0609
▁monnaie	-10.0609
▁stratégi	-10.0609
▁victoire	-10.0609
▁étrangère	-10.0609
▁récents	-10.0609
▁cabine	-10.0609
▁gramm	-10.0609
▁superbe	-10.0609
▁diplomatique	-10.0609
▁exerce	-10.0609
▁dizaine	-10.0609
▁constante	-10.061
▁massive	-10.061
▁mélange	-10.061
▁record	-10.061
▁bottes	-10.0611
▁breton	-10.0611
▁stock	-10.0611
▁colonie	-10.0611
▁équipé	-10.0611
▁passagers	-10.0612
▁exprimé	-10.0612
▁précision	-10.0614
empire	-10.0614
bains	-10.0616
▁banc	-10.0617
▁beauté	-10.0617
▁gars	-10.0617
▁pourtant	-10.0618
▁département	-10.062
▁conçu	-10.0621
▁juin	-10.0621
instant	-10.0622
▁outil	-10.0622
▁toutefois	-10.0623
▁silence	-10.0625
▁anciennes	-10.0627
▁personnel	-10.0628
▁contraire	-10.063
own	-10.0631
▁complètement	-10.0635
▁allant	-10.0636
▁financement	-10.0638
▁ref	-10.065
▁active	-10.0651
▁pire	-10.0652
▁typique	-10.0655
▁fermé	-10.0656
▁bal	-10.0657
▁lois	-10.0659
ook	-10.0665
▁affich	-10.0666
▁pal	-10.0668
▁estime	-10.0674
▁seuls	-10.0675
▁gestion	-10.0679
▁soutient	-10.068
▁st	-10.0681
▁conserv	-10.0682
▁repose	-10.0683
enregistrement	-10.0697
▁terminer	-10.0699
▁jolie	-10.0713
▁permettra	-10.0713
▁195	-10.0714
by	-10.0714
▁Th	-10.0716
▁solution	-10.0721
▁déc	-10.073
▁lourde	-10.075
▁crainte	-10.0752
pan	-10.0754
▁av	-10.0762
▁suivre	-10.077
▁auto	-10.0771
▁continu	-10.0795
▁tes	-10.0811
▁tiens	-10.0833
▁tourn	-10.0837
rot	-10.0843
chne	-10.0843
ampe	-10.0847
vis	-10.085
▁courante	-10.0854
▁second	-10.089
▁française	-10.089
▁festivals	-10.0897
▁souffr	-10.0904
▁plat	-10.0913
▁cru	-10.0922
▁thé	-10.0926
up	-10.0927
▁adultes	-10.0928
▁naturel	-10.0948
▁frappe	-10.0981
▁traditionnelle	-10.0983
▁mouvement	-10.0987
▁fenêtre	-10.0987
▁supplémentaire	-10.099
information	-10.0995
▁vente	-10.0996
▁fla	-10.0999
▁groupes	-10.1008
▁Bu	-10.1013
▁Leur	-10.102
▁concern	-10.1021
berg	-10.1023
▁libér	-10.1024
▁privée	-10.1025
▁appelle	-10.1041
▁indépendant	-10.1042
ène	-10.1043
▁écout	-10.1063
▁196	-10.1076
▁contraint	-10.1079
▁lis	-10.1081
▁amis	-10.1086
▁jet	-10.1086
och	-10.11
rice	-10.1133
dre	-10.1138
▁espagnol	-10.1145
ck	-10.1152
cy	-10.1157
▁garder	-10.1161
▁interdit	-10.1186
▁mêmes	-10.1194
▁cal	-10.1201
▁dév	-10.1203
lui	-10.1203
espagnol	-10.1211
entreprise	-10.1212
adresse	-10.1213
attaque	-10.1215
culture	-10.122
▁»)	-10.1223
▁ajouté	-10.1231
▁gagne	-10.1236
▁occupe	-10.1239
nous	-10.1247
▁march	-10.1249
▁distinct	-10.1258
▁1,	-10.1276
▁importants	-10.1278
▁mill	-10.1301
aurai	-10.1304
▁gagn	-10.1305
ouvent	-10.1311
nds	-10.1327
▁structures	-10.1334
▁déplace	-10.1343
▁choisi	-10.1344
▁XV	-10.1348
alité	-10.1369
wa	-10.1374
▁ver	-10.1376
actif	-10.1377
▁magn	-10.1378
▁artistique	-10.1379
▁caméra	-10.1379
▁cavalier	-10.1379
▁fossile	-10.1379
▁iranienne	-10.1379
▁juridique	-10.1379
▁locuteurs	-10.1379
▁neuvième	-10.1379
▁observé	-10.1379
▁positive	-10.1379
▁règne	-10.1379
▁candidat	-10.1379
▁superficie	-10.1379
▁végéta	-10.1379
▁résidence	-10.1379
▁vaccin	-10.1379
▁drogue	-10.1379
▁génétique	-10.1379
▁serpent	-10.1379
▁émise	-10.1379
▁commande	-10.1379
▁tradui	-10.1379
▁tournoi	-10.1379
▁maître	-10.1379
▁toilettes	-10.1379
▁nomination	-10.1379
▁relié	-10.1379
▁défaite	-10.1379
midi	-10.1379
▁demeure	-10.1379
argot	-10.1379
▁opération	-10.1379
▁dormir	-10.138
itude	-10.138
▁zoom	-10.138
▁prétend	-10.138
▁discour	-10.138
▁fuite	-10.138
▁dîner	-10.1381
▁conception	-10.1381
▁nationaux	-10.1382
vasion	-10.1382
▁heurt	-10.1382
▁immédiatement	-10.1383
▁performance	-10.1383
▁sensible	-10.1388
ification	-10.1388
▁talon	-10.1388
▁gala	-10.1389
▁solaire	-10.1389
▁particules	-10.139
▁geste	-10.1391
▁grecque	-10.1393
▁front	-10.1396
▁remet	-10.1398
▁consult	-10.1398
▁survivant	-10.1399
za	-10.1399
▁découvr	-10.14
▁formelle	-10.14
▁furent	-10.14
▁cousin	-10.1402
▁lancement	-10.1404
1000	-10.1409
▁survécu	-10.141
ter	-10.1415
▁régulièrement	-10.1416
▁allons	-10.1417
▁naissance	-10.1421
signé	-10.1422
ham	-10.1424
▁vin	-10.1426
▁informatique	-10.1429
▁noir	-10.1431
▁liées	-10.1434
▁servir	-10.1441
▁dirigeant	-10.1442
▁intention	-10.1444
▁internet	-10.1445
▁participer	-10.1446
impos	-10.1447
▁indiqué	-10.1453
▁envoyer	-10.1453
▁dig	-10.1454
▁pointe	-10.1457
▁facteurs	-10.146
▁accepte	-10.1463
▁paire	-10.1464
▁élève	-10.1467
écriture	-10.1468
▁longueur	-10.1471
▁fonctionnement	-10.1476
engage	-10.1476
rague	-10.1477
eek	-10.148
▁emploi	-10.1481
▁tigre	-10.1487
vo	-10.1493
▁entré	-10.1495
▁marée	-10.1501
▁africaine	-10.1502
▁fourniss	-10.1504
▁z	-10.1509
kha	-10.1515
▁participant	-10.1522
èle	-10.1522
▁penser	-10.1532
▁japonaise	-10.1542
éj	-10.1547
vention	-10.1555
resse	-10.1586
▁essayer	-10.1588
▁intéressants	-10.1601
▁aurez	-10.1604
▁attendre	-10.1609
▁Cet	-10.161
ères	-10.1611
suivre	-10.1615
attendait	-10.1621
ouche	-10.1622
▁idées	-10.1625
▁futur	-10.1628
▁esprit	-10.1645
▁voisine	-10.1652
▁réchauffe	-10.1653
hôtes	-10.1657
▁Quan	-10.167
▁soin	-10.167
pouvant	-10.1676
▁amour	-10.169
ish	-10.1692
▁Com	-10.1694
▁œuvres	-10.1696
ouri	-10.17
▁paysage	-10.1709
▁Da	-10.172
mère	-10.1743
▁intérieure	-10.1744
▁tra	-10.1746
▁serv	-10.1747
▁Ch	-10.175
terre	-10.1753
▁fréquente	-10.1755
▁restaurants	-10.1757
▁dépasse	-10.1776
poser	-10.1779
val	-10.1797
▁chiffre	-10.1816
▁croisière	-10.1817
▁reconnaiss	-10.182
▁chute	-10.1821
▁restaurant	-10.1822
▁gi	-10.1823
▁élément	-10.1823
tra	-10.1823
▁spécifique	-10.1825
▁sainte	-10.1826
xie	-10.1841
▁habitant	-10.1861
▁lég	-10.1862
▁constitué	-10.1867
▁souffre	-10.1871
▁exposition	-10.1887
▁not	-10.1889
▁économiques	-10.1892
▁jaunes	-10.1892
▁impliqu	-10.1902
▁remporte	-10.1922
▁chaude	-10.1934
▁trouvai	-10.1937
30	-10.194
▁pratiqu	-10.1946
▁réputé	-10.1952
▁maladies	-10.1955
em	-10.1958
ip	-10.1961
▁For	-10.1964
arm	-10.1985
▁sé	-10.1986
avenir	-10.1995
▁couvert	-10.2001
▁cultures	-10.2014
arrêt	-10.2018
attend	-10.2022
appel	-10.2033
alerte	-10.2039
▁conservé	-10.2039
octobre	-10.2043
visible	-10.2046
attention	-10.2047
temps	-10.2047
:	-10.2048
Plus	-10.2049
pays	-10.2052
apprendre	-10.2053
ke	-10.2054
▁(14	-10.2058
Fi	-10.2059
▁regarde	-10.2081
riez	-10.2083
▁affecté	-10.2097
▁élevés	-10.2102
win	-10.2119
▁confirmé	-10.2125
▁repos	-10.2127
alement	-10.2129
▁détruit	-10.2138
aider	-10.214
▁morte	-10.2144
▁étranger	-10.2146
▁matchs	-10.2172
▁moyens	-10.2173
▁construi	-10.218
▁État	-10.2182
éanmoins	-10.2182
▁finance	-10.2184
▁molécul	-10.2184
▁gre	-10.2188
ttes	-10.219
▁résid	-10.2196
▁électron	-10.2196
q	-10.2197
way	-10.2203
ô	-10.2206
▁patin	-10.2208
▁multi	-10.2208
▁concept	-10.2209
oiseau	-10.2209
▁tables	-10.2209
▁diff	-10.2209
ance	-10.2209
gh	-10.221
▁télé	-10.2211
▁Allema	-10.2211
▁engendr	-10.2212
Amazone	-10.2212
Antiquité	-10.2212
Auckland	-10.2212
analyse	-10.2212
honneur	-10.2212
zélandais	-10.2212
▁2017	-10.2212
▁Alonso	-10.2212
▁Buffalo	-10.2212
▁Gingrich	-10.2212
▁Gizeh	-10.2212
▁Luxembourg	-10.2212
▁Moriori	-10.2212
▁Norvège	-10.2212
▁Pakistan	-10.2212
▁Taïwan	-10.2212
▁Toutankhamon	-10.2212
▁Virgin	-10.2212
▁bhajan	-10.2212
▁bloquer	-10.2212
▁concentration	-10.2212
▁croûte	-10.2212
▁diagnostic	-10.2212
▁décennies	-10.2212
▁dégât	-10.2212
▁détenu	-10.2212
▁examen	-10.2212
▁gratuit	-10.2212
▁inutile	-10.2212
▁manuscrit	-10.2212
▁pakistanais	-10.2212
▁pollu	-10.2212
▁positif	-10.2212
▁pouces	-10.2212
▁pôle	-10.2212
▁récupér	-10.2212
▁safari	-10.2212
▁soutenu	-10.2212
▁symptômes	-10.2212
▁trafic	-10.2212
▁électoral	-10.2212
▁référence	-10.2212
▁épous	-10.2212
▁douane	-10.2212
▁recevoir	-10.2212
▁gourou	-10.2212
▁griffe	-10.2212
▁Royaume	-10.2212
▁bloc	-10.2212
▁chevaux	-10.2212
Arménie	-10.2212
▁acquérir	-10.2212
▁aviaire	-10.2212
▁chaussures	-10.2212
▁déverse	-10.2212
▁basket	-10.2212
▁cancer	-10.2212
▁volume	-10.2212
ocelot	-10.2212
▁Jérusalem	-10.2212
▁logement	-10.2212
ascension	-10.2212
▁ratifi	-10.2212
▁propriété	-10.2212
▁précipitations	-10.2212
▁lointain	-10.2212
▁cyclone	-10.2212
▁médical	-10.2212
immigration	-10.2212
▁plaisance	-10.2212
▁statu	-10.2212
architect	-10.2212
imprim	-10.2212
▁score	-10.2212
▁absolument	-10.2212
échelle	-10.2212
épic	-10.2212
▁hangi	-10.2212
▁autorisé	-10.2212
▁2016	-10.2212
▁urbain	-10.2212
▁divinité	-10.2213
▁super	-10.2213
▁neuro	-10.2213
▁protons	-10.2213
Orient	-10.2213
▁blogue	-10.2213
▁métaux	-10.2213
▁bébé	-10.2213
▁Trans	-10.2213
DN	-10.2213
▁théorique	-10.2213
▁repasser	-10.2214
▁henri	-10.2214
▁Vénus	-10.2214
▁Reid	-10.2214
▁mineur	-10.2214
omotion	-10.2214
▁2007	-10.2215
▁Asie	-10.2215
▁relev	-10.2215
▁Carol	-10.2215
▁1970	-10.2215
▁itinéraires	-10.2215
▁David	-10.2215
▁Luna	-10.2215
▁éteint	-10.2215
▁Pologne	-10.2216
▁2005	-10.2216
▁magnétique	-10.2217
▁28	-10.2217
▁étions	-10.2218
égard	-10.2218
▁moustiques	-10.2218
▁louis	-10.2218
▁extérieure	-10.2218
▁Chamb	-10.2218
▁Atlantique	-10.2219
▁réglementation	-10.2219
▁conservateur	-10.2219
▁potentielle	-10.2219
adapter	-10.2219
▁géographique	-10.222
▁Tours	-10.222
▁Whi	-10.2221
▁présidentielle	-10.2221
▁souhaite	-10.2221
install	-10.2222
▁fera	-10.2222
▁Seul	-10.2222
▁2009	-10.2223
▁vision	-10.2224
▁Roya	-10.2225
▁tube	-10.2226
▁pren	-10.2227
▁côtés	-10.2228
▁chou	-10.2229
▁Californie	-10.2231
▁plaque	-10.2232
▁océans	-10.2232
▁Ross	-10.2233
▁battre	-10.2235
tueux	-10.2236
▁conduir	-10.2236
rale	-10.2237
▁arts	-10.2239
▁suffit	-10.2241
▁croyai	-10.2241
▁virtuelle	-10.2243
▁vivez	-10.2248
▁voit	-10.2249
▁Haïti	-10.2249
▁proies	-10.2249
▁Fin	-10.225
▁alliance	-10.225
▁universel	-10.2251
▁29	-10.2252
▁albert	-10.2252
▁How	-10.2254
▁Atlant	-10.2257
▁travaillé	-10.226
▁reconstructi	-10.2261
▁James	-10.2262
▁épreuve	-10.2264
▁influence	-10.2264
▁pression	-10.2264
▁substan	-10.2264
▁évalu	-10.2265
hne	-10.2266
▁européens	-10.2266
▁véhicules	-10.227
▁attaqu	-10.2273
▁répandue	-10.2278
▁légalis	-10.2278
▁publication	-10.2284
▁climat	-10.2285
▁marie	-10.2289
▁Tra	-10.2291
▁treize	-10.2293
▁attraction	-10.2294
ué	-10.2296
▁Mart	-10.2298
▁maxim	-10.2298
▁compétences	-10.2301
▁12	-10.2304
▁Ceci	-10.2305
ab	-10.2308
mart	-10.231
▁Monte	-10.231
▁arbre	-10.2322
▁négative	-10.2322
▁isolé	-10.2327
▁parasites	-10.2337
▁atteindre	-10.2338
▁indigènes	-10.2339
▁Jo	-10.2339
▁tropicale	-10.2358
don	-10.2372
Universit	-10.2377
▁Bi	-10.2377
▁dame	-10.2381
▁poursuites	-10.2384
▁habituelle	-10.239
ettes	-10.2404
▁normes	-10.2409
▁ka	-10.2409
▁vienne	-10.2417
▁dieux	-10.2418
▁outre	-10.2428
▁arrière	-10.2429
▁ab	-10.2429
▁contrôl	-10.2432
▁occasion	-10.2433
▁vise	-10.244
▁technologies	-10.2444
▁197	-10.2449
gar	-10.2451
▁Ton	-10.2457
▁extra	-10.247
▁poi	-10.2472
▁fabriqué	-10.2473
▁mani	-10.2476
ov	-10.2483
▁rentrer	-10.2485
informations	-10.249
▁portée	-10.2497
▁mangé	-10.2501
gon	-10.2506
yez	-10.2508
lée	-10.2516
▁obligat	-10.2538
▁lou	-10.2546
▁entrée	-10.2558
évit	-10.2568
▁stimulé	-10.2568
▁supérieure	-10.2569
▁tenai	-10.2573
ces	-10.2581
▁approche	-10.26
▁libéré	-10.2607
chy	-10.2616
▁chiffres	-10.2625
▁croisières	-10.2627
▁Za	-10.2633
▁montr	-10.2658
▁espagnols	-10.2663
▁privées	-10.2677
ngola	-10.268
▁fréquent	-10.2694
▁régulières	-10.27
▁déplaçai	-10.2717
▁texte	-10.2718
▁man	-10.2719
kin	-10.2722
▁Ta	-10.2731
▁malade	-10.2732
▁résultat	-10.2735
▁dirig	-10.2737
eusement	-10.2749
échange	-10.275
▁utilisation	-10.2751
▁pyramide	-10.2754
▁distinctes	-10.2764
▁adulte	-10.2766
▁combiné	-10.2766
▁devoir	-10.2784
▁Qua	-10.2785
ps	-10.2794
▁Bal	-10.2806
▁entrer	-10.2808
▁199	-10.2812
▁degré	-10.2818
Islande	-10.2821
▁veille	-10.2824
▁reconnu	-10.283
▁retrouver	-10.2845
▁dinosaures	-10.2847
▁No	-10.2858
afe	-10.2882
dire	-10.2888
iennes	-10.2891
▁tombeau	-10.2894
▁Lune	-10.291
ative	-10.2912
▁raisons	-10.2913
▁jus	-10.2943
âme	-10.2945
initi	-10.2946
▁comporte	-10.2958
▁grottes	-10.296
cie	-10.2962
▁joli	-10.2979
ider	-10.2984
ibles	-10.2993
tric	-10.2996
▁considér	-10.3008
▁déf	-10.3008
cteur	-10.3012
▁prend	-10.3017
▁formé	-10.3033
▁pierres	-10.3035
▁suit	-10.3045
har	-10.305
issante	-10.305
père	-10.3054
▁Mari	-10.3057
▁américaines	-10.3062
▁accidenté	-10.3069
▁Nation	-10.3073
▁nécessaires	-10.3073
beaux	-10.3075
vécu	-10.3084
dame	-10.3086
▁séparé	-10.3086
èche	-10.3087
▁suffi	-10.3087
▁complète	-10.3088
▁Ne	-10.309
▁Ni	-10.3091
▁gen	-10.3109
▁aérien	-10.3109
▁secr	-10.3116
▁actuel	-10.3119
Park	-10.3119
▁canad	-10.3121
appartement	-10.3121
▁goût	-10.3121
▁liberté	-10.3121
▁médaillé	-10.3121
▁métallique	-10.3121
▁nourrir	-10.3121
▁ordinaire	-10.3121
▁pantalon	-10.3121
▁protéger	-10.3121
▁réalisation	-10.3121
▁réservé	-10.3121
▁snowboard	-10.3121
exploit	-10.3121
▁bagage	-10.3121
▁golf	-10.3121
▁timide	-10.3121
▁successeur	-10.3121
▁sauvé	-10.3121
▁pleut	-10.3121
▁préserv	-10.3121
▁ubu	-10.3121
▁dynam	-10.3121
▁inquiét	-10.3121
▁leçon	-10.3121
▁préféré	-10.3122
▁sœurs	-10.3122
▁réveiller	-10.3122
▁classé	-10.3122
▁plaisir	-10.3122
▁parlait	-10.3123
▁constaté	-10.3123
▁maximum	-10.3123
▁métro	-10.3123
▁expert	-10.3123
▁auberge	-10.3123
▁rejoindre	-10.3124
▁voyons	-10.3124
▁serré	-10.3126
tissement	-10.3126
▁parcours	-10.3127
▁italienne	-10.3127
▁crise	-10.3129
▁répondit	-10.3131
mail	-10.3133
▁aimait	-10.3134
▁parlé	-10.3137
▁attendez	-10.3138
▁compétition	-10.3139
▁géo	-10.3141
zano	-10.3142
▁soirée	-10.3149
▁traitement	-10.3151
èque	-10.3151
▁vaste	-10.3152
▁orientale	-10.3156
▁subir	-10.3157
emper	-10.3161
▁possèdent	-10.3162
▁anniversaire	-10.3162
▁situe	-10.3164
▁consacré	-10.317
▁loup	-10.3173
▁désir	-10.3176
▁chienne	-10.318
era	-10.3186
▁sentier	-10.3189
▁écrire	-10.3194
▁censé	-10.3195
yan	-10.3196
▁ouvrir	-10.3198
lou	-10.3201
▁conn	-10.3202
habitat	-10.3202
▁frappé	-10.3205
udi	-10.3207
▁disait	-10.3209
▁nid	-10.3214
▁confirmée	-10.3217
ash	-10.3221
my	-10.3222
▁écran	-10.3227
▁quinze	-10.3233
▁actuelle	-10.3234
lie	-10.3234
▁montant	-10.3236
ssay	-10.3247
▁transports	-10.3252
▁fur	-10.3252
▁accord	-10.3253
▁commencer	-10.3259
rème	-10.3264
▁tourner	-10.3265
▁extrêmes	-10.3266
▁fou	-10.3268
▁voul	-10.3271
▁musical	-10.3275
chem	-10.3281
ssement	-10.3288
▁totale	-10.3293
▁modèles	-10.3297
▁expériences	-10.3305
▁octobre	-10.3309
▁brun	-10.3319
▁utilisée	-10.3321
▁vivants	-10.3324
venu	-10.3324
▁abrite	-10.3332
▁incit	-10.334
▁peuples	-10.3349
▁filles	-10.335
▁correspond	-10.3359
ain	-10.336
ja	-10.3364
▁mortelle	-10.337
▁émett	-10.337
▁connaiss	-10.3401
▁Ri	-10.3402
abus	-10.3404
▁organisée	-10.3408
taux	-10.3412
▁réput	-10.3414
▁asi	-10.3441
▁souhaité	-10.3452
▁don	-10.3457
▁198	-10.3478
anch	-10.3482
▁réalise	-10.3486
Il	-10.351
▁enver	-10.3512
▁tirer	-10.352
▁tr	-10.3522
hall	-10.3524
▁pêchai	-10.3532
▁sembler	-10.3541
▁tombée	-10.3542
▁sienne	-10.3542
▁Miss	-10.3543
▁longues	-10.3543
sem	-10.3546
affaire	-10.3553
▁transforme	-10.3554
▁mai	-10.3563
arrêter	-10.3565
isation	-10.3571
▁respecté	-10.358
cour	-10.3589
▁compren	-10.362
▁noirs	-10.3638
▁Kh	-10.3651
▁voisins	-10.3671
los	-10.3673
▁tombé	-10.3676
▁passée	-10.3676
▁trou	-10.369
▁symbol	-10.3696
▁remplacé	-10.3697
rap	-10.3702
í	-10.371
▁militaire	-10.3718
▁passeport	-10.372
▁festival	-10.3728
éloign	-10.3734
▁réaliser	-10.3735
▁pensée	-10.3737
▁réponses	-10.3739
▁violent	-10.3745
▁mang	-10.3751
ina	-10.3752
opéra	-10.376
▁termine	-10.3795
courir	-10.3799
▁arriver	-10.3803
▁œuvre	-10.3809
▁étoile	-10.3809
▁armé	-10.381
▁su	-10.3812
bière	-10.3821
solution	-10.3836
ssements	-10.3838
AS	-10.3847
▁impos	-10.385
ud	-10.3852
iras	-10.3861
▁infecté	-10.3876
▁mené	-10.3891
▁remont	-10.3891
▁internationale	-10.391
acte	-10.3922
▁Mo	-10.3923
ennes	-10.3943
étudier	-10.395
▁majeur	-10.395
▁viendra	-10.3953
forme	-10.3955
annonce	-10.3956
espèce	-10.3958
aujourd	-10.3959
alph	-10.3959
existe	-10.3961
nel	-10.3962
▁simples	-10.3962
avion	-10.3966
burg	-10.3968
éducation	-10.397
rid	-10.3986
court	-10.3986
africains	-10.4001
accept	-10.4008
quête	-10.4023
ides	-10.4029
od	-10.4031
▁lame	-10.4032
▁subi	-10.4037
▁tente	-10.404
▁préd	-10.4044
▁Ba	-10.4048
▁lance	-10.4051
▁intérieur	-10.4054
▁coûte	-10.4059
affirm	-10.4065
bel	-10.4065
inter	-10.4066
mond	-10.4074
23	-10.4074
▁sanct	-10.4076
▁brûl	-10.4085
▁reç	-10.4096
paul	-10.4099
gique	-10.4106
III	-10.411
▁journal	-10.4113
▁répand	-10.4114
▁quotidien	-10.4114
▁surviv	-10.4114
hémi	-10.4115
▁major	-10.4118
excellen	-10.4119
obscur	-10.412
érifi	-10.412
▁collabor	-10.412
▁observa	-10.4121
▁commis	-10.4121
accéder	-10.4121
escalade	-10.4121
humanité	-10.4121
lizabeth	-10.4121
▁cavalerie	-10.4121
▁clôture	-10.4121
▁commercial	-10.4121
▁commerciaux	-10.4121
▁composant	-10.4121
▁couvra	-10.4121
▁gên	-10.4121
▁incroyable	-10.4121
▁inférieur	-10.4121
▁judiciaire	-10.4121
▁lendemain	-10.4121
▁logiciel	-10.4121
▁médicament	-10.4121
▁permanent	-10.4121
▁policier	-10.4121
▁produis	-10.4121
▁remplace	-10.4121
▁reprendre	-10.4121
▁rédaction	-10.4121
▁spécialisés	-10.4121
▁suprême	-10.4121
▁vacances	-10.4121
▁vôtre	-10.4121
▁légumes	-10.4121
▁monastère	-10.4121
▁pomme	-10.4121
▁studio	-10.4121
▁ultérieur	-10.4121
▁forfait	-10.4121
▁pénétr	-10.4121
▁encourage	-10.4121
▁récemment	-10.4121
▁chargé	-10.4121
▁artistes	-10.4121
▁croissance	-10.4121
▁possess	-10.4121
▁marquis	-10.4121
▁nuages	-10.4121
▁appartien	-10.4121
lamine	-10.4121
▁professionnelle	-10.4121
▁écrasé	-10.4121
▁détourn	-10.4121
▁forcé	-10.4121
exact	-10.4121
▁casino	-10.4121
▁volonté	-10.4121
▁monument	-10.4121
▁porc	-10.4121
▁vagues	-10.4121
▁fixe	-10.4121
▁mousse	-10.4121
▁périodique	-10.4122
▁profondément	-10.4122
ibilité	-10.4122
▁tentative	-10.4122
▁détaillée	-10.4122
explosion	-10.4122
▁dépression	-10.4122
▁turc	-10.4122
▁respective	-10.4122
▁automatique	-10.4122
▁mentionné	-10.4122
herbe	-10.4122
équipage	-10.4123
hésit	-10.4123
▁quelconque	-10.4123
▁proposition	-10.4123
▁enquêt	-10.4123
▁bassin	-10.4123
onnant	-10.4124
▁détect	-10.4124
▁citer	-10.4125
▁inondations	-10.4125
▁coopération	-10.4125
▁routière	-10.4125
▁crédit	-10.4126
fourmis	-10.4126
▁planche	-10.4126
ecté	-10.4127
▁report	-10.4128
▁actes	-10.4128
▁confortable	-10.4128
▁marquant	-10.4128
▁chanteuse	-10.4129
▁théo	-10.4132
▁niche	-10.4132
▁plis	-10.4132
▁journaliste	-10.4132
aiguille	-10.4133
▁conclure	-10.4136
▁prenez	-10.4136
▁rené	-10.4137
▁reprises	-10.4137
▁parlementaire	-10.414
▁procéd	-10.4142
▁sensation	-10.4143
▁allait	-10.4144
▁accompagné	-10.4144
▁prin	-10.4145
▁vache	-10.4146
▁ajout	-10.4147
▁diffusée	-10.4151
▁confirme	-10.4154
▁niveaux	-10.4155
▁indienne	-10.4159
▁luxe	-10.4161
▁emmen	-10.4162
▁sèche	-10.4163
évolution	-10.4163
▁spirituel	-10.4163
surez	-10.4163
nels	-10.4164
▁56	-10.4164
▁valable	-10.4165
▁sanction	-10.4166
▁sortant	-10.4166
▁atterrissa	-10.4166
▁exécut	-10.4166
▁différemment	-10.4166
▁enveloppe	-10.4166
▁négatif	-10.4166
▁choisir	-10.4167
▁écart	-10.4167
▁aperçu	-10.4167
rovi	-10.4172
▁escarpée	-10.4174
▁disque	-10.4176
▁empêcher	-10.4178
▁attirer	-10.4179
▁ordre	-10.418
▁profiter	-10.4183
▁Et	-10.4183
▁examine	-10.4184
assister	-10.4187
nez	-10.4189
▁crista	-10.419
▁traité	-10.4196
pock	-10.42
▁assurance	-10.4203
▁prêtre	-10.4204
elly	-10.4205
▁envie	-10.4208
▁balle	-10.421
▁battu	-10.4219
▁apparition	-10.4221
▁faciliter	-10.4222
lade	-10.4226
▁chrétien	-10.4226
ntra	-10.4226
▁dotée	-10.423
▁ruines	-10.4232
▁guide	-10.4236
▁transféré	-10.4236
▁cherch	-10.424
mand	-10.4242
▁amendements	-10.4244
▁joué	-10.4244
▁To	-10.4256
ssociation	-10.4257
léments	-10.4258
▁quart	-10.4268
▁difficultés	-10.4273
itan	-10.4277
▁essai	-10.4281
▁He	-10.4282
▁disant	-10.4287
Ne	-10.4304
▁expression	-10.4309
▁2,	-10.431
iation	-10.4312
▁équipement	-10.4313
▁renseigne	-10.4314
▁éducation	-10.4318
▁légers	-10.4318
▁précisé	-10.4319
oza	-10.4319
▁classement	-10.432
lais	-10.4321
▁clé	-10.4325
liens	-10.4337
ongo	-10.4342
▁étroite	-10.4343
▁traversant	-10.4344
▁éviden	-10.4346
▁Rea	-10.4348
▁royale	-10.4349
▁forment	-10.4372
affaires	-10.4388
▁cible	-10.4388
▁direct	-10.4395
ista	-10.4399
▁GP	-10.44
▁cérémonies	-10.4405
▁Vers	-10.4406
▁prévus	-10.4407
envoie	-10.4408
▁vendus	-10.4408
Or	-10.441
▁sch	-10.4414
▁scènes	-10.4415
nie	-10.4418
cides	-10.4424
▁selle	-10.4428
uk	-10.4432
côtière	-10.4437
olle	-10.444
effondre	-10.4442
omité	-10.4444
pétition	-10.4445
▁blessures	-10.4449
administration	-10.445
atica	-10.4452
▁nation	-10.4454
▁formats	-10.446
▁14	-10.446
éop	-10.4463
▁illégale	-10.4473
lus	-10.4476
▁aéroport	-10.4478
infection	-10.4483
ling	-10.4485
▁traditionnels	-10.4495
pho	-10.4498
▁nage	-10.4505
voyant	-10.4505
naire	-10.4506
▁coupés	-10.4527
▁fédéral	-10.4539
▁importan	-10.4542
▁senti	-10.4543
▁infectée	-10.4544
▁recon	-10.4545
▁pensées	-10.4546
▁sy	-10.4551
▁constituée	-10.4555
had	-10.4556
▁pla	-10.4562
blanc	-10.4564
rade	-10.4571
sign	-10.4573
▁coupé	-10.4578
▁loc	-10.4579
▁Cong	-10.4581
▁autrement	-10.4581
▁malades	-10.4583
venait	-10.4584
▁dés	-10.4587
▁accords	-10.4593
▁peint	-10.46
▁courte	-10.4602
bet	-10.4624
Est	-10.463
▁économie	-10.4631
mier	-10.4631
nat	-10.4642
den	-10.4646
tribution	-10.4648
sus	-10.4657
▁acheté	-10.4665
▁naturels	-10.4676
bour	-10.4677
tien	-10.4688
isse	-10.4706
▁Han	-10.4708
vie	-10.4723
dam	-10.4727
▁unité	-10.4746
▁Po	-10.4768
▁critiques	-10.4772
linge	-10.4776
▁Z	-10.4795
89	-10.4803
▁concentré	-10.4807
▁décrit	-10.4807
▁associé	-10.4807
obligation	-10.4807
▁île	-10.4808
83	-10.4815
▁traditionnel	-10.482
▁importe	-10.4822
hôte	-10.4828
▁condition	-10.4836
car	-10.484
62	-10.4842
▁scientifique	-10.4849
▁client	-10.4854
▁bru	-10.4855
▁sugg	-10.4858
▁science	-10.4864
nier	-10.4871
▁Mu	-10.4876
migré	-10.4899
monter	-10.49
▁suivie	-10.491
▁défini	-10.4928
▁Cu	-10.4928
▁villages	-10.4948
Io	-10.495
▁placée	-10.4956
▁bless	-10.496
▁sorti	-10.4961
off	-10.4965
▁Australie	-10.4972
▁sp	-10.4978
ski	-10.4981
▁évide	-10.4989
▁pêch	-10.4989
▁médi	-10.4992
▁Mas	-10.4997
▁importantes	-10.4998
habite	-10.5006
▁fabriqu	-10.5011
▁frappa	-10.5016
essai	-10.5022
mètre	-10.5029
▁45	-10.5031
▁confront	-10.5034
icule	-10.5049
▁trous	-10.5056
hébergement	-10.5062
limitée	-10.5062
▁saisons	-10.5063
atteindre	-10.5064
incendie	-10.5065
archipel	-10.5065
É	-10.5066
continent	-10.5067
Nouvel	-10.5068
ordinateur	-10.5068
Internet	-10.5068
;	-10.507
économi	-10.5076
oiseaux	-10.5077
22	-10.508
enquête	-10.5085
clé	-10.5088
▁mainten	-10.5094
▁Sant	-10.5103
▁plant	-10.5105
▁comport	-10.5106
éclaration	-10.5119
char	-10.5121
nière	-10.5125
▁plans	-10.5139
tiques	-10.514
▁48	-10.5144
▁suivant	-10.5144
▁tropical	-10.5146
▁familial	-10.5146
▁signifi	-10.5146
▁répandu	-10.5153
chev	-10.5154
innes	-10.5162
Th	-10.5165
ulaire	-10.5167
▁claire	-10.5168
▁devin	-10.5172
▁escarp	-10.5173
érato	-10.5175
univers	-10.5177
ani	-10.518
▁publiques	-10.5183
▁communes	-10.5187
▁polo	-10.5188
▁limitée	-10.5189
▁cens	-10.519
▁virtuel	-10.519
▁flor	-10.5192
▁appare	-10.5196
▁diffus	-10.5199
alini	-10.5203
ald	-10.5203
inspect	-10.5205
▁All	-10.5205
▁veu	-10.5207
▁hôtel	-10.521
▁recommand	-10.5214
▁conclu	-10.5216
▁anim	-10.5218
▁potentiel	-10.5222
éclair	-10.5223
alheureusement	-10.5224
▁colli	-10.5224
▁célébr	-10.5224
ospital	-10.5224
glob	-10.5225
échec	-10.5226
▁trompe	-10.5227
igh	-10.5227
ourquoi	-10.5228
Espagn	-10.5228
élimin	-10.5228
joindre	-10.5228
ü	-10.5229
▁coréen	-10.5229
▁sikh	-10.523
▁Vén	-10.523
épublique	-10.5231
soft	-10.5232
accueil	-10.5232
▁réfléchi	-10.5232
▁Qui	-10.5232
▁bouddhis	-10.5232
▁Yo	-10.5232
"""	-10.5232
-19	-10.5232
Argentin	-10.5232
Arizona	-10.5232
Pétersbourg	-10.5232
UNESCO	-10.5232
Utah	-10.5232
]	-10.5232
alcool	-10.5232
aménagement	-10.5232
humidité	-10.5232
ittsburgh	-10.5232
Équateur	-10.5232
édération	-10.5232
ō	-10.5232
▁802.11	-10.5232
▁Barcelon	-10.5232
▁Bichkek	-10.5232
▁Cambodge	-10.5232
▁Charlotte	-10.5232
▁Dunlap	-10.5232
▁FBI	-10.5232
▁Floride	-10.5232
▁GMT	-10.5232
▁Galapagos	-10.5232
▁Galápagos	-10.5232
▁Jourdain	-10.5232
▁Londres	-10.5232
▁Méditerranée	-10.5232
▁Paraguay	-10.5232
▁Siminoff	-10.5232
▁Vancouver	-10.5232
▁alcoolisées	-10.5232
▁antiquité	-10.5232
▁circonstances	-10.5232
▁collectif	-10.5232
▁colonial	-10.5232
▁complexité	-10.5232
▁conflit	-10.5232
▁coutumes	-10.5232
▁câble	-10.5232
▁diabète	-10.5232
▁diplômé	-10.5232
▁décisive	-10.5232
▁démontré	-10.5232
▁endémique	-10.5232
▁entretenu	-10.5232
▁festivités	-10.5232
▁financière	-10.5232
▁fissures	-10.5232
▁focale	-10.5232
▁fosse	-10.5232
▁février	-10.5232
▁glacier	-10.5232
▁graffitis	-10.5232
▁handicap	-10.5232
▁luminosité	-10.5232
▁mammifères	-10.5232
▁militant	-10.5232
▁mosasaure	-10.5232
▁météor	-10.5232
▁nettoy	-10.5232
▁observer	-10.5232
▁pharaon	-10.5232
▁philosophi	-10.5232
▁problématique	-10.5232
▁promulgué	-10.5232
▁préalable	-10.5232
▁pèlerin	-10.5232
▁rayonnement	-10.5232
▁renifl	-10.5232
▁revanche	-10.5232
▁résonance	-10.5232
▁sanguin	-10.5232
▁slalom	-10.5232
▁soupçonn	-10.5232
▁sterling	-10.5232
▁supprimé	-10.5232
▁surchauffe	-10.5232
▁suspendu	-10.5232
▁toxiques	-10.5232
▁traduction	-10.5232
▁transformé	-10.5232
▁trône	-10.5232
▁tuberculose	-10.5232
▁tâche	-10.5232
▁yacht	-10.5232
▁épisode	-10.5232
▁œufs	-10.5232
Indus	-10.5232
ystic	-10.5232
▁Baltique	-10.5232
▁Costello	-10.5232
▁Finlande	-10.5232
▁Kenya	-10.5232
▁Suisse	-10.5232
▁York	-10.5232
▁champignon	-10.5232
▁chauff	-10.5232
▁chèvres	-10.5232
▁corruption	-10.5232
▁craignai	-10.5232
▁croyance	-10.5232
▁débarqu	-10.5232
▁funérai	-10.5232
▁londres	-10.5232
▁mémoire	-10.5232
▁mémori	-10.5232
▁neutrons	-10.5232
▁posséd	-10.5232
▁réacteur	-10.5232
▁épaules	-10.5232
▁Pékin	-10.5232
▁moindre	-10.5232
UTC	-10.5232
▁Ya	-10.5232
▁habitués	-10.5232
▁manager	-10.5232
▁navette	-10.5232
▁plasma	-10.5232
▁évent	-10.5232
▁Templ	-10.5232
▁Fernand	-10.5232
▁aimions	-10.5232
▁rongeur	-10.5232
▁Danielle	-10.5232
▁meutes	-10.5232
▁Robert	-10.5232
▁critère	-10.5232
▁préférable	-10.5232
▁savane	-10.5232
▁transmissi	-10.5232
▁Arias	-10.5232
▁Perry	-10.5232
▁Singh	-10.5232
▁séjourner	-10.5232
▁Web	-10.5232
escrime	-10.5232
arrache	-10.5232
▁glisse	-10.5232
▁privilège	-10.5232
▁Haut	-10.5232
▁yoga	-10.5232
▁collecte	-10.5232
▁Picchu	-10.5232
▁introduits	-10.5232
▁machine	-10.5232
▁primate	-10.5232
▁précieuse	-10.5232
▁prolongé	-10.5232
▁ethnique	-10.5232
▁intuiti	-10.5233
▁matur	-10.5233
▁radars	-10.5233
▁Geo	-10.5233
▁Romain	-10.5233
▁Harappa	-10.5233
▁côtiers	-10.5233
iendront	-10.5233
▁minimum	-10.5233
▁caché	-10.5233
▁lésions	-10.5233
▁Romney	-10.5233
▁rétabli	-10.5233
▁Alex	-10.5233
▁Fall	-10.5233
▁Radio	-10.5233
▁1979	-10.5233
▁liège	-10.5233
cesseurs	-10.5233
▁imprimée	-10.5233
▁routi	-10.5233
▁budget	-10.5233
▁responsabilité	-10.5233
▁Show	-10.5233
▁1940	-10.5233
▁2011	-10.5233
▁absolue	-10.5233
▁fascinant	-10.5233
▁pentes	-10.5233
▁excus	-10.5233
▁rugi	-10.5233
▁téléphonie	-10.5233
▁boomerang	-10.5233
▁liaison	-10.5233
▁curry	-10.5233
▁brisé	-10.5233
▁déclencheur	-10.5234
▁radioactif	-10.5234
▁portugais	-10.5234
▁pressé	-10.5234
▁Gate	-10.5234
▁étiez	-10.5234
▁soulev	-10.5234
ingéni	-10.5234
▁perception	-10.5234
▁lunettes	-10.5234
▁usage	-10.5234
▁otage	-10.5234
▁1995	-10.5234
▁binaire	-10.5234
Antarctique	-10.5234
Alexandre	-10.5234
▁Révolution	-10.5235
▁absent	-10.5235
▁républicain	-10.5235
▁horloges	-10.5235
▁téléphonique	-10.5235
▁fusil	-10.5235
avid	-10.5235
roven	-10.5235
▁semelle	-10.5235
▁célébrité	-10.5235
▁digue	-10.5235
▁achevé	-10.5235
▁boutiques	-10.5235
spagnols	-10.5235
▁Pays	-10.5235
▁multipl	-10.5236
▁120	-10.5236
▁Sho	-10.5236
▁Iran	-10.5236
▁poussière	-10.5236
▁protestation	-10.5237
▁Hall	-10.5237
▁retourné	-10.5237
▁taxi	-10.5237
▁socialis	-10.5237
▁tenu	-10.5237
▁lucide	-10.5237
onome	-10.5238
▁horaires	-10.5238
▁patineur	-10.5238
▁64	-10.5238
▁ressortissant	-10.5238
échapper	-10.5238
▁échecs	-10.5239
▁Johnson	-10.5239
ifique	-10.5239
▁belge	-10.5239
▁Chha	-10.524
▁défendu	-10.524
▁prisonnier	-10.524
▁Feli	-10.524
▁Nad	-10.5241
▁testé	-10.5241
▁Sky	-10.5242
▁prononcés	-10.5242
▁pH	-10.5242
▁chauss	-10.5242
IRM	-10.5242
▁pénale	-10.5243
▁interactif	-10.5243
▁Maro	-10.5243
▁venez	-10.5243
▁pano	-10.5244
▁manche	-10.5245
▁échoué	-10.5245
▁mention	-10.5245
▁rappelle	-10.5248
▁environnemental	-10.5249
dit	-10.5249
▁charles	-10.525
▁raides	-10.525
▁recommandation	-10.5251
▁verre	-10.5251
▁objectif	-10.5252
ailles	-10.5252
▁lyon	-10.5252
▁tibétain	-10.5252
épaisseur	-10.5253
▁commentaires	-10.5253
▁2004	-10.5253
▁montage	-10.5254
▁phage	-10.5254
occuper	-10.5254
▁richesse	-10.5256
▁plaintes	-10.5257
▁pourvu	-10.5257
USA	-10.5258
▁capturé	-10.526
▁She	-10.5261
▁jeudi	-10.5262
▁conserve	-10.5262
▁Kir	-10.5265
▁violentes	-10.5265
▁primaire	-10.5265
▁Autre	-10.5265
▁antoine	-10.5267
▁mix	-10.5268
nstitut	-10.5268
▁dangereuse	-10.5269
▁voulait	-10.527
thiopie	-10.527
▁Mara	-10.5272
▁nager	-10.5272
▁invité	-10.5273
▁repéré	-10.5276
▁faisons	-10.5276
▁gagné	-10.5277
▁réussite	-10.5278
▁devri	-10.5279
umineuse	-10.5281
▁hauteur	-10.5282
▁attitude	-10.5283
▁scolaire	-10.5283
▁polonais	-10.5283
▁abattu	-10.5284
toi	-10.5284
▁coin	-10.5285
▁réalisées	-10.5287
▁chinoise	-10.5288
▁Tri	-10.5289
▁sélection	-10.5291
▁masse	-10.5292
▁sûrement	-10.5293
▁160	-10.5293
▁acceptées	-10.5294
bleu	-10.5295
▁code	-10.5295
agisse	-10.5296
▁Kar	-10.5299
▁retraite	-10.53
▁avril	-10.5304
▁décide	-10.5306
▁ferez	-10.5306
▁Dar	-10.5306
▁Nu	-10.5309
▁dessous	-10.5309
▁alt	-10.531
▁(3	-10.5312
▁Har	-10.5315
▁bientôt	-10.5316
▁constitution	-10.5319
▁Gre	-10.532
▁familiale	-10.5321
adaptation	-10.5325
▁applica	-10.5325
rctique	-10.5326
▁hostile	-10.5326
▁Entre	-10.5327
▁fu	-10.5332
▁envahir	-10.5333
cien	-10.5334
▁Fre	-10.5338
▁franchiss	-10.5341
▁équatorien	-10.5344
▁°	-10.5344
▁impact	-10.5344
▁sortes	-10.5345
▁terrestre	-10.5345
▁réserver	-10.535
plier	-10.5351
▁fortune	-10.5354
▁compagnons	-10.5355
▁pâtisseries	-10.5355
▁réductions	-10.5355
▁Maoris	-10.5355
▁blogs	-10.5355
▁félins	-10.5355
▁Mont	-10.5357
▁remise	-10.5357
nami	-10.5359
▁procure	-10.5361
▁Ital	-10.5362
lors	-10.5363
▁Gran	-10.5365
▁Hsie	-10.5365
▁Massa	-10.5368
▁délivré	-10.5373
▁sources	-10.5374
▁90	-10.5376
▁marchés	-10.5381
ép	-10.5383
étiques	-10.5384
▁fri	-10.5384
▁Lak	-10.5386
▁appellent	-10.5387
▁parlée	-10.5396
▁anc	-10.5397
▁suiv	-10.5402
ilité	-10.5402
▁venus	-10.5404
▁moteur	-10.5406
▁biologiques	-10.5406
▁Mit	-10.5411
▁mobile	-10.5414
roux	-10.5421
▁Cor	-10.5426
bon	-10.5427
▁hébergement	-10.5428
événements	-10.5437
▁réelle	-10.5449
▁souffle	-10.5455
▁partielle	-10.5455
▁débutant	-10.5465
azo	-10.5467
▁australien	-10.5475
2,	-10.5477
▁interrog	-10.548
éfie	-10.5489
▁Blacks	-10.5502
▁photons	-10.5503
▁West	-10.5503
▁générations	-10.5504
▁poussé	-10.5509
▁bactéries	-10.551
▁rang	-10.551
▁provoqué	-10.5512
marin	-10.5515
▁bit	-10.5517
▁Pu	-10.5519
▁tomber	-10.5533
▁affectées	-10.5537
▁duc	-10.5542
▁troubles	-10.5546
▁rose	-10.5547
▁définiti	-10.5548
▁auteur	-10.5552
▁géologiques	-10.5552
ceaux	-10.5564
ieux	-10.5565
▁Bab	-10.5568
▁humaines	-10.5573
▁Né	-10.5579
▁industrie	-10.5583
arter	-10.5586
▁indépendance	-10.5594
▁Form	-10.56
▁compter	-10.5601
▁offrir	-10.5601
▁inscrits	-10.5602
▁pluies	-10.5602
rich	-10.5603
▁cad	-10.5604
▁reconnue	-10.5604
hey	-10.5605
▁boules	-10.5608
▁appareils	-10.561
▁monter	-10.5611
kg	-10.5613
▁arrêtée	-10.5617
atifs	-10.5631
▁australiens	-10.5637
▁maire	-10.565
ances	-10.5657
lor	-10.5658
▁50	-10.5671
▁Cinq	-10.5674
▁Pet	-10.568
mposition	-10.5683
éloigne	-10.5686
▁certainement	-10.5686
53	-10.5686
▁contrainte	-10.5689
mag	-10.5694
▁meurtr	-10.5699
▁militaires	-10.5702
▁passeports	-10.5702
▁ordres	-10.5704
▁Her	-10.5712
▁agiss	-10.5712
▁limitées	-10.5713
▁semaines	-10.5717
pération	-10.572
▁Mus	-10.5724
▁Kr	-10.5734
▁fourni	-10.5741
▁prends	-10.5745
▁rapporté	-10.5747
▁textes	-10.5753
▁chefs	-10.5754
PD	-10.5762
▁Noo	-10.577
▁sép	-10.5778
ky	-10.5793
VI	-10.5796
▁expositions	-10.5804
▁Ng	-10.5816
▁photo	-10.5819
▁pousse	-10.582
▁Ann	-10.5823
▁ouvr	-10.5829
autorité	-10.584
▁version	-10.5846
▁traditionnelles	-10.5858
▁lien	-10.5859
▁tire	-10.588
▁charm	-10.5883
ple	-10.589
▁lever	-10.5897
inde	-10.59
événement	-10.5914
▁blessés	-10.5926
ii	-10.5938
▁chars	-10.5939
enregistrer	-10.5947
▁Tou	-10.5951
▁décisions	-10.5958
chu	-10.596
▁Rom	-10.5965
▁précédents	-10.5966
▁rem	-10.5968
tlantique	-10.5995
▁espace	-10.5997
sule	-10.6001
▁écrits	-10.6015
▁étudie	-10.6024
oud	-10.6025
▁Fair	-10.6041
▁conseil	-10.6042
achu	-10.6044
roy	-10.6051
▁sujets	-10.6071
écri	-10.6075
▁bruit	-10.6084
▁blessure	-10.6084
impôt	-10.6089
▁disponible	-10.6093
éditation	-10.6098
▁chaise	-10.6099
▁averti	-10.61
▁vivr	-10.61
300	-10.6102
▁inscrit	-10.6102
▁plage	-10.6104
▁boule	-10.6108
anda	-10.6108
▁pluie	-10.6111
▁domaines	-10.6114
▁lait	-10.6116
▁Mer	-10.6118
▁promi	-10.6126
76	-10.6135
▁voy	-10.614
▁prises	-10.6152
PS	-10.6155
érer	-10.6158
▁emport	-10.6167
▁suivante	-10.617
lann	-10.6177
▁sexuel	-10.6183
▁rentre	-10.619
▁royal	-10.6201
▁lave	-10.6215
▁franco	-10.6219
▁go	-10.6219
▁toit	-10.6219
hal	-10.6221
▁entières	-10.6221
▁batailles	-10.6228
▁souffl	-10.6236
▁béni	-10.6242
aît	-10.625
▁états	-10.6281
sme	-10.6297
gny	-10.63
empêch	-10.6313
emploi	-10.6315
intérêt	-10.6315
effet	-10.6319
qua	-10.632
»	-10.6321
▁organisé	-10.6322
jean	-10.6334
▁paraît	-10.6335
▁dessin	-10.6352
▁préf	-10.6358
quérir	-10.6365
dieux	-10.6373
▁durer	-10.638
poli	-10.638
auf	-10.6383
▁prochain	-10.6397
▁inf	-10.6408
▁présiden	-10.6412
▁franchi	-10.642
▁Ou	-10.6425
bouill	-10.6426
iquet	-10.6426
▁appareil	-10.643
mêmes	-10.6438
▁fall	-10.6438
ographie	-10.6444
▁préoccup	-10.6451
▁plaint	-10.6455
▁allé	-10.6457
▁courage	-10.6458
achète	-10.6461
▁illustr	-10.6465
▁roman	-10.6469
action	-10.647
ément	-10.6474
▁stand	-10.6474
▁indiqu	-10.6475
▁interne	-10.6477
▁annoncée	-10.6481
▁villa	-10.6481
semblait	-10.6482
accompagne	-10.6482
ú	-10.6482
▁disput	-10.6482
agriculteur	-10.6482
iggins	-10.6482
immense	-10.6482
obstacle	-10.6482
▁appréci	-10.6482
▁assassiné	-10.6482
▁bête	-10.6482
▁conférence	-10.6482
▁emprunter	-10.6482
▁exemplaires	-10.6482
▁françois	-10.6482
▁instantané	-10.6482
▁modification	-10.6482
▁patience	-10.6482
▁philosophe	-10.6482
▁remercie	-10.6482
▁réflexion	-10.6482
▁transformation	-10.6482
▁travaux	-10.6482
▁vainqueur	-10.6482
zerbaïdjan	-10.6482
▁conduis	-10.6482
▁marcof	-10.6482
▁opinion	-10.6482
▁succède	-10.6482
▁dominicaine	-10.6482
▁médaille	-10.6482
▁chapelle	-10.6482
▁soudain	-10.6482
▁vierge	-10.6482
▁conseiller	-10.6482
▁exactement	-10.6482
▁augmenté	-10.6482
interromp	-10.6482
▁sacrifi	-10.6482
▁quasi	-10.6483
nçon	-10.6483
humeur	-10.6483
▁agréable	-10.6483
éveil	-10.6483
▁indications	-10.6483
onstantin	-10.6483
▁édition	-10.6483
▁sacré	-10.6483
▁relève	-10.6484
▁colonel	-10.6484
neuve	-10.6484
▁pêchions	-10.6484
▁aimaient	-10.6484
▁sonnette	-10.6484
▁pacifique	-10.6484
▁théâtre	-10.6484
▁puits	-10.6485
▁ministère	-10.6485
andré	-10.6486
▁triste	-10.6487
corp	-10.6487
▁relais	-10.6488
▁chic	-10.6488
olive	-10.6488
▁irez	-10.6489
▁guéri	-10.6489
▁cogn	-10.6489
rveux	-10.6489
▁personnage	-10.6489
▁carrosse	-10.649
▁3,	-10.649
écrivain	-10.649
▁voici	-10.6491
▁souffrance	-10.6491
▁four	-10.6491
▁plais	-10.6491
attente	-10.6492
▁reviennent	-10.6492
▁eugène	-10.6493
▁rapproche	-10.6493
▁bref	-10.6494
▁rappeler	-10.6494
▁motif	-10.6497
▁gara	-10.65
▁postes	-10.65
▁plaine	-10.6502
▁croire	-10.6502
▁églises	-10.6502
▁comprenait	-10.6503
achètera	-10.6503
▁couvrir	-10.6505
▁narrat	-10.6506
▁the	-10.6507
▁fav	-10.6508
huitième	-10.651
▁pod	-10.6511
▁fonctionn	-10.6511
bl	-10.6512
horreur	-10.6515
▁moyenne	-10.6515
▁sénat	-10.6516
▁georges	-10.6517
▁gou	-10.6518
▁résulte	-10.6522
▁satisfait	-10.6527
▁heureuse	-10.6532
enseignants	-10.6539
▁comité	-10.654
▁harmoni	-10.654
▁arabe	-10.654
▁entourée	-10.6541
▁occupé	-10.6544
▁(15	-10.6546
▁peuplé	-10.6546
▁palais	-10.6546
▁pain	-10.6547
▁toile	-10.655
▁chercher	-10.6554
▁naturellement	-10.6563
▁honor	-10.6564
▁li	-10.6569
erto	-10.6573
▁cuisiner	-10.6573
▁berlin	-10.6574
poly	-10.6574
▁retiré	-10.6576
quent	-10.658
▁empêch	-10.6581
▁tré	-10.6584
nom	-10.6585
▁conserver	-10.6585
▁rôle	-10.6587
▁michel	-10.6592
oupe	-10.6594
▁officiellement	-10.6594
▁abord	-10.6595
▁rapporteur	-10.66
▁chasseur	-10.6601
cité	-10.6602
▁enseignement	-10.6607
▁formée	-10.6607
achant	-10.6611
▁cert	-10.6612
cheveux	-10.6616
▁pouss	-10.662
ologne	-10.662
▁observateurs	-10.6622
▁laisser	-10.6632
▁tienne	-10.6635
▁ven	-10.6636
▁colon	-10.6642
▁mienne	-10.6647
exportation	-10.665
dio	-10.6658
▁Fi	-10.6666
uque	-10.6669
▁employé	-10.6676
▁rive	-10.6676
▁roches	-10.6678
▁peintures	-10.6678
cons	-10.6683
▁race	-10.6698
▁existent	-10.6703
▁tend	-10.6709
▁confronté	-10.6712
élan	-10.6714
▁thi	-10.6718
▁rapporte	-10.6721
▁Die	-10.6723
▁montée	-10.673
ombr	-10.6746
espér	-10.6746
▁voté	-10.6766
▁céci	-10.6772
▁pho	-10.6781
▁idée	-10.6783
▁proto	-10.6792
▁aval	-10.6793
awa	-10.6795
▁hérit	-10.6807
▁passion	-10.6808
▁viendrai	-10.681
▁comporter	-10.681
medi	-10.682
euill	-10.6833
▁dorm	-10.6839
▁marc	-10.6847
illard	-10.6854
▁barbe	-10.6868
▁brev	-10.6879
issue	-10.6881
inhu	-10.6883
▁dépos	-10.6891
▁artificielle	-10.6898
▁via	-10.6898
ung	-10.6904
▁bruits	-10.6905
wan	-10.691
▁vieill	-10.6933
▁pun	-10.6948
arbre	-10.6958
▁signal	-10.6968
ost	-10.699
▁étudier	-10.701
issant	-10.7017
▁dites	-10.7028
▁0	-10.7048
▁fe	-10.7049
▁compréhensi	-10.7056
▁moine	-10.7063
▁morceau	-10.707
▁intéressant	-10.707
▁barre	-10.7071
69	-10.7082
rque	-10.7095
▁austral	-10.7113
▁arriv	-10.7122
▁32	-10.7138
ident	-10.716
sible	-10.7161
▁poursuiv	-10.7177
bec	-10.7189
▁désigne	-10.7208
morph	-10.721
▁Bor	-10.723
onner	-10.7236
▁préc	-10.7249
▁nomme	-10.7266
▁mono	-10.7268
ampon	-10.7276
Bay	-10.7293
▁manqu	-10.7295
ème	-10.7298
▁connaît	-10.7309
ank	-10.7313
▁signale	-10.7315
▁souhait	-10.7316
▁envisag	-10.7318
▁frapp	-10.7323
uite	-10.7324
▁murs	-10.7328
oter	-10.733
▁résist	-10.7368
ose	-10.7397
▁exp	-10.74
▁cria	-10.7403
abi	-10.7405
▁humain	-10.7408
▁prévu	-10.7419
▁pell	-10.7431
▁côtes	-10.745
▁présentée	-10.7452
3,	-10.7459
awan	-10.746
▁somme	-10.7473
▁saisi	-10.7476
▁and	-10.7478
▁cycl	-10.7485
▁gor	-10.7488
▁gardé	-10.7501
▁géologique	-10.7509
▁cérémonie	-10.751
▁technologie	-10.7514
peaux	-10.7514
▁connais	-10.7516
▁représentant	-10.7519
éception	-10.7532
▁touriste	-10.7534
▁parvenu	-10.7538
▁vendu	-10.7544
app	-10.755
we	-10.7557
▁sonne	-10.7564
cell	-10.7566
▁abrit	-10.7579
▁prim	-10.759
asie	-10.7594
▁humaine	-10.7597
arc	-10.761
40	-10.7611
ama	-10.7612
▁tien	-10.7625
fert	-10.7629
▁Ko	-10.7633
▁posé	-10.7635
expressions	-10.7643
ivre	-10.7656
amis	-10.7658
▁estim	-10.7685
lia	-10.7692
incident	-10.7696
▁177	-10.7698
yer	-10.77
associ	-10.7703
▁qualifi	-10.7713
ik	-10.7723
album	-10.7735
chrétien	-10.7741
écran	-10.7744
essayer	-10.7744
aspect	-10.7744
habitants	-10.7748
▁étudiant	-10.7748
élève	-10.7759
▁remis	-10.7762
aurez	-10.7763
plu	-10.7767
urie	-10.7769
▁née	-10.7772
issait	-10.7778
atrice	-10.7779
eng	-10.778
▁affaire	-10.7781
ajouter	-10.779
espère	-10.779
alors	-10.7801
▁privé	-10.7801
▁alerte	-10.7802
yl	-10.7822
▁retrait	-10.7823
aucune	-10.7824
ding	-10.7826
▁quinz	-10.7826
aventure	-10.7861
▁moto	-10.7868
▁Del	-10.7871
rry	-10.7874
90	-10.7881
▁domestiqu	-10.7883
▁condamn	-10.7886
indi	-10.7889
▁mu	-10.7892
▁original	-10.7893
▁conséquen	-10.7893
cripti	-10.7894
▁apprend	-10.7896
▁gouvern	-10.7901
▁trent	-10.7902
existant	-10.7904
▁significati	-10.7905
ell	-10.7905
oise	-10.7906
ramas	-10.7906
absolu	-10.7909
abandon	-10.7909
▁respira	-10.7909
ensions	-10.7909
▁correct	-10.791
▁abatt	-10.791
innovation	-10.7911
▁napoléon	-10.7911
▁revêt	-10.7911
ambiguïté	-10.7911
amérique	-10.7911
compétent	-10.7911
efficacité	-10.7911
exercice	-10.7911
expérimentation	-10.7911
oël	-10.7911
électricité	-10.7911
ö	-10.7911
▁accompli	-10.7911
▁christianisme	-10.7911
▁cimetière	-10.7911
▁controvers	-10.7911
▁doigt	-10.7911
▁déménage	-10.7911
▁encouragé	-10.7911
▁foyer	-10.7911
▁hélicoptère	-10.7911
▁influencé	-10.7911
▁infrastructure	-10.7911
▁kayak	-10.7911
▁licence	-10.7911
▁mademoiselle	-10.7911
▁minuit	-10.7911
▁méduses	-10.7911
▁nerveuse	-10.7911
▁négligence	-10.7911
▁obligé	-10.7911
▁perspective	-10.7911
▁pompiers	-10.7911
▁prétext	-10.7911
▁rapidité	-10.7911
▁rassemble	-10.7911
▁rectifi	-10.7911
▁religieuse	-10.7911
▁reproch	-10.7911
▁représenté	-10.7911
▁royaume	-10.7911
▁rédigé	-10.7911
▁scandinave	-10.7911
▁semblant	-10.7911
▁signature	-10.7911
▁spectaculaire	-10.7911
▁supermarché	-10.7911
▁thermique	-10.7911
▁téléviseur	-10.7911
▁témoin	-10.7911
▁vigueur	-10.7911
▁érigé	-10.7911
anarchie	-10.7911
á	-10.7911
▁alimentaire	-10.7911
▁amateurs	-10.7911
▁cabane	-10.7911
▁copain	-10.7911
▁dispersé	-10.7911
▁déroulé	-10.7911
▁enterré	-10.7911
▁forestiers	-10.7911
▁innovant	-10.7911
▁prématuré	-10.7911
▁titulaire	-10.7911
autoroute	-10.7911
oblige	-10.7911
ologiste	-10.7911
▁approximative	-10.7911
▁bâtie	-10.7911
▁cerisier	-10.7911
▁culmin	-10.7911
▁poudre	-10.7911
▁rigide	-10.7911
attentat	-10.7911
historien	-10.7911
▁empoisonn	-10.7911
▁papier	-10.7911
▁acceptable	-10.7911
▁formulaire	-10.7911
▁respire	-10.7911
▁valide	-10.7911
▁alliage	-10.7911
▁branche	-10.7911
▁variante	-10.7911
▁prolonge	-10.7911
▁aimèrent	-10.7911
▁investi	-10.7911
▁vincent	-10.7911
▁instable	-10.7911
▁clavi	-10.7911
▁personnalité	-10.7911
▁baign	-10.7911
▁fièvre	-10.7911
▁verbe	-10.7911
▁babo	-10.7911
islam	-10.7911
▁football	-10.7911
organe	-10.7911
▁alentour	-10.7911
culaires	-10.7911
maurice	-10.7911
andonnée	-10.7911
▁soumis	-10.7911
hyam	-10.7911
▁vérité	-10.7911
▁baiser	-10.7911
▁parcouru	-10.7911
▁Cit	-10.7911
excès	-10.7911
▁guichet	-10.7911
▁cohérence	-10.7911
donnait	-10.7911
▁conviction	-10.7912
▁métropol	-10.7912
orthographe	-10.7912
toxine	-10.7912
▁croyez	-10.7912
▁conversation	-10.7912
▁soulign	-10.7912
▁tortue	-10.7912
inclin	-10.7912
résumé	-10.7912
▁chron	-10.7912
▁pince	-10.7912
▁message	-10.7912
énorme	-10.7912
▁traumatisme	-10.7913
élevage	-10.7913
▁renommé	-10.7913
▁trésor	-10.7914
▁effectuer	-10.7914
▁annuel	-10.7914
▁calend	-10.7914
▁recrut	-10.7914
croyant	-10.7914
▁compl	-10.7914
▁rejet	-10.7914
▁salaire	-10.7915
▁décern	-10.7915
▁désert	-10.7915
▁veuille	-10.7915
▁observations	-10.7915
▁pleure	-10.7915
▁panier	-10.7915
▁péril	-10.7915
insta	-10.7915
ensable	-10.7916
▁amical	-10.7916
▁confond	-10.7916
▁dégage	-10.7916
▁sections	-10.7917
▁féro	-10.7917
ordonnance	-10.7917
mandat	-10.7918
▁acier	-10.7918
▁concernées	-10.7918
▁connaissons	-10.7918
▁jug	-10.7918
▁stell	-10.7919
▁portrait	-10.7919
▁bleus	-10.7919
▁localité	-10.7919
old	-10.792
▁généraux	-10.792
▁baie	-10.7921
▁joie	-10.7922
▁châteaux	-10.7922
▁cath	-10.7922
▁éclairé	-10.7923
▁transa	-10.7924
▁verrez	-10.7924
▁honnête	-10.7926
endormi	-10.7926
▁rude	-10.7926
autorisation	-10.7927
▁pleinement	-10.7929
▁marais	-10.7929
▁travailleurs	-10.7929
▁distinction	-10.793
toru	-10.793
▁bureaux	-10.793
▁faudrait	-10.7931
▁voyez	-10.7931
▁habitée	-10.7931
risation	-10.7932
▁instruction	-10.7934
ustin	-10.7935
▁croissant	-10.7936
▁parois	-10.7936
vide	-10.7937
cente	-10.7937
▁empr	-10.7938
▁apportez	-10.7938
assume	-10.7938
▁vérifié	-10.7938
▁fouill	-10.7938
▁préparation	-10.794
▁bonjour	-10.7941
iam	-10.7941
isolement	-10.7942
▁déplacée	-10.7944
érin	-10.7945
▁hiérarchie	-10.7945
▁spectre	-10.7945
▁préoccupé	-10.7948
cole	-10.7949
▁julie	-10.7949
▁consent	-10.7949
ecque	-10.7951
▁revient	-10.7952
▁nouveauté	-10.7952
▁chère	-10.7953
abot	-10.7954
▁heureux	-10.7955
▁cur	-10.7956
▁centaine	-10.7957
▁intelligente	-10.7959
▁appelez	-10.7962
▁astr	-10.7962
▁graine	-10.7962
▁aventur	-10.7962
fusion	-10.7964
▁honte	-10.7968
▁éveillé	-10.7968
▁profondes	-10.7971
▁bio	-10.7971
▁pins	-10.7971
omatique	-10.7971
▁souveraine	-10.7972
izi	-10.7972
▁créativ	-10.7975
▁adaptées	-10.7975
▁admis	-10.7975
habd	-10.798
caisse	-10.7982
▁diffusion	-10.7983
▁tombent	-10.7984
▁coord	-10.7986
▁suffisante	-10.7987
▁roulé	-10.7992
▁spéciales	-10.7993
▁tient	-10.7994
▁initiale	-10.7997
▁confort	-10.7997
▁accueillir	-10.7997
khar	-10.8
équipement	-10.8
▁prévue	-10.8004
approch	-10.8005
▁emplacement	-10.8006
▁existence	-10.8006
▁genre	-10.8006
▁rêver	-10.8007
▁odeur	-10.8008
▁varier	-10.8008
▁costumes	-10.8009
▁tranches	-10.8009
cock	-10.8013
▁double	-10.8015
▁élu	-10.8017
▁arrivent	-10.8017
ubra	-10.8018
▁constate	-10.8021
▁Fe	-10.8031
▁trouble	-10.8031
ike	-10.8032
▁banquet	-10.8033
▁opposition	-10.8033
▁admire	-10.8034
▁comte	-10.8035
▁fondamental	-10.8052
▁modifi	-10.8054
ova	-10.8056
▁conce	-10.8059
▁oppos	-10.8059
▁impression	-10.806
▁identité	-10.806
▁appartenan	-10.8066
▁dioxy	-10.8069
▁détruite	-10.8073
▁classiques	-10.8074
▁divisée	-10.8087
ellement	-10.8087
otte	-10.8094
▁suisse	-10.8095
▁affront	-10.8095
ntir	-10.8097
▁laisse	-10.8098
▁élan	-10.8106
resque	-10.8108
ionale	-10.8113
jon	-10.8115
▁aimée	-10.8117
expliquer	-10.8118
haus	-10.8122
arque	-10.8126
outan	-10.813
ennui	-10.8135
▁intégré	-10.8137
▁amélioré	-10.8138
kar	-10.8139
mée	-10.8144
▁top	-10.8153
▁montrer	-10.8155
gnez	-10.8163
▁invers	-10.8186
invent	-10.8188
▁Gi	-10.8191
apprenant	-10.8203
suite	-10.8218
▁objet	-10.8231
▁occup	-10.8237
mani	-10.8241
▁passent	-10.825
▁humi	-10.8254
▁francs	-10.8258
▁bouton	-10.826
muret	-10.8262
▁variées	-10.8271
▁comprom	-10.8283
▁ajoutée	-10.8287
▁lourds	-10.8287
▁pill	-10.8287
▁consist	-10.8289
zac	-10.8298
onnez	-10.8301
▁voulu	-10.8306
pp	-10.8312
▁précédentes	-10.8333
▁alertes	-10.8338
entité	-10.834
▁cesse	-10.834
aube	-10.8342
▁Gl	-10.835
▁conte	-10.8353
vet	-10.8367
▁Nationa	-10.8389
▁lauren	-10.8396
▁Island	-10.8415
▁enregistrée	-10.842
ictions	-10.8422
▁suivantes	-10.8441
▁pêcha	-10.8448
▁porn	-10.8458
ym	-10.846
▁amie	-10.8463
▁sociale	-10.8463
▁ki	-10.8467
▁dents	-10.8467
ari	-10.8472
irag	-10.8472
dors	-10.8477
▁riv	-10.8481
law	-10.8486
▁prun	-10.8494
Bas	-10.8524
U	-10.8554
▁contente	-10.8565
▁pai	-10.8568
▁fich	-10.8577
ption	-10.8579
▁Ju	-10.8581
▁raconte	-10.8587
▁échang	-10.8589
ott	-10.8595
▁barr	-10.8615
raquent	-10.862
▁plate	-10.8622
▁mol	-10.8629
obéir	-10.8632
ieuse	-10.8641
▁moqu	-10.8645
rix	-10.8648
entendr	-10.8651
▁soul	-10.8683
vas	-10.8696
▁monté	-10.8706
Up	-10.8732
fontaine	-10.8737
▁accueille	-10.8773
passées	-10.878
▁Wal	-10.8786
▁Jon	-10.8797
▁autoriser	-10.8799
▁instru	-10.8803
▁sache	-10.8807
pousser	-10.8818
▁convi	-10.8831
compréhension	-10.8845
kawa	-10.8847
▁Ham	-10.8849
luent	-10.8849
▁Car	-10.8857
con	-10.8866
▁charr	-10.8899
ppan	-10.8901
ext	-10.8907
isonné	-10.8909
▁réagi	-10.8921
acide	-10.8921
▁fédérale	-10.8928
▁lourd	-10.8944
nelle	-10.8947
▁pan	-10.8956
▁pert	-10.8957
▁ère	-10.8964
alisée	-10.8965
ew	-10.8978
▁Shi	-10.899
▁content	-10.8991
▁Pal	-10.8992
▁cont	-10.8999
▁strict	-10.9002
▁illégal	-10.9003
▁remplie	-10.9004
▁produite	-10.9012
isole	-10.9022
ruption	-10.9023
▁prom	-10.9033
ube	-10.905
quant	-10.905
▁issu	-10.9064
africain	-10.9068
▁maro	-10.9072
achat	-10.9073
lard	-10.9077
▁Val	-10.9086
version	-10.9102
race	-10.9111
▁adopté	-10.9147
▁disciplin	-10.9147
cab	-10.9165
▁cherche	-10.9167
▁variée	-10.9168
▁Black	-10.9175
▁norme	-10.9181
anna	-10.9183
▁dommage	-10.9184
▁tornade	-10.9185
▁tena	-10.9185
effort	-10.9185
▁photon	-10.9186
▁similaire	-10.9188
ouvrier	-10.919
▁carré	-10.9192
▁feuille	-10.9195
▁boisson	-10.9195
▁génération	-10.9196
▁bactérie	-10.9214
49	-10.9236
ï	-10.9244
▁croi	-10.9254
bouc	-10.9255
gel	-10.9284
▁Bar	-10.9285
▁musica	-10.929
▁provi	-10.9292
▁crim	-10.9292
table	-10.9296
iza	-10.9301
▁Alli	-10.9308
▁intégr	-10.9317
hindouis	-10.9322
aucun	-10.9326
▁envoyée	-10.9344
nger	-10.9352
▁affectée	-10.9358
▁locat	-10.9358
▁différence	-10.9363
ouvrir	-10.9379
▁civi	-10.9384
gestion	-10.9384
utilis	-10.9387
oxygène	-10.9394
▁maximi	-10.9396
bra	-10.94
▁introdu	-10.9401
différence	-10.9402
Apple	-10.9402
horizon	-10.9402
échantillon	-10.9402
oppos	-10.9404
étudiant	-10.9404
39	-10.9405
impression	-10.9405
intention	-10.9407
°	-10.9407
impact	-10.9407
terrestre	-10.9407
Z	-10.9408
▁précédente	-10.9408
apparition	-10.9408
identité	-10.9409
exposition	-10.9409
climat	-10.9409
attraction	-10.9409
treize	-10.9409
apport	-10.9409
évalu	-10.9409
tropicale	-10.9409
envoyer	-10.941
district	-10.9411
ouragan	-10.9411
commun	-10.9411
moderne	-10.9412
également	-10.9413
édic	-10.9413
organisme	-10.9413
inclu	-10.9413
extrême	-10.9413
12	-10.9414
voler	-10.9414
environnement	-10.9414
ailleurs	-10.9414
▁fondamenta	-10.9415
travail	-10.9416
actuelle	-10.9416
zones	-10.9417
11	-10.9418
obtenir	-10.9418
inscri	-10.942
▁liv	-10.942
▁envahi	-10.9423
fort	-10.9426
▁rat	-10.943
▁ressembler	-10.943
onstitution	-10.9432
▁délivre	-10.9442
ecture	-10.9443
plications	-10.9444
▁franc	-10.9451
▁décid	-10.9453
ocke	-10.9455
▁poursuit	-10.9461
Ou	-10.9484
▁vérifi	-10.9485
▁Égypt	-10.9487
▁spatial	-10.9487
lbert	-10.9495
uparavant	-10.9496
oratif	-10.9499
édecins	-10.9506
▁repér	-10.951
▁cassé	-10.951
▁cérébra	-10.9514
▁manifest	-10.9515
dés	-10.9521
▁renfor	-10.9526
aliser	-10.9528
arch	-10.9528
glise	-10.9529
ça	-10.9531
urne	-10.9532
▁attrap	-10.9533
implic	-10.9535
ogi	-10.9536
▁bonjou	-10.9542
▁naviga	-10.9542
▁détrui	-10.9542
▁étrange	-10.9543
▁héberge	-10.9544
oilé	-10.9544
ducation	-10.9545
▁officiel	-10.9546
onnées	-10.9546
ométr	-10.9549
▁repris	-10.9549
▁attra	-10.955
▁dépens	-10.955
▁pench	-10.955
▁Angel	-10.955
filtr	-10.9551
▁révèle	-10.9551
▁détach	-10.9551
urtout	-10.9551
▁fréque	-10.9552
trairement	-10.9552
ulture	-10.9552
▁gué	-10.9554
▁forma	-10.9555
▁46	-10.9556
▁II	-10.9556
▁géographi	-10.9562
fan	-10.9562
cience	-10.9562
▁mathémati	-10.9565
entral	-10.9565
ituée	-10.9566
rganisation	-10.9567
mith	-10.9568
▁Christ	-10.9569
▁pén	-10.957
▁Coll	-10.957
▁chât	-10.9571
itinéraire	-10.9571
éléphant	-10.9571
▁alex	-10.9571
exprim	-10.9572
yramide	-10.9573
▁product	-10.9573
eaucoup	-10.9573
▁maltrait	-10.9573
trah	-10.9573
ntarctique	-10.9574
éduit	-10.9575
▁sécuri	-10.9575
stru	-10.9575
rançais	-10.9575
▁malheur	-10.9576
chiffr	-10.9576
icro	-10.9576
impérial	-10.9576
paraissent	-10.9576
▁stabili	-10.9576
atome	-10.9576
▁réuni	-10.9577
▁profession	-10.9577
▁égal	-10.9577
épuis	-10.9577
sistance	-10.9577
▁Champion	-10.9577
gyal	-10.9577
=	-10.9577
ustralopith	-10.9577
▁intrusi	-10.9577
anthrop	-10.9577
▁absorb	-10.9577
▁terroris	-10.9577
▁tranquill	-10.9577
▁vandalis	-10.9577
ACTA	-10.9577
Amsterdam	-10.9577
Apollo	-10.9577
Boot	-10.9577
Ellsworth	-10.9577
Herostratus	-10.9577
Hesperonychus	-10.9577
Islam	-10.9577
Istanbul	-10.9577
METI	-10.9577
Ohio	-10.9577
RSPCA	-10.9577
Sarasvati	-10.9577
agrandi	-10.9577
alpinisme	-10.9577
arrestation	-10.9577
audience	-10.9577
explorateur	-10.9577
expérimentées	-10.9577
imbécile	-10.9577
opoulos	-10.9577
proclamé	-10.9577
rocodile	-10.9577
véhiculaire	-10.9577
Édimbourg	-10.9577
éteindre	-10.9577
évêque	-10.9577
▁1945	-10.9577
▁2013	-10.9577
▁2015	-10.9577
▁Animal	-10.9577
▁Arabes	-10.9577
▁Bachmann	-10.9577
▁Bobek	-10.9577
▁Britannique	-10.9577
▁Brother	-10.9577
▁Caspienne	-10.9577
▁Cuddeback	-10.9577
▁DVD	-10.9577
▁Damadian	-10.9577
▁Danemark	-10.9577
▁Devonport	-10.9577
▁Européen	-10.9577
▁Flags	-10.9577
▁Frontières	-10.9577
▁GHz	-10.9577
▁Grèce	-10.9577
▁Hébron	-10.9577
▁Kalaall	-10.9577
▁Katrina	-10.9577
▁Khandelwal	-10.9577
▁Kyoto	-10.9577
▁Livingston	-10.9577
▁Mercredi	-10.9577
▁Muhammad	-10.9577
▁Musashi	-10.9577
▁NPWS	-10.9577
▁Nevada	-10.9577
▁Nigeria	-10.9577
▁Nintendo	-10.9577
▁PBS	-10.9577
▁Partizan	-10.9577
▁Philippines	-10.9577
▁Pittman	-10.9577
▁Polynésie	-10.9577
▁Pâques	-10.9577
▁Quelqu	-10.9577
▁Rainbow	-10.9577
▁Schumacher	-10.9577
▁Serengeti	-10.9577
▁Soviétique	-10.9577
▁Sphinx	-10.9577
▁Springboks	-10.9577
▁Stanford	-10.9577
▁Stearns	-10.9577
▁Tasmanie	-10.9577
▁Taínos	-10.9577
▁Trump	-10.9577
▁Victoria	-10.9577
▁Vietnam	-10.9577
▁ZMapp	-10.9577
▁Zimbabwe	-10.9577
▁activé	-10.9577
▁adopte	-10.9577
▁adéquate	-10.9577
▁atmosphériques	-10.9577
▁attiré	-10.9577
▁botaniques	-10.9577
▁boulangerie	-10.9577
▁byzantin	-10.9577
▁bénéfiques	-10.9577
▁calcium	-10.9577
▁chimpanzé	-10.9577
▁chirurgie	-10.9577
▁cohérent	-10.9577
▁contemplation	-10.9577
▁contexte	-10.9577
▁cosmonaute	-10.9577
▁crevasses	-10.9577
▁cyanurique	-10.9577
▁diminué	-10.9577
▁domicile	-10.9577
▁dédiée	-10.9577
▁démarr	-10.9577
▁endommagées	-10.9577
▁exonéré	-10.9577
▁exotiques	-10.9577
▁explorer	-10.9577
▁fatigant	-10.9577
▁fatigue	-10.9577
▁financier	-10.9577
▁germinales	-10.9577
▁grêle	-10.9577
▁gymnastique	-10.9577
▁géothermique	-10.9577
▁hommage	-10.9577
▁incarcéré	-10.9577
▁inconvénient	-10.9577
▁inculpé	-10.9577
▁indépendamment	-10.9577
▁infraction	-10.9577
▁infrarouge	-10.9577
▁inhabituel	-10.9577
▁intrinsèque	-10.9577
▁islandais	-10.9577
▁keraotred	-10.9577
▁manipulation	-10.9577
▁maîtrisé	-10.9577
▁millénaire	-10.9577
▁mâchoire	-10.9577
▁mélangés	-10.9577
▁nocturne	-10.9577
▁numérique	-10.9577
▁organique	-10.9577
▁paradoxal	-10.9577
▁prélevé	-10.9577
▁pâturage	-10.9577
▁pédagogi	-10.9577
▁recouvert	-10.9577
▁redirig	-10.9577
▁reprodui	-10.9577
▁robinet	-10.9577
▁réprimé	-10.9577
▁rétrécisse	-10.9577
▁scanner	-10.9577
▁simplifié	-10.9577
▁sophistiqué	-10.9577
▁structuré	-10.9577
▁suppression	-10.9577
▁susceptible	-10.9577
▁suspension	-10.9577
▁sédiment	-10.9577
▁timbre	-10.9577
▁tridimensionnel	-10.9577
▁trottoir	-10.9577
▁télécommand	-10.9577
▁témoign	-10.9577
▁universitaire	-10.9577
▁visualisation	-10.9577
Mapuche	-10.9577
authentique	-10.9577
efforcer	-10.9577
lgérie	-10.9577
évacu	-10.9577
▁Beauty	-10.9577
▁Chatham	-10.9577
▁Davey	-10.9577
▁Dzong	-10.9577
▁Edison	-10.9577
▁Frank	-10.9577
▁Manchester	-10.9577
▁Meilleur	-10.9577
▁NBA	-10.9577
▁Old	-10.9577
▁Prince	-10.9577
▁Sahel	-10.9577
▁Samoa	-10.9577
▁Scott	-10.9577
▁Vidal	-10.9577
▁baisser	-10.9577
▁blague	-10.9577
▁coulés	-10.9577
▁cyber	-10.9577
▁dégagé	-10.9577
▁genoux	-10.9577
▁glacé	-10.9577
▁livraison	-10.9577
▁murmura	-10.9577
▁poésie	-10.9577
▁propriétaire	-10.9577
▁prédomin	-10.9577
▁rachis	-10.9577
▁regroupe	-10.9577
▁retenu	-10.9577
▁surpris	-10.9577
▁tomate	-10.9577
Estonie	-10.9577
automobil	-10.9577
imagination	-10.9577
ymnasti	-10.9577
Écosse	-10.9577
Î	-10.9577
▁Gordon	-10.9577
▁Jeff	-10.9577
▁Zayat	-10.9577
▁débit	-10.9577
▁décharge	-10.9577
▁désolé	-10.9577
▁entravé	-10.9577
▁fonctionnalités	-10.9577
▁fréquence	-10.9577
▁intacte	-10.9577
▁irrita	-10.9577
▁rectang	-10.9577
▁transparent	-10.9577
▁tronçon	-10.9577
▁vérification	-10.9577
incurv	-10.9577
uccess	-10.9577
▁Jakar	-10.9577
▁Olaf	-10.9577
▁Trenton	-10.9577
▁défaut	-10.9577
▁glissant	-10.9577
▁grond	-10.9577
▁inquiétude	-10.9577
▁psych	-10.9577
▁Pryce	-10.9577
▁Street	-10.9577
▁motivation	-10.9577
▁mouill	-10.9577
afrique	-10.9577
▁diplomate	-10.9577
▁femelle	-10.9577
▁sécher	-10.9577
1998)	-10.9577
▁1959.	-10.9577
▁Airways	-10.9577
▁démissionné	-10.9577
▁erreur	-10.9577
▁Award	-10.9577
▁Sirena	-10.9577
▁contagieu	-10.9577
▁doudou	-10.9577
▁revue	-10.9577
squimau	-10.9577
▁boulevers	-10.9577
▁coincé	-10.9577
▁jungle	-10.9577
▁Wild	-10.9577
▁robe	-10.9577
▁Caraïbes	-10.9577
adhé	-10.9577
▁Fati	-10.9577
▁brave	-10.9577
▁compose	-10.9578
▁marocain	-10.9578
indisp	-10.9578
▁Libye	-10.9578
▁tordu	-10.9578
▁informel	-10.9578
▁environnante	-10.9578
▁Dream	-10.9578
▁State	-10.9578
▁condens	-10.9578
époux	-10.9578
▁Fonda	-10.9578
▁nutritionnel	-10.9578
▁parodie	-10.9578
▁vertical	-10.9578
▁Cabo	-10.9578
▁dignité	-10.9578
▁Aussi	-10.9578
▁courriers	-10.9578
▁malveillan	-10.9578
▁sondage	-10.9578
▁éventuelle	-10.9578
▁Chandra	-10.9578
▁enfance	-10.9578
▁insulaire	-10.9578
▁loisirs	-10.9578
▁Onega	-10.9578
▁grossiers	-10.9578
▁rivaliser	-10.9578
Hawaï	-10.9578
▁Layton	-10.9578
▁Donc	-10.9578
▁jambe	-10.9578
▁lactée	-10.9578
▁pompe	-10.9578
▁vitrine	-10.9578
▁Danius	-10.9578
▁dicté	-10.9578
▁patron	-10.9578
▁ponctu	-10.9578
assaut	-10.9578
europe	-10.9578
▁Miller	-10.9578
▁jupes	-10.9578
▁promesse	-10.9578
▁Stewar	-10.9578
▁négligé	-10.9578
▁paisible	-10.9578
▁méditerranéenne	-10.9578
▁vélo	-10.9578
Ebola	-10.9578
▁Stardust	-10.9578
▁adressé	-10.9578
▁récit	-10.9578
▁Championnat	-10.9578
▁douille	-10.9578
▁équivalent	-10.9578
▁tromb	-10.9578
▁cross	-10.9578
▁scénariste	-10.9578
▁nationalisée	-10.9578
▁occidentaux	-10.9578
appellent	-10.9578
▁hasard	-10.9578
▁impossible	-10.9578
▁épuisant	-10.9578
▁caution	-10.9578
▁yann	-10.9578
▁perçue	-10.9578
SW	-10.9578
▁poids	-10.9578
Aristote	-10.9578
▁Colbert	-10.9578
▁Namgy	-10.9578
▁fusée	-10.9578
UR	-10.9578
conventionnelles	-10.9578
▁drone	-10.9578
▁capteur	-10.9578
▁renard	-10.9578
illumination	-10.9578
▁infectieuse	-10.9578
▁Nombre	-10.9578
▁Stone	-10.9578
▁Bhog	-10.9578
Hawa	-10.9578
1895	-10.9578
▁arbor	-10.9578
▁neutre	-10.9578
▁Copenhague	-10.9578
endjab	-10.9578
▁minorit	-10.9578
▁collègue	-10.9578
▁persan	-10.9578
▁Saito	-10.9578
▁Stan	-10.9578
▁légalité	-10.9578
▁Arist	-10.9578
ivresse	-10.9578
▁Komen	-10.9578
▁Cambridge	-10.9578
▁traîne	-10.9578
▁Harvard	-10.9578
calcul	-10.9579
6-6	-10.9579
avalanche	-10.9579
▁gallons	-10.9579
égoïsme	-10.9579
▁détent	-10.9579
▁décédé	-10.9579
▁gorge	-10.9579
anticipe	-10.9579
▁Common	-10.9579
▁ingénieur	-10.9579
▁épices	-10.9579
volontaire	-10.9579
▁camion	-10.9579
▁complémentaire	-10.9579
▁Zagr	-10.9579
▁collaborateur	-10.9579
▁naval	-10.9579
▁Jerry	-10.9579
▁formalité	-10.9579
▁malheureux	-10.9579
▁enneigée	-10.9579
▁dévast	-10.9579
lynn	-10.9579
▁cuites	-10.9579
▁garage	-10.9579
▁oriente	-10.9579
▁intérim	-10.9579
▁mirage	-10.9579
▁mince	-10.9579
▁mortels	-10.9579
empar	-10.9579
▁Thaï	-10.9579
▁XXe	-10.9579
▁Lenz	-10.9579
▁légales	-10.9579
▁avéré	-10.9579
▁messagerie	-10.9579
▁égyptien	-10.958
▁Thom	-10.958
formul	-10.958
▁1977	-10.958
▁Gaz	-10.958
▁181	-10.958
▁apparenté	-10.958
odern	-10.958
▁saisonnière	-10.958
tuteur	-10.958
▁1988	-10.958
▁composition	-10.958
▁bouger	-10.958
▁vidal	-10.958
▁cyclique	-10.958
▁Chambers	-10.958
▁déplacements	-10.958
▁fuseau	-10.958
▁Simpsons	-10.958
DT	-10.958
▁reliqu	-10.958
▁optique	-10.9581
ujah	-10.9581
▁Ald	-10.9581
▁gravité	-10.9581
▁complet	-10.9581
▁précéd	-10.9581
▁Iwa	-10.9581
▁restauration	-10.9581
▁bondé	-10.9581
▁contaminée	-10.9581
▁correctement	-10.9581
▁chevr	-10.9581
▁Steve	-10.9581
ichard	-10.9582
▁maltraitance	-10.9582
▁obtien	-10.9582
▁sikhisme	-10.9582
ucci	-10.9582
▁Norvégien	-10.9582
tillerie	-10.9582
▁2:	-10.9582
▁rivage	-10.9582
▁Bologne	-10.9582
▁monarque	-10.9582
▁conqu	-10.9582
▁coréenne	-10.9582
odora	-10.9582
▁consommation	-10.9582
üm	-10.9583
▁37	-10.9583
anime	-10.9583
conque	-10.9583
▁gravi	-10.9583
▁réforme	-10.9583
▁traction	-10.9583
▁javanais	-10.9584
▁écrivit	-10.9584
▁embar	-10.9584
▁logis	-10.9584
▁Guar	-10.9584
▁aimerez	-10.9584
▁Hongrie	-10.9584
▁panique	-10.9584
▁Notre	-10.9584
ôme	-10.9584
▁viking	-10.9584
▁tarifaires	-10.9585
▁caca	-10.9585
▁existante	-10.9586
▁175	-10.9586
▁(31	-10.9586
▁viable	-10.9586
MI	-10.9586
▁Puis	-10.9586
▁Center	-10.9586
▁Kow	-10.9587
▁Unies	-10.9587
▁dessert	-10.9587
illac	-10.9587
cellulaire	-10.9587
estival	-10.9587
▁modifiée	-10.9587
▁noix	-10.9587
▁Oli	-10.9587
▁déranger	-10.9587
▁amant	-10.9588
▁Flo	-10.9588
44	-10.9588
▁Bow	-10.9588
éventuel	-10.9588
icoles	-10.9588
▁Eph	-10.9588
▁souple	-10.9588
▁entame	-10.9588
▁(16	-10.9588
▁spécialité	-10.9588
▁fréquentés	-10.9588
▁dort	-10.9588
ambiti	-10.9588
▁gaud	-10.9589
urance	-10.9589
▁vitré	-10.9589
toires	-10.9589
▁atla	-10.959
grégation	-10.959
AP	-10.959
▁Ott	-10.959
▁racia	-10.959
▁Association	-10.959
IS	-10.959
▁touchées	-10.9591
▁Olympique	-10.9591
▁intére	-10.9592
▁levée	-10.9592
▁Bran	-10.9592
▁inca	-10.9592
▁Santor	-10.9592
▁pluvi	-10.9592
▁visité	-10.9592
▁surplombe	-10.9593
tave	-10.9593
▁nominé	-10.9593
▁attendu	-10.9593
▁parfaitement	-10.9593
▁avocats	-10.9593
ispan	-10.9594
▁nerf	-10.9594
▁répondu	-10.9594
Shan	-10.9594
▁fourch	-10.9594
▁significatif	-10.9595
▁runs	-10.9595
▁FI	-10.9595
TA	-10.9595
▁Parti	-10.9595
Alb	-10.9595
▁Malais	-10.9595
▁teni	-10.9596
▁réparat	-10.9596
▁coûteux	-10.9596
▁rome	-10.9596
▁conditionné	-10.9597
▁nuir	-10.9597
énat	-10.9597
▁vitaux	-10.9598
ologues	-10.9598
▁avertissement	-10.9599
▁Slov	-10.9599
▁chrétienne	-10.9599
extrai	-10.9599
▁Moll	-10.9599
iwa	-10.9601
quine	-10.9601
▁préparés	-10.9601
▁négociat	-10.9602
▁Afghan	-10.9602
▁ouvrirez	-10.9602
▁wis	-10.9602
▁Roi	-10.9602
▁Allen	-10.9603
▁localisation	-10.9603
02	-10.9603
468	-10.9603
▁détachent	-10.9604
▁Stra	-10.9604
▁riz	-10.9604
▁révèlent	-10.9604
pia	-10.9604
▁mph	-10.9605
▁Dix	-10.9605
▁penchant	-10.9605
▁Green	-10.9605
ethni	-10.9605
▁condamnation	-10.9606
▁Angeles	-10.9606
▁Rio	-10.9607
▁navigat	-10.9609
▁Ang	-10.961
▁renfort	-10.961
▁Camp	-10.961
▁Tama	-10.9611
atar	-10.9614
▁déité	-10.9614
▁généralisé	-10.9615
mbie	-10.9615
ensez	-10.9615
▁pesé	-10.9615
▁yens	-10.9616
▁smith	-10.9616
euros	-10.9617
▁Pennsylvani	-10.9617
▁assyrien	-10.9618
▁peuplées	-10.9618
▁localis	-10.9619
▁catastrophe	-10.9619
▁microscope	-10.9619
Autriche	-10.9619
inspection	-10.9619
ulsions	-10.962
licite	-10.962
▁linguistiques	-10.9621
omantisme	-10.9622
fred	-10.9622
▁Ring	-10.9623
prédateur	-10.9623
ndonésie	-10.9626
Emm	-10.9628
yria	-10.9628
▁explos	-10.9628
automatis	-10.9629
tographie	-10.9629
métr	-10.9629
▁jura	-10.963
lando	-10.9632
▁législative	-10.9632
fia	-10.9634
▁Ethe	-10.9635
▁cruciale	-10.9635
▁roumaine	-10.9635
▁Sap	-10.9636
▁moléculaire	-10.9636
étiquette	-10.9637
▁Gol	-10.9637
▁couvertes	-10.9639
▁coûteuse	-10.9639
▁brûler	-10.964
▁rapa	-10.9642
▁établie	-10.9642
▁séparément	-10.9644
▁exig	-10.9645
▁espéran	-10.9645
iciens	-10.9646
étrier	-10.9646
▁orage	-10.9649
rock	-10.965
erçant	-10.9653
▁secteur	-10.9653
▁tourné	-10.9653
▁Ed	-10.9654
▁foie	-10.9654
▁armes	-10.9655
▁Éta	-10.9657
▁tasse	-10.9657
▁faux	-10.9657
88	-10.9658
▁2006	-10.9658
▁AOL	-10.9659
▁Alaska	-10.9659
▁Empire	-10.9659
▁Israël	-10.9659
▁atterrir	-10.9659
▁boîte	-10.9659
▁inconnu	-10.9659
▁adoption	-10.9659
▁meubles	-10.9659
▁accent	-10.9659
▁accr	-10.9659
▁jacques	-10.9659
▁baptisée	-10.9659
▁ignore	-10.9659
▁hospitali	-10.9659
NSA	-10.966
▁Lib	-10.9661
esse	-10.9661
▁désigné	-10.9663
▁luc	-10.9663
pulv	-10.9663
▁accordé	-10.9664
rgon	-10.9665
▁subit	-10.9666
▁souhaitent	-10.9666
▁joint	-10.9668
▁spatiale	-10.9668
▁Tur	-10.9669
▁coupable	-10.9671
axi	-10.9672
▁restr	-10.9672
▁nomade	-10.9675
dépendance	-10.9677
▁familiari	-10.9681
▁évoqu	-10.9682
▁flore	-10.9683
▁respecter	-10.9683
▁Jam	-10.9684
▁accordée	-10.9684
▁pratiquée	-10.9691
▁émeute	-10.9691
▁India	-10.9691
inondation	-10.9691
▁lève	-10.9691
▁sentir	-10.9693
▁pd	-10.9694
▁tie	-10.9695
▁angel	-10.9696
eBay	-10.9696
omie	-10.9697
▁Bla	-10.9698
▁fournisseur	-10.97
▁féminine	-10.9702
▁dériv	-10.9702
igat	-10.9703
▁néc	-10.9703
tler	-10.9708
yth	-10.9719
paraître	-10.9721
▁écoutez	-10.9721
▁apporter	-10.9723
480	-10.9725
▁Minne	-10.9725
▁prononcée	-10.9725
▁serons	-10.9726
▁inscri	-10.9726
▁construites	-10.9726
iges	-10.9726
▁troupe	-10.9726
▁doué	-10.973
flex	-10.9733
▁Sol	-10.9734
boda	-10.9735
▁chanter	-10.9738
▁roll	-10.9741
▁Cas	-10.9741
rove	-10.9749
▁déroge	-10.9749
▁saisissant	-10.9749
▁Égypte	-10.975
ffice	-10.9751
▁débr	-10.9753
▁Vel	-10.9753
▁sérieuse	-10.9755
▁échantillon	-10.9756
▁Apple	-10.9756
▁horizon	-10.9756
introduis	-10.9757
▁39	-10.9759
ogènes	-10.9759
▁Lake	-10.9762
engen	-10.9765
bère	-10.9767
▁projette	-10.9769
41	-10.9771
iao	-10.9772
écif	-10.9773
▁bér	-10.9774
▁ext	-10.9776
▁parlement	-10.9777
▁péc	-10.9782
▁télévisée	-10.9783
▁apparue	-10.9783
▁partagée	-10.9783
vrez	-10.9785
▁charmant	-10.9787
▁suffisant	-10.9788
lliance	-10.9788
▁réagiss	-10.9789
▁album	-10.9789
▁Ste	-10.979
interdi	-10.9791
▁Tai	-10.9794
▁résolu	-10.9808
urges	-10.9811
▁bibl	-10.9819
▁pau	-10.9821
pprovisionnement	-10.9824
▁action	-10.9826
▁sollicité	-10.9826
brou	-10.9829
CEP	-10.983
▁76	-10.9834
▁particul	-10.9839
▁hindou	-10.984
▁chante	-10.9841
▁Marie	-10.9844
▁Roe	-10.9849
▁Mc	-10.9851
▁Bri	-10.9854
▁nordique	-10.9855
veau	-10.9858
ssées	-10.9863
▁dépassé	-10.9866
▁méri	-10.9867
▁initi	-10.9867
▁roussi	-10.9871
iterie	-10.9871
▁grimper	-10.9872
▁ramen	-10.9875
▁transmise	-10.9882
▁bosse	-10.9883
laises	-10.9904
NH	-10.9906
low	-10.9906
▁cardi	-10.9907
▁déclenché	-10.991
▁alph	-10.9911
▁diversifié	-10.9916
ulka	-10.9919
▁âme	-10.9921
▁décliné	-10.9923
▁gratt	-10.9925
▁cell	-10.9935
▁cli	-10.9938
▁Gam	-10.9941
▁classer	-10.9948
acée	-10.995
vienne	-10.995
▁acquis	-10.9955
▁retardé	-10.9957
▁(2	-10.9958
atation	-10.9968
▁combl	-10.9972
allongent	-10.9973
▁ferai	-10.9974
▁caro	-10.9978
153	-10.9982
▁Ale	-10.9982
embre	-10.999
bank	-10.9994
▁voyageant	-10.9995
rousse	-10.9997
sexuelle	-11
avortement	-11.0011
▁creusé	-11.002
usement	-11.0024
▁discipline	-11.0027
▁adoptée	-11.0027
▁interdite	-11.003
allée	-11.0038
▁africain	-11.0041
agnac	-11.0044
chal	-11.0051
ssions	-11.0054
▁Bh	-11.0062
▁tracte	-11.0067
▁Vil	-11.0075
▁débuter	-11.0075
▁cuisiné	-11.0095
origa	-11.0101
▁parvenue	-11.0109
▁débo	-11.0112
▁cycle	-11.0133
▁établiss	-11.0136
▁pèser	-11.0138
▁gardée	-11.0143
intervention	-11.0145
▁gér	-11.0149
interrupt	-11.0166
lic	-11.0175
▁froide	-11.0176
réales	-11.018
toral	-11.0182
▁stricte	-11.0188
géré	-11.0208
archéologi	-11.0214
ouva	-11.0215
▁intéressante	-11.0215
cad	-11.0222
prime	-11.0228
▁estimé	-11.0229
logé	-11.0229
happa	-11.0231
TT	-11.0248
résistante	-11.026
▁Gar	-11.0262
▁raid	-11.0263
▁voyag	-11.0267
▁Jud	-11.0268
fois	-11.0268
yd	-11.0268
▁concentrée	-11.0271
▁décrite	-11.0272
▁associée	-11.0272
grad	-11.0287
▁skieur	-11.0318
▁connaîtra	-11.0319
dentique	-11.0327
▁grè	-11.0332
ejon	-11.0332
▁écouté	-11.0344
écria	-11.0349
▁remplacée	-11.0353
▁salu	-11.0353
FA	-11.0393
▁désign	-11.0398
ueuse	-11.0408
▁simul	-11.0429
jet	-11.0437
PN	-11.0447
vot	-11.0453
▁168	-11.0456
▁administr	-11.0494
rrog	-11.0506
▁Rog	-11.0509
éris	-11.0532
alestin	-11.0546
mad	-11.0553
tel	-11.0554
▁venue	-11.057
ulga	-11.0576
▁transformer	-11.0639
▁abordé	-11.0644
▁voulai	-11.0648
Ans	-11.0657
▁transmett	-11.0672
ctrice	-11.068
▁raconter	-11.0742
▁distra	-11.0745
▁Hal	-11.0756
▁Mar	-11.0761
▁tableau	-11.0788
ulu	-11.0793
▁interacti	-11.0794
▁proposer	-11.0799
▁nov	-11.0804
▁emp	-11.0826
▁nécessiter	-11.083
ersailles	-11.0833
Wales	-11.0839
ocation	-11.0842
viendra	-11.086
▁Ti	-11.088
▁interprét	-11.0893
oquer	-11.0903
▁anglaise	-11.0924
▁fraise	-11.0926
▁pèse	-11.0933
▁effondr	-11.0934
▁animale	-11.0941
expulsion	-11.0948
ueux	-11.0949
arrivera	-11.0959
crut	-11.0961
atoire	-11.0963
Australien	-11.0988
▁149	-11.0988
rum	-11.099
oyez	-11.1008
enseignement	-11.1009
stina	-11.1042
▁brésilien	-11.1058
étra	-11.1063
dro	-11.1066
hors	-11.1067
▁creus	-11.1067
▁avort	-11.1073
orbite	-11.1098
▁foi	-11.1107
▁façonn	-11.1125
graphique	-11.1135
interroger	-11.1136
azz	-11.1145
nale	-11.116
uba	-11.1165
▁modèle	-11.1179
▁rendue	-11.1185
oche	-11.1205
robi	-11.1253
enferm	-11.1267
▁léger	-11.1275
▁charn	-11.1285
ç	-11.1288
▁gén	-11.1296
▁volée	-11.1311
affronter	-11.1317
rive	-11.1319
▁Kri	-11.1346
ourd	-11.135
▁furi	-11.1357
occup	-11.1362
▁poursuite	-11.1364
opposition	-11.1405
rôle	-11.1406
admire	-11.1406
étoile	-11.1408
résident	-11.1408
assurance	-11.1408
prend	-11.1408
michel	-11.1409
affich	-11.1411
seize	-11.1412
pierre	-11.1412
système	-11.1415
▁consta	-11.142
change	-11.1432
écrire	-11.1439
▁off	-11.1446
▁assembl	-11.1475
▁styl	-11.148
▁chinois	-11.149
roi	-11.1491
▁Bell	-11.1497
mper	-11.15
oins	-11.1506
▁cheve	-11.1513
▁voyai	-11.1531
▁soci	-11.1534
affect	-11.1542
▁favorise	-11.1544
▁Fer	-11.1545
usine	-11.1549
▁Mich	-11.1553
▁essentiel	-11.1558
plomb	-11.1559
▁voudr	-11.1559
▁écriv	-11.1561
▁promen	-11.1566
élém	-11.1567
hausse	-11.1569
ifiée	-11.1569
▁contenue	-11.1569
▁trembl	-11.1572
inspir	-11.1573
▁favori	-11.1573
▁intimid	-11.1577
accélérer	-11.1577
applaudi	-11.1577
apprêt	-11.1577
arrondissement	-11.1577
ennedy	-11.1577
sunción	-11.1577
thèse	-11.1577
▁aménagé	-11.1577
▁biblioth	-11.1577
▁bêtise	-11.1577
▁clarifie	-11.1577
▁collectionneur	-11.1577
▁compliqué	-11.1577
▁contemporain	-11.1577
▁cravate	-11.1577
▁diplôme	-11.1577
▁disparaît	-11.1577
▁débouché	-11.1577
▁eût	-11.1577
▁garnison	-11.1577
▁grièvement	-11.1577
▁hât	-11.1577
▁inhabité	-11.1577
▁insupportable	-11.1577
▁joseph	-11.1577
▁limitrophe	-11.1577
▁lâche	-11.1577
▁piscine	-11.1577
▁poète	-11.1577
▁protégé	-11.1577
▁reprendra	-11.1577
▁reprit	-11.1577
▁ressuscit	-11.1577
▁rouillé	-11.1577
▁sceptique	-11.1577
▁terrasse	-11.1577
▁vengeance	-11.1577
exploration	-11.1577
▁agricole	-11.1577
▁bernard	-11.1577
▁bronze	-11.1577
▁couloir	-11.1577
▁cultiv	-11.1577
▁dispositif	-11.1577
▁idiot	-11.1577
▁madrid	-11.1577
▁éclat	-11.1577
▁console	-11.1577
▁crypt	-11.1577
▁derrière	-11.1577
▁espoir	-11.1577
▁nôtre	-11.1577
▁pérou	-11.1577
altitude	-11.1577
culté	-11.1577
▁agressive	-11.1577
▁imprimante	-11.1577
▁récip	-11.1577
▁bonheur	-11.1577
▁idéal	-11.1577
▁poèmes	-11.1577
▁rentré	-11.1577
▁combattants	-11.1577
▁tissu	-11.1577
▁renouvel	-11.1577
▁mourir	-11.1577
▁york	-11.1577
▁allumé	-11.1577
▁courtois	-11.1578
▁robert	-11.1578
▁culte	-11.1578
maritime	-11.1578
▁arrang	-11.1578
essence	-11.1578
▁vapeur	-11.1578
▁rencontré	-11.1578
▁propuls	-11.1578
▁marrant	-11.1578
▁rochelle	-11.1578
aspill	-11.1578
▁aimons	-11.1578
▁canard	-11.1578
dward	-11.1578
▁régal	-11.1578
▁facial	-11.1578
▁insult	-11.1578
▁langage	-11.1578
fausse	-11.1578
▁coquille	-11.1578
▁dauphin	-11.1578
élever	-11.1578
▁cuivre	-11.1578
▁milite	-11.1578
▁drame	-11.1578
▁discussion	-11.1579
▁sépare	-11.1579
▁frotte	-11.1579
▁martel	-11.1579
▁contemple	-11.1579
▁contient	-11.1579
▁messieurs	-11.1579
▁prouve	-11.1579
▁tort	-11.1579
noï	-11.1579
▁stabiliser	-11.1579
illance	-11.1579
▁intense	-11.1579
▁farce	-11.1579
▁sauce	-11.1579
▁genè	-11.158
▁aimeriez	-11.158
▁colonisation	-11.158
▁posture	-11.158
▁voudrais	-11.158
▁prénom	-11.158
▁obscure	-11.158
▁banqui	-11.1581
▁sportive	-11.1581
▁directrice	-11.1581
▁oreilles	-11.1581
▁juda	-11.1581
▁sinon	-11.1581
▁souris	-11.1582
▁tomba	-11.1582
▁balance	-11.1582
▁progressiv	-11.1582
▁brand	-11.1582
udits	-11.1582
▁piano	-11.1582
▁talen	-11.1582
lès	-11.1583
▁douce	-11.1583
▁protect	-11.1583
▁convention	-11.1583
▁inspiré	-11.1584
▁croix	-11.1584
▁secret	-11.1584
▁scandaleux	-11.1584
▁dramatique	-11.1584
▁pipe	-11.1585
▁goutte	-11.1585
▁pauline	-11.1585
▁fumée	-11.1586
▁corr	-11.1586
harma	-11.1586
sourire	-11.1586
drapeau	-11.1587
▁espi	-11.1587
▁aimeront	-11.1587
apparaissent	-11.1587
hristophe	-11.1588
▁obéiss	-11.1588
▁éliminé	-11.1589
▁refroidit	-11.1589
nnette	-11.1589
▁barth	-11.159
▁judo	-11.1591
▁folle	-11.1591
▁poche	-11.1592
riff	-11.1592
▁global	-11.1592
▁dessinée	-11.1592
▁climatis	-11.1592
▁sauve	-11.1593
▁industriel	-11.1593
▁barrière	-11.1593
▁pleurai	-11.1594
▁filet	-11.1594
▁malheureusement	-11.1594
▁revoir	-11.1595
▁séance	-11.1595
▁pourcent	-11.1595
▁félicit	-11.1596
llas	-11.1598
halte	-11.1599
magin	-11.1599
lman	-11.1599
▁aimeraient	-11.16
iable	-11.1603
▁pirates	-11.1603
oko	-11.1605
enfuir	-11.1606
▁fol	-11.1609
▁wat	-11.1609
▁bruy	-11.161
▁prince	-11.1611
▁pond	-11.1611
▁maré	-11.1612
arme	-11.1612
apparaîtr	-11.1612
oka	-11.1612
▁publicité	-11.1613
▁soif	-11.1613
saac	-11.1615
▁promener	-11.1615
▁favoriser	-11.1616
▁annonça	-11.1617
▁modéré	-11.1617
▁sourd	-11.1619
▁lisez	-11.1621
▁aimez	-11.1622
icane	-11.1624
arin	-11.1625
▁arthur	-11.1627
effraya	-11.1629
▁roulait	-11.1638
▁retourne	-11.1641
ssy	-11.1642
▁pleuv	-11.1646
▁centim	-11.1646
▁paque	-11.1647
▁anonyme	-11.1647
▁filtre	-11.1648
▁évaluation	-11.165
▁vérifier	-11.1654
▁succédé	-11.1656
▁vertu	-11.1657
achin	-11.1658
▁demandez	-11.1662
mplissez	-11.1663
acci	-11.1666
▁rire	-11.1667
▁profitent	-11.1675
▁sablé	-11.1677
assemblée	-11.168
▁Mac	-11.1681
▁plaire	-11.1681
▁paraîtr	-11.1688
▁travaillez	-11.1695
nig	-11.1698
▁cassée	-11.1698
▁ainé	-11.1699
cker	-11.1707
▁valent	-11.1709
myr	-11.1711
▁développée	-11.1711
▁réduit	-11.1711
▁sélectionn	-11.1726
▁prier	-11.1732
▁bat	-11.1733
nk	-11.1749
hul	-11.175
venant	-11.1755
▁regrette	-11.1758
▁disposé	-11.176
▁soup	-11.1761
▁osc	-11.1763
agant	-11.1772
▁profondeur	-11.1775
posées	-11.1794
iano	-11.1801
▁Mau	-11.182
▁new	-11.1824
▁destiné	-11.1836
akou	-11.1844
dition	-11.1844
erts	-11.185
gio	-11.1861
rmes	-11.1863
naz	-11.1874
▁nar	-11.1876
venons	-11.1878
▁proposée	-11.1894
naît	-11.1896
▁Lion	-11.1903
vall	-11.1907
▁fondation	-11.1914
▁bad	-11.1916
apais	-11.1918
Hom	-11.1922
▁fournit	-11.1926
▁débarrasse	-11.194
▁plair	-11.195
isseau	-11.1964
▁fiscal	-11.1975
▁régionale	-11.1976
énin	-11.1992
phan	-11.1999
tisan	-11.2006
héritier	-11.2037
▁administrati	-11.2052
▁dénom	-11.2052
EP	-11.2055
blo	-11.206
oussin	-11.2081
▁orbit	-11.2082
SA	-11.209
alca	-11.2103
léon	-11.2107
▁conquér	-11.2115
▁prédi	-11.2141
athlète	-11.2157
▁vivon	-11.2177
évolue	-11.2194
▁invit	-11.2203
▁enregistre	-11.222
▁surveill	-11.223
▁prendr	-11.2231
▁cerc	-11.2232
▁assai	-11.2277
▁fum	-11.2281
▁matéri	-11.2295
mener	-11.2325
▁prop	-11.2344
▁barb	-11.2355
ario	-11.2355
encé	-11.2357
osque	-11.2396
ecta	-11.2403
▁fal	-11.242
▁gran	-11.2428
▁commémorati	-11.244
▁posa	-11.2457
vu	-11.2458
▁expuls	-11.2489
mène	-11.2497
guil	-11.2503
ample	-11.2516
ulia	-11.2521
mante	-11.2527
▁symboli	-11.2535
rens	-11.256
gorde	-11.2575
▁répéta	-11.2577
ambourg	-11.2599
vité	-11.2605
ifie	-11.2613
▁autorise	-11.2618
▁Pat	-11.2628
ignan	-11.263
▁Fai	-11.2647
▁accueill	-11.2648
▁star	-11.2665
▁saura	-11.267
▁dissip	-11.2674
vel	-11.2698
▁interven	-11.2728
goro	-11.2728
lga	-11.2736
asti	-11.2768
▁recour	-11.2788
▁tonne	-11.2821
▁dissipe	-11.2826
▁social	-11.2839
▁réussir	-11.2882
▁peinte	-11.2883
ouge	-11.2915
▁expo	-11.2971
▁charl	-11.2994
urb	-11.2996
uli	-11.2998
ges	-11.303
▁calv	-11.3071
▁cuisin	-11.3078
harc	-11.3084
▁Wa	-11.3103
gali	-11.3106
▁côt	-11.3125
entendai	-11.3129
▁défendr	-11.3182
ulo	-11.3226
uédoise	-11.3235
▁doubl	-11.3256
▁jur	-11.3259
envers	-11.3261
▁nécessit	-11.3268
astre	-11.3274
fiction	-11.3307
nommé	-11.3337
servis	-11.3348
luk	-11.3366
▁gard	-11.3378
▁soumett	-11.3393
▁mettra	-11.3395
▁publi	-11.3417
list	-11.3443
▁retir	-11.3465
road	-11.3472
oignée	-11.3482
▁étroit	-11.3501
loué	-11.3504
▁déclin	-11.3562
cale	-11.3564
▁héri	-11.3581
humili	-11.3597
▁craint	-11.3597
▁péri	-11.3645
▁difficulté	-11.3678
▁parasite	-11.3682
▁peinture	-11.3683
▁roche	-11.3695
ouché	-11.3699
▁assi	-11.3704
NA	-11.3708
▁desserv	-11.3722
▁perturb	-11.3724
▁incendi	-11.3731
blin	-11.3734
▁visiteur	-11.3742
atten	-11.3755
stitution	-11.3762
▁mobil	-11.3769
équip	-11.3777
▁tig	-11.3779
▁destin	-11.3792
▁appartena	-11.3796
▁fabri	-11.38
▁doté	-11.3801
▁exc	-11.3818
▁sabl	-11.3821
donner	-11.3837
▁export	-11.3842
▁regrett	-11.385
▁extrai	-11.3861
lève	-11.3863
ission	-11.3879
ylan	-11.3893
suffisant	-11.3902
émeute	-11.3902
emplacement	-11.3904
existence	-11.3904
confort	-11.3905
pression	-11.3905
élu	-11.3906
œuvre	-11.3906
honor	-11.3906
écoutez	-11.3907
avril	-11.3908
examine	-11.3908
nistr	-11.3909
quinze	-11.3909
épreuve	-11.391
informatique	-11.391
internet	-11.391
rivière	-11.3912
pilote	-11.3912
france	-11.3913
entraîne	-11.3914
virus	-11.3914
août	-11.3914
oke	-11.3914
finale	-11.3915
struction	-11.3916
premier	-11.3916
odeur	-11.3916
quand	-11.3917
influence	-11.392
suivaient	-11.3924
polo	-11.3928
▁consacr	-11.3933
parties	-11.394
oxy	-11.394
typique	-11.3941
tourisme	-11.3949
titre	-11.3952
▁germa	-11.3955
rola	-11.3962
arité	-11.3964
▁souverain	-11.3965
▁succéd	-11.3978
▁roumain	-11.3987
▁crucial	-11.3987
▁scandale	-11.3988
nonyme	-11.3988
▁intelligent	-11.4008
▁captur	-11.4015
▁piq	-11.4019
ntoine	-11.4025
▁modér	-11.4027
▁épaisse	-11.4028
▁crain	-11.403
phonique	-11.404
applique	-11.404
acu	-11.404
▁négoc	-11.404
▁consen	-11.4043
ctuelle	-11.4045
justement	-11.4045
▁relat	-11.4045
▁préside	-11.4046
enfui	-11.4046
▁échou	-11.4046
▁corn	-11.4047
▁réveil	-11.4047
▁limog	-11.4047
▁pirat	-11.4049
undi	-11.4051
▁verrai	-11.4052
▁aigu	-11.4053
lympiques	-11.4055
▁réglement	-11.4056
rigue	-11.406
rléans	-11.406
▁caractéris	-11.406
▁ressort	-11.4063
▁consomm	-11.4069
aintenant	-11.4069
▁circul	-11.407
▁post	-11.407
observation	-11.4071
horloge	-11.4071
▁progress	-11.4072
effectue	-11.4072
olat	-11.4072
▁menti	-11.4072
adieu	-11.4073
çue	-11.4073
▁traumatis	-11.4074
adj	-11.4075
râce	-11.4075
▁protesta	-11.4075
jectif	-11.4076
âteaux	-11.4076
xpédition	-11.4076
▁sauva	-11.4077
blème	-11.4077
▁verra	-11.4077
proprié	-11.4077
ş	-11.4077
▁référ	-11.4077
▁délicat	-11.4077
▁périphéri	-11.4077
▁triomph	-11.4077
accompagnait	-11.4077
adagascar	-11.4077
affaibli	-11.4077
ambassade	-11.4077
ampshire	-11.4077
arbalète	-11.4077
baptiste	-11.4077
dyssée	-11.4077
ellington	-11.4077
enjamin	-11.4077
entrepreneur	-11.4077
escalier	-11.4077
fraîch	-11.4077
habiller	-11.4077
immigrant	-11.4077
iménez	-11.4077
indemnis	-11.4077
intersection	-11.4077
lisabeth	-11.4077
néerlandais	-11.4077
occurrence	-11.4077
oscopie	-11.4077
rkoutsk	-11.4077
ujian	-11.4077
ullivan	-11.4077
urbanisme	-11.4077
écroul	-11.4077
équateur	-11.4077
ă	-11.4077
ʻ	-11.4077
▁adolescents	-11.4077
▁apercevoir	-11.4077
▁attribuées	-11.4077
▁avancée	-11.4077
▁aveugle	-11.4077
▁bagarre	-11.4077
▁bavardage	-11.4077
▁bibelots	-11.4077
▁bizarre	-11.4077
▁bloqué	-11.4077
▁brochure	-11.4077
▁canapé	-11.4077
▁cannibale	-11.4077
▁chômage	-11.4077
▁collectivité	-11.4077
▁collecté	-11.4077
▁communiqué	-11.4077
▁compilation	-11.4077
▁comédiens	-11.4077
▁dialecte	-11.4077
▁divorc	-11.4077
▁déplor	-11.4077
▁dépouill	-11.4077
▁dérogation	-11.4077
▁désagréable	-11.4077
▁effectivement	-11.4077
▁empreinte	-11.4077
▁engagée	-11.4077
▁entrecoupé	-11.4077
▁facilité	-11.4077
▁glacial	-11.4077
▁grenouilles	-11.4077
▁homosexuel	-11.4077
▁hybrid	-11.4077
▁hydra	-11.4077
▁hypothèse	-11.4077
▁imprévu	-11.4077
▁indemne	-11.4077
▁informé	-11.4077
▁intempéries	-11.4077
▁itinérant	-11.4077
▁majuscule	-11.4077
▁marvejol	-11.4077
▁matelas	-11.4077
▁monseigneur	-11.4077
▁médiéval	-11.4077
▁noisettes	-11.4077
▁pavillon	-11.4077
▁perfection	-11.4077
▁piétinait	-11.4077
▁préjudic	-11.4077
▁pâl	-11.4077
▁recouvra	-11.4077
▁recueilli	-11.4077
▁représentation	-11.4077
▁robuste	-11.4077
▁réalisateur	-11.4077
▁récré	-11.4077
▁répète	-11.4077
▁rôti	-11.4077
▁sauvegarde	-11.4077
▁stupide	-11.4077
▁succomb	-11.4077
▁suppose	-11.4077
▁supposé	-11.4077
▁surintendant	-11.4077
▁sympt	-11.4077
▁tapissier	-11.4077
▁transfrontalier	-11.4077
▁treizième	-11.4077
▁vendredi	-11.4077
▁vicieuse	-11.4077
▁vigilant	-11.4077
▁écoulée	-11.4077
▁élogieuse	-11.4077
▁éprouv	-11.4077
examiné	-11.4077
unkerque	-11.4077
▁dragons	-11.4077
▁délices	-11.4077
▁emprunté	-11.4077
▁foncé	-11.4077
▁féod	-11.4077
▁parallèle	-11.4077
▁rédige	-11.4077
▁singulière	-11.4077
▁suicides	-11.4077
▁terrifié	-11.4077
▁télécharg	-11.4077
interview	-11.4077
élargi	-11.4077
▁balnéaire	-11.4077
▁compact	-11.4077
▁discut	-11.4077
▁déploie	-11.4077
▁galerie	-11.4077
▁incorpor	-11.4077
▁sanitaire	-11.4077
▁simplicité	-11.4077
▁thermo	-11.4077
rète	-11.4077
équitation	-11.4077
rawak	-11.4077
wood	-11.4077
▁chariot	-11.4077
▁confidentiel	-11.4077
▁créature	-11.4077
▁profils	-11.4077
▁proportion	-11.4077
▁rebondi	-11.4077
▁tronc	-11.4077
▁énum	-11.4077
ión	-11.4077
shirt	-11.4077
▁renonc	-11.4077
▁caillo	-11.4077
▁justifié	-11.4077
▁régner	-11.4077
ouddha	-11.4077
éditeur	-11.4077
▁délégués	-11.4077
▁médor	-11.4077
▁redresse	-11.4077
▁variable	-11.4077
allemagne	-11.4077
▁immer	-11.4077
▁réfléchissant	-11.4077
daho	-11.4077
gothique	-11.4077
▁armoire	-11.4077
▁cloud	-11.4077
▁diverti	-11.4077
escadron	-11.4078
▁copine	-11.4078
▁musicien	-11.4078
▁contracepti	-11.4078
▁débordé	-11.4078
ajourn	-11.4078
▁étendue	-11.4078
▁expertise	-11.4078
▁seigneur	-11.4078
▁cliquet	-11.4078
▁algues	-11.4078
▁cercueil	-11.4078
▁commandée	-11.4078
▁brasserie	-11.4078
▁croisillons	-11.4078
▁agressif	-11.4078
▁omni	-11.4078
▁persist	-11.4078
▁jésus	-11.4078
insister	-11.4078
church	-11.4078
élite	-11.4078
▁irland	-11.4078
▁reculé	-11.4078
▁parking	-11.4078
▁cueill	-11.4078
lizz	-11.4078
▁reconnaît	-11.4078
▁sculpture	-11.4078
▁effacé	-11.4078
▁implant	-11.4078
▁philippe	-11.4078
▁modul	-11.4078
▁professionnels	-11.4078
▁plaindr	-11.4078
aigle	-11.4078
▁précieux	-11.4078
hyper	-11.4078
abondan	-11.4078
énor	-11.4078
▁rénov	-11.4078
▁calibr	-11.4078
▁congé	-11.4078
▁brusque	-11.4078
ropol	-11.4078
orchestre	-11.4078
astings	-11.4078
▁milan	-11.4078
▁stoppée	-11.4078
▁embarqu	-11.4078
▁troublante	-11.4078
▁curieuse	-11.4078
ripen	-11.4078
ydney	-11.4078
▁explications	-11.4078
embau	-11.4078
▁james	-11.4078
okri	-11.4079
▁douani	-11.4079
▁lucien	-11.4079
ollant	-11.4079
▁charbon	-11.4079
frey	-11.4079
▁dégust	-11.4079
▁autonome	-11.4079
érable	-11.4079
▁manœuvr	-11.4079
▁résonne	-11.4079
▁irakien	-11.4079
▁allié	-11.4079
exicain	-11.4079
▁revers	-11.4079
uméli	-11.4079
▁conjoint	-11.4079
▁amass	-11.4079
appui	-11.4079
▁rayon	-11.4079
▁spécialisation	-11.4079
▁cubes	-11.4079
▁multimédia	-11.4079
nheim	-11.408
▁gradu	-11.408
▁disparition	-11.408
ohr	-11.408
▁cauc	-11.408
engale	-11.408
▁impériale	-11.408
▁sinc	-11.408
lder	-11.408
▁soupir	-11.408
▁respiration	-11.408
▁canadienne	-11.408
▁viendront	-11.408
▁chili	-11.408
▁ligue	-11.408
▁fixé	-11.408
▁déficit	-11.4081
▁soutiendra	-11.4081
▁turin	-11.4081
▁gravé	-11.4081
compatib	-11.4081
▁délir	-11.4081
▁différenci	-11.4081
▁prélève	-11.4081
▁savour	-11.4081
wanda	-11.4081
▁aimable	-11.4082
▁romantique	-11.4082
▁veuve	-11.4082
▁durable	-11.4082
▁accouche	-11.4082
▁nazi	-11.4083
▁fuir	-11.4083
▁entrait	-11.4083
koy	-11.4083
yenne	-11.4083
▁sociaux	-11.4083
▁mairie	-11.4083
▁pause	-11.4083
rôna	-11.4083
▁huss	-11.4083
▁poule	-11.4084
▁régulier	-11.4084
▁conforme	-11.4084
▁couronne	-11.4084
▁damien	-11.4084
edish	-11.4084
▁bail	-11.4084
hamba	-11.4084
arpenter	-11.4085
▁expédition	-11.4085
▁extrav	-11.4085
arches	-11.4085
ariat	-11.4085
agara	-11.4085
▁climatique	-11.4085
ichol	-11.4085
akland	-11.4085
▁mendi	-11.4086
▁doux	-11.4086
▁boulo	-11.4086
▁bah	-11.4086
▁détendu	-11.4086
ographiques	-11.4086
épinière	-11.4086
tualité	-11.4086
▁amiens	-11.4087
▁baseball	-11.4087
▁landes	-11.4087
▁colonne	-11.4088
▁danois	-11.4088
▁jauge	-11.4088
▁noyé	-11.4088
factur	-11.4089
▁fréquentées	-11.4089
taxe	-11.4089
▁communique	-11.4089
oronto	-11.409
▁ramass	-11.409
udd	-11.409
amendé	-11.4091
▁célébrés	-11.4091
▁chaos	-11.4091
acob	-11.4091
▁humo	-11.4091
▁valenc	-11.4092
ollege	-11.4092
▁croa	-11.4092
▁collé	-11.4092
aturne	-11.4092
▁rigol	-11.4092
ucarest	-11.4093
▁apparen	-11.4093
▁aquar	-11.4093
▁parlons	-11.4093
▁serveur	-11.4093
ingham	-11.4094
▁creux	-11.4094
▁supporter	-11.4094
▁argentin	-11.4094
▁récompenser	-11.4094
▁gand	-11.4095
▁libéral	-11.4095
▁marth	-11.4095
▁fondateur	-11.4095
▁réper	-11.4095
▁campus	-11.4096
▁souci	-11.4096
▁orléan	-11.4096
▁fusionn	-11.4097
gji	-11.4097
▁mathématique	-11.4097
ynch	-11.4098
couchet	-11.4098
▁exposée	-11.4098
▁fret	-11.4098
▁marius	-11.4098
▁rassi	-11.4098
▁étage	-11.4099
▁balcon	-11.4099
▁voudrait	-11.4099
ètres	-11.41
▁perp	-11.41
louse	-11.4101
▁restauré	-11.4102
▁ressemblait	-11.4102
▁payé	-11.4102
▁ouvrage	-11.4104
▁mutuel	-11.4105
▁recherché	-11.4105
immobil	-11.4105
racon	-11.4106
vront	-11.4106
▁renforc	-11.4107
vocation	-11.4107
▁décorés	-11.4107
▁pey	-11.4107
▁diversion	-11.4107
▁corona	-11.4108
▁limoges	-11.4108
intelligence	-11.4108
▁interf	-11.4109
▁secoué	-11.4109
ovan	-11.4109
othé	-11.411
amandes	-11.411
▁will	-11.411
▁réseaux	-11.4111
▁contrat	-11.4111
▁natal	-11.4112
▁revenait	-11.4113
erala	-11.4113
▁pêchera	-11.4113
▁illustration	-11.4114
beth	-11.4114
uzz	-11.4115
appliquer	-11.4116
▁intentionnel	-11.4116
▁enregistreur	-11.4116
▁filante	-11.4116
ymphon	-11.4116
▁jeunesse	-11.4118
▁créd	-11.4118
liff	-11.4118
▁alar	-11.412
ihu	-11.4122
▁verrait	-11.4123
▁carro	-11.4125
rigo	-11.4125
▁originel	-11.4126
alerme	-11.4126
ichel	-11.4127
▁électronique	-11.4129
▁expérimental	-11.4129
▁taba	-11.413
ébri	-11.4131
▁saluer	-11.4131
▁sérieux	-11.4131
▁fonctionnelle	-11.4132
▁légion	-11.4132
brook	-11.4133
▁fabu	-11.4133
▁tribun	-11.4133
presso	-11.4135
▁digne	-11.4135
▁borg	-11.4136
illier	-11.4136
entente	-11.4136
alth	-11.4136
▁mentir	-11.4136
alifa	-11.4137
▁manifester	-11.4137
odin	-11.4137
▁secondaire	-11.4138
▁maternelle	-11.4139
othi	-11.4141
▁maï	-11.4142
nama	-11.4143
einture	-11.4144
count	-11.4145
▁sapin	-11.4145
▁coeur	-11.4146
▁paléo	-11.4147
▁plaide	-11.4148
▁maga	-11.4148
▁merveille	-11.4149
▁lisait	-11.4149
▁rangée	-11.4151
▁contra	-11.4154
mongol	-11.4155
▁mende	-11.416
▁toussa	-11.4162
okur	-11.4163
▁lança	-11.4166
cain	-11.4166
▁chaum	-11.4169
▁terreur	-11.4169
chio	-11.4171
hiti	-11.4174
eveli	-11.4174
▁devise	-11.4174
▁courageuse	-11.4176
yron	-11.4176
▁cérébrale	-11.4177
late	-11.4177
▁remarquable	-11.4181
entinelle	-11.4181
▁manu	-11.4186
bier	-11.4187
selli	-11.419
émocratique	-11.4193
▁produir	-11.4196
stain	-11.4198
▁vomi	-11.4199
▁attrapée	-11.42
échappé	-11.4201
agnes	-11.4203
rray	-11.4204
PE	-11.4207
osité	-11.4207
▁mary	-11.4208
ndro	-11.4209
orts	-11.4209
▁pel	-11.4211
▁conique	-11.4215
▁pillée	-11.4216
oint	-11.4217
érations	-11.422
scade	-11.4223
▁panam	-11.4224
zani	-11.4226
▁vén	-11.4226
Jet	-11.4227
▁pathologi	-11.4235
institution	-11.4257
▁nic	-11.4266
algar	-11.4268
▁triangul	-11.4269
outh	-11.4275
▁chassai	-11.4278
arist	-11.4279
guid	-11.4287
hurl	-11.4292
chés	-11.4294
▁188	-11.4297
revenant	-11.4299
nfa	-11.4303
bienne	-11.4304
▁perro	-11.4317
shing	-11.4323
obst	-11.4336
hud	-11.4337
▁fuy	-11.4341
chats	-11.4349
▁daté	-11.435
born	-11.4353
avière	-11.4365
inster	-11.4371
info	-11.4388
▁boit	-11.4389
▁mouch	-11.4407
▁rail	-11.4422
trol	-11.4441
▁perturbé	-11.4444
▁rame	-11.4445
mbai	-11.4448
gate	-11.4448
carlo	-11.4453
amuse	-11.4453
cueil	-11.4461
zzi	-11.4466
▁promet	-11.4468
▁jume	-11.4477
dger	-11.4484
issaient	-11.449
▁décorée	-11.449
ndeur	-11.4493
Enf	-11.4493
▁redoutai	-11.4503
grou	-11.4506
bill	-11.4506
▁confian	-11.4507
▁satisfai	-11.4528
▁termin	-11.4529
kaz	-11.454
traire	-11.4568
orporation	-11.4573
ín	-11.4584
▁continental	-11.4599
▁salé	-11.4609
exception	-11.4613
essentie	-11.4616
constitution	-11.4631
▁isol	-11.4634
▁verron	-11.4643
latéraux	-11.4647
gap	-11.4647
▁bro	-11.4666
▁broc	-11.4686
ssandr	-11.4701
▁enverrai	-11.4707
aní	-11.4736
assons	-11.4737
dway	-11.4765
▁vid	-11.4768
pardon	-11.4768
▁inaccessib	-11.4774
▁gardien	-11.4775
▁brésil	-11.4785
▁lug	-11.4822
▁conviendr	-11.4827
figurez	-11.4832
▁secou	-11.4838
atri	-11.4874
▁courb	-11.488
streint	-11.4891
▁Ki	-11.4898
▁dévi	-11.4923
▁redev	-11.4934
andre	-11.4936
▁revendiqué	-11.496
▁bac	-11.4961
hip	-11.4973
luminé	-11.4988
92	-11.5004
▁expose	-11.5007
▁remport	-11.5009
Atlant	-11.5017
entendez	-11.5032
jord	-11.5043
▁défend	-11.5045
active	-11.506
▁méth	-11.5093
prenant	-11.5103
▁hei	-11.5183
ulg	-11.5186
gab	-11.5213
frontières	-11.5217
rmout	-11.5246
nnen	-11.5252
raté	-11.5253
anneau	-11.5253
▁raso	-11.5262
▁indic	-11.5265
naissance	-11.5305
▁fonctionnai	-11.5308
▁ordonn	-11.5324
herbivores	-11.5336
▁subsi	-11.5343
petits	-11.5344
▁cyc	-11.5384
dian	-11.5384
▁instruct	-11.5384
▁déplaça	-11.5389
battant	-11.5394
lanche	-11.5401
▁amélior	-11.5464
céanie	-11.5465
écouta	-11.5475
16	-11.5475
▁attire	-11.5502
rko	-11.553
pei	-11.5567
guill	-11.5582
utorité	-11.5584
achetés	-11.562
61	-11.5644
ulmon	-11.5648
aji	-11.568
hark	-11.5698
980	-11.5725
muler	-11.5772
▁obéi	-11.5774
ébé	-11.5855
bés	-11.5921
▁flott	-11.5932
olini	-11.5951
ping	-11.5962
monos	-11.5996
upp	-11.6013
radi	-11.6026
▁commémor	-11.6034
posé	-11.6079
▁programm	-11.6124
rnic	-11.6127
lly	-11.6133
▁import	-11.6135
▁troubl	-11.6152
▁paill	-11.6165
onneuse	-11.6189
▁pét	-11.6231
entrai	-11.6242
▁illumin	-11.6266
▁recherch	-11.6268
inviter	-11.6269
▁revien	-11.629
vian	-11.6296
▁revendiqu	-11.6299
▁Cro	-11.6302
oup	-11.6329
▁exh	-11.6333
accessible	-11.6349
rmat	-11.6367
lames	-11.6373
reint	-11.6389
envoi	-11.6404
llage	-11.6412
thlète	-11.6441
Dam	-11.646
▁correspondan	-11.6479
atero	-11.6509
mpro	-11.6546
usqu	-11.6554
spéré	-11.6557
tirer	-11.6561
ongeu	-11.6566
exp	-11.6568
▁téléphon	-11.6572
hika	-11.6581
élog	-11.6585
érité	-11.6589
quisition	-11.6634
abituellement	-11.6638
andra	-11.6649
▁bilatéra	-11.6669
lète	-11.6684
▁satisfa	-11.6691
Univers	-11.6692
adwa	-11.671
▁diversifi	-11.6715
▁déclench	-11.6718
▁fisca	-11.6741
▁pieu	-11.6751
▁corpor	-11.6762
▁débarrass	-11.6795
élections	-11.6795
▁grimpe	-11.6798
▁allong	-11.6798
schém	-11.6811
rect	-11.6817
quérant	-11.6842
▁photographi	-11.6846
▁Australi	-11.6864
ofi	-11.6885
échauffement	-11.6887
▁sollicit	-11.6891
approvisionn	-11.6894
parti	-11.6899
▁(200	-11.692
▁turqu	-11.6921
▁négativ	-11.6924
▁coqu	-11.6928
impulsi	-11.6936
Occident	-11.6943
veillée	-11.6958
bey	-11.696
rendement	-11.696
grafe	-11.6966
▁apparu	-11.6977
▁partagé	-11.6977
▁télévisé	-11.6977
▁transfér	-11.6989
rocureur	-11.6989
hang	-11.6993
▁peupl	-11.7001
façons	-11.7002
▁classique	-11.7003
étique	-11.7006
▁blog	-11.7007
▁observateur	-11.7007
▁compagnon	-11.701
▁pâtisserie	-11.701
▁réduction	-11.701
▁Maori	-11.701
▁biologique	-11.7011
▁félin	-11.7014
▁compétence	-11.7015
▁indigène	-11.7016
aimerai	-11.7017
▁wagon	-11.7019
▁insecte	-11.702
▁vêtement	-11.702
▁employ	-11.7022
▁facteur	-11.7022
▁citoyen	-11.7024
▁élection	-11.7025
▁ruine	-11.7025
▁dollar	-11.7026
squée	-11.703
odifié	-11.703
duira	-11.7032
▁prépa	-11.7033
▁pist	-11.7034
▁facilite	-11.704
ragé	-11.7046
▁aspir	-11.7058
itariste	-11.7067
▁diab	-11.707
cheng	-11.7079
▁théori	-11.7083
▁urgen	-11.7096
hagiog	-11.7101
▁hostil	-11.7104
ctique	-11.7119
cédé	-11.7122
▁indé	-11.7129
▁catégori	-11.7144
▁titr	-11.7149
▁triang	-11.715
bord	-11.7152
▁inond	-11.7152
tricien	-11.7153
▁ango	-11.716
maréc	-11.7162
▁germ	-11.7163
apital	-11.7164
pua	-11.7165
Phon	-11.7168
X	-11.7177
véni	-11.7178
Eri	-11.7179
▁Sept	-11.7179
▁famili	-11.7183
voqué	-11.7186
Soy	-11.7186
stance	-11.7188
stible	-11.7189
iko	-11.7192
ermie	-11.7195
▁patho	-11.7196
istoriquement	-11.7197
mobile	-11.7202
épal	-11.7215
ongroise	-11.7215
affir	-11.7229
organis	-11.7233
explos	-11.7233
hérit	-11.7235
baptisée	-11.7236
jacques	-11.7236
AOL	-11.7236
Alaska	-11.7236
Empire	-11.7236
Israël	-11.7236
atterrir	-11.7236
boîte	-11.7236
inconnu	-11.7236
adoption	-11.7236
meubles	-11.7236
Égypte	-11.7236
India	-11.7236
contente	-11.7236
accr	-11.7237
Marie	-11.7237
intéressante	-11.7237
accent	-11.7237
offrir	-11.7237
original	-11.7238
abatt	-11.7238
diffusion	-11.7238
comte	-11.7238
nomade	-11.7239
connaiss	-11.7239
franchi	-11.724
genre	-11.724
tourner	-11.724
arabe	-11.724
employé	-11.724
aperçu	-11.724
harmoni	-11.724
lancer	-11.7241
▁personn	-11.7241
polonais	-11.7241
scolaire	-11.7241
attitude	-11.7241
biologiques	-11.7241
puisqu	-11.7242
dessous	-11.7242
atterrissa	-11.7242
différemment	-11.7242
enveloppe	-11.7242
exécut	-11.7242
négatif	-11.7242
adulte	-11.7242
anniversaire	-11.7243
W	-11.7243
Haïti	-11.7243
James	-11.7243
proies	-11.7243
indigènes	-11.7244
étape	-11.7244
combin	-11.7244
allons	-11.7244
longueur	-11.7244
voisin	-11.7244
japonaise	-11.7244
160	-11.7244
personnelle	-11.7245
profond	-11.7245
surveillance	-11.7245
envisage	-11.7245
rythme	-11.7245
allemand	-11.7245
quatrième	-11.7245
immédiat	-11.7245
profit	-11.7245
déjeuner	-11.7246
insectes	-11.7246
vêtements	-11.7246
local	-11.7246
international	-11.7246
quatorze	-11.7246
temple	-11.7247
crayon	-11.7247
italien	-11.7247
qualifié	-11.7247
pied	-11.7247
disponibles	-11.7247
commission	-11.7247
mesures	-11.7248
How	-11.7248
magasin	-11.7248
physique	-11.7248
J	-11.7248
café	-11.7248
générale	-11.7248
soleil	-11.7248
▁faibl	-11.7248
▁admissi	-11.7248
%	-11.7248
principale	-11.7248
XI	-11.7248
notamment	-11.7248
Lorsqu	-11.7248
29	-11.7248
réseau	-11.7249
dernier	-11.7249
lumière	-11.7249
▁lumineu	-11.7249
population	-11.7249
région	-11.7249
famille	-11.7249
toujours	-11.7249
peuvent	-11.725
(	-11.725
racine	-11.7252
▁satellit	-11.7252
capable	-11.7252
moto	-11.7252
écart	-11.7252
▁spiritue	-11.7253
▁démocrati	-11.7254
ignore	-11.7256
Kar	-11.7257
36	-11.7257
18	-11.7258
▁exportat	-11.7259
chose	-11.7259
▁entouré	-11.7262
hospitali	-11.7263
▁oriental	-11.7265
▁natur	-11.7272
ittéra	-11.7273
rillo	-11.7275
joint	-11.7276
▁racont	-11.7286
▁résult	-11.729
leuve	-11.729
▁étiquet	-11.7291
pprendre	-11.7293
ffaires	-11.7294
ivisée	-11.7294
marie	-11.7294
▁bactéri	-11.7296
rticle	-11.7298
▁concurren	-11.7299
▁œuvr	-11.7299
▁pyramid	-11.73
▁critiqu	-11.7301
▁minut	-11.7302
▁bataill	-11.7304
▁reconstrui	-11.7304
russe	-11.7304
ğ	-11.7411
ó	-11.7411
Â	-11.7411
$	-11.7411
+	-11.7411
Õ	-11.7411
Ü	-11.7411
ã	-11.7411
õ	-11.7411
”	-11.7411
ū	-12.2411
&	-13.2411
å	-13.2411
ā	-13.2411
ň	-13.2411
α	-13.2411
τ	-13.2411
υ	-13.2411
ễ	-13.2411
€	-13.2411
č	-13.2411
š	-13.2411
“	-13.3175
ł	-13.3176
ñ	-13.3177
[	-13.3178
ë	-13.3179
Y	-13.318
—	-13.3181
Q	-13.3182
"	-13.3183
œ	-13.3184
ù	-13.3185
â	-13.3186
û	-13.3187
î	-13.3188
ê	-13.3189
