▁$
$
$1
$
€
000
000
,000
▁00
00.
▁00
▁0
:0
02
02
04
0
0
1000
▁100
100
▁10
10
▁»)
_
:
—
;
"""
]
▁°
»
”)
»
▁10
°
=
1,
▁1,
1.
1:
-1
▁11
▁1.
11
▁/
“
%
&
+
°
̋
%
(
+
”
▁11
▁120
▁120
▁12
12
▁12
13
&
“
[
—
"
[
«
(
▁(14
▁14
14
▁149
▁15
▁(15
153
▁15
▁160
160
16
▁(16
16
▁168
▁16
▁16
17
▁175
▁177
▁17
▁17
▁18
▁181
▁181
18
▁1
1
▁188
189
1895
1895
▁18
-19
▁19
▁1920
▁1
1
▁1940
▁1945
▁195
▁1959.
▁1960
▁196
▁196
▁1970
▁197
▁1977
▁1979
▁1979
▁197
▁198
▁198
1981
▁(1
▁1988
▁199
▁19
1994
▁1995
1998)
▁199
200
▁(200
2002)
▁2004
▁2005
2006
▁2006
▁2007
▁2008
▁2009
▁200
▁200
▁2010
▁2011
▁20
20-
▁2013
▁2015
▁2016
▁2017
▁201
▁2020
▁202
▁20
▁2.
▁2,
▁(2
2,
▁2:
▁(2
21
▁220
220
22
22
▁22
23
24
▁24
25
▁25
▁28
▁2
▁29
29
▁2
2
2
300
30
30
▁30
▁30
-3
▁(3
▁3,
3,
▁(3
▁(31
.
▁32
▁34
▁34
34
.
,
▁35
▁35
36
▁36
'
,
▁37
3
39
▁39
▁3
▁3
3
39
▁400
400
▁400
40
40)
▁40
▁40
4,
▁4
▁
41
44
’
▁45
▁46
46
468
-
480
▁48
▁48
4
4
49
▁4
'
▁500
▁50
50
▁50
▁
50
▁5
▁.
53
▁53
55
▁56
▁?
5
▁5
5
▁60
60
▁60
▁6
61
61
62
?
▁(
▁!
-
▁«
▁64
64
▁(
▁“
6-6
)
▁»
)
68
”
▁6
69
6
6
6,
▁70
...
▁:
?
!
76
76
▁76
▁?
).
77
78
▁».
”.
).
7
▁7
7
▁;
▁7
:
800
800
80
▁80
▁802.11
▁802.11
;
▁80
▁8
/
83
▁!...
!
▁—
▁-
▁?...
88
–
89
89
8
8
▁8
90
▁90
90
▁"
▁(90
▁%
"
’
9
▁9
▁(9
92
92
93
▁...
▁!
/
94
«
96
...
980
▁""
▁9
9
á
á
ä
ă
Â
Â
ã
ā
ã
å
ā
â
▁a
▁à
a
▁a
a
▁A
▁A
à
A
À
à
â
A
▁à
ab
▁ab
AB
▁aba
▁abada
abandon
abaranin
▁abatt
abatt
▁abattu
abb
▁Abé
▁Abe
▁abé
▁abe
▁abena
▁abéna
▁abènan
abet
abéti
abi
▁abi
abituellement
▁abla
able
ables
abli
abo
abondan
▁abord
abord
▁abordé
abot
abou
▁abrit
▁abrite
absen
▁absent
absolu
▁absolue
▁absolument
▁absorb
abus
▁AC
AC
ac
accéder
accélérer
▁accent
accent
accept
▁acceptable
▁accepte
▁accepté
▁acceptées
accès
accessible
▁accessible
acci
▁accid
accident
▁accident
▁accidenté
accompagnait
▁accompagné
accompagne
▁accompli
▁accord
accord
▁accordé
▁accordée
▁accords
▁accouche
▁accr
accr
accu
accueil
▁accueill
▁accueille
▁accueilli
▁accueillir
▁accusations
▁accusé
acée
achant
achat
▁acheté
achète
acheter
achètera
achetés
▁achevé
achin
achon
achu
▁acid
acid
acide
▁acier
acifi
ack
acks
acob
▁acquérir
▁acquis
ACTA
acte
▁actes
actif
action
▁action
▁actions
activ
▁active
▁activé
active
activité
▁activité
▁activités
▁actuel
▁actuelle
actuelle
▁actuellement
acu
ad
▁AD
ad
▁ad
adagascar
▁Adam
▁adama
▁Adamadé
▁adamadé
▁adamade
▁adamaden
▁adamadén
▁Adaman
▁adamande
▁Adamande
adaptation
▁adapté
▁adaptées
adapter
ade
▁adéquate
adesh
adhé
adieu
adj
▁administr
▁administrati
administration
▁admire
admire
▁admis
▁admissi
▁ADN
▁adolescents
▁adopté
▁adopte
▁adoptée
▁adoption
adoption
▁adresse
adresse
▁adressé
▁adulte
adulte
▁adultes
adwa
▁aérien
▁aérienne
▁aéroport
aéroport
AF
Af
afe
aff
affaibli
▁affair
affaire
▁affaire
affaires
▁affaires
affect
▁affecté
▁affecte
▁affectée
▁affectées
▁affich
affich
affir
affirm
▁affirmé
▁affirme
▁affront
affronter
▁Afg
▁Afghan
▁Afghan
▁Afghanistan
Afghanistan
Afi
▁Afi
afin
afina
aflè
▁afô
africain
▁africain
▁africaine
africains
▁Afrik
afrique
Afrique
▁Afrique
ag
agadji
agant
agara
agara
agas
agati
▁âge
age
âge
▁âgé
▁Âge
▁agen
▁agenc
agence
▁agent
agent
ages
agi
agir
▁agiss
agiss
agisse
agit
agnac
agnes
▁agnoumala
ago
agrandi
▁agréable
▁agressif
▁agressive
▁agricole
agriculteur
agriculture
agwè
▁ah
▁ah
Ahi
▁ahi
▁Ahi
ahiri
aï
ai
aï
▁ai
▁aide
aide
▁aidé
aider
▁aider
aient
aigle
▁aigu
aiguille
ailles
ailleurs
▁ailleurs
▁aima
▁aimable
▁aimaient
▁aimait
▁aimé
aime
▁aime
▁aimée
▁aiment
▁aimera
aimerai
▁aimeraient
aimerais
▁aimerait
▁aimèrent
▁aimerez
▁aimeriez
▁aimeront
▁aimez
▁aimions
▁aimons
ain
ain
▁ainé
aine
▁ainsi
▁Ainsi
aintenant
▁Air
air
▁Air
▁air
aire
▁Aires
aires
airi
▁Airways
ais
aise
aison
aît
ait
aji
ajibi
ajourn
▁ajout
▁ajouté
▁ajoutée
ajouter
ak
▁aka
akabana
▁akan
▁akè
aked
aki
aki
▁akili
▁akisidan
akistan
akland
akolossi
▁akonno
akou
akurun
▁al
al
▁al
al
▁Al
▁Ala
▁ala
▁alabatoso
▁alah
aland
alansoba
alapagos
▁alar
▁alasé
alasi
Alasika
▁Alaska
Alaska
▁alassé
Alb
▁Alb
▁alb
▁albert
▁albɛr
▁albi
▁albɔm
album
▁album
alca
alcool
▁alcoolisées
ald
▁Ald
ale
▁Ale
▁ale
▁alé
ale
▁Ale
▁Aleman
alement
▁alentour
alerme
alerte
▁alerte
▁alertes
ales
alestin
▁Alex
▁Alex
▁alex
▁Alexandr
Alexandre
▁alɛksi
▁alfrɛ
algar
▁algues
alheureusement
▁ali
ali
▁Ali
▁alibi
▁Alibi
alifa
▁aliman
▁Aliman
▁alimentaire
▁aliments
alini
alisée
aliser
alité
▁all
▁All
▁All
▁Allah
▁allait
▁allant
▁Alle
▁allé
▁alle
allée
▁allée
▁Allema
▁allemagn
allemagne
Allemagne
▁alleman
▁Alleman
allemand
▁allemand
▁allemande
▁Allen
▁aller
aller
▁allez
▁Alli
▁Alli
▁alliage
▁alliance
▁allié
▁allong
allongent
▁allons
allons
allu
▁allumé
▁Alon
▁Alonso
alors
▁alors
▁alou
▁Alp
alph
▁alph
▁alpin
alpinisme
▁alt
alth
altitude
▁alu
▁alugu
▁am
am
am
ama
▁Ama
ama
▁ama
aman
amanaw
▁amand
amandes
amanin
amankè
▁amant
▁amass
▁amateurs
Amazone
▁amb
ambassade
▁ambe
amber
ambiguïté
ambiti
ambod
ambourg
âme
▁âme
▁amélior
▁amélioré
améliorer
▁aménagé
aménagement
amendé
amendement
▁amendement
▁amendements
▁Ameri
▁améric
améric
▁America
▁Americain
▁américain
▁américaine
▁américaines
▁américains
▁Americainw
▁Amérik
▁amerik
Amérik
▁amériki
▁Ameriki
▁Amériki
▁ameriki
▁amerikin
▁Amerikin
amérique
Amérique
ami
▁ami
amian
▁amical
▁amie
▁amiens
▁amino
▁amis
amis
amou
▁amour
amour
amp
ampe
ample
ampon
ampoule
ampshire
▁Amsterdam
Amsterdam
amuse
▁an
an
an
▁An
▁an
ana
anage
analyse
anarchie
anbagato
▁anc
ance
ancer
ances
anch
anci
▁ancien
ancien
▁ancienne
ancienne
▁anciennes
▁anciens
▁and
and
▁and
anda
anda
ande
andinav
andis
andonnée
andr
andra
andré
▁andre
andre
ang
▁Ang
▁Ang
▁anga
ange
▁Angel
▁Angel
▁angel
▁Angeles
▁Angilè
▁angilɛ
▁Anglais
anglais
▁anglais
▁anglaise
▁Anglè
▁anglè
▁angle
▁ango
▁Angola
angola
angui
▁Anguil
▁anguilè
▁Anguilè
▁Anguilétèri
angw
ani
▁Ani
aní
▁ani
ani
▁anidô
anifesta
▁anim
▁Animal
▁animal
▁animale
▁animaux
anime
anistan
anjalan
ank
▁anka
ankourouni
anman
▁Ann
anna
anneau
▁année
année
▁années
années
annes
▁anniversaire
anniversaire
▁annonça
annonce
▁annoncé
▁annonce
▁annoncée
▁annu
▁annuel
▁annul
annul
▁anonyme
anranma
Ans
▁ans
ans
anscri
ansi
ansiguili
ant
▁Anta
antaf
▁Antar
Antarctique
▁Antartic
ante
antes
anthrop
▁anti
anticipe
Antiquité
▁antiquité
anto
▁antoin
▁antoine
▁antoine
▁anu
▁anw
anyon
▁AOL
▁AOL
AOL
AOL
août
▁août
AP
AP
ap
▁ap
apais
▁apercevoir
▁aperçu
aperçu
▁Apia
▁apilikatchôn
apital
apitali
apo
apolis
Apollo
app
▁App
apparaissent
apparaîtr
▁appare
▁appareil
appareil
▁appareils
▁apparen
▁apparenté
▁apparition
apparition
appartement
▁appartena
▁appartenan
▁appartien
▁apparu
▁apparue
appel
▁appel
▁appelé
▁appelée
▁appelez
▁appelle
appelle
▁appellent
appellent
▁Appl
▁appl
applaudi
Apple
▁Apple
▁applica
applique
appliquer
▁apport
apport
▁apporté
▁apporter
▁apportez
▁appréci
apprenant
▁apprend
▁apprendre
apprendre
apprentissage
apprêt
▁appris
approch
▁approche
approche
approvisionn
▁approximative
appui
▁après
après
▁Après
apsul
▁aquar
▁Ar
ar
▁Ar
Ar
ar
▁ar
ârâ
ara
▁Arab
▁araba
▁arabalo
▁arabalon
▁arabe
arabe
▁Arabes
▁arabou
▁arabu
arada
aradar
araka
araon
▁aras
araw
arawak
arbalète
▁arbor
▁arbre
arbre
arc
▁Arc
arch
arch
archéologi
arches
archet
▁Archi
archipel
▁archipel
architect
ard
ard
▁ardɛn
ards
are
argent
Argentin
▁Argentin
▁argentin
▁Argentine
argot
ari
▁Ari
▁Arias
ariat
arike
arikou
arin
arine
ario
ario
▁Aris
arisa
▁Arisit
▁Arist
arist
▁Aristo
Aristote
arité
ariya
ariyalatagama
Arizona
arm
arm
▁Arman
▁armé
arme
armée
▁armée
▁Armeni
Arménie
▁Armenie
▁armes
▁armoire
arolina
arpenter
arque
arrache
▁arrang
arrestation
arrêt
▁arrêt
▁arrêté
▁arrêtée
arrêter
▁arrière
arrière
▁arriv
▁arrivé
▁arrive
arrivée
▁arrivée
▁arrivent
▁arriver
arrivera
arrondissement
▁Art
art
arter
▁arthur
▁Artic
▁article
article
▁artificielle
▁artikl
▁artistes
▁artistique
▁arts
as
AS
AS
as
ascension
ash
▁asi
▁Asi
asi
▁Asie
asie
aspect
▁aspect
aspill
▁aspir
▁assai
assar
▁assassiné
assaut
asse
▁assembl
assemblée
▁assez
▁assi
▁assis
assister
associ
▁Association
▁associé
▁associée
assons
assume
▁assur
assur
▁assurance
assurance
assurer
▁Assyri
▁assyrien
ast
asti
asting
astings
▁astr
astre
▁Astro
astuc
asub
▁asun
at
ATA
▁ataga
atar
atation
▁até
âteaux
atélit
atero
ateur
athlète
▁athlètes
ati
atica
atif
atifs
atimi
ation
ation
ations
atique
ative
atiw
▁atla
▁Atlant
▁Atlant
Atlant
▁Atlantiki
▁Atlantiqu
▁Atlantique
atmosphère
▁atmosphériques
ato
atoire
atoli
atoliki
▁atom
atome
▁atomes
▁atomi
▁atomou
atre
atri
atrice
ats
▁attaqu
attaque
▁attaque
▁atteign
▁atteindre
atteindre
▁atteint
atten
▁attend
attend
attendait
▁attendez
▁attendre
attendre
▁attendu
attentat
attente
attention
▁attention
▁atterrir
atterrir
▁atterrissa
atterrissa
▁attiré
▁attire
▁attirer
▁attitude
attitude
▁attra
▁attraction
attraction
▁attrap
▁attrapée
▁attribuées
atural
aturne
▁Au
▁au
▁Au
au
aube
▁auberge
Auckland
aucun
▁aucun
▁Aucun
aucune
▁aucune
aud
audience
auf
aug
▁augmenté
augmenter
aujourd
▁aujourd
▁Aujourd
▁auparavant
▁aura
aurai
▁aurait
▁aurez
aurez
auri
▁Aus
▁Aussi
▁aussi
▁austral
▁Australi
▁Australi
▁Australie
Australie
▁australien
Australien
▁australiens
▁Aut
aut
▁autant
▁auteur
auteur
authentique
▁auto
▁autochtones
▁automatique
automatis
automobil
▁autonome
autorisation
▁autorisé
▁autorise
▁autoriser
autorité
▁autorités
autoroute
▁Autre
▁autre
autre
▁autrefois
▁autrement
autres
▁autres
Autriche
▁aux
aux
▁av
av
▁Av
avai
▁avait
avait
▁aval
avalanche
avance
▁avancée
▁avansi
▁avant
avant
▁avantage
avari
avec
avenir
▁aventur
aventure
▁avenue
▁avéré
▁averti
▁avertissement
▁aveugle
▁avez
avez
▁Avi
▁avia
▁aviaire
avid
avie
avière
avion
▁avion
▁avion
▁avions
▁avis
avis
▁aviyôn
▁aviyon
▁aviyɔn
avocat
▁avocats
▁avoir
avoir
▁avoka
▁avort
avortement
▁avril
▁avril
avril
avy
▁aw
▁Aw
awa
awan
▁Award
awoloma
awou
▁awɔ
axi
ay
▁Aya
▁aya
aya
ayant
ayat
▁ayé
▁aye
▁Ayé
aye
▁Ayéssé
▁ayi
▁ayira
▁ayiwa
▁Az
▁Azerbai
▁Azi
azo
azz
▁b
▁b
▁B
▁B
b
b
B
B
▁Ba
bâ
bà
▁ba
ba
▁bâ
▁Ba
ba
▁bà
▁baa
▁Baa
▁baakè
▁Baara
▁baara
baara
▁baarada
▁Baarak
▁baarake
▁baarakè
baarakètcho
▁baasi
▁Bab
bab
▁Bab
▁baba
▁babo
▁babos
babuya
▁bac
bachi
▁Bachmann
▁bactéri
▁bactérie
▁bactéries
▁bad
▁badji
▁badjou
▁bafè
baga
▁baga
▁bagabaga
▁bagage
▁bagaman
▁bagan
▁bagara
▁bagarada
▁bagarakè
▁bagarre
▁bagato
bagato
bagatô
bagatɔ
bagaw
▁bagaw
▁bah
▁baie
▁baign
▁bail
bains
▁baiser
▁baisser
▁baji
▁bakè
▁bakou
▁bal
▁Bal
▁Bal
▁bala
▁balan
▁balance
▁balaw
▁balcon
▁baleman
▁Bali
bali
▁bali
balima
▁balima
▁balimacɛ
▁baliman
baliw
baliya
ball
ball
▁balle
▁balnéaire
balo
▁balo
▁balobaga
▁balola
▁balôn
▁balon
▁balontan
▁balontanla
▁balora
▁balɔn
▁balɔntan
▁balti
▁Balti
▁Baltic
▁Baltique
bama
▁bamba
▁bamousso
▁bamuso
▁Ban
▁ban
▁ban
bana
▁bana
▁Bana
▁banabagatô
▁banabagatoh
▁banakisè
▁banakiss
banan
▁banan
▁banankisè
▁banba
▁banbali
banbali
▁banban
▁banc
band
▁bande
banga
▁bange
▁bangi
▁bangu
banin
bank
bank
▁banki
banni
▁banque
▁banquet
▁banqui
▁baou
▁baptisée
baptisée
baptiste
▁bar
▁Bar
▁Bar
▁bar
▁bara
bara
▁Bara
▁barada
▁baraka
barakan
▁barakê
▁Barake
▁barakè
▁barake
barakela
▁barakèla
▁barakera
▁barakɛ
▁barakɛla
▁barakɛyɔrɔ
▁barala
barani
baranin
▁barb
▁barbe
▁Barc
▁Barcelon
▁Barcelon
▁bari
barigo
▁barigo
barika
▁barika
▁barikam
▁barikaman
▁Baris
bariya
▁barka
▁barke
baro
▁baro
▁barr
barra
▁barra
▁barre
▁barrière
▁bartel
▁barth
Bas
▁bas
bas
▁base
▁basé
▁baseball
▁basée
basen
▁basi
▁basigini
▁basiginin
▁basikɛt
▁basket
▁basket
▁basse
▁bassi
bassi
bassigui
▁bassigui
▁bassiguini
▁bassin
▁bat
▁bataill
▁bataille
▁batailles
▁bateau
▁bateaux
▁bâtie
▁bâtiment
▁bâtiments
▁bato
▁Bato
▁batoli
▁batt
battant
▁battre
▁battu
▁bavardage
▁Baw
▁baw
baw
Bay
baya
▁bayèlèma
BC
▁Bè
bë
▁be
▁bé
▁bè
bé
bè
be
▁bê
▁Be
bê
▁beau
▁beaucoup
▁beauté
▁Beauty
beaux
▁bébé
bec
bèè
▁bèè
▁béfô
▁began
▁bèguè
▁beh
▁béhi
▁behi
▁bei
bei
bein
▁beka
▁bèkè
▁bel
bel
▁bèla
bele
▁bélé
▁bele
béleb
▁bélébélé
▁belebele
▁bélébéléba
▁belebeleba
▁Belg
▁Belg
▁belge
▁Belgique
▁Bell
▁Bell
▁belle
▁bèman
▁bèn
bèn
▁Bèn
▁ben
▁bena
▁béna
▁bèna
▁bènan
▁bénan
▁bènb
▁bénéfiques
▁bénévol
bèni
▁béni
▁bènka
▁benkan
▁benna
▁benni
ber
▁Ber
▁bér
▁ber
▁béré
▁Béré
▁bere
bère
bèrè
bêrê
▁bèrè
▁bèrèbè
bêrêma
berg
berg
bèri
béri
▁berlin
▁berlin
▁Berlin
▁Berlin
▁bernard
▁bèrô
bert
bés
▁bésé
bésé
▁besoin
▁bèssé
bet
bet
▁bête
beth
beth
▁bêtise
▁beto
bey
▁bèyé
▁beye
▁beyi
▁bɛ
bɛ
▁bɛɛ
▁bɛgɛ
▁bɛgɛn
▁bɛl
▁bɛn
bɛr
▁bɛra
▁bɛrɛ
▁bɛrlɛn
▁bɛrtra
▁Bh
▁bhajan
▁bhajan
▁Bhog
▁Bhutha
▁Bi
▁bî
Bi
▁bi
bi
▁Bi
▁bi
▁bibelots
▁bibl
▁bibl
▁biblioth
▁Bichkek
▁bidourou
▁biduru
▁biduuru
▁bié
▁biè
▁bien
▁bien
▁Bien
bienne
▁bientôt
bier
bière
▁Big
▁bigan
▁biganw
▁bii
▁bikɔnɔntɔn
▁bila
bila
bilako
▁bilasira
▁bilatéra
▁bilayôrô
bili
bill
▁billet
▁bilorou
▁biloru
▁bin
bin
bina
▁Bina
▁bina
▁binaani
▁binaire
▁binan
▁binani
▁binkan
▁binkélémany
▁bio
▁biologique
▁biologiques
biologiques
▁Bir
biri
▁biro
▁bis
▁bisaaba
▁bisaba
▁biseegi
▁biségui
▁Bish
▁bisi
▁bisigi
▁bisigui
▁bisou
▁bissa
bissaba
▁bissaba
▁bissé
▁bissi
▁Bissi
▁bissigui
▁bissimila
▁bit
bit
▁biwolonfila
▁biworo
▁biwôrô
▁biwɔɔrɔ
▁biyé
▁bizarre
bl
▁bl
▁blâ
▁Bla
▁bla
bla
▁Black
▁Black
▁Blacks
▁blague
▁blak
▁blala
blanc
▁blanc
▁blanche
ble
ble
blème
bles
▁bless
▁blessé
▁blessés
▁blessure
▁blessures
bleu
▁bleus
blin
▁Blo
blo
▁bloc
▁Blog
▁blog
▁blogs
▁blogue
▁bloqué
▁bloquer
▁Bô
▁bo
▁bô
bô
bo
▁bo
bo
▁Bo
boarding
▁Bob
▁Bobek
▁Bobek
▁bobo
▁bochi
▁bôchi
▁bôçi
boda
▁bogn
▁bogna
bogna
▁bognan
▁bognin
▁bogot
boh
▁boh
▁bois
▁boisson
▁boissons
▁boit
▁boîte
boîte
boko
bola
▁bôla
bôla
▁bola
bôli
▁boli
▁bôli
boli
▁bolibaga
bolila
▁bolila
▁bolisira
▁Bolo
▁bôlô
▁bolo
bolo
▁boloci
▁Bologne
▁boloka
▁bolola
▁bolora
▁Bomb
▁bomb
▁bombe
▁bombou
▁bôn
bon
▁Bon
▁Bôn
▁bon
▁bon
bon
▁bonba
▁bonbon
▁bondé
▁bonheur
bôni
▁bôni
▁bonjou
▁bonjour
▁bonkɔnɔ
▁bonna
▁bonne
▁bonnes
▁bons
▁bonya
▁boɲɛ
▁boɲɛn
▁boɲɛna
▁boo
▁Boo
▁boomerang
Boot
bor
▁Bor
▁bor
▁Bor
bôra
▁bôra
▁bora
bord
▁bord
▁borg
▁bori
▁borife
borifén
▁borifén
▁boriféng
▁borikèla
▁borila
born
boro
▁bôrô
▁boro
▁borola
boroman
▁boroman
borow
▁bosse
bôssi
▁bôssi
▁Bot
▁botaniques
▁bottes
▁Bou
▁bou
▁bou
bouc
▁boud
▁bouddhis
▁bouger
▁bougn
▁bougô
▁bougo
▁bougou
bouill
▁boulangerie
▁boule
▁boules
▁boulevard
▁boulevers
▁boulo
▁bouô
bouô
bouo
▁bouo
bouoh
bour
bourg
bourou
▁bourou
▁bouroudjou
▁bout
▁boute
▁bouteille
▁boutiques
▁bouton
▁bouton
▁Bow
▁Bow
bow
▁bow
▁boyan
▁boyè
▁boyi
bôyô
▁bɔ
bɔ
▁bɔgɔ
▁bɔn
▁bɔnbɔn
▁bɔni
▁bɔɔra
bɔra
▁bɔra
▁bɔsi
▁bɔyɔrɔ
▁br
▁br
▁Br
bra
▁bran
▁Bran
▁Bran
▁branche
▁brand
▁bras
▁brasserie
▁brave
▁Brazilian
bre
▁bré
Bre
bre
▁bre
▁bref
▁brésil
▁Brésil
▁brésilien
▁bret
Bretagne
▁breton
▁bretɔn
▁brev
▁brev
▁Brezil
▁bri
▁Bri
▁brik
▁brisé
▁brise
▁Britannique
▁britannique
▁bro
▁bro
bro
▁broc
▁brochure
▁bronze
brook
▁Brother
brou
bru
▁bru
▁bruit
▁bruits
bruk
▁brûl
▁brûler
▁brun
▁brusque
▁brut
▁bruy
▁Bu
▁bu
bu
bu
▁bu
▁Bu
▁budget
▁Buffalo
▁Buffalo
bug
▁bugɔ
bugu
▁bugu
bul
▁bulalam
▁bule
▁buo
▁bureau
▁bureaux
burg
burg
▁buru
buru
▁Bus
Bus
▁bus
▁Bush
▁busi
▁but
▁but
▁buts
by
by
▁By
▁byzantin
▁bz
ç
ç
č
▁c
▁C
c
▁C
c
C
▁c
C
▁Ca
CA
ça
▁ça
▁ca
▁ca
ca
ca
▁caa
▁caama
▁caaman
cab
▁cabane
▁cabine
▁câble
▁Cabo
▁Cabo
▁caca
▁caché
▁cache
▁cad
▁Cad
cad
▁cadre
café
▁café
▁caillo
cain
cain
caisse
▁cal
▁Cal
cal
▁calcium
calcul
cale
▁calend
▁calibr
▁Califor
▁Californi
▁Californie
▁calv
▁cam
▁Cam
▁cama
▁caman
▁Camb
▁Cambodge
▁Cambridge
▁caméra
▁camion
▁Camp
▁camp
▁camp
▁campagn
▁campagne
▁camper
▁camping
▁campus
can
cana
▁Cana
▁canad
▁canada
▁Canada
▁Canada
▁canadien
▁canadienne
▁canal
▁canapé
▁canard
▁cancer
▁cancer
▁candidat
▁cannibale
çant
▁canyon
▁cap
▁Cap
▁cap
▁Cap
capable
▁capable
▁capacité
▁capacités
▁capita
▁capitaine
▁capital
▁capteur
▁captur
▁capturé
car
▁Car
car
▁car
▁car
▁Car
▁caractère
▁caractéris
caractéristiques
▁Caraïbes
▁carbon
▁carbone
▁carbone
▁carburant
▁card
▁cardi
carlo
▁caro
▁Caro
caro
▁caro
▁Carol
▁carré
▁carré
▁carrés
▁carrière
▁carro
▁carrosse
▁Cart
▁carte
▁cartes
▁carti
▁Cas
▁Cas
▁cas
▁Casa
▁Casa
▁casi
▁casino
▁Caspienne
▁cassé
▁cassée
▁cata
▁catalan
▁catastrophe
▁catégori
▁catégorie
▁cath
▁catholique
cation
▁cauc
▁cause
▁causé
▁caution
▁cavalerie
▁cavalier
▁caya
cc
cci
ccidan
cé
CE
▁ce
ce
▁Ce
ce
▁ce
céanie
ceaux
▁Ceci
▁céci
cédé
▁cee
▁cel
▁Cel
▁cela
▁célébr
▁célèbre
▁célébrés
▁célébrité
▁celil
cell
▁Cell
▁cell
▁celle
▁celles
cellulaire
▁cellule
▁cellules
▁celui
▁ceman
▁cen
▁cens
▁censé
▁cent
cent
▁cent
▁centaine
cente
▁cente
▁Center
▁centi
▁centim
▁centr
▁Central
▁central
▁centrale
▁centre
▁cents
CEP
CEP
cep
▁cependant
▁cerc
▁cercueil
▁cérébra
▁cérébrale
▁cérémonie
▁cérémonies
▁cerisier
▁cert
▁certain
▁Certain
▁certaine
▁certainement
▁certains
▁Certains
▁cerveau
ces
▁ces
▁cesse
cesseurs
▁Cet
▁cet
cette
▁ceux
▁cɛ
cɛ
▁cɛɛ
▁cɛgɛda
▁cɛjugu
▁cɛjuguni
▁cɛkaɲ
▁cɛkaɲi
▁cɛma
▁cɛman
▁cɛmancɛ
cɛn
▁cɛn
▁cɛni
▁cɛɲuman
▁cɛɲumani
▁Ch
▁Ch
ch
ch
▁ch
▁ch
cha
▁Cha
▁cha
▁Cha
▁cha
▁chaama
chaaman
▁chacun
▁chaise
▁chaises
chaisi
chal
chama
▁chama
chaman
▁chaman
▁chamanw
▁Chamb
▁Chambers
▁Chambers
▁chambre
▁chambres
▁champ
▁champ
▁champignon
▁Champion
▁Championnat
▁championnat
▁chance
▁Chandra
▁Chandra
change
▁changé
▁change
▁changement
▁changements
▁chanson
▁chant
▁chante
▁chanter
▁chanteur
▁chanteuse
▁chaos
▁chapelle
char
char
▁Char
▁char
▁charbon
▁chargé
charge
▁charge
▁chari
▁charia
▁chariot
chariya
▁chariya
▁charl
▁Charl
▁charle
▁charles
Charles
▁Charlotte
▁Charlotte
▁charm
▁charmant
▁charn
▁charr
▁chars
▁Chase
▁chassai
▁chasse
▁chasseur
▁chât
▁chat
▁château
▁châteaux
▁Chatham
chats
▁chaud
▁chaude
▁chauds
▁chauff
▁chaum
▁chauss
▁chaussures
chaya
▁ché
▁Che
che
che
▁chef
▁chefs
▁chegi
chégui
▁chégui
chell
chem
chem
▁chemin
cheng
cheng
cher
▁cher
▁cherch
▁cherche
▁chercher
▁chercheur
▁chère
chés
chest
chester
chet
chev
▁cheval
▁chevaux
▁cheve
cheveux
▁chevr
▁chèvres
chèya
chez
▁Chha
▁Chha
Chi
▁chi
chi
▁Chi
▁chia
▁chiama
▁chiaman
▁chic
▁chien
▁chienne
▁chiens
chiffr
▁chiffre
▁chiffres
chigui
▁chili
▁Chili
▁chimi
▁chimique
▁chimpanzé
chin
▁Chin
▁Chine
▁Chini
▁chinoi
▁Chinoi
▁chinois
▁chinoise
chio
▁chirurgie
▁chiya
chne
▁cho
▁choc
chogoya
▁choisi
▁choisir
▁choix
chôkô
▁chôkô
▁chômage
chose
▁chose
▁choses
▁chou
▁chou
▁chouhou
▁chrétien
▁Chrétien
chrétien
▁chrétienne
▁Christ
▁Christ
▁Christi
▁christianisme
▁chron
chu
chu
church
▁chute
▁chutes
chy
chy
▁Ci
çi
ci
ci
▁ci
▁ci
cia
▁cia
cian
ciation
▁cible
cides
cie
cie
▁ciel
cien
cience
cientifi
▁cii
▁cimetière
▁cin
▁cinéma
cinn
▁Cinq
▁cinq
cinq
▁cinquante
▁cinquième
▁cir
▁cira
▁circonstances
▁circul
▁circulation
▁Cit
cité
▁cité
▁citer
▁citoyen
▁citoyens
▁civi
▁civi
▁Civil
▁civil
▁civili
▁civilisation
ck
ck
cker
cks
Cl
▁cl
▁cla
▁clair
▁claire
▁clarifie
▁classé
▁classe
▁classement
▁classer
▁classi
▁classique
▁classiques
▁clav
▁clavi
cle
▁clé
clé
▁cli
▁client
▁clients
▁climat
climat
▁climatique
▁climatis
▁cliquet
▁clos
▁clôture
▁cloud
▁club
▁club
▁cm
▁cô
CO
▁CO
cô
co
▁co
▁co
co
▁Co
▁Co
cock
cock
▁code
▁coeur
▁cœur
▁cogn
▁cogo
cogo
▁cogodi
▁cogojuma
cogoya
▁côgôya
▁cogoya
▁cogoyasi
▁cohérence
▁cohérent
▁coin
▁coincé
▁col
▁Col
▁col
▁Colbert
cole
▁Coll
▁collabor
▁collaborateur
▁collé
▁collecte
▁collecté
▁collectif
▁collectionneur
▁collectivité
▁collègue
▁colli
▁colline
▁Colo
▁colon
▁colonel
▁colonial
▁colonie
▁colonisation
▁colonne
▁Com
▁com
▁com
▁Com
▁combat
▁combattants
▁combi
combin
▁combin
▁combiné
▁combl
▁comédiens
▁comi
▁comit
▁comité
▁comm
▁command
▁commande
▁commandée
▁comme
▁Comme
▁commémor
▁commémorati
▁commencé
▁commence
▁commencer
▁comment
▁commentaires
▁commerce
▁commercial
▁commerciaux
▁commis
▁commissaire
commission
▁commission
▁Common
commun
▁commun
▁commun
▁communauté
▁commune
▁communes
▁communi
▁communication
▁communiqué
▁communique
▁Comp
▁compa
▁compact
▁compagni
compagni
▁compagnie
▁compagnon
▁compagnons
▁compar
▁comparé
compatib
▁compétence
▁compétences
compétent
▁compétition
▁compilation
▁compl
▁complémentaire
▁complet
▁complète
▁complètement
▁complexe
▁complexité
▁compliqué
▁comport
▁comporte
▁comportement
▁comporter
▁composant
▁compose
▁composé
▁composée
▁composition
▁compréhensi
compréhension
▁compren
▁comprenait
▁comprend
▁comprendre
▁compris
▁comprom
▁compt
▁compte
▁compter
▁comte
comte
▁Con
con
▁con
▁Con
▁con
▁conce
▁concentration
▁concentré
▁concentrée
▁concentrer
▁concept
▁conception
▁concern
▁concerne
▁concernées
▁concert
▁conclu
▁conclure
▁conçu
▁concurren
▁concurrent
▁condamn
▁condamnation
▁condens
▁condition
▁conditionné
▁conditions
▁conducteur
▁conduir
▁conduis
▁conduit
cone
▁conférence
▁confi
▁confian
▁confidentiel
▁confirmé
▁confirme
▁confirmée
▁conflit
▁confond
▁conforme
▁confort
confort
▁confortable
▁confront
▁confronté
▁Cong
▁cong
▁congé
▁conique
▁conjoint
▁conn
▁connais
▁connaiss
connaiss
▁connaissance
▁connaissances
▁connaissez
▁connaissons
▁connaît
▁connaîtra
▁connaître
▁connexion
▁connon
▁connu
▁connue
▁connus
▁cono
conon
▁conon
conondo
▁conondo
▁cononon
▁cônou
▁conqu
conque
▁conquér
cons
cons
▁consacr
▁consacré
▁conscience
▁conseil
conseillé
▁conseiller
▁conseils
▁consen
▁consent
▁conséquen
▁conséquence
▁conserv
▁conservateur
▁conservé
▁conserve
▁conserver
▁considér
▁considérable
▁considéré
▁considère
▁considérée
▁consist
▁consiste
▁console
▁consomm
▁consommation
▁consta
▁constante
▁constaté
▁constate
constitu
▁constitué
▁constitue
▁constituée
▁constitution
constitution
▁construction
▁construi
▁construit
▁construites
▁consult
▁cont
▁contact
▁contagieu
▁contaminée
▁conte
▁contemplation
▁contemple
▁contemporain
▁content
▁contente
contente
▁contenu
▁contenue
▁contexte
▁contient
continent
▁continent
▁continental
▁continu
▁continue
▁continuer
▁contr
▁contra
▁contracepti
▁contraint
▁contrainte
▁contraire
▁contrat
▁contre
▁contribu
▁contrôl
▁contrôle
▁controvers
▁convention
conventionnelles
▁conversation
▁convi
▁conviction
▁conviendr
▁Cook
▁coopération
▁coord
cop
▁copain
▁Copenhag
▁Copenhague
▁Copenhague
▁copie
▁copine
▁coqu
▁coquille
▁Cor
Cor
▁cor
▁coréen
▁coréenne
cori
▁corn
▁coro
▁corona
▁corona
corp
▁corpor
▁corps
▁corr
▁correct
▁correctement
▁correspond
▁correspondan
▁corruption
▁cos
▁cosmonaute
côssim
▁Cost
▁Costello
▁Costello
▁costumes
▁côt
▁côté
▁côte
▁côtés
▁côtes
côtière
▁côtiers
▁Cou
▁cou
couchet
▁coule
▁coulés
▁couleur
▁couloir
▁coun
▁coungo
couno
▁counou
count
count
▁coup
▁coupable
▁coupé
▁coupés
▁couple
cour
▁cour
▁cour
▁Cour
coura
▁coura
▁courage
▁courageuse
▁couramment
▁courant
▁courante
▁courants
▁courb
courir
▁couronne
▁courou
▁courriers
▁cours
▁course
court
▁court
▁courte
▁courtois
▁cousin
▁coût
▁coûte
▁coûteuse
▁coûteux
▁coutumes
▁couvert
▁couvertes
▁couvra
▁couvre
▁couvrir
▁cɔ
cqu
▁cr
▁cr
▁cra
▁craignai
▁crain
▁craint
▁crainte
▁crampon
▁cravate
▁crayon
crayon
▁crayon
▁Cre
▁cré
▁création
▁créativ
▁créature
▁créd
▁crédit
▁créé
▁créée
▁creus
▁creusé
▁creux
▁crevasses
▁cri
▁cria
▁crim
cripti
▁crise
▁crista
▁critère
▁critiqu
▁critique
▁critiques
cro
▁Cro
▁Cro
▁croa
▁croi
▁croire
▁crois
▁croisière
▁croisières
▁croisillons
▁croissance
▁croissant
▁croix
▁cross
▁croûte
▁croyai
▁croyance
croyant
▁croyez
▁cru
▁crucial
▁cruciale
crut
▁crypt
cs
ct
CT
cté
cteur
ction
ction
ctique
ctrice
ctuelle
ctur
▁Cu
▁cu
▁Cu
▁cu
▁cubes
▁Cuddeback
çue
cueil
▁cueill
▁cuisin
▁cuisiné
▁cuisine
▁cuisiner
▁cuites
▁cuivre
culaires
▁culmin
culté
▁culte
▁cultiv
culture
▁culture
▁culturel
▁culturelle
▁cultures
▁cur
▁Cur
▁cur
cur
▁curieuse
▁curry
cus
cy
▁cyanurique
▁cyber
▁cyc
▁cyc
▁cycads
▁cycl
▁cycle
▁cyclique
▁cyclone
▁d
d
▁d
▁D
▁D
d
D
D
▁Da
▁Da
▁da
da
da
▁daa
▁dabila
▁dabla
▁dabô
▁dabo
▁dafa
▁dafani
▁dafe
▁dafè
▁dafouroukou
daga
▁Daga
▁daga
▁dagani
dagascar
▁dagnè
daho
▁daje
▁dakabana
▁dakègn
▁dako
▁dakoun
▁dakun
dal
dala
▁dala
▁dalako
▁dali
▁dalil
dam
Dam
▁dama
▁damadaman
▁Damadian
▁daman
▁damana
▁damani
▁dame
dame
▁dami
▁damien
damina
▁damina
▁daminan
▁daminana
▁daminè
▁daminɛ
▁daminin
▁daminn
▁dan
▁Dan
dan
▁Dan
▁dana
▁danan
▁danbe
▁danbé
▁Dane
▁Danemark
▁danfara
danfé
▁danfe
▁danger
▁dangereuse
▁dangereux
▁Dani
▁dani
▁Danielle
▁Danielle
▁Danius
▁Danius
▁danna
▁dannan
▁danois
▁dans
dans
▁dansa
dansi
▁dansiginin
▁dansigui
dant
▁danta
▁dantchè
▁dantige
▁dantiguè
▁dantiguèli
▁Dar
▁Dar
dara
▁dara
▁daraka
dari
▁dari
▁daro
▁Darwin
▁dasi
dassi
▁daté
▁date
▁datougou
▁datougoula
▁datugu
▁datugula
▁dauphin
▁Dav
▁davantage
▁Davey
davi
▁David
▁David
▁daw
daw
▁dawou
▁dawoula
▁dayele
▁dayelela
▁dayèrè
▁dayɛlɛ
dde
Dé
▁de
▁de
▁De
de
de
▁dé
dé
▁dé
▁De
▁dè
dè
▁débarqu
▁débarrass
▁débarrasse
▁débat
▁débit
▁débo
▁débordé
▁débouché
▁debout
▁débr
▁début
▁débutant
▁débuter
▁déc
▁Dece
▁décédé
▁décennies
▁décern
▁décès
▁décharge
▁décid
▁décide
▁décidé
▁décision
▁décisions
▁décisive
▁déclar
▁déclaration
▁déclaré
▁déclench
▁déclenché
▁déclencheur
▁déclin
▁décliné
▁décor
▁décorée
▁décorés
▁découvert
▁découverte
▁découvr
▁découvrir
▁décrit
▁décrite
▁dédiée
▁déé
▁deen
▁deenmisɛ
▁déf
▁défaite
▁défaut
▁défavorable
▁défend
▁défendr
▁défendu
▁défense
▁défi
▁déficit
▁défini
▁définiti
▁dég
▁dégage
▁dégagé
▁dégât
▁dege
▁degi
▁degré
▁dégué
degui
▁dégui
▁déguina
▁degun
▁dégust
▁dehors
▁déité
▁déjà
déjeuner
▁déjeuner
▁Del
del
▁Del
▁del
▁délégués
▁deli
▁délicat
▁délices
▁delilikan
▁délir
▁délivré
▁délivre
délôgô
▁Dem
▁demain
▁demanda
▁demande
▁demander
▁demandez
▁démarr
▁dembaya
▁deme
dèmè
▁dêmê
▁dèmè
▁dèmèdèmè
▁demen
▁déménage
▁demessen
▁demeure
▁dèmi
▁demi
▁demi
▁demin
▁deminsè
▁demis
▁demissein
▁demissin
▁demissinhou
▁démissionné
▁démocrati
▁démontré
den
▁den
▁dén
den
dén
denb
▁Denbaya
▁denbaya
▁dende
denhu
▁Deni
▁deni
▁déni
deni
déniw
▁deniw
▁denmisen
▁denmisɛn
▁denmuso
denmuso
▁denn
▁dénom
dentique
▁dents
denw
▁denw
dénw
▁dénw
deo
▁deou
▁dep
▁dép
▁départ
▁département
▁dépass
▁dépasse
▁dépassé
▁dépend
dépendance
▁dépens
▁dépenses
▁depi
▁déplaça
▁déplaçai
▁déplace
▁déplacée
▁déplacements
▁déplacer
▁déploie
▁déplor
▁dépos
▁dépouill
▁dépression
▁depuis
▁Depuis
▁député
▁député
der
déra
▁déranger
▁dèrè
deri
▁deri
▁dériv
dernier
▁dernier
▁dernière
▁derniers
▁dérogation
▁déroge
▁déroulé
▁déroule
▁derrière
▁dés
dés
▁des
▁dès
des
▁désagréable
▁descend
▁dèsè
▁désert
▁désign
▁désigne
▁désigné
▁désir
▁désolé
▁désor
▁desse
▁dêssê
▁dèssè
dèssè
▁dessert
▁desserv
▁dessin
▁dessin
▁dessinée
▁dessous
dessous
dessus
▁dessus
▁destin
▁destination
▁destiné
▁détach
▁détachent
▁détail
▁détaillée
▁détect
▁détendu
▁détent
▁détenu
▁détermin
▁détourn
▁détrui
▁détruit
▁détruite
▁deux
deux
▁Deux
▁dév
▁devant
▁dévast
▁développ
▁développé
▁développée
▁développement
▁devenu
▁devenue
▁déverse
▁dévi
▁devin
▁devise
▁devo
▁devoir
▁Devonport
▁devrai
▁devrait
▁devri
▁dɛ
dɛl
▁dɛmɛ
dɛn
▁dɛnmisɛn
▁dɛsɛ
dger
▁Di
▁di
di
▁Di
▁dia
dia
▁diab
▁diabète
▁diagn
▁diagnostic
▁dialecte
▁diaman
▁Diamana
▁diamana
dian
▁dian
dian
▁diana
▁diara
▁dibi
▁dibila
▁dicté
▁Die
▁dieu
▁dieux
dieux
▁diff
▁différemment
différemment
▁différence
différence
▁différences
▁différenci
▁différent
▁différente
▁différentes
▁différents
▁difficile
▁difficulté
▁difficultés
▁diffus
▁diffusée
▁diffusion
diffusion
▁dig
▁digi
▁dign
▁digne
▁dignè
▁dignité
▁digue
▁digui
▁diili
▁diina
▁diinan
▁dij
dila
▁dila
dilan
▁dilan
dilanna
▁dili
dili
diman
▁diman
▁dimanche
dimi
▁dimi
▁dimina
▁dimini
▁diminué
din
▁din
▁dina
dinatèri
dindin
▁dîner
ding
ding
▁dini
▁dinmin
▁dinosaur
▁dinosaure
▁dinosaures
▁dinosor
dinosor
▁dinoz
▁diɲɛ
▁diɲɛlatigɛ
dio
▁dioxy
▁dipl
▁diplom
▁diplomate
▁diplomatique
▁diplômé
▁diplôme
diplomou
▁dira
dire
▁dire
▁direct
▁directe
▁directeur
▁direction
▁directrice
diri
▁dirig
▁dirige
▁dirigeant
▁Dis
▁dis
▁disait
▁disant
▁disciplin
▁discipline
▁discour
▁discussion
▁discut
▁disik
▁disparaît
▁disparition
▁disparu
▁dispersé
▁disponible
disponibles
▁disponibles
▁dispos
▁disposé
▁dispose
▁dispositif
▁disposition
▁disput
▁disque
▁dissip
▁dissipe
▁Dist
▁distance
▁distances
▁distinct
▁distincte
▁distinctes
▁distinction
▁distingu
▁distra
▁distri
district
▁district
dit
▁dit
▁dites
dition
▁divers
▁diversifi
▁diversifié
▁diversion
▁diverti
▁divinité
▁divis
▁divisée
▁divorc
▁Dix
▁dix
dix
diya
▁diya
▁diyagoya
diyalan
▁diyan
▁diyara
diyen
▁dizaine
dj
▁Dj
▁dj
dja
▁dja
▁Dja
▁Djaa
▁djaa
▁Djaabi
▁djaabi
▁djabara
djabi
▁djabi
▁djagboya
▁djagnan
▁djago
▁djah
▁djakouman
▁djal
djala
▁djala
djam
▁djam
▁djama
▁Djama
▁djamaan
▁djaman
▁Djaman
djamana
▁djamana
▁Djamana
djamanakountigui
▁djamanan
▁djamanandé
▁djamananw
▁djamanara
▁djamanaw
▁djamankoul
▁djamini
▁djan
djan
▁djanfa
▁djanga
djanga
▁djangaro
▁djangna
▁djangnan
▁djanman
▁djanto
djanva
▁djanya
▁djanyan
▁Djara
▁djara
▁djarasisi
▁Djat
djata
▁djate
▁djaté
▁djatemin
▁djatéy
▁djatéya
djateya
▁djati
▁djatigui
▁djatiminin
▁djaw
▁djé
▁Dje
djè
▁djè
▁dje
▁djeg
▁djègnong
▁djègnongonya
▁djègongonya
djein
▁djek
djèla
djêlé
▁djélégué
▁djèmè
▁djeme
djen
djén
▁djen
▁djèn
▁djeni
▁djéni
▁djèni
djèni
Djenk
▁djènsè
▁djéridjourou
▁djetigui
djétigui
▁dji
▁Dji
dji
▁djida
▁djidi
▁djidj
▁djidja
djiein
▁djif
djiga
djigi
▁djigi
▁djigui
djigui
djiguiya
▁djikankounou
▁djikankouroun
▁djikankourouni
▁djikôrô
▁djikourou
▁djila
▁djiman
▁Djin
djin
▁djin
▁djinkoulou
▁djira
▁djitamba
djô
▁djo
▁djô
▁djogo
▁djogui
▁djoli
▁djôn
djon
djôn
▁djon
▁Djona
▁djona
▁djonan
▁djondjon
▁djonfo
▁djoona
▁djor
▁djôrô
▁djoro
▁djoss
▁djôssi
▁djôssini
djosso
▁djou
djou
djougou
▁djougou
djougouya
▁djougouya
▁djouk
▁djoukoro
▁djouma
▁djoumè
djourou
▁djourou
▁djoussou
djow
▁djôyôrô
▁dju
dju
▁djugu
djuguya
djumlan
▁djumlan
▁djuru
djuru
▁dlan
DN
▁Dô
▁dô
▁do
do
dô
▁Do
do
▁dôbô
▁doct
▁document
▁documents
▁dogô
dôgô
▁dôgô
▁dogo
▁dogohya
▁dogoman
dogoni
▁dogoni
▁dôgôtôrô
▁dogoya
▁dôgôya
▁dôgôyala
▁dogoyara
▁dôh
▁doh
▁dôhu
▁doigt
▁dois
▁doit
▁dola
▁dôla
▁dolari
▁dôle
▁dôlé
dôléy
▁dollar
dollar
▁dollar
▁dollars
▁dôlô
▁dôlôtôya
▁domaine
▁domaines
▁domestiqu
▁domestiques
domi
▁domicile
▁domin
▁Domin
▁domination
▁Domini
▁domini
▁dominicaine
▁dommage
▁dommages
▁domou
▁domu
▁domuna
don
▁don
▁don
don
▁dôn
▁Dona
▁dona
▁donan
▁Donc
▁donc
▁donda
donda
▁dondo
▁donguiri
doni
▁dôni
▁doni
▁Donkili
▁donkili
▁donkilila
▁donkililala
▁donkiri
▁donna
donnait
▁donne
▁donné
▁données
donner
▁donner
▁donni
▁donron
▁doo
▁dor
dore
▁dorgor
▁dorm
▁dormir
▁doro
▁dôrô
▁Doro
▁doron
▁dôrôpé
▁dorotoro
▁dôrôtôrô
▁dôrôtôrôso
dors
▁dort
▁dos
▁doté
▁dotée
▁Dôtôrô
▁dôtôrô
▁dôtrô
▁Dou
dou
▁dou
▁doua
▁douane
▁douani
▁doubl
▁double
▁douce
▁doudou
▁doué
▁doug
▁dougalé
▁dougalen
▁dougna
▁dougou
▁Dougou
dougou
▁dougouba
dougouba
▁dougoudé
▁Dougouk
dougoukolo
▁dougoukolo
▁dougoula
▁dougouma
▁dougouman
▁dougounan
▁douille
▁douleur
▁douman
▁doumi
▁doumini
▁doumou
▁doumoudougouma
▁doumouni
doumouni
Doun
▁doun
▁dounand
▁doung
▁Douni
▁douni
▁Dounia
▁dounigna
▁douniy
▁douniya
▁dounou
▁dounougna
dourou
▁dourou
▁doussou
▁doute
▁douw
▁doux
▁douze
▁Dow
▁dôw
▁dow
dow
dôw
▁dowere
▁dôyé
▁doyé
▁doz
▁dɔ
dɔ
▁dɔgɔ
▁dɔgɔcɛ
▁dɔgɔmuso
▁dɔgɔni
▁dɔgɔyara
▁dɔn
dɔn
▁dɔngili
▁dɔni
▁dɔnkɛ
▁dɔnkili
▁dɔnkilila
▁dɔɔni
dɔr
▁dɔra
▁dɔrɔ
▁dɔtɔrɔ
▁dɔw
▁dɔwɛrɛ
▁dr
▁Dr
dr
▁Dr
▁drag
▁dragons
▁dramatique
▁drame
drapeau
dre
▁Dream
▁Dream
dril
▁drô
dro
dro
▁drogue
▁droit
▁droite
dron
▁dron
▁drone
▁drôtôsso
▁drɔn
dru
DT
▁Du
▁du
▁du
du
▁Du
du
▁duc
ducation
▁dug
▁dugalen
▁dugu
dugu
▁Dugu
▁duguba
▁duguden
▁dugukol
▁dugukolo
▁dugulo
▁duguma
▁duguman
▁dugutaga
▁duguw
duira
▁dulan
▁duman
▁dumini
▁duminikɛ
▁dumu
▁dumuni
▁dumunikɛ
▁Dun
Dun
▁dun
▁dunan
▁dunanjigi
Duni
▁Duni
▁dunia
▁duniya
▁Dunlap
▁dunu
▁durable
▁duré
▁dure
▁durer
▁durisi
▁durɔn
duru
▁duru
dust
▁dusu
▁dusudi
▁dusukun
▁Dut
▁duuru
▁duwa
▁DVD
dward
dway
▁dynam
▁dynastie
dys
dyssée
▁Dzong
É
E
ë
ễ
ë
ê
É
e
e
é
é
è
▁e
▁E
▁E
▁é
ê
▁é
è
▁É
E
éanmoins
▁East
eau
eaucoup
▁eaux
eb
▁eBay
eBay
ébé
êbê
èbènni
eber
Ebola
ébri
EC
▁ec
éc
ec
éc
▁écart
écart
ecep
éception
ech
▁échang
échange
échantillon
▁échantillon
échappé
échapper
échauffement
èche
échec
▁échecs
échelle
echnologi
▁échou
▁échoué
écif
éclair
▁éclairé
éclaration
▁éclat
▁eco
éco
école
▁école
econde
économi
▁économie
économie
▁économique
▁économiques
Écosse
▁écoulée
▁écout
écouta
▁écouté
▁écoutez
écoutez
ecque
▁écran
écran
▁écrasé
écri
écria
▁écrire
écrire
▁écrit
▁écrits
écriture
▁écriv
écrivain
▁écrivit
écroul
ecta
ecté
ecture
▁Ecuador
ecurit
▁Ed
▁Ed
ed
éd
ède
ède
edecin
édecins
édération
▁Edi
edi
▁edi
èdi
édic
Édimbourg
edish
▁Edison
edit
éditation
éditeur
▁édition
▁éducati
éducation
▁éducation
éduit
eduzi
edy
èè
ée
eek
éen
eenko
èèrè
ées
▁effacé
▁effectivement
effectue
▁effectué
▁effectuer
effet
▁effet
▁efficace
efficacité
▁effondr
effondre
efforcer
effort
efforts
effraya
éfie
efile
▁Eg
ég
▁égal
également
▁également
égard
ege
égé
ège
ègèsè
egess
egili
▁égli
églis
église
▁églises
▁egliz
égoïsme
égué
êguê
èguè
êguêli
égui
ègui
▁Egypt
▁Égypt
▁Égypte
Égypte
▁égyptien
eh
▁eh
eh
eila
eimei
eimein
einture
eira
eirei
éj
ejon
▁ek
ek
èkè
▁ekip
ékour
ékoyira
▁ekɔl
el
el
èla
êlà
êla
élan
▁élan
eland
éland
élargi
èlè
élè
èle
elé
élé
êlê
▁ele
▁elect
électeur
▁élection
élections
▁élections
▁électoral
électricité
▁électrique
▁electron
▁électron
▁électronique
êlêkê
eleke
éléké
élém
▁élément
▁éléments
elen
élen
éléphant
▁éléphants
élevage
▁élève
élève
▁élevé
▁élevée
élever
▁élevés
élévision
èlèya
èli
éli
eli
elika
élimin
▁éliminé
eline
▁Elis
élite
ell
▁Ell
▁elle
elle
▁Elle
ellement
elles
▁elles
elling
ellington
Ellsworth
elluli
elly
élog
▁élogieuse
éloign
éloigne
elon
els
▁élu
élu
▁elvi
em
em
▁em
eman
émanya
emati
emb
▁embar
▁embarqu
embau
embre
ème
ême
ément
ement
ements
èmèsi
emessen
èmètèrè
▁émett
▁émeute
émeute
émie
êmin
▁Emirates
emis
émis
▁émise
émission
▁émission
▁Emm
Emm
▁emmen
émocratique
▁emp
empar
empêch
▁empêch
▁empêcher
emper
empire
▁Empire
Empire
▁emplacement
emplacement
▁emploi
emploi
▁employ
▁employé
employé
▁empoisonn
▁emport
▁empr
▁empreinte
▁emprunté
▁emprunter
ên
▁En
▁en
en
▁En
en
▁en
èn
énat
énba
enc
encé
enci
▁encore
▁encourage
▁encouragé
end
endel
endem
endemik
▁endémique
endi
endjab
endo
▁endommagées
endormi
▁endroit
endroit
▁endroits
ènè
ène
éné
ene
ênê
ènéman
énéral
énergie
eneti
eneya
énez
Enf
▁enfance
enfant
▁enfant
▁enfants
enfants
enferm
enfi
▁enfin
enfui
enfuir
éng
eng
engage
▁engagée
engal
engale
engen
engen
▁engendr
èni
eni
énin
enjamin
▁enk
enkulu
enne
ennedy
▁enneigée
▁ennemi
ennes
ennui
enogonya
énor
énorme
enos
▁enquêt
enquête
▁enquête
▁enregistre
▁enregistre
▁enregistré
▁enregistrée
enregistrement
enregistrer
▁enregistreur
ens
ensable
▁enseign
enseignants
▁enseignement
enseignement
▁ensemble
ensemble
ensez
ensions
▁ensuite
ent
ent
▁entame
▁entend
entendai
entendez
entendr
▁entendu
entente
enter
▁enterré
enti
▁entier
▁entière
▁entières
entinelle
entité
▁entouré
▁entoure
▁entourée
entrai
entraîne
▁entraîne
▁entraîné
▁entrait
entral
▁entravé
▁entré
▁Entre
▁entre
entre
▁entrecoupé
▁entrée
entrée
entrepreneur
▁entrepri
entreprise
▁entreprise
▁entreprises
▁entrer
▁entretenu
▁énum
▁envahi
▁envahir
▁enveloppe
enveloppe
▁enver
▁enverrai
envers
▁envie
▁environ
environ
▁environnante
environnement
▁environnement
▁environnemental
▁envisag
envisage
▁envisage
envoi
envoie
▁envoyé
▁envoyée
▁envoyer
envoyer
énw
enya
eolog
éologi
éop
ép
EP
▁épaisse
épaisseur
épal
▁épaules
▁Eph
▁Ephes
▁epi
épic
▁épices
épid
épinière
▁épisode
époque
▁époque
▁épous
époux
▁épreuve
épreuve
▁éprouv
epu
epubliqu
épublique
épuis
▁épuisant
eq
▁Equat
Équateur
équateur
▁équatorien
èque
équilibre
équip
équipage
▁équipé
équipe
▁équipe
▁équipement
équipement
▁équipes
équitation
▁équivalent
▁Er
er
er
era
èra
érable
erala
eras
érations
érato
erçant
ère
êrê
▁ère
▁èrè
èrê
ère
èrè
éré
éré
ere
èrein
êrêkê
èrèkèrèli
erekèyôrô
eremi
èrènkèrèn
èrent
érer
erera
ères
éréti
èrèw
ereya
eri
éri
Eri
èri
eria
érie
erie
érifi
▁érigé
érin
éris
éris
erit
érité
ermie
ermit
ern
ern
▁ero
éro
erɔ
erre
▁erreur
erry
ers
ersailles
erto
erto
erts
erusalem
ervi
erz
▁es
es
és
▁es
es
▁esansi
escadron
escalade
escalier
▁escarp
▁escarpée
escrime
èsè
eselo
ési
èsi
Eskimo
▁esp
esp
▁espace
espace
Espagn
▁Espagn
▁espagnol
espagnol
▁espagnol
▁espagnôl
▁Espagnol
▁espagnôli
▁espagnols
espèce
▁espèce
▁espèces
espér
▁espéran
espère
▁espère
▁espi
▁espoir
▁esprit
esprit
▁essai
essai
▁essay
▁essayer
essayer
éssé
esse
èssè
▁essenc
essence
essentie
▁essentiel
▁essentielle
èssi
Est
est
▁Est
▁est
est
▁estim
▁estime
▁estimé
estival
▁Estoni
Estonie
esus
▁Et
▁Et
▁et
▁Ét
▁et
et
et
▁ét
▁Éta
▁établi
▁établie
▁établiss
établissement
▁étage
étai
▁étaient
étaient
étaire
▁était
était
etan
étant
étape
▁étape
▁État
▁état
état
État
▁états
▁États
ete
▁été
été
été
éteindre
▁éteint
étend
▁étendue
ètes
▁êtes
eth
▁Eth
ethe
▁Ethe
▁Ethiopi
ethni
▁ethnique
èti
▁éti
▁étiez
▁étions
étique
étiques
▁étiquet
étiquette
ètiri
▁étoile
étoile
▁étoiles
étra
▁étrange
▁étranger
étranger
▁étrangère
▁étrangers
▁être
être
ètres
etri
ètri
étrier
▁étroit
▁étroite
ette
ettes
étude
▁études
▁étudi
▁étudiant
étudiant
▁étudiants
▁étudie
étudier
▁étudier
▁Eu
▁eu
eu
▁eugène
euil
euill
eur
eur
▁euro
euro
▁Europ
▁Europe
europe
Europe
▁Europe
▁Européen
▁européenne
▁européennes
▁européens
▁Europu
euros
eurs
euse
eusement
euses
▁eût
▁eux
eux
év
eva
évacu
▁évalu
évalu
▁évaluation
éveil
▁éveillé
eveli
événement
▁événement
événements
▁événements
▁évent
éventuel
▁éventuelle
évêque
▁évide
▁éviden
evil
évit
▁évite
▁évolu
évolue
évolution
▁évoqu
evr
èw
ew
ex
ex
▁ex
exact
▁exactement
▁examen
▁examine
examine
examiné
▁exc
excellen
▁excellent
exception
excès
▁excursion
▁excus
▁exécut
exécut
▁exemplaires
▁exemple
▁exemples
▁exerce
exercice
▁exh
exi
exicain
▁exig
▁exige
▁exigence
existant
▁existante
existe
▁existe
▁existence
existence
▁existent
▁exonéré
▁exotiques
▁exp
▁exp
exp
▁expédition
▁expérience
expérience
▁expériences
▁expérimental
expérimentation
expérimentées
▁expert
▁expertise
▁explications
expliquer
exploit
explorateur
exploration
▁explorer
▁explos
explos
▁explosé
explosion
▁expo
▁export
▁exportat
exportation
▁expose
▁exposée
▁exposition
exposition
▁expositions
▁expression
expressions
exprim
▁exprimé
▁expuls
expulsion
ext
▁ext
extérieur
▁extérieure
▁extra
extrai
▁extrai
▁extrav
extrême
▁extrême
▁extrêmes
extrémité
ey
ey
éz
ez
ez
ɛ
▁ɛ
ɛɛre
▁ɛl
ɛl
ɛm
ɛmɛ
ɛmu
▁ɛn
ɛn
ɛndi
▁ɛnfɔr
▁ɛnpas
▁ɛr
ɛr
ɛri
ɛrikɛn
ɛs
ɛsi
▁ɛsk
ɛt
ɛti
ɛtri
ɛz
F
f
▁F
▁f
▁f
f
▁F
F
▁fâ
FA
▁FA
FA
fâ
▁fa
fa
▁fa
▁Fa
▁faa
▁faam
▁faama
▁faaman
▁faamu
▁faamuya
▁faan
▁fab
▁fabri
▁fabriqu
▁fabriqué
▁fabu
▁face
▁facɛ
▁facial
▁facile
▁facilement
▁facilité
▁facilite
▁faciliter
▁façon
▁façonn
façons
▁facteur
▁facteurs
factur
▁fag
▁faga
faga
fagala
▁fagala
▁fagali
▁fagan
fagayôrô
▁fagua
▁Fai
▁faibl
▁faible
▁faim
▁Fair
▁Fair
▁faire
▁fais
▁faisons
▁fait
▁faite
▁faites
▁fal
▁Fal
fala
▁fale
falen
▁falén
falén
▁falen
▁falenfe
▁Falkland
▁Fall
▁fall
fall
▁fallu
▁fama
▁faman
▁famba
▁famili
▁familial
▁familiale
▁familiari
famille
▁famille
▁familles
▁Famou
▁famou
▁famouya
▁famu
▁famuya
▁fan
▁Fan
fan
▁fan
fan
▁fana
▁fanan
▁fanani
▁fanba
▁fanbè
▁fanfê
fanfè
▁fanfè
▁fanfei
▁fanfèlala
▁fanfɛ
fanga
▁fanga
fangaman
fangan
▁fangan
▁fangua
▁fani
fani
▁fankele
▁fantan
far
▁far
▁fara
fara
▁Fara
▁farabass
▁farafi
▁Farafi
▁Farafin
▁Farafina
▁farafina
▁Faragb
▁faragbè
▁Faragw
▁faragwê
▁faragwè
▁faragwèla
▁faragwɛl
▁farakan
▁farala
▁faran
▁faranfasi
▁farani
▁Farans
▁faransi
▁farati
▁faratiman
▁farce
fari
▁Fari
▁fari
▁farifaga
▁Fariko
▁Farikolo
▁farikolo
▁farikologna
▁farikoro
▁fariman
▁farini
▁fariya
fariya
▁fasa
▁fascinant
▁Faso
▁faso
▁Fasod
▁fasodén
▁fassa
▁fasso
▁fatc
▁fatchè
▁Fati
▁fatigant
▁fatigue
▁fatigué
▁fato
▁fatɔ
▁fatura
▁faudra
▁faudrait
▁faune
fausse
▁faut
▁faux
▁fav
▁favorable
▁favori
▁favorise
▁favoriser
▁FBI
▁Fe
▁Fè
▁Fé
▁fe
▁Fe
▁fè
▁fe
fè
fe
fé
▁fê
▁fé
fê
▁fédéral
▁federal
▁fédérale
▁fèè
▁feen
▁feere
▁fèèrè
▁fef
▁fefe
▁fèguè
▁fei
fein
▁fein
fêla
fêlala
▁Feli
▁Feli
▁félicit
▁félin
▁félins
▁femelle
▁femi
▁féminine
▁femme
▁femmes
▁fen
▁fén
fèn
▁fèn
fen
▁Fen
fén
▁fenêtre
▁fenêtres
féng
▁féng
▁fènsè
▁fènsèn
▁fenw
fenw
▁féod
▁Fer
▁Fer
▁fer
▁fera
▁ferai
▁feré
fèrè
▁fere
▁féré
▁fèrè
▁fèrèsira
▁ferez
▁feri
férikorognanagbè
▁fermé
▁ferme
▁Fernand
▁Fernand
▁féro
▁Ferr
fert
fese
fèsè
▁fèsè
▁fess
▁festival
▁festivals
▁festivités
▁fête
▁feu
▁feuille
▁feuilles
▁février
▁féw
few
féw
▁feyi
▁fɛ
fɛ
▁fɛɛr
▁fɛn
fɛn
▁fɛnw
fɛnw
▁fɛrɛ
▁fɛta
ff
ffaires
ffic
ffice
▁Fi
Fi
▁Fi
▁FI
▁FI
FI
▁fi
fi
▁fi
fia
fia
▁fich
fiction
▁fiè
fiè
▁fien
▁fiéré
▁fièvre
▁fifa
▁figɛman
▁fignè
fignê
▁figne
fignè
figne
▁figure
figurez
▁fil
▁Fil
▁fil
▁fila
fila
▁filaburu
▁filakè
▁filan
▁filana
▁filanan
▁filante
filê
▁filè
▁filèli
▁filet
filɛ
▁filɛ
▁filɛri
▁filɛru
▁fili
fili
▁filila
▁filim
▁filimou
▁Filimou
▁filimoun
▁filip
▁Filipin
▁fille
▁filles
▁Film
▁film
▁film
▁films
▁filmu
▁fils
filtr
▁filtre
▁fiman
▁Fin
▁Fin
▁fin
▁fin
fin
finale
▁finale
▁finance
▁financement
▁financier
▁financière
fine
finè
▁finɛtri
fing
▁fini
▁fini
▁Finland
▁Finlande
▁finman
finnin
▁fintchi
fir
▁fir
▁firans
firi
▁firi
▁Fis
▁fisa
▁fisaya
▁fisca
▁fiscal
fisie
fissa
▁fissa
▁fissures
▁fit
▁fitchini
▁fiti
▁fitin
fitini
▁fitini
▁fitinin
▁fitiniw
▁fixe
▁fixé
▁fiy
fiya
▁fiyê
fiye
▁fiyè
▁fiyen
▁fiyèn
▁Fl
▁fl
▁fl
▁fla
▁fla
▁flà
fla
▁Flags
▁Flags
▁flanan
flè
▁flè
▁fle
▁fleili
▁fleli
flèli
▁flèni
▁fleur
▁fleur
▁fleurs
▁fleuve
flex
▁flɛ
▁flɛru
▁Flo
▁flo
▁flor
▁flore
▁flori
▁Florid
▁Floride
▁Floride
▁flott
▁flotte
Fly
▁fô
▁fo
fo
fô
▁Fo
▁fö
▁focale
▁fofo
▁fôgnô
▁fôgnon
fognon
foh
▁foh
fohi
▁foi
▁foie
fois
▁fois
▁fôka
▁Fôl
▁fol
▁föl
▁fol
▁fôla
▁fola
fôli
foli
▁foli
▁fôli
▁folle
fôlô
▁Fôlô
▁fôlô
▁folo
folo
▁fôlôla
fon
▁fon
▁fonafolina
▁foncé
▁fonction
▁fonctionn
▁fonctionnai
▁fonctionnalités
▁fonctionne
▁fonctionnelle
▁fonctionnement
▁fonctions
fond
▁fond
fond
▁Fonda
▁fondamenta
▁fondamental
▁fondateur
▁fondation
▁fondée
fongnon
▁fongnon
▁foni
fonnon
▁fonnon
▁font
fontaine
fonyé
▁foo
foor
▁football
for
▁For
▁For
▁for
▁for
▁fora
fôra
▁fôra
▁forcé
▁force
▁forestiers
▁forêt
▁forfait
▁Form
▁Form
▁forma
▁formalité
▁format
▁format
▁formation
▁formats
▁formé
forme
▁forme
▁formée
▁formelle
▁forment
▁former
formul
▁formulaire
▁fôrô
foro
▁foro
▁foroba
forobatô
▁forobaya
foron
▁forou
fort
fort
▁fort
▁forte
▁fortune
▁fosse
▁fossile
▁fôtchogo
▁Foto
▁foto
▁fotota
▁fou
fou
▁fou
▁fouill
▁foule
▁founde
▁founou
founou
founté
▁founte
▁four
foura
▁foura
▁fourakè
▁fourch
fourmis
▁fourni
▁fournir
▁fourniss
▁fournisseur
▁fournit
fourou
▁fourou
▁foyer
▁foyi
fɔ
▁fɔ
fɔlɔ
▁fɔlɔ
▁fɔlɔfɔlɔ
fɔn
▁fɔɲɔ
fɔr
▁fɔra
▁fɔta
▁fr
▁fra
fraîch
▁frais
▁fraise
▁fran
▁Franc
▁franc
▁franca
▁francai
▁Français
▁français
▁français
▁française
france
▁France
▁france
▁franchi
franchi
▁franchiss
▁Franci
▁franci
▁Francis
▁Francis
▁franco
▁françois
▁francs
▁Frank
▁Frank
▁frans
▁fransi
▁frapp
▁frappa
▁frappe
▁frappé
▁Fre
▁Fre
fre
fred
▁fréque
▁fréquence
▁fréquent
▁fréquente
▁fréquentées
▁fréquentés
▁frère
▁fret
frey
▁fri
fri
▁fri
fricain
▁froid
▁froide
▁froide
▁front
▁frontier
▁frontière
▁Frontières
frontières
▁frotte
▁frou
▁fruits
fs
ft
fu
▁fu
▁fu
▁fuir
▁fuite
▁fum
▁fumée
▁funérai
▁funu
funu
▁fur
▁fura
fura
▁furent
▁furi
furu
▁furu
▁fuseau
▁fusée
▁fusil
fusion
▁fusionn
▁fut
▁futur
▁fuy
ğ
ğ
g
▁G
g
▁g
▁g
G
▁G
G
▁Ga
ga
▁ga
ga
▁ga
▁gaari
gab
▁gabri
▁gafe
▁gagn
▁gagne
▁gagné
▁gagné
gagnéla
gal
▁gala
▁Galapagos
▁Galapagos
▁Galápagos
▁Galasi
▁galasi
▁galass
▁galassi
▁galax
▁galerie
gali
▁Galil
▁gallons
▁galo
▁galon
▁Gam
▁gama
gami
▁gamme
gamou
gan
▁gan
▁gand
ganisa
gap
gar
▁Gar
▁gar
▁Gar
gar
▁gara
▁gara
▁garage
▁garçon
▁gard
▁gard
▁Gard
▁gardé
▁garde
▁gardée
▁garder
▁gardez
▁gardien
▁gare
gari
▁gari
▁garnison
▁gars
▁gasi
gassi
▁Gate
gate
gate
gativ
gatiw
▁gauche
▁gaud
▁Gaz
▁gaz
▁gaz
▁Gazi
▁gb
▁Gb
▁gba
gban
▁gban
▁gbani
▁gbanni
▁gbanzan
gbe
gbê
▁gbé
▁gbe
gbè
▁gbè
▁gbèlè
▁gbele
▁gbèlèman
▁gbèman
gbènè
▁gbèni
gbeni
gbèrè
▁gbèrè
▁gbere
▁gbèrein
▁gbèrèw
▁gbèssi
▁gbèya
▁gbili
▁gbiliman
▁gbin
gbinl
▁gbinli
▁gbiri
gbiri
▁gbissi
▁gbo
gboks
▁gbolo
▁gboro
▁gbou
▁gboy
gboya
▁gê
▁gè
ge
ge
gê
gé
gè
▁ge
▁géant
▁géante
gel
▁gêlê
▁gelé
▁gèlè
▁gèlèya
▁gen
▁gên
gen
▁gén
gèn
genci
▁genè
▁gene
gène
▁génér
▁genera
▁General
▁général
générale
▁générale
▁généralisé
▁génération
▁générations
▁généraux
▁génétique
géni
gèni
▁genoux
▁genre
genre
▁gens
gent
▁géo
▁Geo
▁Geo
▁géo
▁géographi
▁géographique
▁géologique
▁géologiques
George
▁George
George
▁georges
▁géothermique
ger
▁gér
ger
géré
▁gere
▁germ
▁germa
▁germinales
ges
▁geste
▁gestion
gestion
▁gɛ
gɛ
▁gɛɛni
▁gɛlɛman
▁gɛlɛn
▁gɛlɛya
▁gɛlɛyara
gɛn
▁gɛn
gɛr
▁gɛr
▁gɛrɛ
gɛrɛ
▁gɛrɛfɛ
gɛri
ggi
gh
Gh
▁GHz
▁gi
▁Gi
▁Gi
gi
▁gi
gi
▁Gian
▁gilan
▁gin
gin
▁Gingrich
ginna
gio
gique
▁giri
gis
giw
▁Giz
Giz
▁Gizeh
gji
▁Gl
▁glac
▁glacé
▁glace
▁glacé
▁glacial
▁glacier
▁glan
▁glas
▁glassikourou
▁Glassikourou
glise
▁glissant
▁glisse
glob
▁global
▁GMT
▁gn
▁Gna
▁gna
gna
▁gnade
▁gnadé
▁gnadelogo
▁gnafè
gnaga
▁gnaga
▁gnagami
▁gnagb
▁gnagni
▁gnagnini
gnagnini
▁gnakun
▁gnalagbè
▁gnam
▁gnama
▁gnaman
▁gnamat
▁gnami
▁gnamima
▁gnaminè
▁gnamini
▁gnamogo
▁gnan
gnan
▁gnana
▁gnanabô
▁gnanadj
▁gnanadjè
▁gnanagbè
gnanagbe
▁gnanagbe
▁gnanagbel
▁gnanam
▁gnanama
▁gnanaman
▁gnanan
▁gnanangbè
▁Gnanf
▁gnanfe
▁gnanfè
▁gnangb
▁gnangnini
▁gnaniya
gnanman
gnannaman
▁gnannan
▁gnannanman
▁gnanra
▁gnanran
▁gnanta
▁gnara
▁gnassi
gnat
▁gnataga
▁gnayira
gne
▁gnè
gnè
▁gné
gne
▁gnèfè
gnèguè
gnégui
▁gnei
gnein
▁gnein
▁gneinbila
▁gnèmôgô
▁gnen
▁gnènè
gnez
▁gni
gni
▁gnig
▁gnigui
gnili
▁gnimi
▁gnin
gnin
▁gnina
▁gninan
gnini
▁Gnini
▁gnini
gninibaga
Gniniga
gniniga
▁gniniga
▁gninigali
▁gninin
▁gninina
gninina
▁gnininga
▁gniningali
▁gninmôg
▁gninmogo
▁gninmôgôya
▁gnô
▁gnôg
▁gnôgô
gnôgô
gnogo
▁gnôgôn
▁gnogon
▁gnôgônatè
▁Gnôgônatè
▁gnogonna
▁gnôn
▁Gnon
gnon
▁gnon
gnôngô
▁gnongô
▁gnongo
gnongô
▁gnôngô
▁gnôngôn
▁Gnongon
▁gnongon
gnongon
▁gnôngôna
▁gnongonan
▁Gnongonb
▁gnongondan
▁gnongonna
▁gnongonnan
gnongonw
gnonkan
gnou
▁gnou
▁gnouma
gnouman
▁gnouman
gnoumani
▁gnoumanna
▁gnoumaw
▁gnuma
▁gnuman
gnuman
gny
▁Go
gô
▁go
▁gô
go
▁go
▁Go
go
▁gobele
▁Gol
Gol
▁golf
▁Golf
▁golf
▁golo
golo
▁Gom
▁Goma
▁Goma
gon
▁gon
gon
gonan
gondan
▁gonga
gongo
▁gongon
▁gor
▁Gor
▁gor
gorde
▁Gordon
▁Gordon
gore
▁gorge
gori
goro
goro
▁gôrôtôn
▁gosi
gothique
▁gou
▁gou
▁Gou
▁Gouè
▁Goun
▁goun
▁gouni
▁gounkoun
▁gourou
▁goût
▁goutte
▁gouvè
▁gouvèr
▁gouvèrèn
▁gouvèrènèman
▁gouvérénéman
gouvérénéman
▁gouvèrinè
▁gouvern
▁gouverneman
▁gouvernemen
▁gouvernement
▁gouverneur
goyala
gɔ
▁gɔn
▁GP
▁GP
GP
▁GPS
▁gra
▁gra
▁grâce
grad
▁gradu
graf
grafe
▁graffitis
▁graine
▁gramm
▁Gran
▁Gran
▁gran
▁gran
▁grand
▁Grand
▁grande
▁Grande
▁grandes
▁grands
▁Grant
graphi
graphique
gras
▁gratt
▁gratuit
▁gravé
▁grave
▁graves
▁gravi
▁gravité
▁Grè
▁gre
▁Gre
▁Gre
▁grè
gré
▁gre
▁grec
▁Grèce
▁grecque
▁Gree
▁Green
▁Greenlan
▁Greenland
grégation
▁grêle
▁grenouilles
grès
▁Gri
▁gri
▁grièvement
▁griffe
▁grimpe
▁grimper
▁grip
▁Groenland
▁grond
▁gros
▁grosse
▁grossiers
▁grotte
▁grottes
grou
▁group
▁groupe
▁groupes
▁grupu
gst
▁gu
gu
▁gu
gu
▁Gu
gua
▁Guar
▁gudo
guê
▁gué
guè
gue
gue
guei
▁guèlè
guèlè
▁guèlèya
guèlèya
guèrè
▁guéri
▁guerre
▁Guerre
guèsèguèl
▁Gui
gui
▁guich
▁guichet
guid
▁guide
guil
guila
guill
guinibe
▁guli
▁gun
▁Guru
guru
▁guun
▁guvèrènè
▁guvern
▁guvɛrn
▁Guy
▁gwa
▁gwan
gwan
▁gwanni
▁gwansan
gwè
gwe
▁gwè
▁gwele
gwèlè
gwêlê
▁gwèlè
gwèlèn
▁gweman
▁gwèrè
gwɛ
▁gwɛ
▁gwɛlɛ
▁gwɛlɛman
▁gwɛlɛn
▁gwɛlɛya
▁gwɛn
gwɛrɛ
▁gwɛrɛ
▁gwiliman
▁gy
Gy
gyal
▁gymnasti
▁gymnastique
gypt
h
h
▁h
▁H
▁H
▁h
H
H
▁ha
ha
▁Ha
▁ha
ha
hab
▁habada
habd
habiller
▁habit
▁habitant
habitants
▁habitants
habitat
habite
▁habitée
habitude
▁habituelle
▁habitués
had
had
hagiog
▁Haïti
Haïti
▁hakan
▁hakangnan
hake
hakè
▁hakè
▁hakɛ
▁haki
▁Hakili
hakili
▁hakili
▁Hakilila
▁hakilila
▁hakilina
▁hakilinan
hal
hal
▁Hal
▁Hal
▁hal
halaki
▁hali
▁Hali
hall
▁Hall
halte
ham
▁Ham
▁Ham
ham
hamba
▁hamin
▁hamina
han
▁Han
▁Han
▁han
▁handicap
▁Hang
hang
▁hangi
hangi
hani
hannes
▁hanri
happa
happa
har
▁Har
▁Har
har
hara
▁haram
▁haramuya
▁Harap
▁Harappa
▁Harbour
harc
hariya
hark
harma
▁harmoni
harmoni
▁Harv
▁Harvard
▁hasard
▁hât
haus
hausse
▁Haut
▁haut
▁haute
▁hauteur
Hawa
Hawaï
▁Hawaii
haya
▁hé
▁He
hé
he
▁He
▁he
▁Heb
▁héberge
hébergement
▁hébergement
▁Hébron
hegi
▁hei
▁hélicoptère
heliya
hémi
▁henri
▁Her
▁Her
▁hèr
her
herbe
herbivores
▁hèrè
hèrè
▁héri
▁hérit
hérit
héritier
Hero
Herostratus
hésit
▁Hesperonychus
Hesperonychus
▁heure
heure
▁heures
▁heureuse
▁heureux
heuri
▁heurt
hey
▁hɛkɛ
▁hɛr
▁hɛrɛ
hh
▁Hi
hi
▁hi
hi
▁hier
▁hiérarchie
hika
▁Hind
▁hindou
hindouis
hip
hirosi
hisi
histoire
▁histoire
▁histori
historien
▁historique
hiti
hiti
hiver
▁hiver
hman
hne
ho
hô
▁hô
▁Ho
▁ho
▁hockey
hog
hogoyala
▁Hol
Hom
▁Hom
▁hommage
▁homme
homme
▁hommes
▁homosexuel
hon
Hon
▁hong
▁Hong
▁Hong
▁Hongrie
▁honnête
honneur
▁honor
honor
▁honte
hoo
hôpital
hor
▁hor
▁horaires
horizon
▁horizon
horloge
▁horloges
horo
▁hôrôn
hôrôn
horreur
hors
▁hospitali
hospitali
▁hostil
▁hostile
hôte
▁Hotel
▁hotel
▁hôtel
hôtel
▁hoteli
▁hôtels
hôtes
hoton
▁hou
hou
houkèt
houla
▁How
How
▁howe
▁hɔn
hristophe
hristophe
▁Hsie
▁Hsie
ht
▁Hu
hu
hu
▁Hu
hud
▁Huhn
hui
huit
▁huit
huitième
hul
hul
▁hum
▁humain
▁humaine
▁humaines
▁humains
humanité
humeur
▁humi
humidité
humili
▁humm
▁humo
▁hun
hur
hurl
▁Hurrican
▁huss
▁hy
hya
hyam
▁hybrid
hydor
▁hydra
hydro
▁hydrog
▁Hydrogen
hyper
▁hypothèse
ʻ
í
ï
Î
î
ï
Ï
▁î
î
i
▁i
i
▁I
I
▁I
I
▁i
ia
iable
iam
iano
iao
iation
ib
▁ibé
▁ibe
iberal
▁ibi
ibilité
ibles
ibu
IC
ic
ical
icane
ication
▁Iceland
ichard
ichel
ichel
ichol
▁ici
ici
iciens
ick
icket
icoles
icro
ictions
icule
id
ide
▁idéal
▁idée
idée
▁idées
ident
▁identifié
▁identiques
▁identité
identité
ider
ides
▁idiot
ie
ié
ie
ième
ien
iendront
ienne
iennes
iens
ient
ienw
ier
ière
ières
iers
ieurs
ieuse
ieux
iez
if
ifasso
ifi
ification
ifie
ifiée
ifik
ifique
ifs
ig
igat
iges
igg
iggins
igh
igh
igini
igiyôrô
igiyɔrɔ
ign
ignan
ignin
▁ignore
ignore
iguei
iguein
igui
ihu
ii
▁II
▁II
III
ik
▁ika
ike
iki
▁Ikô
iko
ikôlà
il
Il
▁Il
▁il
▁il
il
▁Il
ilama
ilasi
▁île
▁île
île
ilé
ilèkasèbè
▁îles
iles
ilétèri
▁ili
▁Ili
ilisi
ilité
ill
illac
illance
illard
ille
illè
ille
▁illégal
▁illégale
illier
illon
▁illumin
illumination
▁illustr
▁illustration
ils
im
im
▁ima
ima
image
▁image
imagination
imbécile
iménez
imi
imité
immédiat
▁immédiat
▁immédiatement
immense
▁immer
immi
immigrant
immigration
immobil
▁imp
▁impact
impact
impérial
▁impériale
▁implant
implic
▁impliqu
▁impliqué
▁import
▁importan
importan
▁important
▁importante
▁importantes
▁importants
▁importe
importe
impos
▁impos
▁impossible
impôt
impôts
▁impr
▁impression
impression
▁imprévu
imprim
▁imprim
▁imprimante
▁imprimée
impulsi
▁In
ín
în
in
▁in
in
ina
ina
▁Ina
▁ina
▁inaccessib
▁inaf
▁Inc
▁inca
▁incarcéré
ince
▁incendi
▁incendie
incendie
inch
▁inciden
incident
▁incit
inclin
inclu
▁inclu
▁inconnu
inconnu
▁inconvénient
▁incorpor
▁incroyable
▁inculpé
incurv
▁Ind
inde
▁indé
Inde
▁indemne
indemnis
▁indep
▁indépend
▁indépendamment
▁indépendance
indépendance
▁indépendant
▁indépendante
▁Indi
indi
▁indi
▁India
▁India
India
▁indic
▁indications
▁indien
▁Indien
▁indien
▁indienne
▁indigène
▁indigènes
indigènes
▁indiqu
▁indiqué
▁indique
indisp
▁individu
▁indiy
indou
▁Indu
indu
Indus
▁industrie
industrie
▁industriel
îne
ine
ine
▁iner
ines
ineti
inèti
inɛ
▁inf
inf
▁infect
▁infecté
▁infectée
▁infectieuse
infection
▁inférieur
▁influence
▁influencé
influence
info
information
informations
▁informations
▁informatique
informatique
▁informé
▁informel
▁infraction
▁infrarouge
▁infrastructure
ing
ing
ingéni
▁ingenie
▁ingénieur
ingham
▁inhabité
▁inhabituel
inhu
ini
inik
inin
initi
▁initi
▁initiale
ink
inman
inmin
innes
innin
▁innovant
innovation
ino
▁inond
inondation
▁inondations
inq
▁inquiét
▁inquiétude
inrin
ins
inscri
▁inscri
▁inscrit
▁inscrits
▁insecte
insectes
▁insectes
insister
inspect
inspection
inspir
▁inspiré
insta
▁instable
install
▁installations
▁installé
instant
▁instantané
inster
institution
▁instru
▁instruct
▁instruction
▁insulaire
▁insult
▁insupportable
▁Int
int
▁intacte
▁intégr
▁intégré
intelligence
▁intelligent
▁intelligente
▁intempéries
▁intense
▁intention
intention
▁intentionnel
inter
▁Inter
▁inter
▁inter
▁intèr
▁interacti
▁interactif
interdi
▁interdit
▁interdite
▁intére
▁intéressant
▁intéressante
intéressante
▁intéressants
intérêt
▁intérêt
▁interf
▁intérieur
intérieur
▁intérieure
▁intérim
▁intèrinèti
international
▁international
▁internationale
▁internationales
▁internationaux
▁interne
▁internet
Internet
internet
▁internet
▁Internet
▁interprét
interprétation
▁interrog
interroger
interromp
interrupt
intersection
▁interven
intervention
interview
▁intimid
intin
▁intrinsèque
▁introdu
introduis
▁introduits
▁intrusi
▁intuiti
▁inutile
invent
▁inventé
▁invers
▁investi
▁invit
▁invité
inviter
inw
Io
io
iodi
ión
ion
ion
ionale
ions
ip
ipor
ique
ique
iques
iquet
IR
ir
ira
ira
irag
irai
▁Irak
▁irakien
iramidi
▁Iran
▁Iran
▁iranienne
▁Iraq
▁Iraqi
iras
irayèli
ire
ire
irent
▁irez
iri
irina
iring
iriya
▁irland
irlin
IRM
▁irrita
▁Is
IS
IS
is
is
isabanan
isation
ise
isè
ises
ish
isi
isitiri
▁isituari
isk
islam
Islam
▁Island
▁Island
▁islandais
Islande
▁Islandi
ism
isme
▁isol
▁isolé
isole
isolement
ison
isonné
ispan
▁Israel
▁Israël
Israël
issaient
issait
issant
issante
isse
issê
isse
issé
isseau
issi
ission
ission
▁issu
issue
ista
istan
Istanbul
iste
iste
istes
istoriquement
it
it
itabu
▁Ital
▁Ital
▁itali
▁Itali
▁Italie
Italie
▁Italien
italien
▁italien
▁italienne
itan
itariste
itas
▁ité
ite
ité
ite
ité
iterie
iti
itinéraire
▁itinéraires
▁itinérant
ition
▁ito
ittéra
ittsburgh
itude
ituée
ium
ive
ivini
ivisée
ivre
ivresse
ivuru
iw
▁Iwa
▁Iwa
iwa
ix
▁iya
▁iyé
▁iyèrè
iyon
▁Iz
iza
izai
izɛ
izi
▁izin
J
J
▁j
▁J
▁J
▁j
j
j
ja
▁ja
▁Ja
ja
▁ja
▁Jaa
▁jaa
▁jaabi
▁jaama
▁jaati
jab
▁jabi
▁jabili
jabrani
▁jacque
▁jacques
jacques
▁Jag
▁jagabɔ
jagaro
▁jago
▁Jago
▁jagoba
▁jagokèyôrô
jah
▁Jakar
▁Jakar
▁jakumani
jala
▁jala
▁jalaki
jalaki
jalatigi
▁Jam
Jam
▁Jam
▁jam
jama
▁jama
▁jamais
▁jamakulu
jaman
▁jaman
jamana
Jamana
▁jamana
▁Jamana
▁jamanaden
▁jamanan
▁Jamanan
▁jamanaw
▁jambe
▁James
▁james
James
jaminidjan
▁jamu
▁Jan
▁jan
jan
▁janfa
▁jang
▁jani
jani
janjan
▁janto
▁Janv
▁janvie
▁janvier
▁janya
▁japon
▁Japon
▁Japon
▁Japonai
▁Japonais
▁japonais
▁japonaise
japonaise
▁jara
▁jarabi
jarabi
jarasisi
▁jardin
jata
▁jata
▁jaté
▁jate
jatela
▁jati
▁jatigi
▁jatila
▁jatiminè
▁jatiminɛ
▁jauge
▁jaune
▁jaunes
▁Java
▁javanais
▁Javanes
▁jayan
je
jé
▁je
▁je
▁Je
je
jean
▁jean
▁jean
jectif
▁Jeff
▁Jeff
jègnongon
jeli
jèmè
▁jen
jén
▁jèngè
jènsè
▁jensen
▁Jerry
▁Jerry
▁Jérusalem
▁jésus
▁jet
jet
Jet
jet
▁Jeu
▁jeu
▁jeu
▁jeudi
▁jeune
▁jeunes
▁jeunesse
▁Jeux
▁jeux
▁jɛ
jɛ
▁jɛgɛ
▁jɛkulu
▁jɛn
▁jɛngɛ
▁jɛni
▁jɛnkulu
▁jɛnsɛ
ji
▁ji
▁Ji
jibon
▁jida
jiden
▁jigɛ
jigi
▁jigi
▁jigira
jigiya
▁jigui
jigui
▁jii
▁jija
▁jijani
jikônô
▁jikɔnɔ
▁jikuru
▁jina
jing
▁jinkul
jo
jo
▁Jo
▁jô
▁jo
▁Jo
▁jo
▁jogo
jogo
joguidaw
▁john
▁John
▁John
▁john
▁Johnson
▁joie
joindre
▁joint
joint
▁joli
▁joli
▁jolie
▁jolile
jon
jon
▁Jon
▁jon
▁jona
jong
▁joona
jor
jord
▁joseph
▁josi
▁jou
▁jou
▁joué
▁joué
▁joue
▁jouer
▁joueur
▁joueurs
▁jour
▁Jourdain
▁Jourdain
▁journal
journal
▁journaliste
▁journée
jourou
▁jours
▁jɔ
▁jɔn
▁jɔr
▁jɔrɔ
▁jɔsi
▁jɔyɔrɔ
▁Jr
▁Ju
▁Ju
ju
▁ju
▁ju
ju
▁Jud
▁Jud
Jud
▁juda
▁judiciaire
▁judo
▁jue
▁jug
▁Jug
▁juge
jugu
▁jugu
▁juguman
▁juguw
juguya
▁juguya
▁Jui
▁jui
▁juillet
▁juin
▁jukɔrɔ
▁jul
▁julie
julie
▁juma
▁juman
▁jumana
▁jume
▁jumɛ
▁jungle
▁jupes
▁jur
▁jura
▁juridique
juru
▁juru
▁jurumu
▁jus
▁jusqu
▁juste
justement
▁justi
▁justice
▁justifié
▁juw
▁jy
▁k
k
▁K
k
▁K
▁k
K
K
▁ka
▁ka
ka
▁Ka
ka
▁kaba
▁kabako
▁kabakoman
▁kabakourou
▁kabakoya
▁kaban
▁kabi
▁Kabi
▁kabla
▁kabô
▁kabo
▁kaburu
▁kaburuso
▁kacha
▁kachia
▁kadi
kadi
▁kadogo
kafil
▁kafisa
kafisa
▁kafô
▁kafo
▁kagnan
▁kagni
kagni
▁Kah
▁kahan
▁kakan
▁kake
kakè
▁kakè
▁kakôrô
kala
▁Kalaall
▁Kalaall
▁kalafili
▁kalama
▁kalaman
Kalan
▁kalan
kalan
▁Kalan
▁kalanbon
▁kalandé
▁kalande
▁kalanden
▁kalankɛ
▁kalansɛbɛ
▁kalansira
▁kalanso
▁kalansoba
▁kalen
kali
▁kalifa
▁kallo
▁Kalo
▁kalô
Kalo
▁kalo
kalo
▁kam
▁kama
▁kamana
▁kamansôr
▁kambe
▁kamele
▁kamelé
▁kameleni
▁kan
kan
▁Kan
▁kana
▁kanda
▁kanga
▁Kanjar
▁Kanjar
▁kanka
▁kanma
▁kanɲi
▁kanou
kanto
▁kanu
▁kaɲ
▁kaɲɛ
▁kaɲi
▁kapital
▁Kar
kar
Kar
kar
▁Kara
kara
▁karaba
▁karama
karaman
karamôgô
▁karan
▁kari
▁karila
▁karlɔs
karo
▁karo
▁karti
▁kasa
kasila
▁kaso
▁kasôrô
▁kassa
▁kassara
▁kassé
▁kassi
kassi
▁kasso
▁kassodé
▁Kat
kata
▁Kata
▁kata
▁kataga
▁katala
▁katcha
▁katedral
▁kateimin
kati
▁katimi
▁katinmin
▁kato
▁katoliki
▁Katrina
kaw
kawa
▁kayak
kaz
ke
▁Kè
▁kè
▁ke
kè
ke
▁kê
kê
▁ké
▁Ke
kebaga
kegn
▁kègna
▁kègnè
▁kei
kei
keila
keimin
▁keimin
▁keine
kek
kék
▁kèkafilè
▁kèko
▁kékou
kela
kéla
▁kèla
▁kela
kèla
▁kêla
kêla
kêlahou
kelaw
▁kelaw
▁kéle
▁Kêlê
kêlê
▁kélé
▁kele
▁kèlè
▁kelé
kélé
▁kêlê
kele
▁kêlêbolo
▁keleen
▁kèlèkè
▁kèlèkèbolo
kèlèkèdé
▁kèlèkèdén
▁kelekele
▁kelen
▁kélén
kelen
▁kéléna
▁kélénan
▁kelenkele
▁kélépé
▁keleye
▁kéléyé
▁kèli
kèmè
▁Kèmè
kêmê
keme
▁kèmè
▁keme
▁kêmê
▁Kèmèsi
▁kèmèsi
▁kèmèss
▁kemi
▁Ken
kênê
kene
▁kènè
▁kene
kènè
▁kenekan
▁kènèkan
kènèkan
▁kènèma
kènèmaya
▁kènèya
▁keneya
▁kèni
kénlé
▁kénlé
▁kénlén
▁kénléyé
kénléyé
▁Kenya
kèra
▁kêra
▁kèra
▁kera
▁keraotred
▁kéré
kèrè
▁kèrè
▁kere
▁kêrê
▁kêrêfê
kèrèfè
▁kèrèfè
▁kerefe
kèrèfèyôrô
▁kèreink
▁kèreinkèrein
▁kèrèkè
▁kèrèkèdén
▁kèrèkèla
▁kèrèkèrè
kêrên
▁kèrèni
▁kèrènkèr
▁kèrènkèrèn
kèrènkèrèn
▁kérétchen
▁ketcho
kètchogo
▁kètchogo
▁ketchogo
▁kètchogoya
kètchogoya
▁kèwalé
▁kèwali
▁kewali
▁kèyôrô
kèyôrô
▁kɛ
kɛ
kɛbaga
▁kɛcogo
▁kɛla
kɛlaw
▁kɛlɛ
▁kɛlɛkɛ
▁kɛmɛ
▁kɛmɛfila
kɛnɛ
▁kɛnɛ
▁kɛnɛma
▁kɛnɛya
kɛɲɛ
kɛra
▁kɛra
▁kɛrɛ
kɛri
▁kɛta
▁kɛwale
kɛyɔrɔ
kg
kg
▁Kh
▁Kh
kha
kha
Kham
khamu
▁Khan
▁Khandelwal
khar
ki
▁ki
▁Ki
ki
▁ki
▁Kibar
▁kibari
▁kibaria
▁kibariya
▁kibaro
▁Kibaro
▁kibaroh
▁kibarou
▁kibaroya
▁kibaroyaw
▁kibaru
▁kii
▁kil
▁kilan
▁kilara
▁kile
kili
▁kili
▁kilo
▁kilomèt
▁kilomet
▁kilometr
▁kilomètres
▁kimi
▁kimmi
kin
kin
▁kin
▁kinda
kinda
▁King
▁kini
▁kinibolo
kinolo
▁Kir
▁Kir
▁kira
kiri
▁kiri
▁kiriy
▁kisè
kisè
kisɛ
▁kisi
▁kissè
kissè
▁kissei
▁kisseiya
▁kissi
kissi
kission
▁kitabou
▁kitabu
▁kiti
▁kititèguè
▁kititigè
▁kititiguè
▁kiu
▁kium
▁kiun
▁klancɛ
kland
▁klantchè
klas
▁klasi
▁km
▁km
▁Ko
▁KO
▁kö
▁ko
ko
▁kô
▁Ko
kô
▁Kô
▁koba
▁koding
▁kôdji
▁kodjougou
▁kodjugu
kodjugu
▁kôfê
kôfè
▁kôfé
kôfê
▁kôfè
▁kofe
▁kofè
▁koffè
▁koffé
▁koffei
▁kofô
▁kofôli
▁kofôni
▁kognagnini
kognan
▁kognan
kognouman
▁Kôgô
kogo
▁kogo
▁kôgô
▁kôgôd
▁Kôgôdji
▁kôgôdji
▁kogodji
▁kôgôdou
▁Kôgôdou
▁kogodou
▁kogodougou
▁kogoh
▁kôgôji
kogoman
▁kôh
▁koh
▁Koho
▁kojugu
▁kôkan
▁kokèta
▁kokɛta
▁kôkô
▁kôkôdji
▁kokôrô
▁kola
kola
▁kolasegi
▁Kolasegui
kôlis
▁Kolo
kôlô
▁kolo
kolo
kolon
▁kolon
▁kôlôsi
▁kolossi
kolossibaga
▁kolɔnn
▁kom
▁koman
▁Komen
▁kômi
▁komi
▁Komi
komi
▁komu
▁kôn
▁kon
▁Kong
▁Kong
▁Kongo
kongo
▁kongo
▁koni
▁kônno
▁kônnô
▁kônnon
▁kônnôn
kônnon
kônnôn
▁konnon
konnon
▁konnonan
▁konnondo
▁konnondô
konnondô
▁kônnondô
▁konnondon
konnonfé
kônô
▁konô
▁kônô
▁kono
▁kônôdô
▁kônôn
▁konon
▁kônon
kônôn
kônon
konon
▁kônôna
▁kônônala
▁kônônasou
▁konondô
▁kônondo
kônondô
▁kônondô
▁kônôndô
▁kônondoh
▁konondoh
konondon
▁konondon
kônôni
▁kononton
▁kônônton
kônôtô
kônôyôrô
▁konron
▁kôô
▁koo
kor
▁kor
▁kora
▁koré
▁kori
▁kôrô
▁koro
kôrô
koro
▁korô
▁kôrôba
▁koroba
koroba
korobo
▁korobo
▁kôrôbô
▁kôrôfô
▁kôrôlé
▁kôrôlen
▁kôrôman
▁kôron
▁koron
▁korossi
kôrôssi
▁kôrôssi
▁kôrôssili
▁korota
kôrôta
korota
▁kôrôta
▁kôrôtani
▁kôrôw
kôrôw
▁korow
▁kôrôyé
kôség
▁kôsôbè
▁kôson
▁kosôn
koson
▁kôsôn
▁koson
▁kosɔbɛ
▁kossèbè
▁kôsségui
▁kossô
▁kosso
▁kossobe
▁kossôbè
▁kosson
kosson
kôta
▁koté
koté
▁kou
kou
▁kouday
▁kougo
▁koula
▁koulé
▁koulo
koulou
▁koulou
▁koulouba
▁koulouw
▁koum
▁kouma
▁Kouma
▁koumalas
kouman
▁kouman
▁koumangn
▁koumb
koumbè
▁Koun
▁koun
koun
kouna
▁kouna
▁kounaf
▁Kounafo
▁kounafoli
▁kounafoni
▁kounakolon
kounan
▁kounan
▁kounanfoni
▁kounba
▁kounbi
▁kounda
koundam
koundaw
▁koung
▁koungo
▁Koungo
▁kounko
▁kounou
kounoun
▁kounoung
kountigui
▁kountigui
▁kouo
▁Kour
▁koura
koura
▁kourayé
▁kourou
kourou
▁kouroukan
▁kouroun
kourouni
▁kouroussi
▁koutou
▁koutourou
kouya
▁Kow
▁kow
kow
▁Kow
koy
koya
▁koyé
kɔ
▁kɔ
▁kɔfɛ
▁kɔgɔ
▁kɔgɔji
kɔm
▁kɔm
▁kɔn
▁kɔngɔ
▁kɔni
kɔnɔ
▁kɔnɔ
kɔnɔfɛ
▁kɔnɔn
kɔnɔna
▁kɔnɔna
▁kɔnɔni
▁kɔnɔnikɛ
▁kɔnɔnin
▁kɔnɔntɔn
▁kɔnɔtɔn
▁kɔr
kɔrɔ
▁kɔrɔ
kɔrɔba
▁kɔrɔba
▁kɔrɔcɛ
▁kɔrɔko
▁kɔrɔman
▁kɔrɔmuso
▁kɔrɔni
▁kɔrɔsi
▁kɔrɔsili
kɔrɔta
▁kɔrɔta
▁kɔsɔ
▁kɔsɔbɛ
▁kɔsɔn
▁Kr
▁Kri
krit
▁Kru
kru
ksi
ksu
ktɛr
ktu
▁ku
ku
kub
kula
▁kule
▁kulé
▁kulɛr
▁kulo
kulo
▁kulon
kulu
▁kulu
kuluw
kuma
▁kuma
▁kumaden
▁kumakan
▁kuman
▁kumana
▁kumande
▁kumasen
kumasen
▁Kun
▁kun
kun
▁kuna
▁kunafoli
▁kunan
▁kunawolo
▁kunba
kunbèn
▁kunbɛn
▁kunbiri
▁kunda
▁kungo
▁kungolo
▁kunkelen
▁kunna
▁kunnafoni
kunta
▁kuntan
▁kuntigi
▁kuntigui
▁kunu
▁kur
▁kura
kura
▁kurakura
kurakura
▁kuran
▁kuru
kuru
▁Kuru
▁kuruka
▁kuruli
kurunb
▁kuturu
▁kuw
ky
▁Kyoto
L
ł
▁l
▁L
l
l
▁l
▁L
L
▁la
▁la
la
▁La
la
▁là
▁là
là
▁La
là
▁laada
▁lab
▁labaara
▁labain
labain
▁labalo
▁laban
laban
▁labato
▁labein
▁labén
▁labèn
▁laben
▁labèna
labènin
▁labɛn
▁labil
▁labila
▁labin
▁labinli
▁labla
▁labô
▁labôli
▁labôlisira
▁labɔ
▁lac
▁lâche
▁lacs
▁lactée
▁lada
▁ladaw
lade
lade
▁ladégi
ladegi
▁ladegi
▁ladéguili
▁ladèrès
▁ladi
▁ladili
▁ladin
▁ladina
▁ladinein
▁ladje
ladje
▁ladjè
▁ladjèl
▁ladjèn
▁ladjen
▁ladji
▁ladjigui
▁lado
▁ladôn
▁ladon
▁ladoni
▁ladow
laf
▁lafar
▁lafasa
▁lafasabaga
▁lafèrè
▁lafien
▁lafignè
▁lafiɲɛ
▁lafisali
▁Lag
▁lagafia
▁lagamou
▁Lagnini
▁lagnini
▁lahal
lahou
lais
lais
laises
▁laisse
▁laisser
▁lait
▁lajɛni
▁Lak
▁Lak
▁lakali
lake
▁Lake
▁lakika
▁lakisi
▁lakôl
▁lakoli
lakoli
▁lakolossi
lakoyaw
▁lalaga
▁lalira
▁lalô
▁lalɔ
▁Lam
▁lamaga
▁laman
lamaya
▁lame
▁lamè
lames
▁lamɛ
▁lamɛn
▁lamɛna
lamine
▁laminɛ
▁Lamini
lamini
▁lamini
▁laminila
▁laminini
▁lamiri
▁lamô
▁lamon
▁Lan
lan
lanbaga
▁lança
▁lance
▁lancé
▁lancement
lancer
▁lancer
lanche
land
land
▁landa
lande
▁landes
landi
lando
▁langage
▁langue
▁langues
▁lanib
▁lanibala
▁lanibara
▁lanibɛ
▁lanilo
lankè
▁lankolo
lann
▁lannaya
▁laɲini
lap
lar
Lar
▁lara
▁larala
lard
▁large
▁Las
las
▁lasa
▁lasagoli
▁lase
laseguisèbè
▁lasigi
▁lasigui
▁lasinsin
▁lasiri
▁lasôrô
▁lasourou
▁lass
▁lassé
▁lasse
lasséko
lassi
▁lassigiden
▁lassigui
lassikourou
▁lassinan
▁lassoro
▁lassôrô
▁lassou
▁Lat
lata
▁lataga
▁latanga
▁latangaba
late
▁latege
latéraux
▁Lati
▁latigê
▁latigɛ
▁latiguè
latiguè
▁latimi
▁latin
▁latin
▁lauren
▁lave
law
law
▁lawali
▁layir
▁layiri
▁Layton
▁Layton
lbert
ld
lder
▁Le
lê
▁le
▁le
▁Le
▁lé
le
le
lé
▁lè
lé
lè
▁leçon
▁lecture
lée
lefoni
▁lég
▁légales
▁légalis
▁légalité
legel
▁léger
▁légère
▁légers
▁légion
▁législati
▁législative
▁léguilisi
▁légumes
▁léhé
leil
leke
▁lekoli
▁lekon
▁lela
▁léla
lèma
léman
lemen
léments
▁lemuru
lén
len
▁lendemain
lent
▁lentilles
lenw
▁Lenz
▁Lenz
▁Leon
léon
ler
lèri
▁lèri
les
▁Les
lès
▁les
▁Les
les
lescope
▁lésions
▁lesquel
▁lètè
lète
létèri
▁lettre
▁lettres
▁Leur
▁leur
leur
leuve
▁lève
lève
▁levée
▁lever
lèw
ley
ley
léyé
▁leye
▁léyé
▁lɛ
lɛ
lɛm
lɛs
lɛt
lga
lgar
lgérie
lgérie
▁Li
▁li
li
▁li
li
lia
▁liaison
▁Lib
liban
▁libér
▁libéral
▁libéré
▁liberté
libori
▁libre
▁Liby
▁Libye
lic
▁licence
licite
lie
▁lié
▁liées
▁liège
▁lien
liens
▁lieu
lieu
▁lieux
lif
liff
▁ligne
▁ligue
likalo
likan
likê
like
likè
likèla
liko
lila
▁lili
limani
limaniya
limètri
▁limit
▁limité
limitée
▁limitée
▁limitées
▁limites
▁limitrophe
▁limo
▁limog
▁limoges
limpik
lin
line
ling
ling
linge
▁linguistiques
lini
▁Lion
▁lions
▁liquide
▁lire
▁lis
lisabeth
lisabeth
▁lisait
▁lisez
list
list
▁liste
▁lit
liti
▁littéra
▁liv
▁Livingston
▁Livingston
▁livr
▁livraison
▁livre
▁livres
▁livru
liw
liya
liyé
liye
▁liz
lizabeth
lizabeth
lizz
ll
llage
llah
llan
llas
llas
lle
lle
llemagne
lles
llet
lley
lliance
llon
lly
lman
▁lo
lo
▁lô
lô
▁Lo
lo
▁Lo
▁lo
▁loc
local
▁local
▁locale
▁localis
▁localisation
▁localité
▁locat
▁locaux
▁locuteurs
▁lôdaw
lofi
logé
▁logement
logi
▁logiciel
▁logique
logique
▁logis
lognanag
▁Lôgô
▁lôgô
▁logo
▁logofi
lôgôlô
▁lôh
▁loh
▁loi
▁loin
▁lointain
▁lois
▁loisirs
lôkô
▁lôkôli
lôla
lola
▁lôli
▁Lolo
lolo
▁lolo
▁lolos
lom
lomi
▁Lon
▁Lôn
▁lon
lon
▁lôn
lon
lôn
▁lonan
▁lonandjiguisso
lonbaga
▁lonbè
▁lonbɛ
londo
▁londres
▁Londres
▁long
▁longo
▁longtemps
▁longue
▁longues
▁longueur
longueur
loni
▁Lôni
lôni
▁lôni
▁loni
▁lônikèla
loniya
▁lôniya
▁lôniyara
▁lonko
▁lônko
▁Lônni
lonni
▁Lonni
▁lonni
▁lônni
▁loon
▁lor
lor
lor
▁lorans
lorou
▁lorou
lors
▁lors
▁Lors
Lorsqu
▁lorsqu
▁Lorsqu
▁loru
los
▁Los
▁lôssa
lot
lôtchogo
lou
▁lou
lou
▁lou
loué
lougou
▁louis
▁Louis
▁Louis
▁loup
▁lourd
▁lourde
▁lourds
louse
lova
low
low
▁lɔ
▁lɔgɔ
▁lɔgɔkun
▁lɔgɔra
lɔk
▁lɔn
lɔn
▁lɔndr
▁lɔni
▁lɔnni
▁lɔnniya
▁lɔr
▁lɔyɔrɔ
lpha
lro
ltur
▁lu
lu
▁luc
▁lucide
▁lucie
▁lucien
luent
▁lug
lugu
lui
▁lui
luk
▁lukɔnɔ
lumière
▁lumière
luminé
▁lumineu
▁luminosité
▁Lun
Lun
▁Luna
▁lundi
▁Lune
▁lune
▁lunettes
lus
lus
▁lutte
▁luwa
▁luxe
▁Luxembourg
lva
lve
▁Ly
ly
lympiques
lyn
lynn
▁lyon
▁m
▁M
▁m
m
m
▁M
M
M
▁mâ
MA
▁ma
ma
▁ma
▁Ma
▁Ma
ma
▁maana
▁maari
▁mabô
▁mabo
▁Mac
▁Mac
macher
▁machi
▁machine
▁mâchoire
mad
▁Mad
mad
▁Madam
▁madam
▁madame
▁mademoiselle
▁madi
▁madimi
▁madjigi
madogo
▁madrid
▁madrid
▁mafèlèli
mafen
mafén
▁maflè
mag
▁maga
▁maga
▁magama
▁magaman
▁magankan
magasin
▁magasin
mage
magin
▁magn
▁magné
▁magnétique
magni
▁magni
▁mah
▁mai
▁maï
mail
mail
▁mail
▁main
▁mains
▁mainten
▁maintenant
▁maintien
▁maire
▁mairi
▁mairie
▁mais
▁Mais
mais
▁maison
▁maisons
▁maître
▁maîtrisé
▁majeur
▁majeure
▁majigi
▁majigini
▁major
▁majorité
▁majuscule
▁makan
▁makari
▁makaritɔ
▁makèya
makèya
mako
▁mako
▁makogna
makoun
▁makoya
▁makɔrɔbaw
mal
▁mal
▁Mal
▁malade
▁malades
▁maladie
▁maladies
▁Malais
▁Mald
▁malheur
▁malheureusement
▁malheureux
▁malo
▁maloya
▁maltrait
▁maltraitance
▁malveillan
▁maminè
▁mammifères
▁man
▁man
man
man
▁Man
▁manager
manbolo
▁Manc
▁manche
▁Manchester
mand
mandat
mandé
▁mandi
mandi
▁mandimi
▁mandiminan
▁mandjan
manfe
▁mang
▁manga
▁mangan
▁mangé
▁mange
▁manger
mangou
▁mangrov
▁mani
mani
mani
▁manière
▁manifest
▁manifesta
▁manifestants
▁manifestation
▁manifester
▁manipulation
▁mankan
▁manœuvr
▁manogo
manogo
manɔgɔ
▁manqu
▁manque
▁Mans
▁mansa
▁mansin
Mant
mante
▁manu
▁manuscrit
manw
manyôrô
▁maɲ
maɲ
▁maɲi
▁Maori
▁Maoris
▁Mapuch
Mapuche
▁mar
▁Mar
mar
▁Mar
▁mar
▁mârâ
▁Mara
▁mara
▁Mara
mara
▁marafé
▁marais
▁marala
▁marali
▁marara
▁marasso
▁maraw
▁marc
▁marc
▁march
▁marchand
marché
▁marche
▁marché
▁marcher
▁marchés
▁marcof
▁mardi
▁maré
maréc
▁marée
▁marfa
▁Mari
▁Mari
▁mari
Mari
▁mari
maria
▁mariage
▁Mariana
▁marie
▁Marie
Marie
marie
▁marié
▁marifa
marin
marine
▁marine
marine
marins
▁Mario
maritime
▁marius
mark
▁mark
▁marki
▁marko
▁Maro
▁Maro
▁maro
▁marocain
▁marquant
▁marque
▁marqué
▁marquis
▁marrant
▁Mars
▁mars
▁mars
▁marsi
▁Mart
mart
▁mart
▁martel
▁martɛ
▁marth
▁marti
▁marvejol
▁mary
mary
▁Mas
▁masa
▁Masa
masala
▁masculin
▁masé
maséré
▁masôrô
masoro
masôrô
▁masouba
▁Massa
Massa
▁massa
▁Massa
▁massaba
▁Massaba
▁massalabol
▁Massatc
▁massatch
▁Massatchè
▁masse
▁massiri
▁massive
▁match
▁matchi
▁matchs
▁matelas
▁matéri
▁matériel
▁maternelle
▁math
▁mathémati
▁mathématique
▁matière
▁matin
▁matôgô
▁matur
▁Mau
▁Mau
maurice
▁mauvais
▁maxim
▁maxim
▁maximi
▁maximum
may
maya
▁mayara
mayèlèmatchogo
mazo
mb
mba
▁mba
mbai
mbè
mbé
▁mbi
mbie
mbour
mbrou
mbu
▁Mc
▁Mc
mé
mê
▁me
me
me
▁mè
▁mé
▁me
mè
▁med
▁medail
▁médaillé
▁médaille
▁médecin
▁médecine
▁médi
medi
▁médi
média
▁médical
▁médicament
▁médiéval
▁Medit
▁Mediter
▁Mediterane
▁Méditerranée
▁méditerranéenne
▁médor
▁méduses
mée
▁Meilleur
▁meilleur
▁meilleure
▁mela
▁mélange
▁mélangés
▁melani
meli
▁membre
▁membres
▁même
même
▁mêmes
mêmes
▁mémoire
▁mémori
▁men
▁mèn
▁men
men
men
▁mèna
mèna
▁menace
mènan
▁mende
▁mendi
▁mené
mène
mènè
▁menée
mener
▁mèni
ment
▁menti
▁mention
▁mentionné
▁mentir
▁Mer
▁Mer
▁mer
mer
mer
merang
▁merci
▁Mercredi
▁mercredi
mère
▁mère
▁méri
▁mèri
mericain
méricains
mero
▁merveille
mes
▁mes
▁mese
▁mesie
▁mesiye
▁message
▁messagerie
▁messieurs
▁mesure
mesures
▁mesures
▁Met
▁met
▁métallique
▁métaux
▁météor
▁météorologique
mètèrè
▁méth
▁méthode
▁METI
METI
▁métier
metiri
métr
mètr
mètre
▁mètres
metri
mètri
▁metri
▁métro
▁Metro
▁Metro
▁métropol
▁mett
▁mettra
mettre
▁meubles
meubles
▁meurt
▁meurtr
▁meutes
mey
▁mezi
▁mɛ
mɛ
▁mɛn
▁mɛna
▁mɛnɛ
▁mɛnɛna
mɛr
▁mɛtr
mɛtri
MI
▁mi
mi
mi
▁Mi
▁mi
▁mib
▁mibe
▁Mic
▁Mich
▁michel
michel
▁micro
▁micro
▁microscope
midi
▁midi
mie
mièn
▁mien
▁mienne
mier
▁mieux
migré
mikan
mil
▁milan
▁miles
miles
▁miles
mili
▁milieu
▁milimètèr
▁militaire
▁militaires
▁militant
▁milite
▁militèri
▁miliy
▁miliyar
▁mill
▁Mill
mille
▁millénaire
▁Miller
▁milli
▁milli
▁milliar
▁millier
▁million
▁million
▁milliy
▁miman
▁min
min
▁Min
min
▁mina
mina
▁Minan
▁minan
minan
▁minanw
▁minbé
▁mince
mine
minè
▁mine
▁minè
▁mineur
minèw
minɛ
▁minɛ
▁minɛn
▁minɛna
ming
▁Mini
▁mini
minike
▁minimum
▁minin
▁minis
▁Minisi
▁minisiri
▁Minisiri
▁Minisr
▁ministère
▁ministre
▁miniti
▁minkè
minnan
▁Minne
minnin
▁minninn
▁Mino
▁minorit
▁minou
▁minu
▁minugu
▁minuit
▁minuscule
▁minut
▁minute
▁minutes
minw
▁minw
mir
mir
▁mirage
Miri
▁miri
▁mirila
▁miriya
▁mis
▁Misali
misali
▁misali
▁misè
▁mise
▁miselin
▁misen
misèn
▁miseni
▁misɛn
misɛn
▁misi
▁Misira
▁Miss
▁Miss
missa
missen
missèni
▁missi
▁Missi
missin
▁missin
▁missinw
▁mission
▁Missouri
▁Mit
mit
▁Mit
mith
mith
▁mitôgô
▁mitou
▁miw
▁mix
▁miyé
▁mizi
▁mlan
mlan
▁mm
▁mm
mment
mmin
mo
▁Mo
▁mo
▁Mo
▁mo
mo
▁mô
▁Mobi
▁mobil
mobil
▁mobile
mobile
môbili
mobili
▁mobili
▁môbili
▁môbilibori
▁mode
▁modèle
▁modèles
▁modér
▁modéré
moderne
▁moderne
▁modernes
▁modes
▁modɛl
▁modifi
▁modification
▁modifiée
▁modul
▁Môg
mogo
Môgô
mogô
▁môgo
▁môgô
▁mogo
▁Môgô
▁Mogo
môgô
▁mogô
▁môgôhou
môgôw
mogow
▁môgôw
▁mogow
mogoya
môgoya
▁moh
▁moi
▁moi
moi
▁moindre
▁moine
moine
▁moins
▁mois
▁moitié
▁mol
▁Mol
▁Mold
▁Moldav
▁molecu
▁molécul
▁moléculaire
▁Moll
▁moment
▁môn
▁mon
▁mon
mon
mon
▁monarque
▁monaster
▁monastère
mond
mond
▁monde
▁mondial
▁mondiale
mongol
▁monnaie
▁mono
mono
monos
▁monseigneur
▁monsieu
▁monsieur
▁Mont
▁mont
mont
▁mont
mont
▁montage
▁montagne
▁montagnes
▁montant
▁Monte
▁Monte
▁monté
▁montée
monter
▁monter
▁montr
▁montre
▁montré
▁montrer
▁monument
▁moqu
▁mor
▁mora
▁morceau
▁morgor
▁morif
▁Moriori
▁Moriori
▁moris
morph
▁mort
▁morte
▁mortelle
▁mortels
▁mosasaur
▁mosasaure
▁mot
▁moteur
▁motif
▁motivation
▁moto
moto
moto
▁motobori
▁mots
▁Mou
▁mou
mou
▁mouch
▁mouga
▁mougan
▁mougou
mougou
▁mouill
moulo
▁moumè
▁moun
▁mouna
mounou
▁mounou
▁mourir
▁mourou
▁Mous
mouso
▁mouso
▁mouss
▁mousse
▁mousso
mousso
▁moustiques
▁mouvement
▁mouvements
▁mouw
▁moyen
▁Moyen
▁moyenne
▁moyens
mɔ
▁mɔ
▁mɔbi
mɔgɔ
▁mɔgɔ
▁mɔgɔmin
▁mɔgɔsi
mɔgɔw
▁mɔgɔw
mɔn
▁mɔn
▁mɔnbili
▁mɔnt
▁mɔntr
mɔr
▁mɔt
▁MP
mp
mper
▁mph
mph
mplissez
mposition
mpro
ms
▁Mu
▁mu
▁mu
mu
▁Mu
▁mufɛn
▁mugan
▁mugu
mugu
▁Muhammad
muler
▁multi
▁multimédia
▁multipl
▁mulu
mumè
▁mumè
▁mun
muni
▁muni
munu
▁munu
▁munumunu
▁mur
Mur
▁mura
muret
▁murmura
▁murs
▁muruti
muruti
▁Mus
musa
▁Musa
▁Musashi
▁musée
▁musica
▁musical
▁musicien
▁musique
▁Muso
▁muso
muso
▁musokɔrɔba
▁musoman
▁musu
▁mutation
▁mutuel
▁muyun
my
my
▁My
▁my
▁myé
myr
myr
ñ
ń
ň
ñ
n
▁n
▁n
n
▁N
▁N
N
N
NA
NA
▁na
na
na
▁Na
▁nâ
▁naani
nabô
▁Nad
nada
▁Nadi
nafa
▁nafa
▁nafama
▁nafamafɛn
▁nafaman
▁nafarasôr
nafô
nafolo
▁nafolo
▁nafolodilan
▁Nag
▁nagasi
nagbèlè
▁nage
▁nager
nain
naire
▁naissance
naissance
naît
nako
nalagbè
nale
▁naloman
▁nalomanya
▁nalomaya
nam
nama
▁Nama
nama
▁Namgy
▁Namgy
nami
nami
▁namou
▁nân
▁nan
nan
▁Nan
▁nana
nanagbe
nanaman
▁nanan
nanangbè
nandélôgô
nandi
nandjiguiyôrô
▁nanfèn
nanfô
▁nani
nani
▁naninan
nanko
▁nanko
▁nankɔ
▁nanni
nanw
▁napole
▁napoléon
▁nar
▁narrat
naseben
▁nasson
nat
Nata
▁nata
▁natal
natèri
▁Nation
▁nation
▁Nationa
national
▁national
▁national
▁National
▁nationale
Nationali
▁nationalisée
▁nationaux
▁nations
▁natur
▁nature
▁naturel
▁naturelle
▁naturellement
▁naturels
▁naval
▁navette
▁naviga
▁navigat
▁navigat
▁navigation
▁navire
▁navires
naya
▁nayé
▁Naz
naz
▁nazi
NBA
▁NBA
nbolila
nbri
nburg
nburu
nca
nce
nches
nçon
nd
nda
ndè
nde
ndelogola
ndépend
ndeur
ndo
ndonésie
ndonn
ndro
nds
ndul
▁Ne
Ne
▁nè
▁Né
▁Nè
NE
▁ne
▁ne
ne
ne
né
nè
▁né
▁né
né
▁néanmoins
▁néc
▁nécessaire
▁nécessaires
▁nécessit
▁nécessite
▁nécessité
▁nécessiter
▁née
▁nèèma
néerlandais
négati
▁négatif
négatif
▁négativ
▁négative
▁nege
▁nègè
▁négligé
▁négligence
▁négoc
▁négociat
nèguè
▁nèguè
▁neguè
▁nèguèdjourou
nei
▁Nei
▁neige
nel
nel
▁nela
nelle
nels
neman
nèmaya
nènè
nênê
nene
▁nènè
nent
▁néo
▁Nepal
ner
▁nerf
neri
nèri
▁nerveuse
nés
nes
Net
neti
nèti
▁nettoy
neuf
▁neuf
▁neuro
▁neutr
▁neutre
▁neutrons
▁neutrons
neuve
▁neuvième
▁Nevada
▁new
▁New
▁New
ney
ney
nez
▁nɛ
▁nɛgɛ
▁nɛnɛ
▁nɛnɛkiri
▁nɛni
▁nɛrɛmuguman
nɛt
nfa
nfan
nfe
nfon
▁Ng
ng
ng
▁nga
▁Nga
nga
ngali
ngan
nganin
ngenie
nger
nger
ngile
ngili
nglais
ngné
ngnongo
ngo
ngokono
ngola
ngon
nguili
nh
NH
nheim
nhu
▁Ni
Ni
▁ni
ni
▁Ni
▁ni
ni
nibɛ
▁Nic
nic
▁nic
▁niche
▁nicola
▁nid
nidè
nie
nier
nière
▁Nig
nig
▁Nigeria
▁nigɛ
nikɛ
nikɛla
▁nikô
nikô
▁nim
nimassalakoulou
nimisa
▁nimoro
▁Nin
▁nin
nin
▁nina
▁ninakili
ning
nininin
nino
▁Nintendo
ninw
▁ninyɔrɔ
niɲa
nique
▁nisondia
▁nissôd
▁nissodja
nistr
nistri
▁Nit
▁niveau
▁niveaux
niw
niya
niyara
nje
nk
nka
nkani
nkili
nkililala
nkôrômadèmè
nku
nkutun
nmini
nmôgôya
nnan
▁nne
nne
nnen
nnen
nness
nnette
nni
▁No
▁No
▁no
▁no
no
▁nô
nô
no
▁nocturne
▁nôfè
▁Nôgô
▁nogô
nôgô
▁nôgô
▁nogo
nogobo
▁nôgôman
▁nôgômani
nôgômani
▁nôgôya
▁nogoya
noi
noï
▁noir
▁noire
▁noires
▁noirs
▁noisettes
▁noix
nom
▁nom
▁nomade
nomade
▁Nombre
▁nombre
▁nombreuses
▁nombreux
nombrou
nomi
▁nomination
▁nominé
▁nomme
nommé
▁nommé
▁Non
▁Nôn
▁non
▁non
non
▁nôn
▁nônfè
▁nonfè
nongondan
▁nonni
▁nonnon
nonyme
▁Noo
noo
Noo
▁Nor
▁Nord
▁nord
▁Nord
▁nordique
▁normal
▁normale
▁normalement
▁norme
▁normes
▁nôrô
▁noro
▁North
▁North
▁Norvèg
▁Norveg
▁Norvège
▁Norvégien
nos
nos
▁not
notamment
▁notamment
▁note
▁Notre
▁nôtre
▁notre
▁Nou
▁nou
▁Nou
▁nougou
▁nouman
▁nounou
nounou
▁nourrir
▁nourriture
nous
▁nous
▁nousson
▁nouveau
▁nouveauté
Nouvel
▁Nouvel
▁nouvel
▁nouvelle
▁nouvelles
▁Nov
▁nov
▁novembre
▁noyé
▁nɔ
nɔ
▁nɔfɛ
▁nɔgɔ
▁nɔgɔman
▁nɔgɔya
▁nɔn
▁nɔnɔ
nɔɔ
▁nɔr
▁nɔrɔ
NP
npik
npo
▁NPWS
▁nron
ns
ns
NSA
nsec
nstitut
nsula
nt
nt
ntan
ntarctique
ntartic
nté
ntèrinèti
ntɛn
ntɛs
nth
ntigè
ntile
ntir
ntiri
ntiya
ntoine
ntoine
ntonla
ntra
▁Nu
▁nu
nu
nu
▁nuages
nuba
▁nucl
▁nuclé
▁nucléaire
nugnan
nugu
▁nugu
▁nuir
▁nuit
▁nuk
▁numér
▁numérique
▁numéro
▁nun
▁nunu
▁nunugu
▁nunuw
▁nusɔndia
▁nutritionnel
nw
ny
nya
▁nyé
▁nyès
nyini
▁Nyira
▁ɲ
ɲ
▁ɲa
ɲa
▁ɲafɛ
▁ɲafɛmɔgɔ
▁ɲafɔ
▁ɲafɔra
▁ɲagami
▁ɲakili
▁ɲaman
▁ɲamɔgɔ
▁ɲamɔgɔden
▁ɲamɔgɔya
▁ɲan
ɲan
▁ɲana
▁ɲanabɔ
▁ɲanama
ɲanaman
▁ɲanaman
▁ɲanyɔrɔ
▁ɲasin
▁ɲɛ
ɲɛ
▁ɲɛfɛ
▁ɲɛgɛ
▁ɲɛlɛ
▁ɲɛmɔgɔ
▁ɲɛn
▁ɲɛna
▁ɲɛnɛ
ɲi
▁ɲi
▁ɲigi
▁ɲinan
▁ɲini
▁ɲiniga
▁ɲinigali
▁ɲinina
▁ɲininga
ɲinini
▁ɲɔ
▁ɲɔgɔ
ɲɔgɔn
▁ɲɔgɔn
▁ɲɔgɔnw
▁ɲɔgɔnye
ɲɔl
ɲɔmɔgɔ
▁ɲɔngɔ
ɲɔngɔn
▁ɲɔngɔn
▁ɲuma
ɲuman
▁ɲuman
ŋ
▁ŋa
ô
ō
ö
Ö
õ
ō
ó
õ
Õ
ó
ò
▁o
o
▁O
o
ô
O
▁O
O
▁ô
▁o
ö
oats
▁ob
ob
▁ob
oba
▁obè
▁obe
▁Obè
▁obé
▁obei
▁obéi
obéir
▁obéiss
obel
▁obi
ôbili
obiri
▁objectif
objectif
▁objectifs
▁objet
objet
▁objets
▁obligat
obligation
oblige
▁obligé
ôbô
obscur
▁obscure
▁observa
▁observateur
▁observateurs
observation
▁observations
▁observé
▁observer
obst
obstacle
obtenir
▁obtenir
▁obtenu
▁obtien
ôc
oc
ocation
▁occasion
occasion
Occident
▁occidentale
▁occidentaux
▁occup
occup
▁occupe
▁occupé
occuper
occurrence
▁Oce
océan
▁océans
ocelot
och
oche
▁ochi
ock
ocke
▁octobr
▁Octobr
octobre
▁octobre
od
od
odén
odern
▁odeur
odeur
odifié
odin
ôdji
odjougou
odora
œ
oël
▁œufs
▁œuvr
▁œuvre
œuvre
▁œuvres
öf
▁of
▁of
ofaya
▁ofè
off
▁off
▁officiel
▁officielle
▁officiellement
▁officier
▁offr
▁offre
offre
▁offrir
offrir
ofi
og
ogènes
ogi
ôgnôgôn
ôgnon
ogo
ögö
ogô
ôgô
ôgôf
ogoh
ôgôla
ôgôlô
ôgôma
ogon
ogonna
ôgôsèbè
ogotchè
ôgôtôrô
ôgôya
ographi
ographie
ographiques
oguida
▁oh
▁Oh
▁oh
▁ohé
Ohio
ohr
oignée
oilé
oins
oint
oir
oire
oiri
oirs
ois
oise
oiseau
oiseaux
▁oiseaux
oit
oivent
oka
▁oka
▁okan
oke
▁Oke
oko
ôkô
okri
okur
ol
ola
▁ôla
▁ola
▁Ola
▁Olaf
olat
old
▁Old
▁Old
▁olé
▁ole
ôli
▁Oli
olini
▁oliv
olive
▁olivi
▁olivie
ollant
olle
ollege
olo
▁olo
ôlô
olo
ologie
ologiste
ologne
ologues
oloo
▁olou
▁olougou
olu
▁olu
▁olugu
▁olympi
▁Olympi
▁Olympic
▁Olympique
▁olympique
▁olympiques
olyn
om
om
▁oman
omantisme
omatique
ombr
ôme
omer
ométr
omɛn
▁omɛr
ômi
▁omi
omi
omie
ômini
omissèri
omité
▁omni
omo
omor
omotion
omp
ón
on
▁on
on
▁On
ôn
ônabila
onandjiguisso
onasteri
onde
ondi
ônè
▁Onega
ong
ong
ongeu
ongo
ongo
ongô
ôngô
ongondan
ongonman
ongroise
▁onhon
onic
oniki
onma
onnant
onne
onnées
onner
onneuse
onnez
ônnôn
ônô
onome
onomi
onon
onou
ons
onservat
onstant
onstantin
onstitution
▁ont
ont
ONU
ONU
onw
▁onz
▁onze
ook
ool
op
▁Ope
oper
▁Opér
Oper
opéra
▁operati
▁opération
ôpi
opin
▁opinion
opoulos
▁oppos
oppos
▁opposition
opposition
▁opti
▁option
▁optique
oquer
or
Or
▁or
▁Or
or
▁or
▁orage
oratif
▁orbit
orbite
orchestre
ord
ord
▁ordinaire
▁ordinat
▁ordinate
▁Ordinatèr
▁ordinatèr
▁ordinater
▁ordinateri
ordinateur
▁ordinateur
▁ordonn
ordonnance
▁ordre
ordre
▁ordres
ore
▁oreilles
▁organ
organe
▁organi
▁organique
organis
▁organis
▁organisation
organisation
▁organisé
▁organisée
organisme
▁organisme
orgor
ôri
▁ori
▁ôri
ori
▁oridinat
Orient
▁oriental
▁orientale
▁oriente
origa
▁originaire
▁original
original
original
▁originale
origine
▁originel
ork
orld
▁orléan
orno
ôrô
örö
oroba
ôrôdjan
ôrôdjanyé
orogaramou
oromani
▁oromèni
ôron
oronto
ôrôsi
ôrôya
▁oroz
orporation
orro
orth
orthographe
orts
osa
osaur
▁osc
oscopie
ose
osité
osiye
osof
osoni
ospital
osque
▁ossi
ôssôbè
ôssôli
ost
ot
ot
ôtab
▁otage
ôtch
▁oté
▁otè
otei
oter
othé
other
othi
othic
ôti
ôtô
ototabag
otro
ott
▁Ott
▁Ott
otte
▁otumana
oû
▁Ou
Ou
▁ou
ou
▁où
▁ou
ou
▁Ou
où
oubli
ouche
ouché
oud
oud
ouddha
ouest
ougan
ouge
ougou
▁oui
ouka
▁ouka
oukala
oukonnon
oukôrô
oula
ouli
oulou
oumér
oun
ounassigui
ound
oungo
ouni
ounou
ounta
ountiguiba
ounw
ouoh
oup
oupe
▁our
our
oura
ouragan
▁ouragan
ourd
ouri
ourou
ourougou
ouroun
ouroussan
ourouy
ourquoi
ours
ous
oussin
oussou
oussousouman
out
outan
oute
outefois
outh
outh
▁outil
▁outre
ouva
ouvè
ouvent
ouvèrènéman
ouvérénéman
ouvèrinèman
▁ouvert
▁ouverte
ouverture
▁ouvr
▁ouvrage
ouvre
ouvrier
▁ouvrir
ouvrir
▁ouvrirez
ouw
▁ouye
ov
OV
ova
ova
ovan
ovembr
over
ovi
oviétik
▁Ow
▁ow
ow
ow
own
oxi
oxy
oxygène
▁Oya
▁oya
oyau
▁oyé
▁oye
oyez
ôyô
▁oyo
ôyôrô
oza
ozo
ɔ
Ɔ
ɔgɔ
ɔgɔli
▁ɔhɔ
▁ɔhɔn
ɔl
Ɔl
ɔlɔ
ɔlɔn
▁ɔn
ɔn
ɔndial
ɔngɔn
▁ɔnhɔn
ɔni
▁ɔnɔn
ɔnɔnin
ɔp
▁ɔr
ɔr
▁ɔrleyan
ɔrɔ
ɔrɔf
ɔtɔ
P
▁P
▁p
▁P
p
▁p
p
P
▁PA
▁pa
▁pa
▁Pa
▁Pa
pa
pa
▁pacifiqu
▁pacifique
▁Pacifique
▁Pag
▁page
pagni
pagnôl
pagos
▁pai
▁paill
▁pain
▁paire
▁paisible
▁paix
▁pak
▁Pakistan
▁Pakistan
▁pakistanais
▁pal
▁Pal
▁pâl
▁Pal
▁palais
▁Pale
▁paléo
▁Pame
pan
pan
▁pan
▁pan
▁panam
Panama
▁panier
▁panique
▁pankurun
▁panne
▁pano
▁panp
▁pantal
▁pantalon
▁pap
▁papie
▁papier
▁papiye
▁paque
▁Pâques
▁par
▁par
▁Par
par
Para
▁para
▁paradoxal
▁Parag
▁Paraguay
paraissent
▁paraît
▁paraîtr
paraître
▁parallèle
▁parasite
▁parasites
▁parc
▁parcours
▁parcouru
pardon
▁parents
▁parfaitement
▁parfois
▁pari
▁paris
▁paris
▁Paris
▁Paris
Park
▁park
▁Park
▁parki
▁parking
▁parlait
▁parlé
▁parle
▁parlée
▁parlement
▁parlementaire
▁parler
▁parlez
▁parlons
▁parodie
▁parois
▁parole
parole
▁part
▁partagé
▁partage
▁partagée
▁parti
▁Parti
parti
▁parti
▁Parti
▁particip
▁participant
▁participer
▁particul
▁particules
▁particulier
▁particulière
▁partie
▁partielle
parties
▁parties
▁partir
▁Partizan
▁partout
▁parvenu
▁parvenue
▁pas
▁pas
▁pasaz
▁pasé
▁pasek
▁pasi
▁pass
▁passage
▁passagers
▁passant
▁passe
▁passé
▁passée
passées
▁passent
▁passeport
▁passeports
▁passer
▁passion
▁passipor
▁pat
▁Pat
▁Pat
▁patho
▁pathologi
▁patience
▁patient
▁patients
▁patin
▁patin
▁patineur
▁patisséri
▁pâtisserie
▁pâtisseries
▁patri
▁patri
▁patron
▁pâturage
▁pau
paul
▁paul
▁paul
▁pauline
▁pause
▁pauvre
▁pav
▁pavillon
▁payé
▁payer
pays
▁Pays
▁pays
▁paysage
▁paz
▁PBS
PD
▁pd
▁pè
pè
PE
pe
pe
▁pe
▁pé
pé
▁Pe
peaux
▁péc
▁pêch
▁pêcha
▁pêchai
▁pêche
▁pêchera
▁pêchions
peci
▁pédagogi
pei
▁pein
▁peine
▁peint
▁peinte
▁peinture
▁peintures
▁Pékin
▁pel
▁pele
pele
▁pèlerin
▁pell
pen
▁pén
▁pénale
▁pench
▁penchant
▁Pend
pendant
▁pénétr
▁péninsule
▁Pennsylvani
Penny
▁pens
▁pense
▁pensée
▁pensées
▁penser
▁pensez
▁pentes
▁Per
per
▁Pér
▁per
▁per
per
pération
▁perception
▁perçue
▁perd
▁perdu
▁pèrè
père
▁péré
péré
▁père
▁peresi
▁perfection
▁performance
▁péri
▁péril
pèrin
▁période
▁périodique
▁périphéri
▁permanent
▁permet
▁permett
▁permettra
▁permettre
▁permis
▁pérou
▁perp
▁perro
▁Perry
▁persan
▁persist
▁personn
▁personnage
▁personnalité
▁personne
▁personnel
personnelle
▁personnelle
▁personnes
▁perspective
▁pert
▁perturb
▁perturbé
▁peru
▁pesé
▁pèse
▁pèser
▁Pet
▁pét
▁Peter
▁Petersb
Pétersbourg
▁petit
▁petite
pétition
petits
▁pétrole
▁peu
▁peupl
▁peuplé
▁peuple
▁peuplées
▁peuples
▁peur
▁peut
peuvent
▁peuvent
▁peux
▁pey
pɛl
▁pɛn
pɛn
▁pɛr
▁pɛrɛn
▁ph
ph
▁pH
▁Ph
ph
▁Ph
▁phage
phan
▁pharaon
▁phase
▁phases
▁phénomène
phi
▁philippe
▁Philippin
▁philippin
▁Philippines
▁philosophe
▁philosophi
▁Phno
pho
▁pho
▁pho
phon
Phon
phone
phonique
▁photo
photo
▁photo
▁photographe
▁photographi
▁photographie
▁photon
▁photons
▁photos
▁phrase
physique
▁physique
▁pi
pi
▁pi
pia
▁piano
▁piano
▁Picc
▁Picchu
▁pièce
▁pièces
pied
▁pied
▁pieds
pierre
▁pierre
▁pierres
▁piétinait
▁pieu
▁piɛr
▁pig
▁pil
▁pila
▁pilasi
▁pill
▁pillée
pilote
▁pilote
pin
▁pince
pine
ping
▁pins
▁pipe
▁piq
▁pir
▁Pira
▁piramidi
▁pirat
▁pirates
▁pire
▁piscine
▁pisi
▁pist
▁piste
pite
pitè
▁Pitt
▁Pittman
Pittsburg
▁piyɛ
Pl
▁pl
▁pl
▁pla
▁pla
▁plac
▁place
▁placé
▁placée
▁plage
▁plages
▁plaide
▁plaindr
▁plaine
▁plaint
▁plaintes
▁plair
▁plaire
▁plais
▁plaisance
▁plaisir
▁plait
▁plan
▁plan
▁planche
▁plane
▁planète
▁planification
▁plans
▁plant
▁plantes
▁plaque
▁plas
▁plasi
▁plasma
▁plat
▁plat
▁plate
▁plateau
▁plats
ple
ple
▁plein
▁pleinement
▁pleurai
▁pleure
▁pleut
▁pleuv
plic
plications
plier
▁plis
plomb
plu
plu
▁plu
▁pluie
▁pluies
▁plumes
▁plupart
Plus
▁plus
▁Plus
▁pluvi
PN
▁Po
▁pô
po
▁po
po
▁po
▁Po
▁poche
pock
▁pod
▁poèmes
▁poésie
▁poète
▁poi
▁poids
▁poin
▁point
▁pointe
▁points
▁poissons
▁pol
pol
▁Pol
▁pôle
▁Poli
▁poli
poli
▁Polic
▁police
▁polici
▁policier
▁polisi
▁politi
Politi
politiki
▁politiki
▁politikikɛla
▁politique
▁politiques
▁pollu
▁polo
polo
▁polo
polo
▁Polo
▁Pologne
▁Pologne
▁pologne
▁polonais
polonais
poly
▁Polynésie
▁pom
▁pomme
▁pompe
▁pompiers
▁pon
pon
▁ponctu
▁pond
▁ponp
pont
▁pont
▁populaire
▁populaires
population
▁population
▁por
▁porc
▁pori
pori
▁poritab
▁porn
▁poro
▁porogar
▁porogaram
▁porogaramou
▁poroz
▁port
▁port
port
port
▁portable
▁porte
▁portée
▁porter
▁portrait
▁Portug
▁Portugai
▁portugais
▁posa
▁posé
posé
posées
poser
▁pôsi
▁positif
▁position
▁positive
▁posséd
▁possède
▁possèdent
▁possess
▁possibilité
▁possible
▁post
▁post
▁poste
▁postes
▁posture
▁pot
▁potentiel
▁potentielle
poth
▁potie
pou
▁pouces
▁poudre
▁poule
poulo
pound
▁pour
▁pour
▁Pour
▁pourcent
▁pourquoi
▁pourrait
▁poursuit
▁poursuite
▁poursuites
▁poursuiv
▁poursuivi
▁pourtant
▁pourvu
▁pouss
▁poussé
▁pousse
pousser
▁poussière
▁pouv
▁pouvai
pouvant
▁pouvez
▁pouvoir
▁poyi
poz
▁pɔ
pɔ
pɔl
▁pɔm
▁pɔn
pɔr
▁pɔr
▁pɔri
▁pɔrti
▁pɔrto
pp
pp
ppan
ppe
pprendre
pprovisionnement
▁Pr
▁pr
▁pr
▁Pra
▁pra
▁prat
▁pratiqu
▁pratique
▁pratiquée
▁pre
▁pré
▁préalable
▁préc
▁précéd
▁précéde
▁précédent
▁précédente
▁précédentes
▁précédents
▁précieuse
▁précieux
▁précipitations
▁précis
▁précisé
▁précision
▁préd
prédateur
▁prédi
▁prédomin
▁préf
▁prefe
▁préférable
▁préféré
▁préfère
▁préjudic
▁prélevé
▁prélève
▁prématuré
▁premi
▁Premi
premier
▁premier
▁première
▁Première
▁premiye
▁pren
prenant
▁prend
prend
▁prendr
▁prendre
▁prends
▁prenez
prennent
▁prénom
▁préoccup
▁préoccupé
▁prépa
▁prépar
▁préparation
▁préparé
▁préparés
pres
▁près
près
▁prese
▁présen
▁présent
▁présente
▁présenté
▁présentée
▁présenter
▁présentes
▁préserv
▁présid
▁presidan
▁préside
▁présiden
▁présiden
▁président
▁présidentielle
▁presque
▁pressé
▁presse
▁pression
pression
presso
▁prêt
▁prétend
▁prétext
▁prêtre
▁preuve
▁prévoi
▁prévu
▁prévue
▁prévus
▁prɛ
▁Pri
▁pri
▁prier
▁prim
▁prim
▁primaire
▁primate
prime
▁prin
▁Prince
▁Prince
▁prince
▁principal
principale
▁principale
▁principales
▁principaux
▁principe
▁pris
▁prise
▁prises
▁prison
▁prisonnier
▁privé
▁privée
▁privées
▁privilège
▁prix
▁pro
▁pro
▁probable
▁problématique
▁problème
▁problèmes
▁procéd
▁procédure
▁procès
▁processus
▁prochain
▁prochaine
▁proche
▁proches
proclamé
▁procure
▁prodik
▁produ
▁product
▁production
▁produir
▁produire
▁produis
▁produit
▁produite
▁produits
▁profesi
▁professeur
▁profession
▁professionnelle
▁professionnels
▁profils
profit
▁profit
▁profitent
▁profiter
▁profond
profond
▁profondément
▁profondes
▁profondeur
▁prog
▁program
▁programm
▁programme
▁progress
▁progressiv
▁proies
proies
▁projet
▁projette
▁prokir
▁prolongé
▁prolonge
▁prom
▁promen
▁promener
▁promesse
▁promet
▁promi
▁promulgué
▁prononc
▁prononcée
▁prononcés
▁prop
▁proportion
▁propos
▁propose
▁proposée
▁proposer
▁proposition
▁propre
proprié
▁propriétaire
▁propriété
▁propuls
▁protect
▁protégé
▁protéger
▁protéine
▁protesta
▁protestation
▁proto
▁proton
▁protons
▁prouve
▁Prov
▁provenan
Provenza
▁provɛnsi
▁provi
▁province
▁provoqu
▁provoqué
▁prox
▁prox
▁prun
▁Pryce
ps
PS
ps
▁psych
ption
▁Pu
▁Pu
▁pu
pu
pua
pua
▁publi
public
▁public
▁publication
▁publicité
▁publié
▁publique
▁publiques
▁puɛ
▁Puis
▁puis
puisqu
▁puisqu
▁puissant
▁puisse
▁puits
pulv
▁Pun
▁pun
▁pur
pusi
▁py
▁pyramid
▁pyramid
▁pyramide
▁pyramides
q
q
Q
Q
▁Q
▁qu
▁Qua
qua
▁qualifi
qualifié
▁qualifié
▁qualité
▁Quan
quand
▁quand
quant
▁quant
▁quantité
▁quarante
quare
▁quart
▁quartier
▁quasi
quatorze
▁quatorze
▁quatre
quatre
quatrième
▁quatrième
▁que
que
que
▁quel
quel
▁quelconque
quelle
▁quelle
▁Quelqu
▁quelqu
▁quelque
▁quelques
quent
quent
quérant
quérir
ques
▁question
▁questions
quête
▁Qui
▁qui
qui
qui
quim
quine
▁quinz
▁quinze
quinze
quisition
▁quitt
▁quitter
▁quoi
▁quotidien
▁quotidienne
r
r
▁r
▁R
▁R
R
▁r
R
ra
▁ra
ra
▁râ
▁ra
▁Ra
▁Ra
rabak
▁race
race
râce
▁rachis
▁rachis
▁racia
racine
▁racine
racon
▁racont
▁raconte
▁raconter
▁radars
rade
radi
▁Radio
radio
▁Radio
▁radio
▁radio
▁radioactif
radjo
radjosso
rafiti
ragé
rague
Rai
raib
▁raid
▁raides
raient
▁rail
rain
▁Rainbow
rais
▁raison
▁raisonnable
▁raisons
rait
rak
rale
ramani
ramas
▁ramass
▁rame
▁ramen
ramogo
ran
ran
rançais
rancais
ranci
▁randonnée
ranean
▁rang
▁Range
▁rangée
ransi
rap
rap
▁rapa
▁rapide
▁rapidement
▁rapides
▁rapidité
▁rappeler
▁rappelle
▁rapport
▁rapporté
▁rapporte
▁rapporteur
▁rapports
▁rapproche
raquent
▁rare
▁rares
▁raso
▁rassemble
▁rassi
▁rat
raté
▁ratifi
ration
rawak
▁rayon
▁rayonnement
rchi
rctique
rdi
rdin
re
▁re
re
▁ré
ré
rè
▁Re
▁re
▁Re
▁Rea
▁Rea
Rea
▁réacteur
▁réaction
▁réagi
▁réagiss
réales
▁réalisateur
▁réalisation
▁réalise
▁réalisé
▁réalisées
▁réaliser
▁réalité
▁rebondi
▁reç
▁rec
▁récemment
▁récents
▁recevoir
▁rech
▁réchauffe
▁recherch
▁recherché
▁recherche
▁recherches
▁récip
▁récit
▁recommand
▁recommandation
▁récompenser
▁recon
▁reconnaiss
▁reconnaît
▁reconnu
▁reconnue
▁reconstructi
▁reconstrui
▁reconstruit
▁recor
▁record
▁recour
▁recouvert
▁recouvra
▁récré
▁recrut
rect
▁rectang
▁rectifi
rectu
▁reçu
▁recueilli
▁reculé
▁récupér
red
▁rédaction
rede
▁redev
▁rédigé
▁rédige
▁redirig
▁redoutai
▁redresse
▁réduction
▁réductions
▁rédui
▁réduit
ree
▁réel
▁réelle
reen
▁ref
réfè
rèfè
▁référ
▁référence
▁réfléchi
▁réfléchissant
▁réflexion
▁réforme
▁refroidit
▁refus
▁refusé
▁régal
▁regard
▁regarde
▁regarder
régi
regi
▁régime
région
▁région
▁régionale
▁régions
▁règle
▁réglement
▁réglementation
▁règne
▁régner
▁regrett
▁regrette
▁regroupe
▁régulier
▁régulière
▁régulièrement
▁régulières
▁Reid
▁Reid
rein
▁reine
reint
▁rejet
▁rejoindre
▁rejoint
▁relais
▁relat
▁relation
▁relative
▁relev
▁relève
▁relié
▁relie
▁religieuse
▁religieux
▁religion
▁reliqu
▁rem
▁REM
▁remarqu
▁remarquable
rème
▁remercie
▁remet
▁remis
▁remise
▁remont
▁remonte
▁remplacé
▁remplace
▁remplacée
▁rempli
▁remplie
▁remport
▁remporte
▁remporté
remu
▁ren
ren
rèn
▁renard
▁rencontré
▁rencontre
▁rencontrer
▁rend
rendement
▁rendez
▁rendre
▁rendu
▁rendue
▁rené
▁rene
rène
▁renfor
▁renforc
▁renfort
reng
reni
▁renifl
▁rennes
▁renommé
▁renonc
▁renouvel
▁rénov
rens
▁renseigne
rent
▁rentre
▁rentré
▁rentrer
▁répand
▁répandu
▁répandue
▁réparat
▁repas
▁repasser
▁repér
▁réper
▁repéré
▁répéta
▁répète
▁repiblik
▁répond
▁répondit
▁répondre
▁répondu
▁réponse
▁réponses
▁report
▁repos
▁repose
▁reprendra
▁reprendre
▁représentant
▁représentants
▁représentation
▁représenté
▁représente
▁réprimé
▁repris
▁reprises
▁reprit
▁reproch
▁reprodui
▁Repub
▁républi
▁Republi
▁républicain
▁Republik
▁république
▁réput
▁réputé
rés
rès
réseau
▁réseau
▁réseaux
▁reserv
▁réservation
▁réservé
▁réserve
▁réserver
▁réservoir
▁résid
résiden
▁résidence
resident
résident
▁résident
resil
▁résist
résistante
▁résolu
▁résonance
▁résonne
▁résoudre
▁respect
▁respecté
▁respecter
▁respective
▁respira
▁respiration
▁respire
▁responsabilité
▁responsable
resque
resse
▁ressemblait
▁ressemble
▁ressembler
resso
▁ressort
▁ressortissant
▁ressources
▁ressuscit
▁rest
▁restant
▁restaurant
▁restaurants
▁restauration
▁restauré
▁reste
▁resté
▁rester
▁restr
▁résult
▁résultat
▁résultats
▁résulte
résumé
▁rétabli
▁retar
▁retard
▁retardé
rète
▁retenu
rétien
▁retir
▁retiré
▁retire
▁retour
▁retourné
▁retourne
▁retourner
▁retrait
▁retraite
▁rétrécisse
▁retrouvé
▁retrouve
▁retrouver
▁réuni
▁réunion
▁réussi
▁réussir
▁réussite
▁revanche
▁rêve
▁réveil
▁réveiller
▁révél
▁révèle
▁révèlent
▁revenait
revenant
▁revendiqu
▁revendiqué
▁revenir
▁revenu
▁rêver
▁revers
▁revêt
▁revien
▁reviennent
▁revient
▁revoir
▁Révolution
▁révolution
▁revue
rez
▁rez
rez
rɛ
rɛl
▁rɛn
rɛn
▁rɛsto
rɛt
rfin
rganisation
rgar
rge
rgement
rgie
rgon
▁Ri
ri
ri
▁Ri
▁ri
rias
rice
riceratopi
rich
rich
▁riche
▁riches
▁richesse
richi
richu
rict
rid
rid
rie
rie
riel
riel
▁rien
rier
riété
riez
riff
rifinsira
▁rigide
rigo
rigo
▁rigol
rigue
rik
riki
rikolognanagbè
rikorognanagbè
riku
rillo
rimati
rin
▁Ring
ringi
▁Rio
Rio
rip
ripen
▁rire
risation
risita
risiya
▁risque
rissi
ristof
ristoph
ritanik
riti
▁riv
▁rivage
▁rivaliser
▁rive
rive
rivière
▁rivière
▁rivières
riw
riwa
rix
riya
▁riz
rizie
rko
rkoutsk
rkut
rland
rléans
rley
rleyan
rly
rmat
rme
rmes
rmout
rnar
rnic
▁ro
▁rô
rô
ro
ro
▁Ro
▁ro
▁Ro
road
▁robe
▁Rober
▁Robert
▁Robert
▁robert
robi
robi
▁robinet
▁robuste
▁roche
▁rochelle
▁roches
rock
Rock
▁Rock
▁Rock
rocodile
rocureur
roduc
▁Roe
rofesseur
▁Rog
rôgbè
▁Roi
roi
▁roi
rois
rois
rokir
▁rol
rola
▁rôle
rôle
▁roll
rom
▁Rom
rom
▁Rom
▁roma
▁Romain
▁Romain
▁romain
▁roman
▁roman
▁Romani
▁romantique
▁Romantis
▁rome
rome
▁Romney
ron
rôna
▁rongeur
rons
ront
rontieri
ronto
rop
ropol
ropoli
roscop
rose
▁rose
rose
rôsik
▁Ross
▁Ross
ross
▁rôssama
rostr
rot
rot
▁rôti
rôtrô
rou
▁roue
▁rouge
▁rouillé
roukou
▁roul
▁roulait
▁roulé
▁roumain
▁roumaine
roup
rousse
▁roussi
▁route
▁routes
▁routi
▁routière
roux
rove
roven
rovi
roy
▁Roya
roya
▁royal
▁royale
▁Royaume
▁royaume
▁Royaume
rɔl
▁rɔm
rɔn
rɔs
▁rɔs
rque
rque
rra
rray
rrog
rry
rry
rse
rsi
RSPCA
rt
rth
rticle
rticli
▁ru
▁Ru
ru
▁ru
▁rude
rudju
rue
▁rue
rug
▁rugby
▁rugby
▁rugi
▁ruine
▁ruines
rum
rum
▁Runn
▁runs
ruption
▁Rus
▁rusi
russe
▁russe
▁russi
▁Russi
▁Russie
ruwa
ruyasèbè
rveux
ry
ry
rythme
▁rythme
</s>
<s>
ş
š
s
▁s
s
▁S
▁S
▁s
S
S
SA
SA
▁sa
▁sa
sa
▁Sa
▁Sa
▁saa
▁saaba
saac
▁saam
▁Saan
▁saara
▁sab
▁Saba
▁saba
saba
sababou
▁sababou
▁sababoula
▁sababu
▁sababuya
▁sabana
▁sabanan
▁sabari
sabati
▁sabati
▁sabatini
▁sabl
▁sablé
▁sable
▁Sabou
▁sabou
▁sabu
▁sac
▁sache
▁sacré
▁sacrifi
▁Saf
▁safari
▁saga
▁sagama
▁Sagitta
▁sago
sagoli
sagon
▁saha
▁Sahel
▁saheli
▁Saint
▁saint
▁saint
▁Saint
▁sainte
▁sais
▁saisi
▁saisissant
▁saison
▁saisonnière
▁saisons
▁sait
▁Saito
▁Saito
saki
▁saki
▁sala
sala
▁salaire
▁salan
▁salé
▁salle
▁salu
▁saluer
▁Sam
▁sam
▁sama
▁saman
▁Samara
▁samara
▁samaraba
▁sami
▁samian
▁samiya
▁Samoa
▁san
▁San
san
▁San
▁sanct
▁sanction
▁sandji
▁Sanfè
sanfè
Sanfè
▁sanfè
▁sanfe
▁sanfei
▁sanfèkaran
▁sanfèla
▁sanfɛ
▁Sanfignè
sanfiy
▁sang
▁sang
▁Sanga
sanga
▁sanga
▁sangan
▁sango
▁sangolo
▁sanguin
▁sani
▁sanima
▁sanitaire
▁sanni
▁sanou
▁sans
▁sans
▁Sanskrit
▁sanskrit
▁Sant
▁santé
▁Santor
▁Santor
▁sanu
▁sanyɛlɛma
▁Sap
▁sapɛl
▁sapin
▁sar
▁Sara
▁sara
sara
▁saraka
sarakala
▁sarakan
▁sarala
▁sarama
▁saramani
▁saranna
saranna
▁Sarasvat
Sarasvati
▁sarati
▁saria
sariya
▁sariya
▁Sariya
▁sariyakan
▁sariyassoun
▁sariyasun
▁sarl
▁saro
sasaurus
▁sassa
▁satel
▁Satel
▁satelit
▁satellit
▁satellite
▁satisfa
▁satisfai
▁satisfait
▁sauce
▁saura
▁saut
▁sauva
▁sauvage
▁sauvages
▁sauvé
▁sauve
▁sauvegarde
▁sav
▁savane
▁savez
▁savoir
▁savour
▁sawa
▁sawou
▁sawoura
▁sawu
▁saya
sbur
▁Sc
scade
▁scan
scan
▁scandale
▁scandaleux
▁scandinave
▁scanner
▁scénariste
▁scène
▁scènes
▁sceptique
▁Sch
▁sch
▁Sch
schém
▁Schumacher
▁scien
▁science
▁sciences
▁scientifi
▁scientifiki
▁scientifique
▁scientifiques
▁scolaire
scolaire
scop
▁score
▁Scot
▁Scott
▁Scott
▁sculpture
▁sé
▁sê
sê
▁Sè
▁se
▁se
▁sé
sé
se
▁Se
▁Sé
▁sè
▁Se
▁séance
▁sebaga
▁sébaga
▁sébagaya
sebe
▁sêbê
▁sèbe
▁Sebe
sêbê
▁sèbè
▁sebe
sèbè
sèbèkè
▁sèbèla
▁sèbèli
▁sebeli
▁sèbèlikè
▁sèbèlitch
▁sèbèni
▁sebeni
▁sèbèra
▁sèbèw
sec
▁sèche
▁sécher
▁second
▁secondaire
▁seconde
▁secou
▁secoué
▁secours
▁secr
▁secret
▁secteur
▁sections
▁sécuri
▁sécurité
▁sédiment
▁see
▁seegi
▁seen
▁seera
seere
▁seere
▁sega
▁sègè
▁sege
▁sègèsègè
segesege
segi
▁segi
▁segɔnd
segue
sèguè
▁sèguè
▁sèguèsèguè
▁sêguêssêguêli
ségui
segui
▁ségui
▁segui
▁seib
▁seigneur
sein
seize
▁seize
▁séjour
▁séjourner
▁séko
▁Séko
▁seko
▁sekoyira
▁sekɔ
▁sekɔra
▁sélection
▁sélectionn
seli
▁sèli
▁seli
▁selle
selli
selli
sem
▁semaine
▁semaines
▁semblable
semblait
▁semblant
▁semble
▁sembler
▁sèmè
sèmè
▁semelle
▁Sen
sén
▁sen
sen
▁sén
▁sena
▁sénat
▁senaya
▁sendon
▁sènè
sene
▁sènèkè
▁sènèkèla
▁séng
▁senna
▁sens
▁sensation
▁sensible
▁sent
▁senti
▁sentier
▁sentir
senw
▁sép
▁séparé
▁sépare
▁séparément
▁sept
▁Sept
▁sept
sept
▁septembr
▁septembre
▁ser
sera
▁sera
▁sera
▁serait
▁sèrè
▁Serengeti
▁sereya
▁séri
▁seri
▁série
▁série
▁sérieuse
▁sérieux
▁sérikô
▁serikô
▁seriko
▁serons
▁serpent
▁serré
▁serv
▁serveur
▁servi
▁service
▁services
▁servir
servis
▁ses
▁Seul
▁seul
▁seule
▁seulement
▁seuls
▁Sev
▁sexe
▁sexuel
sexuelle
sey
sèya
▁sɛ
sɛ
sɛbɛ
▁sɛbɛ
▁sɛbɛra
▁sɛbɛri
▁sɛbɛrikɛ
▁sɛgɛ
sɛgɛsɛgɛli
▁sɛk
▁sɛkɔ
sɛl
▁sɛn
sɛn
▁sɛnɛ
▁sɛnɛkɛla
sɛr
▁sɛr
▁sɛt
▁sɛz
▁Sh
sh
sha
▁Sha
Shan
▁Shar
she
▁She
▁She
▁Shi
▁Shi
shi
▁shi
shing
shing
shirt
▁Sho
▁Sho
▁sho
▁show
▁Show
▁shu
si
▁si
▁si
▁Si
▁Si
▁sia
sible
▁sid
▁Sie
sie
▁siècl
▁siècle
▁siècle
▁siècles
▁siège
▁sienne
▁siens
▁Sientifik
▁Sientifikou
sieu
▁siga
▁sigasiga
▁sigè
▁sigɛ
▁sigɛn
▁sigɛna
▁sigɛni
▁sigɛsigɛ
▁sigi
sigi
sigibaga
▁sigida
sigidenya
▁sigignong
▁sigila
sigilan
▁sigilan
▁sigini
▁siginin
▁sigira
▁sigiyoro
▁sigiyôrô
sign
▁signa
▁signal
▁signale
▁signalé
▁signature
signé
▁signe
▁signifi
▁significati
▁significatif
▁signifie
▁sigui
sigui
▁siguida
▁siguignon
▁siguili
▁siguinan
▁siguini
▁siguinibè
▁siguinin
▁siguiyoro
▁siguiyôrô
▁sii
▁Sika
▁sikh
▁Sikh
▁sikhisme
▁Siki
▁siko
▁silam
▁silence
simi
▁similaire
▁similaires
▁Siminoff
▁Siminoff
▁simɔn
▁simple
▁simples
▁simplicité
▁simplifié
▁Simpson
Simpson
▁Simpsons
▁simul
▁sin
sina
▁sinan
▁sinangna
▁sinc
▁sinema
▁Sing
▁Singapo
▁Singapour
▁Singh
▁singulière
▁sini
sinniw
▁sinon
▁sinɔgɔ
▁sinɔgɔra
▁sinsin
▁Sintra
▁siɲɛ
siɲɛ
sion
sion
siɔn
sipagnoli
sipayoli
siper
▁sir
▁Sir
▁Sira
▁sira
sira
▁Siraba
▁siraba
▁sirada
▁Siradi
▁sirakan
▁siran
▁siranna
▁siranya
▁siraw
▁Sirena
▁siri
siri
sirila
▁sirila
▁siriwa
▁Sis
▁sisa
▁Sisa
▁Sisan
▁sisan
▁sisè
▁sisɛ
▁sisi
▁sisikour
▁sisit
▁sisitèm
▁sisitèmou
Sissan
▁sissan
▁sissè
▁sissik
▁sissitèm
sistance
sistem
▁sit
▁sita
sitarali
▁site
sitèmou
▁sites
siti
▁siti
sitrali
▁situation
▁situe
▁situé
▁située
▁six
six
siya
▁siya
siyɛn
siyon
▁siyôrô
siyɔn
▁Ski
ski
ski
▁ski
▁ski
▁skieur
▁Sky
sl
▁slalom
▁Slov
▁smart
sme
▁smith
▁smith
▁snowboard
▁snowboardi
▁so
so
▁So
sô
▁sô
▁So
▁soba
sôbè
▁sobè
▁sôbê
▁sôbè
▁soc
▁soci
▁social
▁sociale
▁socialis
▁sociaux
▁société
sôdia
▁sœur
▁sœurs
▁sof
▁sofa
soft
soft
▁sog
▁sognan
▁sognani
▁Sogo
▁sogo
sogo
▁sôgô
▁sogoma
▁sôgôma
sôgôma
▁sogoman
▁sôgôsôgô
sôgôsôgô
▁soho
▁soi
▁soient
▁soif
▁soign
▁soin
▁soir
▁soirée
▁soit
▁soixante
▁sojan
▁sokônô
▁sokônôn
▁sokɔnɔɲa
▁Sol
▁sol
▁solaire
▁soldats
soleil
▁Soleil
▁soleil
sôli
▁solide
▁solisi
▁sollicit
▁sollicité
▁solo
▁solution
solution
▁som
Som
somara
▁sombre
▁somme
▁sommeil
▁sommes
▁sommet
▁somôgô
▁son
▁son
son
▁sôn
son
▁sondage
sôngô
▁songo
songô
▁sôngô
songon
▁songon
▁sôni
▁sonna
▁sonne
▁sonnette
▁sont
▁soo
▁sooboli
▁sophistiqué
▁sôr
▁Sor
▁sora
▁sorasi
▁sorassi
▁sôrô
▁soro
sôrô
soro
▁sorô
▁soroba
▁sorobanin
▁sôrôda
▁sôrôla
▁sôrôli
▁soror
▁sort
▁sortant
▁sorte
▁sortes
▁sorti
▁sortie
▁sortir
▁sosi
▁sosiy
▁sosiyété
▁soso
▁sôsô
▁sôsôli
sôsôli
▁sosow
▁sossi
▁sosso
▁sôssô
▁Sou
▁sou
▁sou
▁souci
▁soudain
▁souf
▁Souf
▁soufè
▁souffl
▁souffle
▁souffr
▁souffrance
▁souffre
▁sougandili
▁sougna
▁sougo
▁Sougou
▁sougou
▁sougouya
▁souhait
▁souhaite
▁souhaité
▁souhaitent
▁souho
▁soukaro
▁souko
▁soul
▁Soul
▁soula
▁soulev
▁soulign
souma
▁souma
▁souman
▁soumani
▁soumaya
▁soumett
▁soumis
soumou
▁soun
▁sound
▁soundogo
▁sounôg
▁sounou
▁soup
▁soupçonn
▁soupir
▁souple
▁soura
▁souraf
▁sourafén
▁source
▁sources
▁sourd
sourire
▁souris
▁sourô
▁sourou
▁souroun
▁sous
▁sout
▁soutara
▁soutenir
▁soutenu
▁soutien
▁soutiendra
▁soutient
▁souvent
▁souverain
▁souveraine
▁souwandi
▁sovi
▁Soviet
▁Soviétique
▁soviétique
▁sow
Soy
▁soyez
sɔ
▁sɔ
▁sɔbɛ
▁sɔgɔ
▁sɔgɔma
▁sɔgɔmada
sɔgɔsɔgɔ
▁sɔkɔ
▁sɔn
sɔn
sɔndiya
▁sɔngɔ
▁sɔnna
▁sɔnni
▁sɔɔn
▁sɔɔni
▁sɔrɔ
sɔrɔ
▁sɔsɔ
▁sp
SP
▁sp
spa
spagnols
▁spatial
▁spatiale
▁spéci
▁spécial
▁spéciales
▁spécialisation
▁spécialisés
▁spécialité
▁Speciation
▁spécifique
▁spécifiques
▁spectacle
▁spectaculaire
▁spectre
spéré
sphère
▁Sphinx
spi
▁spiritue
▁spirituel
▁Sport
▁sport
▁sportive
▁sports
▁Spri
▁Springboks
▁Squa
Squa
squée
squimau
sra
▁sran
ssa
ssan
ssandr
ssandr
ssara
ssay
ssè
ssé
sse
sse
ssèbè
ssées
ssegui
ssement
ssements
ssèni
ssent
ssi
ssida
ssigui
ssiguini
ssion
ssions
ssira
ssiri
sso
ssociation
ssodja
ssôgô
ssola
sson
ssondia
ssoro
ssôrô
ssouman
ssss
ssy
▁St
▁st
▁st
▁stabili
▁stabiliser
▁stable
stad
▁stade
stain
stali
▁Stan
▁stan
▁Stan
stance
▁stand
▁Stand
▁standard
▁Stanford
▁star
▁Star
▁Star
▁Stardust
▁State
▁station
▁statu
▁Ste
▁Ste
▁Stearns
▁stell
▁Stephen
ster
▁stéréotype
▁sterling
▁Steve
▁Stewar
stɛr
sti
stible
stic
▁stimul
▁stimulé
stin
stina
stine
stitution
stiv
▁Sto
▁stock
▁Stone
stoni
▁stoppée
▁Str
▁Stra
▁Stra
strat
▁stratégi
▁Street
streint
▁strict
▁stricte
stru
struction
▁structuré
▁structure
▁structures
▁studio
▁stupide
▁styl
▁styl
▁style
▁su
SU
▁su
▁Su
su
▁sub
sub
▁sub
suba
▁subi
▁subir
▁subit
▁subsi
▁subsistance
▁substan
▁succéd
▁succède
▁succédé
▁succès
▁successeur
▁succomb
▁sucre
▁sud
▁Sud
▁sud
▁Suède
▁sufè
▁suffi
▁suffisa
▁suffisant
suffisant
▁suffisante
▁suffit
▁sugandi
▁sugg
▁suggère
sugu
▁sugu
▁sugubè
▁suguru
▁suguya
▁suicides
▁suis
▁Suisse
▁suisse
▁suit
suite
▁suite
▁suiv
suivaient
▁suivant
▁suivante
▁suivantes
▁suivi
▁suivie
▁suivre
suivre
▁sujet
▁sujets
sule
▁sum
suma
▁suma
▁suman
suman
sumana
▁sumani
▁sumaya
sun
sunción
▁Sundarban
▁Sundarbans
▁sunguru
▁sunu
▁sup
▁Sup
▁super
▁super
▁superbe
▁superficie
▁supérieur
▁supérieure
▁supermarché
▁supplémentaire
▁supplémentaires
▁supporter
▁suppose
▁supposé
▁suppression
▁supprimé
▁suprême
sur
▁Sur
▁sur
▁sûr
sur
▁Sur
▁suraf
suraf
▁surasi
▁surchauffe
▁sûrement
surez
▁surface
▁surintendant
▁surplombe
▁surpris
▁surtout
▁suru
▁Suru
suru
▁surun
▁suruni
▁survécu
▁surveill
surveillance
▁surveillance
▁surviv
▁survivant
sus
▁sus
▁susceptible
▁suscit
▁suspect
▁suspendu
▁suspension
susu
▁sutra
▁suu
▁suwandi
SW
SW
swa
▁Swed
▁sy
▁Sy
▁symbol
▁symboli
▁sympt
▁symptômes
syn
▁sysi
▁system
système
▁système
▁systèmes
t
t
▁t
▁t
▁T
▁T
T
T
▁tà
▁Ta
TA
TA
tâ
▁ta
ta
▁ta
ta
▁Ta
▁tâ
▁taa
taala
▁taba
▁tabali
table
▁table
▁table
▁tableau
▁tables
▁taboulo
tabul
▁tâche
▁taco
▁tadji
▁Taga
▁taga
taga
tagaba
tagabaga
tagabolo
▁tagabolo
tagala
▁tagala
tagama
▁tagama
▁Tagama
▁Tagaman
▁tagaman
▁tagamana
▁tagamara
▁tagan
▁taganman
▁tagara
▁tagasira
tagne
▁tagua
▁tah
tah
▁Tai
Tai
▁Tai
tail
▁taille
▁Taínos
▁Taipei
taire
▁Taïwan
taki
tal
▁tala
tala
▁talen
tali
taliyèn
talo
▁talon
▁talon
▁Tama
▁Tama
▁tama
▁tamashin
tamati
▁Tan
▁tan
tan
▁tanan
tanba
▁tando
▁tanga
▁tangali
tangali
▁tangaman
tangan
tangani
▁tani
▁tanni
▁tant
▁tapi
▁tapissier
▁tara
▁taran
▁Tarata
▁tard
tari
▁tari
▁tarif
▁tarifaires
▁tarikou
▁tariku
▁tarô
▁Tasmania
▁Tasmanie
▁tasse
▁tassouma
▁tasuma
▁tasuman
tation
taux
tave
tave
taw
▁tax
taxe
▁taxes
▁taxi
▁tayé
TB
tball
▁tc
▁tch
▁Tch
tch
tcha
▁tcha
▁tchaa
▁tchaam
▁tchaama
tchaaman
▁tchaaman
▁tchai
tchaiman
tchama
▁tchama
▁tchaman
▁Tchan
▁tchanma
tchanman
▁tchanman
▁tchaya
▁tchayara
▁tché
tche
tchê
tché
Tchè
▁tchè
tchè
▁tche
▁Tchè
▁tchê
tchegi
▁tchegnouman
tchègnouman
▁tchégui
▁tchei
tchei
tcheiman
▁tchèla
▁tchema
▁tchèma
▁Tchèman
tchèman
▁tchèman
▁tcheman
▁tchera
▁tchèw
▁Tchi
Tchi
▁tchi
tchi
tchiai
▁tchiai
▁tchian
▁tchiei
▁tchiein
▁tchièn
▁tchien
▁tchienni
▁tchignè
▁tchila
▁tchin
▁tchintchin
▁tchira
▁tcho
▁tchoga
▁tchôgô
▁tchogô
▁tchogo
tchogo
▁tchogodi
▁tchogola
tchogola
▁tchogow
tchogoya
▁tchogoya
▁tcja
▁tcjè
▁Te
▁te
▁tè
▁té
te
tè
te
té
▁te
té
▁tê
teau
▁tebe
tec
▁technique
▁technologie
▁technologies
▁technologique
tèguè
▁teh
▁tehe
▁téhi
▁tei
tei
teimein
teimin
tel
▁tel
▁télé
télé
▁télé
▁tele
▁télécharg
▁télécommand
▁telef
▁téléfon
▁téléfôn
▁téléfone
▁telefoni
▁télén
▁téléphon
▁téléphone
▁téléphonie
▁téléphonique
▁telesc
▁télescope
▁télévi
▁televi
▁télévisé
▁télévisée
▁téléviseur
▁télévision
▁télévision
teli
▁teli
▁telia
▁téliya
teliya
▁teliya
tell
▁telle
temat
teme
▁tèmè
▁teme
tèmè
▁têmêlén
▁têmêna
▁tèmèni
▁temeni
▁tèmènin
▁tèmin
▁temin
▁tèmn
▁témoign
▁témoin
▁température
▁tempête
▁Templ
temple
▁temple
▁temporaire
temps
▁temps
ten
▁ten
▁téna
▁tena
▁tena
▁tenai
▁tend
▁tendance
tendre
▁teni
tenir
▁tenir
▁tension
▁tent
▁tentative
▁tente
▁tenu
tep
tephen
ter
▁Ter
tèr
ter
téré
tere
tèrè
▁téré
▁tere
▁Téré
▁térébé
▁téréma
▁tèrèmè
tèrènè
téri
▁teri
▁téri
tèri
teri
tèrin
▁terisira
▁teriw
tériya
▁teriya
▁terme
▁termin
▁termine
▁terminé
▁terminer
teroun
▁terrain
▁terrasse
terre
▁terre
▁Terre
▁terrestre
terrestre
▁terreur
▁terrifié
▁territoire
▁terroris
ters
▁tes
tes
tes
téssé
▁testé
▁testé
▁tests
▁tête
teur
tewart
▁Texas
▁Texas
▁texte
▁textes
▁tèyélà
▁teyi
▁tɛ
tɛ
tɛl
tɛmɛ
▁tɛmɛ
▁tɛmɛna
▁tɛmɛni
▁tɛmɛnin
▁tɛmɛsira
▁tɛmɛyɔrɔ
tɛn
▁tɛnɛ
tɛnɛ
tɛr
tɛri
▁Th
Th
▁th
th
▁tha
tha
▁Thai
▁Thaï
tham
than
▁thc
▁thé
The
▁the
▁the
thè
▁thé
the
▁The
▁théâtre
▁thème
▁théo
▁théori
▁théorie
▁théorique
▁ther
ther
therm
▁thermique
▁thermo
thèse
▁thi
thiopie
thlète
▁Thom
▁Thom
▁Thra
▁Ti
▁ti
ti
ti
▁Ti
▁tian
▁Tibe
▁Tibet
▁tibétain
tic
▁ticke
▁ticket
▁tie
▁tien
tien
▁tien
▁tienne
▁tiens
▁tient
▁tiers
tif
▁tig
tige
▁tigê
▁tige
▁tigè
tigɛ
▁tigɛ
▁tigɛra
▁tigi
tigi
tigiya
tignè
▁tigre
tiguê
tigue
▁tiguè
tiguè
▁tiguèla
tigui
▁tigui
▁tiguiw
tiguiw
▁tiguiya
tiguiya
tiki
▁tila
▁tilan
▁Tilé
▁Tile
▁tile
▁tilé
▁tilébé
▁tilebe
▁tileben
▁tilen
tilen
tillerie
▁timb
▁timbre
▁timi
▁timide
▁timini
tina
▁tina
tine
tinmin
▁tinmin
▁tinminan
▁Tinnin
tinti
▁tiɲɛ
▁tiɲɛn
▁tiɲɛna
▁tiogo
tion
tion
tions
tiɔn
tiques
tir
▁tir
▁tiré
▁tire
▁tirer
tirer
tiri
▁Tiri
tis
tisan
tise
tissement
▁tissu
▁titan
▁titr
titre
▁titre
▁titulaire
tiya
▁tiyen
▁tiyɛn
▁tla
▁tlan
tland
tlantique
▁tle
tler
tler
▁tlo
▁tlon
▁To
▁to
to
▁tô
tô
▁To
to
▁to
▁tobili
▁tobir
▁tobiri
▁toga
▁TogiNet
tôgô
▁Togo
togo
▁tôgo
▁tôgô
▁togo
▁togô
tôgôla
▁tôgôla
▁tôgôma
▁tôgômanséri
▁tôgômasséri
▁tôgôssèbè
tographie
toh
▁toh
▁tôho
▁tôhou
▁toi
toi
▁toi
▁toile
▁toilettes
toires
▁toit
▁toka
tôla
▁tola
▁toli
▁Tolo
▁tolo
tologi
▁Tolon
▁tolon
▁tolonkè
▁Tom
▁Tom
▁tômaséré
▁tomate
tomati
▁tomba
▁tombé
▁tombe
▁tombeau
▁tombée
▁tombent
▁tomber
▁tombes
▁tômô
▁tomon
▁Ton
▁ton
ton
ton
▁tôn
▁ton
tôn
▁Tôn
▁tonne
tônô
▁tônô
▁tonon
▁too
▁top
▁tor
tor
▁tora
toral
▁tordu
toria
▁tornade
▁tornades
tôrô
▁toro
toro
▁tôrô
▁toroh
▁torohn
▁toron
tôrôw
torow
▁tôrôya
▁tort
▁tortue
toru
toru
tôt
▁tôt
▁total
▁totale
toto
▁Tou
▁tou
tou
▁Tou
tou
▁touba
▁Toubabou
▁touch
▁touchées
▁tougou
▁tougouli
tougouni
▁tougouni
toujours
▁toujours
▁Touk
▁toukonnon
▁toulo
▁toulou
▁toum
▁Touma
▁touma
▁Toumam
▁toumami
▁Toumami
▁Toumamin
▁toumamina
touman
Touman
▁touman
▁Touman
▁toumana
▁toumanan
▁toumando
▁toumba
▁toumbara
toumbé
▁toumbé
▁toumbi
toun
▁toun
▁tounbé
tounka
▁tounou
▁tounouna
▁tountè
▁tounté
▁tour
tour
▁Tour
▁tourisi
tourisme
▁tourisme
▁tourist
▁touriste
▁touristes
▁touristique
▁tourn
tournè
▁tourné
▁tourne
▁tournée
▁tourner
tourner
▁tournoi
▁tourou
tourou
tourouba
▁Tours
▁tous
▁toussa
▁Tout
▁tout
▁Tout
▁Toutankhamon
▁Toute
▁toute
▁toutefois
touv
▁touyé
tow
▁tôw
▁tow
town
▁tôwu
toxine
▁toxiques
tôya
▁toyi
tɔ
▁tɔ
▁tɔgɔ
tɔn
▁tɔnɔ
tɔr
▁tɔrɔ
▁tɔw
tp
▁tr
▁tr
▁tra
tra
▁Tra
▁tra
▁trac
▁trac
▁tracte
▁traction
▁tradition
▁traditionnel
▁traditionnelle
▁traditionnelles
▁traditionnels
▁traduction
▁tradui
▁trafic
trah
▁Train
▁train
▁traîne
▁trains
traire
trairement
▁trait
▁traité
▁traitement
tralopit
▁tran
▁tranches
▁tranquill
▁Trans
▁trans
▁Trans
▁trans
▁transa
▁transfér
▁transféré
▁transformation
▁transforme
▁transformé
▁transformer
▁transfrontalier
▁transmett
▁transmise
▁transmissi
▁transparent
▁transport
▁transporté
▁transports
trap
▁traumatis
▁traumatisme
travail
▁travail
▁travaill
▁travaillé
▁travaille
▁travailler
▁travailleurs
▁travaillez
▁travaux
▁travers
▁traversant
▁tré
tre
tre
▁treize
treize
▁treizième
▁trembl
▁tremblement
▁trent
▁trente
▁Trenton
▁très
▁trésor
▁Tri
Tri
tri
▁triang
▁triangul
▁tribu
▁tribun
▁tribunal
tribution
tric
▁tric
▁Triceratop
tricien
▁tridimensionnel
trier
▁triomph
▁triste
▁tro
Tro
tro
tro
▁trois
trois
▁troisième
trol
trom
▁tromb
▁trompe
▁tronc
▁tronçon
▁trône
▁trop
tropic
▁tropical
▁tropical
▁tropicale
tropicale
▁trottoir
▁trou
▁troubl
▁troublante
▁trouble
▁troubles
▁troupe
▁troupes
▁trous
▁trouvai
▁trouve
▁trouvé
▁trouver
▁Tru
▁Trump
▁Trump
tsu
▁tsunami
TT
tte
tte
ttes
tts
▁tu
▁tu
tu
tu
▁Tu
tualité
▁tubab
▁tubabu
▁tubabukongowulu
▁tube
▁tuberculose
▁tué
tueux
tugu
▁tugu
▁tugula
▁tuguni
▁tugura
tuka
▁tulo
▁tulokɛ
▁Tulon
▁tulon
▁tulonkɛ
▁tulu
tulu
▁tum
tuma
▁tuma
▁Tuma
▁tumabɛ
▁tumadɔ
▁tumajuma
tuman
▁tuman
▁tumana
▁tumanan
tumanan
▁tumandô
▁tumbé
▁tun
▁tunu
▁tununa
tur
▁Tur
▁tur
▁turc
ture
▁turin
▁turisi
▁turk
▁Turki
▁turne
▁turqu
▁Turqui
▁Turquie
▁turu
▁Tut
▁Tutan
tuteur
▁tuu
ty
ty
▁type
▁typique
typique
ü
ü
ú
U
U
ù
Ü
ū
ù
û
û
u
u
▁u
▁U
▁U
uain
uaire
uatèr
uay
uba
ubé
ube
▁ubè
ube
▁ubé
ubɛn
ubli
ublic
ubra
▁ubu
uc
ucarest
uccess
ucci
uch
ud
ud
udd
uddh
udi
udi
udits
udu
ué
uè
ue
uédoise
uel
ueuse
ueux
uf
uf
ufê
uffalo
ug
ugandi
ugby
ugô
ugou
ugu
uguba
ugula
ui
uilacé
uit
uite
ujah
ujian
uk
▁uka
ul
ul
▁ula
ulaire
ule
ulg
ulga
uli
uli
ulia
ulka
ulka
ullivan
ulmon
ulo
ulsions
▁ultérieur
ulture
ulu
▁um
üm
um
um
umaden
umagnongonya
uman
umani
umanyé
umasen
umè
uméli
umérik
umineuse
umou
umu
umuni
▁UN
▁un
un
▁Un
▁un
un
unafoli
unawolo
unbè
und
unda
undi
undo
▁une
une
▁UNES
UNESCO
ung
ungolo
Uni
Uni
▁Uni
▁Unies
unigna
▁Union
▁unique
Unis
▁unité
▁univerisite
univers
Univers
▁universel
▁universit
Universit
▁Universit
▁universitaire
université
<unk>
unkerque
unteni
unti
unugnan
unumunu
up
▁Up
Up
Up
uparavant
uper
upp
upu
uque
▁Ur
UR
ur
ur
▁ura
urance
urant
urb
urb
▁urbain
urbanisme
ure
urenc
urg
▁urgen
urgence
urges
urie
urine
urisi
urne
urou
urrican
urs
urs
urtout
uru
uruba
uruku
urusi
uruw
US
us
us
US
▁US
USA
▁usage
use
usement
usine
usondiya
usqu
ussar
ussi
ust
ustin
ustralopith
▁Ut
ut
▁uta
Utah
utankham
UTC
UTC
▁uti
uti
utilis
▁utilis
utilisateur
▁utilisation
utilisation
▁utilisé
▁utilise
▁utilisée
▁utilisées
utiliser
▁utilisés
utorité
uts
uvèrènè
▁uw
uw
ux
ux
uxe
uya
uzé
uzz
▁V
▁V
v
v
▁v
V
▁v
V
▁va
▁Va
va
va
▁va
▁vacances
▁vaccin
▁vache
▁vagues
vaient
▁vainqueur
▁vais
vait
val
▁val
val
▁Val
▁val
▁valable
▁valans
▁valenc
▁valent
▁valeur
▁valide
vall
▁vallée
van
▁vancouver
▁Vancouver
▁vandalis
▁vapeur
var
▁variable
▁variante
▁variation
▁varie
▁variée
▁variées
▁varient
▁varier
vas
▁vas
vasion
▁vaste
vati
▁vaut
▁Ve
▁ve
ve
ve
vé
veau
vec
vec
vécu
▁végéta
véhiculaire
▁véhicule
▁véhicules
▁veille
veillée
vel
▁Vel
vel
▁vélo
vélo
▁Ven
▁Vén
▁ven
▁vén
vèn
venait
venant
▁vend
▁vendredi
▁vendu
▁vendus
▁venez
▁Venezuela
▁vengeance
veni
véni
venir
▁venir
venons
▁vent
▁vente
vention
▁vents
venu
▁venu
▁venue
▁Vénus
▁venus
▁ver
▁ver
vèr
▁Ver
ver
▁verbe
vere
vèri
veri
▁vérifi
▁vérification
▁vérifié
▁vérifier
▁véritable
▁vérité
vernemen
▁verra
▁verrai
▁verrait
▁verre
▁verrez
▁verron
▁Vers
▁vers
▁vers
▁Versa
▁version
version
▁vert
▁vertical
▁vertu
ves
vet
▁vêtement
vêtements
▁vêtements
▁veu
▁veuille
▁veut
▁veuve
▁veux
vez
▁vɛ
vɛl
▁vɛn
vɛn
vɛr
▁vɛr
VI
VI
▁vi
vi
vi
▁Vi
▁vi
via
▁via
▁viable
vian
▁viande
▁Vic
vice
▁vicieuse
▁vict
▁victime
▁victoire
▁Victoria
vid
▁vid
▁Vidal
▁vidal
vide
▁vidéo
▁vidéo
vie
▁vie
▁vieill
▁vieille
▁viendra
viendra
▁viendrai
▁viendront
▁vienne
vienne
viennent
▁viens
vient
▁vient
vier
▁vierge
▁Viet
▁Vietnam
▁vieux
▁viɛn
▁vig
▁vigilant
▁vigueur
▁vikin
▁viking
vil
▁vil
▁Vil
▁vila
vila
▁villa
▁village
▁villages
ville
▁ville
ville
▁villes
▁vin
vin
▁vincent
▁vingt
vingt
▁viol
▁violent
▁violentes
▁violents
viôn
vion
vir
▁Vir
▁Virgin
▁Virgin
▁Virgini
viri
▁viris
viron
▁virtuel
▁virtuelle
virus
▁virus
▁virusi
virusi
vis
▁Vis
▁vis
▁visa
visa
▁visage
▁vise
▁visible
visible
▁vision
▁visité
▁visite
▁visiter
▁visiteur
▁visiteurs
▁visualisation
▁vit
Vit
▁vit
▁vitaux
vité
▁vite
▁vitesse
▁vitré
▁vitre
▁vitri
▁vitrine
▁viv
▁vivant
▁vivants
▁vive
▁vivez
▁vivon
▁vivr
viyon
viyôn
vla
vo
▁vo
▁Vo
▁Vo
▁vo
vo
vocation
▁voici
▁voie
▁voies
▁voilà
voir
▁voir
voir
▁vois
▁voisin
voisin
▁voisine
▁voisins
▁voit
▁voiture
▁voitures
▁voix
▁vol
▁volcan
▁volé
▁volée
voler
▁voler
▁volley
volontaire
▁volonté
▁volume
▁vomi
vons
▁vont
voqué
vor
▁vos
vot
▁Vot
▁vot
▁vote
▁vote
▁voté
▁voté
▁votel
▁votela
▁votéla
▁voti
▁vôtre
▁voudr
▁voudrais
▁voudrait
▁voul
▁voulai
▁voulait
▁voulez
▁voulu
▁vous
vous
▁voy
▁voyag
▁voyag
▁voyage
▁voyageant
▁voyager
▁voyages
▁voyageur
▁voyageurs
▁voyagez
▁voyai
voyant
▁voyez
▁voyons
▁vrai
▁vraiment
vre
vrez
vri
vront
vu
▁vu
▁vue
W
W
w
▁W
▁W
w
▁w
wa
▁Wa
▁wa
▁Wa
▁waa
waati
▁waati
▁wadjibi
▁wadjibiya
waga
▁waga
▁wagakele
wagati
▁wagati
▁Wagati
▁wagatiyira
▁wagon
▁wagons
▁wagua
▁wajibi
▁wakati
wal
▁wal
▁Wal
▁Wal
▁wala
▁walama
▁walas
wale
▁walé
walé
▁wale
Wales
Wales
▁waléya
▁wali
▁walifas
▁walifasomara
walima
▁walima
waliman
▁waliman
▁waliya
waliya
▁walm
wan
wan
wanda
wang
▁wangol
war
▁war
▁Wara
▁wara
ward
▁Wari
wari
▁wari
▁waribla
▁warigbè
▁warimara
▁wasa
wasa
▁Washington
▁wat
▁water
▁wati
▁watila
▁watira
way
way
▁Way
▁wayas
▁wayasi
waz
▁We
we
wé
▁wè
▁wé
▁we
▁Web
▁web
▁web
▁website
▁wèè
▁weele
▁welé
▁wèlè
▁wele
▁wélé
wéléla
▁weleli
▁wéléli
▁wéré
▁Wèrè
wêrê
were
▁wèrè
▁were
wèrè
werela
▁wèrèw
▁West
▁West
▁wɛ
wɛrɛ
▁wɛrɛ
▁wɛrɛw
▁Wh
▁Whi
▁Whi
▁White
▁wi
▁Wi
▁Wil
▁wil
▁Wild
▁wilen
▁wili
wili
▁wilibali
▁wilila
▁will
win
▁wiri
▁wis
▁wis
▁wiza
▁Wo
▁wo
wo
▁Wolo
wôlô
▁wolo
wolo
▁woloba
▁wolof
wolofila
▁wolofila
▁wolofla
▁wolola
▁woloma
woloman
▁wolon
▁wolonfila
wolonwula
wolvila
▁wonlofila
▁woo
wood
▁Wor
▁wori
▁Woro
wôro
▁wôrô
▁woro
▁worodougou
▁worodougoula
▁worodug
▁worodugu
▁woromani
▁woronfila
woronfila
woronvla
▁woronvla
▁woror
▁wotchè
▁wote
▁wotoro
▁wou
▁Woul
▁woula
▁woule
▁woulé
▁woulou
woyo
▁woyo
▁wɔɔrɔ
wɔrɔ
▁wɔrɔ
▁wɔrɔnan
▁wu
▁wula
▁wulada
▁wuladanin
▁wulafɛ
▁wuléma
▁wuleman
▁wuli
▁wulu
▁wuru
X
▁X
X
x
x
▁X
Xe
xi
▁Xi
XI
▁XI
xie
xpédition
▁XV
▁XVI
▁XVII
▁XXe
xy
Y
Y
▁y
y
▁y
y
▁Y
▁Ya
Ya
▁ya
ya
▁Ya
ya
yaala
▁yaala
▁yacht
▁yafa
yafô
▁yafô
▁yaga
yaga
yagi
yal
▁yala
yala
▁yalala
▁yamarou
▁yamarouya
▁yamaroya
yan
▁yan
yan
▁yana
▁yanama
▁yananman
▁yanfè
▁yanfe
yani
▁yani
▁yann
yap
▁yàrà
yara
▁yara
▁yarala
yata
yato
yd
ydney
▁Yé
▁ye
▁yé
yé
ye
▁yè
yè
▁Yei
yein
▁Yel
yèlè
▁yélè
▁Yèlè
yêlê
▁yêlê
▁yèlè
▁yele
▁yélé
▁yelema
yelema
▁yêlêma
yéléma
▁yèlèma
▁Yèlèma
▁yêlêman
yèlèman
▁yèlèman
▁yeleman
▁yèlèmanla
yelen
▁yelen
▁yélén
▁yéll
yen
▁yèna
yenne
▁yens
yer
yer
yèr
yêrê
▁yèrè
▁yere
yèrè
▁yêrê
yere
▁yèrèkè
▁yèrèla
yèrèla
▁yêrêma
▁yèrèma
▁yereman
▁yèrèman
▁yeremani
▁yèrèmani
yêrêta
yèri
yéssé
yéta
yété
▁yeux
yez
yɛl
yɛlɛ
▁yɛlɛ
▁yɛlɛko
▁yɛlɛla
yɛlɛma
▁yɛlɛma
▁yɛlɛmana
▁yɛlɛmani
▁yɛn
yɛn
yɛr
▁yɛrɛ
▁yɛrɛkɛ
▁yɛrɛma
▁yɛrɛsɔrɔ
▁yɛrɛyɛrɛ
▁yi
yi
yila
▁yin
▁yinika
yip
▁Yira
▁yira
yira
yirala
▁yirala
▁yirali
▁yiri
▁Yiri
▁yiride
▁yiriga
yiriga
▁yirika
▁yiriw
yiriwa
▁yiriwa
▁yiriwal
yl
ylan
ylan
ylo
ym
ymnasti
ymnastic
ymp
ymphon
yn
ynch
ynd
▁Yo
▁yo
yo
▁Yo
▁Yog
▁yoga
▁yoloyolo
▁Yomi
yon
yong
▁yongo
yongon
▁yongon
▁Yor
yôr
yor
▁York
▁york
▁yôrô
▁yoro
yôrô
yoro
▁yorô
▁Yôrô
▁yôrôbè
▁yôrôdjan
▁yôrôdo
▁yôrôdôla
yôrôla
▁yôrôla
▁yorola
▁yôrôlô
yôrôlô
▁yoromi
▁yôrômi
▁yoror
▁yôrôtôgô
▁yôrôw
yôrôw
yôrôyé
▁yôrôyé
▁yorro
yorro
▁youma
yourou
yourougou
▁yɔgɔ
yɔn
▁yɔng
▁yɔrk
▁yɔrɔ
yɔrɔ
▁yɔrɔbɛ
▁yɔrɔjan
▁yɔrɔla
▁yɔrɔni
▁yɔrɔwɛrɛ
yramide
yria
yron
ystem
ystic
yte
yth
▁Yu
yuru
▁z
▁Z
Z
Z
z
z
▁Z
▁z
za
▁Za
▁Za
za
▁za
zac
▁Zagr
▁Zagr
▁zak
zak
zamb
▁Zambie
▁zan
zan
zani
zani
zano
▁Zap
▁zapon
zara
zari
▁zarid
▁Zayat
▁Ze
zé
ze
ze
▁ze
▁Zeland
▁Zéland
zélandais
Zélande
zen
zene
▁Zeneral
▁zeneral
zerbaïdjan
▁zéro
▁Zeruzal
zezi
zɛn
zi
▁zid
▁Zimbabwe
▁zira
▁ziri
▁ziz
▁ZMapp
zn
zo
▁zo
zon
▁zone
zones
▁zones
▁zoom
Zoom
▁zozɛf
▁zɔr
zu
▁zu
▁Zu
Zulu
▁zuwe
zy
zzi
α
τ
υ
