▁$	-10.4387
$	-10.8616
$1	-11.6525
$	-11.7411
€	-13.2411
000	-10.1153
000	-8.22453
,000	-9.9211
▁00	-10.8513
00.	-10.9013
▁00	-9.97494
▁0	-10.7048
:0	-11.5429
02	-10.9603
02	-11.1132
04	-11.3717
0	-8.16115
0	-8.40048
1000	-10.1409
▁100	-8.85371
100	-9.56388
▁10	-10.5056
10	-11.5698
▁»)	-10.1223
_	-10.1322
:	-10.2048
—	-10.4342
;	-10.507
"""	-10.5232
]	-10.5232
▁°	-10.5344
»	-10.6321
”)	-10.8416
»	-10.8687
▁10	-8.8684
°	-10.9407
=	-10.9577
1,	-10.0335
▁1,	-10.1276
1.	-10.6243
1:	-10.8553
-1	-10.8965
▁11	-10.1829
▁1.	-11.0746
11	-10.9418
▁/	-11.371
“	-11.6455
%	-11.6521
&	-11.6521
+	-11.6521
°	-11.6521
̋	-11.6521
%	-11.7248
(	-11.725
+	-11.7411
”	-11.7411
▁11	-8.88152
▁120	-10.5236
▁120	-10.9996
▁12	-10.2304
12	-10.9414
▁12	-11.6528
13	-11.6155
&	-13.2411
“	-13.3175
[	-13.3178
—	-13.3181
"	-13.3183
[	-13.7419
«	-13.7421
(	-13.7424
▁(14	-10.2058
▁14	-10.446
14	-11.645
▁149	-11.0988
▁15	-10.4347
▁(15	-10.6546
153	-10.9982
▁15	-9.02863
▁160	-10.5293
160	-11.7244
16	-10.8272
▁(16	-10.9588
16	-11.5475
▁168	-11.0456
▁16	-9.32703
▁16	-9.75089
17	-11.4059
▁175	-10.9586
▁177	-10.7698
▁17	-9.43075
▁17	-9.98746
▁18	-10.0587
▁181	-10.4594
▁181	-10.958
18	-11.7258
▁1	-8.68344
1	-8.77868
▁188	-11.4297
189	-11.6525
1895	-10.8688
1895	-10.9578
▁18	-9.89815
-19	-10.5232
▁19	-10.6777
▁1920	-10.8687
▁1	-9.32143
1	-9.33276
▁1940	-10.5233
▁1945	-10.9577
▁195	-10.0714
▁1959.	-10.9577
▁1960	-10.8692
▁196	-10.1076
▁196	-10.163
▁1970	-10.2215
▁197	-10.2449
▁1977	-10.958
▁1979	-10.4343
▁1979	-10.5233
▁197	-9.44755
▁198	-10.3478
▁198	-10.9192
1981	-10.8806
▁(1	-9.8257
▁1988	-10.958
▁199	-10.2812
▁19	-9.14382
1994	-10.8948
▁1995	-10.5234
1998)	-10.9577
▁199	-9.93061
200	-11.409
▁(200	-11.692
2002)	-10.869
▁2004	-10.5253
▁2005	-10.2216
2006	-10.8897
▁2006	-10.9658
▁2007	-10.2215
▁2008	-9.98966
▁2009	-10.2223
▁200	-9.31506
▁200	-9.89896
▁2010	-9.80152
▁2011	-10.5233
▁20	-11.4214
20-	-11.6509
▁2013	-10.9577
▁2015	-10.9577
▁2016	-10.2212
▁2017	-10.2212
▁201	-9.10525
▁2020	-9.98951
▁202	-10.151
▁20	-8.8682
▁2.	-10.2126
▁2,	-10.431
▁(2	-10.444
2,	-10.5477
▁2:	-10.9582
▁(2	-10.9958
21	-9.51968
▁220	-10.872
220	-11.6455
22	-10.508
22	-10.8309
▁22	-9.80986
23	-10.4074
24	-10.4738
▁24	-9.10526
25	-10.5001
▁25	-9.5301
▁28	-10.2217
▁2	-8.55379
▁29	-10.2252
29	-11.7248
▁2	-9.30714
2	-9.40718
2	-9.64401
300	-10.6102
30	-10.194
30	-10.862
▁30	-10.8767
▁30	-8.99993
-3	-10.4545
▁(3	-10.5312
▁3,	-10.649
3,	-10.7459
▁(3	-10.7624
▁(31	-10.9586
.	-3.13976
▁32	-10.7138
▁34	-10.0181
▁34	-10.1339
34	-11.6462
.	-3.42816
,	-3.49699
▁35	-10.8718
▁35	-9.50697
36	-11.7257
▁36	-9.80402
'	-3.70191
,	-3.70547
▁37	-10.9583
3	-8.89298
39	-10.9405
▁39	-10.9759
▁3	-9.41345
▁3	-9.55834
3	-9.70089
39	-9.90631
▁400	-10.8721
400	-11.6449
▁400	-9.50703
40	-10.7611
40)	-10.8688
▁40	-11.653
▁40	-9.64921
4,	-10.0393
▁4	-10.1405
▁	-4.11028
41	-10.9771
44	-10.9588
’	-4.41572
▁45	-10.5031
▁46	-10.9556
46	-11.3127
468	-10.9603
-	-4.76898
480	-10.9725
▁48	-10.5144
▁48	-10.8692
4	-8.96394
4	-9.0278
49	-10.9236
▁4	-9.11679
'	-4.93689
▁500	-9.46459
▁50	-10.1374
50	-10.433
▁50	-10.5671
▁	-5.07577
50	-9.59649
▁5	-10.4553
▁.	-5.16508
53	-10.5686
▁53	-10.8688
55	-10.8872
▁56	-10.4164
▁?	-5.81264
5	-8.72448
▁5	-8.78972
5	-8.88403
▁60	-10.1356
60	-10.8751
▁60	-9.27978
▁6	-10.457
61	-11.5644
61	-11.6537
62	-10.4842
?	-6.31728
▁(	-6.32486
▁!	-6.33355
-	-6.36018
▁«	-6.40402
▁64	-10.5238
64	-10.5977
▁(	-6.5372
▁“	-6.55751
6-6	-10.9579
)	-6.61552
▁»	-6.67072
)	-6.74109
68	-10.9728
”	-6.89142
▁6	-9.04663
69	-10.7082
6	-9.23855
6	-9.7103
6,	-9.97338
▁70	-9.99022
...	-7.31838
▁:	-7.32482
?	-7.37216
!	-7.57567
76	-10.3931
76	-10.6135
▁76	-10.9834
▁?	-7.65447
).	-7.70345
77	-11.6288
78	-11.6234
▁».	-7.82746
”.	-7.84839
).	-7.87343
7	-8.98059
▁7	-9.10917
7	-9.16541
▁;	-7.94213
▁7	-9.72656
:	-7.98529
800	-10.8739
800	-9.65615
80	-10.8035
▁80	-10.8405
▁802.11	-10.5232
▁802.11	-9.9005
;	-8.06949
▁80	-9.97193
▁8	-10.4477
/	-8.239
83	-10.4815
▁!...	-8.33208
!	-8.55172
▁—	-8.61206
▁-	-8.78398
▁?...	-8.79704
88	-10.9658
–	-8.89107
89	-10.4803
89	-10.8686
8	-9.16709
8	-9.48653
▁8	-9.81558
90	-10.4465
▁90	-10.5376
90	-10.7881
▁"	-9.01143
▁(90	-11.6591
▁%	-9.01425
"	-9.08689
’	-9.09356
9	-10.1153
▁9	-10.3979
▁(9	-10.8729
92	-11.5004
92	-11.59
93	-11.6032
▁...	-9.32293
▁!	-9.39151
/	-9.41016
94	-11.3786
«	-9.53413
96	-11.6525
...	-9.61512
980	-11.5725
▁""	-9.80152
▁9	-9.50437
9	-9.83411
á	-10.7911
á	-10.8687
ä	-10.8687
ă	-11.4077
Â	-11.6521
Â	-11.7411
ã	-11.7411
ā	-12.1521
ã	-13.1521
å	-13.2411
ā	-13.2411
â	-13.3186
▁a	-3.80793
▁à	-4.40234
a	-4.62645
▁a	-4.83499
a	-5.67665
▁A	-5.97899
▁A	-7.27737
à	-7.59957
A	-8.00503
À	-8.57787
à	-9.3193
â	-9.5429
A	-9.67948
▁à	-9.91273
ab	-10.2308
▁ab	-10.2429
AB	-11.6524
▁aba	-9.88697
▁abada	-10.9387
abandon	-10.7909
abaranin	-10.5316
▁abatt	-10.791
abatt	-11.7238
▁abattu	-10.5284
abb	-9.96169
▁Abé	-10.1384
▁Abe	-10.7783
▁abé	-8.98064
▁abe	-9.26948
▁abena	-10.3828
▁abéna	-10.6688
▁abènan	-10.8706
abet	-9.99319
abéti	-10.4604
abi	-10.7405
▁abi	-9.77565
abituellement	-11.6638
▁abla	-10.5138
able	-8.66744
ables	-9.19883
abli	-11.5705
abo	-10.444
abondan	-11.4078
▁abord	-10.6595
abord	-9.07727
▁abordé	-11.0644
abot	-10.7954
abou	-11.2125
▁abrit	-10.7579
▁abrite	-10.3332
absen	-9.74742
▁absent	-10.5235
absolu	-10.7909
▁absolue	-10.5233
▁absolument	-10.2212
▁absorb	-10.9577
abus	-10.3404
▁AC	-10.4456
AC	-11.6479
ac	-8.6888
accéder	-10.4121
accélérer	-11.1577
▁accent	-10.9659
accent	-11.7237
accept	-10.4008
▁acceptable	-10.7911
▁accepte	-10.1463
▁accepté	-9.74331
▁acceptées	-10.5294
accès	-9.3139
accessible	-11.6349
▁accessible	-9.86315
acci	-11.1666
▁accid	-11.2867
accident	-9.05006
▁accident	-9.26796
▁accidenté	-10.3069
accompagnait	-11.4077
▁accompagné	-10.4144
accompagne	-10.6482
▁accompli	-10.7911
▁accord	-10.3253
accord	-8.94583
▁accordé	-10.9664
▁accordée	-10.9684
▁accords	-10.4593
▁accouche	-11.4082
▁accr	-10.9659
accr	-11.7237
accu	-9.98951
accueil	-10.5232
▁accueill	-11.2648
▁accueille	-10.8773
▁accueilli	-9.9195
▁accueillir	-10.7997
▁accusations	-9.98951
▁accusé	-9.80153
acée	-10.995
achant	-10.6611
achat	-10.9073
▁acheté	-10.4665
achète	-10.6461
acheter	-9.3146
achètera	-10.6503
achetés	-11.562
▁achevé	-10.5235
achin	-11.1658
achon	-10.331
achu	-10.6044
▁acid	-10.7077
acid	-11.6655
acide	-10.8921
▁acier	-10.7918
acifi	-10.4344
ack	-9.88194
acks	-11.1753
acob	-11.4091
▁acquérir	-10.2212
▁acquis	-10.9955
ACTA	-10.9577
acte	-10.3922
▁actes	-10.4128
actif	-10.1377
action	-10.647
▁action	-10.9826
▁actions	-9.87399
activ	-10.4342
▁active	-10.0651
▁activé	-10.9577
active	-11.506
activité	-10.0445
▁activité	-9.18168
▁activités	-9.81607
▁actuel	-10.3119
▁actuelle	-10.3234
actuelle	-10.9416
▁actuellement	-9.35086
acu	-11.404
ad	-10.2687
▁AD	-10.4454
ad	-9.503
▁ad	-9.74279
adagascar	-11.4077
▁Adam	-10.4579
▁adama	-10.1337
▁Adamadé	-10.8688
▁adamadé	-9.88469
▁adamade	-9.88634
▁adamaden	-10.0693
▁adamadén	-10.4623
▁Adaman	-11.5352
▁adamande	-10.4344
▁Adamande	-10.9302
adaptation	-10.5325
▁adapté	-9.98665
▁adaptées	-10.7975
adapter	-10.2219
ade	-9.65236
▁adéquate	-10.9577
adesh	-11.6362
adhé	-10.9577
adieu	-11.4073
adj	-11.4075
▁administr	-11.0494
▁administrati	-11.2052
administration	-10.445
▁admire	-10.8034
admire	-11.1406
▁admis	-10.7975
▁admissi	-11.7248
▁ADN	-10.4353
▁adolescents	-11.4077
▁adopté	-10.9147
▁adopte	-10.9577
▁adoptée	-11.0027
▁adoption	-10.9659
adoption	-11.7236
▁adresse	-10.0042
adresse	-10.1213
▁adressé	-10.9578
▁adulte	-10.2766
adulte	-11.7242
▁adultes	-10.0928
adwa	-11.671
▁aérien	-10.3109
▁aérienne	-8.82466
▁aéroport	-10.4478
aéroport	-9.67639
AF	-11.081
Af	-11.6328
afe	-10.2882
aff	-9.64307
affaibli	-11.4077
▁affair	-10.8691
affaire	-10.3553
▁affaire	-10.7781
affaires	-10.4388
▁affaires	-9.44212
affect	-11.1542
▁affecté	-10.2097
▁affecte	-9.50798
▁affectée	-10.9358
▁affectées	-10.5537
▁affich	-10.0666
affich	-11.1411
affir	-11.7229
affirm	-10.4065
▁affirmé	-9.2461
▁affirme	-9.80747
▁affront	-10.8095
affronter	-11.1317
▁Afg	-11.6521
▁Afghan	-10.9602
▁Afghan	-11.6521
▁Afghanistan	-10.1322
Afghanistan	-9.98951
Afi	-11.6575
▁Afi	-9.72373
afin	-8.38129
afina	-11.5028
aflè	-10.5347
▁afô	-10.0836
africain	-10.9068
▁africain	-11.0041
▁africaine	-10.1502
africains	-10.4001
▁Afrik	-9.71272
afrique	-10.9577
Afrique	-9.07785
▁Afrique	-9.53221
ag	-9.35321
agadji	-11.6537
agant	-11.1772
agara	-11.381
agara	-11.4085
agas	-11.6469
agati	-11.4733
▁âge	-10.0326
age	-7.88169
âge	-9.04988
▁âgé	-9.74596
▁Âge	-9.98951
▁agen	-10.8801
▁agenc	-11.382
agence	-9.06652
▁agent	-9.47679
agent	-9.84068
ages	-9.2636
agi	-9.98714
agir	-10.0137
▁agiss	-10.5712
agiss	-9.79398
agisse	-10.5296
agit	-8.19259
agnac	-11.0044
agnes	-11.4203
▁agnoumala	-10.8687
ago	-9.8505
agrandi	-10.9577
▁agréable	-10.6483
▁agressif	-11.4078
▁agressive	-11.1577
▁agricole	-11.1577
agriculteur	-10.6482
agriculture	-9.55026
agwè	-11.0456
▁ah	-8.21298
▁ah	-9.67826
Ahi	-11.6472
▁ahi	-7.83051
▁Ahi	-9.72285
ahiri	-10.9065
aï	-10.8428
ai	-6.95273
aï	-9.54738
▁ai	-9.71906
▁aide	-9.60039
aide	-9.69382
▁aidé	-9.8017
aider	-10.214
▁aider	-9.00322
aient	-7.20785
aigle	-11.4078
▁aigu	-11.4053
aiguille	-10.4133
ailles	-10.5252
ailleurs	-10.9414
▁ailleurs	-9.21672
▁aima	-9.7299
▁aimable	-11.4082
▁aimaient	-10.6484
▁aimait	-10.3134
▁aimé	-8.68173
aime	-9.30156
▁aime	-9.52627
▁aimée	-10.8117
▁aiment	-9.86936
▁aimera	-9.58538
aimerai	-11.7017
▁aimeraient	-11.16
aimerais	-9.71087
▁aimerait	-9.59651
▁aimèrent	-10.7911
▁aimerez	-10.9584
▁aimeriez	-11.158
▁aimeront	-11.1587
▁aimez	-11.1622
▁aimions	-10.5232
▁aimons	-11.1578
ain	-10.336
ain	-10.4511
▁ainé	-11.1699
aine	-8.78578
▁ainsi	-7.80017
▁Ainsi	-9.98951
aintenant	-11.4069
▁Air	-10.1098
air	-9.06736
▁Air	-9.51146
▁air	-9.6236
aire	-8.1773
▁Aires	-10.8693
aires	-8.65942
airi	-9.33765
▁Airways	-10.9577
ais	-8.58055
aise	-9.69959
aison	-9.42964
aît	-10.625
ait	-6.52116
aji	-11.568
ajibi	-11.6537
ajourn	-11.4078
▁ajout	-10.4147
▁ajouté	-10.1231
▁ajoutée	-10.8287
ajouter	-10.779
ak	-9.35621
▁aka	-7.65331
akabana	-11.6523
▁akan	-10.6578
▁akè	-10.0422
aked	-11.6427
aki	-10.67
aki	-9.84797
▁akili	-9.38666
▁akisidan	-9.9005
akistan	-10.9165
akland	-11.4085
akolossi	-11.658
▁akonno	-11.5937
akou	-11.1844
akurun	-11.6533
▁al	-10.0172
al	-7.73656
▁al	-8.94345
al	-9.33236
▁Al	-9.76698
▁Ala	-10.3985
▁ala	-7.89167
▁alabatoso	-10.3231
▁alah	-10.8984
aland	-10.1434
alansoba	-10.8721
alapagos	-11.666
▁alar	-11.412
▁alasé	-10.8847
alasi	-10.7889
Alasika	-10.8695
▁Alaska	-10.9659
Alaska	-11.7236
▁alassé	-10.9008
Alb	-10.9595
▁Alb	-11.0599
▁alb	-11.32
▁albert	-10.2252
▁albɛr	-10.4345
▁albi	-11.3333
▁albɔm	-11.6521
album	-10.7735
▁album	-10.9789
alca	-11.2103
alcool	-10.5232
▁alcoolisées	-10.5232
ald	-10.5203
▁Ald	-10.9581
ale	-10.9107
▁Ale	-10.9982
▁ale	-7.32869
▁alé	-7.88435
ale	-9.35728
▁Ale	-9.40874
▁Aleman	-10.8893
alement	-10.2129
▁alentour	-10.7911
alerme	-11.4126
alerte	-10.2039
▁alerte	-10.7802
▁alertes	-10.8338
ales	-9.46103
alestin	-11.0546
▁Alex	-10.5233
▁Alex	-10.8876
▁alex	-10.9571
▁Alexandr	-10.4342
Alexandre	-10.5234
▁alɛksi	-11.6571
▁alfrɛ	-11.3187
algar	-11.4268
▁algues	-11.4078
alheureusement	-10.5224
▁ali	-8.35634
ali	-8.78459
▁Ali	-8.94258
▁alibi	-10.4401
▁Alibi	-10.8727
alifa	-11.4137
▁aliman	-10.3736
▁Aliman	-9.30321
▁alimentaire	-10.7911
▁aliments	-9.74597
alini	-10.5203
alisée	-10.8965
aliser	-10.9528
alité	-10.1369
▁all	-10.0433
▁All	-10.5205
▁All	-10.8336
▁Allah	-10.4353
▁allait	-10.4144
▁allant	-10.0636
▁Alle	-10.3494
▁allé	-10.6457
▁alle	-10.9189
allée	-11.0038
▁allée	-9.39356
▁Allema	-10.2211
▁allemagn	-11.6362
allemagne	-11.4077
Allemagne	-9.01324
▁alleman	-10.561
▁Alleman	-9.9026
allemand	-11.7245
▁allemand	-9.96371
▁allemande	-9.61551
▁Allen	-10.9603
▁aller	-8.85349
aller	-9.78528
▁allez	-8.89145
▁Alli	-10.9308
▁Alli	-9.90876
▁alliage	-10.7911
▁alliance	-10.225
▁allié	-11.4079
▁allong	-11.6798
allongent	-10.9973
▁allons	-10.1417
allons	-11.7244
allu	-10.9421
▁allumé	-11.1577
▁Alon	-9.96
▁Alonso	-10.2212
alors	-10.7801
▁alors	-7.84904
▁alou	-9.79242
▁Alp	-11.6639
alph	-10.3959
▁alph	-10.9911
▁alpin	-9.98958
alpinisme	-10.9577
▁alt	-10.531
alth	-11.4136
altitude	-11.1577
▁alu	-9.52698
▁alugu	-10.2619
▁am	-10.2133
am	-10.465
am	-8.88714
ama	-10.7612
▁Ama	-11.0248
ama	-9.71349
▁ama	-9.74453
aman	-10.3849
amanaw	-11.6179
▁amand	-10.9927
amandes	-11.411
amanin	-11.649
amankè	-11.0694
▁amant	-10.9588
▁amass	-11.4079
▁amateurs	-10.7911
Amazone	-10.2212
▁amb	-11.6266
ambassade	-11.4077
▁ambe	-10.8716
amber	-11.6472
ambiguïté	-10.7911
ambiti	-10.9588
ambod	-11.5769
ambourg	-11.2599
âme	-10.2945
▁âme	-10.9921
▁amélior	-11.5464
▁amélioré	-10.8138
améliorer	-9.94881
▁aménagé	-11.1577
aménagement	-10.5232
amendé	-11.4091
amendement	-9.29745
▁amendement	-9.32649
▁amendements	-10.4244
▁Ameri	-10.868
▁améric	-11.0729
améric	-11.6449
▁America	-11.6518
▁Americain	-10.8549
▁américain	-9.33629
▁américaine	-9.56659
▁américaines	-10.3062
▁américains	-9.87171
▁Americainw	-10.4443
▁Amérik	-10.4284
▁amerik	-11.6394
Amérik	-11.6451
▁amériki	-10.8687
▁Ameriki	-8.4231
▁Amériki	-8.92589
▁ameriki	-9.36025
▁amerikin	-10.9487
▁Amerikin	-11.0794
amérique	-10.7911
Amérique	-9.50678
ami	-10.0256
▁ami	-9.00807
amian	-11.6488
▁amical	-10.7916
▁amie	-10.8463
▁amiens	-11.4087
▁amino	-10.8701
▁amis	-10.1086
amis	-10.7658
amou	-10.2486
▁amour	-10.169
amour	-9.53356
amp	-9.8163
ampe	-10.0847
ample	-11.2516
ampon	-10.7276
ampoule	-9.80152
ampshire	-11.4077
▁Amsterdam	-10.869
Amsterdam	-10.9577
amuse	-11.4453
▁an	-6.00504
an	-6.63752
an	-7.63697
▁An	-8.66309
▁an	-9.32078
ana	-9.61488
anage	-10.9982
analyse	-10.2212
anarchie	-10.7911
anbagato	-11.2872
▁anc	-10.5397
ance	-10.2209
ancer	-11.6522
ances	-10.5657
anch	-10.3482
anci	-10.0532
▁ancien	-9.57021
ancien	-9.72923
▁ancienne	-9.39522
ancienne	-9.97357
▁anciennes	-10.0627
▁anciens	-9.79346
▁and	-10.7478
and	-9.78203
▁and	-9.8462
anda	-10.3186
anda	-10.6108
ande	-11.4367
andinav	-11.3214
andis	-8.66442
andonnée	-10.7911
andr	-11.3295
andra	-11.6649
andré	-10.6486
▁andre	-11.07
andre	-11.4936
ang	-10.0292
▁Ang	-10.961
▁Ang	-9.86081
▁anga	-10.1295
ange	-9.33336
▁Angel	-10.1368
▁Angel	-10.955
▁angel	-10.9696
▁Angeles	-10.9606
▁Angilè	-10.4342
▁angilɛ	-10.1322
▁Anglais	-10.1328
anglais	-9.67679
▁anglais	-9.83821
▁anglaise	-11.0924
▁Anglè	-10.1327
▁anglè	-10.7026
▁angle	-10.8705
▁ango	-11.716
▁Angola	-10.869
angola	-11.4693
angui	-10.3753
▁Anguil	-11.6513
▁anguilè	-10.1322
▁Anguilè	-10.4345
▁Anguilétèri	-10.4342
angw	-11.6617
ani	-10.518
▁Ani	-11.3141
aní	-11.4736
▁ani	-4.82392
ani	-9.47102
▁anidô	-10.9967
anifesta	-11.6515
▁anim	-10.5218
▁Animal	-10.9577
▁animal	-9.81941
▁animale	-11.0941
▁animaux	-7.94093
anime	-10.9583
anistan	-11.0669
anjalan	-11.6088
ank	-10.7313
▁anka	-10.0528
ankourouni	-11.5686
anman	-9.84103
▁Ann	-10.5823
anna	-10.9183
anneau	-11.5253
▁année	-8.63944
année	-8.92271
▁années	-8.3768
années	-9.0118
annes	-9.88932
▁anniversaire	-10.3162
anniversaire	-11.7243
▁annonça	-11.1617
annonce	-10.3956
▁annoncé	-9.06653
▁annonce	-9.60311
▁annoncée	-10.6481
▁annu	-10.329
▁annuel	-10.7914
▁annul	-10.0065
annul	-9.97285
▁anonyme	-11.1647
anranma	-11.6597
Ans	-11.0657
▁ans	-7.68148
ans	-9.90037
anscri	-11.4749
ansi	-9.79641
ansiguili	-11.668
ant	-5.98782
▁Anta	-10.881
antaf	-11.6521
▁Antar	-10.8697
Antarctique	-10.5234
▁Antartic	-10.87
ante	-9.39352
antes	-9.81397
anthrop	-10.9577
▁anti	-9.54876
anticipe	-10.9579
Antiquité	-10.2212
▁antiquité	-10.5232
anto	-11.286
▁antoin	-11.6504
▁antoine	-10.5267
▁antoine	-11.3402
▁anu	-10.5474
▁anw	-8.67914
anyon	-10.9423
▁AOL	-10.872
▁AOL	-10.9659
AOL	-11.6449
AOL	-11.7236
août	-11.3914
▁août	-9.28139
AP	-10.8689
AP	-10.959
ap	-9.52904
▁ap	-9.94143
apais	-11.1918
▁apercevoir	-11.4077
▁aperçu	-10.4167
aperçu	-11.724
▁Apia	-10.4343
▁apilikatchôn	-10.8687
apital	-11.7164
apitali	-11.4816
apo	-10.4177
apolis	-11.6318
Apollo	-10.9577
app	-10.755
▁App	-11.4594
apparaissent	-11.1587
apparaîtr	-11.1612
▁appare	-10.5196
▁appareil	-10.643
appareil	-9.97231
▁appareils	-10.561
▁apparen	-11.4093
▁apparenté	-10.958
▁apparition	-10.4221
apparition	-10.9408
appartement	-10.3121
▁appartena	-11.3796
▁appartenan	-10.8066
▁appartien	-10.4121
▁apparu	-11.6977
▁apparue	-10.9783
appel	-10.2033
▁appel	-9.41988
▁appelé	-8.29724
▁appelée	-9.26397
▁appelez	-10.7962
▁appelle	-10.1041
appelle	-9.10406
▁appellent	-10.5387
appellent	-10.9578
▁Appl	-10.1902
▁appl	-10.7148
applaudi	-11.1577
Apple	-10.9402
▁Apple	-10.9756
▁applica	-10.5325
applique	-11.404
appliquer	-11.4116
▁apport	-10.0437
apport	-10.9409
▁apporté	-9.75853
▁apporter	-10.9723
▁apportez	-10.7938
▁appréci	-10.6482
apprenant	-10.8203
▁apprend	-10.7896
▁apprendre	-10.0051
apprendre	-10.2053
apprentissage	-8.78228
apprêt	-11.1577
▁appris	-9.64333
approch	-10.8005
▁approche	-10.26
approche	-9.57239
approvisionn	-11.6894
▁approximative	-10.7911
appui	-11.4079
▁après	-7.22807
après	-8.83267
▁Après	-9.01382
apsul	-11.2182
▁aquar	-11.4093
▁Ar	-10.0489
ar	-10.2614
▁Ar	-10.9154
Ar	-11.6529
ar	-8.83459
▁ar	-9.37677
ârâ	-10.4337
ara	-8.83363
▁Arab	-9.91869
▁araba	-10.7064
▁arabalo	-11.6456
▁arabalon	-10.8735
▁arabe	-10.654
arabe	-11.724
▁Arabes	-10.9577
▁arabou	-10.8688
▁arabu	-10.7023
arada	-10.6881
aradar	-11.6558
araka	-10.8596
araon	-11.6562
▁aras	-11.3531
araw	-10.2048
arawak	-11.4223
arbalète	-11.4077
▁arbor	-10.9578
▁arbre	-10.2322
arbre	-10.6958
arc	-10.761
▁Arc	-11.6526
arch	-10.9528
arch	-11.6646
archéologi	-11.0214
arches	-11.4085
archet	-9.99448
▁Archi	-10.8733
archipel	-10.5065
▁archipel	-9.99942
architect	-10.2212
ard	-8.4126
ard	-9.64533
▁ardɛn	-11.6521
ards	-9.0009
are	-10.4702
argent	-8.66554
Argentin	-10.5232
▁Argentin	-10.8651
▁argentin	-11.4094
▁Argentine	-10.8724
argot	-10.1379
ari	-10.8472
▁Ari	-11.0833
▁Arias	-10.5232
ariat	-11.4085
arike	-11.5522
arikou	-10.1325
arin	-11.1625
arine	-11.6461
ario	-11.1743
ario	-11.2355
▁Aris	-11.6575
arisa	-9.25418
▁Arisit	-10.9903
▁Arist	-10.9578
arist	-11.4279
▁Aristo	-11.6341
Aristote	-10.9578
arité	-11.3964
ariya	-10.1749
ariyalatagama	-10.8745
Arizona	-10.5232
arm	-10.1985
arm	-10.883
▁Arman	-10.872
▁armé	-10.381
arme	-11.1612
armée	-9.44912
▁armée	-9.90496
▁Armeni	-11.641
Arménie	-10.2212
▁Armenie	-10.4375
▁armes	-10.9655
▁armoire	-11.4077
arolina	-10.1753
arpenter	-11.4085
arque	-10.8126
arrache	-10.5232
▁arrang	-11.1578
arrestation	-10.9577
arrêt	-10.2018
▁arrêt	-9.72377
▁arrêté	-9.38145
▁arrêtée	-10.5617
arrêter	-10.3565
▁arrière	-10.2429
arrière	-9.96908
▁arriv	-10.7122
▁arrivé	-8.54018
▁arrive	-9.69382
arrivée	-9.62662
▁arrivée	-9.67727
▁arrivent	-10.8017
▁arriver	-10.3803
arrivera	-11.0959
arrondissement	-11.1577
▁Art	-10.1593
art	-8.90655
arter	-10.5586
▁arthur	-11.1627
▁Artic	-10.941
▁article	-9.70861
article	-9.84435
▁artificielle	-10.6898
▁artikl	-11.0688
▁artistes	-10.4121
▁artistique	-10.1379
▁arts	-10.2239
as	-10.2863
AS	-10.3847
AS	-10.8694
as	-8.36776
ascension	-10.2212
ash	-10.3221
▁asi	-10.3441
▁Asi	-10.6292
asi	-10.7173
▁Asie	-10.2215
asie	-10.7594
aspect	-10.7744
▁aspect	-9.92991
aspill	-11.1578
▁aspir	-11.7058
▁assai	-11.2277
assar	-11.6291
▁assassiné	-10.6482
assaut	-10.9578
asse	-8.85737
▁assembl	-11.1475
assemblée	-11.168
▁assez	-8.20376
▁assi	-11.3704
▁assis	-9.18526
assister	-10.4187
associ	-10.7703
▁Association	-10.959
▁associé	-10.4807
▁associée	-11.0272
assons	-11.4737
assume	-10.7938
▁assur	-10.0404
assur	-10.7356
▁assurance	-10.4203
assurance	-11.1408
assurer	-9.877
▁Assyri	-10.8687
▁assyrien	-10.9618
ast	-9.77997
asti	-11.2768
asting	-11.3201
astings	-11.4078
▁astr	-10.7962
astre	-11.3274
▁Astro	-10.8687
astuc	-11.3836
asub	-10.8832
▁asun	-11.3553
at	-8.04314
ATA	-10.8815
▁ataga	-11.0214
atar	-10.9614
atation	-10.9968
▁até	-10.5239
âteaux	-11.4076
atélit	-10.885
atero	-11.6509
ateur	-9.46568
athlète	-11.2157
▁athlètes	-9.74615
ati	-9.95688
atica	-10.4452
atif	-9.99761
atifs	-10.5631
atimi	-10.7848
ation	-7.21387
ation	-9.41249
ations	-9.09576
atique	-9.42972
ative	-10.2912
atiw	-10.9979
▁atla	-10.959
▁Atlant	-10.2257
▁Atlant	-10.4311
Atlant	-11.5017
▁Atlantiki	-10.1323
▁Atlantiqu	-10.4372
▁Atlantique	-10.2219
atmosphère	-9.92284
▁atmosphériques	-10.9577
ato	-11.3936
atoire	-11.0963
atoli	-11.6631
atoliki	-11.6515
▁atom	-10.368
atome	-10.9576
▁atomes	-9.27953
▁atomi	-11.0082
▁atomou	-10.8716
atre	-11.3613
atri	-11.4874
atrice	-10.7779
ats	-9.73175
▁attaqu	-10.2273
attaque	-10.1215
▁attaque	-9.4308
▁atteign	-9.80152
▁atteindre	-10.2338
atteindre	-10.5064
▁atteint	-9.18258
atten	-11.3755
▁attend	-10.0504
attend	-10.2022
attendait	-10.1621
▁attendez	-10.3138
▁attendre	-10.1609
attendre	-9.9078
▁attendu	-10.9593
attentat	-10.7911
attente	-10.6492
attention	-10.2047
▁attention	-9.65272
▁atterrir	-10.9659
atterrir	-11.7236
▁atterrissa	-10.4166
atterrissa	-11.7242
▁attiré	-10.9577
▁attire	-11.5502
▁attirer	-10.4179
▁attitude	-10.5283
attitude	-11.7241
▁attra	-10.955
▁attraction	-10.2294
attraction	-10.9409
▁attrap	-10.9533
▁attrapée	-11.42
▁attribuées	-11.4077
atural	-10.8704
aturne	-11.4092
▁Au	-10.5006
▁au	-5.57812
▁Au	-8.16786
au	-8.25457
aube	-10.8342
▁auberge	-10.3123
Auckland	-10.2212
aucun	-10.9326
▁aucun	-8.81799
▁Aucun	-9.64349
aucune	-10.7824
▁aucune	-8.95022
aud	-9.68882
audience	-10.9577
auf	-10.6383
aug	-9.92648
▁augmenté	-10.6482
augmenter	-9.98953
aujourd	-10.3959
▁aujourd	-8.03551
▁Aujourd	-9.98951
▁auparavant	-9.46696
▁aura	-9.53875
aurai	-10.1304
▁aurait	-8.51449
▁aurez	-10.1604
aurez	-10.7763
auri	-11.5951
▁Aus	-10.4578
▁Aussi	-10.9578
▁aussi	-7.39343
▁austral	-10.7113
▁Australi	-11.6864
▁Australi	-8.77933
▁Australie	-10.4972
Australie	-9.626
▁australien	-10.5475
Australien	-11.0988
▁australiens	-10.5637
▁Aut	-10.871
aut	-10.9037
▁autant	-9.34999
▁auteur	-10.5552
auteur	-9.97909
authentique	-10.9577
▁auto	-10.0771
▁autochtones	-9.98951
▁automatique	-10.4122
automatis	-10.9629
automobil	-10.9577
▁autonome	-11.4079
autorisation	-10.7927
▁autorisé	-10.2212
▁autorise	-11.2618
▁autoriser	-10.8799
autorité	-10.584
▁autorités	-8.78239
autoroute	-10.7911
▁Autre	-10.5265
▁autre	-7.82858
autre	-8.14963
▁autrefois	-9.50687
▁autrement	-10.4581
autres	-7.25349
▁autres	-7.58149
Autriche	-10.9619
▁aux	-6.58653
aux	-7.894
▁av	-10.0762
av	-9.1843
▁Av	-9.78517
avai	-9.48442
▁avait	-7.29472
avait	-9.04713
▁aval	-10.6793
avalanche	-10.9579
avance	-9.04103
▁avancée	-11.4077
▁avansi	-10.8688
▁avant	-7.69169
avant	-9.97924
▁avantage	-9.64877
avari	-11.4835
avec	-6.3158
avenir	-10.1995
▁aventur	-10.7962
aventure	-10.7861
▁avenue	-8.86836
▁avéré	-10.9579
▁averti	-10.61
▁avertissement	-10.9599
▁aveugle	-11.4077
▁avez	-7.80368
avez	-8.40501
▁Avi	-11.2904
▁avia	-10.9166
▁aviaire	-10.2212
avid	-10.5235
avie	-11.6158
avière	-11.4365
avion	-10.3966
▁avion	-8.31087
▁avion	-9.39222
▁avions	-9.80253
▁avis	-9.22634
avis	-9.88208
▁aviyôn	-10.1374
▁aviyon	-9.665
▁aviyɔn	-10.7021
avocat	-10.0603
▁avocats	-10.9593
▁avoir	-7.38157
avoir	-9.16476
▁avoka	-10.5593
▁avort	-11.1073
avortement	-11.0011
▁avril	-10.5304
▁avril	-11.0875
avril	-11.3908
avy	-10.8681
▁aw	-7.08991
▁Aw	-9.78369
awa	-10.6795
awan	-10.746
▁Award	-10.9577
awoloma	-11.6527
awou	-10.9262
▁awɔ	-11.3339
axi	-10.9672
ay	-8.9985
▁Aya	-10.2906
▁aya	-7.77929
aya	-9.6743
ayant	-8.73386
ayat	-10.9164
▁ayé	-7.76897
▁aye	-8.75863
▁Ayé	-9.60379
aye	-9.94774
▁Ayéssé	-10.8806
▁ayi	-8.21761
▁ayira	-10.4397
▁ayiwa	-9.71318
▁Az	-10.9038
▁Azerbai	-10.8687
▁Azi	-10.4822
azo	-10.5467
azz	-11.1145
▁b	-6.47158
▁b	-7.79551
▁B	-8.02377
▁B	-8.13998
b	-8.31303
b	-8.35556
B	-9.37005
B	-9.5392
▁Ba	-10.4048
bâ	-10.8631
bà	-10.8632
▁ba	-5.68102
ba	-6.42876
▁bâ	-7.82618
▁Ba	-8.83288
ba	-9.16122
▁bà	-9.71711
▁baa	-8.02932
▁Baa	-9.973
▁baakè	-10.8809
▁Baara	-10.4348
▁baara	-7.74525
baara	-9.67695
▁baarada	-10.8907
▁Baarak	-10.878
▁baarake	-11.6626
▁baarakè	-9.51006
baarakètcho	-11.6509
▁baasi	-10.1447
▁Bab	-10.5568
bab	-10.664
▁Bab	-11.0284
▁baba	-10.0067
▁babo	-10.7911
▁babos	-11.3263
babuya	-11.6519
▁bac	-11.4961
bachi	-11.5729
▁Bachmann	-10.9577
▁bactéri	-11.7296
▁bactérie	-10.9214
▁bactéries	-10.551
▁bad	-11.1916
▁badji	-9.51569
▁badjou	-10.1389
▁bafè	-10.0805
baga	-7.57724
▁baga	-7.5774
▁bagabaga	-10.9251
▁bagage	-10.3121
▁bagaman	-10.9955
▁bagan	-10.56
▁bagara	-9.08867
▁bagarada	-10.8862
▁bagarakè	-10.9802
▁bagarre	-11.4077
▁bagato	-10.1478
bagato	-11.123
bagatô	-9.76561
bagatɔ	-11.108
bagaw	-7.97461
▁bagaw	-8.24838
▁bah	-11.4086
▁baie	-10.7921
▁baign	-10.7911
▁bail	-11.4084
bains	-10.0616
▁baiser	-10.7911
▁baisser	-10.9577
▁baji	-9.93692
▁bakè	-9.7472
▁bakou	-10.7359
▁bal	-10.0657
▁Bal	-10.0935
▁Bal	-10.2806
▁bala	-10.4932
▁balan	-10.5896
▁balance	-11.1582
▁balaw	-10.3779
▁balcon	-11.4099
▁baleman	-10.1324
▁Bali	-11.0012
bali	-8.1927
▁bali	-8.57082
balima	-11.3519
▁balima	-9.77287
▁balimacɛ	-11.6539
▁baliman	-9.60093
baliw	-11.0986
baliya	-9.52336
ball	-10.3159
ball	-9.79578
▁balle	-10.421
▁balnéaire	-11.4077
balo	-10.9283
▁balo	-8.68898
▁balobaga	-11.6558
▁balola	-10.3667
▁balôn	-10.8907
▁balon	-9.50081
▁balontan	-10.6792
▁balontanla	-11.3645
▁balora	-11.375
▁balɔn	-10.7104
▁balɔntan	-10.8689
▁balti	-11.3192
▁Balti	-11.641
▁Baltic	-10.8768
▁Baltique	-10.5232
bama	-10.7144
▁bamba	-10.0561
▁bamousso	-10.2279
▁bamuso	-9.51256
▁Ban	-10.0595
▁ban	-6.97573
▁ban	-9.95596
bana	-10.0832
▁bana	-7.60352
▁Bana	-9.47324
▁banabagatô	-10.4353
▁banabagatoh	-10.8687
▁banakisè	-9.90104
▁banakiss	-11.5742
banan	-10.8718
▁banan	-8.69281
▁banankisè	-10.8693
▁banba	-11.1098
▁banbali	-10.7449
banbali	-11.6456
▁banban	-11.166
▁banc	-10.0617
band	-10.7785
▁bande	-9.86136
banga	-10.8182
▁bange	-10.0563
▁bangi	-11.3486
▁bangu	-10.8714
banin	-10.9251
bank	-10.9994
bank	-11.6162
▁banki	-9.66763
banni	-10.8681
▁banque	-9.46241
▁banquet	-10.8033
▁banqui	-11.1581
▁baou	-10.6237
▁baptisée	-10.9659
baptisée	-11.7236
baptiste	-11.4077
▁bar	-10.3505
▁Bar	-10.9285
▁Bar	-11.646
▁bar	-8.9585
▁bara	-6.39583
bara	-9.41285
▁Bara	-9.71631
▁barada	-9.94583
▁baraka	-9.18612
barakan	-11.664
▁barakê	-10.9921
▁Barake	-10.9948
▁barakè	-9.05419
▁barake	-9.31931
barakela	-11.6402
▁barakèla	-9.74668
▁barakera	-10.8864
▁barakɛ	-8.92471
▁barakɛla	-10.4988
▁barakɛyɔrɔ	-11.0717
▁barala	-9.61369
barani	-10.8377
baranin	-10.3604
▁barb	-11.2355
▁barbe	-10.6868
▁Barc	-11.6608
▁Barcelon	-10.5232
▁Barcelon	-10.8687
▁bari	-8.62774
barigo	-11.6492
▁barigo	-9.72383
barika	-11.6564
▁barika	-9.33601
▁barikam	-11.6549
▁barikaman	-10.4458
▁Baris	-10.963
bariya	-10.8465
▁barka	-11.0729
▁barke	-11.3327
baro	-10.5512
▁baro	-9.68434
▁barr	-10.8615
barra	-11.6602
▁barra	-9.30212
▁barre	-10.7071
▁barrière	-11.1593
▁bartel	-11.6524
▁barth	-11.159
Bas	-10.8524
▁bas	-8.4499
bas	-9.41754
▁base	-8.66961
▁basé	-9.13844
▁baseball	-11.4087
▁basée	-9.59549
basen	-10.9534
▁basi	-10.3252
▁basigini	-11.64
▁basiginin	-9.71454
▁basikɛt	-11.6522
▁basket	-10.2212
▁basket	-10.7021
▁basse	-9.99694
▁bassi	-10.6815
bassi	-11.3996
bassigui	-11.6643
▁bassigui	-9.90198
▁bassiguini	-10.1412
▁bassin	-10.4123
▁bat	-11.1733
▁bataill	-11.7304
▁bataille	-9.65417
▁batailles	-10.6228
▁bateau	-9.38631
▁bateaux	-9.92362
▁bâtie	-10.7911
▁bâtiment	-10.022
▁bâtiments	-9.62097
▁bato	-8.21067
▁Bato	-9.42058
▁batoli	-9.96772
▁batt	-9.91941
battant	-11.5394
▁battre	-10.2235
▁battu	-10.4219
▁bavardage	-11.4077
▁Baw	-11.119
▁baw	-8.41292
baw	-8.74863
Bay	-10.7293
baya	-10.0912
▁bayèlèma	-10.4787
BC	-11.6526
▁Bè	-10.7513
bë	-11.3193
▁be	-4.75191
▁bé	-5.415
▁bè	-5.64471
bé	-7.34809
bè	-7.59431
be	-7.72807
▁bê	-8.61692
▁Be	-9.23882
bê	-9.86956
▁beau	-9.0985
▁beaucoup	-7.81575
▁beauté	-10.0617
▁Beauty	-10.9577
beaux	-10.3075
▁bébé	-10.2213
bec	-10.7189
bèè	-10.435
▁bèè	-7.5536
▁béfô	-10.4549
▁began	-11.0065
▁bèguè	-10.9007
▁beh	-9.39206
▁béhi	-10.1584
▁behi	-9.1165
▁bei	-7.7542
bei	-8.80241
bein	-10.915
▁beka	-9.77636
▁bèkè	-10.9963
▁bel	-10.0188
bel	-10.4065
▁bèla	-9.63148
bele	-10.4412
▁bélé	-9.54036
▁bele	-9.71348
béleb	-11.6649
▁bélébélé	-10.1305
▁belebele	-9.70899
▁bélébéléba	-10.4365
▁belebeleba	-9.77523
▁Belg	-11.4588
▁Belg	-9.98963
▁belge	-10.5239
▁Belgique	-9.71253
▁Bell	-11.1497
▁Bell	-11.3402
▁belle	-9.25554
▁bèman	-10.7517
▁bèn	-10.1898
bèn	-10.3374
▁Bèn	-10.8865
▁ben	-8.7517
▁bena	-7.93174
▁béna	-8.71168
▁bèna	-9.53425
▁bènan	-9.16096
▁bénan	-9.41035
▁bènb	-10.8772
▁bénéfiques	-10.9577
▁bénévol	-9.98951
bèni	-10.2052
▁béni	-10.6242
▁bènka	-10.5299
▁benkan	-10.5919
▁benna	-11.0206
▁benni	-10.8937
ber	-10.7568
▁Ber	-10.9499
▁bér	-10.9774
▁ber	-9.60256
▁béré	-10.341
▁Béré	-10.8698
▁bere	-10.9437
bère	-10.9767
bèrè	-10.9923
bêrê	-11.6513
▁bèrè	-8.55137
▁bèrèbè	-11.4956
bêrêma	-10.8696
berg	-10.1023
berg	-10.8966
bèri	-10.9291
béri	-9.95263
▁berlin	-10.6574
▁berlin	-10.7021
▁Berlin	-9.64333
▁Berlin	-9.90051
▁bernard	-11.1577
▁bèrô	-9.73458
bert	-10.1972
bés	-11.5921
▁bésé	-8.40407
bésé	-9.87668
▁besoin	-8.25105
▁bèssé	-10.57
bet	-10.4624
bet	-11.3533
▁bête	-10.6482
beth	-11.4114
beth	-11.654
▁bêtise	-11.1577
▁beto	-9.49731
bey	-11.696
▁bèyé	-10.6248
▁beye	-9.84357
▁beyi	-8.09271
▁bɛ	-6.81411
bɛ	-9.44937
▁bɛɛ	-8.14436
▁bɛgɛ	-10.6939
▁bɛgɛn	-9.83905
▁bɛl	-11.1273
▁bɛn	-8.96407
bɛr	-10.1631
▁bɛra	-10.4485
▁bɛrɛ	-11.0356
▁bɛrlɛn	-11.6521
▁bɛrtra	-11.6521
▁Bh	-11.0062
▁bhajan	-10.1322
▁bhajan	-10.2212
▁Bhog	-10.9578
▁Bhutha	-10.8687
▁Bi	-10.2377
▁bî	-10.4429
Bi	-10.8906
▁bi	-4.65191
bi	-7.61754
▁Bi	-8.44489
▁bi	-8.86075
▁bibelots	-11.4077
▁bibl	-10.8986
▁bibl	-10.9819
▁biblioth	-11.1577
▁Bichkek	-10.5232
▁bidourou	-10.4373
▁biduru	-10.2265
▁biduuru	-10.0488
▁bié	-8.93776
▁biè	-9.463
▁bien	-10.3705
▁bien	-6.59665
▁Bien	-8.01488
bienne	-11.4304
▁bientôt	-10.5316
bier	-11.4187
bière	-10.3821
▁Big	-10.3387
▁bigan	-9.29181
▁biganw	-9.73623
▁bii	-8.50572
▁bikɔnɔntɔn	-10.8687
▁bila	-7.22639
bila	-9.62799
bilako	-10.4369
▁bilasira	-10.14
▁bilatéra	-11.6669
▁bilayôrô	-9.95713
bili	-8.59227
bill	-11.4506
▁billet	-9.09429
▁bilorou	-8.92557
▁biloru	-9.97198
▁bin	-8.46227
bin	-9.70036
bina	-10.4199
▁Bina	-10.9433
▁bina	-7.20273
▁binaani	-9.4628
▁binaire	-10.5234
▁binan	-10.7102
▁binani	-8.88775
▁binkan	-10.3335
▁binkélémany	-10.8687
▁bio	-10.7971
▁biologique	-11.7011
▁biologiques	-10.5406
biologiques	-11.7241
▁Bir	-11.3846
biri	-9.91487
▁biro	-10.1307
▁bis	-9.77835
▁bisaaba	-9.46192
▁bisaba	-8.47737
▁biseegi	-9.65716
▁biségui	-10.4484
▁Bish	-10.4375
▁bisi	-9.65796
▁bisigi	-10.156
▁bisigui	-9.4281
▁bisou	-11.0715
▁bissa	-10.6844
bissaba	-11.6455
▁bissaba	-8.69387
▁bissé	-9.8006
▁bissi	-10.9202
▁Bissi	-11.5821
▁bissigui	-9.91778
▁bissimila	-11.3187
▁bit	-10.5517
bit	-11.2203
▁biwolonfila	-9.97193
▁biworo	-10.323
▁biwôrô	-9.50682
▁biwɔɔrɔ	-10.7021
▁biyé	-10.3405
▁bizarre	-11.4077
bl	-10.6512
▁bl	-10.7744
▁blâ	-10.1322
▁Bla	-10.9698
▁bla	-7.63462
bla	-9.30947
▁Black	-10.4344
▁Black	-10.9175
▁Blacks	-10.5502
▁blague	-10.9577
▁blak	-11.3412
▁blala	-9.97869
blanc	-10.4564
▁blanc	-9.86955
▁blanche	-9.98969
ble	-10.9779
ble	-9.63498
blème	-11.4077
bles	-10.0282
▁bless	-10.496
▁blessé	-8.9303
▁blessés	-10.5926
▁blessure	-10.6084
▁blessures	-10.4449
bleu	-10.5295
▁bleus	-10.7919
blin	-11.3734
▁Blo	-10.9021
blo	-11.206
▁bloc	-10.2212
▁Blog	-11.6169
▁blog	-11.7007
▁blogs	-10.5355
▁blogue	-10.2213
▁bloqué	-11.4077
▁bloquer	-10.2212
▁Bô	-11.3605
▁bo	-6.76136
▁bô	-6.84874
bô	-8.1146
bo	-8.15832
▁bo	-9.1856
bo	-9.34057
▁Bo	-9.87573
boarding	-11.6522
▁Bob	-11.6537
▁Bobek	-10.8687
▁Bobek	-10.9577
▁bobo	-11.3492
▁bochi	-10.1374
▁bôchi	-10.8792
▁bôçi	-10.1333
boda	-10.9735
▁bogn	-11.0004
▁bogna	-10.8394
bogna	-10.8638
▁bognan	-8.23056
▁bognin	-10.8772
▁bogot	-11.4209
boh	-10.5315
▁boh	-8.65609
▁bois	-8.97418
▁boisson	-10.9195
▁boissons	-10.0049
▁boit	-11.4389
▁boîte	-10.9659
boîte	-11.7236
boko	-11.1272
bola	-10.1052
▁bôla	-8.68121
bôla	-9.54719
▁bola	-9.77275
bôli	-10.5813
▁boli	-7.81007
▁bôli	-9.2587
boli	-9.59934
▁bolibaga	-11.1811
bolila	-9.58811
▁bolila	-9.97652
▁bolisira	-10.8774
▁Bolo	-10.443
▁bôlô	-10.8816
▁bolo	-6.70668
bolo	-7.90788
▁boloci	-10.8846
▁Bologne	-10.9582
▁boloka	-10.4645
▁bolola	-9.88507
▁bolora	-10.9207
▁Bomb	-10.4578
▁bomb	-9.87874
▁bombe	-9.64334
▁bombou	-10.4368
▁bôn	-10.024
bon	-10.5427
▁Bon	-10.9355
▁Bôn	-10.9439
▁bon	-7.43333
▁bon	-8.15756
bon	-8.69272
▁bonba	-11.4466
▁bonbon	-11.3288
▁bondé	-10.9581
▁bonheur	-11.1577
bôni	-10.4525
▁bôni	-8.63496
▁bonjou	-10.9542
▁bonjour	-10.7941
▁bonkɔnɔ	-11.3666
▁bonna	-10.9625
▁bonne	-8.26248
▁bonnes	-9.99673
▁bons	-9.88824
▁bonya	-10.8234
▁boɲɛ	-10.0312
▁boɲɛn	-11.3688
▁boɲɛna	-11.3403
▁boo	-10.5076
▁Boo	-10.8757
▁boomerang	-10.5233
Boot	-10.9577
bor	-10.3541
▁Bor	-10.723
▁bor	-9.27775
▁Bor	-9.66459
bôra	-10.9814
▁bôra	-8.57799
▁bora	-9.67999
bord	-11.7152
▁bord	-8.84724
▁borg	-11.4136
▁bori	-7.42366
▁borife	-10.1789
borifén	-11.6442
▁borifén	-11.6643
▁boriféng	-10.4359
▁borikèla	-10.8777
▁borila	-9.85424
born	-11.4353
boro	-10.4028
▁bôrô	-10.6745
▁boro	-7.52445
▁borola	-10.5837
boroman	-11.6544
▁boroman	-9.57225
borow	-10.8858
▁bosse	-10.9883
bôssi	-10.5658
▁bôssi	-10.89
▁Bot	-11.0769
▁botaniques	-10.9577
▁bottes	-10.0611
▁Bou	-10.1978
▁bou	-8.81653
▁bou	-9.57841
bouc	-10.9255
▁boud	-10.8791
▁bouddhis	-10.5232
▁bouger	-10.958
▁bougn	-10.2483
▁bougô	-10.0495
▁bougo	-11.6571
▁bougou	-10.0573
bouill	-10.6426
▁boulangerie	-10.9577
▁boule	-10.6108
▁boules	-10.5608
▁boulevard	-9.69333
▁boulevers	-10.9577
▁boulo	-11.4086
▁bouô	-10.4401
bouô	-10.8619
bouo	-10.8627
▁bouo	-9.61258
bouoh	-9.27833
bour	-10.4677
bourg	-10.0338
bourou	-9.54547
▁bourou	-9.91357
▁bouroudjou	-10.8689
▁bout	-9.27457
▁boute	-11.3764
▁bouteille	-9.80159
▁boutiques	-10.5235
▁bouton	-10.826
▁bouton	-11.3217
▁Bow	-10.917
▁Bow	-10.9588
bow	-11.1152
▁bow	-9.00544
▁boyan	-9.77794
▁boyè	-11.6603
▁boyi	-10.7261
bôyô	-11.6562
▁bɔ	-7.55844
bɔ	-9.78369
▁bɔgɔ	-11.6641
▁bɔn	-9.95954
▁bɔnbɔn	-11.6521
▁bɔni	-10.3501
▁bɔɔra	-11.3188
bɔra	-11.2863
▁bɔra	-8.49792
▁bɔsi	-11.1096
▁bɔyɔrɔ	-11.3271
▁br	-10.5408
▁br	-9.39268
▁Br	-9.92379
bra	-10.94
▁bran	-10.5408
▁Bran	-10.9592
▁Bran	-11.3558
▁branche	-10.7911
▁brand	-11.1582
▁bras	-9.35022
▁brasserie	-11.4078
▁brave	-10.9577
▁Brazilian	-10.8687
bre	-10.6712
▁bré	-10.7252
Bre	-11.6474
bre	-9.70278
▁bre	-9.96323
▁bref	-10.6494
▁brésil	-11.4785
▁Brésil	-9.80152
▁brésilien	-11.1058
▁bret	-10.5653
Bretagne	-9.64333
▁breton	-10.0611
▁bretɔn	-11.0691
▁brev	-10.6879
▁brev	-9.90051
▁Brezil	-10.8689
▁bri	-10.9615
▁Bri	-10.9854
▁brik	-11.6632
▁brisé	-10.5233
▁brise	-9.9236
▁Britannique	-10.9577
▁britannique	-9.06651
▁bro	-10.0749
▁bro	-11.4666
bro	-11.6442
▁broc	-11.4686
▁brochure	-11.4077
▁bronze	-11.1577
brook	-11.4133
▁Brother	-10.9577
brou	-10.9829
bru	-10.3633
▁bru	-10.4855
▁bruit	-10.6084
▁bruits	-10.6905
bruk	-11.4695
▁brûl	-10.4085
▁brûler	-10.964
▁brun	-10.3319
▁brusque	-11.4078
▁brut	-9.93085
▁bruy	-11.161
▁Bu	-10.1013
▁bu	-8.36307
bu	-9.42356
bu	-9.69134
▁bu	-9.81377
▁Bu	-9.97363
▁budget	-10.5233
▁Buffalo	-10.2212
▁Buffalo	-10.4343
bug	-11.2485
▁bugɔ	-9.64496
bugu	-11.0639
▁bugu	-11.3355
bul	-10.2887
▁bulalam	-11.6539
▁bule	-11.083
▁buo	-9.91152
▁bureau	-9.38618
▁bureaux	-10.793
burg	-10.3968
burg	-10.5662
▁buru	-10.021
buru	-9.80952
▁Bus	-10.0147
Bus	-11.6482
▁bus	-8.93089
▁Bush	-9.98954
▁busi	-11.3426
▁but	-10.9254
▁but	-9.17709
▁buts	-9.93952
by	-10.0714
by	-10.2575
▁By	-10.8815
▁byzantin	-10.9577
▁bz	-11.37
ç	-10.5518
ç	-11.1288
č	-13.2411
▁c	-5.85899
▁C	-6.97088
c	-7.2666
▁C	-7.83801
c	-8.24515
C	-8.37809
▁c	-8.42475
C	-9.37048
▁Ca	-10.0019
CA	-10.4342
ça	-10.9531
▁ça	-7.32451
▁ca	-7.98594
▁ca	-9.02049
ca	-9.43812
ca	-9.5817
▁caa	-10.2347
▁caama	-10.0416
▁caaman	-9.38193
cab	-10.9165
▁cabane	-10.7911
▁cabine	-10.0609
▁câble	-10.5232
▁Cabo	-10.8737
▁Cabo	-10.9578
▁caca	-10.9585
▁caché	-10.5233
▁cache	-9.91532
▁cad	-10.5604
▁Cad	-10.8726
cad	-11.0222
▁cadre	-8.76218
café	-11.7248
▁café	-9.28083
▁caillo	-11.4077
cain	-11.3218
cain	-11.4166
caisse	-10.7982
▁cal	-10.1201
▁Cal	-10.9272
cal	-11.3329
▁calcium	-10.9577
calcul	-10.9579
cale	-11.3564
▁calend	-10.7914
▁calibr	-11.4078
▁Califor	-10.863
▁Californi	-10.135
▁Californie	-10.2231
▁calv	-11.3071
▁cam	-10.7778
▁Cam	-11.3834
▁cama	-9.65674
▁caman	-7.83804
▁Camb	-10.8045
▁Cambodge	-10.5232
▁Cambridge	-10.9578
▁caméra	-10.1379
▁camion	-10.9579
▁Camp	-10.961
▁camp	-11.6635
▁camp	-9.5974
▁campagn	-10.4356
▁campagne	-9.09431
▁camper	-9.9947
▁camping	-9.64369
▁campus	-11.4096
can	-9.67035
cana	-11.5995
▁Cana	-9.90353
▁canad	-10.3121
▁canada	-11.3192
▁Canada	-9.38699
▁Canada	-9.41821
▁canadien	-10.8687
▁canadienne	-11.408
▁canal	-9.80214
▁canapé	-11.4077
▁canard	-11.1578
▁cancer	-10.2212
▁cancer	-10.4343
▁candidat	-10.1379
▁cannibale	-11.4077
çant	-9.98637
▁canyon	-9.98951
▁cap	-11.5691
▁Cap	-9.65791
▁cap	-9.7154
▁Cap	-9.99068
capable	-11.7252
▁capable	-9.31604
▁capacité	-9.14355
▁capacités	-9.87828
▁capita	-8.80425
▁capitaine	-9.86127
▁capital	-9.22375
▁capteur	-10.9578
▁captur	-11.4015
▁capturé	-10.526
car	-10.484
▁Car	-10.8857
car	-10.9026
▁car	-11.2058
▁car	-7.78613
▁Car	-9.92852
▁caractère	-9.74596
▁caractéris	-11.406
caractéristiques	-9.64363
▁Caraïbes	-10.9577
▁carbon	-11.6493
▁carbone	-10.8704
▁carbone	-9.86035
▁carburant	-9.80152
▁card	-11.3611
▁cardi	-10.9907
carlo	-11.4453
▁caro	-10.9978
▁Caro	-11.3125
caro	-11.6544
▁caro	-9.089
▁Carol	-10.2215
▁carré	-10.9192
▁carré	-9.90053
▁carrés	-9.81418
▁carrière	-9.69556
▁carro	-11.4125
▁carrosse	-10.649
▁Cart	-11.3531
▁carte	-9.43971
▁cartes	-9.38548
▁carti	-9.3763
▁Cas	-10.9741
▁Cas	-11.5201
▁cas	-7.95359
▁Casa	-10.1353
▁Casa	-9.99135
▁casi	-10.7202
▁casino	-10.4121
▁Caspienne	-10.9577
▁cassé	-10.951
▁cassée	-11.1698
▁cata	-11.1087
▁catalan	-9.98951
▁catastrophe	-10.9619
▁catégori	-11.7144
▁catégorie	-9.46791
▁cath	-10.7922
▁catholique	-9.98951
cation	-11.5658
▁cauc	-11.408
▁cause	-8.66571
▁causé	-9.34965
▁caution	-10.9578
▁cavalerie	-10.4121
▁cavalier	-10.1379
▁caya	-10.3993
cc	-11.6067
cci	-11.3731
ccidan	-10.8923
cé	-10.1747
CE	-11.6528
▁ce	-6.06172
ce	-6.63426
▁Ce	-7.08077
ce	-8.52754
▁ce	-9.17293
céanie	-11.5465
ceaux	-10.5564
▁Ceci	-10.2305
▁céci	-10.6772
cédé	-11.7122
▁cee	-10.3499
▁cel	-11.5328
▁Cel	-8.76411
▁cela	-7.53954
▁célébr	-10.5224
▁célèbre	-8.93831
▁célébrés	-11.4091
▁célébrité	-10.5235
▁celil	-10.443
cell	-10.7566
▁Cell	-10.8152
▁cell	-10.9935
▁celle	-8.69368
▁celles	-9.22657
cellulaire	-10.9587
▁cellule	-9.88457
▁cellules	-9.37214
▁celui	-8.57838
▁ceman	-11.354
▁cen	-11.3837
▁cens	-10.519
▁censé	-10.3195
▁cent	-11.3363
cent	-11.6489
▁cent	-7.57517
▁centaine	-10.7957
cente	-10.7937
▁cente	-11.2362
▁Center	-10.9586
▁centi	-10.8744
▁centim	-11.1646
▁centr	-10.9594
▁Central	-10.1322
▁central	-9.63572
▁centrale	-9.25198
▁centre	-8.6557
▁cents	-9.51545
CEP	-10.4342
CEP	-10.983
cep	-11.1214
▁cependant	-8.79367
▁cerc	-11.2232
▁cercueil	-11.4078
▁cérébra	-10.9514
▁cérébrale	-11.4177
▁cérémonie	-10.751
▁cérémonies	-10.4405
▁cerisier	-10.7911
▁cert	-10.6612
▁certain	-9.27886
▁Certain	-9.34822
▁certaine	-7.97276
▁certainement	-10.5686
▁certains	-7.85666
▁Certains	-8.76264
▁cerveau	-9.80152
ces	-10.2581
▁ces	-7.46574
▁cesse	-10.834
cesseurs	-10.5233
▁Cet	-10.161
▁cet	-8.36242
cette	-7.05029
▁ceux	-8.60334
▁cɛ	-7.51186
cɛ	-8.34198
▁cɛɛ	-11.3275
▁cɛgɛda	-11.6521
▁cɛjugu	-11.6482
▁cɛjuguni	-11.3233
▁cɛkaɲ	-11.6447
▁cɛkaɲi	-10.7049
▁cɛma	-9.44045
▁cɛman	-10.4124
▁cɛmancɛ	-11.0693
cɛn	-10.9099
▁cɛn	-9.49886
▁cɛni	-11.0452
▁cɛɲuman	-11.6683
▁cɛɲumani	-9.65839
▁Ch	-10.175
▁Ch	-10.213
ch	-8.09053
ch	-8.54747
▁ch	-8.91676
▁ch	-9.5695
cha	-10.0601
▁Cha	-10.4435
▁cha	-7.85718
▁Cha	-8.87459
▁cha	-9.03329
▁chaama	-10.5356
chaaman	-11.392
▁chacun	-9.06661
▁chaise	-10.6099
▁chaises	-9.32468
chaisi	-10.8892
chal	-11.0051
chama	-10.8691
▁chama	-8.96634
chaman	-10.8778
▁chaman	-7.44232
▁chamanw	-10.3826
▁Chamb	-10.2218
▁Chambers	-10.8687
▁Chambers	-10.958
▁chambre	-10.0217
▁chambres	-9.8936
▁champ	-10.7026
▁champ	-9.38678
▁champignon	-10.5232
▁Champion	-10.9577
▁Championnat	-10.9578
▁championnat	-9.98951
▁chance	-9.92387
▁Chandra	-10.8687
▁Chandra	-10.9578
change	-11.1432
▁changé	-9.64336
▁change	-9.76471
▁changement	-8.97554
▁changements	-10.0271
▁chanson	-9.92285
▁chant	-9.75147
▁chante	-10.9841
▁chanter	-10.9738
▁chanteur	-9.99561
▁chanteuse	-10.4129
▁chaos	-11.4091
▁chapelle	-10.6482
char	-10.3332
char	-10.5121
▁Char	-11.5717
▁char	-9.99965
▁charbon	-11.4079
▁chargé	-10.4121
charge	-10.9033
▁charge	-9.09438
▁chari	-10.6958
▁charia	-9.66055
▁chariot	-11.4077
chariya	-11.6477
▁chariya	-8.89979
▁charl	-11.2994
▁Charl	-9.91805
▁charle	-10.7022
▁charles	-10.525
Charles	-9.80165
▁Charlotte	-10.4342
▁Charlotte	-10.5232
▁charm	-10.5883
▁charmant	-10.9787
▁charn	-11.1285
▁charr	-10.8899
▁chars	-10.5939
▁Chase	-10.8693
▁chassai	-11.4278
▁chasse	-9.31249
▁chasseur	-10.6601
▁chât	-10.9571
▁chat	-9.65677
▁château	-9.9893
▁châteaux	-10.7922
▁Chatham	-10.9577
chats	-11.4349
▁chaud	-9.43967
▁chaude	-10.1934
▁chauds	-9.79935
▁chauff	-10.5232
▁chaum	-11.4169
▁chauss	-10.5242
▁chaussures	-10.2212
chaya	-11.0713
▁ché	-10.7143
▁Che	-11.5539
che	-9.15343
che	-9.96149
▁chef	-8.52178
▁chefs	-10.5754
▁chegi	-10.7024
chégui	-10.427
▁chégui	-9.90462
chell	-11.641
chem	-10.3281
chem	-11.6554
▁chemin	-8.1585
cheng	-11.6523
cheng	-11.7079
cher	-10.8788
▁cher	-8.4251
▁cherch	-10.424
▁cherche	-10.9167
▁chercher	-10.6554
▁chercheur	-9.59941
▁chère	-10.7953
chés	-11.4294
chest	-10.873
chester	-11.32
chet	-9.51254
chev	-10.5154
▁cheval	-9.69334
▁chevaux	-10.2212
▁cheve	-11.1513
cheveux	-10.6616
▁chevr	-10.9581
▁chèvres	-10.5232
chèya	-11.6502
chez	-8.45306
▁Chha	-10.524
▁Chha	-11.4791
Chi	-11.6479
▁chi	-7.82868
chi	-8.68435
▁Chi	-9.17737
▁chia	-10.2058
▁chiama	-11.6546
▁chiaman	-8.92554
▁chic	-10.6488
▁chien	-9.88242
▁chienne	-10.318
▁chiens	-9.62512
chiffr	-10.9576
▁chiffre	-10.1816
▁chiffres	-10.2625
chigui	-11.6452
▁chili	-11.408
▁Chili	-9.80152
▁chimi	-10.8911
▁chimique	-9.64333
▁chimpanzé	-10.9577
chin	-10.7346
▁Chin	-9.72789
▁Chine	-8.86839
▁Chini	-10.4708
▁chinoi	-10.8702
▁Chinoi	-9.90686
▁chinois	-11.149
▁chinoise	-10.5288
chio	-11.4171
▁chirurgie	-10.9577
▁chiya	-10.245
chne	-10.0843
▁cho	-11.0528
▁choc	-9.50678
chogoya	-11.6512
▁choisi	-10.1344
▁choisir	-10.4167
▁choix	-9.74596
chôkô	-10.8903
▁chôkô	-11.3303
▁chômage	-11.4077
chose	-11.7259
▁chose	-8.31531
▁choses	-8.6458
▁chou	-10.2229
▁chou	-10.2359
▁chouhou	-10.8699
▁chrétien	-10.4226
▁Chrétien	-10.4342
chrétien	-10.7741
▁chrétienne	-10.9599
▁Christ	-10.9569
▁Christ	-11.6367
▁Christi	-10.8759
▁christianisme	-10.7911
▁chron	-10.7912
chu	-10.3393
chu	-10.596
church	-11.4078
▁chute	-10.1821
▁chutes	-9.82811
chy	-10.2616
chy	-11.476
▁Ci	-10.0194
çi	-10.1358
ci	-7.85841
ci	-8.44443
▁ci	-9.71307
▁ci	-9.89657
cia	-10.5917
▁cia	-10.9087
cian	-10.9537
ciation	-10.8699
▁cible	-10.4388
cides	-10.4424
cie	-10.2962
cie	-11.0055
▁ciel	-9.09442
cien	-10.5334
cience	-10.9562
cientifi	-11.6513
▁cii	-9.98584
▁cimetière	-10.7911
▁cin	-9.6922
▁cinéma	-9.98951
cinn	-11.6669
▁Cinq	-10.5674
▁cinq	-8.24959
cinq	-9.1976
▁cinquante	-8.89107
▁cinquième	-9.42511
▁cir	-11.5005
▁cira	-10.4445
▁circonstances	-10.5232
▁circul	-11.407
▁circulation	-9.64346
▁Cit	-10.7911
cité	-10.6602
▁cité	-9.66186
▁citer	-10.4125
▁citoyen	-11.7024
▁citoyens	-9.46919
▁civi	-10.7146
▁civi	-10.9384
▁Civil	-10.8688
▁civil	-9.31824
▁civili	-10.8744
▁civilisation	-9.09432
ck	-10.1152
ck	-9.14152
cker	-11.1707
cks	-11.1171
Cl	-10.6276
▁cl	-10.8188
▁cla	-11.2289
▁clair	-9.99339
▁claire	-10.5168
▁clarifie	-11.1577
▁classé	-10.3122
▁classe	-8.6405
▁classement	-10.432
▁classer	-10.9948
▁classi	-9.90081
▁classique	-11.7003
▁classiques	-10.8074
▁clav	-11.3219
▁clavi	-10.7911
cle	-10.0296
▁clé	-10.4325
clé	-10.5088
▁cli	-10.9938
▁client	-10.4854
▁clients	-10.0134
▁climat	-10.2285
climat	-10.9409
▁climatique	-11.4085
▁climatis	-11.1592
▁cliquet	-11.4078
▁clos	-9.99189
▁clôture	-10.4121
▁cloud	-11.4077
▁club	-10.8688
▁club	-9.24608
▁cm	-11.6528
▁cô	-10.1526
CO	-10.5831
▁CO	-10.8809
cô	-10.9508
co	-8.745
▁co	-8.75745
▁co	-8.87363
co	-8.98295
▁Co	-9.72741
▁Co	-9.92009
cock	-10.8013
cock	-10.9636
▁code	-10.5295
▁coeur	-11.4146
▁cœur	-9.34961
▁cogn	-10.6489
▁cogo	-7.71375
cogo	-9.96916
▁cogodi	-10.2294
▁cogojuma	-11.6528
cogoya	-10.4992
▁côgôya	-10.869
▁cogoya	-9.95357
▁cogoyasi	-11.0726
▁cohérence	-10.7911
▁cohérent	-10.9577
▁coin	-10.5285
▁coincé	-10.9577
▁col	-11.062
▁Col	-11.6507
▁col	-9.77372
▁Colbert	-10.9578
cole	-10.7949
▁Coll	-10.957
▁collabor	-10.412
▁collaborateur	-10.9579
▁collé	-11.4092
▁collecte	-10.5232
▁collecté	-11.4077
▁collectif	-10.5232
▁collectionneur	-11.1577
▁collectivité	-11.4077
▁collègue	-10.9578
▁colli	-10.5224
▁colline	-9.69388
▁Colo	-11.577
▁colon	-10.6642
▁colonel	-10.6484
▁colonial	-10.5232
▁colonie	-10.0611
▁colonisation	-11.158
▁colonne	-11.4088
▁Com	-10.1694
▁com	-10.9339
▁com	-8.78263
▁Com	-9.76102
▁combat	-9.38665
▁combattants	-11.1577
▁combi	-8.79221
combin	-11.7244
▁combin	-9.79877
▁combiné	-10.2766
▁combl	-10.9972
▁comédiens	-11.4077
▁comi	-11.5337
▁comit	-10.985
▁comité	-10.654
▁comm	-11.3226
▁command	-11.326
▁commande	-10.1379
▁commandée	-11.4078
▁comme	-6.51404
▁Comme	-8.77316
▁commémor	-11.6034
▁commémorati	-11.244
▁commencé	-8.54481
▁commence	-8.93469
▁commencer	-10.3259
▁comment	-8.16196
▁commentaires	-10.5253
▁commerce	-9.2139
▁commercial	-10.4121
▁commerciaux	-10.4121
▁commis	-10.4121
▁commissaire	-9.64334
commission	-11.7247
▁commission	-9.35117
▁Common	-10.9579
commun	-10.9411
▁commun	-11.4302
▁commun	-9.79551
▁communauté	-9.74668
▁commune	-9.51667
▁communes	-10.5187
▁communi	-11.5152
▁communication	-9.59571
▁communiqué	-11.4077
▁communique	-11.4089
▁Comp	-11.6571
▁compa	-10.8687
▁compact	-11.4077
▁compagni	-10.8721
compagni	-11.6449
▁compagnie	-8.74187
▁compagnon	-11.701
▁compagnons	-10.5355
▁compar	-9.19558
▁comparé	-10.0375
compatib	-11.4081
▁compétence	-11.7015
▁compétences	-10.2301
compétent	-10.7911
▁compétition	-10.3139
▁compilation	-11.4077
▁compl	-10.7914
▁complémentaire	-10.9579
▁complet	-10.9581
▁complète	-10.3088
▁complètement	-10.0635
▁complexe	-9.74596
▁complexité	-10.5232
▁compliqué	-11.1577
▁comport	-10.5106
▁comporte	-10.2958
▁comportement	-8.76268
▁comporter	-10.681
▁composant	-10.4121
▁compose	-10.9578
▁composé	-9.88229
▁composée	-9.72729
▁composition	-10.958
▁compréhensi	-10.7056
compréhension	-10.8845
▁compren	-10.362
▁comprenait	-10.6503
▁comprend	-9.0117
▁comprendre	-8.49814
▁compris	-9.03948
▁comprom	-10.8283
▁compt	-9.66536
▁compte	-8.44061
▁compter	-10.5601
▁comte	-10.8035
comte	-11.7238
▁Con	-10.5181
con	-10.8866
▁con	-8.46403
▁Con	-9.60844
▁con	-9.90109
▁conce	-10.8059
▁concentration	-10.2212
▁concentré	-10.4807
▁concentrée	-11.0271
▁concentrer	-9.92284
▁concept	-10.2209
▁conception	-10.1381
▁concern	-10.1021
▁concerne	-9.48368
▁concernées	-10.7918
▁concert	-9.98962
▁conclu	-10.5216
▁conclure	-10.4136
▁conçu	-10.0621
▁concurren	-11.7299
▁concurrent	-9.92468
▁condamn	-10.7886
▁condamnation	-10.9606
▁condens	-10.9578
▁condition	-10.4836
▁conditionné	-10.9597
▁conditions	-8.97083
▁conducteur	-9.50678
▁conduir	-10.2236
▁conduis	-10.6482
▁conduit	-9.09429
cone	-11.6149
▁conférence	-10.6482
▁confi	-10.0508
▁confian	-11.4507
▁confidentiel	-11.4077
▁confirmé	-10.2125
▁confirme	-10.4154
▁confirmée	-10.3217
▁conflit	-10.5232
▁confond	-10.7916
▁conforme	-11.4084
▁confort	-10.7997
confort	-11.3905
▁confortable	-10.4128
▁confront	-10.5034
▁confronté	-10.6712
▁Cong	-10.4581
▁cong	-10.5923
▁congé	-11.4078
▁conique	-11.4215
▁conjoint	-11.4079
▁conn	-10.3202
▁connais	-10.7516
▁connaiss	-10.3401
connaiss	-11.7239
▁connaissance	-9.27494
▁connaissances	-9.80919
▁connaissez	-9.74666
▁connaissons	-10.7918
▁connaît	-10.7309
▁connaîtra	-11.0319
▁connaître	-9.35003
▁connexion	-9.80152
▁connon	-10.8695
▁connu	-8.6594
▁connue	-9.25515
▁connus	-9.24869
▁cono	-11.6611
conon	-10.4286
▁conon	-7.83386
conondo	-11.6473
▁conondo	-9.90584
▁cononon	-9.42163
▁cônou	-10.8688
▁conqu	-10.9582
conque	-10.9583
▁conquér	-11.2115
cons	-10.6683
cons	-11.6498
▁consacr	-11.3933
▁consacré	-10.317
▁conscience	-9.80152
▁conseil	-10.6042
conseillé	-9.8628
▁conseiller	-10.6482
▁conseils	-9.87853
▁consen	-11.4043
▁consent	-10.7949
▁conséquen	-10.7893
▁conséquence	-9.59625
▁conserv	-10.0682
▁conservateur	-10.2219
▁conservé	-10.2039
▁conserve	-10.5262
▁conserver	-10.6585
▁considér	-10.3008
▁considérable	-9.55068
▁considéré	-8.76739
▁considère	-9.46511
▁considérée	-9.85054
▁consist	-10.8289
▁consiste	-9.68102
▁console	-11.1577
▁consomm	-11.4069
▁consommation	-10.9582
▁consta	-11.142
▁constante	-10.061
▁constaté	-10.3123
▁constate	-10.8021
constitu	-10.8687
▁constitué	-10.1867
▁constitue	-9.42511
▁constituée	-10.4555
▁constitution	-10.5319
constitution	-11.4631
▁construction	-9.27944
▁construi	-10.218
▁construit	-9.34799
▁construites	-10.9726
▁consult	-10.1398
▁cont	-10.8999
▁contact	-9.34965
▁contagieu	-10.9577
▁contaminée	-10.9581
▁conte	-10.8353
▁contemplation	-10.9577
▁contemple	-11.1579
▁contemporain	-11.1577
▁content	-10.8991
▁contente	-10.8565
contente	-11.7236
▁contenu	-9.42527
▁contenue	-11.1569
▁contexte	-10.9577
▁contient	-11.1579
continent	-10.5067
▁continent	-9.79945
▁continental	-11.4599
▁continu	-10.0795
▁continue	-9.91921
▁continuer	-9.79102
▁contr	-11.4162
▁contra	-11.4154
▁contracepti	-11.4078
▁contraint	-10.1079
▁contrainte	-10.5689
▁contraire	-10.063
▁contrat	-11.4111
▁contre	-7.79304
▁contribu	-9.95641
▁contrôl	-10.2432
▁contrôle	-8.75681
▁controvers	-10.7911
▁convention	-11.1583
conventionnelles	-10.9578
▁conversation	-10.7912
▁convi	-10.8831
▁conviction	-10.7912
▁conviendr	-11.4827
▁Cook	-10.8687
▁coopération	-10.4125
▁coord	-10.7986
cop	-11.6192
▁copain	-10.7911
▁Copenhag	-11.6521
▁Copenhague	-10.8687
▁Copenhague	-10.9578
▁copie	-9.27977
▁copine	-11.4078
▁coqu	-11.6928
▁coquille	-11.1578
▁Cor	-10.5426
Cor	-11.2206
▁cor	-11.4416
▁coréen	-10.5229
▁coréenne	-10.9582
cori	-11.4611
▁corn	-11.4047
▁coro	-10.8656
▁corona	-10.8764
▁corona	-11.4108
corp	-10.6487
▁corpor	-11.6762
▁corps	-8.8032
▁corr	-11.1586
▁correct	-10.791
▁correctement	-10.9581
▁correspond	-10.3359
▁correspondan	-11.6479
▁corruption	-10.5232
▁cos	-11.3496
▁cosmonaute	-10.9577
côssim	-10.8696
▁Cost	-11.6522
▁Costello	-10.4342
▁Costello	-10.5232
▁costumes	-10.8009
▁côt	-11.3125
▁côté	-8.70291
▁côte	-9.82171
▁côtés	-10.2228
▁côtes	-10.745
côtière	-10.4437
▁côtiers	-10.5233
▁Cou	-10.232
▁cou	-9.87489
couchet	-11.4098
▁coule	-10.5612
▁coulés	-10.9577
▁couleur	-9.24609
▁couloir	-11.1577
▁coun	-10.6901
▁coungo	-9.92211
couno	-11.6364
▁counou	-10.8788
count	-11.4145
count	-11.6521
▁coup	-9.22419
▁coupable	-10.9671
▁coupé	-10.4578
▁coupés	-10.4527
▁couple	-9.64653
cour	-10.3589
▁cour	-10.7974
▁cour	-8.96024
▁Cour	-9.64789
coura	-11.6463
▁coura	-9.46107
▁courage	-10.6458
▁courageuse	-11.4176
▁couramment	-9.80152
▁courant	-8.99498
▁courante	-10.0854
▁courants	-9.89197
▁courb	-11.488
courir	-10.3799
▁couronne	-11.4084
▁courou	-9.42173
▁courriers	-10.9578
▁cours	-8.13716
▁course	-8.58785
court	-10.3986
▁court	-9.98116
▁courte	-10.4602
▁courtois	-11.1578
▁cousin	-10.1402
▁coût	-9.12329
▁coûte	-10.4059
▁coûteuse	-10.9639
▁coûteux	-10.9596
▁coutumes	-10.5232
▁couvert	-10.2001
▁couvertes	-10.9639
▁couvra	-10.4121
▁couvre	-9.8039
▁couvrir	-10.6505
▁cɔ	-10.766
cqu	-11.6512
▁cr	-10.4796
▁cr	-9.26362
▁cra	-11.1643
▁craignai	-10.5232
▁crain	-11.403
▁craint	-11.3597
▁crainte	-10.0752
▁crampon	-10.4342
▁cravate	-11.1577
▁crayon	-10.5592
crayon	-11.7247
▁crayon	-9.59766
▁Cre	-11.6005
▁cré	-9.57036
▁création	-9.50748
▁créativ	-10.7975
▁créature	-11.4077
▁créd	-11.4118
▁crédit	-10.4126
▁créé	-9.90817
▁créée	-9.76731
▁creus	-11.1067
▁creusé	-11.002
▁creux	-11.4094
▁crevasses	-10.9577
▁cri	-9.44184
▁cria	-10.7403
▁crim	-10.9292
cripti	-10.7894
▁crise	-10.3129
▁crista	-10.419
▁critère	-10.5232
▁critiqu	-11.7301
▁critique	-9.95093
▁critiques	-10.4772
cro	-10.8228
▁Cro	-11.4978
▁Cro	-11.6302
▁croa	-11.4092
▁croi	-10.9254
▁croire	-10.6502
▁crois	-9.0732
▁croisière	-10.1817
▁croisières	-10.2627
▁croisillons	-11.4078
▁croissance	-10.4121
▁croissant	-10.7936
▁croix	-11.1584
▁cross	-10.9578
▁croûte	-10.2212
▁croyai	-10.2241
▁croyance	-10.5232
croyant	-10.7914
▁croyez	-10.7912
▁cru	-10.0922
▁crucial	-11.3987
▁cruciale	-10.9635
crut	-11.0961
▁crypt	-11.1577
cs	-10.9043
ct	-10.177
CT	-11.6469
cté	-10.7996
cteur	-10.3012
ction	-10.2842
ction	-9.37939
ctique	-11.7119
ctrice	-11.068
ctuelle	-11.4045
ctur	-10.4473
▁Cu	-10.4928
▁cu	-10.7963
▁Cu	-9.47752
▁cu	-9.85973
▁cubes	-11.4079
▁Cuddeback	-10.9577
çue	-11.4073
cueil	-11.4461
▁cueill	-11.4078
▁cuisin	-11.3078
▁cuisiné	-11.0095
▁cuisine	-9.92437
▁cuisiner	-10.6573
▁cuites	-10.9579
▁cuivre	-11.1578
culaires	-10.7911
▁culmin	-10.7911
culté	-11.1577
▁culte	-11.1578
▁cultiv	-11.1577
culture	-10.122
▁culture	-8.3849
▁culturel	-9.64198
▁culturelle	-9.80969
▁cultures	-10.2014
▁cur	-10.4953
▁Cur	-10.5076
▁cur	-10.7956
cur	-11.5515
▁curieuse	-11.4078
▁curry	-10.5233
cus	-10.8784
cy	-10.1157
▁cyanurique	-10.9577
▁cyber	-10.9577
▁cyc	-11.5384
▁cyc	-11.6524
▁cycads	-10.8687
▁cycl	-10.7485
▁cycle	-11.0133
▁cyclique	-10.958
▁cyclone	-10.2212
▁d	-4.49985
d	-7.24794
▁d	-7.49095
▁D	-7.70317
▁D	-7.82852
d	-7.82966
D	-8.91367
D	-9.76015
▁Da	-10.172
▁Da	-10.2846
▁da	-6.66706
da	-7.26984
da	-9.55008
▁daa	-9.44407
▁dabila	-9.37718
▁dabla	-10.2265
▁dabô	-10.2617
▁dabo	-10.858
▁dafa	-10.5452
▁dafani	-10.2422
▁dafe	-10.4445
▁dafè	-8.85254
▁dafouroukou	-11.3187
daga	-10.6678
▁Daga	-10.871
▁daga	-8.64701
▁dagani	-10.9553
dagascar	-11.5626
▁dagnè	-10.8745
daho	-11.4077
▁daje	-11.6539
▁dakabana	-10.1323
▁dakègn	-10.873
▁dako	-10.9627
▁dakoun	-9.55707
▁dakun	-8.85063
dal	-9.47526
dala	-10.4435
▁dala	-9.61532
▁dalako	-11.4746
▁dali	-10.6039
▁dalil	-10.6779
dam	-10.4727
Dam	-11.646
▁dama	-8.80877
▁damadaman	-10.7021
▁Damadian	-10.9577
▁daman	-8.44495
▁damana	-10.5297
▁damani	-10.0462
▁dame	-10.2381
dame	-10.3086
▁dami	-10.4088
▁damien	-11.4084
damina	-10.8678
▁damina	-8.02906
▁daminan	-8.4618
▁daminana	-9.5341
▁daminè	-9.26096
▁daminɛ	-9.33639
▁daminin	-8.59527
▁daminn	-11.1756
▁dan	-7.36403
▁Dan	-7.72142
dan	-8.32553
▁Dan	-9.90982
▁dana	-11.0618
▁danan	-10.0721
▁danbe	-10.571
▁danbé	-10.8926
▁Dane	-10.4408
▁Danemark	-10.9577
▁danfara	-9.65823
danfé	-11.6577
▁danfe	-9.95397
▁danger	-9.46377
▁dangereuse	-10.5269
▁dangereux	-9.98975
▁Dani	-10.9032
▁dani	-9.72153
▁Danielle	-10.4342
▁Danielle	-10.5232
▁Danius	-10.869
▁Danius	-10.9578
▁danna	-11.1849
▁dannan	-10.7711
▁danois	-11.4088
▁dans	-5.35937
dans	-9.73043
▁dansa	-11.3418
dansi	-10.8708
▁dansiginin	-10.8687
▁dansigui	-10.1409
dant	-11.4449
▁danta	-10.9139
▁dantchè	-10.4398
▁dantige	-10.8702
▁dantiguè	-10.1292
▁dantiguèli	-10.879
▁Dar	-10.5306
▁Dar	-11.6409
dara	-10.1706
▁dara	-9.37888
▁daraka	-10.7618
dari	-10.468
▁dari	-9.34935
▁daro	-10.8939
▁Darwin	-10.8688
▁dasi	-10.4864
dassi	-11.6281
▁daté	-11.435
▁date	-9.06971
▁datougou	-9.1495
▁datougoula	-10.9146
▁datugu	-9.88902
▁datugula	-10.901
▁dauphin	-11.1578
▁Dav	-10.8798
▁davantage	-9.46512
▁Davey	-10.9577
davi	-9.99573
▁David	-10.1323
▁David	-10.2215
▁daw	-10.1444
daw	-9.80717
▁dawou	-11.6569
▁dawoula	-10.8725
▁dayele	-11.6442
▁dayelela	-10.8724
▁dayèrè	-9.90483
▁dayɛlɛ	-10.8694
dde	-11.5229
Dé	-11.5012
▁de	-3.4058
▁de	-6.92904
▁De	-7.55675
de	-7.74642
de	-8.32581
▁dé	-8.61058
dé	-8.68116
▁dé	-8.93349
▁De	-9.56045
▁dè	-9.70886
dè	-9.93661
▁débarqu	-10.5232
▁débarrass	-11.6795
▁débarrasse	-11.194
▁débat	-9.74596
▁débit	-10.9577
▁débo	-11.0112
▁débordé	-11.4078
▁débouché	-11.1577
▁debout	-9.42513
▁débr	-10.9753
▁début	-8.36027
▁débutant	-10.5465
▁débuter	-11.0075
▁déc	-10.073
▁Dece	-11.4941
▁décédé	-10.9579
▁décennies	-10.2212
▁décern	-10.7915
▁décès	-9.92284
▁décharge	-10.9577
▁décid	-10.9453
▁décide	-10.5306
▁décidé	-9.80503
▁décision	-9.94925
▁décisions	-10.5958
▁décisive	-10.5232
▁déclar	-9.74133
▁déclaration	-9.21741
▁déclaré	-7.50234
▁déclench	-11.6718
▁déclenché	-10.991
▁déclencheur	-10.5234
▁déclin	-11.3562
▁décliné	-10.9923
▁décor	-9.74088
▁décorée	-11.449
▁décorés	-11.4107
▁découvert	-9.22018
▁découverte	-9.68316
▁découvr	-10.14
▁découvrir	-9.74611
▁décrit	-10.4807
▁décrite	-11.0272
▁dédiée	-10.9577
▁déé	-10.8753
▁deen	-8.80949
▁deenmisɛ	-11.6521
▁déf	-10.3008
▁défaite	-10.1379
▁défaut	-10.9577
▁défavorable	-9.86034
▁défend	-11.5045
▁défendr	-11.3182
▁défendu	-10.524
▁défense	-9.80152
▁défi	-9.93376
▁déficit	-11.4081
▁défini	-10.4928
▁définiti	-10.5548
▁dég	-10.5795
▁dégage	-10.7916
▁dégagé	-10.9577
▁dégât	-10.2212
▁dege	-10.7218
▁degi	-9.46776
▁degré	-10.2818
▁dégué	-10.4923
degui	-10.5498
▁dégui	-9.90919
▁déguina	-11.6198
▁degun	-11.0711
▁dégust	-11.4079
▁dehors	-9.25358
▁déité	-10.9614
▁déjà	-8.4818
déjeuner	-11.7246
▁déjeuner	-9.86344
▁Del	-10.4375
del	-10.6853
▁Del	-10.7871
▁del	-11.2845
▁délégués	-11.4077
▁deli	-9.22061
▁délicat	-11.4077
▁délices	-11.4077
▁delilikan	-10.4343
▁délir	-11.4081
▁délivré	-10.5373
▁délivre	-10.9442
délôgô	-10.5394
▁Dem	-11.6549
▁demain	-9.03951
▁demanda	-9.81107
▁demande	-8.86131
▁demander	-9.52065
▁demandez	-11.1662
▁démarr	-10.9577
▁dembaya	-10.8687
▁deme	-10.2607
dèmè	-10.8621
▁dêmê	-11.3187
▁dèmè	-8.69675
▁dèmèdèmè	-10.4343
▁demen	-10.1937
▁déménage	-10.7911
▁demessen	-10.8695
▁demeure	-10.1379
▁dèmi	-10.1656
▁demi	-9.42248
▁demi	-9.96295
▁demin	-9.56558
▁deminsè	-11.3188
▁demis	-11.6067
▁demissein	-9.90051
▁demissin	-9.83374
▁demissinhou	-10.1342
▁démissionné	-10.9577
▁démocrati	-11.7254
▁démontré	-10.5232
den	-10.4646
▁den	-7.34356
▁dén	-8.442
den	-8.67878
dén	-9.40652
denb	-11.6253
▁Denbaya	-10.8687
▁denbaya	-9.46167
▁dende	-11.1886
denhu	-11.5374
▁Deni	-10.4588
▁deni	-8.5458
▁déni	-8.896
deni	-9.49533
déniw	-10.8404
▁deniw	-10.8685
▁denmisen	-10.3231
▁denmisɛn	-10.1325
▁denmuso	-10.4392
denmuso	-11.6481
▁denn	-10.3972
▁dénom	-11.2052
dentique	-11.0327
▁dents	-10.8467
denw	-8.96281
▁denw	-9.42144
dénw	-9.44128
▁dénw	-9.97918
deo	-9.28993
▁deou	-9.62083
▁dep	-10.6599
▁dép	-11.6578
▁départ	-9.59505
▁département	-10.062
▁dépass	-9.76538
▁dépasse	-10.1776
▁dépassé	-10.9866
▁dépend	-9.42272
dépendance	-10.9677
▁dépens	-10.955
▁dépenses	-9.59641
▁depi	-10.9666
▁déplaça	-11.5389
▁déplaçai	-10.2717
▁déplace	-10.1343
▁déplacée	-10.7944
▁déplacements	-10.958
▁déplacer	-9.80396
▁déploie	-11.4077
▁déplor	-11.4077
▁dépos	-10.6891
▁dépouill	-11.4077
▁dépression	-10.4122
▁depuis	-7.84761
▁Depuis	-9.27942
▁député	-10.3231
▁député	-9.80152
der	-9.75783
déra	-9.9124
▁déranger	-10.9587
▁dèrè	-10.7049
deri	-10.9076
▁deri	-10.9682
▁dériv	-10.9702
dernier	-11.7249
▁dernier	-8.57427
▁dernière	-8.84615
▁derniers	-9.28818
▁dérogation	-11.4077
▁déroge	-10.9749
▁déroulé	-10.7911
▁déroule	-9.86034
▁derrière	-11.1577
▁dés	-10.4587
dés	-10.9521
▁des	-4.56659
▁dès	-9.35002
des	-9.94494
▁désagréable	-11.4077
▁descend	-9.64337
▁dèsè	-10.1326
▁désert	-10.7915
▁désign	-11.0398
▁désigne	-10.7208
▁désigné	-10.9663
▁désir	-10.3176
▁désolé	-10.9577
▁désor	-10.0361
▁desse	-10.4554
▁dêssê	-10.8687
▁dèssè	-10.8724
dèssè	-11.6459
▁dessert	-10.9587
▁desserv	-11.3722
▁dessin	-10.6352
▁dessin	-10.8688
▁dessinée	-11.1592
▁dessous	-10.5309
dessous	-11.7242
dessus	-9.16612
▁dessus	-9.72937
▁destin	-11.3792
▁destination	-9.03984
▁destiné	-11.1836
▁détach	-10.9551
▁détachent	-10.9604
▁détail	-9.98948
▁détaillée	-10.4122
▁détect	-10.4124
▁détendu	-11.4086
▁détent	-10.9579
▁détenu	-10.2212
▁détermin	-9.01317
▁détourn	-10.4121
▁détrui	-10.9542
▁détruit	-10.2138
▁détruite	-10.8073
▁deux	-6.45266
deux	-9.13873
▁Deux	-9.5111
▁dév	-10.1203
▁devant	-8.762
▁dévast	-10.9579
▁développ	-9.85003
▁développé	-9.42928
▁développée	-11.1711
▁développement	-8.96266
▁devenu	-9.16596
▁devenue	-9.73964
▁déverse	-10.2212
▁dévi	-11.4923
▁devin	-10.5172
▁devise	-11.4174
▁devo	-11.3237
▁devoir	-10.2784
▁Devonport	-10.9577
▁devrai	-9.75562
▁devrait	-8.64846
▁devri	-10.5279
▁dɛ	-8.8614
dɛl	-11.2162
▁dɛmɛ	-8.82544
dɛn	-10.7798
▁dɛnmisɛn	-11.3187
▁dɛsɛ	-11.6534
dger	-11.4484
▁Di	-10.0164
▁di	-6.31639
di	-7.61309
▁Di	-8.95024
▁dia	-8.10848
dia	-9.08555
▁diab	-11.707
▁diabète	-10.5232
▁diagn	-10.9571
▁diagnostic	-10.2212
▁dialecte	-11.4077
▁diaman	-10.7289
▁Diamana	-10.8711
▁diamana	-8.92895
dian	-10.5448
▁dian	-10.7998
dian	-11.5384
▁diana	-11.4142
▁diara	-9.35185
▁dibi	-10.4236
▁dibila	-10.4468
▁dicté	-10.9578
▁Die	-10.6723
▁dieu	-9.2134
▁dieux	-10.2418
dieux	-10.6373
▁diff	-10.2209
▁différemment	-10.4166
différemment	-11.7242
▁différence	-10.9363
différence	-10.9402
▁différences	-9.93721
▁différenci	-11.4081
▁différent	-9.64428
▁différente	-9.96262
▁différentes	-8.97794
▁différents	-8.69869
▁difficile	-8.40823
▁difficulté	-11.3678
▁difficultés	-10.4273
▁diffus	-10.5199
▁diffusée	-10.4151
▁diffusion	-10.7983
diffusion	-11.7238
▁dig	-10.1454
▁digi	-9.79625
▁dign	-11.5198
▁digne	-11.4135
▁dignè	-9.55644
▁dignité	-10.9578
▁digue	-10.5235
▁digui	-9.92821
▁diili	-10.8973
▁diina	-10.4283
▁diinan	-10.4446
▁dij	-11.6314
dila	-10.7834
▁dila	-9.42491
dilan	-10.5704
▁dilan	-8.22794
dilanna	-11.4504
▁dili	-10.1265
dili	-10.7861
diman	-11.4143
▁diman	-9.13509
▁dimanche	-9.59571
dimi	-10.8012
▁dimi	-8.92067
▁dimina	-10.7316
▁dimini	-11.2184
▁diminué	-10.9577
din	-10.3449
▁din	-9.8663
▁dina	-9.64146
dinatèri	-11.581
dindin	-10.8802
▁dîner	-10.1381
ding	-10.7826
ding	-11.5225
▁dini	-10.5968
▁dinmin	-9.72329
▁dinosaur	-10.8688
▁dinosaure	-9.76186
▁dinosaures	-10.2847
▁dinosor	-10.4363
dinosor	-11.6452
▁dinoz	-10.4342
▁diɲɛ	-10.5644
▁diɲɛlatigɛ	-10.8687
dio	-10.6658
▁dioxy	-10.8069
▁dipl	-11.5824
▁diplom	-10.9195
▁diplomate	-10.9577
▁diplomatique	-10.0609
▁diplômé	-10.5232
▁diplôme	-11.1577
diplomou	-10.5242
▁dira	-9.91588
dire	-10.2888
▁dire	-8.44449
▁direct	-10.4395
▁directe	-9.14391
▁directeur	-9.86144
▁direction	-9.24654
▁directrice	-11.1581
diri	-10.7485
▁dirig	-10.2737
▁dirige	-9.25704
▁dirigeant	-10.1442
▁Dis	-10.3409
▁dis	-8.61763
▁disait	-10.3209
▁disant	-10.4287
▁disciplin	-10.9147
▁discipline	-11.0027
▁discour	-10.138
▁discussion	-11.1579
▁discut	-11.4077
▁disik	-10.8782
▁disparaît	-11.1577
▁disparition	-11.408
▁disparu	-9.80152
▁dispersé	-10.7911
▁disponible	-10.6093
disponibles	-11.7247
▁disponibles	-9.52133
▁dispos	-10.0034
▁disposé	-11.176
▁dispose	-9.17945
▁dispositif	-11.1577
▁disposition	-9.86039
▁disput	-10.6482
▁disque	-10.4176
▁dissip	-11.2674
▁dissipe	-11.2826
▁Dist	-11.0635
▁distance	-9.70731
▁distances	-9.97102
▁distinct	-10.1258
▁distincte	-9.957
▁distinctes	-10.2764
▁distinction	-10.793
▁distingu	-10.0609
▁distra	-11.0745
▁distri	-11.3188
district	-10.9411
▁district	-9.99592
dit	-10.5249
▁dit	-7.76488
▁dites	-10.7028
dition	-11.1844
▁divers	-9.15403
▁diversifi	-11.6715
▁diversifié	-10.9916
▁diversion	-11.4107
▁diverti	-11.4077
▁divinité	-10.2213
▁divis	-9.74147
▁divisée	-10.8087
▁divorc	-11.4077
▁Dix	-10.9605
▁dix	-7.66095
dix	-9.33371
diya	-10.7406
▁diya	-8.23727
▁diyagoya	-10.8687
diyalan	-11.133
▁diyan	-10.1941
▁diyara	-10.3633
diyen	-11.2311
▁dizaine	-10.0609
dj	-10.3446
▁Dj	-9.55979
▁dj	-9.8385
dja	-10.8118
▁dja	-8.20967
▁Dja	-9.83942
▁Djaa	-10.8761
▁djaa	-9.73529
▁Djaabi	-10.8919
▁djaabi	-9.84338
▁djabara	-10.5901
djabi	-10.1257
▁djabi	-9.60315
▁djagboya	-10.8692
▁djagnan	-9.90296
▁djago	-9.06405
▁djah	-10.9313
▁djakouman	-10.343
▁djal	-11.6227
djala	-10.415
▁djala	-9.46279
djam	-11.6423
▁djam	-9.85819
▁djama	-8.167
▁Djama	-9.41031
▁djamaan	-10.9903
▁djaman	-7.75158
▁Djaman	-9.62037
djamana	-10.8648
▁djamana	-6.77916
▁Djamana	-8.13741
djamanakountigui	-10.9837
▁djamanan	-7.49043
▁djamanandé	-10.8743
▁djamananw	-10.7958
▁djamanara	-11.1207
▁djamanaw	-9.36766
▁djamankoul	-11.4803
▁djamini	-11.5315
▁djan	-7.71746
djan	-8.93352
▁djanfa	-10.6386
▁djanga	-10.9008
djanga	-11.6646
▁djangaro	-10.4344
▁djangna	-11.5853
▁djangnan	-10.1547
▁djanman	-10.9267
▁djanto	-9.71669
djanva	-10.9657
▁djanya	-9.92706
▁djanyan	-10.7299
▁Djara	-10.8851
▁djara	-9.85209
▁djarasisi	-10.869
▁Djat	-10.7292
djata	-11.5988
▁djate	-8.18554
▁djaté	-8.43299
▁djatemin	-10.5994
▁djatéy	-11.6643
▁djatéya	-10.1673
djateya	-10.6745
▁djati	-8.52535
▁djatigui	-10.1383
▁djatiminin	-10.7034
▁djaw	-11.1216
▁djé	-10.0907
▁Dje	-10.8699
djè	-11.618
▁djè	-8.92404
▁dje	-9.68074
▁djeg	-10.0429
▁djègnong	-11.6522
▁djègnongonya	-10.8687
▁djègongonya	-10.8687
djein	-10.4769
▁djek	-11.5408
djèla	-11.4745
djêlé	-10.8688
▁djélégué	-10.8687
▁djèmè	-10.4347
▁djeme	-9.71502
djen	-11.6233
djén	-11.6536
▁djen	-9.28113
▁djèn	-9.86267
▁djeni	-10.4809
▁djéni	-10.882
▁djèni	-11.6469
djèni	-9.87993
Djenk	-11.6521
▁djènsè	-10.8691
▁djéridjourou	-10.8687
▁djetigui	-10.8865
djétigui	-11.4632
▁dji	-6.92139
▁Dji	-8.53694
dji	-8.56297
▁djida	-10.5583
▁djidi	-10.5391
▁djidj	-10.4378
▁djidja	-9.52231
djiein	-10.439
▁djif	-11.1063
djiga	-11.6653
djigi	-10.5614
▁djigi	-9.66917
▁djigui	-8.01093
djigui	-9.16361
djiguiya	-11.0734
▁djikankounou	-10.8687
▁djikankouroun	-11.6446
▁djikankourouni	-10.8722
▁djikôrô	-10.4434
▁djikourou	-10.8791
▁djila	-10.7224
▁djiman	-10.5136
▁Djin	-10.4662
djin	-10.5875
▁djin	-8.74947
▁djinkoulou	-11.0708
▁djira	-10.873
▁djitamba	-10.8687
djô	-10.8572
▁djo	-8.69855
▁djô	-9.05168
▁djogo	-9.19167
▁djogui	-11.5934
▁djoli	-9.13171
▁djôn	-10.5015
djon	-11.6563
djôn	-11.6688
▁djon	-9.76892
▁Djona	-10.8702
▁djona	-9.77965
▁djonan	-7.67532
▁djondjon	-10.4342
▁djonfo	-10.917
▁djoona	-10.4367
▁djor	-11.3718
▁djôrô	-10.3246
▁djoro	-10.4378
▁djoss	-10.9942
▁djôssi	-11.649
▁djôssini	-10.8715
djosso	-10.6634
▁djou	-9.44508
djou	-9.49431
djougou	-10.8534
▁djougou	-8.56939
djougouya	-10.1278
▁djougouya	-9.01991
▁djouk	-11.5879
▁djoukoro	-10.4345
▁djouma	-9.60154
▁djoumè	-9.65706
djourou	-11.6481
▁djourou	-8.67339
▁djoussou	-10.2463
djow	-10.8693
▁djôyôrô	-10.1344
▁dju	-10.0397
dju	-10.866
▁djugu	-9.47793
djuguya	-10.2959
djumlan	-11.6454
▁djumlan	-9.90172
▁djuru	-10.1342
djuru	-11.6524
▁dlan	-9.91727
DN	-10.2213
▁Dô	-10.1353
▁dô	-5.98175
▁do	-5.99413
do	-7.55035
dô	-8.27084
▁Do	-8.76844
do	-9.04845
▁dôbô	-10.6063
▁doct	-9.51756
▁document	-9.65438
▁documents	-9.68185
▁dogô	-10.5631
dôgô	-10.698
▁dôgô	-8.55571
▁dogo	-8.70348
▁dogohya	-10.8713
▁dogoman	-10.8896
dogoni	-11.3296
▁dogoni	-9.42521
▁dôgôtôrô	-9.19079
▁dogoya	-10.9021
▁dôgôya	-9.37747
▁dôgôyala	-10.4575
▁dogoyara	-10.7066
▁dôh	-10.7822
▁doh	-8.15426
▁dôhu	-10.9153
▁doigt	-10.7911
▁dois	-9.98966
▁doit	-8.2057
▁dola	-10.0361
▁dôla	-9.39199
▁dolari	-9.55599
▁dôle	-10.5207
▁dôlé	-10.6983
dôléy	-11.6559
▁dollar	-11.3243
dollar	-11.6447
▁dollar	-11.7026
▁dollars	-9.21698
▁dôlô	-10.4511
▁dôlôtôya	-10.8688
▁domaine	-9.76129
▁domaines	-10.6114
▁domestiqu	-10.7883
▁domestiques	-9.80254
domi	-11.1938
▁domicile	-10.9577
▁domin	-10.0608
▁Domin	-11.5986
▁domination	-9.99021
▁Domini	-10.1819
▁domini	-8.57679
▁dominicaine	-10.6482
▁dommage	-10.9184
▁dommages	-10.0049
▁domou	-10.1399
▁domu	-10.7754
▁domuna	-10.9921
don	-10.2372
▁don	-10.3457
▁don	-7.59703
don	-8.81142
▁dôn	-9.35134
▁Dona	-10.8923
▁dona	-9.62863
▁donan	-9.66882
▁Donc	-10.9578
▁donc	-7.73306
▁donda	-10.7618
donda	-11.6619
▁dondo	-10.6972
▁donguiri	-10.1322
doni	-10.1613
▁dôni	-8.60006
▁doni	-8.66553
▁Donkili	-10.8688
▁donkili	-8.91667
▁donkilila	-10.4576
▁donkililala	-10.142
▁donkiri	-10.872
▁donna	-10.4846
donnait	-10.7911
▁donne	-8.61827
▁donné	-8.84343
▁données	-9.60445
donner	-11.3837
▁donner	-9.6334
▁donni	-9.50525
▁donron	-9.41894
▁doo	-10.6741
▁dor	-9.41755
dore	-9.86592
▁dorgor	-10.8704
▁dorm	-10.6839
▁dormir	-10.138
▁doro	-10.4627
▁dôrô	-8.52705
▁Doro	-9.90173
▁doron	-10.1522
▁dôrôpé	-9.90072
▁dorotoro	-10.8689
▁dôrôtôrô	-10.8757
▁dôrôtôrôso	-10.8694
dors	-10.8477
▁dort	-10.9588
▁dos	-9.65826
▁doté	-11.3801
▁dotée	-10.423
▁Dôtôrô	-10.4342
▁dôtôrô	-11.071
▁dôtrô	-10.4342
▁Dou	-10.5079
dou	-11.0546
▁dou	-8.70527
▁doua	-10.3006
▁douane	-10.2212
▁douani	-11.4079
▁doubl	-11.3256
▁double	-10.8015
▁douce	-11.1583
▁doudou	-10.9577
▁doué	-10.973
▁doug	-11.2426
▁dougalé	-10.4342
▁dougalen	-10.4343
▁dougna	-11.1388
▁dougou	-6.6622
▁Dougou	-8.58751
dougou	-9.09245
▁dougouba	-10.0541
dougouba	-11.6679
▁dougoudé	-9.9938
▁Dougouk	-10.9512
dougoukolo	-10.4284
▁dougoukolo	-8.76029
▁dougoula	-10.8409
▁dougouma	-10.2649
▁dougouman	-8.55848
▁dougounan	-11.0139
▁douille	-10.9578
▁douleur	-9.69334
▁douman	-9.45268
▁doumi	-11.3285
▁doumini	-9.09423
▁doumou	-11.6544
▁doumoudougouma	-10.8687
▁doumouni	-10.135
doumouni	-11.6453
Doun	-11.6511
▁doun	-9.23166
▁dounand	-11.6443
▁doung	-10.8375
▁Douni	-10.359
▁douni	-9.5395
▁Dounia	-11.0292
▁dounigna	-10.1806
▁douniy	-11.6433
▁douniya	-9.56967
▁dounou	-10.3991
▁dounougna	-8.22942
dourou	-11.6444
▁dourou	-8.50776
▁doussou	-9.90033
▁doute	-9.55165
▁douw	-9.02862
▁doux	-11.4086
▁douze	-9.27942
▁Dow	-10.5222
▁dôw	-7.43144
▁dow	-7.7822
dow	-9.59137
dôw	-9.97154
▁dowere	-10.8727
▁dôyé	-8.87364
▁doyé	-9.71289
▁doz	-11.3763
▁dɔ	-6.91954
dɔ	-9.64782
▁dɔgɔ	-10.1272
▁dɔgɔcɛ	-10.2234
▁dɔgɔmuso	-9.71259
▁dɔgɔni	-10.5684
▁dɔgɔyara	-11.3194
▁dɔn	-10.063
dɔn	-10.8841
▁dɔngili	-11.6546
▁dɔni	-9.76359
▁dɔnkɛ	-11.0696
▁dɔnkili	-9.76348
▁dɔnkilila	-10.8933
▁dɔɔni	-9.22554
dɔr	-10.4077
▁dɔra	-10.5612
▁dɔrɔ	-10.0645
▁dɔtɔrɔ	-10.5592
▁dɔw	-8.13958
▁dɔwɛrɛ	-11.0703
▁dr	-10.7449
▁Dr	-10.998
dr	-11.1315
▁Dr	-9.31194
▁drag	-11.334
▁dragons	-11.4077
▁dramatique	-11.1584
▁drame	-11.1578
drapeau	-11.1587
dre	-10.1138
▁Dream	-10.8687
▁Dream	-10.9578
dril	-11.5036
▁drô	-10.4488
dro	-11.1066
dro	-11.3213
▁drogue	-10.1379
▁droit	-8.45618
▁droite	-9.41346
dron	-11.0794
▁dron	-9.0958
▁drone	-10.9578
▁drôtôsso	-10.8687
▁drɔn	-10.0493
dru	-10.8716
DT	-10.958
▁Du	-10.6361
▁du	-4.98223
▁du	-8.27287
du	-9.75816
▁Du	-9.81018
du	-9.99164
▁duc	-10.5542
ducation	-10.9545
▁dug	-10.8227
▁dugalen	-10.5593
▁dugu	-7.13981
dugu	-8.7845
▁Dugu	-9.42321
▁duguba	-9.31179
▁duguden	-10.2121
▁dugukol	-11.6498
▁dugukolo	-8.67408
▁dugulo	-11.0929
▁duguma	-9.89422
▁duguman	-9.41829
▁dugutaga	-9.62314
▁duguw	-10.077
duira	-11.7032
▁dulan	-9.29841
▁duman	-10.1799
▁dumini	-9.8336
▁duminikɛ	-11.0697
▁dumu	-9.82878
▁dumuni	-8.87554
▁dumunikɛ	-10.871
▁Dun	-10.1596
Dun	-11.6387
▁dun	-9.79894
▁dunan	-9.56577
▁dunanjigi	-10.8688
Duni	-11.6537
▁Duni	-9.9148
▁dunia	-10.4348
▁duniya	-9.6075
▁Dunlap	-10.5232
▁dunu	-10.6878
▁durable	-11.4082
▁duré	-9.33331
▁dure	-9.85267
▁durer	-10.638
▁durisi	-10.8696
▁durɔn	-10.5595
duru	-11.3059
▁duru	-9.00342
dust	-10.704
▁dusu	-9.21633
▁dusudi	-11.3932
▁dusukun	-10.3236
▁Dut	-10.9381
▁duuru	-8.52307
▁duwa	-11.3221
▁DVD	-10.9577
dward	-11.1578
dway	-11.4765
▁dynam	-10.3121
▁dynastie	-9.80152
dys	-10.7467
dyssée	-11.4077
▁Dzong	-10.9577
É	-10.5066
E	-10.8308
ë	-12.1509
ễ	-13.2411
ë	-13.3179
ê	-13.3189
É	-13.742
e	-4.7745
e	-5.71459
é	-5.81931
é	-7.0727
è	-7.87152
▁e	-8.09053
▁E	-8.11872
▁E	-8.25476
▁é	-8.80177
ê	-8.81207
▁é	-8.98372
è	-9.38364
▁É	-9.80621
E	-9.94587
éanmoins	-10.2182
▁East	-10.4374
eau	-7.33198
eaucoup	-10.9573
▁eaux	-9.55103
eb	-10.5726
▁eBay	-10.8687
eBay	-10.9696
ébé	-11.5855
êbê	-11.6498
èbènni	-11.5587
eber	-11.6636
Ebola	-10.9578
ébri	-11.4131
EC	-10.8691
▁ec	-10.9158
éc	-11.423
ec	-9.85192
éc	-9.9545
▁écart	-10.4167
écart	-11.7252
ecep	-11.3815
éception	-10.7532
ech	-10.654
▁échang	-10.8589
échange	-10.275
échantillon	-10.9402
▁échantillon	-10.9756
échappé	-11.4201
échapper	-10.5238
échauffement	-11.6887
èche	-10.3087
échec	-10.5226
▁échecs	-10.5239
échelle	-10.2212
echnologi	-10.8687
▁échou	-11.4046
▁échoué	-10.5245
écif	-10.9773
éclair	-10.5223
▁éclairé	-10.7923
éclaration	-10.5119
▁éclat	-11.1577
▁eco	-11.0222
éco	-9.62213
école	-8.83048
▁école	-9.68099
econde	-9.98599
économi	-10.5076
▁économie	-10.4631
économie	-9.33736
▁économique	-9.88331
▁économiques	-10.1892
Écosse	-10.9577
▁écoulée	-11.4077
▁écout	-10.1063
écouta	-11.5475
▁écouté	-11.0344
▁écoutez	-10.9721
écoutez	-11.3907
ecque	-10.7951
▁écran	-10.3227
écran	-10.7744
▁écrasé	-10.4121
écri	-10.6075
écria	-11.0349
▁écrire	-10.3194
écrire	-11.1439
▁écrit	-9.87561
▁écrits	-10.6015
écriture	-10.1468
▁écriv	-11.1561
écrivain	-10.649
▁écrivit	-10.9584
écroul	-11.4077
ecta	-11.2403
ecté	-10.4127
ecture	-10.9443
▁Ecuador	-10.8687
ecurit	-10.4659
▁Ed	-10.3788
▁Ed	-10.9654
ed	-9.33149
éd	-9.50234
ède	-10.8713
ède	-9.92201
edecin	-10.8688
édecins	-10.9506
édération	-10.5232
▁Edi	-10.579
edi	-10.9354
▁edi	-11.6449
èdi	-11.6618
édic	-10.9413
Édimbourg	-10.9577
edish	-11.4084
▁Edison	-10.9577
edit	-11.6549
éditation	-10.6098
éditeur	-11.4077
▁édition	-10.6483
▁éducati	-9.98799
éducation	-10.397
▁éducation	-10.4318
éduit	-10.9575
eduzi	-11.3191
edy	-11.1122
èè	-10.8099
ée	-7.19304
eek	-10.148
éen	-10.206
eenko	-11.6389
èèrè	-10.1138
ées	-8.10382
▁effacé	-11.4078
▁effectivement	-11.4077
effectue	-11.4072
▁effectué	-9.92284
▁effectuer	-10.7914
effet	-10.6319
▁effet	-8.74432
▁efficace	-9.38665
efficacité	-10.7911
▁effondr	-11.0934
effondre	-10.4442
efforcer	-10.9577
effort	-10.9185
efforts	-9.8739
effraya	-11.1629
éfie	-10.5489
efile	-11.3305
▁Eg	-10.8787
ég	-9.27648
▁égal	-10.9577
également	-10.9413
▁également	-6.91316
égard	-10.2218
ege	-10.2549
égé	-11.477
ège	-9.98874
ègèsè	-11.6528
egess	-11.6518
egili	-11.6365
▁égli	-10.8845
églis	-11.6186
église	-9.50729
▁églises	-10.6502
▁egliz	-11.6521
égoïsme	-10.9579
égué	-10.4339
êguê	-11.4754
èguè	-9.53651
êguêli	-11.6585
égui	-10.6173
ègui	-10.7971
▁Egypt	-10.8692
▁Égypt	-10.9487
▁Égypte	-10.975
Égypte	-11.7236
▁égyptien	-10.958
eh	-10.6418
▁eh	-11.1045
eh	-9.31612
eila	-11.662
eimei	-11.5955
eimein	-10.8136
einture	-11.4144
eira	-11.3379
eirei	-9.93868
éj	-10.1547
ejon	-11.0332
▁ek	-10.732
ek	-10.8851
èkè	-11.5529
▁ekip	-11.3198
ékour	-11.6636
ékoyira	-11.2405
▁ekɔl	-10.1323
el	-8.54461
el	-9.30227
èla	-10.1892
êlà	-11.3412
êla	-11.5304
élan	-10.6714
▁élan	-10.8106
eland	-11.2136
éland	-11.6654
élargi	-11.4077
èlè	-10.0576
élè	-10.08
èle	-10.1522
elé	-10.2118
élé	-10.2182
êlê	-10.8637
▁ele	-9.28644
▁elect	-10.2606
électeur	-9.98951
▁élection	-11.7025
élections	-11.6795
▁élections	-9.39207
▁électoral	-10.2212
électricité	-10.7911
▁électrique	-9.80206
▁electron	-10.1325
▁électron	-10.2196
▁électronique	-11.4129
êlêkê	-10.539
eleke	-11.1364
éléké	-11.6521
élém	-11.1567
▁élément	-10.1823
▁éléments	-9.52645
elen	-10.1776
élen	-11.0691
éléphant	-10.9571
▁éléphants	-9.31402
élevage	-10.7913
▁élève	-10.1467
élève	-10.7759
▁élevé	-9.55185
▁élevée	-9.39013
élever	-11.1578
▁élevés	-10.2102
élévision	-11.6515
èlèya	-10.8742
èli	-10.17
éli	-10.4082
eli	-9.74749
elika	-11.6636
élimin	-10.5228
▁éliminé	-11.1589
eline	-10.8695
▁Elis	-11.6521
élite	-11.4078
ell	-10.7905
▁Ell	-10.87
▁elle	-6.36651
elle	-7.61702
▁Elle	-8.35397
ellement	-10.8087
elles	-7.94846
▁elles	-8.04261
elling	-11.0534
ellington	-11.4077
Ellsworth	-10.9577
elluli	-10.9261
elly	-10.4205
élog	-11.6585
▁élogieuse	-11.4077
éloign	-10.3734
éloigne	-10.5686
elon	-7.90266
els	-11.0174
▁élu	-10.8017
élu	-11.3906
▁elvi	-11.654
em	-10.1958
em	-11.1093
▁em	-9.63687
eman	-8.9679
émanya	-11.653
emati	-11.6504
emb	-11.0444
▁embar	-10.9584
▁embarqu	-11.4078
embau	-11.4078
embre	-10.999
ème	-10.7298
ême	-9.27827
ément	-10.6474
ement	-8.24253
ements	-10.0097
èmèsi	-11.6499
emessen	-11.6516
èmètèrè	-11.034
▁émett	-10.337
▁émeute	-10.9691
émeute	-11.3902
émie	-9.55853
êmin	-11.4275
▁Emirates	-10.8687
emis	-11.4806
émis	-11.6437
▁émise	-10.1379
émission	-9.22959
▁émission	-9.66838
▁Emm	-10.8692
Emm	-10.9628
▁emmen	-10.4162
émocratique	-11.4193
▁emp	-11.0826
empar	-10.9579
empêch	-10.6313
▁empêch	-10.6581
▁empêcher	-10.4178
emper	-10.3161
empire	-10.0614
▁Empire	-10.9659
Empire	-11.7236
▁emplacement	-10.8006
emplacement	-11.3904
▁emploi	-10.1481
emploi	-10.6315
▁employ	-11.7022
▁employé	-10.6676
employé	-11.724
▁empoisonn	-10.7911
▁emport	-10.6167
▁empr	-10.7938
▁empreinte	-11.4077
▁emprunté	-11.4077
▁emprunter	-10.6482
ên	-10.2444
▁En	-10.6054
▁en	-4.83787
en	-6.50369
▁En	-7.14063
en	-7.71275
▁en	-8.78161
èn	-9.3066
énat	-10.9597
énba	-11.6616
enc	-9.87549
encé	-11.2357
enci	-11.6493
▁encore	-7.68368
▁encourage	-10.4121
▁encouragé	-10.7911
end	-8.84389
endel	-11.6537
endem	-11.3096
endemik	-11.3314
▁endémique	-10.5232
endi	-11.2092
endjab	-10.9578
endo	-10.1543
▁endommagées	-10.9577
endormi	-10.7926
▁endroit	-9.3606
endroit	-9.62687
▁endroits	-8.80395
ènè	-10.0177
ène	-10.1043
éné	-10.6437
ene	-11.1124
ênê	-11.4541
ènéman	-11.6415
énéral	-10.3246
énergie	-8.86852
eneti	-10.8819
eneya	-11.3369
énez	-11.6136
Enf	-11.4493
▁enfance	-10.9578
enfant	-9.45127
▁enfant	-9.91045
▁enfants	-7.94025
enfants	-9.67366
enferm	-11.1267
enfi	-11.6583
▁enfin	-9.98959
enfui	-11.4046
enfuir	-11.1606
éng	-10.3993
eng	-10.778
engage	-10.1476
▁engagée	-11.4077
engal	-11.6613
engale	-11.408
engen	-10.1539
engen	-10.9765
▁engendr	-10.2212
èni	-10.0404
eni	-11.0265
énin	-11.1992
enjamin	-11.4077
▁enk	-10.9552
enkulu	-11.6013
enne	-10.7657
ennedy	-11.1577
▁enneigée	-10.9579
▁ennemi	-9.74736
ennes	-10.3943
ennui	-10.8135
enogonya	-10.8702
énor	-11.4078
énorme	-10.7912
enos	-10.7274
▁enquêt	-10.4123
enquête	-10.5085
▁enquête	-9.51606
▁enregistre	-10.8687
▁enregistre	-11.222
▁enregistré	-9.72863
▁enregistrée	-10.842
enregistrement	-10.0697
enregistrer	-10.5947
▁enregistreur	-11.4116
ens	-10.8406
ensable	-10.7916
▁enseign	-10.057
enseignants	-10.6539
▁enseignement	-10.6607
enseignement	-11.1009
▁ensemble	-9.19099
ensemble	-9.84398
ensez	-10.9615
ensions	-10.7909
▁ensuite	-8.68516
ent	-10.063
ent	-6.04669
▁entame	-10.9588
▁entend	-9.63238
entendai	-11.3129
entendez	-11.5032
entendr	-10.8651
▁entendu	-9.86153
entente	-11.4136
enter	-10.05
▁enterré	-10.7911
enti	-11.5154
▁entier	-9.55103
▁entière	-9.65318
▁entières	-10.6221
entinelle	-11.4181
entité	-10.834
▁entouré	-11.7262
▁entoure	-9.59883
▁entourée	-10.6541
entrai	-11.6242
entraîne	-11.3914
▁entraîne	-9.55285
▁entraîné	-9.99095
▁entrait	-11.4083
entral	-10.9565
▁entravé	-10.9577
▁entré	-10.1495
▁Entre	-10.5327
▁entre	-7.39973
entre	-8.49449
▁entrecoupé	-11.4077
▁entrée	-10.2558
entrée	-9.20214
entrepreneur	-11.4077
▁entrepri	-10.7021
entreprise	-10.1212
▁entreprise	-9.83341
▁entreprises	-9.96645
▁entrer	-10.2808
▁entretenu	-10.5232
▁énum	-11.4077
▁envahi	-10.9423
▁envahir	-10.5333
▁enveloppe	-10.4166
enveloppe	-11.7242
▁enver	-10.3512
▁enverrai	-11.4707
envers	-11.3261
▁envie	-10.4208
▁environ	-7.8189
environ	-9.7866
▁environnante	-10.9578
environnement	-10.9414
▁environnement	-9.18494
▁environnemental	-10.5249
▁envisag	-10.7318
envisage	-11.7245
▁envisage	-9.71616
envoi	-11.6404
envoie	-10.4408
▁envoyé	-9.43023
▁envoyée	-10.9344
▁envoyer	-10.1453
envoyer	-10.941
énw	-10.6041
enya	-9.81204
eolog	-10.8969
éologi	-11.3188
éop	-10.4463
ép	-10.5383
EP	-11.2055
▁épaisse	-11.4028
épaisseur	-10.5253
épal	-11.7215
▁épaules	-10.5232
▁Eph	-10.9588
▁Ephes	-10.8687
▁epi	-10.3242
épic	-10.2212
▁épices	-10.9579
épid	-9.86276
épinière	-11.4086
▁épisode	-10.5232
époque	-9.07769
▁époque	-9.96193
▁épous	-10.2212
époux	-10.9578
▁épreuve	-10.2264
épreuve	-11.391
▁éprouv	-11.4077
epu	-11.0776
epubliqu	-11.6503
épublique	-10.5231
épuis	-10.9577
▁épuisant	-10.9578
eq	-11.552
▁Equat	-10.8688
Équateur	-10.5232
équateur	-11.4077
▁équatorien	-10.5344
èque	-10.3151
équilibre	-9.85705
équip	-11.3777
équipage	-10.4123
▁équipé	-10.0611
équipe	-8.78524
▁équipe	-9.63861
▁équipement	-10.4313
équipement	-10.8
▁équipes	-9.63453
équitation	-11.4077
▁équivalent	-10.9578
▁Er	-10.6952
er	-5.70131
er	-8.00262
era	-10.3186
èra	-10.6648
érable	-11.4079
erala	-11.4113
eras	-11.2554
érations	-11.422
érato	-10.5175
erçant	-10.9653
ère	-10.0325
êrê	-10.6828
▁ère	-10.8964
▁èrè	-10.9045
èrê	-11.1301
ère	-9.00534
èrè	-9.3096
éré	-9.54718
éré	-9.7162
ere	-9.94665
èrein	-11.6627
êrêkê	-11.6107
èrèkèrèli	-11.436
erekèyôrô	-11.4205
eremi	-10.7212
èrènkèrèn	-11.6494
èrent	-8.58843
érer	-10.6158
erera	-11.4772
ères	-10.1611
éréti	-11.6489
èrèw	-11.0751
ereya	-10.772
eri	-10.1815
éri	-10.4764
Eri	-11.7179
èri	-8.99295
eria	-10.8121
érie	-11.3519
erie	-9.69358
érifi	-10.412
▁érigé	-10.7911
érin	-10.7945
éris	-11.0532
éris	-11.6623
erit	-11.2228
érité	-11.6589
ermie	-11.7195
ermit	-11.4469
ern	-9.40741
ern	-9.83233
▁ero	-10.8753
éro	-9.63855
erɔ	-11.6659
erre	-10.12
▁erreur	-10.9577
erry	-10.3799
ers	-11.0666
ersailles	-11.0833
erto	-10.6573
erto	-10.7328
erts	-11.185
erusalem	-10.8687
ervi	-10.708
erz	-11.6658
▁es	-10.3159
es	-6.06342
és	-7.86984
▁es	-8.09401
es	-8.40007
▁esansi	-11.3189
escadron	-11.4078
escalade	-10.4121
escalier	-11.4077
▁escarp	-10.5173
▁escarpée	-10.4174
escrime	-10.5232
èsè	-10.4757
eselo	-11.3671
ési	-11.0441
èsi	-11.0687
Eskimo	-10.8687
▁esp	-10.729
esp	-11.6625
▁espace	-10.5997
espace	-9.0495
Espagn	-10.5228
▁Espagn	-9.89979
▁espagnol	-10.1145
espagnol	-10.1211
▁espagnol	-10.7021
▁espagnôl	-10.8612
▁Espagnol	-10.8706
▁espagnôli	-10.8763
▁espagnols	-10.2663
espèce	-10.3958
▁espèce	-9.39185
▁espèces	-9.80258
espér	-10.6746
▁espéran	-10.9645
espère	-10.779
▁espère	-9.93025
▁espi	-11.1587
▁espoir	-11.1577
▁esprit	-10.1645
esprit	-9.67659
▁essai	-10.4281
essai	-10.5022
▁essay	-8.95954
▁essayer	-10.1588
essayer	-10.7744
éssé	-10.3085
esse	-10.9661
èssè	-11.6333
▁essenc	-11.3195
essence	-11.1578
essentie	-11.4616
▁essentiel	-11.1558
▁essentielle	-9.69378
èssi	-11.4194
Est	-10.463
est	-10.6297
▁Est	-11.6645
▁est	-4.90932
est	-5.51759
▁estim	-10.7685
▁estime	-10.0674
▁estimé	-11.0229
estival	-10.9587
▁Estoni	-10.8689
Estonie	-10.9577
esus	-11.6595
▁Et	-10.2615
▁Et	-10.4183
▁et	-10.6661
▁Ét	-10.8687
▁et	-4.35242
et	-8.34738
et	-8.99814
▁ét	-9.69046
▁Éta	-10.9657
▁établi	-9.23993
▁établie	-10.9642
▁établiss	-11.0136
établissement	-9.915
▁étage	-11.4099
étai	-9.63312
▁étaient	-7.89229
étaient	-9.49284
étaire	-9.70046
▁était	-6.91859
était	-7.96157
etan	-11.5788
étant	-8.39856
étape	-11.7244
▁étape	-9.9256
▁État	-10.2182
▁état	-8.81818
état	-9.13597
État	-9.48995
▁états	-10.6281
▁États	-8.04824
ete	-10.4604
▁été	-5.86138
été	-8.71592
été	-9.55056
éteindre	-10.9577
▁éteint	-10.2215
étend	-9.83506
▁étendue	-11.4078
ètes	-10.0018
▁êtes	-8.10472
eth	-10.976
▁Eth	-11.6598
ethe	-10.8752
▁Ethe	-10.9635
▁Ethiopi	-10.4342
ethni	-10.9605
▁ethnique	-10.5232
èti	-10.1073
▁éti	-10.8764
▁étiez	-10.5234
▁étions	-10.2218
étique	-11.7006
étiques	-10.5384
▁étiquet	-11.7291
étiquette	-10.9637
ètiri	-11.1172
▁étoile	-10.3809
étoile	-11.1408
▁étoiles	-9.71294
étra	-11.1063
▁étrange	-10.9543
▁étranger	-10.2146
étranger	-9.57889
▁étrangère	-10.0609
▁étrangers	-9.77113
▁être	-6.5674
être	-7.73129
ètres	-11.41
etri	-11.218
ètri	-9.92544
étrier	-10.9646
▁étroit	-11.3501
▁étroite	-10.4343
ette	-8.46192
ettes	-10.2404
étude	-9.12226
▁études	-9.24678
▁étudi	-9.69736
▁étudiant	-10.7748
étudiant	-10.9404
▁étudiants	-8.74694
▁étudie	-10.6024
étudier	-10.395
▁étudier	-10.701
▁Eu	-10.4483
▁eu	-7.93471
eu	-9.8334
▁eugène	-10.6493
euil	-9.79866
euill	-10.6833
eur	-10.673
eur	-7.80903
▁euro	-10.3249
euro	-11.6591
▁Europ	-10.8636
▁Europe	-10.8724
europe	-10.9578
Europe	-9.3702
▁Europe	-9.52566
▁Européen	-10.9577
▁européenne	-9.95041
▁européennes	-9.83515
▁européens	-10.2266
▁Europu	-10.4352
euros	-10.9617
eurs	-7.99015
euse	-9.6943
eusement	-10.2749
euses	-9.65421
▁eût	-11.1577
▁eux	-8.28505
eux	-8.89762
év	-11.224
eva	-11.3379
évacu	-10.9577
▁évalu	-10.2265
évalu	-10.9409
▁évaluation	-11.165
éveil	-10.6483
▁éveillé	-10.7968
eveli	-11.4174
événement	-10.5914
▁événement	-9.71393
événements	-10.5437
▁événements	-9.63705
▁évent	-10.5232
éventuel	-10.9588
▁éventuelle	-10.9578
évêque	-10.9577
▁évide	-10.4989
▁éviden	-10.4346
evil	-10.4926
évit	-10.2568
▁évite	-9.35671
▁évolu	-9.96939
évolue	-11.2194
évolution	-10.4163
▁évoqu	-10.9682
evr	-11.6219
èw	-10.6512
ew	-10.8978
ex	-10.0337
ex	-10.8725
▁ex	-9.70641
exact	-10.4121
▁exactement	-10.6482
▁examen	-10.2212
▁examine	-10.4184
examine	-11.3908
examiné	-11.4077
▁exc	-11.3818
excellen	-10.4119
▁excellent	-9.21388
exception	-11.4613
excès	-10.7911
▁excursion	-9.92284
▁excus	-10.5233
▁exécut	-10.4166
exécut	-11.7242
▁exemplaires	-10.6482
▁exemple	-8.44347
▁exemples	-9.83562
▁exerce	-10.0609
exercice	-10.7911
▁exh	-11.6333
exi	-10.8793
exicain	-11.4079
▁exig	-10.9645
▁exige	-9.39096
▁exigence	-9.59572
existant	-10.7904
▁existante	-10.9586
existe	-10.3961
▁existe	-8.52859
▁existence	-10.8006
existence	-11.3904
▁existent	-10.6703
▁exonéré	-10.9577
▁exotiques	-10.9577
▁exp	-10.74
▁exp	-10.8705
exp	-11.6568
▁expédition	-11.4085
▁expérience	-9.24932
expérience	-9.78508
▁expériences	-10.3305
▁expérimental	-11.4129
expérimentation	-10.7911
expérimentées	-10.9577
▁expert	-10.3123
▁expertise	-11.4078
▁explications	-11.4078
expliquer	-10.8118
exploit	-10.3121
explorateur	-10.9577
exploration	-11.1577
▁explorer	-10.9577
▁explos	-10.9628
explos	-11.7233
▁explosé	-9.80248
explosion	-10.4122
▁expo	-11.2971
▁export	-11.3842
▁exportat	-11.7259
exportation	-10.665
▁expose	-11.5007
▁exposée	-11.4098
▁exposition	-10.1887
exposition	-10.9409
▁expositions	-10.5804
▁expression	-10.4309
expressions	-10.7643
exprim	-10.9572
▁exprimé	-10.0612
▁expuls	-11.2489
expulsion	-11.0948
ext	-10.8907
▁ext	-10.9776
extérieur	-9.74556
▁extérieure	-10.2218
▁extra	-10.247
extrai	-10.9599
▁extrai	-11.3861
▁extrav	-11.4085
extrême	-10.9413
▁extrême	-9.2774
▁extrêmes	-10.3266
extrémité	-9.98956
ey	-10.7032
ey	-9.90272
éz	-10.0396
ez	-11.5421
ez	-6.74339
ɛ	-8.70209
▁ɛ	-9.84277
ɛɛre	-11.6081
▁ɛl	-10.7278
ɛl	-9.48292
ɛm	-11.2103
ɛmɛ	-11.0406
ɛmu	-11.6585
▁ɛn	-10.6896
ɛn	-8.37997
ɛndi	-11.105
▁ɛnfɔr	-11.319
▁ɛnpas	-11.6531
▁ɛr	-10.0756
ɛr	-8.73849
ɛri	-10.4375
ɛrikɛn	-11.6521
ɛs	-9.90763
ɛsi	-10.6963
▁ɛsk	-11.319
ɛt	-9.88037
ɛti	-10.3076
ɛtri	-10.0568
ɛz	-10.7457
F	-10.6835
f	-7.51438
▁F	-7.87438
▁f	-8.23705
▁f	-8.6237
f	-8.72628
▁F	-8.93019
F	-9.48918
▁fâ	-10.873
FA	-11.0393
▁FA	-11.6356
FA	-11.6445
fâ	-11.6465
▁fa	-7.74015
fa	-8.55482
▁fa	-9.04234
▁Fa	-9.59504
▁faa	-9.97289
▁faam	-10.999
▁faama	-11.3319
▁faaman	-9.90723
▁faamu	-11.0724
▁faamuya	-10.5619
▁faan	-9.37077
▁fab	-11.3038
▁fabri	-11.38
▁fabriqu	-10.5011
▁fabriqué	-10.2473
▁fabu	-11.4133
▁face	-8.74287
▁facɛ	-9.33729
▁facial	-11.1578
▁facile	-8.73863
▁facilement	-8.84972
▁facilité	-11.4077
▁facilite	-11.704
▁faciliter	-10.4222
▁façon	-8.70905
▁façonn	-11.1125
façons	-11.7002
▁facteur	-11.7022
▁facteurs	-10.146
factur	-11.4089
▁fag	-10.9283
▁faga	-8.3079
faga	-9.88076
fagala	-10.3397
▁fagala	-10.5101
▁fagali	-10.7563
▁fagan	-9.68186
fagayôrô	-11.6233
▁fagua	-10.8731
▁Fai	-11.2647
▁faibl	-11.7248
▁faible	-8.91537
▁faim	-9.92311
▁Fair	-10.6041
▁Fair	-10.8687
▁faire	-7.13649
▁fais	-8.22704
▁faisons	-10.5276
▁fait	-6.71192
▁faite	-9.65833
▁faites	-9.14665
▁fal	-11.242
▁Fal	-11.4686
fala	-10.8622
▁fale	-10.594
falen	-10.8635
▁falén	-10.8733
falén	-11.6462
▁falen	-9.33147
▁falenfe	-10.8758
▁Falkland	-10.4342
▁Fall	-10.5233
▁fall	-10.6438
fall	-11.3222
▁fallu	-9.80375
▁fama	-8.69436
▁faman	-9.95166
▁famba	-8.65297
▁famili	-11.7183
▁familial	-10.5146
▁familiale	-10.5321
▁familiari	-10.9681
famille	-11.7249
▁famille	-8.52354
▁familles	-9.13368
▁Famou	-11.5993
▁famou	-8.66931
▁famouya	-9.197
▁famu	-9.08926
▁famuya	-10.3397
▁fan	-10.0315
▁Fan	-10.6373
fan	-10.9562
▁fan	-6.71877
fan	-8.02107
▁fana	-6.97376
▁fanan	-8.38765
▁fanani	-9.50992
▁fanba	-8.23561
▁fanbè	-10.4565
▁fanfê	-10.1544
fanfè	-11.6628
▁fanfè	-8.49133
▁fanfei	-10.4343
▁fanfèlala	-10.8694
▁fanfɛ	-9.55659
fanga	-10.8528
▁fanga	-7.63538
fangaman	-11.6027
fangan	-10.8775
▁fangan	-8.69142
▁fangua	-10.4418
▁fani	-8.17385
fani	-9.97056
▁fankele	-11.3519
▁fantan	-10.5689
far	-11.3924
▁far	-9.91987
▁fara	-7.04428
fara	-9.01595
▁Fara	-9.28501
▁farabass	-10.9142
▁farafi	-10.794
▁Farafi	-11.5697
▁Farafin	-11.6022
▁Farafina	-10.4772
▁farafina	-9.22549
▁Faragb	-11.3352
▁faragbè	-10.8748
▁Faragw	-11.0921
▁faragwê	-10.8687
▁faragwè	-11.6484
▁faragwèla	-10.8724
▁faragwɛl	-10.435
▁farakan	-11.4086
▁farala	-9.70695
▁faran	-9.64302
▁faranfasi	-10.4342
▁farani	-10.0899
▁Farans	-10.1421
▁faransi	-9.65854
▁farati	-9.3061
▁faratiman	-10.1374
▁farce	-11.1579
fari	-10.1584
▁Fari	-11.5411
▁fari	-7.86701
▁farifaga	-9.77169
▁Fariko	-10.4729
▁Farikolo	-10.8704
▁farikolo	-10.8737
▁farikologna	-11.652
▁farikoro	-10.4359
▁fariman	-9.52056
▁farini	-11.2344
▁fariya	-10.3992
fariya	-11.6677
▁fasa	-10.3286
▁fascinant	-10.5233
▁Faso	-11.5684
▁faso	-9.03951
▁Fasod	-10.9136
▁fasodén	-10.8698
▁fassa	-10.8764
▁fasso	-10.7309
▁fatc	-11.6521
▁fatchè	-10.8747
▁Fati	-10.9577
▁fatigant	-10.9577
▁fatigue	-10.9577
▁fatigué	-9.69333
▁fato	-11.5707
▁fatɔ	-10.7063
▁fatura	-10.7021
▁faudra	-9.80078
▁faudrait	-10.7931
▁faune	-9.50911
fausse	-11.1578
▁faut	-8.05374
▁faux	-10.9657
▁fav	-10.6508
▁favorable	-9.74596
▁favori	-11.1573
▁favorise	-11.1544
▁favoriser	-11.1616
▁FBI	-10.5232
▁Fe	-10.0712
▁Fè	-10.195
▁Fé	-10.6297
▁fe	-10.7049
▁Fe	-10.8031
▁fè	-6.3701
▁fe	-7.53061
fè	-7.87987
fe	-8.38669
fé	-8.6088
▁fê	-8.71835
▁fé	-8.87771
fê	-9.23637
▁fédéral	-10.4539
▁federal	-10.8689
▁fédérale	-10.8928
▁fèè	-10.9085
▁feen	-11.0879
▁feere	-10.2239
▁fèèrè	-10.4626
▁fef	-11.6603
▁fefe	-11.3605
▁fèguè	-10.8817
▁fei	-9.28556
fein	-10.2694
▁fein	-9.49774
fêla	-10.9036
fêlala	-10.9352
▁Feli	-10.4421
▁Feli	-10.524
▁félicit	-11.1596
▁félin	-11.7014
▁félins	-10.5355
▁femelle	-10.9577
▁femi	-10.4525
▁féminine	-10.9702
▁femme	-8.80777
▁femmes	-8.6257
▁fen	-7.4294
▁fén	-8.31342
fèn	-8.87144
▁fèn	-8.95203
fen	-9.12307
▁Fen	-9.56598
fén	-9.73055
▁fenêtre	-10.0987
▁fenêtres	-9.83045
féng	-9.56222
▁féng	-9.56438
▁fènsè	-11.2525
▁fènsèn	-11.1239
▁fenw	-8.38882
fenw	-9.1809
▁féod	-11.4077
▁Fer	-10.583
▁Fer	-11.1545
▁fer	-8.79155
▁fera	-10.2222
▁ferai	-10.9974
▁feré	-10.8719
fèrè	-11.6348
▁fere	-8.95406
▁féré	-9.41816
▁fèrè	-9.77555
▁fèrèsira	-10.435
▁ferez	-10.5306
▁feri	-11.4021
férikorognanagbè	-10.8797
▁fermé	-10.0656
▁ferme	-9.51063
▁Fernand	-10.4345
▁Fernand	-10.5232
▁féro	-10.7917
▁Ferr	-11.3108
fert	-10.7629
fese	-11.3502
fèsè	-9.89383
▁fèsè	-9.90769
▁fess	-11.4332
▁festival	-10.3728
▁festivals	-10.0897
▁festivités	-10.5232
▁fête	-9.34961
▁feu	-9.44627
▁feuille	-10.9195
▁feuilles	-9.39491
▁février	-10.5232
▁féw	-10.1034
few	-10.3857
féw	-10.4825
▁feyi	-11.0851
▁fɛ	-6.52381
fɛ	-8.94789
▁fɛɛr	-10.9042
▁fɛn	-7.65392
fɛn	-9.50667
▁fɛnw	-9.78731
fɛnw	-9.91391
▁fɛrɛ	-10.708
▁fɛta	-11.2735
ff	-10.1066
ffaires	-11.7294
ffic	-10.8702
ffice	-10.9751
▁Fi	-10.2049
Fi	-10.2059
▁Fi	-10.6666
▁FI	-10.9595
▁FI	-11.5671
FI	-11.6447
▁fi	-8.57689
fi	-9.2214
▁fi	-9.53333
fia	-10.9634
fia	-9.98132
▁fich	-10.8577
fiction	-11.3307
▁fiè	-11.2265
fiè	-11.5409
▁fien	-10.4375
▁fiéré	-9.90075
▁fièvre	-10.7911
▁fifa	-11.322
▁figɛman	-11.6521
▁fignè	-10.1341
fignê	-10.4342
▁figne	-10.8724
fignè	-11.6262
figne	-11.6453
▁figure	-9.49597
figurez	-11.4832
▁fil	-10.547
▁Fil	-11.6184
▁fil	-9.45188
▁fila	-6.1637
fila	-9.03308
▁filaburu	-10.2265
▁filakè	-10.8156
▁filan	-10.9006
▁filana	-10.1842
▁filanan	-8.80872
▁filante	-11.4116
filê	-10.4552
▁filè	-8.34231
▁filèli	-9.31198
▁filet	-11.1594
filɛ	-10.4523
▁filɛ	-8.29023
▁filɛri	-10.7208
▁filɛru	-11.3228
▁fili	-8.8738
fili	-9.71424
▁filila	-11.1453
▁filim	-11.3798
▁filimou	-10.1196
▁Filimou	-9.71255
▁filimoun	-10.9055
▁filip	-10.8377
▁Filipin	-10.1322
▁fille	-9.2075
▁filles	-10.335
▁Film	-10.8903
▁film	-9.0017
▁film	-9.97405
▁films	-9.8298
▁filmu	-10.4367
▁fils	-8.9872
filtr	-10.9551
▁filtre	-11.1648
▁fiman	-8.87659
▁Fin	-10.225
▁Fin	-10.8984
▁fin	-7.40491
▁fin	-7.65738
fin	-8.22188
finale	-11.3915
▁finale	-9.65156
▁finance	-10.2184
▁financement	-10.0638
▁financier	-10.9577
▁financière	-10.5232
fine	-10.1485
finè	-11.6673
▁finɛtri	-10.7034
fing	-11.5704
▁fini	-10.693
▁fini	-9.74261
▁Finland	-10.8688
▁Finlande	-10.5232
▁finman	-10.3666
finnin	-11.6205
▁fintchi	-11.5704
fir	-11.2795
▁fir	-11.5595
▁firans	-11.3429
firi	-10.5514
▁firi	-9.78769
▁Fis	-10.9207
▁fisa	-9.22162
▁fisaya	-10.1422
▁fisca	-11.6741
▁fiscal	-11.1975
fisie	-11.3195
fissa	-10.1261
▁fissa	-9.84002
▁fissures	-10.5232
▁fit	-9.29338
▁fitchini	-9.9005
▁fiti	-10.8701
▁fitin	-11.6617
fitini	-11.3123
▁fitini	-8.0225
▁fitinin	-10.4364
▁fitiniw	-10.4869
▁fixe	-10.4121
▁fixé	-11.408
▁fiy	-11.0604
fiya	-10.4655
▁fiyê	-10.8689
fiye	-10.8709
▁fiyè	-11.137
▁fiyen	-10.0494
▁fiyèn	-11.239
▁Fl	-10.234
▁fl	-11.2931
▁fl	-8.83053
▁fla	-10.0999
▁fla	-7.21342
▁flà	-9.09415
fla	-9.22263
▁Flags	-10.8687
▁Flags	-10.9577
▁flanan	-9.92908
flè	-11.3572
▁flè	-8.13562
▁fle	-9.75127
▁fleili	-10.8688
▁fleli	-10.4458
flèli	-11.5509
▁flèni	-10.969
▁fleur	-10.0242
▁fleur	-10.929
▁fleurs	-9.89414
▁fleuve	-9.34963
flex	-10.9733
▁flɛ	-10.8699
▁flɛru	-11.6525
▁Flo	-10.9588
▁flo	-11.3484
▁flor	-10.5192
▁flore	-10.9683
▁flori	-11.6572
▁Florid	-11.649
▁Floride	-10.5232
▁Floride	-10.8704
▁flott	-11.5932
▁flotte	-9.6633
Fly	-11.6319
▁fô	-6.3237
▁fo	-6.54912
fo	-8.63439
fô	-8.94308
▁Fo	-9.56084
▁fö	-9.58299
▁focale	-10.5232
▁fofo	-10.8827
▁fôgnô	-10.1322
▁fôgnon	-10.8808
fognon	-10.9005
foh	-10.8681
▁foh	-8.25745
fohi	-9.89374
▁foi	-11.1107
▁foie	-10.9654
fois	-11.0268
▁fois	-7.73484
▁fôka	-11.0505
▁Fôl	-10.9594
▁fol	-11.1609
▁föl	-11.4474
▁fol	-9.63108
▁fôla	-8.52046
▁fola	-9.72774
fôli	-10.5037
foli	-11.078
▁foli	-9.12988
▁fôli	-9.86096
▁folle	-11.1591
fôlô	-10.1262
▁Fôlô	-10.4345
▁fôlô	-7.27718
▁folo	-8.40308
folo	-9.90704
▁fôlôla	-10.6359
fon	-11.0009
▁fon	-9.37807
▁fonafolina	-10.8687
▁foncé	-11.4077
▁fonction	-9.09842
▁fonctionn	-10.6511
▁fonctionnai	-11.5308
▁fonctionnalités	-10.9577
▁fonctionne	-9.08166
▁fonctionnelle	-11.4132
▁fonctionnement	-10.1476
▁fonctions	-10.0152
fond	-11.653
▁fond	-8.4074
fond	-9.90625
▁Fonda	-10.9578
▁fondamenta	-10.9415
▁fondamental	-10.8052
▁fondateur	-11.4095
▁fondation	-11.1914
▁fondée	-9.93347
fongnon	-10.8621
▁fongnon	-9.71484
▁foni	-10.7952
fonnon	-11.6461
▁fonnon	-9.29857
▁font	-8.58687
fontaine	-10.8737
fonyé	-11.4085
▁foo	-8.39637
foor	-11.4299
▁football	-10.7911
for	-10.0369
▁For	-10.1964
▁For	-11.5151
▁for	-8.9159
▁for	-9.684
▁fora	-10.2066
fôra	-10.7433
▁fôra	-9.70246
▁forcé	-10.4121
▁force	-8.56183
▁forestiers	-10.7911
▁forêt	-9.64333
▁forfait	-10.4121
▁Form	-10.56
▁Form	-10.873
▁forma	-10.9555
▁formalité	-10.9579
▁format	-11.6605
▁format	-9.14292
▁formation	-9.38726
▁formats	-10.446
▁formé	-10.3033
forme	-10.3955
▁forme	-8.47786
▁formée	-10.6607
▁formelle	-10.14
▁forment	-10.4372
▁former	-9.75817
formul	-10.958
▁formulaire	-10.7911
▁fôrô	-10.9077
foro	-11.5575
▁foro	-9.66797
▁foroba	-8.8515
forobatô	-11.6517
▁forobaya	-10.9288
foron	-11.5966
▁forou	-10.4485
fort	-10.9426
fort	-11.3566
▁fort	-8.48912
▁forte	-8.81582
▁fortune	-10.5354
▁fosse	-10.5232
▁fossile	-10.1379
▁fôtchogo	-10.4469
▁Foto	-10.874
▁foto	-9.13082
▁fotota	-9.66238
▁fou	-10.3268
fou	-10.5032
▁fou	-9.2823
▁fouill	-10.7938
▁foule	-9.6438
▁founde	-10.1325
▁founou	-10.0538
founou	-10.4276
founté	-10.9074
▁founte	-11.0894
▁four	-10.6491
foura	-10.8674
▁foura	-9.42464
▁fourakè	-10.8715
▁fourch	-10.9594
fourmis	-10.4126
▁fourni	-10.5741
▁fournir	-9.93719
▁fourniss	-10.1504
▁fournisseur	-10.97
▁fournit	-11.1926
fourou	-10.8633
▁fourou	-8.73727
▁foyer	-10.7911
▁foyi	-7.86241
fɔ	-10.0279
▁fɔ	-7.04303
fɔlɔ	-11.3106
▁fɔlɔ	-8.39345
▁fɔlɔfɔlɔ	-10.8689
fɔn	-11.0801
▁fɔɲɔ	-10.3232
fɔr	-10.6279
▁fɔra	-9.70511
▁fɔta	-11.4901
▁fr	-9.49122
▁fra	-10.3337
fraîch	-11.4077
▁frais	-9.81961
▁fraise	-11.0926
▁fran	-9.60183
▁Franc	-10.4234
▁franc	-10.9451
▁franca	-11.6007
▁francai	-9.92912
▁Français	-10.8687
▁français	-11.3187
▁français	-8.88253
▁française	-10.089
france	-11.3913
▁France	-9.09429
▁france	-9.51129
▁franchi	-10.642
franchi	-11.724
▁franchiss	-10.5341
▁Franci	-10.4395
▁franci	-11.0703
▁Francis	-9.90198
▁Francis	-9.98951
▁franco	-10.6219
▁françois	-10.6482
▁francs	-10.8258
▁Frank	-10.8687
▁Frank	-10.9577
▁frans	-11.1448
▁fransi	-10.577
▁frapp	-10.7323
▁frappa	-10.5016
▁frappe	-10.0981
▁frappé	-10.3205
▁Fre	-10.5338
▁Fre	-10.7388
fre	-11.5912
fred	-10.9622
▁fréque	-10.9552
▁fréquence	-10.9577
▁fréquent	-10.2694
▁fréquente	-10.1755
▁fréquentées	-11.4089
▁fréquentés	-10.9588
▁frère	-9.31421
▁fret	-11.4098
frey	-11.4079
▁fri	-10.0796
fri	-10.1943
▁fri	-10.5384
fricain	-10.4342
▁froid	-8.95465
▁froide	-11.0176
▁froide	-11.3187
▁front	-10.1396
▁frontier	-10.8787
▁frontière	-9.45005
▁Frontières	-10.9577
frontières	-11.5217
▁frotte	-11.1579
▁frou	-10.7216
▁fruits	-9.98951
fs	-9.7651
ft	-11.5753
fu	-10.5267
▁fu	-10.5332
▁fu	-8.76975
▁fuir	-11.4083
▁fuite	-10.138
▁fum	-11.2281
▁fumée	-11.1586
▁funérai	-10.5232
▁funu	-11.0736
funu	-11.6451
▁fur	-10.3252
▁fura	-9.56674
fura	-9.89563
▁furent	-10.14
▁furi	-11.1357
furu	-11.5787
▁furu	-9.12573
▁fuseau	-10.958
▁fusée	-10.9578
▁fusil	-10.5235
fusion	-10.7964
▁fusionn	-11.4097
▁fut	-8.05109
▁futur	-10.1628
▁fuy	-11.4341
ğ	-11.6521
ğ	-11.7411
g	-7.30859
▁G	-7.82823
g	-7.87955
▁g	-8.28883
▁g	-8.33814
G	-8.66771
▁G	-8.68613
G	-9.53895
▁Ga	-10.0374
ga	-6.86385
▁ga	-7.7241
ga	-8.93191
▁ga	-9.75566
▁gaari	-10.8693
gab	-11.5213
▁gabri	-11.6528
▁gafe	-10.4563
▁gagn	-10.1305
▁gagne	-10.1236
▁gagné	-10.5277
▁gagné	-11.6153
gagnéla	-11.0899
gal	-11.3997
▁gala	-10.1389
▁Galapagos	-10.4343
▁Galapagos	-10.5232
▁Galápagos	-10.5232
▁Galasi	-10.8694
▁galasi	-9.1905
▁galass	-11.6559
▁galassi	-11.4268
▁galax	-10.87
▁galerie	-11.4077
gali	-11.3106
▁Galil	-10.8713
▁gallons	-10.9579
▁galo	-11.1282
▁galon	-10.4448
▁Gam	-10.9941
▁gama	-11.0758
gami	-10.1007
▁gamme	-9.98951
gamou	-11.1407
gan	-8.18
▁gan	-9.52237
▁gand	-11.4095
ganisa	-11.3196
gap	-11.4647
gar	-10.2451
▁Gar	-10.4781
▁gar	-10.5399
▁Gar	-11.0262
gar	-11.1283
▁gara	-10.65
▁gara	-10.8042
▁garage	-10.9579
▁garçon	-9.98951
▁gard	-11.3378
▁gard	-11.3462
▁Gard	-11.5635
▁gardé	-10.7501
▁garde	-9.22598
▁gardée	-11.0143
▁garder	-10.1161
▁gardez	-9.9915
▁gardien	-11.4775
▁gare	-9.69505
gari	-10.0003
▁gari	-9.49798
▁garnison	-11.1577
▁gars	-10.0617
▁gasi	-11.3647
gassi	-10.6547
▁Gate	-10.5234
gate	-11.3629
gate	-11.4448
gativ	-11.4983
gatiw	-11.3387
▁gauche	-9.86035
▁gaud	-10.9589
▁Gaz	-10.958
▁gaz	-9.21437
▁gaz	-9.5643
▁Gazi	-10.437
▁gb	-10.8191
▁Gb	-10.8339
▁gba	-9.40578
gban	-10.0852
▁gban	-8.7003
▁gbani	-10.5277
▁gbanni	-10.4688
▁gbanzan	-9.55448
gbe	-10.7535
gbê	-10.8691
▁gbé	-11.3368
▁gbe	-8.92759
gbè	-8.98975
▁gbè	-9.2523
▁gbèlè	-9.1888
▁gbele	-9.42564
▁gbèlèman	-10.8815
▁gbèman	-10.8808
gbènè	-10.8696
▁gbèni	-10.4543
gbeni	-11.6372
gbèrè	-10.1176
▁gbèrè	-8.21125
▁gbere	-9.09399
▁gbèrein	-10.4344
▁gbèrèw	-8.95433
▁gbèssi	-10.8698
▁gbèya	-10.4554
▁gbili	-11.6562
▁gbiliman	-10.1329
▁gbin	-10.1305
gbinl	-11.6586
▁gbinli	-10.879
▁gbiri	-10.439
gbiri	-11.6492
▁gbissi	-10.4342
▁gbo	-11.4668
gboks	-10.8696
▁gbolo	-10.4382
▁gboro	-10.8694
▁gbou	-10.4392
▁gboy	-11.2466
gboya	-11.0781
▁gê	-10.0605
▁gè	-10.6703
ge	-8.45641
ge	-9.31707
gê	-9.59737
gé	-9.71736
gè	-9.77371
▁ge	-9.8847
▁géant	-9.9555
▁géante	-10.0248
gel	-10.9284
▁gêlê	-11.0691
▁gelé	-11.3221
▁gèlè	-11.6334
▁gèlèya	-11.085
▁gen	-10.3109
▁gên	-10.4121
gen	-10.5462
▁gén	-11.1296
gèn	-9.79561
genci	-10.5336
▁genè	-11.158
▁gene	-11.5079
gène	-9.64332
▁génér	-9.91126
▁genera	-11.1641
▁General	-10.8687
▁général	-8.57947
générale	-11.7248
▁générale	-7.92409
▁généralisé	-10.9615
▁génération	-10.9196
▁générations	-10.5504
▁généraux	-10.792
▁génétique	-10.1379
géni	-10.8953
gèni	-11.3488
▁genoux	-10.9577
▁genre	-10.8006
genre	-11.724
▁gens	-7.79553
gent	-10.8925
▁géo	-10.3141
▁Geo	-10.4167
▁Geo	-10.5233
▁géo	-10.7079
▁géographi	-10.9562
▁géographique	-10.222
▁géologique	-10.7509
▁géologiques	-10.5552
George	-11.6453
▁George	-9.71349
George	-9.80153
▁georges	-10.6517
▁géothermique	-10.9577
ger	-10.3881
▁gér	-11.0149
ger	-9.49775
géré	-11.0208
▁gere	-11.0728
▁germ	-11.7163
▁germa	-11.3955
▁germinales	-10.9577
ges	-11.303
▁geste	-10.1391
▁gestion	-10.0679
gestion	-10.9384
▁gɛ	-10.3232
gɛ	-9.86372
▁gɛɛni	-11.6561
▁gɛlɛman	-11.6521
▁gɛlɛn	-10.4342
▁gɛlɛya	-9.76771
▁gɛlɛyara	-11.337
gɛn	-10.4142
▁gɛn	-10.6602
gɛr	-10.4878
▁gɛr	-11.3183
▁gɛrɛ	-10.1373
gɛrɛ	-11.2555
▁gɛrɛfɛ	-9.65703
gɛri	-11.1963
ggi	-11.05
gh	-10.221
Gh	-10.7379
▁GHz	-10.9577
▁gi	-10.1823
▁Gi	-10.3943
▁Gi	-10.8191
gi	-8.08882
▁gi	-9.63597
gi	-9.97567
▁Gian	-10.4362
▁gilan	-10.2373
▁gin	-10.2938
gin	-10.7465
▁Gingrich	-10.2212
ginna	-11.196
gio	-11.1861
gique	-10.4106
▁giri	-10.9302
gis	-10.4644
giw	-10.4437
▁Giz	-10.4461
Giz	-11.6459
▁Gizeh	-10.2212
gji	-11.4097
▁Gl	-10.835
▁glac	-10.7053
▁glacé	-10.9577
▁glace	-8.96253
▁glacé	-9.71284
▁glacial	-11.4077
▁glacier	-10.5232
▁glan	-9.97358
▁glas	-10.8874
▁glassikourou	-10.1323
▁Glassikourou	-10.8691
glise	-10.9529
▁glissant	-10.9577
▁glisse	-10.5232
glob	-10.5225
▁global	-11.1592
▁GMT	-10.5232
▁gn	-9.94332
▁Gna	-10.2496
▁gna	-7.50427
gna	-8.86055
▁gnade	-10.9789
▁gnadé	-11.6648
▁gnadelogo	-10.8687
▁gnafè	-11.0837
gnaga	-11.4208
▁gnaga	-9.61466
▁gnagami	-10.3739
▁gnagb	-11.4224
▁gnagni	-11.6525
▁gnagnini	-10.1371
gnagnini	-11.6345
▁gnakun	-10.4383
▁gnalagbè	-10.8689
▁gnam	-11.5909
▁gnama	-10.2957
▁gnaman	-10.5211
▁gnamat	-10.4829
▁gnami	-10.6862
▁gnamima	-10.133
▁gnaminè	-10.8696
▁gnamini	-10.92
▁gnamogo	-10.1375
▁gnan	-7.04798
gnan	-7.72192
▁gnana	-9.66567
▁gnanabô	-9.90119
▁gnanadj	-11.6472
▁gnanadjè	-10.8712
▁gnanagbè	-10.4345
gnanagbe	-10.8623
▁gnanagbe	-9.57727
▁gnanagbel	-11.4962
▁gnanam	-10.9562
▁gnanama	-9.92065
▁gnanaman	-9.23167
▁gnanan	-9.43465
▁gnanangbè	-10.4347
▁Gnanf	-10.4829
▁gnanfe	-10.8805
▁gnanfè	-9.90739
▁gnangb	-11.6312
▁gnangnini	-10.1332
▁gnaniya	-10.4365
gnanman	-10.8871
gnannaman	-10.4543
▁gnannan	-10.493
▁gnannanman	-10.4365
▁gnanra	-10.5361
▁gnanran	-10.4471
▁gnanta	-10.93
▁gnara	-10.5886
▁gnassi	-10.8747
gnat	-11.6683
▁gnataga	-10.705
▁gnayira	-10.8735
gne	-10.3271
▁gnè	-8.03706
gnè	-9.4161
▁gné	-9.70159
gne	-9.90054
▁gnèfè	-10.327
gnèguè	-11.0576
gnégui	-10.9131
▁gnei	-11.6356
gnein	-11.6471
▁gnein	-9.69895
▁gneinbila	-10.869
▁gnèmôgô	-10.4363
▁gnen	-10.1359
▁gnènè	-10.4359
gnez	-10.8163
▁gni	-9.13005
gni	-9.41678
▁gnig	-11.0253
▁gnigui	-10.8699
gnili	-10.9027
▁gnimi	-10.2263
▁gnin	-8.17565
gnin	-8.98161
▁gnina	-11.0487
▁gninan	-11.3926
gnini	-10.1352
▁Gnini	-10.9264
▁gnini	-7.98501
gninibaga	-11.6331
Gniniga	-11.539
gniniga	-11.6617
▁gniniga	-9.90905
▁gninigali	-9.7422
▁gninin	-10.9425
▁gninina	-10.8125
gninina	-11.6605
▁gnininga	-10.3689
▁gniningali	-10.506
▁gninmôg	-11.6521
▁gninmogo	-10.4436
▁gninmôgôya	-10.8688
▁gnô	-11.0628
▁gnôg	-10.9701
▁gnôgô	-10.129
gnôgô	-10.3824
gnogo	-9.89893
▁gnôgôn	-9.55969
▁gnogon	-9.71211
▁gnôgônatè	-10.8687
▁Gnôgônatè	-10.8687
▁gnogonna	-10.8778
▁gnôn	-10.5714
▁Gnon	-11.6575
gnon	-9.0081
▁gnon	-9.50265
gnôngô	-10.862
▁gnongô	-10.8722
▁gnongo	-11.6394
gnongô	-11.6656
▁gnôngô	-9.25023
▁gnôngôn	-10.4262
▁Gnongon	-10.8831
▁gnongon	-7.23929
gnongon	-8.99332
▁gnôngôna	-10.2612
▁gnongonan	-10.1606
▁Gnongonb	-11.255
▁gnongondan	-9.42009
▁gnongonna	-10.9696
▁gnongonnan	-9.10908
gnongonw	-10.9676
gnonkan	-11.1514
gnou	-10.3365
▁gnou	-11.3417
▁gnouma	-9.80862
gnouman	-10.2031
▁gnouman	-8.45679
gnoumani	-10.9359
▁gnoumanna	-10.1468
▁gnoumaw	-10.915
▁gnuma	-10.8562
▁gnuman	-10.1416
gnuman	-10.8619
gny	-10.63
▁Go	-10.1369
gô	-10.1487
▁go	-10.6219
▁gô	-10.7169
go	-7.97051
▁go	-9.09328
▁Go	-9.47387
go	-9.77031
▁gobele	-11.069
▁Gol	-10.9637
Gol	-11.652
▁golf	-10.3121
▁Golf	-10.4343
▁golf	-10.8688
▁golo	-10.3467
golo	-9.31254
▁Gom	-11.6449
▁Goma	-9.90342
▁Goma	-9.98968
gon	-10.2506
▁gon	-10.4737
gon	-9.45847
gonan	-10.8312
gondan	-11.6405
▁gonga	-11.4188
gongo	-10.945
▁gongon	-10.8692
▁gor	-10.7488
▁Gor	-11.032
▁gor	-11.1759
gorde	-11.2575
▁Gordon	-10.8689
▁Gordon	-10.9577
gore	-11.5064
▁gorge	-10.9579
gori	-11.3613
goro	-10.0994
goro	-11.2728
▁gôrôtôn	-10.4342
▁gosi	-10.4753
gothique	-11.4077
▁gou	-10.6518
▁gou	-10.8183
▁Gou	-10.8494
▁Gouè	-10.8901
▁Goun	-10.487
▁goun	-9.32779
▁gouni	-10.9455
▁gounkoun	-10.1325
▁gourou	-10.2212
▁goût	-10.3121
▁goutte	-11.1585
▁gouvè	-11.6515
▁gouvèr	-11.6354
▁gouvèrèn	-11.5391
▁gouvèrènèman	-10.4351
▁gouvérénéman	-10.8722
gouvérénéman	-11.6457
▁gouvèrinè	-10.8696
▁gouvern	-10.7901
▁gouverneman	-10.8687
▁gouvernemen	-10.8687
▁gouvernement	-8.0147
▁gouverneur	-9.314
goyala	-11.652
gɔ	-10.1298
▁gɔn	-11.6606
▁GP	-10.44
▁GP	-10.8727
GP	-11.6453
▁GPS	-10.8689
▁gra	-10.6836
▁gra	-9.97592
▁grâce	-9.1826
grad	-11.0287
▁gradu	-11.408
graf	-11.0736
grafe	-11.6966
▁graffitis	-10.5232
▁graine	-10.7962
▁gramm	-10.0609
▁Gran	-10.1327
▁Gran	-10.5365
▁gran	-11.2428
▁gran	-9.97705
▁grand	-7.61072
▁Grand	-9.79331
▁grande	-7.67882
▁Grande	-9.18725
▁grandes	-8.73957
▁grands	-8.52626
▁Grant	-10.8706
graphi	-10.8726
graphique	-11.1135
gras	-11.1868
▁gratt	-10.9925
▁gratuit	-10.2212
▁gravé	-11.4081
▁grave	-9.38658
▁graves	-9.64393
▁gravi	-10.9583
▁gravité	-10.9581
▁Grè	-10.1332
▁gre	-10.2188
▁Gre	-10.532
▁Gre	-10.8653
▁grè	-11.0332
gré	-8.77477
▁gre	-9.85143
▁grec	-9.92223
▁Grèce	-10.9577
▁grecque	-10.1393
▁Gree	-10.6966
▁Green	-10.9605
▁Greenlan	-11.6347
▁Greenland	-9.42017
grégation	-10.959
▁grêle	-10.9577
▁grenouilles	-11.4077
grès	-9.26889
▁Gri	-10.6529
▁gri	-9.46242
▁grièvement	-11.1577
▁griffe	-10.2212
▁grimpe	-11.6798
▁grimper	-10.9872
▁grip	-11.0692
▁Groenland	-9.50679
▁grond	-10.9577
▁gros	-9.17914
▁grosse	-9.9301
▁grossiers	-10.9578
▁grotte	-9.6037
▁grottes	-10.296
grou	-11.4506
▁group	-9.9006
▁groupe	-8.13095
▁groupes	-10.1008
▁grupu	-8.89852
gst	-11.6534
▁gu	-9.01677
gu	-9.1163
▁gu	-9.31448
gu	-9.55327
▁Gu	-9.64497
gua	-8.67793
▁Guar	-10.9584
▁gudo	-11.0731
guê	-10.7966
▁gué	-10.9554
guè	-8.94381
gue	-9.09625
gue	-9.57611
guei	-10.8309
▁guèlè	-11.6381
guèlè	-11.6414
▁guèlèya	-10.4431
guèlèya	-11.65
guèrè	-10.476
▁guéri	-10.6489
▁guerre	-8.0637
▁Guerre	-9.50678
guèsèguèl	-11.6521
▁Gui	-10.434
gui	-8.77023
▁guich	-11.6544
▁guichet	-10.7911
guid	-11.4287
▁guide	-10.4236
guil	-11.2503
guila	-10.7783
guill	-11.5582
guinibe	-11.4224
▁guli	-11.3953
▁gun	-10.7075
▁Guru	-10.1324
guru	-11.0703
▁guun	-8.77941
▁guvèrènè	-10.8689
▁guvern	-10.8687
▁guvɛrn	-10.5592
▁Guy	-10.9188
▁gwa	-10.3394
▁gwan	-10.5629
gwan	-10.6983
▁gwanni	-10.8879
▁gwansan	-9.71259
gwè	-10.22
gwe	-11.6386
▁gwè	-9.90542
▁gwele	-10.1323
gwèlè	-10.8538
gwêlê	-10.8691
▁gwèlè	-9.95848
gwèlèn	-10.744
▁gweman	-11.3188
▁gwèrè	-9.90098
gwɛ	-10.3148
▁gwɛ	-11.0392
▁gwɛlɛ	-10.4177
▁gwɛlɛman	-11.0733
▁gwɛlɛn	-10.3316
▁gwɛlɛya	-9.71488
▁gwɛn	-10.6824
gwɛrɛ	-11.3136
▁gwɛrɛ	-9.9023
▁gwiliman	-10.5592
▁gy	-11.5404
Gy	-11.6591
gyal	-10.9577
▁gymnasti	-11.3547
▁gymnastique	-10.9577
gypt	-11.6518
h	-6.85888
h	-7.25443
▁h	-7.7037
▁H	-8.01667
▁H	-8.63971
▁h	-8.93971
H	-9.53151
H	-9.77583
▁ha	-8.72013
ha	-9.28196
▁Ha	-9.58571
▁ha	-9.68263
ha	-9.72306
hab	-10.3987
▁habada	-10.8687
habd	-10.798
habiller	-11.4077
▁habit	-9.86357
▁habitant	-10.1861
habitants	-10.7748
▁habitants	-9.05454
habitat	-10.3202
habite	-10.5006
▁habitée	-10.7931
habitude	-9.80155
▁habituelle	-10.239
▁habitués	-10.5232
had	-10.4556
had	-11.6421
hagiog	-11.7101
▁Haïti	-10.2249
Haïti	-11.7243
▁hakan	-10.4398
▁hakangnan	-10.8695
hake	-10.4932
hakè	-11.6509
▁hakè	-8.85019
▁hakɛ	-11.6566
▁haki	-9.29857
▁Hakili	-10.8494
hakili	-10.8623
▁hakili	-7.81
▁Hakilila	-10.4497
▁hakilila	-9.31345
▁hakilina	-10.9209
▁hakilinan	-10.5974
hal	-10.0743
hal	-10.6221
▁Hal	-10.8271
▁Hal	-11.0756
▁hal	-11.5275
halaki	-10.8743
▁hali	-7.98719
▁Hali	-8.39496
hall	-10.3524
▁Hall	-10.5237
halte	-11.1599
ham	-10.1424
▁Ham	-10.6902
▁Ham	-10.8849
ham	-9.75171
hamba	-11.4084
▁hamin	-11.2438
▁hamina	-11.0108
han	-10.0167
▁Han	-10.4016
▁Han	-10.4708
▁han	-9.96916
▁handicap	-10.5232
▁Hang	-10.5012
hang	-11.6993
▁hangi	-10.2212
hangi	-10.4893
hani	-10.9162
hannes	-11.5959
▁hanri	-11.3258
happa	-10.1747
happa	-11.0231
har	-10.305
▁Har	-10.5315
▁Har	-10.9098
har	-11.0847
hara	-11.2872
▁haram	-11.66
▁haramuya	-10.8688
▁Harap	-10.4345
▁Harappa	-10.5233
▁Harbour	-10.4342
harc	-11.3084
hariya	-10.8731
hark	-11.5698
harma	-11.1586
▁harmoni	-10.654
harmoni	-11.724
▁Harv	-10.8794
▁Harvard	-10.9578
▁hasard	-10.9578
▁hât	-11.1577
haus	-10.8122
hausse	-11.1569
▁Haut	-10.5232
▁haut	-8.57965
▁haute	-9.41972
▁hauteur	-10.5282
Hawa	-10.9578
Hawaï	-10.9578
▁Hawaii	-10.4342
haya	-10.92
▁hé	-10.3219
▁He	-10.4282
hé	-9.78635
he	-9.87883
▁He	-9.88998
▁he	-9.9188
▁Heb	-10.9616
▁héberge	-10.9544
hébergement	-10.5062
▁hébergement	-10.5428
▁Hébron	-10.9577
hegi	-10.4378
▁hei	-11.5183
▁hélicoptère	-10.7911
heliya	-11.5708
hémi	-10.4115
▁henri	-10.2214
▁Her	-10.5712
▁Her	-10.6403
▁hèr	-10.9046
her	-9.99273
herbe	-10.4122
herbivores	-11.5336
▁hèrè	-10.2253
hèrè	-11.6582
▁héri	-11.3581
▁hérit	-10.6807
hérit	-11.7235
héritier	-11.2037
Hero	-10.6856
Herostratus	-10.9577
hésit	-10.4123
▁Hesperonychus	-10.8687
Hesperonychus	-10.9577
▁heure	-8.69595
heure	-8.87496
▁heures	-8.64785
▁heureuse	-10.6532
▁heureux	-10.7955
heuri	-10.8687
▁heurt	-10.1382
hey	-10.5605
▁hɛkɛ	-11.3187
▁hɛr	-10.446
▁hɛrɛ	-10.2229
hh	-10.3632
▁Hi	-10.3359
hi	-8.42095
▁hi	-9.25812
hi	-9.4962
▁hier	-8.86918
▁hiérarchie	-10.7945
hika	-11.6581
▁Hind	-9.91689
▁hindou	-10.984
hindouis	-10.9322
hip	-11.4973
hirosi	-11.3199
hisi	-11.6618
histoire	-8.39183
▁histoire	-9.55767
▁histori	-11.3188
historien	-10.7911
▁historique	-9.646
hiti	-11.4174
hiti	-11.4908
hiver	-9.40875
▁hiver	-9.56925
hman	-11.0028
hne	-10.2266
ho	-10.0534
hô	-10.3437
▁hô	-10.6872
▁Ho	-9.19102
▁ho	-9.25631
▁hockey	-10.4342
hog	-10.1991
hogoyala	-11.652
▁Hol	-10.5307
Hom	-11.1922
▁Hom	-11.4624
▁hommage	-10.9577
▁homme	-8.82185
homme	-8.94619
▁hommes	-8.95725
▁homosexuel	-11.4077
hon	-10.8411
Hon	-11.6601
▁hong	-11.3227
▁Hong	-9.41833
▁Hong	-9.64194
▁Hongrie	-10.9584
▁honnête	-10.7926
honneur	-10.2212
▁honor	-10.6564
honor	-11.3906
▁honte	-10.7968
hoo	-11.5169
hôpital	-9.21383
hor	-11.3604
▁hor	-9.35127
▁horaires	-10.5238
horizon	-10.9402
▁horizon	-10.9756
horloge	-11.4071
▁horloges	-10.5235
horo	-10.7795
▁hôrôn	-10.8721
hôrôn	-11.6452
horreur	-10.6515
hors	-11.1067
▁hospitali	-10.9659
hospitali	-11.7263
▁hostil	-11.7104
▁hostile	-10.5326
hôte	-10.4828
▁Hotel	-10.1394
▁hotel	-10.4267
▁hôtel	-10.521
hôtel	-9.7293
▁hoteli	-10.8807
▁hôtels	-9.39946
hôtes	-10.1657
hoton	-11.6494
▁hou	-7.13986
hou	-7.44426
houkèt	-11.6577
houla	-10.5783
▁How	-10.2254
How	-11.7248
▁howe	-11.3192
▁hɔn	-11.6569
hristophe	-11.1588
hristophe	-11.3413
▁Hsie	-10.4349
▁Hsie	-10.5365
ht	-11.2532
▁Hu	-10.4471
hu	-8.2107
hu	-9.81379
▁Hu	-9.86587
hud	-11.4337
▁Huhn	-10.4346
hui	-7.67558
huit	-8.73403
▁huit	-9.00882
huitième	-10.651
hul	-11.175
hul	-11.6446
▁hum	-10.8693
▁humain	-10.7408
▁humaine	-10.7597
▁humaines	-10.5573
▁humains	-8.94439
humanité	-10.4121
humeur	-10.6483
▁humi	-10.8254
humidité	-10.5232
humili	-11.3597
▁humm	-11.653
▁humo	-11.4091
▁hun	-9.90234
hur	-10.7334
hurl	-11.4292
▁Hurrican	-10.4343
▁huss	-11.4083
▁hy	-11.3922
hya	-9.66991
hyam	-10.7911
▁hybrid	-11.4077
hydor	-10.4362
▁hydra	-11.4077
hydro	-9.92284
▁hydrog	-10.8687
▁Hydrogen	-10.8687
hyper	-11.4078
▁hypothèse	-11.4077
ʻ	-11.4077
í	-10.371
ï	-10.9244
Î	-10.9577
î	-11.0487
ï	-11.3606
Ï	-11.6521
▁î	-11.6633
î	-13.3188
i	-4.98149
▁i	-5.19091
i	-7.13163
▁I	-7.2196
I	-8.44878
▁I	-8.83104
I	-9.12166
▁i	-9.81293
ia	-8.92052
iable	-11.1603
iam	-10.7941
iano	-11.1801
iao	-10.9772
iation	-10.4312
ib	-9.59363
▁ibé	-9.40339
▁ibe	-9.44868
iberal	-10.9502
▁ibi	-9.03802
ibilité	-10.4122
ibles	-10.2993
ibu	-11.5062
IC	-10.707
ic	-9.32796
ical	-11.5223
icane	-11.1624
ication	-10.2001
▁Iceland	-10.8687
ichard	-10.9582
ichel	-11.4127
ichel	-11.5882
ichol	-11.4085
▁ici	-8.33327
ici	-9.23361
iciens	-10.9646
ick	-9.49695
icket	-11.6517
icoles	-10.9588
icro	-10.9576
ictions	-10.8422
icule	-10.5049
id	-9.28366
ide	-10.301
▁idéal	-11.1577
▁idée	-10.6783
idée	-9.22997
▁idées	-10.1625
ident	-10.716
▁identifié	-9.92292
▁identiques	-9.86034
▁identité	-10.806
identité	-10.9409
ider	-10.2984
ides	-10.4029
▁idiot	-11.1577
ie	-10.2655
ié	-10.5867
ie	-7.96877
ième	-7.8571
ien	-9.78217
iendront	-10.5233
ienne	-9.37758
iennes	-10.2891
iens	-8.83197
ient	-9.58722
ienw	-10.8699
ier	-8.35631
ière	-9.66582
ières	-9.97689
iers	-9.3558
ieurs	-7.80095
ieuse	-10.8641
ieux	-10.5565
iez	-9.56043
if	-9.09158
ifasso	-11.6593
ifi	-11.2495
ification	-10.1388
ifie	-11.2613
ifiée	-11.1569
ifik	-11.3257
ifique	-10.5239
ifs	-10.0158
ig	-9.26834
igat	-10.9703
iges	-10.9726
igg	-10.7387
iggins	-10.6482
igh	-10.1414
igh	-10.5227
igini	-11.649
igiyôrô	-11.6386
igiyɔrɔ	-11.3963
ign	-9.11615
ignan	-11.263
ignin	-11.1565
▁ignore	-10.9659
ignore	-11.7256
iguei	-10.885
iguein	-10.9959
igui	-9.59115
ihu	-11.4122
ii	-10.5938
▁II	-10.8733
▁II	-10.9556
III	-10.411
ik	-10.7723
▁ika	-9.67483
ike	-10.8032
iki	-9.41399
▁Ikô	-11.6488
iko	-11.7192
ikôlà	-11.6533
il	-10.0783
Il	-10.351
▁Il	-10.8833
▁il	-11.0826
▁il	-5.17199
il	-6.19873
▁Il	-6.53633
ilama	-11.3827
ilasi	-10.0248
▁île	-10.0495
▁île	-10.4808
île	-8.56107
ilé	-9.97486
ilèkasèbè	-10.4368
▁îles	-8.45731
iles	-9.64986
ilétèri	-10.8766
▁ili	-10.7377
▁Ili	-11.2222
ilisi	-10.7143
ilité	-10.5402
ill	-9.32831
illac	-10.9587
illance	-11.1579
illard	-10.6854
ille	-10.1219
illè	-10.7186
ille	-9.0773
▁illégal	-10.9003
▁illégale	-10.4473
illier	-11.4136
illon	-9.92908
▁illumin	-11.6266
illumination	-10.9578
▁illustr	-10.6465
▁illustration	-11.4114
ils	-7.33429
im	-10.4363
im	-9.09084
▁ima	-10.3184
ima	-10.5184
image	-9.10712
▁image	-9.6718
imagination	-10.9577
imbécile	-10.9577
iménez	-11.4077
imi	-10.3322
imité	-10.0478
immédiat	-11.7245
▁immédiat	-9.92525
▁immédiatement	-10.1383
immense	-10.6482
▁immer	-11.4077
immi	-11.5012
immigrant	-11.4077
immigration	-10.2212
immobil	-11.4105
▁imp	-8.78524
▁impact	-10.5344
impact	-10.9407
impérial	-10.9576
▁impériale	-11.408
▁implant	-11.4078
implic	-10.9535
▁impliqu	-10.1902
▁impliqué	-10.0149
▁import	-11.6135
▁importan	-10.4542
importan	-9.62658
▁important	-8.77481
▁importante	-8.90805
▁importantes	-10.4998
▁importants	-10.1278
▁importe	-10.4822
importe	-9.5333
impos	-10.1447
▁impos	-10.385
▁impossible	-10.9578
impôt	-10.6089
impôts	-10.0105
▁impr	-11.6602
▁impression	-10.806
impression	-10.9405
▁imprévu	-11.4077
imprim	-10.2212
▁imprim	-11.3211
▁imprimante	-11.1577
▁imprimée	-10.5233
impulsi	-11.6936
▁In	-10.5471
ín	-11.4584
în	-11.6446
in	-7.09338
▁in	-8.08352
in	-8.1036
ina	-10.3752
ina	-10.5213
▁Ina	-10.975
▁ina	-8.58854
▁inaccessib	-11.4774
▁inaf	-10.9701
▁Inc	-10.8692
▁inca	-10.9592
▁incarcéré	-10.9577
ince	-11.5501
▁incendi	-11.3731
▁incendie	-10.0081
incendie	-10.5065
inch	-11.6623
▁inciden	-9.86897
incident	-10.7696
▁incit	-10.334
inclin	-10.7912
inclu	-10.9413
▁inclu	-9.55435
▁inconnu	-10.9659
inconnu	-11.7236
▁inconvénient	-10.9577
▁incorpor	-11.4077
▁incroyable	-10.4121
▁inculpé	-10.9577
incurv	-10.9577
▁Ind	-9.66442
inde	-10.59
▁indé	-11.7129
Inde	-9.18262
▁indemne	-11.4077
indemnis	-11.4077
▁indep	-10.8762
▁indépend	-10.8715
▁indépendamment	-10.9577
▁indépendance	-10.5594
indépendance	-9.78473
▁indépendant	-10.1042
▁indépendante	-10.0197
▁Indi	-10.7345
indi	-10.7889
▁indi	-11.2414
▁India	-10.4447
▁India	-10.9691
India	-11.7236
▁indic	-11.5265
▁indications	-10.6483
▁indien	-10.049
▁Indien	-9.4188
▁indien	-9.42373
▁indienne	-10.4159
▁indigène	-11.7016
▁indigènes	-10.2339
indigènes	-11.7244
▁indiqu	-10.6475
▁indiqué	-10.1453
▁indique	-9.50314
indisp	-10.9578
▁individu	-9.18258
▁indiy	-11.406
indou	-11.5507
▁Indu	-11.047
indu	-11.6239
Indus	-10.5232
▁industrie	-10.5583
industrie	-9.78447
▁industriel	-11.1593
îne	-10.0607
ine	-10.1779
ine	-8.65368
▁iner	-10.8921
ines	-9.36185
ineti	-10.6497
inèti	-11.1694
inɛ	-10.6056
▁inf	-10.6408
inf	-11.6189
▁infect	-10.025
▁infecté	-10.3876
▁infectée	-10.4544
▁infectieuse	-10.9578
infection	-10.4483
▁inférieur	-10.4121
▁influence	-10.2264
▁influencé	-10.7911
influence	-11.392
info	-11.4388
information	-10.0995
informations	-10.249
▁informations	-9.25239
▁informatique	-10.1429
informatique	-11.391
▁informé	-11.4077
▁informel	-10.9578
▁infraction	-10.9577
▁infrarouge	-10.9577
▁infrastructure	-10.7911
ing	-8.00101
ing	-8.95947
ingéni	-10.5234
▁ingenie	-10.8715
▁ingénieur	-10.9579
ingham	-11.4094
▁inhabité	-11.1577
▁inhabituel	-10.9577
inhu	-10.6883
ini	-8.85034
inik	-11.6632
inin	-11.1545
initi	-10.2946
▁initi	-10.9867
▁initiale	-10.7997
ink	-11.1603
inman	-10.8327
inmin	-9.12125
innes	-10.5162
innin	-11.3698
▁innovant	-10.7911
innovation	-10.7911
ino	-10.275
▁inond	-11.7152
inondation	-10.9691
▁inondations	-10.4125
inq	-11.6577
▁inquiét	-10.3121
▁inquiétude	-10.9577
inrin	-10.4637
ins	-11.4949
inscri	-10.942
▁inscri	-10.9726
▁inscrit	-10.6102
▁inscrits	-10.5602
▁insecte	-11.702
insectes	-11.7246
▁insectes	-9.86904
insister	-11.4078
inspect	-10.5205
inspection	-10.9619
inspir	-11.1573
▁inspiré	-11.1584
insta	-10.7915
▁instable	-10.7911
install	-10.2222
▁installations	-9.74596
▁installé	-9.98958
instant	-10.0622
▁instantané	-10.6482
inster	-11.4371
institution	-11.4257
▁instru	-10.8803
▁instruct	-11.5384
▁instruction	-10.7934
▁insulaire	-10.9578
▁insult	-11.1578
▁insupportable	-11.1577
▁Int	-11.0408
int	-11.0976
▁intacte	-10.9577
▁intégr	-10.9317
▁intégré	-10.8137
intelligence	-11.4108
▁intelligent	-11.4008
▁intelligente	-10.7959
▁intempéries	-11.4077
▁intense	-11.1579
▁intention	-10.1444
intention	-10.9407
▁intentionnel	-11.4116
inter	-10.4066
▁Inter	-10.4345
▁inter	-9.5525
▁inter	-9.7842
▁intèr	-9.94309
▁interacti	-11.0794
▁interactif	-10.5243
interdi	-10.9791
▁interdit	-10.1186
▁interdite	-11.003
▁intére	-10.9592
▁intéressant	-10.707
▁intéressante	-11.0215
intéressante	-11.7237
▁intéressants	-10.1601
intérêt	-10.6315
▁intérêt	-9.99825
▁interf	-11.4109
▁intérieur	-10.4054
intérieur	-9.53339
▁intérieure	-10.1744
▁intérim	-10.9579
▁intèrinèti	-10.135
international	-11.7246
▁international	-9.63419
▁internationale	-10.391
▁internationales	-10.0198
▁internationaux	-9.92284
▁interne	-10.6477
▁internet	-10.1445
Internet	-10.5068
internet	-11.391
▁internet	-9.09475
▁Internet	-9.2842
▁interprét	-11.0893
interprétation	-10.0118
▁interrog	-10.548
interroger	-11.1136
interromp	-10.6482
interrupt	-11.0166
intersection	-11.4077
▁interven	-11.2728
intervention	-11.0145
interview	-11.4077
▁intimid	-11.1577
intin	-11.6418
▁intrinsèque	-10.9577
▁introdu	-10.9401
introduis	-10.9757
▁introduits	-10.5232
▁intrusi	-10.9577
▁intuiti	-10.5233
▁inutile	-10.2212
invent	-10.8188
▁inventé	-9.92297
▁invers	-10.8186
▁investi	-10.7911
▁invit	-11.2203
▁invité	-10.5273
inviter	-11.6269
inw	-8.86384
Io	-10.495
io	-9.72703
iodi	-11.5858
ión	-11.4077
ion	-8.1778
ion	-9.61143
ionale	-10.8113
ions	-8.77125
ip	-10.1961
ipor	-10.684
ique	-10.5681
ique	-8.46476
iques	-9.75386
iquet	-10.6426
IR	-11.0995
ir	-8.65785
ira	-10.6913
ira	-9.59629
irag	-10.8472
irai	-9.50841
▁Irak	-10.8799
▁irakien	-11.4079
iramidi	-9.90044
▁Iran	-10.5236
▁Iran	-9.55972
▁iranienne	-10.1379
▁Iraq	-11.6448
▁Iraqi	-10.4364
iras	-10.3861
irayèli	-10.8688
ire	-9.40841
ire	-9.73145
irent	-9.56173
▁irez	-10.6489
iri	-9.12024
irina	-11.5336
iring	-11.586
iriya	-10.3256
▁irland	-11.4078
irlin	-10.3764
IRM	-10.5242
▁irrita	-10.9577
▁Is	-10.801
IS	-10.959
IS	-11.2207
is	-7.5708
is	-8.97418
isabanan	-11.6408
isation	-10.3571
ise	-11.1128
isè	-11.6489
ises	-9.58798
ish	-10.1692
isi	-10.3366
isitiri	-10.9331
▁isituari	-11.3187
isk	-11.6575
islam	-10.7911
Islam	-10.9577
▁Island	-10.1263
▁Island	-10.8415
▁islandais	-10.9577
Islande	-10.2821
▁Islandi	-10.4442
ism	-10.6214
isme	-8.28461
▁isol	-11.4634
▁isolé	-10.2327
isole	-10.9022
isolement	-10.7942
ison	-10.1337
isonné	-10.8909
ispan	-10.9594
▁Israel	-10.8688
▁Israël	-10.9659
Israël	-11.7236
issaient	-11.449
issait	-10.7778
issant	-10.7017
issante	-10.305
isse	-10.4706
issê	-10.8842
isse	-10.9772
issé	-9.74386
isseau	-11.1964
issi	-10.0467
ission	-10.6269
ission	-11.3879
▁issu	-10.9064
issue	-10.6881
ista	-10.4399
istan	-11.0286
Istanbul	-10.9577
iste	-11.6573
iste	-8.9577
istes	-9.75284
istoriquement	-11.7197
it	-10.4481
it	-7.25502
itabu	-11.6427
▁Ital	-10.5362
▁Ital	-11.0059
▁itali	-10.3114
▁Itali	-9.18723
▁Italie	-10.8714
Italie	-9.79533
▁Italien	-10.889
italien	-11.7247
▁italien	-9.59735
▁italienne	-10.3127
itan	-10.4277
itariste	-11.7067
itas	-11.608
▁ité	-10.842
ite	-10.9627
ité	-8.22408
ite	-9.61206
ité	-9.82263
iterie	-10.9871
iti	-8.89781
itinéraire	-10.9571
▁itinéraires	-10.2215
▁itinérant	-11.4077
ition	-9.77453
▁ito	-10.5468
ittéra	-11.7273
ittsburgh	-10.5232
itude	-10.138
ituée	-10.9566
ium	-9.76395
ive	-9.64138
ivini	-11.3564
ivisée	-11.7294
ivre	-10.7656
ivresse	-10.9578
ivuru	-11.0335
iw	-8.91699
▁Iwa	-10.8802
▁Iwa	-10.9581
iwa	-10.9601
ix	-9.72975
▁iya	-8.69948
▁iyé	-9.3632
▁iyèrè	-9.71952
iyon	-10.7986
▁Iz	-10.524
iza	-10.9301
izai	-11.5302
izɛ	-11.4297
izi	-10.7972
▁izin	-11.474
J	-10.8423
J	-11.7248
▁j	-6.69476
▁J	-8.09322
▁J	-8.92961
▁j	-9.35306
j	-9.36576
j	-9.67419
ja	-10.3364
▁ja	-8.40071
▁Ja	-9.18863
ja	-9.56587
▁ja	-9.89332
▁Jaa	-10.6268
▁jaa	-8.71621
▁jaabi	-10.2578
▁jaama	-11.3037
▁jaati	-10.3796
jab	-11.4067
▁jabi	-10.6994
▁jabili	-11.0832
jabrani	-10.8707
▁jacque	-11.6529
▁jacques	-10.9659
jacques	-11.7236
▁Jag	-11.659
▁jagabɔ	-10.8695
jagaro	-10.8759
▁jago	-10.0508
▁Jago	-10.8719
▁jagoba	-10.4339
▁jagokèyôrô	-10.8689
jah	-10.8715
▁Jakar	-10.8701
▁Jakar	-10.9577
▁jakumani	-10.5604
jala	-10.7372
▁jala	-10.934
▁jalaki	-10.0517
jalaki	-11.5138
jalatigi	-11.0337
▁Jam	-10.4123
Jam	-10.862
▁Jam	-10.9684
▁jam	-11.6248
jama	-11.3028
▁jama	-8.99868
▁jamais	-8.15851
▁jamakulu	-9.19111
jaman	-10.8656
▁jaman	-9.37679
jamana	-10.1295
Jamana	-11.6454
▁jamana	-7.61535
▁Jamana	-9.89167
▁jamanaden	-10.9956
▁jamanan	-8.97229
▁Jamanan	-9.91272
▁jamanaw	-9.51109
▁jambe	-10.9578
▁James	-10.2262
▁james	-11.4078
James	-11.7243
jaminidjan	-10.9301
▁jamu	-11.3227
▁Jan	-10.409
▁jan	-8.05438
jan	-9.03988
▁janfa	-11.1781
▁jang	-9.40214
▁jani	-10.9083
jani	-10.9253
janjan	-11.654
▁janto	-10.4405
▁Janv	-11.629
▁janvie	-11.3702
▁janvier	-9.74596
▁janya	-10.9414
▁japon	-11.6349
▁Japon	-9.00508
▁Japon	-9.18258
▁Japonai	-11.6524
▁Japonais	-10.8699
▁japonais	-9.73736
▁japonaise	-10.1542
japonaise	-11.7244
▁jara	-10.3497
▁jarabi	-11.3256
jarabi	-11.6448
jarasisi	-11.6523
▁jardin	-9.59572
jata	-10.4237
▁jata	-11.4213
▁jaté	-10.4351
▁jate	-10.5778
jatela	-11.6463
▁jati	-8.94141
▁jatigi	-10.7591
▁jatila	-10.5995
▁jatiminè	-10.4343
▁jatiminɛ	-11.319
▁jauge	-11.4088
▁jaune	-9.88496
▁jaunes	-10.1892
▁Java	-11.6527
▁javanais	-10.9584
▁Javanes	-10.4342
▁jayan	-11.6618
je	-11.4856
jé	-11.5687
▁je	-6.06684
▁je	-9.13779
▁Je	-9.26276
je	-9.71202
jean	-10.6334
▁jean	-8.63861
▁jean	-9.90372
jectif	-11.4076
▁Jeff	-10.8687
▁Jeff	-10.9577
jègnongon	-11.6531
jeli	-11.6415
jèmè	-11.6515
▁jen	-10.1706
jén	-11.0244
▁jèngè	-10.8687
jènsè	-11.6514
▁jensen	-10.8689
▁Jerry	-10.869
▁Jerry	-10.9579
▁Jérusalem	-10.2212
▁jésus	-11.4078
▁jet	-10.1086
jet	-11.0437
Jet	-11.4227
jet	-11.6544
▁Jeu	-10.4361
▁jeu	-11.2727
▁jeu	-9.329
▁jeudi	-10.5262
▁jeune	-9.47204
▁jeunes	-9.15095
▁jeunesse	-11.4118
▁Jeux	-9.0951
▁jeux	-9.32933
▁jɛ	-11.316
jɛ	-11.3515
▁jɛgɛ	-11.6522
▁jɛkulu	-11.3188
▁jɛn	-10.3118
▁jɛngɛ	-11.319
▁jɛni	-10.8908
▁jɛnkulu	-9.83395
▁jɛnsɛ	-11.3319
ji	-7.58672
▁ji	-8.11804
▁Ji	-9.77117
jibon	-11.6289
▁jida	-9.61997
jiden	-11.6576
▁jigɛ	-8.95059
jigi	-11.6549
▁jigi	-8.86307
▁jigira	-10.2369
jigiya	-11.6458
▁jigui	-10.7676
jigui	-11.6536
▁jii	-8.48298
▁jija	-11.3342
▁jijani	-11.3256
jikônô	-11.6542
▁jikɔnɔ	-11.6533
▁jikuru	-10.871
▁jina	-11.1261
jing	-10.8812
▁jinkul	-11.3242
jo	-10.0125
jo	-10.1332
▁Jo	-10.2339
▁jô	-10.8704
▁jo	-9.24595
▁Jo	-9.59003
▁jo	-9.78672
▁jogo	-11.0947
jogo	-9.91552
joguidaw	-10.8994
▁john	-10.1326
▁John	-8.84913
▁John	-9.09414
▁john	-9.92284
▁Johnson	-10.5239
▁joie	-10.7922
joindre	-10.5228
▁joint	-10.9668
joint	-11.7276
▁joli	-10.2979
▁joli	-8.85123
▁jolie	-10.0713
▁jolile	-11.3312
jon	-10.2364
jon	-10.8115
▁Jon	-10.8797
▁jon	-9.61492
▁jona	-10.1587
jong	-10.8707
▁joona	-9.12483
jor	-10.7069
jord	-11.5043
▁joseph	-11.1577
▁josi	-11.4804
▁jou	-11.5609
▁jou	-9.05184
▁joué	-10.0491
▁joué	-10.4244
▁joue	-9.36572
▁jouer	-9.83306
▁joueur	-9.65572
▁joueurs	-9.54093
▁jour	-8.11096
▁Jourdain	-10.4342
▁Jourdain	-10.5232
▁journal	-10.4113
journal	-11.3187
▁journaliste	-10.4132
▁journée	-8.5612
jourou	-10.8676
▁jours	-8.57098
▁jɔ	-11.1695
▁jɔn	-9.19178
▁jɔr	-11.3174
▁jɔrɔ	-11.1362
▁jɔsi	-11.3532
▁jɔyɔrɔ	-11.6524
▁Jr	-10.1355
▁Ju	-10.2218
▁Ju	-10.8581
ju	-9.45472
▁ju	-9.57687
▁ju	-9.71503
ju	-9.97592
▁Jud	-11.0268
▁Jud	-11.1629
Jud	-11.6457
▁juda	-11.1581
▁judiciaire	-10.4121
▁judo	-11.1591
▁jue	-10.4424
▁jug	-10.7918
▁Jug	-10.9796
▁juge	-9.35115
jugu	-10.3006
▁jugu	-9.19284
▁juguman	-10.8891
▁juguw	-10.2663
juguya	-10.4196
▁juguya	-10.4952
▁Jui	-10.1388
▁jui	-10.3724
▁juillet	-9.18258
▁juin	-10.0621
▁jukɔrɔ	-10.5592
▁jul	-10.9849
▁julie	-10.7949
julie	-11.3803
▁juma	-8.37288
▁juman	-8.79985
▁jumana	-11.1826
▁jume	-11.4477
▁jumɛ	-9.50676
▁jungle	-10.9577
▁jupes	-10.9578
▁jur	-11.3259
▁jura	-10.963
▁juridique	-10.1379
juru	-10.8185
▁juru	-9.78533
▁jurumu	-11.0692
▁jus	-10.2943
▁jusqu	-7.95894
▁juste	-9.12333
justement	-11.4045
▁justi	-11.3224
▁justice	-9.99128
▁justifié	-11.4077
▁juw	-10.6006
▁jy	-11.5371
▁k	-6.40716
k	-7.12225
▁K	-7.49937
k	-8.16156
▁K	-8.30514
▁k	-8.95624
K	-9.62641
K	-9.68256
▁ka	-10.2409
▁ka	-3.35617
ka	-6.41382
▁Ka	-7.2583
ka	-9.77204
▁kaba	-9.02455
▁kabako	-10.4243
▁kabakoman	-10.8725
▁kabakourou	-9.83451
▁kabakoya	-11.0983
▁kaban	-8.78327
▁kabi	-8.21661
▁Kabi	-9.21172
▁kabla	-11.0949
▁kabô	-7.60177
▁kabo	-8.10561
▁kaburu	-9.14226
▁kaburuso	-11.325
▁kacha	-9.39941
▁kachia	-10.8721
▁kadi	-8.00628
kadi	-9.26191
▁kadogo	-11.618
kafil	-10.8345
▁kafisa	-11.3242
kafisa	-11.6446
▁kafô	-8.74119
▁kafo	-9.81801
▁kagnan	-9.4798
▁kagni	-8.42471
kagni	-9.60108
▁Kah	-10.9107
▁kahan	-9.31746
▁kakan	-8.40008
▁kake	-10.0213
kakè	-11.1031
▁kakè	-8.69238
▁kakôrô	-10.8196
kala	-10.199
▁Kalaall	-10.8687
▁Kalaall	-10.9577
▁kalafili	-10.1326
▁kalama	-9.97252
▁kalaman	-9.72937
Kalan	-11.6453
▁kalan	-6.8267
kalan	-9.66422
▁Kalan	-9.90487
▁kalanbon	-11.0824
▁kalandé	-10.8089
▁kalande	-10.8937
▁kalanden	-10.2072
▁kalankɛ	-10.846
▁kalansɛbɛ	-11.3221
▁kalansira	-10.4488
▁kalanso	-9.9811
▁kalansoba	-10.3265
▁kalen	-10.2657
kali	-10.5846
▁kalifa	-10.3282
▁kallo	-10.8766
▁Kalo	-10.1464
▁kalô	-10.3123
Kalo	-11.6453
▁kalo	-7.69218
kalo	-8.27452
▁kam	-10.8437
▁kama	-8.52794
▁kamana	-11.4076
▁kamansôr	-11.4198
▁kambe	-10.8742
▁kamele	-10.0985
▁kamelé	-10.7023
▁kameleni	-11.4378
▁kan	-5.22027
kan	-6.86673
▁Kan	-8.69371
▁kana	-7.88229
▁kanda	-10.5882
▁kanga	-10.5931
▁Kanjar	-9.9005
▁Kanjar	-9.98951
▁kanka	-9.58415
▁kanma	-10.5839
▁kanɲi	-11.3397
▁kanou	-9.3508
kanto	-10.4131
▁kanu	-8.27039
▁kaɲ	-9.23196
▁kaɲɛ	-9.58975
▁kaɲi	-7.9498
▁kapital	-11.1587
▁Kar	-10.5299
kar	-10.8139
Kar	-11.7257
kar	-9.81517
▁Kara	-10.6159
kara	-9.56638
▁karaba	-11.3364
▁karama	-11.0089
karaman	-11.5155
karamôgô	-11.4596
▁karan	-8.28596
▁kari	-9.94335
▁karila	-10.7398
▁karlɔs	-11.6521
karo	-10.0601
▁karo	-8.98929
▁karti	-10.4361
▁kasa	-10.2889
kasila	-11.2548
▁kaso	-10.3126
▁kasôrô	-8.88308
▁kassa	-10.1355
▁kassara	-10.9017
▁kassé	-10.4637
▁kassi	-10.0676
kassi	-11.341
▁kasso	-8.9351
▁kassodé	-10.9077
▁Kat	-10.3403
kata	-10.9038
▁Kata	-11.001
▁kata	-7.72129
▁kataga	-9.22401
▁katala	-11.3975
▁katcha	-9.72437
▁katedral	-11.6521
▁kateimin	-10.4849
kati	-10.6006
▁katimi	-8.84963
▁katinmin	-10.887
▁kato	-11.0632
▁katoliki	-10.3236
▁Katrina	-10.9577
kaw	-8.3721
kawa	-10.8847
▁kayak	-10.7911
kaz	-11.454
ke	-10.2054
▁Kè	-10.3675
▁kè	-5.39522
▁ke	-6.80199
kè	-7.42589
ke	-8.3293
▁kê	-8.68672
kê	-8.89572
▁ké	-9.39226
▁Ke	-9.76972
kebaga	-11.5463
kegn	-10.8765
▁kègna	-9.87533
▁kègnè	-9.55952
▁kei	-8.04907
kei	-9.5167
keila	-11.2579
keimin	-11.6491
▁keimin	-9.71551
▁keine	-11.4792
kek	-10.8533
kék	-11.6521
▁kèkafilè	-10.4342
▁kèko	-9.36972
▁kékou	-10.8691
kela	-10.2325
kéla	-11.5433
▁kèla	-7.03641
▁kela	-8.20185
kèla	-8.29279
▁kêla	-9.16995
kêla	-9.70904
kêlahou	-11.1137
kelaw	-10.5265
▁kelaw	-10.6129
▁kéle	-10.7957
▁Kêlê	-11.5639
kêlê	-11.6476
▁kélé	-6.43844
▁kele	-6.95912
▁kèlè	-7.50141
▁kelé	-8.61768
kélé	-8.91782
▁kêlê	-9.39288
kele	-9.52387
▁kêlêbolo	-10.8705
▁keleen	-9.9102
▁kèlèkè	-9.92504
▁kèlèkèbolo	-10.8698
kèlèkèdé	-11.652
▁kèlèkèdén	-10.8768
▁kelekele	-11.1454
▁kelen	-6.47502
▁kélén	-8.77374
kelen	-9.204
▁kéléna	-11.2457
▁kélénan	-10.2226
▁kelenkele	-11.5336
▁kélépé	-10.4374
▁keleye	-10.1535
▁kéléyé	-10.516
▁kèli	-10.0369
kèmè	-10.429
▁Kèmè	-11.3296
kêmê	-11.6459
keme	-11.6517
▁kèmè	-7.2806
▁keme	-8.30628
▁kêmê	-8.65321
▁Kèmèsi	-10.8697
▁kèmèsi	-9.01159
▁kèmèss	-10.1387
▁kemi	-9.7435
▁Ken	-9.6519
kênê	-10.4656
kene	-11.663
▁kènè	-8.97232
▁kene	-9.65227
kènè	-9.89446
▁kenekan	-10.134
▁kènèkan	-10.4411
kènèkan	-11.6523
▁kènèma	-9.80476
kènèmaya	-11.4577
▁kènèya	-10.0607
▁keneya	-10.1393
▁kèni	-8.76003
kénlé	-10.8605
▁kénlé	-8.42496
▁kénlén	-9.96244
▁kénléyé	-10.4471
kénléyé	-11.6487
▁Kenya	-10.5232
kèra	-10.5256
▁kêra	-11.3739
▁kèra	-7.40432
▁kera	-8.98038
▁keraotred	-10.9577
▁kéré	-10.866
kèrè	-11.6627
▁kèrè	-8.61078
▁kere	-9.56144
▁kêrê	-9.93867
▁kêrêfê	-10.869
kèrèfè	-11.6425
▁kèrèfè	-9.14928
▁kerefe	-9.55455
kèrèfèyôrô	-11.1407
▁kèreink	-11.6521
▁kèreinkèrein	-10.4342
▁kèrèkè	-10.8638
▁kèrèkèdén	-10.8719
▁kèrèkèla	-10.1371
▁kèrèkèrè	-10.9861
kêrên	-11.4975
▁kèrèni	-10.929
▁kèrènkèr	-11.6519
▁kèrènkèrèn	-10.1341
kèrènkèrèn	-11.6462
▁kérétchen	-10.4342
▁ketcho	-11.6517
kètchogo	-11.288
▁kètchogo	-9.38373
▁ketchogo	-9.71731
▁kètchogoya	-10.451
kètchogoya	-11.6527
▁kèwalé	-10.871
▁kèwali	-10.1976
▁kewali	-10.4343
▁kèyôrô	-10.161
kèyôrô	-9.40237
▁kɛ	-6.24928
kɛ	-8.32003
kɛbaga	-11.0407
▁kɛcogo	-9.17294
▁kɛla	-10.0498
kɛlaw	-11.4143
▁kɛlɛ	-8.82439
▁kɛlɛkɛ	-9.77648
▁kɛmɛ	-8.17465
▁kɛmɛfila	-11.3219
kɛnɛ	-11.6456
▁kɛnɛ	-9.3683
▁kɛnɛma	-10.8755
▁kɛnɛya	-10.9005
kɛɲɛ	-11.5302
kɛra	-11.337
▁kɛra	-7.49601
▁kɛrɛ	-10.4854
kɛri	-11.3573
▁kɛta	-11.0667
▁kɛwale	-9.97327
kɛyɔrɔ	-11.3803
kg	-10.4285
kg	-10.5613
▁Kh	-10.3651
▁Kh	-10.8856
kha	-10.1515
kha	-10.2121
Kham	-11.0338
khamu	-10.9382
▁Khan	-10.8719
▁Khandelwal	-10.9577
khar	-10.8
ki	-10.0499
▁ki	-10.8467
▁Ki	-11.4898
ki	-7.28636
▁ki	-7.64085
▁Kibar	-11.6493
▁kibari	-11.6375
▁kibaria	-10.051
▁kibariya	-11.658
▁kibaro	-10.1043
▁Kibaro	-11.5297
▁kibaroh	-9.30332
▁kibarou	-10.7223
▁kibaroya	-10.8619
▁kibaroyaw	-10.8855
▁kibaru	-10.1322
▁kii	-10.2234
▁kil	-11.4972
▁kilan	-10.3481
▁kilara	-10.8695
▁kile	-10.7994
kili	-10.2379
▁kili	-10.5301
▁kilo	-9.00156
▁kilomèt	-8.4835
▁kilomet	-9.98626
▁kilometr	-10.7691
▁kilomètres	-9.24608
▁kimi	-10.1418
▁kimmi	-10.4577
kin	-10.1479
kin	-10.2722
▁kin	-9.61281
▁kinda	-10.4386
kinda	-11.6526
▁King	-10.437
▁kini	-10.848
▁kinibolo	-10.0491
kinolo	-9.4178
▁Kir	-10.4293
▁Kir	-10.5265
▁kira	-10.7858
kiri	-9.12239
▁kiri	-9.82968
▁kiriy	-11.4902
▁kisè	-9.30151
kisè	-9.89321
kisɛ	-10.8616
▁kisi	-10.4923
▁kissè	-9.03906
kissè	-9.29953
▁kissei	-10.8655
▁kisseiya	-10.8729
▁kissi	-10.0581
kissi	-10.4522
kission	-10.4368
▁kitabou	-10.3231
▁kitabu	-10.8696
▁kiti	-9.19793
▁kititèguè	-10.8688
▁kititigè	-9.9005
▁kititiguè	-9.90074
▁kiu	-11.2434
▁kium	-11.4644
▁kiun	-10.7819
▁klancɛ	-11.0687
kland	-9.92084
▁klantchè	-11.6521
klas	-11.2524
▁klasi	-11.3201
▁km	-10.423
▁km	-8.14766
▁Ko	-10.7633
▁KO	-10.8715
▁kö	-11.6681
▁ko	-4.55382
ko	-6.71485
▁kô	-7.13141
▁Ko	-7.93163
kô	-9.09925
▁Kô	-9.68474
▁koba	-10.6178
▁koding	-10.8758
▁kôdji	-10.1376
▁kodjougou	-8.80353
▁kodjugu	-10.872
kodjugu	-11.6449
▁kôfê	-10.403
kôfè	-10.4291
▁kôfé	-11.3324
kôfê	-11.6465
▁kôfè	-7.80114
▁kofe	-8.94214
▁kofè	-9.3042
▁koffè	-10.4342
▁koffé	-10.8688
▁koffei	-9.29764
▁kofô	-9.95604
▁kofôli	-11.1425
▁kofôni	-10.4509
▁kognagnini	-10.8741
kognan	-10.6312
▁kognan	-9.62548
kognouman	-11.3254
▁Kôgô	-10.4368
kogo	-10.8854
▁kogo	-8.89797
▁kôgô	-9.13158
▁kôgôd	-10.3332
▁Kôgôdji	-10.1323
▁kôgôdji	-9.09393
▁kogodji	-9.71296
▁kôgôdou	-10.4308
▁Kôgôdou	-11.6474
▁kogodou	-11.6524
▁kogodougou	-10.8695
▁kogoh	-10.8787
▁kôgôji	-9.00569
kogoman	-10.8817
▁kôh	-10.972
▁koh	-9.86544
▁Koho	-11.585
▁kojugu	-8.92685
▁kôkan	-9.42829
▁kokèta	-10.8691
▁kokɛta	-11.0693
▁kôkô	-11.6481
▁kôkôdji	-10.4343
▁kokôrô	-11.0389
▁kola	-9.41685
kola	-9.43252
▁kolasegi	-10.4343
▁Kolasegui	-11.4149
kôlis	-10.956
▁Kolo	-10.9154
kôlô	-11.6557
▁kolo	-8.18496
kolo	-8.35863
kolon	-10.4513
▁kolon	-9.37089
▁kôlôsi	-10.8687
▁kolossi	-10.4652
kolossibaga	-11.5905
▁kolɔnn	-11.3606
▁kom	-10.8409
▁koman	-10.2601
▁Komen	-10.9578
▁kômi	-10.9133
▁komi	-7.76255
▁Komi	-9.90847
komi	-9.91876
▁komu	-11.1737
▁kôn	-10.7956
▁kon	-9.26888
▁Kong	-9.55412
▁Kong	-9.64364
▁Kongo	-10.137
kongo	-10.5801
▁kongo	-8.70538
▁koni	-8.7973
▁kônno	-10.8596
▁kônnô	-11.6427
▁kônnon	-10.4424
▁kônnôn	-10.8773
kônnon	-11.6452
kônnôn	-11.6459
▁konnon	-6.97996
konnon	-9.59576
▁konnonan	-10.9513
▁konnondo	-10.1352
▁konnondô	-10.4449
konnondô	-11.6475
▁kônnondô	-9.71264
▁konnondon	-10.1452
konnonfé	-11.4376
kônô	-10.1026
▁konô	-10.6544
▁kônô	-7.80892
▁kono	-9.82585
▁kônôdô	-9.9027
▁kônôn	-7.071
▁konon	-7.31728
▁kônon	-7.68893
kônôn	-9.54738
kônon	-9.54782
konon	-9.83909
▁kônôna	-10.4056
▁kônônala	-9.71754
▁kônônasou	-10.8688
▁konondô	-10.8785
▁kônondo	-11.0853
kônondô	-11.6479
▁kônondô	-9.00672
▁kônôndô	-9.71623
▁kônondoh	-10.8696
▁konondoh	-9.55432
konondon	-11.6464
▁konondon	-9.90383
kônôni	-10.902
▁kononton	-10.877
▁kônônton	-10.8793
kônôtô	-11.638
kônôyôrô	-11.4662
▁konron	-10.1331
▁kôô	-11.6057
▁koo	-9.04493
kor	-11.4032
▁kor	-8.85442
▁kora	-10.3827
▁koré	-10.6039
▁kori	-10.8465
▁kôrô	-6.95614
▁koro	-7.72535
kôrô	-8.2598
koro	-9.03764
▁korô	-9.99276
▁kôrôba	-10.5988
▁koroba	-11.3522
koroba	-11.4274
korobo	-10.8628
▁korobo	-11.6558
▁kôrôbô	-9.94728
▁kôrôfô	-10.8756
▁kôrôlé	-10.4525
▁kôrôlen	-10.439
▁kôrôman	-10.9937
▁kôron	-10.4399
▁koron	-9.7371
▁korossi	-10.7062
kôrôssi	-11.652
▁kôrôssi	-9.51987
▁kôrôssili	-9.95644
▁korota	-10.1485
kôrôta	-10.8909
korota	-11.6671
▁kôrôta	-9.89101
▁kôrôtani	-10.98
▁kôrôw	-10.5732
kôrôw	-11.0946
▁korow	-9.59912
▁kôrôyé	-10.4821
kôség	-11.6524
▁kôsôbè	-9.90122
▁kôson	-10.441
▁kosôn	-10.8692
koson	-10.8813
▁kôsôn	-9.29765
▁koson	-9.69969
▁kosɔbɛ	-10.8687
▁kossèbè	-10.7119
▁kôsségui	-10.8691
▁kossô	-10.4337
▁kosso	-10.4338
▁kossobe	-10.8696
▁kossôbè	-9.71277
▁kosson	-8.0097
kosson	-9.70744
kôta	-11.0418
▁koté	-10.1644
koté	-11.6633
▁kou	-8.99905
kou	-9.40409
▁kouday	-10.8734
▁kougo	-11.5013
▁koula	-9.13491
▁koulé	-10.5623
▁koulo	-10.338
koulou	-8.65826
▁koulou	-8.92574
▁koulouba	-9.91271
▁koulouw	-10.5656
▁koum	-10.49
▁kouma	-7.94628
▁Kouma	-9.66913
▁koumalas	-10.4986
kouman	-11.6666
▁kouman	-7.89393
▁koumangn	-11.6065
▁koumb	-10.9726
koumbè	-11.5566
▁Koun	-10.1352
▁koun	-7.47958
koun	-8.89293
kouna	-11.1062
▁kouna	-9.46765
▁kounaf	-11.5479
▁Kounafo	-10.8896
▁kounafoli	-9.90252
▁kounafoni	-9.71251
▁kounakolon	-10.8689
kounan	-11.4413
▁kounan	-9.31655
▁kounanfoni	-10.8687
▁kounba	-10.0724
▁kounbi	-11.2482
▁kounda	-9.45418
koundam	-11.642
koundaw	-11.5958
▁koung	-10.7261
▁koungo	-10.7986
▁Koungo	-10.8699
▁kounko	-10.7689
▁kounou	-9.10753
kounoun	-11.4551
▁kounoung	-10.4359
kountigui	-11.4459
▁kountigui	-9.12136
▁kouo	-10.888
▁Kour	-10.5434
▁koura	-7.6301
koura	-9.87239
▁kourayé	-10.4584
▁kourou	-7.59451
kourou	-8.61957
▁kouroukan	-10.4534
▁kouroun	-9.72623
kourouni	-10.9862
▁kouroussi	-11.3278
▁koutou	-11.6548
▁koutourou	-10.8688
kouya	-10.8502
▁Kow	-10.9587
▁kow	-7.62468
kow	-9.21388
▁Kow	-9.57839
koy	-11.4083
koya	-10.4098
▁koyé	-9.78397
kɔ	-10.9291
▁kɔ	-7.99528
▁kɔfɛ	-8.65443
▁kɔgɔ	-10.0503
▁kɔgɔji	-10.3238
kɔm	-11.6463
▁kɔm	-9.99348
▁kɔn	-9.98241
▁kɔngɔ	-11.3798
▁kɔni	-9.12058
kɔnɔ	-10.4163
▁kɔnɔ	-7.26156
kɔnɔfɛ	-11.5214
▁kɔnɔn	-10.4778
kɔnɔna	-11.5937
▁kɔnɔna	-9.24148
▁kɔnɔni	-10.2756
▁kɔnɔnikɛ	-11.3216
▁kɔnɔnin	-10.817
▁kɔnɔntɔn	-9.60434
▁kɔnɔtɔn	-9.50712
▁kɔr	-11.3103
kɔrɔ	-11.0623
▁kɔrɔ	-8.37978
kɔrɔba	-10.6963
▁kɔrɔba	-11.4209
▁kɔrɔcɛ	-11.0726
▁kɔrɔko	-11.3448
▁kɔrɔman	-11.387
▁kɔrɔmuso	-9.97256
▁kɔrɔni	-11.134
▁kɔrɔsi	-9.46528
▁kɔrɔsili	-11.3662
kɔrɔta	-11.6478
▁kɔrɔta	-9.90732
▁kɔsɔ	-10.4249
▁kɔsɔbɛ	-8.87353
▁kɔsɔn	-10.5715
▁Kr	-10.5734
▁Kri	-11.1346
krit	-11.6522
▁Kru	-10.1353
kru	-10.7037
ksi	-11.1012
ksu	-11.5929
ktɛr	-10.3568
ktu	-10.4374
▁ku	-8.56691
ku	-9.22414
kub	-11.4111
kula	-10.3237
▁kule	-10.228
▁kulé	-10.8743
▁kulɛr	-10.4391
▁kulo	-11.6367
kulo	-11.6567
▁kulon	-9.98191
kulu	-9.24223
▁kulu	-9.6143
kuluw	-10.7693
kuma	-10.4694
▁kuma	-7.3597
▁kumaden	-10.17
▁kumakan	-9.62041
▁kuman	-9.00529
▁kumana	-10.419
▁kumande	-10.943
▁kumasen	-10.4398
kumasen	-11.6481
▁Kun	-10.1968
▁kun	-7.54149
kun	-8.71468
▁kuna	-10.9674
▁kunafoli	-10.0492
▁kunan	-11.4542
▁kunawolo	-10.7061
▁kunba	-10.6814
kunbèn	-10.9513
▁kunbɛn	-10.5592
▁kunbiri	-11.321
▁kunda	-10.4512
▁kungo	-9.97489
▁kungolo	-10.2271
▁kunkelen	-10.8729
▁kunna	-10.4841
▁kunnafoni	-10.1322
kunta	-11.5731
▁kuntan	-11.3287
▁kuntigi	-9.77836
▁kuntigui	-9.42556
▁kunu	-8.88001
▁kur	-11.0791
▁kura	-8.17005
kura	-9.15726
▁kurakura	-10.8737
kurakura	-11.6464
▁kuran	-10.202
▁kuru	-7.88476
kuru	-8.95295
▁Kuru	-9.56453
▁kuruka	-11.046
▁kuruli	-10.1902
kurunb	-11.3318
▁kuturu	-11.0687
▁kuw	-9.96054
ky	-10.5793
▁Kyoto	-10.9577
L	-10.1251
ł	-13.3176
▁l	-4.31956
▁L	-6.45329
l	-7.1781
l	-7.25076
▁l	-7.99229
▁L	-8.35423
L	-9.97347
▁la	-4.02596
▁la	-4.05092
la	-4.88901
▁La	-6.33135
la	-7.41045
▁là	-7.48082
▁là	-7.94688
là	-8.35732
▁La	-8.75949
là	-9.1103
▁laada	-10.4467
▁lab	-10.9019
▁labaara	-10.1611
▁labain	-10.4397
labain	-11.6458
▁labalo	-11.3521
▁laban	-7.49697
laban	-9.68151
▁labato	-9.97249
▁labein	-10.4738
▁labén	-10.8868
▁labèn	-9.21072
▁laben	-9.41944
▁labèna	-10.7514
labènin	-11.07
▁labɛn	-9.51012
▁labil	-11.6095
▁labila	-10.0836
▁labin	-9.6665
▁labinli	-10.9
▁labla	-9.5316
▁labô	-9.50681
▁labôli	-10.9141
▁labôlisira	-10.8691
▁labɔ	-10.9242
▁lac	-9.61446
▁lâche	-11.1577
▁lacs	-9.69356
▁lactée	-10.9578
▁lada	-9.6267
▁ladaw	-10.9975
lade	-10.4226
lade	-10.9564
▁ladégi	-10.8688
ladegi	-11.645
▁ladegi	-11.6612
▁ladéguili	-10.8687
▁ladèrès	-10.8687
▁ladi	-10.3728
▁ladili	-9.85304
▁ladin	-10.6714
▁ladina	-10.6333
▁ladinein	-10.8687
▁ladje	-10.1258
ladje	-10.8642
▁ladjè	-9.52389
▁ladjèl	-10.2251
▁ladjèn	-10.6089
▁ladjen	-10.8984
▁ladji	-10.8895
▁ladjigui	-10.079
▁lado	-9.77551
▁ladôn	-10.8711
▁ladon	-9.86997
▁ladoni	-10.9852
▁ladow	-11.0054
laf	-11.1237
▁lafar	-10.8658
▁lafasa	-11.6386
▁lafasabaga	-10.875
▁lafèrè	-10.4398
▁lafien	-10.8688
▁lafignè	-10.8777
▁lafiɲɛ	-11.3187
▁lafisali	-11.6521
▁Lag	-10.8778
▁lagafia	-10.1322
▁lagamou	-10.8821
▁Lagnini	-10.871
▁lagnini	-8.98883
▁lahal	-10.1913
lahou	-10.4935
lais	-10.4321
lais	-11.5311
laises	-10.9904
▁laisse	-10.8098
▁laisser	-10.6632
▁lait	-10.6116
▁lajɛni	-11.6618
▁Lak	-10.2371
▁Lak	-10.5386
▁lakali	-10.0635
lake	-10.6009
▁Lake	-10.9762
▁lakika	-9.9009
▁lakisi	-11.0697
▁lakôl	-11.5957
▁lakoli	-10.7093
lakoli	-11.6675
▁lakolossi	-11.627
lakoyaw	-10.1596
▁lalaga	-9.26471
▁lalira	-10.8839
▁lalô	-9.149
▁lalɔ	-10.3232
▁Lam	-10.8722
▁lamaga	-10.0495
▁laman	-9.69354
lamaya	-10.6108
▁lame	-10.4032
▁lamè	-10.7242
lames	-11.6373
▁lamɛ	-9.81853
▁lamɛn	-11.1816
▁lamɛna	-11.3457
lamine	-10.4121
▁laminɛ	-10.3334
▁Lamini	-10.8705
lamini	-10.8768
▁lamini	-8.49906
▁laminila	-11.0976
▁laminini	-10.758
▁lamiri	-10.8704
▁lamô	-9.90054
▁lamon	-10.16
▁Lan	-10.9809
lan	-8.49679
lanbaga	-11.2263
▁lança	-11.4166
▁lance	-10.4051
▁lancé	-9.59572
▁lancement	-10.1404
lancer	-11.7241
▁lancer	-9.75889
lanche	-11.5401
land	-9.265
land	-9.9814
▁landa	-10.3518
lande	-11.2882
▁landes	-11.4087
landi	-10.6437
lando	-10.9632
▁langage	-11.1578
▁langue	-8.49025
▁langues	-9.13596
▁lanib	-10.2458
▁lanibala	-9.7714
▁lanibara	-9.97227
▁lanibɛ	-10.9081
▁lanilo	-10.7067
lankè	-11.5375
▁lankolo	-10.7109
lann	-10.6177
▁lannaya	-10.8693
▁laɲini	-10.7022
lap	-10.3497
lar	-10.5889
Lar	-11.6466
▁lara	-9.55406
▁larala	-10.6009
lard	-10.9077
▁large	-8.77832
▁Las	-10.1231
las	-10.9219
▁lasa	-10.5545
▁lasagoli	-10.8775
▁lase	-9.9851
laseguisèbè	-10.9997
▁lasigi	-10.6237
▁lasigui	-10.1716
▁lasinsin	-10.1322
▁lasiri	-10.3716
▁lasôrô	-10.5227
▁lasourou	-10.8725
▁lass	-10.8569
▁lassé	-9.1596
▁lasse	-9.89665
lasséko	-11.6539
lassi	-9.79932
▁lassigiden	-10.4364
▁lassigui	-9.73865
lassikourou	-10.9972
▁lassinan	-10.8706
▁lassoro	-10.9893
▁lassôrô	-9.74063
▁lassou	-10.4332
▁Lat	-11.6007
lata	-10.5049
▁lataga	-9.56141
▁latanga	-9.11976
▁latangaba	-11.624
late	-11.4177
▁latege	-10.4343
latéraux	-11.4647
▁Lati	-10.1122
▁latigê	-11.6522
▁latigɛ	-11.101
▁latiguè	-10.1884
latiguè	-10.9668
▁latimi	-10.8702
▁latin	-10.2566
▁latin	-9.42754
▁lauren	-10.8396
▁lave	-10.6215
law	-10.8486
law	-8.32236
▁lawali	-11.4585
▁layir	-11.4029
▁layiri	-11.3177
▁Layton	-10.8687
▁Layton	-10.9578
lbert	-10.9495
ld	-9.16492
lder	-11.408
▁Le	-10.5215
lê	-11.5962
▁le	-4.271
▁le	-5.38188
▁Le	-5.97163
▁lé	-6.60389
le	-6.98729
le	-7.01579
lé	-7.52018
▁lè	-9.2403
lé	-9.3505
lè	-9.63134
▁leçon	-10.3121
▁lecture	-9.80591
lée	-10.2516
lefoni	-11.6508
▁lég	-10.1862
▁légales	-10.9579
▁légalis	-10.2278
▁légalité	-10.9578
legel	-11.5468
▁léger	-11.1275
▁légère	-9.50684
▁légers	-10.4318
▁légion	-11.4132
▁législati	-9.59431
▁législative	-10.9632
▁léguilisi	-10.8687
▁légumes	-10.4121
▁léhé	-10.437
leil	-11.6592
leke	-10.6152
▁lekoli	-10.1328
▁lekon	-11.6275
▁lela	-9.21543
▁léla	-9.55053
lèma	-11.4852
léman	-9.79187
lemen	-11.2397
léments	-10.4258
▁lemuru	-11.6647
lén	-10.0054
len	-8.89686
▁lendemain	-10.4121
lent	-9.65948
▁lentilles	-9.80152
lenw	-10.9996
▁Lenz	-10.8687
▁Lenz	-10.9579
▁Leon	-10.8704
léon	-11.2107
ler	-10.7533
lèri	-10.1386
▁lèri	-9.09766
les	-10.8397
▁Les	-10.8754
lès	-11.1583
▁les	-4.46534
▁Les	-5.88723
les	-8.41158
lescope	-10.8689
▁lésions	-10.5233
▁lesquel	-9.86817
▁lètè	-11.4077
lète	-11.6684
létèri	-11.0213
▁lettre	-9.11333
▁lettres	-9.94467
▁Leur	-10.102
▁leur	-6.34713
leur	-9.60408
leuve	-11.729
▁lève	-10.9691
lève	-11.3863
▁levée	-10.9592
▁lever	-10.5897
lèw	-10.9324
ley	-9.29583
ley	-9.81826
léyé	-11.2022
▁leye	-8.23927
▁léyé	-8.93906
▁lɛ	-10.133
lɛ	-9.38961
lɛm	-11.3373
lɛs	-11.0714
lɛt	-11.3922
lga	-11.2736
lgar	-11.1052
lgérie	-10.9577
lgérie	-11.0687
▁Li	-10.3186
▁li	-10.6569
li	-5.39063
▁li	-7.3755
li	-9.09684
lia	-10.7692
▁liaison	-10.5233
▁Lib	-10.9661
liban	-11.3249
▁libér	-10.1024
▁libéral	-11.4095
▁libéré	-10.2607
▁liberté	-10.3121
libori	-11.6525
▁libre	-9.59577
▁Liby	-10.8689
▁Libye	-10.9578
lic	-11.0175
▁licence	-10.7911
licite	-10.962
lie	-10.3234
▁lié	-9.51442
▁liées	-10.1434
▁liège	-10.5233
▁lien	-10.5859
liens	-10.4337
▁lieu	-7.91797
lieu	-9.35766
▁lieux	-9.39282
lif	-11.359
liff	-11.4118
▁ligne	-8.74204
▁ligue	-11.408
likalo	-10.9366
likan	-10.7868
likê	-11.1684
like	-11.4146
likè	-9.08095
likèla	-11.0462
liko	-10.2223
lila	-9.83964
▁lili	-10.5871
limani	-11.3373
limaniya	-10.1386
limètri	-10.4451
▁limit	-9.85185
▁limité	-9.80541
limitée	-10.5062
▁limitée	-10.5189
▁limitées	-10.5713
▁limites	-9.74841
▁limitrophe	-11.1577
▁limo	-11.6548
▁limog	-11.4047
▁limoges	-11.4108
limpik	-11.319
lin	-9.6185
line	-9.56686
ling	-10.1998
ling	-10.4485
linge	-10.4776
▁linguistiques	-10.9621
lini	-9.7408
▁Lion	-11.1903
▁lions	-10.044
▁liquide	-9.80152
▁lire	-9.37257
▁lis	-10.1081
lisabeth	-11.3189
lisabeth	-11.4077
▁lisait	-11.4149
▁lisez	-11.1621
list	-11.086
list	-11.3443
▁liste	-9.43079
▁lit	-9.42091
liti	-10.1931
▁littéra	-9.92511
▁liv	-10.942
▁Livingston	-10.8687
▁Livingston	-10.9577
▁livr	-10.9209
▁livraison	-10.9577
▁livre	-8.47593
▁livres	-8.97457
▁livru	-9.37648
liw	-9.62055
liya	-10.3652
liyé	-10.5878
liye	-10.7331
▁liz	-10.4971
lizabeth	-10.4121
lizabeth	-10.4342
lizz	-11.4078
ll	-9.62497
llage	-11.6412
llah	-11.3177
llan	-10.4696
llas	-11.1598
llas	-11.5079
lle	-10.0062
lle	-9.96881
llemagne	-11.0865
lles	-9.81949
llet	-9.70224
lley	-10.4367
lliance	-10.9788
llon	-9.72549
lly	-11.6133
lman	-11.1599
▁lo	-5.46183
lo	-6.88639
▁lô	-7.32088
lô	-8.60023
▁Lo	-9.10119
lo	-9.28163
▁Lo	-9.65518
▁lo	-9.82823
▁loc	-10.4579
local	-11.7246
▁local	-9.78545
▁locale	-8.6901
▁localis	-10.9619
▁localisation	-10.9603
▁localité	-10.7919
▁locat	-10.9358
▁locaux	-9.92307
▁locuteurs	-10.1379
▁lôdaw	-10.8712
lofi	-11.6124
logé	-11.0229
▁logement	-10.2212
logi	-11.561
▁logiciel	-10.4121
▁logique	-9.70647
logique	-9.91027
▁logis	-10.9584
lognanag	-10.8698
▁Lôgô	-10.1326
▁lôgô	-9.30037
▁logo	-9.38291
▁logofi	-10.926
lôgôlô	-10.3706
▁lôh	-10.908
▁loh	-9.61173
▁loi	-8.67761
▁loin	-9.09586
▁lointain	-10.2212
▁lois	-10.0659
▁loisirs	-10.9578
lôkô	-11.6566
▁lôkôli	-10.4345
lôla	-10.992
lola	-11.0253
▁lôli	-10.5461
▁Lolo	-10.4585
lolo	-10.6372
▁lolo	-9.1646
▁lolos	-10.4721
lom	-10.7902
lomi	-10.9179
▁Lon	-10.3269
▁Lôn	-10.8523
▁lon	-7.14982
lon	-8.27661
▁lôn	-8.60744
lon	-9.17412
lôn	-9.37979
▁lonan	-8.86636
▁lonandjiguisso	-10.8689
lonbaga	-10.744
▁lonbè	-11.3588
▁lonbɛ	-10.8723
londo	-11.4248
▁londres	-10.5232
▁Londres	-10.5232
▁long	-8.18421
▁longo	-9.72253
▁longtemps	-8.8462
▁longue	-9.05311
▁longues	-10.3543
▁longueur	-10.1471
longueur	-11.7244
loni	-10.0866
▁Lôni	-10.439
lôni	-10.4853
▁lôni	-8.40518
▁loni	-9.16103
▁lônikèla	-10.4363
loniya	-11.5902
▁lôniya	-9.91565
▁lôniyara	-10.8814
▁lonko	-9.4335
▁lônko	-9.72664
▁Lônni	-10.4413
lonni	-10.4783
▁Lonni	-10.8807
▁lonni	-8.22049
▁lônni	-9.59286
▁loon	-10.0801
▁lor	-10.533
lor	-10.5658
lor	-9.95326
▁lorans	-11.2196
lorou	-10.8605
▁lorou	-7.66694
lors	-10.5363
▁lors	-7.89433
▁Lors	-9.94257
Lorsqu	-11.7248
▁lorsqu	-7.91086
▁Lorsqu	-8.88532
▁loru	-9.30626
los	-10.3673
▁Los	-10.5955
▁lôssa	-10.8805
lot	-10.6276
lôtchogo	-11.6202
lou	-10.1001
▁lou	-10.2546
lou	-10.3201
▁lou	-8.91401
loué	-11.3504
lougou	-8.91134
▁louis	-10.2218
▁Louis	-9.90061
▁Louis	-9.98952
▁loup	-10.3173
▁lourd	-10.8944
▁lourde	-10.075
▁lourds	-10.8287
louse	-11.4101
lova	-11.5808
low	-10.9906
low	-9.13703
▁lɔ	-8.57219
▁lɔgɔ	-10.8658
▁lɔgɔkun	-10.2232
▁lɔgɔra	-11.6609
lɔk	-11.6521
▁lɔn	-8.14404
lɔn	-9.84352
▁lɔndr	-11.3192
▁lɔni	-10.5742
▁lɔnni	-10.6254
▁lɔnniya	-10.564
▁lɔr	-11.3893
▁lɔyɔrɔ	-11.325
lpha	-10.7072
lro	-11.3184
ltur	-10.8734
▁lu	-8.63846
lu	-9.77398
▁luc	-10.9663
▁lucide	-10.5237
▁lucie	-11.6527
▁lucien	-11.4079
luent	-10.8849
▁lug	-11.4822
lugu	-9.74115
lui	-10.1203
▁lui	-7.31157
luk	-11.3366
▁lukɔnɔ	-10.869
lumière	-11.7249
▁lumière	-8.84703
luminé	-11.4988
▁lumineu	-11.7249
▁luminosité	-10.5232
▁Lun	-10.4419
Lun	-10.8628
▁Luna	-10.2215
▁lundi	-9.38847
▁Lune	-10.291
▁lune	-9.73598
▁lunettes	-10.5234
lus	-10.4476
lus	-11.3745
▁lutte	-9.34974
▁luwa	-11.4392
▁luxe	-10.4161
▁Luxembourg	-10.2212
lva	-11.6286
lve	-11.3317
▁Ly	-10.9095
ly	-9.91583
lympiques	-11.4055
lyn	-10.5203
lynn	-10.9579
▁lyon	-10.5252
▁m	-7.15324
▁M	-7.32738
▁m	-7.59528
m	-7.89053
m	-8.01184
▁M	-8.07143
M	-8.86496
M	-9.6268
▁mâ	-10.1331
MA	-11.6512
▁ma	-5.38503
ma	-6.55456
▁ma	-7.6298
▁Ma	-8.20466
▁Ma	-9.07605
ma	-9.27891
▁maana	-9.90418
▁maari	-10.8752
▁mabô	-10.485
▁mabo	-10.882
▁Mac	-10.2785
▁Mac	-11.1681
macher	-10.8709
▁machi	-11.139
▁machine	-10.5232
▁mâchoire	-10.9577
mad	-10.5452
▁Mad	-11.0533
mad	-11.0553
▁Madam	-10.8829
▁madam	-9.71446
▁madame	-8.48188
▁mademoiselle	-10.7911
▁madi	-11.2285
▁madimi	-9.66282
▁madjigi	-10.8756
madogo	-11.6303
▁madrid	-11.1577
▁madrid	-11.3187
▁mafèlèli	-10.8687
mafen	-10.0356
mafén	-11.5855
▁maflè	-9.90186
mag	-10.5694
▁maga	-11.4148
▁maga	-9.18598
▁magama	-11.2337
▁magaman	-10.776
▁magankan	-11.3189
magasin	-11.7248
▁magasin	-9.55212
mage	-9.95688
magin	-11.1599
▁magn	-10.1378
▁magné	-10.7021
▁magnétique	-10.2217
magni	-10.1251
▁magni	-9.72199
▁mah	-10.7579
▁mai	-10.3563
▁maï	-11.4142
mail	-10.2653
mail	-10.3133
▁mail	-11.1014
▁main	-8.54705
▁mains	-9.39967
▁mainten	-10.5094
▁maintenant	-8.57825
▁maintien	-9.80175
▁maire	-10.565
▁mairi	-10.9207
▁mairie	-11.4083
▁mais	-6.46028
▁Mais	-9.09612
mais	-9.55156
▁maison	-8.40914
▁maisons	-8.8879
▁maître	-10.1379
▁maîtrisé	-10.9577
▁majeur	-10.395
▁majeure	-9.60337
▁majigi	-11.6512
▁majigini	-11.3233
▁major	-10.4118
▁majorité	-9.69346
▁majuscule	-11.4077
▁makan	-10.0038
▁makari	-11.3199
▁makaritɔ	-11.3188
▁makèya	-10.8726
makèya	-11.6453
mako	-10.566
▁mako	-7.74341
▁makogna	-11.1159
makoun	-11.0096
▁makoya	-10.5019
▁makɔrɔbaw	-11.6523
mal	-10.876
▁mal	-7.97697
▁Mal	-9.05636
▁malade	-10.2732
▁malades	-10.4583
▁maladie	-8.87509
▁maladies	-10.1955
▁Malais	-10.9595
▁Mald	-10.8708
▁malheur	-10.9576
▁malheureusement	-11.1594
▁malheureux	-10.9579
▁malo	-10.6912
▁maloya	-10.1364
▁maltrait	-10.9573
▁maltraitance	-10.9582
▁malveillan	-10.9578
▁maminè	-10.8747
▁mammifères	-10.5232
▁man	-10.2719
▁man	-5.94888
man	-6.11604
man	-9.53255
▁Man	-9.58286
▁manager	-10.5232
manbolo	-10.4333
▁Manc	-11.6547
▁manche	-10.5245
▁Manchester	-10.9577
mand	-10.4242
mandat	-10.7918
mandé	-9.86207
▁mandi	-10.0836
mandi	-10.3651
▁mandimi	-9.41752
▁mandiminan	-10.8778
▁mandjan	-10.1415
manfe	-11.3787
▁mang	-10.3751
▁manga	-10.8373
▁mangan	-9.79576
▁mangé	-10.2501
▁mange	-9.06224
▁manger	-9.36016
mangou	-11.6124
▁mangrov	-10.8687
▁mani	-10.2476
mani	-10.8241
mani	-9.67619
▁manière	-8.40837
▁manifest	-10.9515
▁manifesta	-10.869
▁manifestants	-9.98955
▁manifestation	-9.42563
▁manifester	-11.4137
▁manipulation	-10.9577
▁mankan	-8.89398
▁manœuvr	-11.4079
▁manogo	-10.8807
manogo	-11.6563
manɔgɔ	-11.5939
▁manqu	-10.7295
▁manque	-9.26165
▁Mans	-10.9508
▁mansa	-10.2539
▁mansin	-10.4364
Mant	-11.6539
mante	-11.2527
▁manu	-11.4186
▁manuscrit	-10.2212
manw	-9.82259
manyôrô	-10.9557
▁maɲ	-11.3401
maɲ	-11.6014
▁maɲi	-10.4437
▁Maori	-11.701
▁Maoris	-10.5355
▁Mapuch	-10.8687
Mapuche	-10.9577
▁mar	-10.354
▁Mar	-11.0761
mar	-11.3128
▁Mar	-9.62902
▁mar	-9.80768
▁mârâ	-10.1326
▁Mara	-10.5272
▁mara	-7.55681
▁Mara	-9.75938
mara	-9.90051
▁marafé	-10.9044
▁marais	-10.7929
▁marala	-10.4184
▁marali	-9.73282
▁marara	-10.9784
▁marasso	-10.9333
▁maraw	-10.7603
▁marc	-10.6847
▁marc	-11.1053
▁march	-10.1249
▁marchand	-9.75031
marché	-10.703
▁marche	-9.01817
▁marché	-9.31101
▁marcher	-9.81147
▁marchés	-10.5381
▁marcof	-10.6482
▁mardi	-9.55026
▁maré	-11.1612
maréc	-11.7162
▁marée	-10.1501
▁marfa	-10.7024
▁Mari	-10.3057
▁Mari	-10.4849
▁mari	-10.5622
Mari	-11.6484
▁mari	-9.45226
maria	-11.654
▁mariage	-9.46581
▁Mariana	-10.8688
▁marie	-10.2289
▁Marie	-10.9844
Marie	-11.7237
marie	-11.7294
▁marié	-9.77456
▁marifa	-9.65705
marin	-10.5515
marine	-10.7228
▁marine	-9.65703
marine	-9.97775
marins	-9.6115
▁Mario	-10.9525
maritime	-11.1578
▁marius	-11.4098
mark	-10.1343
▁mark	-10.221
▁marki	-10.5707
▁marko	-11.0781
▁Maro	-10.017
▁Maro	-10.5243
▁maro	-10.9072
▁marocain	-10.9578
▁marquant	-10.4128
▁marque	-9.28033
▁marqué	-9.80152
▁marquis	-10.4121
▁marrant	-11.1578
▁Mars	-10.1991
▁mars	-11.1176
▁mars	-9.37397
▁marsi	-10.3327
▁Mart	-10.2298
mart	-10.231
▁mart	-11.3992
▁martel	-11.1579
▁martɛ	-11.3616
▁marth	-11.4095
▁marti	-11.6515
▁marvejol	-11.4077
▁mary	-11.4208
mary	-11.6613
▁Mas	-10.4997
▁masa	-8.66519
▁Masa	-9.42186
masala	-11.5917
▁masculin	-9.80152
▁masé	-10.5187
maséré	-11.6602
▁masôrô	-10.487
masoro	-11.5619
masôrô	-9.00466
▁masouba	-10.8687
▁Massa	-10.5368
Massa	-11.6454
▁massa	-8.23823
▁Massa	-9.40429
▁massaba	-10.8932
▁Massaba	-10.9015
▁massalabol	-10.8777
▁Massatc	-11.6508
▁massatch	-10.9019
▁Massatchè	-10.4357
▁masse	-10.5292
▁massiri	-10.8858
▁massive	-10.061
▁match	-8.72317
▁matchi	-9.84111
▁matchs	-10.2172
▁matelas	-11.4077
▁matéri	-11.2295
▁matériel	-9.67741
▁maternelle	-11.4139
▁math	-11.3197
▁mathémati	-10.9565
▁mathématique	-11.4097
▁matière	-8.66564
▁matin	-8.70304
▁matôgô	-10.8795
▁matur	-10.5233
▁Mau	-10.4483
▁Mau	-11.182
maurice	-10.7911
▁mauvais	-9.01317
▁maxim	-10.2298
▁maxim	-11.6526
▁maximi	-10.9396
▁maximum	-10.3123
may	-11.5499
maya	-8.95712
▁mayara	-10.1552
mayèlèmatchogo	-10.8687
mazo	-10.1102
mb	-8.6317
mba	-10.0436
▁mba	-11.4239
mbai	-11.4448
mbè	-9.6638
mbé	-9.84032
▁mbi	-9.92593
mbie	-10.9615
mbour	-10.1072
mbrou	-10.2817
mbu	-10.4884
▁Mc	-10.8736
▁Mc	-10.9851
mé	-10.1465
mê	-10.5463
▁me	-7.55791
me	-8.14925
me	-8.53899
▁mè	-9.07574
▁mé	-9.21632
▁me	-9.30108
mè	-9.57171
▁med	-10.9516
▁medail	-11.3195
▁médaillé	-10.3121
▁médaille	-10.6482
▁médecin	-9.79534
▁médecine	-9.75401
▁médi	-10.4992
medi	-10.682
▁médi	-11.3193
média	-9.78428
▁médical	-10.2212
▁médicament	-10.4121
▁médiéval	-11.4077
▁Medit	-11.652
▁Mediter	-11.6525
▁Mediterane	-10.8688
▁Méditerranée	-10.5232
▁méditerranéenne	-10.9578
▁médor	-11.4077
▁méduses	-10.7911
mée	-10.8144
▁Meilleur	-10.9577
▁meilleur	-8.54029
▁meilleure	-8.72768
▁mela	-11.3752
▁mélange	-10.061
▁mélangés	-10.9577
▁melani	-11.3297
meli	-10.5236
▁membre	-9.34835
▁membres	-8.86923
▁même	-6.98283
même	-8.66657
▁mêmes	-10.1194
mêmes	-10.6438
▁mémoire	-10.5232
▁mémori	-10.5232
▁men	-10.033
▁mèn	-10.3177
▁men	-11.1675
men	-9.62036
men	-9.63438
▁mèna	-10.5755
mèna	-11.3193
▁menace	-9.18259
mènan	-10.7617
▁mende	-11.416
▁mendi	-11.4086
▁mené	-10.3891
mène	-11.2497
mènè	-11.4428
▁menée	-10.0167
mener	-11.2325
▁mèni	-10.9086
ment	-5.74204
▁menti	-11.4072
▁mention	-10.5245
▁mentionné	-10.4122
▁mentir	-11.4136
▁Mer	-10.6118
▁Mer	-10.8871
▁mer	-8.25069
mer	-9.54963
mer	-9.69451
merang	-11.6088
▁merci	-8.98838
▁Mercredi	-10.9577
▁mercredi	-9.98951
mère	-10.1743
▁mère	-8.96837
▁méri	-10.9867
▁mèri	-11.3415
mericain	-11.6493
méricains	-9.98126
mero	-9.51284
▁merveille	-11.4149
mes	-10.2394
▁mes	-9.25795
▁mese	-10.8722
▁mesie	-9.65705
▁mesiye	-11.0687
▁message	-10.7912
▁messagerie	-10.9579
▁messieurs	-11.1579
▁mesure	-8.78845
mesures	-11.7248
▁mesures	-9.85305
▁Met	-10.6623
▁met	-9.46784
▁métallique	-10.3121
▁métaux	-10.2213
▁météor	-10.5232
▁météorologique	-9.98951
mètèrè	-10.441
▁méth	-11.5093
▁méthode	-9.06651
▁METI	-10.8687
METI	-10.9577
▁métier	-9.64334
metiri	-11.4511
métr	-10.9629
mètr	-11.6497
mètre	-10.5029
▁mètres	-8.91452
metri	-11.3061
mètri	-9.76305
▁metri	-9.77319
▁métro	-10.3123
▁Metro	-9.64334
▁Metro	-9.71313
▁métropol	-10.7912
▁mett	-9.31371
▁mettra	-11.3395
mettre	-9.24452
▁meubles	-10.9659
meubles	-11.7236
▁meurt	-10.0349
▁meurtr	-10.5699
▁meutes	-10.5232
mey	-11.6562
▁mezi	-11.6581
▁mɛ	-8.35028
mɛ	-9.55882
▁mɛn	-9.32294
▁mɛna	-10.0854
▁mɛnɛ	-11.5317
▁mɛnɛna	-11.6556
mɛr	-10.8503
▁mɛtr	-11.6391
mɛtri	-10.3419
MI	-10.9586
▁mi	-4.94292
mi	-6.92875
mi	-7.86513
▁Mi	-8.28826
▁mi	-9.14419
▁mib	-11.5006
▁mibe	-10.5527
▁Mic	-11.2617
▁Mich	-11.1553
▁michel	-10.6592
michel	-11.1409
▁micro	-11.1198
▁micro	-9.92313
▁microscope	-10.9619
midi	-10.1379
▁midi	-10.8814
mie	-10.5411
mièn	-11.5648
▁mien	-9.33737
▁mienne	-10.6647
mier	-10.4631
▁mieux	-8.40839
migré	-10.4899
mikan	-10.9825
mil	-10.5394
▁milan	-11.4078
▁miles	-10.1397
miles	-10.8634
▁miles	-8.80367
mili	-10.2562
▁milieu	-9.31404
▁milimètèr	-10.9346
▁militaire	-10.3718
▁militaires	-10.5702
▁militant	-10.5232
▁milite	-11.1578
▁militèri	-10.8691
▁miliy	-9.73866
▁miliyar	-10.7107
▁mill	-10.1301
▁Mill	-10.4365
mille	-8.40829
▁millénaire	-10.9577
▁Miller	-10.9578
▁milli	-11.4701
▁milli	-9.52633
▁milliar	-11.3429
▁millier	-8.78456
▁million	-8.25463
▁million	-8.59519
▁milliy	-9.73741
▁miman	-10.9647
▁min	-5.53835
min	-7.93867
▁Min	-9.7525
min	-9.88598
▁mina	-7.83493
mina	-8.88535
▁Minan	-10.4541
▁minan	-7.34481
minan	-8.77414
▁minanw	-10.1317
▁minbé	-10.5038
▁mince	-10.9579
mine	-10.1039
minè	-10.6773
▁mine	-7.868
▁minè	-8.26738
▁mineur	-10.2214
minèw	-10.8704
minɛ	-10.9044
▁minɛ	-8.5003
▁minɛn	-10.5072
▁minɛna	-10.916
ming	-10.7893
▁Mini	-10.7865
▁mini	-9.73054
minike	-11.5172
▁minimum	-10.5233
▁minin	-9.31137
▁minis	-10.1183
▁Minisi	-11.6536
▁minisiri	-10.1326
▁Minisiri	-10.1327
▁Minisr	-10.8695
▁ministère	-10.6485
▁ministre	-8.64746
▁miniti	-8.30801
▁minkè	-10.2934
minnan	-10.8408
▁Minne	-10.9725
minnin	-11.0702
▁minninn	-11.0745
▁Mino	-11.5156
▁minorit	-10.9578
▁minou	-9.32653
▁minu	-8.52696
▁minugu	-9.93507
▁minuit	-10.7911
▁minuscule	-9.80152
▁minut	-11.7302
▁minute	-9.70859
▁minutes	-8.86235
minw	-11.1531
▁minw	-7.9652
mir	-10.5461
mir	-9.97726
▁mirage	-10.9579
Miri	-11.6454
▁miri	-8.08134
▁mirila	-10.1074
▁miriya	-7.95084
▁mis	-8.78889
▁Misali	-10.1322
misali	-11.6456
▁misali	-9.65818
▁misè	-11.4074
▁mise	-9.31687
▁miselin	-11.6646
▁misen	-10.556
misèn	-9.9523
▁miseni	-10.7137
▁misɛn	-10.4512
misɛn	-10.8658
▁misi	-10.018
▁Misira	-10.874
▁Miss	-10.3543
▁Miss	-11.6216
missa	-10.6861
missen	-11.0377
missèni	-11.1401
▁missi	-10.6001
▁Missi	-11.4076
missin	-10.1592
▁missin	-10.2296
▁missinw	-9.91125
▁mission	-9.92361
▁Missouri	-10.8687
▁Mit	-10.5411
mit	-10.7353
▁Mit	-10.8816
mith	-10.9568
mith	-11.6546
▁mitôgô	-9.71746
▁mitou	-10.9204
▁miw	-7.35962
▁mix	-10.5268
▁miyé	-8.43686
▁mizi	-10.5701
▁mlan	-9.42359
mlan	-9.92122
▁mm	-10.441
▁mm	-9.19834
mment	-8.23761
mmin	-10.9477
mo	-10.3405
▁Mo	-10.3923
▁mo	-8.45289
▁Mo	-9.05332
▁mo	-9.46612
mo	-9.52236
▁mô	-9.76736
▁Mobi	-10.4685
▁mobil	-11.3769
mobil	-11.6444
▁mobile	-10.5414
mobile	-11.7202
môbili	-11.6459
mobili	-11.6545
▁mobili	-7.79176
▁môbili	-8.84964
▁môbilibori	-10.8687
▁mode	-10.022
▁modèle	-11.1179
▁modèles	-10.3297
▁modér	-11.4027
▁modéré	-11.1617
moderne	-10.9412
▁moderne	-9.71144
▁modernes	-10.042
▁modes	-9.95898
▁modɛl	-10.7023
▁modifi	-10.8054
▁modification	-10.6482
▁modifiée	-10.9587
▁modul	-11.4078
▁Môg	-11.6528
mogo	-10.8022
Môgô	-10.8626
mogô	-11.0682
▁môgo	-11.3205
▁môgô	-6.43024
▁mogo	-6.78199
▁Môgô	-7.89777
▁Mogo	-8.54085
môgô	-8.63357
▁mogô	-9.26184
▁môgôhou	-9.20503
môgôw	-10.2277
mogow	-10.8543
▁môgôw	-7.39982
▁mogow	-7.53958
mogoya	-10.8732
môgoya	-11.3187
▁moh	-11.403
▁moi	-10.6332
▁moi	-7.79656
moi	-9.16739
▁moindre	-10.5232
▁moine	-10.7063
moine	-9.90657
▁moins	-7.42484
▁mois	-8.32523
▁moitié	-9.98951
▁mol	-10.8629
▁Mol	-9.99249
▁Mold	-11.6115
▁Moldav	-10.1417
▁molecu	-10.8687
▁molécul	-10.2184
▁moléculaire	-10.9636
▁Moll	-10.9599
▁moment	-8.52999
▁môn	-10.9175
▁mon	-7.85592
▁mon	-8.97593
mon	-9.62347
mon	-9.7716
▁monarque	-10.9582
▁monaster	-11.4297
▁monastère	-10.4121
mond	-10.4074
mond	-11.4098
▁monde	-7.49664
▁mondial	-9.9734
▁mondiale	-8.63389
mongol	-11.4155
▁monnaie	-10.0609
▁mono	-10.7268
mono	-11.6096
monos	-11.5996
▁monseigneur	-11.4077
▁monsieu	-11.319
▁monsieur	-7.9771
▁Mont	-10.5357
▁mont	-10.7296
mont	-11.3164
▁mont	-8.86144
mont	-9.54578
▁montage	-10.5254
▁montagne	-9.20746
▁montagnes	-9.28629
▁montant	-10.3236
▁Monte	-10.1331
▁Monte	-10.231
▁monté	-10.8706
▁montée	-10.673
monter	-10.49
▁monter	-10.5611
▁montr	-10.2658
▁montre	-9.16739
▁montré	-9.74776
▁montrer	-10.8155
▁monument	-10.4121
▁moqu	-10.8645
▁mor	-9.99243
▁mora	-11.1192
▁morceau	-10.707
▁morgor	-10.4351
▁morif	-10.1323
▁Moriori	-10.1322
▁Moriori	-10.2212
▁moris	-11.6567
morph	-10.721
▁mort	-8.24964
▁morte	-10.2144
▁mortelle	-10.337
▁mortels	-10.9579
▁mosasaur	-11.0385
▁mosasaure	-10.5232
▁mot	-8.94947
▁moteur	-10.5406
▁motif	-10.6497
▁motivation	-10.9577
▁moto	-10.7868
moto	-11.6544
moto	-11.7252
▁motobori	-10.8687
▁mots	-8.88074
▁Mou	-10.2027
▁mou	-8.44633
mou	-8.99961
▁mouch	-11.4407
▁mouga	-9.87163
▁mougan	-8.08629
▁mougou	-10.3311
mougou	-10.6989
▁mouill	-10.9577
moulo	-9.55485
▁moumè	-9.90083
▁moun	-9.98459
▁mouna	-11.142
mounou	-11.6503
▁mounou	-9.57719
▁mourir	-11.1577
▁mourou	-10.9135
▁Mous	-10.7713
mouso	-11.3012
▁mouso	-9.83786
▁mouss	-11.6469
▁mousse	-10.4121
▁mousso	-7.97726
mousso	-9.96279
▁moustiques	-10.2218
▁mouvement	-10.0987
▁mouvements	-9.8911
▁mouw	-9.47148
▁moyen	-8.31383
▁Moyen	-9.38665
▁moyenne	-10.6515
▁moyens	-10.2173
mɔ	-10.497
▁mɔ	-9.81541
▁mɔbi	-11.2309
mɔgɔ	-11.0473
▁mɔgɔ	-7.10556
▁mɔgɔmin	-11.1124
▁mɔgɔsi	-11.1103
mɔgɔw	-11.2566
▁mɔgɔw	-7.93956
mɔn	-10.1636
▁mɔn	-9.96083
▁mɔnbili	-11.0694
▁mɔnt	-10.5591
▁mɔntr	-11.2747
mɔr	-10.6559
▁mɔt	-11.3236
▁MP	-10.4346
mp	-9.40272
mper	-11.15
▁mph	-10.9605
mph	-10.9652
mplissez	-11.1663
mposition	-10.5683
mpro	-11.6546
ms	-10.4392
▁Mu	-10.4876
▁mu	-10.7892
▁mu	-7.95409
mu	-8.93755
▁Mu	-9.51597
▁mufɛn	-11.3212
▁mugan	-7.66609
▁mugu	-10.5663
mugu	-10.9244
▁Muhammad	-10.9577
muler	-11.5772
▁multi	-10.2208
▁multimédia	-11.4079
▁multipl	-10.5236
▁mulu	-11.322
mumè	-11.6471
▁mumè	-9.71397
▁mun	-7.43742
muni	-11.2603
▁muni	-9.99075
munu	-10.6956
▁munu	-8.15353
▁munumunu	-9.97217
▁mur	-10.0134
Mur	-11.6119
▁mura	-10.2578
muret	-10.8262
▁murmura	-10.9577
▁murs	-10.7328
▁muruti	-11.3241
muruti	-11.6446
▁Mus	-10.5724
musa	-10.6967
▁Musa	-10.8703
▁Musashi	-10.9577
▁musée	-9.86042
▁musica	-10.929
▁musical	-10.3275
▁musicien	-11.4078
▁musique	-9.69334
▁Muso	-10.4359
▁muso	-7.57
muso	-8.99456
▁musokɔrɔba	-11.6537
▁musoman	-9.82542
▁musu	-11.3436
▁mutation	-9.64336
▁mutuel	-11.4105
▁muyun	-11.3187
my	-10.3222
my	-10.6808
▁My	-10.8827
▁my	-9.90184
▁myé	-7.47511
myr	-11.1711
myr	-11.653
ñ	-10.8687
ń	-13.1521
ň	-13.2411
ñ	-13.3177
n	-4.68357
▁n	-5.03482
▁n	-5.85674
n	-7.26861
▁N	-7.78991
▁N	-8.10327
N	-8.88095
N	-9.37786
NA	-11.3708
NA	-11.4512
▁na	-4.99966
na	-5.94552
na	-8.8595
▁Na	-9.11904
▁nâ	-9.61377
▁naani	-7.99809
nabô	-10.7193
▁Nad	-10.5241
nada	-11.144
▁Nadi	-10.9261
nafa	-11.3715
▁nafa	-8.52135
▁nafama	-9.09283
▁nafamafɛn	-10.4392
▁nafaman	-9.23975
▁nafarasôr	-10.8904
nafô	-7.97364
nafolo	-10.4323
▁nafolo	-8.40942
▁nafolodilan	-10.8691
▁Nag	-11.1527
▁nagasi	-11.337
nagbèlè	-10.8687
▁nage	-10.4505
▁nager	-10.5272
nain	-11.0386
naire	-10.4506
▁naissance	-10.1421
naissance	-11.5305
naît	-11.1896
nako	-11.0526
nalagbè	-11.6628
nale	-11.116
▁naloman	-11.6497
▁nalomanya	-11.3219
▁nalomaya	-11.6522
nam	-11.3413
nama	-10.3566
▁Nama	-10.898
nama	-11.4143
▁Namgy	-10.8687
▁Namgy	-10.9578
nami	-10.5359
nami	-9.74023
▁namou	-10.9317
▁nân	-11.0595
▁nan	-6.11396
nan	-6.29936
▁Nan	-9.93451
▁nana	-7.69042
nanagbe	-11.6518
nanaman	-11.6534
▁nanan	-9.21787
nanangbè	-11.6546
nandélôgô	-11.5438
nandi	-10.9186
nandjiguiyôrô	-10.8791
▁nanfèn	-10.4482
nanfô	-11.6649
▁nani	-7.85325
nani	-9.49573
▁naninan	-10.5939
nanko	-10.0769
▁nanko	-10.5519
▁nankɔ	-11.0716
▁nanni	-8.49451
nanw	-10.1418
▁napole	-11.6522
▁napoléon	-10.7911
▁nar	-11.1876
▁narrat	-10.6506
naseben	-10.4394
▁nasson	-10.8996
nat	-10.4642
Nata	-11.3118
▁nata	-9.47684
▁natal	-11.4112
natèri	-10.9007
▁Nation	-10.3073
▁nation	-10.4454
▁Nationa	-10.8389
national	-10.316
▁national	-10.7133
▁national	-8.9298
▁National	-9.73774
▁nationale	-9.47961
Nationali	-11.493
▁nationalisée	-10.9578
▁nationaux	-10.1382
▁nations	-9.26198
▁natur	-11.7272
▁nature	-9.6428
▁naturel	-10.0948
▁naturelle	-9.92483
▁naturellement	-10.6563
▁naturels	-10.4676
▁naval	-10.9579
▁navette	-10.5232
▁naviga	-10.9542
▁navigat	-10.8688
▁navigat	-10.9609
▁navigation	-9.92299
▁navire	-9.82164
▁navires	-9.30174
naya	-9.84581
▁nayé	-11.0455
▁Naz	-11.1312
naz	-11.1874
▁nazi	-11.4083
NBA	-10.8687
▁NBA	-10.9577
nbolila	-11.147
nbri	-11.1769
nburg	-10.7342
nburu	-10.5096
nca	-10.2851
nce	-10.668
nches	-11.6524
nçon	-10.6483
nd	-9.85324
nda	-10.3035
ndè	-10.8979
nde	-9.94344
ndelogola	-10.8687
ndépend	-11.6464
ndeur	-11.4493
ndo	-10.8898
ndonésie	-10.9626
ndonn	-11.6638
ndro	-11.4209
nds	-10.1327
ndul	-11.3708
▁Ne	-10.309
Ne	-10.4304
▁nè	-10.4545
▁Né	-10.5579
▁Nè	-11.6334
NE	-11.6524
▁ne	-5.82455
▁ne	-6.73928
ne	-7.72342
ne	-8.13779
né	-9.10038
nè	-9.14612
▁né	-9.42841
▁né	-9.71732
né	-9.79152
▁néanmoins	-9.86242
▁néc	-10.9703
▁nécessaire	-9.46717
▁nécessaires	-10.3073
▁nécessit	-11.3268
▁nécessite	-9.49117
▁nécessité	-9.59652
▁nécessiter	-11.083
▁née	-10.7772
▁nèèma	-10.8698
néerlandais	-11.4077
négati	-10.9992
▁négatif	-10.4166
négatif	-11.7242
▁négativ	-11.6924
▁négative	-10.2322
▁nege	-9.42458
▁nègè	-9.97203
▁négligé	-10.9578
▁négligence	-10.7911
▁négoc	-11.404
▁négociat	-10.9602
nèguè	-11.0222
▁nèguè	-9.01066
▁neguè	-9.90347
▁nèguèdjourou	-10.8688
nei	-10.02
▁Nei	-10.8708
▁neige	-8.89115
nel	-10.3962
nel	-10.8193
▁nela	-10.3927
nelle	-10.8947
nels	-10.4164
neman	-10.791
nèmaya	-10.772
nènè	-10.1412
nênê	-11.0194
nene	-11.2878
▁nènè	-9.42477
nent	-9.72116
▁néo	-10.0482
▁Nepal	-10.8687
ner	-10.7361
▁nerf	-10.9594
neri	-10.8681
nèri	-9.95185
▁nerveuse	-10.7911
nés	-9.53328
nes	-9.77333
Net	-11.6545
neti	-10.6995
nèti	-9.56708
▁nettoy	-10.5232
neuf	-8.80823
▁neuf	-8.86438
▁neuro	-10.2213
▁neutr	-11.6521
▁neutre	-10.9578
▁neutrons	-10.5232
▁neutrons	-10.8687
neuve	-10.6484
▁neuvième	-10.1379
▁Nevada	-10.9577
▁new	-11.1824
▁New	-8.65345
▁New	-9.27952
ney	-9.23202
ney	-9.84007
nez	-10.4189
▁nɛ	-10.7546
▁nɛgɛ	-10.3231
▁nɛnɛ	-10.0487
▁nɛnɛkiri	-11.6527
▁nɛni	-11.3314
▁nɛrɛmuguman	-9.71337
nɛt	-11.1635
nfa	-11.4303
nfan	-9.4067
nfe	-11.0121
nfon	-10.9453
▁Ng	-10.5816
ng	-7.79166
ng	-9.38793
▁nga	-7.13566
▁Nga	-8.54286
nga	-9.78188
ngali	-10.7235
ngan	-10.2432
nganin	-11.6619
ngenie	-11.646
nger	-10.3193
nger	-10.9352
ngile	-10.8743
ngili	-10.8918
nglais	-11.6502
ngné	-10.2444
ngnongo	-11.6438
ngo	-9.59204
ngokono	-11.6531
ngola	-10.268
ngon	-10.3665
nguili	-10.4394
nh	-10.5231
NH	-10.9906
nheim	-11.408
nhu	-10.0484
▁Ni	-10.3091
Ni	-10.9171
▁ni	-3.88823
ni	-5.17243
▁Ni	-6.70744
▁ni	-8.88177
ni	-9.21838
nibɛ	-10.2015
▁Nic	-10.9179
nic	-10.9235
▁nic	-11.4266
▁niche	-10.4132
▁nicola	-11.6567
▁nid	-10.3214
nidè	-10.2545
nie	-10.4418
nier	-10.4871
nière	-10.5125
▁Nig	-10.8596
nig	-11.1698
▁Nigeria	-10.9577
▁nigɛ	-10.2533
nikɛ	-10.388
nikɛla	-11.2089
▁nikô	-10.2058
nikô	-9.48578
▁nim	-9.9908
nimassalakoulou	-10.4342
nimisa	-11.3225
▁nimoro	-9.97193
▁Nin	-11.0108
▁nin	-5.86574
nin	-7.47954
▁nina	-10.0274
▁ninakili	-10.4344
ning	-11.1121
nininin	-11.6558
nino	-10.4894
▁Nintendo	-10.9577
ninw	-9.82625
▁ninyɔrɔ	-11.369
niɲa	-11.5213
nique	-9.99971
▁nisondia	-11.3188
▁nissôd	-11.0824
▁nissodja	-10.4408
nistr	-11.3909
nistri	-10.8696
▁Nit	-10.9096
▁niveau	-8.42207
▁niveaux	-10.4155
niw	-8.72031
niya	-9.84667
niyara	-11.0704
nje	-11.1263
nk	-11.1749
nka	-10.709
nkani	-11.6395
nkili	-11.4819
nkililala	-11.6496
nkôrômadèmè	-11.5074
nku	-10.4983
nkutun	-10.8691
nmini	-11.2736
nmôgôya	-11.6535
nnan	-9.79245
▁nne	-8.46993
nne	-9.64468
nnen	-11.489
nnen	-11.5252
nness	-10.145
nnette	-11.1589
nni	-8.96234
▁No	-10.2858
▁No	-10.5313
▁no	-8.24708
▁no	-8.57052
no	-8.98979
▁nô	-9.11681
nô	-9.5925
no	-9.61982
▁nocturne	-10.9577
▁nôfè	-10.3244
▁Nôgô	-10.8703
▁nogô	-11.662
nôgô	-9.19448
▁nôgô	-9.35456
▁nogo	-9.50703
nogobo	-10.869
▁nôgôman	-10.4372
▁nôgômani	-11.3441
nôgômani	-11.6459
▁nôgôya	-8.54323
▁nogoya	-9.09616
noi	-10.3305
noï	-11.1579
▁noir	-10.1431
▁noire	-9.31948
▁noires	-9.69959
▁noirs	-10.3638
▁noisettes	-11.4077
▁noix	-10.9587
nom	-10.6585
▁nom	-7.78381
▁nomade	-10.9675
nomade	-11.7239
▁Nombre	-10.9578
▁nombre	-7.93163
▁nombreuses	-8.10473
▁nombreux	-7.63706
nombrou	-10.8979
nomi	-10.8244
▁nomination	-10.1379
▁nominé	-10.9593
▁nomme	-10.7266
nommé	-11.3337
▁nommé	-9.60363
▁Non	-10.9202
▁Nôn	-11.6585
▁non	-7.78535
▁non	-7.92294
non	-8.2875
▁nôn	-9.41687
▁nônfè	-10.133
▁nonfè	-10.4393
nongondan	-11.1167
▁nonni	-10.5123
▁nonnon	-10.3262
nonyme	-11.3988
▁Noo	-10.577
noo	-10.7621
Noo	-11.5895
▁Nor	-10.4095
▁Nord	-10.9418
▁nord	-7.70384
▁Nord	-9.18276
▁nordique	-10.9855
▁normal	-9.96273
▁normale	-9.65918
▁normalement	-9.99444
▁norme	-10.9181
▁normes	-10.2409
▁nôrô	-10.4506
▁noro	-10.8727
▁North	-9.50678
▁North	-9.55482
▁Norvèg	-10.4342
▁Norveg	-10.8687
▁Norvège	-10.2212
▁Norvégien	-10.9582
nos	-10.1209
nos	-9.971
▁not	-10.1889
notamment	-11.7248
▁notamment	-8.98858
▁note	-9.8719
▁Notre	-10.9584
▁nôtre	-11.1577
▁notre	-8.34029
▁Nou	-10.8818
▁nou	-7.55405
▁Nou	-8.81213
▁nougou	-10.4792
▁nouman	-10.882
▁nounou	-8.52654
nounou	-9.56754
▁nourrir	-10.3121
▁nourriture	-9.01317
nous	-10.1247
▁nous	-6.71025
▁nousson	-11.6015
▁nouveau	-8.1582
▁nouveauté	-10.7952
Nouvel	-10.5068
▁Nouvel	-9.51303
▁nouvel	-9.74482
▁nouvelle	-8.28844
▁nouvelles	-8.93799
▁Nov	-10.3171
▁nov	-11.0804
▁novembre	-9.64334
▁noyé	-11.4088
▁nɔ	-10.1464
nɔ	-10.93
▁nɔfɛ	-11.3192
▁nɔgɔ	-10.3556
▁nɔgɔman	-10.5621
▁nɔgɔya	-9.60743
▁nɔn	-10.7925
▁nɔnɔ	-10.3232
nɔɔ	-10.4541
▁nɔr	-11.1144
▁nɔrɔ	-11.1196
NP	-10.1633
npik	-10.7042
npo	-10.8796
▁NPWS	-10.9577
▁nron	-10.9391
ns	-9.90155
ns	-9.91577
NSA	-10.966
nsec	-10.8754
nstitut	-10.5268
nsula	-10.4405
nt	-10.3669
nt	-6.01903
ntan	-9.85511
ntarctique	-10.9574
ntartic	-11.6493
nté	-10.3075
ntèrinèti	-10.8629
ntɛn	-10.7669
ntɛs	-11.6601
nth	-11.586
ntigè	-10.8689
ntile	-11.3405
ntir	-10.8097
ntiri	-10.4495
ntiya	-11.4914
ntoine	-11.4025
ntoine	-11.6268
ntonla	-11.6394
ntra	-10.4226
▁Nu	-10.5309
▁nu	-8.79821
nu	-9.75593
nu	-9.81551
▁nuages	-10.4121
nuba	-11.6641
▁nucl	-11.6664
▁nuclé	-10.4345
▁nucléaire	-9.59571
nugnan	-10.5857
nugu	-11.1929
▁nugu	-9.47369
▁nuir	-10.9597
▁nuit	-8.33972
▁nuk	-11.2297
▁numér	-11.311
▁numérique	-10.9577
▁numéro	-8.06369
▁nun	-10.0137
▁nunu	-7.60781
▁nunugu	-10.0502
▁nunuw	-9.66294
▁nusɔndia	-11.3187
▁nutritionnel	-10.9578
nw	-8.74896
ny	-10.0316
nya	-9.58652
▁nyé	-10.6648
▁nyès	-10.8706
nyini	-11.3883
▁Nyira	-10.8724
▁ɲ	-10.7252
ɲ	-9.78696
▁ɲa	-8.40098
ɲa	-9.91707
▁ɲafɛ	-9.15733
▁ɲafɛmɔgɔ	-11.6523
▁ɲafɔ	-10.3205
▁ɲafɔra	-11.6674
▁ɲagami	-9.97217
▁ɲakili	-11.6533
▁ɲaman	-11.1657
▁ɲamɔgɔ	-9.17486
▁ɲamɔgɔden	-11.6545
▁ɲamɔgɔya	-11.4595
▁ɲan	-9.48127
ɲan	-9.59796
▁ɲana	-9.73824
▁ɲanabɔ	-10.1323
▁ɲanama	-9.65806
ɲanaman	-11.3126
▁ɲanaman	-8.49321
▁ɲanyɔrɔ	-11.6539
▁ɲasin	-11.3189
▁ɲɛ	-8.54681
ɲɛ	-9.52949
▁ɲɛfɛ	-10.8702
▁ɲɛgɛ	-11.1085
▁ɲɛlɛ	-11.6549
▁ɲɛmɔgɔ	-11.323
▁ɲɛn	-9.89851
▁ɲɛna	-9.73082
▁ɲɛnɛ	-11.0694
ɲi	-10.4793
▁ɲi	-8.76914
▁ɲigi	-11.0727
▁ɲinan	-10.4458
▁ɲini	-10.0111
▁ɲiniga	-10.5567
▁ɲinigali	-10.564
▁ɲinina	-11.3301
▁ɲininga	-9.97456
ɲinini	-11.5798
▁ɲɔ	-11.1517
▁ɲɔgɔ	-10.0366
ɲɔgɔn	-11.2736
▁ɲɔgɔn	-8.17237
▁ɲɔgɔnw	-10.9155
▁ɲɔgɔnye	-11.3413
ɲɔl	-11.0726
ɲɔmɔgɔ	-11.3589
▁ɲɔngɔ	-11.059
ɲɔngɔn	-11.3121
▁ɲɔngɔn	-9.66067
▁ɲuma	-11.6153
ɲuman	-10.4276
▁ɲuman	-9.23025
ŋ	-10.7018
▁ŋa	-11.0692
ô	-10.2206
ō	-10.5232
ö	-10.7911
Ö	-11.6521
õ	-11.6521
ō	-11.6521
ó	-11.7411
õ	-11.7411
Õ	-11.7411
ó	-13.1427
ò	-13.1521
▁o	-4.6346
o	-6.05902
▁O	-6.39627
o	-6.97383
ô	-8.2525
O	-8.36715
▁O	-8.82294
O	-9.359
▁ô	-9.36354
▁o	-9.59382
ö	-9.70801
oats	-11.5319
▁ob	-11.2143
ob	-9.46033
▁ob	-9.52537
oba	-11.1465
▁obè	-10.2683
▁obe	-10.9053
▁Obè	-11.2008
▁obé	-9.15061
▁obei	-10.9996
▁obéi	-11.5774
obéir	-10.8632
▁obéiss	-11.1588
obel	-11.6438
▁obi	-9.78389
ôbili	-11.658
obiri	-9.65468
▁objectif	-10.5252
objectif	-9.62627
▁objectifs	-9.39946
▁objet	-10.8231
objet	-9.36932
▁objets	-9.56184
▁obligat	-10.2538
obligation	-10.4807
oblige	-10.7911
▁obligé	-10.7911
ôbô	-11.6344
obscur	-10.412
▁obscure	-11.158
▁observa	-10.4121
▁observateur	-11.7007
▁observateurs	-10.6622
observation	-11.4071
▁observations	-10.7915
▁observé	-10.1379
▁observer	-10.5232
obst	-11.4336
obstacle	-10.6482
obtenir	-10.9418
▁obtenir	-9.01558
▁obtenu	-9.50678
▁obtien	-10.9582
ôc	-11.2691
oc	-9.6422
ocation	-11.0842
▁occasion	-10.2433
occasion	-9.97231
Occident	-11.6943
▁occidentale	-9.92284
▁occidentaux	-10.9578
▁occup	-10.8237
occup	-11.1362
▁occupe	-10.1239
▁occupé	-10.6544
occuper	-10.5254
occurrence	-11.4077
▁Oce	-10.8876
océan	-9.05345
▁océans	-10.2232
ocelot	-10.2212
och	-10.11
oche	-11.1205
▁ochi	-10.9697
ock	-10.2484
ocke	-10.9455
▁octobr	-10.4342
▁Octobr	-10.8687
octobre	-10.2043
▁octobre	-10.3309
od	-10.4031
od	-10.4999
odén	-11.5743
odern	-10.958
▁odeur	-10.8008
odeur	-11.3916
odifié	-11.703
odin	-11.4137
ôdji	-10.376
odjougou	-11.6367
odora	-10.9582
œ	-13.3184
oël	-10.7911
▁œufs	-10.5232
▁œuvr	-11.7299
▁œuvre	-10.3809
œuvre	-11.3906
▁œuvres	-10.1696
öf	-11.6655
▁of	-9.46684
▁of	-9.85532
ofaya	-11.638
▁ofè	-10.578
off	-10.4965
▁off	-11.1446
▁officiel	-10.9546
▁officielle	-9.46242
▁officiellement	-10.6594
▁officier	-9.86034
▁offr	-9.83579
▁offre	-8.86079
offre	-9.49418
▁offrir	-10.5601
offrir	-11.7237
ofi	-11.6885
og	-9.55197
ogènes	-10.9759
ogi	-10.9536
ôgnôgôn	-11.6563
ôgnon	-11.5081
ogo	-10.2587
ögö	-10.4342
ogô	-11.5479
ôgô	-9.70846
ôgôf	-11.6618
ogoh	-10.8471
ôgôla	-10.8867
ôgôlô	-11.6527
ôgôma	-11.5261
ogon	-10.4162
ogonna	-10.8746
ôgôsèbè	-11.653
ogotchè	-11.4866
ôgôtôrô	-10.8682
ôgôya	-10.7179
ographi	-11.6436
ographie	-10.6444
ographiques	-11.4086
oguida	-11.6566
▁oh	-10.0577
▁Oh	-10.3599
▁oh	-9.18316
▁ohé	-9.73289
Ohio	-10.9577
ohr	-11.408
oignée	-11.3482
oilé	-10.9544
oins	-11.1506
oint	-11.4217
oir	-9.81046
oire	-8.80695
oiri	-10.699
oirs	-9.96733
ois	-11.4239
oise	-10.7906
oiseau	-10.2209
oiseaux	-10.5077
▁oiseaux	-9.31885
oit	-9.97354
oivent	-8.59482
oka	-11.1612
▁oka	-8.1851
▁okan	-9.78845
oke	-11.3914
▁Oke	-11.5715
oko	-11.1605
ôkô	-11.3342
okri	-11.4079
okur	-11.4163
ol	-8.38244
ola	-10.3036
▁ôla	-10.905
▁ola	-8.61779
▁Ola	-9.80776
▁Olaf	-10.9577
olat	-11.4072
old	-10.792
▁Old	-10.8788
▁Old	-10.9577
▁olé	-10.2412
▁ole	-9.27361
ôli	-10.6561
▁Oli	-10.9587
olini	-11.5951
▁oliv	-10.9007
olive	-10.6488
▁olivi	-11.5808
▁olivie	-11.4226
ollant	-11.4079
olle	-10.444
ollege	-11.4092
olo	-10.1224
▁olo	-11.1025
ôlô	-11.6357
olo	-9.91831
ologie	-10.0066
ologiste	-10.7911
ologne	-10.662
ologues	-10.9598
oloo	-11.6665
▁olou	-9.51341
▁olougou	-9.10586
olu	-10.213
▁olu	-8.14068
▁olugu	-10.1482
▁olympi	-10.4342
▁Olympi	-9.54353
▁Olympic	-10.4607
▁Olympique	-10.9591
▁olympique	-9.51162
▁olympiques	-9.27561
olyn	-11.2214
om	-11.1509
om	-9.2935
▁oman	-9.55518
omantisme	-10.9622
omatique	-10.7971
ombr	-10.6746
ôme	-10.9584
omer	-9.7025
ométr	-10.9549
omɛn	-11.6573
▁omɛr	-10.1377
ômi	-11.5147
▁omi	-9.43195
omi	-9.55027
omie	-10.9697
ômini	-10.9756
omissèri	-10.8689
omité	-10.4444
▁omni	-11.4078
omo	-11.4498
omor	-11.3778
omotion	-10.2214
omp	-10.0265
ón	-11.3203
on	-6.53187
▁on	-6.85407
on	-7.22488
▁On	-8.08347
ôn	-9.01488
ônabila	-10.8695
onandjiguisso	-11.6517
onasteri	-10.8038
onde	-9.63259
ondi	-10.7703
ônè	-11.2481
▁Onega	-10.9578
ong	-11.0183
ong	-9.57806
ongeu	-11.6566
ongo	-10.4342
ongo	-10.717
ongô	-10.8451
ôngô	-10.8858
ongondan	-11.2276
ongonman	-11.4475
ongroise	-11.7215
▁onhon	-10.1322
onic	-11.6582
oniki	-11.5411
onma	-11.5788
onnant	-10.4124
onne	-9.91079
onnées	-10.9546
onner	-10.7236
onneuse	-11.6189
onnez	-10.8301
ônnôn	-11.6496
ônô	-11.6074
onome	-10.5238
onomi	-10.9
onon	-10.2802
onou	-10.4383
ons	-7.95528
onservat	-10.8687
onstant	-10.8316
onstantin	-10.6483
onstitution	-10.9432
▁ont	-5.98639
ont	-7.12273
ONU	-10.4342
ONU	-9.98951
onw	-11.4618
▁onz	-11.3221
▁onze	-9.59704
ook	-10.0665
ool	-10.4359
op	-9.40389
▁Ope	-11.0183
oper	-10.9194
▁Opér	-10.9249
Oper	-11.6404
opéra	-10.376
▁operati	-11.3236
▁opération	-10.1379
ôpi	-11.493
opin	-11.1007
▁opinion	-10.6482
opoulos	-10.9577
▁oppos	-10.8059
oppos	-10.9404
▁opposition	-10.8033
opposition	-11.1405
▁opti	-10.4405
▁option	-9.99017
▁optique	-10.9581
oquer	-11.0903
or	-10.0133
Or	-10.441
▁or	-10.5022
▁Or	-11.6421
or	-7.80544
▁or	-9.74344
▁orage	-10.9649
oratif	-10.9499
▁orbit	-11.2082
orbite	-11.1098
orchestre	-11.4078
ord	-11.1775
ord	-9.70919
▁ordinaire	-10.3121
▁ordinat	-11.6437
▁ordinate	-11.6522
▁Ordinatèr	-10.8692
▁ordinatèr	-10.8712
▁ordinater	-11.6403
▁ordinateri	-10.8761
ordinateur	-10.5068
▁ordinateur	-9.47089
▁ordonn	-11.5324
ordonnance	-10.7917
▁ordre	-10.418
ordre	-9.38631
▁ordres	-10.5704
ore	-10.8967
▁oreilles	-11.1581
▁organ	-11.5433
organe	-10.7911
▁organi	-10.9238
▁organique	-10.9577
organis	-11.7233
▁organis	-9.97817
▁organisation	-9.36425
organisation	-9.53417
▁organisé	-10.6322
▁organisée	-10.3408
organisme	-10.9413
▁organisme	-9.92912
orgor	-9.89979
ôri	-10.8175
▁ori	-10.8417
▁ôri	-11.1547
ori	-9.13075
▁oridinat	-10.1483
Orient	-10.2213
▁oriental	-11.7265
▁orientale	-10.3156
▁oriente	-10.9579
origa	-11.0101
▁originaire	-9.98951
▁original	-10.7893
original	-10.8687
original	-11.7238
▁originale	-9.92645
origine	-8.49699
▁originel	-11.4126
ork	-11.25
orld	-9.98951
▁orléan	-11.4096
orno	-11.6454
ôrô	-9.67114
örö	-9.71251
oroba	-10.8998
ôrôdjan	-11.65
ôrôdjanyé	-11.3432
orogaramou	-11.6518
oromani	-11.6584
▁oromèni	-10.4342
ôron	-11.5541
oronto	-11.409
ôrôsi	-11.6264
ôrôya	-10.4354
▁oroz	-11.6651
orporation	-11.4573
orro	-10.3096
orth	-11.6643
orthographe	-10.7912
orts	-11.4209
osa	-10.4858
osaur	-11.6555
▁osc	-11.1763
oscopie	-11.4077
ose	-10.7397
osité	-11.4207
osiye	-10.5824
osof	-11.6613
osoni	-9.91634
ospital	-10.5224
osque	-11.2396
▁ossi	-10.9756
ôssôbè	-10.87
ôssôli	-11.5609
ost	-10.699
ot	-10.5588
ot	-8.82632
ôtab	-11.6228
▁otage	-10.5234
ôtch	-11.6524
▁oté	-10.4599
▁otè	-10.5696
otei	-11.4138
oter	-10.733
othé	-11.411
other	-10.8709
othi	-11.4141
othic	-11.3389
ôti	-10.7154
ôtô	-10.8164
ototabag	-11.6512
otro	-11.2254
ott	-10.8595
▁Ott	-10.8968
▁Ott	-10.959
otte	-10.8094
▁otumana	-11.2296
oû	-10.0488
▁Ou	-10.6425
Ou	-10.9484
▁ou	-5.99287
ou	-6.574
▁où	-7.16561
▁ou	-7.17597
ou	-7.77688
▁Ou	-9.36478
où	-9.97335
oubli	-9.34867
ouche	-10.1622
ouché	-11.3699
oud	-10.5284
oud	-10.6025
ouddha	-11.4077
ouest	-8.96655
ougan	-11.6013
ouge	-11.2915
ougou	-8.64657
▁oui	-8.47589
ouka	-10.8978
▁ouka	-9.50932
oukala	-11.0193
oukonnon	-11.3622
oukôrô	-10.4459
oula	-10.8592
ouli	-10.3388
oulou	-9.98256
oumér	-10.8662
oun	-9.45129
ounassigui	-10.9878
ound	-10.9297
oungo	-11.3658
ouni	-10.9764
ounou	-10.3127
ounta	-11.6651
ountiguiba	-11.5623
ounw	-9.91885
ouoh	-11.476
oup	-11.6329
oupe	-10.6594
▁our	-10.4474
our	-9.38426
oura	-10.833
ouragan	-10.9411
▁ouragan	-9.92882
ourd	-11.135
ouri	-10.17
ourou	-10.2505
ourougou	-11.4942
ouroun	-10.4915
ouroussan	-11.4203
ourouy	-11.6565
ourquoi	-10.5228
ours	-9.97404
ous	-8.95751
oussin	-11.2081
oussou	-10.8191
oussousouman	-11.2542
out	-9.44991
outan	-10.813
oute	-11.5213
outefois	-9.52888
outh	-11.4275
outh	-9.55486
▁outil	-10.0622
▁outre	-10.2428
ouva	-11.0215
ouvè	-10.8818
ouvent	-10.1311
ouvèrènéman	-10.8788
ouvérénéman	-11.651
ouvèrinèman	-11.6503
▁ouvert	-9.48063
▁ouverte	-10.0312
ouverture	-9.51714
▁ouvr	-10.5829
▁ouvrage	-11.4104
ouvre	-10.0292
ouvrier	-10.919
▁ouvrir	-10.3198
ouvrir	-10.9379
▁ouvrirez	-10.9602
ouw	-8.45677
▁ouye	-10.9073
ov	-10.2483
OV	-11.6515
ova	-10.1804
ova	-10.8056
ovan	-11.4109
ovembr	-10.5941
over	-10.3748
ovi	-10.7313
oviétik	-10.5216
▁Ow	-10.2078
▁ow	-7.34876
ow	-8.19744
ow	-9.99387
own	-10.0631
oxi	-10.9228
oxy	-11.394
oxygène	-10.9394
▁Oya	-10.4008
▁oya	-7.96642
oyau	-9.6439
▁oyé	-7.55278
▁oye	-9.51455
oyez	-11.1008
ôyô	-10.7001
▁oyo	-10.9283
ôyôrô	-11.335
oza	-10.4319
ozo	-11.414
ɔ	-8.88772
Ɔ	-9.31165
ɔgɔ	-10.0779
ɔgɔli	-11.6016
▁ɔhɔ	-10.8617
▁ɔhɔn	-11.3348
ɔl	-10.2933
Ɔl	-11.516
ɔlɔ	-11.5673
ɔlɔn	-11.149
▁ɔn	-10.0043
ɔn	-8.42986
ɔndial	-11.3956
ɔngɔn	-11.075
▁ɔnhɔn	-9.9005
ɔni	-10.6416
▁ɔnɔn	-11.1372
ɔnɔnin	-11.5399
ɔp	-11.6143
▁ɔr	-10.7006
ɔr	-9.34482
▁ɔrleyan	-11.6521
ɔrɔ	-9.16341
ɔrɔf	-11.6544
ɔtɔ	-10.9723
P	-10.2134
▁P	-7.48034
▁p	-7.71044
▁P	-7.75986
p	-7.92809
▁p	-8.32503
p	-9.01331
P	-9.16529
▁PA	-10.4352
▁pa	-8.90204
▁pa	-9.06931
▁Pa	-9.20312
▁Pa	-9.21442
pa	-9.59745
pa	-9.65864
▁pacifiqu	-10.8687
▁pacifique	-10.6484
▁Pacifique	-9.80152
▁Pag	-10.7509
▁page	-9.59932
pagni	-10.8669
pagnôl	-11.652
pagos	-11.6379
▁pai	-10.8568
▁paill	-11.6165
▁pain	-10.6547
▁paire	-10.1464
▁paisible	-10.9578
▁paix	-9.46534
▁pak	-11.3993
▁Pakistan	-10.2212
▁Pakistan	-9.55443
▁pakistanais	-10.2212
▁pal	-10.0668
▁Pal	-10.8992
▁pâl	-11.4077
▁Pal	-11.5764
▁palais	-10.6546
▁Pale	-10.8766
▁paléo	-11.4147
▁Pame	-11.0685
pan	-10.0754
pan	-10.8116
▁pan	-10.8956
▁pan	-8.77109
▁panam	-11.4224
Panama	-10.8827
▁panier	-10.7915
▁panique	-10.9584
▁pankurun	-10.8689
▁panne	-9.62472
▁pano	-10.5244
▁panp	-10.9125
▁pantal	-11.075
▁pantalon	-10.3121
▁pap	-10.7709
▁papie	-10.1331
▁papier	-10.7911
▁papiye	-10.7021
▁paque	-11.1647
▁Pâques	-10.9577
▁par	-10.4546
▁par	-5.63158
▁Par	-8.30546
par	-9.62338
Para	-11.653
▁para	-9.73061
▁paradoxal	-10.9577
▁Parag	-10.4343
▁Paraguay	-10.5232
paraissent	-10.9576
▁paraît	-10.6335
▁paraîtr	-11.1688
paraître	-10.9721
▁parallèle	-11.4077
▁parasite	-11.3682
▁parasites	-10.2337
▁parc	-8.24101
▁parcours	-10.3127
▁parcouru	-10.7911
pardon	-11.4768
▁parents	-9.31754
▁parfaitement	-10.9593
▁parfois	-8.42278
▁pari	-9.77578
▁paris	-10.1366
▁paris	-9.08338
▁Paris	-9.50861
▁Paris	-9.71251
Park	-10.3119
▁park	-11.0439
▁Park	-9.90068
▁parki	-9.84209
▁parking	-11.4078
▁parlait	-10.3123
▁parlé	-10.3137
▁parle	-9.12002
▁parlée	-10.5396
▁parlement	-10.9777
▁parlementaire	-10.414
▁parler	-9.39142
▁parlez	-9.92475
▁parlons	-11.4093
▁parodie	-10.9578
▁parois	-10.7936
▁parole	-9.13137
parole	-9.78517
▁part	-8.26464
▁partagé	-11.6977
▁partage	-9.61275
▁partagée	-10.9783
▁parti	-10.0497
▁Parti	-10.9595
parti	-11.6899
▁parti	-9.08519
▁Parti	-9.71251
▁particip	-9.58368
▁participant	-10.1522
▁participer	-10.1446
▁particul	-10.9839
▁particules	-10.139
▁particulier	-8.7223
▁particulière	-9.18262
▁partie	-7.66854
▁partielle	-10.5455
parties	-11.394
▁parties	-9.90267
▁partir	-8.77022
▁Partizan	-10.9577
▁partout	-9.86077
▁parvenu	-10.7538
▁parvenue	-11.0109
▁pas	-10.2826
▁pas	-5.49206
▁pasaz	-10.8689
▁pasé	-10.1344
▁pasek	-11.6531
▁pasi	-11.3524
▁pass	-10.5989
▁passage	-9.4658
▁passagers	-10.0612
▁passant	-9.60157
▁passe	-9.15848
▁passé	-9.29335
▁passée	-10.3676
passées	-10.878
▁passent	-10.825
▁passeport	-10.372
▁passeports	-10.5702
▁passer	-8.89857
▁passion	-10.6808
▁passipor	-10.8695
▁pat	-10.5476
▁Pat	-11.2628
▁Pat	-11.3192
▁patho	-11.7196
▁pathologi	-11.4235
▁patience	-10.6482
▁patient	-9.88373
▁patients	-9.8375
▁patin	-10.2208
▁patin	-10.877
▁patineur	-10.5238
▁patisséri	-10.8687
▁pâtisserie	-11.701
▁pâtisseries	-10.5355
▁patri	-11.6639
▁patri	-9.5608
▁patron	-10.9578
▁pâturage	-10.9577
▁pau	-10.9821
paul	-10.4099
▁paul	-11.3204
▁paul	-9.93676
▁pauline	-11.1585
▁pause	-11.4083
▁pauvre	-9.34961
▁pav	-11.5628
▁pavillon	-11.4077
▁payé	-11.4102
▁payer	-9.59578
pays	-10.2052
▁Pays	-10.5235
▁pays	-6.85057
▁paysage	-10.1709
▁paz	-11.4485
▁PBS	-10.9577
PD	-10.5762
▁pd	-10.9694
▁pè	-10.741
pè	-11.243
PE	-11.4207
pe	-9.07407
pe	-9.2004
▁pe	-9.25876
▁pé	-9.4866
pé	-9.80805
▁Pe	-9.99073
peaux	-10.7514
▁péc	-10.9782
▁pêch	-10.4989
▁pêcha	-10.8448
▁pêchai	-10.3532
▁pêche	-9.36541
▁pêchera	-11.4113
▁pêchions	-10.6484
peci	-11.6554
▁pédagogi	-10.9577
pei	-11.5567
▁pein	-11.4925
▁peine	-9.03951
▁peint	-10.46
▁peinte	-11.2883
▁peinture	-11.3683
▁peintures	-10.6678
▁Pékin	-10.5232
▁pel	-11.4211
▁pele	-11.3321
pele	-11.6585
▁pèlerin	-10.5232
▁pell	-10.7431
pen	-10.6474
▁pén	-10.957
▁pénale	-10.5243
▁pench	-10.955
▁penchant	-10.9605
▁Pend	-9.09497
pendant	-7.22992
▁pénétr	-10.4121
▁péninsule	-9.80152
▁Pennsylvani	-10.9617
Penny	-10.8689
▁pens	-9.60775
▁pense	-9.07987
▁pensée	-10.3737
▁pensées	-10.4546
▁penser	-10.1532
▁pensez	-9.74901
▁pentes	-10.5233
▁Per	-10.705
per	-10.8335
▁Pér	-10.8947
▁per	-11.0705
▁per	-9.5943
per	-9.83522
pération	-10.572
▁perception	-10.5234
▁perçue	-10.9578
▁perd	-9.42867
▁perdu	-8.964
▁pèrè	-10.133
père	-10.3054
▁péré	-10.9903
péré	-11.4661
▁père	-8.66915
▁peresi	-11.3187
▁perfection	-11.4077
▁performance	-10.1383
▁péri	-11.3645
▁péril	-10.7915
pèrin	-11.0746
▁période	-8.74187
▁périodique	-10.4122
▁périphéri	-11.4077
▁permanent	-10.4121
▁permet	-8.82082
▁permett	-9.06521
▁permettra	-10.0713
▁permettre	-9.69725
▁permis	-8.78228
▁pérou	-11.1577
▁perp	-11.41
▁perro	-11.4317
▁Perry	-10.5232
▁persan	-10.9578
▁persist	-11.4078
▁personn	-11.7241
▁personnage	-10.6489
▁personnalité	-10.7911
▁personne	-8.26151
▁personnel	-10.0628
personnelle	-11.7245
▁personnelle	-9.75328
▁personnes	-7.26825
▁perspective	-10.7911
▁pert	-10.8957
▁perturb	-11.3724
▁perturbé	-11.4444
▁peru	-11.0957
▁pesé	-10.9615
▁pèse	-11.0933
▁pèser	-11.0138
▁Pet	-10.568
▁pét	-11.6231
▁Peter	-10.8802
▁Petersb	-10.4348
Pétersbourg	-10.5232
▁petit	-7.70604
▁petite	-7.97125
pétition	-10.4445
petits	-11.5344
▁pétrole	-9.991
▁peu	-7.3918
▁peupl	-11.7001
▁peuplé	-10.6546
▁peuple	-9.20761
▁peuplées	-10.9618
▁peuples	-10.3349
▁peur	-8.91021
▁peut	-6.6751
peuvent	-11.725
▁peuvent	-7.00976
▁peux	-9.51137
▁pey	-11.4107
pɛl	-11.6527
▁pɛn	-10.7062
pɛn	-11.6487
▁pɛr	-10.5665
▁pɛrɛn	-10.5609
▁ph	-10.0116
ph	-10.2041
▁pH	-10.5242
▁Ph	-9.73127
ph	-9.80696
▁Ph	-9.99897
▁phage	-10.5254
phan	-11.1999
▁pharaon	-10.5232
▁phase	-9.95025
▁phases	-9.96102
▁phénomène	-9.50678
phi	-10.8442
▁philippe	-11.4078
▁Philippin	-10.8687
▁philippin	-9.98951
▁Philippines	-10.9577
▁philosophe	-10.6482
▁philosophi	-10.5232
▁Phno	-10.9194
pho	-10.4498
▁pho	-10.6781
▁pho	-11.6531
phon	-10.559
Phon	-11.7168
phone	-9.86099
phonique	-11.404
▁photo	-10.5819
photo	-11.6607
▁photo	-9.41854
▁photographe	-9.74597
▁photographi	-11.6846
▁photographie	-9.56586
▁photon	-10.9186
▁photons	-10.5503
▁photos	-9.39822
▁phrase	-9.64333
physique	-11.7248
▁physique	-9.09553
▁pi	-9.02605
pi	-9.11978
▁pi	-9.3883
pia	-10.9604
▁piano	-10.8689
▁piano	-11.1582
▁Picc	-10.1322
▁Picchu	-10.5232
▁pièce	-9.65429
▁pièces	-9.78884
pied	-11.7247
▁pied	-9.38811
▁pieds	-9.34984
pierre	-11.1412
▁pierre	-9.51385
▁pierres	-10.3035
▁piétinait	-11.4077
▁pieu	-11.6751
▁piɛr	-11.3206
▁pig	-11.4937
▁pil	-11.3244
▁pila	-9.90197
▁pilasi	-9.26527
▁pill	-10.8287
▁pillée	-11.4216
pilote	-11.3912
▁pilote	-9.69634
pin	-9.97243
▁pince	-10.7912
pine	-10.7058
ping	-11.5962
▁pins	-10.7971
▁pipe	-11.1585
▁piq	-11.4019
▁pir	-11.6119
▁Pira	-11.6541
▁piramidi	-9.71334
▁pirat	-11.4049
▁pirates	-11.1603
▁pire	-10.0652
▁piscine	-11.1577
▁pisi	-11.3317
▁pist	-11.7034
▁piste	-9.01919
pite	-10.8953
pitè	-11.0174
▁Pitt	-10.8687
▁Pittman	-10.9577
Pittsburg	-10.8687
▁piyɛ	-11.1592
Pl	-10.5094
▁pl	-10.5485
▁pl	-9.80327
▁pla	-10.4302
▁pla	-10.4562
▁plac	-10.742
▁place	-7.80027
▁placé	-9.8749
▁placée	-10.4956
▁plage	-10.6104
▁plages	-9.398
▁plaide	-11.4148
▁plaindr	-11.4078
▁plaine	-10.6502
▁plaint	-10.6455
▁plaintes	-10.5257
▁plair	-11.195
▁plaire	-11.1681
▁plais	-10.6491
▁plaisance	-10.2212
▁plaisir	-10.3122
▁plait	-9.24716
▁plan	-10.8853
▁plan	-9.52586
▁planche	-10.4126
▁plane	-10.8912
▁planète	-9.59626
▁planification	-9.98958
▁plans	-10.5139
▁plant	-10.5105
▁plantes	-9.15304
▁plaque	-10.2232
▁plas	-11.0927
▁plasi	-10.0564
▁plasma	-10.5232
▁plat	-10.0913
▁plat	-11.2297
▁plate	-10.8622
▁plateau	-9.78364
▁plats	-9.8914
ple	-10.1746
ple	-10.589
▁plein	-9.09401
▁pleinement	-10.7929
▁pleurai	-11.1594
▁pleure	-10.7915
▁pleut	-10.3121
▁pleuv	-11.1646
plic	-11.6521
plications	-10.9444
plier	-10.5351
▁plis	-10.4132
plomb	-11.1559
plu	-10.7767
plu	-11.5166
▁plu	-8.4921
▁pluie	-10.6111
▁pluies	-10.5602
▁plumes	-9.98956
▁plupart	-7.50193
Plus	-10.2049
▁plus	-5.47842
▁Plus	-9.18861
▁pluvi	-10.9592
PN	-11.0447
▁Po	-10.4768
▁pô	-10.8502
po	-9.22852
▁po	-9.32785
po	-9.55496
▁po	-9.56951
▁Po	-9.85784
▁poche	-11.1592
pock	-10.42
▁pod	-10.6511
▁poèmes	-11.1577
▁poésie	-10.9577
▁poète	-11.1577
▁poi	-10.2472
▁poids	-10.9578
▁poin	-10.7295
▁point	-8.44256
▁pointe	-10.1457
▁points	-8.69469
▁poissons	-9.92284
▁pol	-10.0074
pol	-11.1615
▁Pol	-11.5056
▁pôle	-10.2212
▁Poli	-10.4231
▁poli	-10.5912
poli	-10.638
▁Polic	-10.4645
▁police	-8.45172
▁polici	-10.8691
▁policier	-10.4121
▁polisi	-9.22577
▁politi	-10.7031
Politi	-11.6409
politiki	-11.6454
▁politiki	-9.46225
▁politikikɛla	-11.3187
▁politique	-9.02789
▁politiques	-9.32937
▁pollu	-10.2212
▁polo	-10.0655
polo	-10.4264
▁polo	-10.5188
polo	-11.3928
▁Polo	-11.6648
▁Pologne	-10.2216
▁Pologne	-10.8689
▁pologne	-11.319
▁polonais	-10.5283
polonais	-11.7241
poly	-10.6574
▁Polynésie	-10.9577
▁pom	-11.2628
▁pomme	-10.4121
▁pompe	-10.9578
▁pompiers	-10.7911
▁pon	-11.2478
pon	-11.3576
▁ponctu	-10.9578
▁pond	-11.1611
▁ponp	-11.0988
pont	-10.9906
▁pont	-8.76579
▁populaire	-9.42641
▁populaires	-9.38546
population	-11.7249
▁population	-8.72308
▁por	-11.0843
▁porc	-10.4121
▁pori	-10.2044
pori	-10.2981
▁poritab	-10.869
▁porn	-10.8458
▁poro	-9.93456
▁porogar	-11.6594
▁porogaram	-10.1227
▁porogaramou	-10.8894
▁poroz	-10.934
▁port	-11.4459
▁port	-8.4747
port	-9.40977
port	-9.90192
▁portable	-9.99542
▁porte	-8.1327
▁portée	-10.2497
▁porter	-9.41277
▁portrait	-10.7919
▁Portug	-11.6517
▁Portugai	-10.8689
▁portugais	-10.5234
▁posa	-11.2457
▁posé	-10.7635
posé	-11.6079
posées	-11.1794
poser	-10.1779
▁pôsi	-10.8795
▁positif	-10.2212
▁position	-9.12286
▁positive	-10.1379
▁posséd	-10.5232
▁possède	-9.85777
▁possèdent	-10.3162
▁possess	-10.4121
▁possibilité	-9.18258
▁possible	-8.40823
▁post	-11.3459
▁post	-11.407
▁poste	-9.4261
▁postes	-10.65
▁posture	-11.158
▁pot	-9.41014
▁potentiel	-10.5222
▁potentielle	-10.2219
poth	-11.639
▁potie	-11.3194
pou	-8.69983
▁pouces	-10.2212
▁poudre	-10.7911
▁poule	-11.4084
poulo	-10.8695
pound	-10.1637
▁pour	-11.6537
▁pour	-5.36919
▁Pour	-8.23921
▁pourcent	-11.1595
▁pourquoi	-8.68423
▁pourrait	-8.64943
▁poursuit	-10.9461
▁poursuite	-11.1364
▁poursuites	-10.2384
▁poursuiv	-10.7177
▁poursuivi	-9.9397
▁pourtant	-10.0618
▁pourvu	-10.5257
▁pouss	-10.662
▁poussé	-10.5509
▁pousse	-10.582
pousser	-10.8818
▁poussière	-10.5236
▁pouv	-9.42139
▁pouvai	-9.53797
pouvant	-10.1676
▁pouvez	-8.36697
▁pouvoir	-8.56129
▁poyi	-9.55475
poz	-11.4262
▁pɔ	-10.8531
pɔ	-11.5866
pɔl	-11.1866
▁pɔm	-11.3994
▁pɔn	-10.4483
pɔr	-10.9383
▁pɔr	-11.5833
▁pɔri	-10.5657
▁pɔrti	-10.567
▁pɔrto	-11.6544
pp	-10.8312
pp	-9.54365
ppan	-10.8901
ppe	-9.81938
pprendre	-11.7293
pprovisionnement	-10.9824
▁Pr	-10.6987
▁pr	-11.1463
▁pr	-9.178
▁Pra	-10.9674
▁pra	-11.0045
▁prat	-11.5587
▁pratiqu	-10.1946
▁pratique	-8.35655
▁pratiquée	-10.9691
▁pre	-11.3438
▁pré	-8.88877
▁préalable	-10.5232
▁préc	-10.7249
▁précéd	-10.9581
▁précéde	-9.99038
▁précédent	-9.94065
▁précédente	-10.9408
▁précédentes	-10.8333
▁précédents	-10.5966
▁précieuse	-10.5232
▁précieux	-11.4078
▁précipitations	-10.2212
▁précis	-9.63424
▁précisé	-10.4319
▁précision	-10.0614
▁préd	-10.4044
prédateur	-10.9623
▁prédi	-11.2141
▁prédomin	-10.9577
▁préf	-10.6358
▁prefe	-11.319
▁préférable	-10.5232
▁préféré	-10.3122
▁préfère	-9.99769
▁préjudic	-11.4077
▁prélevé	-10.9577
▁prélève	-11.4081
▁prématuré	-10.7911
▁premi	-10.8684
▁Premi	-9.80154
premier	-11.3916
▁premier	-7.79292
▁première	-7.94983
▁Première	-9.80164
▁premiye	-11.3202
▁pren	-10.2227
prenant	-11.5103
▁prend	-10.3017
prend	-11.1408
▁prendr	-11.2231
▁prendre	-8.41512
▁prends	-10.5745
▁prenez	-10.4136
prennent	-9.62185
▁prénom	-11.158
▁préoccup	-10.6451
▁préoccupé	-10.7948
▁prépa	-11.7033
▁prépar	-9.46808
▁préparation	-10.794
▁préparé	-10.8687
▁préparés	-10.9601
pres	-11.6328
▁près	-8.00121
près	-9.09111
▁prese	-11.0741
▁présen	-9.41432
▁présent	-8.56847
▁présente	-9.08978
▁présenté	-9.38361
▁présentée	-10.7452
▁présenter	-9.68691
▁présentes	-9.83157
▁préserv	-10.3121
▁présid	-11.6096
▁presidan	-11.3187
▁préside	-11.4046
▁présiden	-10.1419
▁présiden	-10.6412
▁président	-8.59595
▁présidentielle	-10.2221
▁presque	-8.64789
▁pressé	-10.5234
▁presse	-9.41817
▁pression	-10.2264
pression	-11.3905
presso	-11.4135
▁prêt	-9.0925
▁prétend	-10.138
▁prétext	-10.7911
▁prêtre	-10.4204
▁preuve	-9.55029
▁prévoi	-10.0001
▁prévu	-10.7419
▁prévue	-10.8004
▁prévus	-10.4407
▁prɛ	-11.0829
▁Pri	-10.1524
▁pri	-9.98551
▁prier	-11.1732
▁prim	-10.3745
▁prim	-10.759
▁primaire	-10.5265
▁primate	-10.5232
prime	-11.0228
▁prin	-10.4145
▁Prince	-10.8688
▁Prince	-10.9577
▁prince	-11.1611
▁principal	-9.16467
principale	-11.7248
▁principale	-8.24396
▁principales	-9.60579
▁principaux	-9.92284
▁principe	-9.38665
▁pris	-8.58739
▁prise	-9.98332
▁prises	-10.6152
▁prison	-9.99573
▁prisonnier	-10.524
▁privé	-10.7801
▁privée	-10.1025
▁privées	-10.2677
▁privilège	-10.5232
▁prix	-8.68436
▁pro	-10.1161
▁pro	-9.41344
▁probable	-8.4818
▁problématique	-10.5232
▁problème	-9.11394
▁problèmes	-8.48653
▁procéd	-10.4142
▁procédure	-9.74609
▁procès	-9.80152
▁processus	-8.93815
▁prochain	-10.6397
▁prochaine	-9.74943
▁proche	-9.46802
▁proches	-9.64003
proclamé	-10.9577
▁procure	-10.5361
▁prodik	-11.3203
▁produ	-11.139
▁product	-10.9573
▁production	-9.3504
▁produir	-11.4196
▁produire	-9.64476
▁produis	-10.4121
▁produit	-8.90729
▁produite	-10.9012
▁produits	-9.41036
▁profesi	-11.3188
▁professeur	-9.92284
▁profession	-10.9577
▁professionnelle	-10.4121
▁professionnels	-11.4078
▁profils	-11.4077
profit	-11.7245
▁profit	-9.85671
▁profitent	-11.1675
▁profiter	-10.4183
▁profond	-10.0547
profond	-11.7245
▁profondément	-10.4122
▁profondes	-10.7971
▁profondeur	-11.1775
▁prog	-11.068
▁program	-10.3231
▁programm	-11.6124
▁programme	-9.07608
▁progress	-11.4072
▁progressiv	-11.1582
▁proies	-10.2249
proies	-11.7243
▁projet	-8.72023
▁projette	-10.9769
▁prokir	-11.3194
▁prolongé	-10.5232
▁prolonge	-10.7911
▁prom	-10.9033
▁promen	-11.1566
▁promener	-11.1615
▁promesse	-10.9578
▁promet	-11.4468
▁promi	-10.6126
▁promulgué	-10.5232
▁prononc	-9.9171
▁prononcée	-10.9725
▁prononcés	-10.5242
▁prop	-11.2344
▁proportion	-11.4077
▁propos	-9.17161
▁propose	-9.00275
▁proposée	-11.1894
▁proposer	-11.0799
▁proposition	-10.4123
▁propre	-8.54492
proprié	-11.4077
▁propriétaire	-10.9577
▁propriété	-10.2212
▁propuls	-11.1578
▁protect	-11.1583
▁protégé	-11.1577
▁protéger	-10.3121
▁protéine	-9.92284
▁protesta	-11.4075
▁protestation	-10.5237
▁proto	-10.6792
▁proton	-10.1326
▁protons	-10.2213
▁prouve	-11.1579
▁Prov	-11.6522
▁provenan	-9.18434
Provenza	-10.8687
▁provɛnsi	-11.6521
▁provi	-10.9292
▁province	-9.55026
▁provoqu	-9.08771
▁provoqué	-10.5512
▁prox	-11.3365
▁prox	-9.80544
▁prun	-10.8494
▁Pryce	-10.9577
ps	-10.2794
PS	-10.6155
ps	-11.3066
▁psych	-10.9577
ption	-10.8579
▁Pu	-10.5519
▁Pu	-10.8096
▁pu	-8.47338
pu	-9.4705
pua	-11.2875
pua	-11.7165
▁publi	-11.3417
public	-11.5511
▁public	-8.6824
▁publication	-10.2284
▁publicité	-11.1613
▁publié	-9.93802
▁publique	-9.46731
▁publiques	-10.5183
▁puɛ	-11.3238
▁Puis	-10.9586
▁puis	-8.24186
puisqu	-11.7242
▁puisqu	-9.99136
▁puissant	-9.75169
▁puisse	-9.34234
▁puits	-10.6485
pulv	-10.9663
▁Pun	-10.4999
▁pun	-10.6948
▁pur	-10.05
pusi	-10.8781
▁py	-11.3361
▁pyramid	-10.4342
▁pyramid	-11.73
▁pyramide	-10.2754
▁pyramides	-9.66423
q	-10.2197
q	-10.3125
Q	-13.3182
Q	-13.7423
▁Q	-9.9005
▁qu	-5.71866
▁Qua	-10.2785
qua	-10.632
▁qualifi	-10.7713
qualifié	-11.7247
▁qualifié	-9.60374
▁qualité	-9.35114
▁Quan	-10.167
quand	-11.3917
▁quand	-8.32808
quant	-10.905
▁quant	-9.78537
▁quantité	-9.38687
▁quarante	-8.42282
quare	-9.9913
▁quart	-10.4268
▁quartier	-9.92335
▁quasi	-10.6483
quatorze	-11.7246
▁quatorze	-9.64538
▁quatre	-7.61906
quatre	-9.78547
quatrième	-11.7245
▁quatrième	-9.92557
▁que	-5.13192
que	-7.35711
que	-9.09191
▁quel	-8.26581
quel	-8.76878
▁quelconque	-10.4123
quelle	-8.39987
▁quelle	-8.56161
▁Quelqu	-10.9577
▁quelqu	-9.30314
▁quelque	-8.51124
▁quelques	-8.23266
quent	-10.658
quent	-11.3197
quérant	-11.6842
quérir	-10.6365
ques	-9.54851
▁question	-9.11385
▁questions	-9.47856
quête	-10.4023
▁Qui	-10.5232
▁qui	-5.45397
qui	-8.6696
qui	-9.33251
quim	-11.6607
quine	-10.9601
▁quinz	-10.7826
▁quinze	-10.3233
quinze	-11.3909
quisition	-11.6634
▁quitt	-9.52365
▁quitter	-9.99788
▁quoi	-8.86836
▁quotidien	-10.4114
▁quotidienne	-9.98995
r	-5.71892
r	-6.93287
▁r	-8.34614
▁R	-8.47066
▁R	-9.11149
R	-9.36319
▁r	-9.86593
R	-9.97302
ra	-5.67392
▁ra	-5.72868
ra	-7.82496
▁râ	-8.33353
▁ra	-9.06731
▁Ra	-9.32413
▁Ra	-9.5428
rabak	-11.6602
▁race	-10.6698
race	-10.9111
râce	-11.4075
▁rachis	-10.8688
▁rachis	-10.9577
▁racia	-10.959
racine	-11.7252
▁racine	-9.99244
racon	-11.4106
▁racont	-11.7286
▁raconte	-10.8587
▁raconter	-11.0742
▁radars	-10.5233
rade	-10.4571
radi	-11.6026
▁Radio	-10.5233
radio	-10.6955
▁Radio	-10.8687
▁radio	-9.31389
▁radio	-9.60664
▁radioactif	-10.5234
radjo	-10.8661
radjosso	-11.1306
rafiti	-10.4358
ragé	-11.7046
rague	-10.1477
Rai	-11.6448
raib	-10.8827
▁raid	-11.0263
▁raides	-10.525
raient	-8.04191
▁rail	-11.4422
rain	-9.72975
▁Rainbow	-10.9577
rais	-9.9726
▁raison	-7.82013
▁raisonnable	-9.98951
▁raisons	-10.2913
rait	-9.66358
rak	-9.99812
rale	-10.2237
ramani	-10.8231
ramas	-10.7906
▁ramass	-11.409
▁rame	-11.4445
▁ramen	-10.9875
ramogo	-11.6573
ran	-9.19792
ran	-9.56128
rançais	-10.9575
rancais	-11.5612
ranci	-10.6016
▁randonnée	-9.01322
ranean	-11.6588
▁rang	-10.551
▁Range	-10.9523
▁rangée	-11.4151
ransi	-10.2262
rap	-10.3702
rap	-10.6938
▁rapa	-10.9642
▁rapide	-9.75885
▁rapidement	-8.98902
▁rapides	-10.0393
▁rapidité	-10.7911
▁rappeler	-10.6494
▁rappelle	-10.5248
▁rapport	-8.47916
▁rapporté	-10.5747
▁rapporte	-10.6721
▁rapporteur	-10.66
▁rapports	-9.57191
▁rapproche	-10.6493
raquent	-10.862
▁rare	-9.00246
▁rares	-9.66723
▁raso	-11.5262
▁rassemble	-10.7911
▁rassi	-11.4098
▁rat	-10.943
raté	-11.5253
▁ratifi	-10.2212
ration	-10.6604
rawak	-11.4077
▁rayon	-11.4079
▁rayonnement	-10.5232
rchi	-10.3461
rctique	-10.5326
rdi	-10.9591
rdin	-10.6347
re	-6.39539
▁re	-7.96209
re	-7.99602
▁ré	-8.05256
ré	-9.15112
rè	-9.17538
▁Re	-9.41358
▁re	-9.42385
▁Re	-9.46822
▁Rea	-10.4348
▁Rea	-10.9173
Rea	-11.6452
▁réacteur	-10.5232
▁réaction	-9.80166
▁réagi	-10.8921
▁réagiss	-10.9789
réales	-11.018
▁réalisateur	-11.4077
▁réalisation	-10.3121
▁réalise	-10.3486
▁réalisé	-9.85752
▁réalisées	-10.5287
▁réaliser	-10.3735
▁réalité	-9.5959
▁rebondi	-11.4077
▁reç	-10.4096
▁rec	-9.86273
▁récemment	-10.4121
▁récents	-10.0609
▁recevoir	-10.2212
▁rech	-10.5266
▁réchauffe	-10.1653
▁recherch	-11.6268
▁recherché	-11.4105
▁recherche	-8.83624
▁recherches	-9.4549
▁récip	-11.1577
▁récit	-10.9578
▁recommand	-10.5214
▁recommandation	-10.5251
▁récompenser	-11.4094
▁recon	-10.4545
▁reconnaiss	-10.182
▁reconnaît	-11.4078
▁reconnu	-10.283
▁reconnue	-10.5604
▁reconstructi	-10.2261
▁reconstrui	-11.7304
▁reconstruit	-9.86217
▁recor	-10.2262
▁record	-10.061
▁recour	-11.2788
▁recouvert	-10.9577
▁recouvra	-11.4077
▁récré	-11.4077
▁recrut	-10.7914
rect	-11.6817
▁rectang	-10.9577
▁rectifi	-10.7911
rectu	-11.3235
▁reçu	-8.66614
▁recueilli	-11.4077
▁reculé	-11.4078
▁récupér	-10.2212
red	-10.7751
▁rédaction	-10.4121
rede	-11.6314
▁redev	-11.4934
▁rédigé	-10.7911
▁rédige	-11.4077
▁redirig	-10.9577
▁redoutai	-11.4503
▁redresse	-11.4077
▁réduction	-11.701
▁réductions	-10.5355
▁rédui	-9.79821
▁réduit	-11.1711
ree	-11.3327
▁réel	-9.69268
▁réelle	-10.5449
reen	-11.5672
▁ref	-10.065
réfè	-10.7136
rèfè	-10.8655
▁référ	-11.4077
▁référence	-10.2212
▁réfléchi	-10.5232
▁réfléchissant	-11.4077
▁réflexion	-10.6482
▁réforme	-10.9583
▁refroidit	-11.1589
▁refus	-9.74257
▁refusé	-9.74956
▁régal	-11.1578
▁regard	-9.55183
▁regarde	-10.2081
▁regarder	-9.75227
régi	-11.0711
regi	-11.6665
▁régime	-9.74602
région	-11.7249
▁région	-8.16385
▁régionale	-11.1976
▁régions	-8.87698
▁règle	-9.24608
▁réglement	-11.4056
▁réglementation	-10.2219
▁règne	-10.1379
▁régner	-11.4077
▁regrett	-11.385
▁regrette	-11.1758
▁regroupe	-10.9577
▁régulier	-11.4084
▁régulière	-10.0178
▁régulièrement	-10.1416
▁régulières	-10.27
▁Reid	-10.1322
▁Reid	-10.2214
rein	-11.6612
▁reine	-9.59671
reint	-11.6389
▁rejet	-10.7914
▁rejoindre	-10.3124
▁rejoint	-9.50709
▁relais	-10.6488
▁relat	-11.4045
▁relation	-8.98783
▁relative	-9.0943
▁relev	-10.2215
▁relève	-10.6484
▁relié	-10.1379
▁relie	-9.99032
▁religieuse	-10.7911
▁religieux	-9.98951
▁religion	-9.06651
▁reliqu	-10.958
▁rem	-10.5968
▁REM	-10.8687
▁remarqu	-9.98703
▁remarquable	-11.4181
rème	-10.3264
▁remercie	-10.6482
▁remet	-10.1398
▁remis	-10.7762
▁remise	-10.5357
▁remont	-10.3891
▁remonte	-9.82783
▁remplacé	-10.3697
▁remplace	-10.4121
▁remplacée	-11.0353
▁rempli	-9.70814
▁remplie	-10.9004
▁remport	-11.5009
▁remporte	-10.1922
▁remporté	-9.80304
remu	-11.2618
▁ren	-10.7279
ren	-10.7734
rèn	-11.2717
▁renard	-10.9578
▁rencontré	-11.1578
▁rencontre	-9.48452
▁rencontrer	-9.95762
▁rend	-8.70188
rendement	-11.696
▁rendez	-9.99399
▁rendre	-9.12531
▁rendu	-9.65414
▁rendue	-11.1185
▁rené	-10.4137
▁rene	-10.8755
rène	-11.6642
▁renfor	-10.9526
▁renforc	-11.4107
▁renfort	-10.961
reng	-11.0302
reni	-11.1062
▁renifl	-10.5232
▁rennes	-9.92305
▁renommé	-10.7913
▁renonc	-11.4077
▁renouvel	-11.1577
▁rénov	-11.4078
rens	-11.256
▁renseigne	-10.4314
rent	-9.40084
▁rentre	-10.619
▁rentré	-11.1577
▁rentrer	-10.2485
▁répand	-10.4114
▁répandu	-10.5153
▁répandue	-10.2278
▁réparat	-10.9596
▁repas	-9.97412
▁repasser	-10.2214
▁repér	-10.951
▁réper	-11.4095
▁repéré	-10.5276
▁répéta	-11.2577
▁répète	-11.4077
▁repiblik	-11.6521
▁répond	-9.98653
▁répondit	-10.3131
▁répondre	-9.92437
▁répondu	-10.9594
▁réponse	-9.88302
▁réponses	-10.3739
▁report	-10.4128
▁repos	-10.2127
▁repose	-10.0683
▁reprendra	-11.1577
▁reprendre	-10.4121
▁représentant	-10.7519
▁représentants	-9.81648
▁représentation	-11.4077
▁représenté	-10.7911
▁représente	-9.80152
▁réprimé	-10.9577
▁repris	-10.9549
▁reprises	-10.4137
▁reprit	-11.1577
▁reproch	-10.7911
▁reprodui	-10.9577
▁Repub	-11.6471
▁républi	-10.7021
▁Republi	-10.7891
▁républicain	-10.5235
▁Republik	-11.0345
▁république	-9.314
▁réput	-10.3414
▁réputé	-10.1952
rés	-10.928
rès	-9.45631
réseau	-11.7249
▁réseau	-9.50817
▁réseaux	-11.4111
▁reserv	-10.4342
▁réservation	-9.98951
▁réservé	-10.3121
▁réserve	-9.31041
▁réserver	-10.535
▁réservoir	-9.55026
▁résid	-10.2196
résiden	-10.8481
▁résidence	-10.1379
resident	-10.8688
résident	-11.1408
▁résident	-9.99668
resil	-10.4571
▁résist	-10.7368
résistante	-11.026
▁résolu	-10.9808
▁résonance	-10.5232
▁résonne	-11.4079
▁résoudre	-9.98951
▁respect	-9.88918
▁respecté	-10.358
▁respecter	-10.9683
▁respective	-10.4122
▁respira	-10.7909
▁respiration	-11.408
▁respire	-10.7911
▁responsabilité	-10.5233
▁responsable	-9.55026
resque	-10.8108
resse	-10.1586
▁ressemblait	-11.4102
▁ressemble	-9.59952
▁ressembler	-10.943
resso	-11.3404
▁ressort	-11.4063
▁ressortissant	-10.5238
▁ressources	-9.86034
▁ressuscit	-11.1577
▁rest	-9.96102
▁restant	-9.64611
▁restaurant	-10.1822
▁restaurants	-10.1757
▁restauration	-10.9581
▁restauré	-11.4102
▁reste	-8.08899
▁resté	-9.96387
▁rester	-9.10583
▁restr	-10.9672
▁résult	-11.729
▁résultat	-10.2735
▁résultats	-9.29358
▁résulte	-10.6522
résumé	-10.7912
▁rétabli	-10.5233
▁retar	-11.6528
▁retard	-9.49809
▁retardé	-10.9957
rète	-11.4077
▁retenu	-10.9577
rétien	-10.4342
▁retir	-11.3465
▁retiré	-10.6576
▁retire	-9.94471
▁retour	-9.17798
▁retourné	-10.5237
▁retourne	-11.1641
▁retourner	-9.80929
▁retrait	-10.7823
▁retraite	-10.53
▁rétrécisse	-10.9577
▁retrouvé	-9.86338
▁retrouve	-9.91838
▁retrouver	-10.2845
▁réuni	-10.9577
▁réunion	-9.69375
▁réussi	-9.22687
▁réussir	-11.2882
▁réussite	-10.5278
▁revanche	-10.5232
▁rêve	-9.79796
▁réveil	-11.4047
▁réveiller	-10.3122
▁révél	-9.59572
▁révèle	-10.9551
▁révèlent	-10.9604
▁revenait	-11.4113
revenant	-11.4299
▁revendiqu	-11.6299
▁revendiqué	-11.496
▁revenir	-9.9238
▁revenu	-9.21395
▁rêver	-10.8007
▁revers	-11.4079
▁revêt	-10.7911
▁revien	-11.629
▁reviennent	-10.6492
▁revient	-10.7952
▁revoir	-11.1595
▁Révolution	-10.5235
▁révolution	-9.92308
▁revue	-10.9577
rez	-10.8756
▁rez	-11.4308
rez	-8.95243
rɛ	-9.4286
rɛl	-10.4249
▁rɛn	-10.5816
rɛn	-9.50011
▁rɛsto	-11.6521
rɛt	-10.7445
rfin	-10.8837
rganisation	-10.9567
rgar	-11.3541
rge	-11.0584
rgement	-9.8128
rgie	-11.3188
rgon	-10.9665
▁Ri	-10.3402
ri	-6.45543
ri	-8.54695
▁Ri	-9.57843
▁ri	-9.82349
rias	-10.8942
rice	-10.1133
riceratopi	-11.6216
rich	-10.4326
rich	-10.5603
▁riche	-9.95114
▁riches	-9.89492
▁richesse	-10.5256
richi	-10.8972
richu	-11.3332
rict	-11.6616
rid	-10.0743
rid	-10.3986
rie	-8.76548
rie	-9.70438
riel	-11.1662
riel	-9.95862
▁rien	-8.31867
rier	-9.79947
riété	-9.91587
riez	-10.2083
riff	-11.1592
rifinsira	-10.8687
▁rigide	-10.7911
rigo	-10.998
rigo	-11.4125
▁rigol	-11.4092
rigue	-11.406
rik	-10.0847
riki	-9.3298
rikolognanagbè	-10.8689
rikorognanagbè	-11.6286
riku	-11.5938
rillo	-11.7275
rimati	-10.4249
rin	-10.1991
▁Ring	-10.9623
ringi	-11.0746
▁Rio	-10.9607
Rio	-11.3066
rip	-10.6513
ripen	-11.4078
▁rire	-11.1667
risation	-10.7932
risita	-10.7899
risiya	-11.3535
[...]
