{
  "<unk>": 0,
  "<s>": 1,
  "</s>": 2,
  "\u2581k": 3,
  "\u2581d": 4,
  "\u2581l": 5,
  "an": 6,
  "\u2581n": 7,
  "\u2581s": 8,
  "\u2581m": 9,
  "\u2581a": 10,
  "en": 11,
  "\u2581b": 12,
  "\u2581t": 13,
  "es": 14,
  "\u2581y": 15,
  "\u2581p": 16,
  "\u2581c": 17,
  "on": 18,
  "\u2581f": 19,
  "in": 20,
  "\u2581ka": 21,
  "ou": 22,
  "il": 23,
  "\u2581la": 24,
  "is": 25,
  "\u2581j": 26,
  "\u2581ye": 27,
  "un": 28,
  "\u2581de": 29,
  "qu": 30,
  "re": 31,
  "ra": 32,
  "it": 33,
  "\u2581qu": 34,
  "\u2581ma": 35,
  "\u2581e": 36,
  "\u2581le": 37,
  "er": 38,
  "\u2581v": 39,
  "\u2581pa": 40,
  "\u2581ko": 41,
  "ent": 42,
  "\u2581be": 43,
  "le": 44,
  "\u2581ne": 45,
  "est": 46,
  "la": 47,
  "ma": 48,
  "ri": 49,
  "eu": 50,
  "\u2581o": 51,
  "us": 52,
  "\u0254n": 53,
  "ga": 54,
  "ous": 55,
  "\u2581sa": 56,
  "\u2581w": 57,
  "\u2581et": 58,
  "\u2581i": 59,
  "\u2581se": 60,
  "\u2581ni": 61,
  "our": 62,
  "\u2581na": 63,
  "ti": 64,
  "\u2581an": 65,
  "om": 66,
  "\u2581\"": 67,
  "\u2581fa": 68,
  "\u2581\u00e0": 69,
  "\u2581il": 70,
  "\u2581pas": 71,
  "\u2581k\u025b": 72,
  "..": 73,
  "li": 74,
  "\u2581en": 75,
  "\u2581min": 76,
  "\u2581que": 77,
  "\u0254g": 78,
  "\u25811": 79,
  "\u2581di": 80,
  "\u2581les": 81,
  "ya": 82,
  "oi": 83,
  "\u025bn": 84,
  "\u2581je": 85,
  "me": 86,
  "\u2581un": 87,
  "ba": 88,
  "\u2581ce": 89,
  "\u2581ba": 90,
  "or": 91,
  "ur": 92,
  "\u2581kan": 93,
  "\u0254r": 94,
  "\u0254g\u0254": 95,
  "ta": 96,
  "\u2581h": 97,
  "\u2581si": 98,
  "te": 99,
  "\u2581aw": 100,
  "\u2581u": 101,
  "\u2581r": 102,
  "\u0254r\u0254": 103,
  "\u2581ta": 104,
  "el": 105,
  "ant": 106,
  "\u2581\u0272": 107,
  "\u2581lo": 108,
  "\u2581du": 109,
  "ce": 110,
  "gi": 111,
  "man": 112,
  "ont": 113,
  "\u2581tu": 114,
  "\u2581f\u0254": 115,
  "\u25812": 116,
  "\u2581g": 117,
  "\u025b\u025b": 118,
  "\u2581tun": 119,
  "\u2581est": 120,
  "\u2581vous": 121,
  "\u2581\u00e9": 122,
  "ve": 123,
  "\u2581au": 124,
  "ai": 125,
  "si": 126,
  "gu": 127,
  "\u2581?": 128,
  "\u2581pour": 129,
  "\u2581par": 130,
  "ui": 131,
  "ol": 132,
  "ka": 133,
  "ment": 134,
  "ans": 135,
  "\u2581qui": 136,
  "\u00e9s": 137,
  "\u2581wa": 138,
  "se": 139,
  "\u2581des": 140,
  "na": 141,
  "\u2581da": 142,
  "\u2581b\u025b\u025b": 143,
  "ro": 144,
  "ena": 145,
  "ana": 146,
  "ch": 147,
  "ne": 148,
  "tre": 149,
  "\u2581m\u0254g\u0254": 150,
  "\u2581ch": 151,
  "ons": 152,
  ".\"": 153,
  "\u2581dans": 154,
  "au": 155,
  "\u2581su": 156,
  "\u2581com": 157,
  "r\u025b": 158,
  "\u2581ala": 159,
  "de": 160,
  "\u2581f\u025b": 161,
  "\u2581bi": 162,
  "sa": 163,
  "res": 164,
  "\u2581te": 165,
  "ar": 166,
  "\u025br\u025b": 167,
  "\u2581tou": 168,
  "\u2581ja": 169,
  "va": 170,
  "\u2581yo": 171,
  "...": 172,
  "\u2581to": 173,
  "eur": 174,
  "\u2581nin": 175,
  "\u2581bena": 176,
  "\u2581don": 177,
  "\u2581fil": 178,
  "\u2581re": 179,
  "go": 180,
  "\u2581une": 181,
  "\u2581ya": 182,
  "\u25813": 183,
  "end": 184,
  "\u2581nous": 185,
  "\u2581d\u0254": 186,
  "\u2581pl": 187,
  "\u00e8re": 188,
  "ge": 189,
  "\u2581mais": 190,
  "da": 191,
  "\u2581k\u0254n": 192,
  "ris": 193,
  "\u2581t\u025b": 194,
  "t\u00e9": 195,
  "\u2581-": 196,
  "ran": 197,
  "\u2581ku": 198,
  "\u00e9e": 199,
  "\u2581plus": 200,
  "\u2581koo": 201,
  "mp": 202,
  "\u2581man": 203,
  "\u2581d\u00e9": 204,
  "\u2581ti": 205,
  "os": 206,
  "\u2581ani": 207,
  "ko": 208,
  "\u2581ca": 209,
  "\u2581dieu": 210,
  "lu": 211,
  "\u2581ha": 212,
  "eux": 213,
  "olo": 214,
  "ci": 215,
  "\u2581lui": 216,
  "\u2581mon": 217,
  "tion": 218,
  "\u2581tout": 219,
  "pp": 220,
  "di": 221,
  "\u2581so": 222,
  "\u25814": 223,
  "den": 224,
  "elen": 225,
  "tait": 226,
  "les": 227,
  "r\u00e8": 228,
  "ili": 229,
  "l\u025b": 230,
  "ers": 231,
  "mi": 232,
  "\u2581k\u0254": 233,
  "\u2581k\u0254n\u0254": 234,
  "\u2581taga": 235,
  "\u2581vi": 236,
  "lle": 237,
  "\u2581sont": 238,
  "yi": 239,
  "\u2581pr": 240,
  "ni": 241,
  "ut": 242,
  "\u2581den": 243,
  "\u2581sur": 244,
  "zu": 245,
  "\u2581r\u00e9": 246,
  "rit": 247,
  "\u2581ave": 248,
  "\u2581kelen": 249,
  "ux": 250,
  "\u2581fait": 251,
  "\u2581con": 252,
  "\u2581bari": 253,
  "\u2581b\u0254": 254,
  "ab": 255,
  "isi": 256,
  "\u2581ils": 257,
  "\u2581!": 258,
  "ogo": 259,
  "aw": 260,
  "\u2581dit": 261,
  "ara": 262,
  "ff": 263,
  "\u2581mi": 264,
  "int": 265,
  "\u2581san": 266,
  "\u2581jour": 267,
  "que": 268,
  "\u2581s\u0254r\u0254": 269,
  "ire": 270,
  "et": 271,
  "tigi": 272,
  "c\u025b": 273,
  "\u2581ju": 274,
  "\u2581mun": 275,
  "\u2581mo": 276,
  "\u2581l\u0254n": 277,
  "\u2581fana": 278,
  "\u2581peu": 279,
  "\u2581son": 280,
  "uso": 281,
  "ila": 282,
  "ort": 283,
  "\u2581ai": 284,
  "\u2581ki": 285,
  "\u2581y\u025br\u025b": 286,
  "\u2581kun": 287,
  "mes": 288,
  "gn": 289,
  "lo": 290,
  "\u2581li": 291,
  "fa": 292,
  "\u2581masa": 293,
  "\u0272\u025b": 294,
  "elle": 295,
  "\u2581avec": 296,
  "min": 297,
  "vi": 298,
  "\u2581pro": 299,
  "\u2581minw": 300,
  "\u2581ou": 301,
  "oir": 302,
  "\u00eatre": 303,
  "ez": 304,
  "ille": 305,
  "\u2581dis": 306,
  "\u2581suis": 307,
  "\u2581al": 308,
  "\u2581moi": 309,
  "ens": 310,
  "ins": 311,
  "\u2581comme": 312,
  "\u2581kuma": 313,
  "\u2581ci": 314,
  "tu": 315,
  "am": 316,
  "\u2581yi": 317,
  "\u2581bon": 318,
  "omme": 319,
  "\u2581ji": 320,
  "\u2581me": 321,
  "\u2581kos": 322,
  "\u2581no": 323,
  "\u00e9sus": 324,
  "lan": 325,
  "vait": 326,
  "\u25815": 327,
  "\u2581elle": 328,
  "\u2581j\u00e9sus": 329,
  "m\u025b": 330,
  "iti": 331,
  "r\u00e8s": 332,
  "\u2581fo": 333,
  "uru": 334,
  "\u2581fe": 335,
  "k\u025b": 336,
  "ouv": 337,
  "\u2581yen": 338,
  "\u2581ra": 339,
  "ile": 340,
  "\u2581dugu": 341,
  "\u2581\u00e9t\u00e9": 342,
  "\u2581faire": 343,
  "\u0254g\u0254n": 344,
  "rent": 345,
  "\u2581leur": 346,
  "\u2581z": 347,
  "jour": 348,
  "rai": 349,
  "\u00eame": 350,
  "\u2581\u0272in": 351,
  "\u2581\u0272a": 352,
  "\u2581tous": 353,
  "\u2581tuma": 354,
  "anna": 355,
  "\u25816": 356,
  "baga": 357,
  "r\u00e9": 358,
  "\u2581cogo": 359,
  "\u2581ga": 360,
  "ils": 361,
  "isa": 362,
  "tes": 363,
  "\u2581kana": 364,
  "\u2581ale": 365,
  "fi": 366,
  "ors": 367,
  "ants": 368,
  "\u2581av": 369,
  "\u2581bo": 370,
  "\u2581nga": 371,
  "tres": 372,
  "\u2581yezu": 373,
  "\u2581baara": 374,
  "mu": 375,
  "l\u0254": 376,
  "ussi": 377,
  "as": 378,
  "\u2581k\u0254r\u0254": 379,
  "denw": 380,
  "b\u025b": 381,
  "une": 382,
  "\u2581ban": 383,
  "bu": 384,
  "\u2581k\u025bra": 385,
  "\u2581tugu": 386,
  "uis": 387,
  "bi": 388,
  "al": 389,
  "ki": 390,
  "\u2581bien": 391,
  "\u2581fils": 392,
  "ble": 393,
  "\u258120": 394,
  "\u2581vo": 395,
  "\u2581aussi": 396,
  "\u2581nka": 397,
  "\u2581c\u025b": 398,
  "\u2581ans": 399,
  "\u2581ent": 400,
  "\u00e9tait": 401,
  "esp": 402,
  "cc": 403,
  "\u2581ter": 404,
  "\u2581ri": 405,
  "\u258110": 406,
  "ite": 407,
  "ru": 408,
  "\u2581kanu": 409,
  "\u2581sara": 410,
  "\u2581in": 411,
  "\u2581enf": 412,
  "\u2581wo": 413,
  "\u2581on": 414,
  "it\u00e9": 415,
  "du": 416,
  "\u2581y\u0254r\u0254": 417,
  "\u25818": 418,
  "ign": 419,
  "co": 420,
  "n\u00e9": 421,
  "\u025bl\u025b": 422,
  "tte": 423,
  "uman": 424,
  "ani": 425,
  "\u2581olu": 426,
  "\u2581quel": 427,
  "\u2581muso": 428,
  "\u2581wanna": 429,
  "\u2581p\u00e8re": 430,
  "ir": 431,
  "che": 432,
  "\u2581tr": 433,
  "\u2581nom": 434,
  "ance": 435,
  "\u2581ses": 436,
  "mana": 437,
  "\u2581m\u025bn": 438,
  "\u2581ont": 439,
  "\u2581car": 440,
  "\u2581kalan": 441,
  "\u2581\u00e9tait": 442,
  "ine": 443,
  "\u2581jama": 444,
  "\u2581ar": 445,
  "\u25817": 446,
  "uni": 447,
  "\u2581sera": 448,
  "\u2581cela": 449,
  "\u2581tra": 450,
  "\u2581\u00eatre": 451,
  "\u2581monde": 452,
  "wa": 453,
  "\u2581peut": 454,
  "\u2581app": 455,
  "nin": 456,
  "\u2581m\u00eame": 457,
  "iss": 458,
  "ter": 459,
  "to": 460,
  "riya": 461,
  "\u2581pers": 462,
  "\u2581t\u0254": 463,
  "\u2581d\u025b": 464,
  "\u25819": 465,
  "\u2581do": 466,
  "\u2581saan": 467,
  "\u2581jus": 468,
  "oup": 469,
  "lima": 470,
  "y\u025b": 471,
  "ommes": 472,
  "\u2581\u0272\u0254g\u0254n": 473,
  "\u258119": 474,
  "kolo": 475,
  "\u00f2n": 476,
  "vez": 477,
  "at": 478,
  "bre": 479,
  "onn": 480,
  "igneur": 481,
  "ama": 482,
  "l\u00e9": 483,
  "\u2581fem": 484,
  "hui": 485,
  "jourd": 486,
  "\u2581gw": 487,
  "\u2581w\u025br\u025b": 488,
  "\u2581saba": 489,
  "and": 490,
  "\u2581seigneur": 491,
  "\u2581loon": 492,
  "\u2581m\u0254g\u0254w": 493,
  "g\u025b": 494,
  "\u2581vie": 495,
  "\u2581nun": 496,
  "\u2581f\u0254l\u0254": 497,
  "ye": 498,
  "vous": 499,
  "ul": 500,
  "\u2581jo": 501,
  "\u2581comp": 502,
  "app": 503,
  "ini": 504,
  "\u2581cette": 505,
  "\u00e9c": 506,
  "\u2581mort": 507,
  "\u2581avait": 508,
  "\u2581sira": 509,
  "?\"": 510,
  "y\u0254r\u0254": 511,
  "ph": 512,
  "\u2581ke": 513,
  "\u2581gran": 514,
  "\u2581cel": 515,
  "m\u0254g\u0254": 516,
  "aient": 517,
  "ale": 518,
  "aman": 519,
  "homme": 520,
  "mis": 521,
  "\u2581ten": 522,
  "\u2581tena": 523,
  "\u2581as": 524,
  "\u2581aux": 525,
  "\u2581.": 526,
  "\u2581sou": 527,
  "\u2581aujourd": 528,
  "ju": 529,
  "\u2581es": 530,
  "av": 531,
  "f\u025b": 532,
  "\u2581f\u025b\u025bn": 533,
  "\u2581ex": 534,
  "endre": 535,
  "\u2581f\u0254\u0254": 536,
  "\u2581temp": 537,
  "wu": 538,
  "\u2581barika": 539,
  "\u2581b\u00e8": 540,
  "usu": 541,
  "\u2581waa": 542,
  "\u2581nu": 543,
  "m\u025bn": 544,
  "quoi": 545,
  "\u2581enfants": 546,
  "ku": 547,
  "oo": 548,
  "\u2581celui": 549,
  "tions": 550,
  "\u2581va": 551,
  "\u2581deux": 552,
  "\u2581r\u00e9p": 553,
  "rist": 554,
  "\u2581\u0272inin": 555,
  ":1": 556,
  "\u00e7a": 557,
  "ji": 558,
  "\u2581fan": 559,
  "\u2581deen": 560,
  "\u2581matigi": 561,
  "\u2581po": 562,
  "\u2581tro": 563,
  "\u2581pourquoi": 564,
  "\u258115": 565,
  "\u2581tile": 566,
  "muso": 567,
  "\u258118": 568,
  "\u2581seu": 569,
  "\u2581t\u0254g\u0254": 570,
  "\u2581caaman": 571,
  "\u2581cont": 572,
  "gne": 573,
  "\u2581jigi": 574,
  "\u2581kama": 575,
  "core": 576,
  "\u2581tan": 577,
  "\u2581dev": 578,
  "\u2581ro": 579,
  "\u2581alors": 580,
  "isra": 581,
  "\u2581ceux": 582,
  "\u2581lab": 583,
  "\u2581encore": 584,
  "\u2581ser": 585,
  "ence": 586,
  "\u2581kris": 587,
  "ue": 588,
  "kan": 589,
  "\u2581ben": 590,
  "pr\u00e8s": 591,
  "\u2581oui": 592,
  "m\u00e9": 593,
  "be": 594,
  "\u2581for": 595,
  "\u2581k\u00e8": 596,
  "kili": 597,
  "ise": 598,
  "\u0254r\u0254n": 599,
  "za": 600,
  "\u258111": 601,
  "\u258113": 602,
  "\u258112": 603,
  "d\u00e9": 604,
  "lon": 605,
  "\u2581pi": 606,
  "ho": 607,
  "ure": 608,
  "vre": 609,
  "\u2581femme": 610,
  "ler": 611,
  "ex": 612,
  "y\u025bli": 613,
  "oire": 614,
  "\u2581lon": 615,
  "\u2581non": 616,
  "\u2581ces": 617,
  "\u00e9ta": 618,
  "ces": 619,
  "so": 620,
  "\u2581kala": 621,
  "onne": 622,
  "\u2581mes": 623,
  "\u2581denc\u025b": 624,
  "\u2581jamana": 625,
  "\u00f2g": 626,
  "isan": 627,
  "n\u00e9e": 628,
  "\u0254b\u025b": 629,
  "\u2581puis": 630,
  "eurs": 631,
  "\u2581we": 632,
  "\u00e9rit": 633,
  "\u2581sigi": 634,
  "\u2581nunu": 635,
  "lement": 636,
  "\u2581tr\u00e8s": 637,
  "\u2581homme": 638,
  "ouve": 639,
  "\u2581d\u0254w": 640,
  "\u2581kos\u0254n": 641,
  "ali": 642,
  "\u2581toi": 643,
  "\u2581comment": 644,
  "aime": 645,
  "vais": 646,
  "\u2581o\u00f9": 647,
  "\u258114": 648,
  "ges": 649,
  "\u2581jours": 650,
  "ger": 651,
  "\u00eates": 652,
  "je": 653,
  "\u2581t\u025bm\u025b": 654,
  "fu": 655,
  "\u2581lu": 656,
  "\u2581donc": 657,
  "\u2581rien": 658,
  "\u2581siran": 659,
  "\u258117": 660,
  "\u2581fila": 661,
  "isira": 662,
  "ient": 663,
  "rd": 664,
  "endant": 665,
  "\u2581yan": 666,
  "ord": 667,
  "\u2581yira": 668,
  "\u2581jaab": 669,
  "ation": 670,
  "\u2581foyi": 671,
  "\u0254ni": 672,
  "ction": 673,
  "\u2581beau": 674,
  "\u2581vrai": 675,
  "\u2581(": 676,
  "\u2581mari": 677,
  "\u2581sin": 678,
  "pe": 679,
  "\u00ebl": 680,
  "\u2581\u00e7a": 681,
  "jugu": 682,
  "\u2581fi": 683,
  "\u2581yes": 684,
  "\u2581f\u00f2": 685,
  "\u2581tigi": 686,
  "\u2581bu": 687,
  "\u2581temps": 688,
  "\u2581che": 689,
  "anin": 690,
  "eure": 691,
  "ts": 692,
  "00": 693,
  "\u2581pla": 694,
  "\u00e9p": 695,
  "\u2581faga": 696,
  "\u2581pos": 697,
  "\u2581grand": 698,
  "\u2581dire": 699,
  "\u2581mii": 700,
  "ond": 701,
  "\u2581\u00e9c": 702,
  "entre": 703,
  "vo": 704,
  "\u2581maison": 705,
  "esprit": 706,
  "\u2581jan": 707,
  "mb": 708,
  "\u2581pri": 709,
  "\u2581_": 710,
  "\u2581sen": 711,
  "\u2581peur": 712,
  "\u2581bolo": 713,
  "\u2581fil\u025b": 714,
  "zi": 715,
  "\u2581jusqu": 716,
  "\u2581nii": 717,
  "\u2581masac\u025b": 718,
  "\u258116": 719,
  "\u2581mara": 720,
  "\u2581sisan": 721,
  "\u2581dan": 722,
  "rait": 723,
  "ow": 724,
  "\u2581s\u0254n": 725,
  "\u0272a": 726,
  "\u2581roi": 727,
  "ver": 728,
  "\u00f2r": 729,
  "\u2581\u00e9ta": 730,
  "ys": 731,
  "\u2581terre": 732,
  "\u2581ven": 733,
  "isra\u00ebl": 734,
  "\u2581s\u0254": 735,
  "\u2581deman": 736,
  "\u2581per": 737,
  "\u2581see": 738,
  "ques": 739,
  "bagaw": 740,
  "\u2581c\u025b\u025b": 741,
  "\u2581ada": 742,
  "\u2581di\u0272\u025b": 743,
  "isiray\u025bli": 744,
  ":2": 745,
  "\u2581mu": 746,
  "t\u0254": 747,
  "ion": 748,
  "\u2581cha": 749,
  "hi": 750,
  "\u2581j\u00e9": 751,
  "\u00e8rent": 752,
  "\u2581jaabi": 753,
  "\u2581\u00eates": 754,
  "v\u00e9": 755,
  "kun": 756,
  "tant": 757,
  "\u2581d\u00e9c": 758,
  "\u2581k\u025bl\u025b": 759,
  "\u2581kos\u0254b\u025b": 760,
  "\u2581v\u00e9rit": 761,
  "\u2581cons": 762,
  "\u2581min\u025b": 763,
  "\u2581parce": 764,
  "\u2581l\u00e0": 765,
  "yara": 766,
  "\u2581\u0272ininga": 767,
  "use": 768,
  "\u2581dusu": 769,
  "fe": 770,
  "nu": 771,
  "\u2581rest": 772,
  "\u2581b\u025b": 773,
  "\u2581x": 774,
  "\u2581fois": 775,
  "mo": 776,
  "s\u00e9": 777,
  "muni": 778,
  "\u00f2r\u00f2": 779,
  "\u2581l\u0254": 780,
  "\u2581eux": 781,
  "\u2581yesu": 782,
  "\u258124": 783,
  "\u258122": 784,
  "\u2581waga": 785,
  "\u2581autres": 786,
  "tt": 787,
  "\u00e8me": 788,
  "uma": 789,
  "acc": 790,
  "\u2581soit": 791,
  "coup": 792,
  "vent": 793,
  "\u00e8n": 794,
  "\u2581christ": 795,
  "\u2581sommes": 796,
  "\u2581isiray\u025bli": 797,
  "\u2581beaucoup": 798,
  "\u2581krista": 799,
  "....": 800,
  "\u2581conna": 801,
  "\u2581toute": 802,
  "jours": 803,
  "\u2581parti": 804,
  "\u2581quand": 805,
  "urs": 806,
  "\u2581toujours": 807,
  "\u2581eff": 808,
  "\u2581b\u0254ra": 809,
  "\u2581s\u025b": 810,
  "\u025bna": 811,
  "\u2581ain": 812,
  "\u2581hakili": 813,
  "\u2581pris": 814,
  "\u2581ville": 815,
  "\u2581taama": 816,
  "bali": 817,
  "orte": 818,
  "\u2581kuntigi": 819,
  "\u2581voi": 820,
  "\u2581pre": 821,
  "\u2581ret": 822,
  "\u00eate": 823,
  "\u2581jamais": 824,
  "\u2581trois": 825,
  "\u00f2g\u00f2": 826,
  "yez": 827,
  "\u258121": 828,
  "\u2581d\u025bm\u025b": 829,
  "\u2581arri": 830,
  "pi": 831,
  "\u2581fara": 832,
  "\u2581bila": 833,
  "\u2581damin": 834,
  "\u2581v\u00e9rit\u00e9": 835,
  "\u2581nana": 836,
  "ose": 837,
  "fin": 838,
  "\u2581masaya": 839,
  "\u2581'": 840,
  "\u2581faa": 841,
  "\u2581mus": 842,
  "ag": 843,
  "ita": 844,
  "ense": 845,
  "isse": 846,
  "ess": 847,
  "f\u025bn": 848,
  "\u2581fin": 849,
  "ze": 850,
  "\u00e9ri": 851,
  "\u2581sariya": 852,
  "\u2581soo": 853,
  "\u2581masaba": 854,
  "tin": 855,
  "ad": 856,
  "autre": 857,
  "\u2581pe": 858,
  "kaw": 859,
  "\u2581lors": 860,
  "ole": 861,
  "\u2581ainsi": 862,
  "len": 863,
  "\u258123": 864,
  "\u2581adama": 865,
  "\u2581[": 866,
  "\u2581wu": 867,
  "\u2581ab": 868,
  "\u2581balima": 869,
  "\u2581personne": 870,
  "omp": 871,
  "\u2581dumuni": 872,
  "cip": 873,
  "\u2581vou": 874,
  "\u2581...": 875,
  "\u2581ti\u0272\u025b": 876,
  "\u2581\u0272i": 877,
  "ke": 878,
  "\u2581walima": 879,
  "autres": 880,
  "\u2581jugu": 881,
  "\u2581mar": 882,
  "\u2581nan": 883,
  "ait": 884,
  "\u2581notre": 885,
  "\u2581sais": 886,
  "mer": 887,
  "\u2581lan": 888,
  "\u2581tagara": 889,
  "\u258125": 890,
  "ct": 891,
  "\u2581\u0272\u025b": 892,
  "ments": 893,
  "w\u025b": 894,
  "\u2581sig": 895,
  "\u2581fu": 896,
  "\u2581yala": 897,
  "\u2581faut": 898,
  "\u2581ton": 899,
  "\u2581wagati": 900,
  "bli": 901,
  "\u00e9ch": 902,
  "olon": 903,
  "\u2581nis": 904,
  "\u2581trava": 905,
  "\u2581veux": 906,
  "\u2581gu": 907,
  "\u2581m\u00e8re": 908,
  "\u2581k\u0254ni": 909,
  "\u2581roya": 910,
  "ras": 911,
  "out": 912,
  "\u2581c\u025bma": 913,
  "\u2581kisi": 914,
  "\u2581wi": 915,
  "\u2581\u0272ini": 916,
  "erre": 917,
  "\u2581kab": 918,
  "\u2581\u0272ana": 919,
  "rais": 920,
  "\u2581hommes": 921,
  "\u2581sau": 922,
  "\u2581ayi": 923,
  "g\u00e9": 924,
  "\u2581y\u025bl\u025b": 925,
  "ents": 926,
  "pt": 927,
  "anw": 928,
  "\u2581co": 929,
  "\u2581nis\u0254n": 930,
  "\u0254\u0254": 931,
  "\u2581d\u0254\u0254ni": 932,
  "\u2581toutes": 933,
  "yo": 934,
  "k\u0254r\u0254": 935,
  "\u2581leurs": 936,
  "ist": 937,
  "enant": 938,
  "vit": 939,
  "\u2581comm": 940,
  "diya": 941,
  "\u2581,": 942,
  "\u2581j\u0254n": 943,
  "\u2581pu": 944,
  "ume": 945,
  "\u2581cro": 946,
  "\u2581seul": 947,
  "\u2581peux": 948,
  "fs": 949,
  "ouveau": 950,
  "m\u00eame": 951,
  "oses": 952,
  "th": 953,
  "\u2581til": 954,
  "\u2581quoi": 955,
  "\u2581nouveau": 956,
  "\u2581dugukolo": 957,
  "\u2581el": 958,
  "\u2581donn\u00e9": 959,
  "sion": 960,
  "rer": 961,
  "\u2581t\u00e9": 962,
  "\u2581kaba": 963,
  "\u2581mis": 964,
  "\u2581hali": 965,
  "tern": 966,
  "its": 967,
  "\u2581choses": 968,
  "\u2581too": 969,
  "\u00e9tais": 970,
  "l\u00e0": 971,
  "rus": 972,
  "\u2581j\u025bn": 973,
  "ala": 974,
  "\u2581premi": 975,
  "\u2581zu": 976,
  "\u2581t\u0254\u0254r\u0254": 977,
  "\u2581apr\u00e8s": 978,
  "\u2581bes": 979,
  "\u2581pet": 980,
  "avais": 981,
  "\u2581cor": 982,
  "\u2581personn": 983,
  "\u2581daa": 984,
  "\u2581cer": 985,
  "\u2581sankolo": 986,
  "ina": 987,
  "\u2581pays": 988,
  "\u2581afin": 989,
  "eau": 990,
  "\u2581miiri": 991,
  "c\u00e9": 992,
  "\u2581wele": 993,
  "\u2581travail": 994,
  "\u2581rep": 995,
  "y\u00e9": 996,
  "enir": 997,
  "\u2581parole": 998,
  "\u2581bonne": 999,
  "itu": 1000,
  "aire": 1001,
  "!\"": 1002,
  "\u2581royaume": 1003,
  "gan": 1004,
  "\u2581sun": 1005,
  "olu": 1006,
  "\u2581d\u00e8": 1007,
  "oin": 1008,
  "\u2581peup": 1009,
  "\u2581fut": 1010,
  "\u2581maint": 1011,
  "cher": 1012,
  "\u2581part": 1013,
  "\u2581diff": 1014,
  "r\u00e8res": 1015,
  "\u2581waati": 1016,
  "\u2581vu": 1017,
  "ja": 1018,
  "endu": 1019,
  "\u2581saraka": 1020,
  "puis": 1021,
  "eru": 1022,
  "\u2581vraiment": 1023,
  "\u2581eu": 1024,
  "\u2581fr\u00e8res": 1025,
  "\u2581bii": 1026,
  "\u2581cas": 1027,
  "avez": 1028,
  "hova": 1029,
  "\u2581nombre": 1030,
  "inin": 1031,
  "\u2581avez": 1032,
  "emp": 1033,
  "ser": 1034,
  "\u2581fisa": 1035,
  "\u2581saga": 1036,
  "ante": 1037,
  "\u2581acc": 1038,
  "\u2581votre": 1039,
  "n\u025b": 1040,
  "\u2581b\u00e9": 1041,
  "yp": 1042,
  "gun": 1043,
  "vers": 1044,
  "\u2581entre": 1045,
  "bat": 1046,
  "der": 1047,
  "\u2581vers": 1048,
  "\u258126": 1049,
  "\u2581fam": 1050,
  "\u2581aime": 1051,
  "\u2581kalo": 1052,
  "\u2581kiba": 1053,
  "\u2581cr\u00e9": 1054,
  "gent": 1055,
  "\u2581w\u025br\u025bw": 1056,
  "\u2581\u00e9taient": 1057,
  "ca": 1058,
  "\u2581am": 1059,
  "\u2581gens": 1060,
  "\u2581quest": 1061,
  "\u2581pendant": 1062,
  "\u2581ph": 1063,
  "\u2581besoin": 1064,
  "oro": 1065,
  "\u2581dun": 1066,
  "\u2581m\u00f2g\u00f2": 1067,
  "oute": 1068,
  "\u2581maintenant": 1069,
  "aux": 1070,
  "\u2581gr": 1071,
  "do": 1072,
  "\u2581sans": 1073,
  "ona": 1074,
  "\u2581yafa": 1075,
  "\u2581saint": 1076,
  "gue": 1077,
  "rez": 1078,
  "\u2581donne": 1079,
  "\u2581suu": 1080,
  "\u0272uman": 1081,
  "ner": 1082,
  "alem": 1083,
  "\u2581personnes": 1084,
  "\u2581avons": 1085,
  "\u2581mois": 1086,
  "\u2581damin\u025b": 1087,
  "\u2581contre": 1088,
  "laki": 1089,
  "\u2581kojugu": 1090,
  "\u2581loi": 1091,
  "\u2581ah": 1092,
  "jet": 1093,
  "\u258128": 1094,
  "\u2581chose": 1095,
  "\u0272\u025bn": 1096,
  "\u2581m\u00e9": 1097,
  "\u2581dama": 1098,
  "\u2581pou": 1099,
  "oni": 1100,
  "l\u00e8": 1101,
  "\u2581teri": 1102,
  "\u2581fr": 1103,
  "enf": 1104,
  "\u2581nis\u0254ndiya": 1105,
  "\u2581kaan": 1106,
  "\u2581201": 1107,
  "\u00eetre": 1108,
  "avait": 1109,
  "\u2581pr\u00e9": 1110,
  "\u2581envo": 1111,
  "\u2581siya": 1112,
  "rusalem": 1113,
  "\u2581ele": 1114,
  "cun": 1115,
  "\u2581avoir": 1116,
  "\u2581\u00e9ga": 1117,
  "\u2581laga": 1118,
  "\u2581pr\u00e9s": 1119,
  "inter": 1120,
  "cer": 1121,
  "lisa": 1122,
  "\u2581bato": 1123,
  "elles": 1124,
  "\u2581j\u00e9rusalem": 1125,
  "aut": 1126,
  "lait": 1127,
  "\u2581can": 1128,
  "\u2581depuis": 1129,
  "\u2581prop": 1130,
  "\u2581kalandenw": 1131,
  "b\u025bn": 1132,
  "\u2581t\u00e8": 1133,
  "\u2581bana": 1134,
  "\u2581peuple": 1135,
  "\u2581laj": 1136,
  "\u2581point": 1137,
  "\u2581y\u025b": 1138,
  "\u2581trouv": 1139,
  "cile": 1140,
  "wuda": 1141,
  "\u2581saa": 1142,
  "\u00f4t": 1143,
  "ing": 1144,
  "m\u0254g\u0254w": 1145,
  "f\u0254": 1146,
  "con": 1147,
  "\u2581moins": 1148,
  "\u2581fais": 1149,
  "\u2581sav": 1150,
  "iste": 1151,
  "l\u025bmu": 1152,
  "\u00e8r\u00e8": 1153,
  "\u2581ac": 1154,
  "bo": 1155,
  "\u0272\u0254g\u0254n": 1156,
  "\u2581r\u00e9pond": 1157,
  "\u2581nouv": 1158,
  "ac": 1159,
  "amour": 1160,
  "\u2581certa": 1161,
  "\u2581journ\u00e9e": 1162,
  "k\u025bla": 1163,
  "rance": 1164,
  "zal\u025bmu": 1165,
  "\u2581mal": 1166,
  "eruzal\u025bmu": 1167,
  "\u0254g\u0254ma": 1168,
  "\u2581mana": 1169,
  "\u2581senuman": 1170,
  "\u2581autre": 1171,
  "\u2581f\u0254ra": 1172,
  "\u2581walisa": 1173,
  "vid": 1174,
  "\u2581met": 1175,
  "\u2581janko": 1176,
  "bari": 1177,
  "\u2581wolo": 1178,
  "\u2581say": 1179,
  "\u2581heure": 1180,
  "nan": 1181,
  "\u2581zeruzal\u025bmu": 1182,
  "ha": 1183,
  "\u00e8res": 1184,
  "kari": 1185,
  "\u2581dou": 1186,
  "\u2581mont": 1187,
  "\u2581sy": 1188,
  "\u2581matin": 1189,
  "g\u0254": 1190,
  "\u2581d\u0254r\u0254n": 1191,
  "amu": 1192,
  "\u2581imp": 1193,
  "\u2581bible": 1194,
  "\u2581furu": 1195,
  "\u2581retour": 1196,
  "\u2581mer": 1197,
  "su": 1198,
  "piti": 1199,
  "\u2581fari": 1200,
  "\u2581pai": 1201,
  "\u2581simp": 1202,
  "\u2581lab\u025bn": 1203,
  "ines": 1204,
  "\u2581dom": 1205,
  "\u2581elles": 1206,
  "\u2581k\u025bn\u025b": 1207,
  "\u2581ciel": 1208,
  "\u2581discip": 1209,
  "enn": 1210,
  "\u2581seen": 1211,
  "\u00e9es": 1212,
  "\u2581b\u0254n": 1213,
  "gw\u025b": 1214,
  "\u2581chez": 1215,
  "\u2581n\u0254g\u0254": 1216,
  "enne": 1217,
  "\u2581tora": 1218,
  "\u2581confi": 1219,
  "\u2581sui": 1220,
  "ban": 1221,
  "k\u0254": 1222,
  "\u2581bo\u0272a": 1223,
  "nga": 1224,
  "\u2581laban": 1225,
  "\u2581att": 1226,
  "\u2581or": 1227,
  "cu": 1228,
  "\u2581.\"": 1229,
  "ente": 1230,
  "ob": 1231,
  "\u2581denmis": 1232,
  "b\u0254": 1233,
  "\u2581foi": 1234,
  "\u2581bara": 1235,
  "\u2581isiray\u025blidenw": 1236,
  "\u2581dafa": 1237,
  "\u2581fili": 1238,
  "\u2581wari": 1239,
  "!!": 1240,
  "\u2581proph": 1241,
  ":3": 1242,
  "\u258130": 1243,
  "\u2581r\u00e9s": 1244,
  "\u2581gw\u025bl\u025b": 1245,
  "ck": 1246,
  "\u2581voir": 1247,
  "\u2581pass\u00e9": 1248,
  "\u2581s\u0254g\u0254ma": 1249,
  "\u2581d\u00e9b": 1250,
  "\u2581d\u0254g\u0254": 1251,
  "\u2581dawuda": 1252,
  "\u258127": 1253,
  "\u2581pr\u00ea": 1254,
  "\u2581kabako": 1255,
  "\u0153ur": 1256,
  "\u2581tugun": 1257,
  "\u2581chemin": 1258,
  "\u2581quelqu": 1259,
  "\u2581cr": 1260,
  "\u2581jum\u025bn": 1261,
  "\u2581pouv": 1262,
  "pa": 1263,
  "\u2581gar": 1264,
  "\u2581koow": 1265,
  "\u2581envi": 1266,
  "\u2581anw": 1267,
  "\u2581kaso": 1268,
  "\u2581d\u00e9s": 1269,
  "\u2581ren": 1270,
  "\u2581paix": 1271,
  "\u2581nafa": 1272,
  "jan": 1273,
  "\u2581kit": 1274,
  "\u2581th": 1275,
  "rir": 1276,
  "illes": 1277,
  "\u2581musa": 1278,
  "\u00e9g": 1279,
  "\u2581love": 1280,
  "til": 1281,
  "\u2581diyara": 1282,
  "mun": 1283,
  "\u2581\u0272aa": 1284,
  "\u2581cour": 1285,
  "\u025bnw": 1286,
  "cha": 1287,
  "eures": 1288,
  "\u2581\u2039": 1289,
  "\u2581ezi": 1290,
  "imp": 1291,
  "\u2581taa": 1292,
  "\u2581donna": 1293,
  "\u2581faamu": 1294,
  "\u2581saya": 1295,
  "\u2581vais": 1296,
  "\u2581d\u00f2n": 1297,
  "\u2581\u00e9galement": 1298,
  "\u2581veu": 1299,
  "\u2581david": 1300,
  "\u2581f\u00e8": 1301,
  "\u025bn\u025b": 1302,
  ".'": 1303,
  "moi": 1304,
  "\u2581mako": 1305,
  "\u2581kabini": 1306,
  "\u2581p\u00e9ch": 1307,
  "christ": 1308,
  "\u2581effet": 1309,
  "\u2581ver": 1310,
  "\u2581\u0272uman": 1311,
  "\u2581\u0272\u025bn": 1312,
  "\u2581kasi": 1313,
  "baw": 1314,
  "\u2581avant": 1315,
  "qui": 1316,
  "cogo": 1317,
  "\u2581r\u00e9pon": 1318,
  "\u2581\u0254": 1319,
  "\u2581kibaru": 1320,
  "\u2581uns": 1321,
  "for": 1322,
  "\u2581disciples": 1323,
  "\u2581diman": 1324,
  "\u2581enfant": 1325,
  "\u2581\u00e2": 1326,
  "\u2581lagaw": 1327,
  "\u2581ezipiti": 1328,
  "enti": 1329,
  "des": 1330,
  "able": 1331,
  "urun": 1332,
  "\u2581cieux": 1333,
  "don": 1334,
  "ture": 1335,
  "\u2581fr\u00e8re": 1336,
  "\u2581ny": 1337,
  "\u2581livre": 1338,
  "\u2581nuit": 1339,
  "\u2581zan": 1340,
  "\u2581d\u00e9p": 1341,
  "att": 1342,
  "inw": 1343,
  "\u2581col": 1344,
  "\u2581d\u00e9but": 1345,
  "\u2581ense": 1346,
  "\u2581ima": 1347,
  "itigi": 1348,
  "\u2581savez": 1349,
  "\u2581\u00e9crit": 1350,
  "\u2581kon": 1351,
  "\u258129": 1352,
  "\u2581doit": 1353,
  "\u2581segi": 1354,
  "argent": 1355,
  "\u25810": 1356,
  "\u2581b\u00e8\u00e8": 1357,
  "masa": 1358,
  "\u2581sababu": 1359,
  "non": 1360,
  "\u2581envoy\u00e9": 1361,
  "\u00e8te": 1362,
  "\u2581kunna": 1363,
  "\u2581famille": 1364,
  ".\u203a": 1365,
  "agit": 1366,
  "\u2581coup": 1367,
  "\u2581soi": 1368,
  "\u2581sabu": 1369,
  "k\u00e8": 1370,
  "\u2581deenw": 1371,
  "\u00eet": 1372,
  "liw": 1373,
  "kil": 1374,
  "ang": 1375,
  "\u2581appel": 1376,
  "\u258140": 1377,
  "\u2581rega": 1378,
  "\u2581denmuso": 1379,
  "\u2581kira": 1380,
  "folo": 1381,
  "\u2581jui": 1382,
  "\u2581kow": 1383,
  "\u2581cher": 1384,
  "vres": 1385,
  "ilu": 1386,
  "abu": 1387,
  "\u2581der": 1388,
  "\u00efse": 1389,
  "\u2581nos": 1390,
  "ypte": 1391,
  "\u2581voit": 1392,
  "\u2581alla": 1393,
  "lase": 1394,
  "urent": 1395,
  "\u2581d\u0254n": 1396,
  "avoir": 1397,
  "\u2581grande": 1398,
  "\u2581juman": 1399,
  "\u2581mo\u00efse": 1400,
  "arri": 1401,
  "\u2581denw": 1402,
  "oso": 1403,
  "\u2581fille": 1404,
  "sible": 1405,
  "\u2581fac\u025b": 1406,
  "\u2581t\u025bm\u025bn": 1407,
  "fo": 1408,
  "\u2581s\u00e9": 1409,
  "\u2581jii": 1410,
  "lent": 1411,
  "oie": 1412,
  "mble": 1413,
  "vant": 1414,
  "\u2581sii": 1415,
  "\u2581devant": 1416,
  "\u2581mala": 1417,
  "\u2581daali": 1418,
  "\u2581souff": 1419,
  "enu": 1420,
  "yezu": 1421,
  "\u2581h\u025br\u025b": 1422,
  "\u2581fanga": 1423,
  "\u2581gl": 1424,
  "oles": 1425,
  "\u2581\u014b": 1426,
  "\u2581femmes": 1427,
  "\u2581nouvelle": 1428,
  "\u2581go": 1429,
  "inte": 1430,
  "\u2581cause": 1431,
  "dez": 1432,
  "\u2581d\u00e9j": 1433,
  "ed": 1434,
  "\u2581aga": 1435,
  "\u2581kunun": 1436,
  "wi": 1437,
  "\u2581mani": 1438,
  ",\"": 1439,
  "\u2581ti\u0272\u025bn": 1440,
  "\u2581\u00e9p": 1441,
  "\u2581c\u025bn": 1442,
  "\u2581facile": 1443,
  "cti": 1444,
  "\u2581fit": 1445,
  "\u2581d\u00e9j\u00e0": 1446,
  "\u2581rev": 1447,
  "\u2581heures": 1448,
  "\u2581cou": 1449,
  "\u2581question": 1450,
  "tru": 1451,
  "illi": 1452,
  "ves": 1453,
  "\u2581k\u0254se": 1454,
  "\u2581heureux": 1455,
  "\u2581k\u025bm\u025b": 1456,
  "\u2581simple": 1457,
  "\u00e7on": 1458,
  "\u2581ple": 1459,
  "\u2581long": 1460,
  "rendre": 1461,
  "\u258131": 1462,
  "\u2581venu": 1463,
  "s\u025b": 1464,
  "ellement": 1465,
  "\u2581manger": 1466,
  "\u2581cet": 1467,
  "\u2581w\u0254": 1468,
  "\u2581tom": 1469,
  "\u2581kuun": 1470,
  "\u2581morts": 1471,
  "tr": 1472,
  "\u2581confiance": 1473,
  "\u2581bata": 1474,
  "\u2581ob": 1475,
  "\u2581cin": 1476,
  "\u2581pense": 1477,
  "cle": 1478,
  "ps": 1479,
  "\u2581baa": 1480,
  "gin": 1481,
  "\u2581ad": 1482,
  "hun": 1483,
  "\u2581bibu": 1484,
  "\u2581lorsque": 1485,
  ".\u2020": 1486,
  "bolo": 1487,
  "\u2581rend": 1488,
  "\u2581wala": 1489,
  "\u2581ak": 1490,
  "\u2581aba": 1491,
  "\u2581aupr\u00e8s": 1492,
  "he": 1493,
  "\u2581balimaw": 1494,
  "\u2581bou": 1495,
  "xi": 1496,
  "illeurs": 1497,
  "\u2581parle": 1498,
  "\u258133": 1499,
  "\u2581dro": 1500,
  "\u2581entendu": 1501,
  "\u2581prison": 1502,
  "\u2581kulu": 1503,
  "\u2581laj\u025bn": 1504,
  "pendant": 1505,
  "\u2581jean": 1506,
  "hu": 1507,
  "\u2581kara": 1508,
  "\u2581pens": 1509,
  "\u2581sor": 1510,
  "\u2581hai": 1511,
  "r\u025bn": 1512,
  "\u2581he": 1513,
  "\u2581makari": 1514,
  "\u2581mom": 1515,
  "r\u00f4": 1516,
  "m\u0254": 1517,
  "ligi": 1518,
  "tement": 1519,
  "\u2581faan": 1520,
  "\u2581tig\u025b": 1521,
  "ration": 1522,
  "\u2581adamaden": 1523,
  "\u2581seulement": 1524,
  "\u2581soir": 1525,
  "\u2581vient": 1526,
  "\u2581m\u025bl\u025b": 1527,
  "tan": 1528,
  "issance": 1529,
  "\u2581sago": 1530,
  "\u2581bibulu": 1531,
  "age": 1532,
  "p\u00e9": 1533,
  "amaya": 1534,
  "\u2581kanuya": 1535,
  "\u2581quelques": 1536,
  "ront": 1537,
  "ition": 1538,
  "\u2581m\u025bl\u025bk\u025b": 1539,
  "\u2581krisita": 1540,
  "dement": 1541,
  "\u2581lieu": 1542,
  "\u2581diya": 1543,
  "\u2581nafolo": 1544,
  "\u2581mink\u025b": 1545,
  "\u2581m\u025b": 1546,
  "\u2581hak\u025b": 1547,
  "\u2581b\u025bn": 1548,
  "\u2581wasa": 1549,
  "\u2581diff\u00e9": 1550,
  "\u258138": 1551,
  "yant": 1552,
  "\u2581gr\u00e2": 1553,
  "\u2581gloire": 1554,
  "\u2581premier": 1555,
  "ennin": 1556,
  "rifi": 1557,
  "\u2581joona": 1558,
  "\u2581cependant": 1559,
  "\u2581parler": 1560,
  "\u2581*": 1561,
  "iser": 1562,
  "\u2581sama": 1563,
  "\u2581wili": 1564,
  "\u00e9t": 1565,
  "\u2581del": 1566,
  "\u2581pr\u00e9sent": 1567,
  "\u2581ago": 1568,
  "\u2581voici": 1569,
  "\u2581jeune": 1570,
  "n\u00e9es": 1571,
  "\u00e9tern": 1572,
  "\u2581comman": 1573,
  "08": 1574,
  "tig\u025b": 1575,
  "\u2581how": 1576,
  "ch\u00e9": 1577,
  "ham": 1578,
  "\u2581m\u0254": 1579,
  "\u2581hakil": 1580,
  "\u2581jehova": 1581,
  "\u2581minnu": 1582,
  "ern": 1583,
  "\u2581ins": 1584,
  "rire": 1585,
  "\u2581cap": 1586,
  "\u00f9n": 1587,
  "\u2581k\u0254segi": 1588,
  "\u2581derni": 1589,
  "rie": 1590,
  "bra": 1591,
  "\u2581sujet": 1592,
  "ert": 1593,
  "\u258134": 1594,
  "\u00f2g\u00f2n": 1595,
  "dre": 1596,
  "exc": 1597,
  "\u2581corps": 1598,
  "\u2581peuvent": 1599,
  "lom": 1600,
  "\u2581sarakalase": 1601,
  "\u2581t\u0254\u0254": 1602,
  "\u2581c\u0153ur": 1603,
  "\u2581gi": 1604,
  "avons": 1605,
  "\u2581puiss": 1606,
  "issa": 1607,
  "\u2581juifs": 1608,
  "ention": 1609,
  "r\u00e9s": 1610,
  "\u2581sous": 1611,
  "\u2581main": 1612,
  "\u2581\u0272\u025bnamaya": 1613,
  "art": 1614,
  "\u2581tour": 1615,
  "\u2581monta": 1616,
  "\u2581place": 1617,
  "\u2581lad": 1618,
  "\u2581y\u025bn": 1619,
  "\u2581n\u025b": 1620,
  "\u258132": 1621,
  "cont": 1622,
  "\u2581k\u0254m\u0254g\u0254w": 1623,
  "\u0272\u00e8": 1624,
  "ches": 1625,
  "\u2581dont": 1626,
  "\u2581quelque": 1627,
  "\u2581disp": 1628,
  "\u258150": 1629,
  "\u2581commen": 1630,
  "cune": 1631,
  "\u2581rec": 1632,
  "kuma": 1633,
  "\u2581avaient": 1634,
  "ie": 1635,
  "rin": 1636,
  "ieurs": 1637,
  "\u2581dois": 1638,
  "\u2581wolon": 1639,
  "\u2581ge": 1640,
  "\u2581abada": 1641,
  "enez": 1642,
  "d\u00e9e": 1643,
  "\u0254g\u0254w": 1644,
  "\u2581plusieurs": 1645,
  "ites": 1646,
  "\u2581huma": 1647,
  "\u2581mou": 1648,
  "\u2581re\u00e7": 1649,
  "\u2581servit": 1650,
  "\u2581alabat": 1651,
  "\u2581soyez": 1652,
  "\u2581k\u025bwa": 1653,
  "\u2581trouve": 1654,
  "ayi": 1655,
  "\u2581s\u025bb\u025b": 1656,
  "\u2581donner": 1657,
  "\u2581ho": 1658,
  "exp": 1659,
  "\u2581vos": 1660,
  "atre": 1661,
  "bles": 1662,
  "\u2581fani": 1663,
  "\u2581hab": 1664,
  "\u2581juru": 1665,
  "yer": 1666,
  "ilan": 1667,
  "f\u00e9": 1668,
  "\u2581t\u0254w": 1669,
  "\u2581bamuso": 1670,
  "000": 1671,
  "ends": 1672,
  ":4": 1673,
  "\u2581religi": 1674,
  "jou": 1675,
  "\u2581prof": 1676,
  "l\u00e9e": 1677,
  "\u2581\u0272\u00f2g\u00f2n": 1678,
  "\u2581f\u025bn": 1679,
  "\u2581paul": 1680,
  "\u2581n\u0254": 1681,
  "\u258135": 1682,
  "\u2581bapt": 1683,
  "\u2581pourtant": 1684,
  "\u2581y\u00e9": 1685,
  "heure": 1686,
  "dc": 1687,
  "\u2581lara": 1688,
  "\u2581m\u025bnni": 1689,
  "per": 1690,
  "\u2581ici": 1691,
  "\u2581n\u025bn": 1692,
  "raham": 1693,
  "\u2581k\u025b\u0272\u025b": 1694,
  "ron": 1695,
  "nous": 1696,
  "\u2581chaque": 1697,
  "\u2581waasa": 1698,
  "r\u00ea": 1699,
  "\u2581sac": 1700,
  "\u2581dur": 1701,
  "niya": 1702,
  "\u2581kp": 1703,
  "tuma": 1704,
  "\u2581aff": 1705,
  "\u2581vol": 1706,
  "\u2581prendre": 1707,
  "m\u00e9s": 1708,
  "wifu": 1709,
  "sse": 1710,
  "kin": 1711,
  "\u2581inter": 1712,
  "\u2581g\u00e9": 1713,
  "\u2581kam": 1714,
  "\u2581si\u0272\u025b": 1715,
  "\u2581\u0272aga": 1716,
  "\u025bb\u025b": 1717,
  "\u2581akk": 1718,
  "\u2581alabatoso": 1719,
  "\u2581k\u0254l\u0254": 1720,
  "\u2581malo": 1721,
  "\u2581akkdc": 1722,
  "uve": 1723,
  "\u2581desc": 1724,
  "\u2581reste": 1725,
  "\u2581chan": 1726,
  "\u2581france": 1727,
  "\u2581bat": 1728,
  "accomp": 1729,
  "nifi": 1730,
  "\u2581ali": 1731,
  "\u2581moment": 1732,
  "\u2581savoir": 1733,
  "\u2581rapp": 1734,
  "\u2581sini": 1735,
  "cation": 1736,
  "\u2581faites": 1737,
  "dent": 1738,
  "\u2581sour": 1739,
  "\u2581kitabu": 1740,
  "appelle": 1741,
  "\u2581r\u00e9ponse": 1742,
  "\u2581kos\u00f2n": 1743,
  "\u2581\u0254r\u0254": 1744,
  "\u2581yu": 1745,
  "\u2581deli": 1746,
  "\u2581joli": 1747,
  "\u2581d\u00e9cla": 1748,
  "\u2581eut": 1749,
  "\u2581pani": 1750,
  "\u2581fou": 1751,
  "ique": 1752,
  "\u2581quatre": 1753,
  "\u2581resp": 1754,
  "\u2581wuli": 1755,
  "\u2581y\u00e8r\u00e8": 1756,
  "\u2581suite": 1757,
  "\u2581selon": 1758,
  "issez": 1759,
  "\u2581mili": 1760,
  "yan": 1761,
  "\u2581bar": 1762,
  "\u2581cra": 1763,
  "\u2581petit": 1764,
  "\u2581kos\u025bb\u025b": 1765,
  "lise": 1766,
  "\u2581sang": 1767,
  "\u2581teli": 1768,
  "\u2581aim\u00e9": 1769,
  "b\u00e9": 1770,
  "\u2581aucun": 1771,
  "\u00e9ternel": 1772,
  "iya": 1773,
  "aires": 1774,
  "\u2581hakilitigi": 1775,
  "cla": 1776,
  "\u2581loo": 1777,
  "\u2581lumi": 1778,
  "\u2581\u0254r\u0254mu": 1779,
  "\u2581aura": 1780,
  "\u2581faran": 1781,
  "\u2581off": 1782,
  "\u2581sorti": 1783,
  "\u2581esprit": 1784,
  "\u2581\u025b": 1785,
  "\u00eames": 1786,
  "\u2581duni": 1787,
  "\u2581adamadenw": 1788,
  "ions": 1789,
  "\u2581jalaki": 1790,
  "ennent": 1791,
  "pu": 1792,
  "\u2581envie": 1793,
  "\u2581possible": 1794,
  "\u2581again": 1795,
  "\u2581k\u00f2": 1796,
  "bili": 1797,
  "mini": 1798,
  "\u2581kiti": 1799,
  "\u2581temple": 1800,
  "\u00f4r\u00f4": 1801,
  "\u2581exp": 1802,
  "\u2581yiri": 1803,
  "\u2581halaki": 1804,
  "\u2581mas": 1805,
  "\u2581train": 1806,
  "is\u00e9": 1807,
  "\u2581r\u00e9pondit": 1808,
  "ures": 1809,
  "wula": 1810,
  "\u0254\u0254n": 1811,
  "gna": 1812,
  "\u2581souv": 1813,
  ".1": 1814,
  "mbre": 1815,
  "\u2581s\u00f2r\u00f2": 1816,
  "\u2581tanu": 1817,
  "m\u00e9e": 1818,
  "\u0153u": 1819,
  "kolon": 1820,
  "\u2581dix": 1821,
  "\u2581veut": 1822,
  "bres": 1823,
  "\u2581isra": 1824,
  "\u2581gr\u00e2ce": 1825,
  "im": 1826,
  "\u2581fura": 1827,
  "\u2581emp": 1828,
  "\u2581tila": 1829,
  "cep": 1830,
  "ernel": 1831,
  "dugu": 1832,
  "igne": 1833,
  "mon": 1834,
  "\u2581\u0272am": 1835,
  "\u2581ress": 1836,
  "\u2581kelenpe": 1837,
  "\u2581c\u00e8": 1838,
  "\u2581font": 1839,
  "\u2581aucune": 1840,
  "ailleurs": 1841,
  "\u2581k\u00e0": 1842,
  "\u2581kar": 1843,
  "kow": 1844,
  "arch": 1845,
  "\u2581passe": 1846,
  "eternel": 1847,
  "\u2581seront": 1848,
  "euse": 1849,
  "it\u00e9s": 1850,
  "\u2581dariya": 1851,
  "\u2581?\"": 1852,
  "\u2581pouvoir": 1853,
  "suma": 1854,
  "bagat\u0254": 1855,
  "\u2581gw\u025bl\u025bya": 1856,
  "\u2581parents": 1857,
  "20": 1858,
  "\u2581eh": 1859,
  "\u2581amis": 1860,
  "lation": 1861,
  "veil": 1862,
  "\u2581mieux": 1863,
  "\u2581=": 1864,
  "\u2581all": 1865,
  "abord": 1866,
  "\u2581komi": 1867,
  "\u2581aller": 1868,
  "\u2581feu": 1869,
  "\u2581jaa": 1870,
  "gement": 1871,
  "\u2581fer": 1872,
  "\u2581voiture": 1873,
  "\u2581ass": 1874,
  "\u2581bali": 1875,
  "\u2581ru": 1876,
  "\u2581l\u0254nniya": 1877,
  "\u2581lumi\u00e8re": 1878,
  "ss": 1879,
  "\u2581face": 1880,
  "\u2581parmi": 1881,
  "\u2581guerre": 1882,
  "yima": 1883,
  "\u2581joie": 1884,
  "tice": 1885,
  "\u2581ibra": 1886,
  "ec": 1887,
  "\u2581laiss": 1888,
  "\u2581gra": 1889,
  "wo": 1890,
  "\u2581venir": 1891,
  "\u2581\u00e9t": 1892,
  "yons": 1893,
  "\u2581k\u0254l\u0254si": 1894,
  "mps": 1895,
  "\u2581mati": 1896,
  "\u2581porte": 1897,
  "\u2581lorsqu": 1898,
  "\u2581tulo": 1899,
  "\u2581n\u00e9": 1900,
  "manw": 1901,
  "\u2581zuwifu": 1902,
  "occ": 1903,
  "\u2581b\u00f2": 1904,
  "ont\u00e9": 1905,
  "t\u00e9ri": 1906,
  "\u2581pau": 1907,
  "\u2581yeux": 1908,
  "\u2581port": 1909,
  "\u2581tant": 1910,
  "f\u025bnw": 1911,
  "\u2581paroles": 1912,
  "\u2581gal": 1913,
  "\u2581kumana": 1914,
  "\u2581200": 1915,
  "appro": 1916,
  "\u2581kura": 1917,
  "\u2581loin": 1918,
  "\u2581sait": 1919,
  "\u2581trop": 1920,
  "\u2581jija": 1921,
  "\u2581servi": 1922,
  "raient": 1923,
  "\u2581sec": 1924,
  "\u2581fa\u00e7on": 1925,
  "st": 1926,
  "\u2581vis": 1927,
  "riture": 1928,
  "\u2581katu": 1929,
  "\u2581jati": 1930,
  "\u2581fon": 1931,
  "\u2581d\u00f2": 1932,
  "\u2581\u00e9tern": 1933,
  "ele": 1934,
  "\u2581l\u00e9": 1935,
  "accord": 1936,
  "ass": 1937,
  "\u258145": 1938,
  "\u2581juda": 1939,
  "\u2581sol": 1940,
  "\u2581muru": 1941,
  "rec": 1942,
  "hovah": 1943,
  "issent": 1944,
  "utes": 1945,
  "tigiw": 1946,
  "vient": 1947,
  "\u2581belle": 1948,
  "\u2581milli": 1949,
  "\u2581ag": 1950,
  "\u2581d\u00e8s": 1951,
  "enfant": 1952,
  "\u2581sere": 1953,
  "\u2581langue": 1954,
  "v\u00e9e": 1955,
  "\u00e8ne": 1956,
  "gypte": 1957,
  "\u2581mugan": 1958,
  "lais": 1959,
  "\u2581kak": 1960,
  "\u2581>": 1961,
  "user": 1962,
  "\u2581tard": 1963,
  "tique": 1964,
  "\u2581dara": 1965,
  "\u2581aut": 1966,
  "\u2581t\u025bna": 1967,
  "\u2581siginin": 1968,
  "\u2581contin": 1969,
  "\u2581partout": 1970,
  "\u2581at": 1971,
  "\u2581maloya": 1972,
  "\u2581signifi": 1973,
  "\u2581fort": 1974,
  "\u2581sort": 1975,
  "po": 1976,
  "ere": 1977,
  "\u2581demande": 1978,
  "\u2581n\u0254\u0254": 1979,
  "\u2581pierre": 1980,
  "arti": 1981,
  "uses": 1982,
  "\u2581ma\u00eetre": 1983,
  "\u2581\u0272iningali": 1984,
  "\u258142": 1985,
  "k\u025blaw": 1986,
  "\u2581ayiwa": 1987,
  "\u2581banbali": 1988,
  "usufu": 1989,
  "\u2581ibrayima": 1990,
  "uire": 1991,
  "\u2581prin": 1992,
  "\u2581j\u00e9hovah": 1993,
  "\u2581r\u0254": 1994,
  "\u2581luka": 1995,
  "\u2581diffi": 1996,
  "kulu": 1997,
  "\u2581ama": 1998,
  "\u2581sigiy\u0254r\u0254": 1999,
  "\u2581hu": 2000,
  "\u2581proph\u00e8te": 2001,
  "\u258137": 2002,
  "esse": 2003,
  "aff": 2004,
  "qu\u00e9": 2005,
  "moins": 2006,
  "\u2581dogo": 2007,
  "\u2581back": 2008,
  "\u2581lafi": 2009,
  "\u2581prom": 2010,
  "\u2581rais": 2011,
  "\u2581n\u025b\u025b": 2012,
  "\u2581sept": 2013,
  "\u2581juste": 2014,
  "\u2581cent": 2015,
  "\u2581util": 2016,
  "\u2581trans": 2017,
  "d\u025b": 2018,
  "illa": 2019,
  "\u2581lam\u025bn": 2020,
  "v\u00e9s": 2021,
  "\u2581\u0272\u00e8": 2022,
  "\u2581esp": 2023,
  "\u2581faris": 2024,
  "mais": 2025,
  "\u2581pied": 2026,
  "\u2581lun": 2027,
  "\u2581som": 2028,
  "\u2581search": 2029,
  "met": 2030,
  "\u2581dem": 2031,
  "\u2581rendre": 2032,
  "\u2581sourire": 2033,
  "\u2581diff\u00e9rent": 2034,
  "\u2581compr": 2035,
  "\u2581naani": 2036,
  "\u2581certains": 2037,
  "\u2581celle": 2038,
  "\u2581t\u00eate": 2039,
  "\u2581compte": 2040,
  "l\u0254n": 2041,
  "\u2581sema": 2042,
  "\u2581char": 2043,
  "ori": 2044,
  "\u2581n\u0254g\u0254n": 2045,
  "\u2581mettre": 2046,
  "gues": 2047,
  "iles": 2048,
  "\u2581pouvez": 2049,
  "\u2581chef": 2050,
  "els": 2051,
  "\u2581foro": 2052,
  "o\u00f9": 2053,
  "forma": 2054,
  "tal": 2055,
  "g\u00f4": 2056,
  "o\u00fb": 2057,
  "in\u025b": 2058,
  "rise": 2059,
  "\u2581t\u0254n": 2060,
  "\u2581minutes": 2061,
  "gon": 2062,
  "\u2581wun": 2063,
  "\u2581mu\u0272": 2064,
  "\u2581arriv\u00e9": 2065,
  "\u2581nations": 2066,
  "\u00e9v": 2067,
  "\u2581situ": 2068,
  "\u2581tilan": 2069,
  "\u2581r\u00e9al": 2070,
  "ouver": 2071,
  "\u2581chacun": 2072,
  "\u2581wolonwula": 2073,
  "\u2581m\u0254g\u0254ba": 2074,
  "\u2581fant": 2075,
  "\u2581partie": 2076,
  "\u2581y\u025bl\u025bma": 2077,
  "\u2581dumu": 2078,
  "y\u025bri": 2079,
  "\u2581isra\u00ebl": 2080,
  "main": 2081,
  "\u2581gw\u025br\u025b": 2082,
  "ore": 2083,
  "rage": 2084,
  "g\u025bn": 2085,
  "\u258139": 2086,
  "\u2581juguw": 2087,
  "??": 2088,
  "r\u00e9e": 2089,
  "\u2581dor": 2090,
  "\u2581k\u0254f\u025b": 2091,
  "leur": 2092,
  "\u2581nour": 2093,
  "\u2581rencont": 2094,
  "\u2581ann\u00e9e": 2095,
  "\u2581accomp": 2096,
  "\u2581commence": 2097,
  "onna": 2098,
  "quer": 2099,
  "\u2581furent": 2100,
  "ill": 2101,
  "masaba": 2102,
  "baa": 2103,
  "\u2581gb": 2104,
  "\u2581jose": 2105,
  "mm": 2106,
  "\u2581mobili": 2107,
  "\u0254li": 2108,
  "resse": 2109,
  "\u2581vois": 2110,
  "fu\u025b": 2111,
  "laire": 2112,
  "anta": 2113,
  "\u025b\u025br\u025b": 2114,
  "\u2581alabatosoba": 2115,
  "\u2581eli": 2116,
  "bl": 2117,
  "agn": 2118,
  "\u2581kal": 2119,
  "\u2581para": 2120,
  "\u2581trou": 2121,
  "\u2581ving": 2122,
  "\u2581p\u00e9ch\u00e9": 2123,
  "istoire": 2124,
  "\u2581pr\u00e8s": 2125,
  "\u2581tasuma": 2126,
  "\u2581\u0272anagw\u025b": 2127,
  "\u00e8s": 2128,
  "ima": 2129,
  "\u2581ve": 2130,
  "\u2581suf\u025b": 2131,
  "\u2581fran": 2132,
  "\u2581quels": 2133,
  "\u2581joseph": 2134,
  "\u2581jou": 2135,
  "\u2581kongo": 2136,
  "\u2581yusufu": 2137,
  "\u2581hon": 2138,
  "\u2581and": 2139,
  "arrive": 2140,
  "\u2581duuru": 2141,
  "\u2581premi\u00e8re": 2142,
  "\u2581m\u00f9n": 2143,
  "itude": 2144,
  "anan": 2145,
  "foni": 2146,
  "\u2581bati": 2147,
  "\u2581kalanden": 2148,
  "we": 2149,
  "ati": 2150,
  "cin": 2151,
  "anto": 2152,
  "ber": 2153,
  "t\u0254n": 2154,
  "\u2581ao\u00fb": 2155,
  "\u2581enti": 2156,
  "\u2581trouv\u00e9": 2157,
  "\u2581crois": 2158,
  "\u2581eso": 2159,
  "\u2581mise": 2160,
  "law": 2161,
  "\u2581b\u0254y\u0254r\u0254": 2162,
  "\u2581blo": 2163,
  "\u00f2n\u00f2": 2164,
  "guni": 2165,
  "ilila": 2166,
  "\u2581aimez": 2167,
  "\u2581soient": 2168,
  "chi": 2169,
  "isait": 2170,
  "\u00e9l": 2171,
  "\u2581domma": 2172,
  "\u2581dirent": 2173,
  "t\u0254r\u0254": 2174,
  "\u2581sung": 2175,
  "\u2581hi": 2176,
  "\u2581l\u0254g\u0254": 2177,
  "\u00e2ge": 2178,
  "\u2581t\u00f2": 2179,
  "\u2581regar": 2180,
  "\u2581montagne": 2181,
  "\u2581kunb\u025bn": 2182,
  "dul": 2183,
  "endra": 2184,
  "fan": 2185,
  "\u2581xa": 2186,
  "gara": 2187,
  "\u2581ko\u0272uman": 2188,
  "\u2581questions": 2189,
  "\u2581haali": 2190,
  "\u2581ord": 2191,
  "\u2581yaa": 2192,
  "\u2581cinq": 2193,
  "gra": 2194,
  "\u2581boli": 2195,
  "\u2581supp": 2196,
  "\u2581route": 2197,
  "gw": 2198,
  "\u2581b\u025bna": 2199,
  "\u2581kali": 2200,
  "una": 2201,
  "\u2581zuda": 2202,
  "\u0254r\u0254nin": 2203,
  "yen": 2204,
  "\u2581kin": 2205,
  "\u2581\u00e9ternelle": 2206,
  "\u2581haut": 2207,
  "\u2581image": 2208,
  "\u258136": 2209,
  "duit": 2210,
  "sage": 2211,
  "\u2581alu": 2212,
  "\u2581pr\u00e9p": 2213,
  "vement": 2214,
  "\u2581volont\u00e9": 2215,
  "\u2581bol": 2216,
  "\u2581gw\u025b": 2217,
  "\u2581juguya": 2218,
  "\u2581justice": 2219,
  "\u2581mau": 2220,
  "\u2581new": 2221,
  "\u2581quelle": 2222,
  "lah": 2223,
  "\u2581s\u00fb": 2224,
  "\u2581anu": 2225,
  "\u2581voie": 2226,
  "air": 2227,
  "fois": 2228,
  "\u2581\u0272ak\u0254r\u0254": 2229,
  "\u2581vue": 2230,
  "ard": 2231,
  "taw": 2232,
  "kali": 2233,
  "\u2581\u01f9": 2234,
  "\u2581danna": 2235,
  "\u2581mourir": 2236,
  "\u2581propos": 2237,
  "\u2581denmis\u025bn": 2238,
  "temps": 2239,
  "\u2581kurun": 2240,
  "mar": 2241,
  "\u2581sad": 2242,
  "\u2581sarakalasebagaw": 2243,
  "\u2581awa": 2244,
  "\u2581vin": 2245,
  "\u2581mains": 2246,
  "\u2581tilennin": 2247,
  "\u2581:": 2248,
  "jibi": 2249,
  "\u2581..": 2250,
  "\u2581oh": 2251,
  "\u2581s\u0254\u0254": 2252,
  "\u2581quit": 2253,
  "\u00e9li": 2254,
  "\u2581rece": 2255,
  "\u2581matiyo": 2256,
  "\u2581pri\u00e8re": 2257,
  "\u2581div": 2258,
  "\u2581bele": 2259,
  "\u2581serait": 2260,
  "\u2581mani\u00e8re": 2261,
  "\u2581din": 2262,
  "\u2581men": 2263,
  "\u2581s\u025bb\u025bn": 2264,
  "t\u025b": 2265,
  "man\u025b": 2266,
  "emple": 2267,
  "\u2581t\u025bm\u025bna": 2268,
  "\u2581daf": 2269,
  "ada": 2270,
  "bil": 2271,
  "\u00f4g\u00f4": 2272,
  "\u2581za": 2273,
  "ee": 2274,
  "\u2581rapi": 2275,
  "\u2581suma": 2276,
  "ression": 2277,
  "iti\u00e9": 2278,
  "\u2581musow": 2279,
  "\u2581seere": 2280,
  "\u2581ann\u00e9es": 2281,
  "\u2581partir": 2282,
  "\u2581quelles": 2283,
  "sin": 2284,
  "\u2581l\u025b": 2285,
  "\u2581mu\u0272u": 2286,
  "\u2581sifa": 2287,
  "ti\u0272\u025b": 2288,
  "\u2581fla": 2289,
  "\u2581yah": 2290,
  "\u2581n\u0254g\u0254nin": 2291,
  "kuru": 2292,
  "ours": 2293,
  "\u2581nama": 2294,
  "\u2581janto": 2295,
  "\u2581t\u025bman\u025b": 2296,
  "\u2581d\u0254nkili": 2297,
  "\u2581it": 2298,
  "\u2581annon": 2299,
  "\u2581droit": 2300,
  "\u2581filanan": 2301,
  "nes": 2302,
  "ann\u00e9e": 2303,
  "\u0272\u0254": 2304,
  "kuba": 2305,
  "ress": 2306,
  "suite": 2307,
  "ly": 2308,
  "\u2581boo": 2309,
  "\u2581parl\u00e9": 2310,
  "\u2581regard": 2311,
  "\u2581demand\u00e9": 2312,
  "\u258147": 2313,
  "bila": 2314,
  "\u2581m\u0254\u0254": 2315,
  "\u2581cond": 2316,
  "\u2581sacrifi": 2317,
  "\u2581batize": 2318,
  "\u2581longtemps": 2319,
  "\u2581h\u00e9": 2320,
  "asse": 2321,
  "\u2581b\u025b\u025bn": 2322,
  "\u2581trouver": 2323,
  "\u2581ref": 2324,
  "\u2581dali": 2325,
  "jigi": 2326,
  "\u2581fewu": 2327,
  "\u2581ami": 2328,
  "\u2581seule": 2329,
  "\u2581import": 2330,
  "\u2581passer": 2331,
  "\u258141": 2332,
  "\u2581tele": 2333,
  "\u2581boire": 2334,
  "d\u00e8": 2335,
  "\u2581\u00f2": 2336,
  "oman": 2337,
  "\u2581k\u00f2n\u00f2": 2338,
  "m\u00e9di": 2339,
  "\u2581000": 2340,
  "\u2581c\u00f4": 2341,
  "\u2581l\u00e8": 2342,
  "\u2581bla": 2343,
  "\u2581tri": 2344,
  "\u2581nombreuses": 2345,
  "\u2581nya": 2346,
  "\u2581disant": 2347,
  "cit\u00e9": 2348,
  "\u2581siri": 2349,
  ":5": 2350,
  "eff": 2351,
  "unes": 2352,
  "\u2581anges": 2353,
  "\u2581lanin": 2354,
  "\u2581denmis\u025bnw": 2355,
  "aide": 2356,
  "gnes": 2357,
  "\u2581banna": 2358,
  "\u2581pol": 2359,
  "\u2581k\u025bwaliw": 2360,
  ").": 2361,
  "\u2581perdu": 2362,
  "\u2581dimi": 2363,
  "ah": 2364,
  "\u2581\u0300": 2365,
  "\u2581remp": 2366,
  "\u00e9taient": 2367,
  "\u2581d\u025bs\u025b": 2368,
  "\u2581sages": 2369,
  "\u2581kil": 2370,
  "\u2581seko": 2371,
  "\u2581entend": 2372,
  "opp": 2373,
  "tri": 2374,
  "\u2581mbe": 2375,
  "\u2581tag": 2376,
  "\u2581delila": 2377,
  "\u2581j\u025b": 2378,
  "\u2581tes": 2379,
  "\u2581kari": 2380,
  "\u2581mange": 2381,
  "\u2581rester": 2382,
  "mment": 2383,
  "\u2581connu": 2384,
  "\u2581piy\u025bri": 2385,
  "\u2581wilila": 2386,
  "n\u00e8": 2387,
  "isation": 2388,
  "\u2581ensuite": 2389,
  "\u2581d\u0254g\u0254t\u0254r\u0254": 2390,
  "lut": 2391,
  "\u2581voix": 2392,
  "\u2581teriw": 2393,
  "\u2581let": 2394,
  "abraham": 2395,
  "\u2581g\u025br\u025b": 2396,
  "\u2581habit": 2397,
  "\u2581t\u00e9moins": 2398,
  "s\u0254n": 2399,
  "dayi": 2400,
  "\u2581merci": 2401,
  "ses": 2402,
  "\u2581miiriya": 2403,
  "\u2581siga": 2404,
  "dit": 2405,
  "\u2581but": 2406,
  "\u2581cri": 2407,
  "\u2581sanji": 2408,
  "\u2581!\"": 2409,
  "\u2581dj": 2410,
  "ange": 2411,
  "\u2581fun": 2412,
  "\u2581consi": 2413,
  "\u2581p\u025b": 2414,
  "t\u00e9rieur": 2415,
  "cor": 2416,
  "\u2581gafe": 2417,
  "ll": 2418,
  "\u2581six": 2419,
  "\u2581kini": 2420,
  "\u2581re\u00e7u": 2421,
  "\u2581farisogo": 2422,
  "gle": 2423,
  "\u258160": 2424,
  "\u2581sir": 2425,
  "\u2581sta": 2426,
  "\u2581alle": 2427,
  "\u2581k\u0254n\u0254n": 2428,
  "\u2581d\u00e9f": 2429,
  "\u2581d\u00e9t": 2430,
  "\u2581yin": 2431,
  "\u2581contra": 2432,
  "\u2581puissance": 2433,
  "ome": 2434,
  "itre": 2435,
  "\u2581pieds": 2436,
  "\u2581pan": 2437,
  "\u2581commenc\u00e9": 2438,
  "\u0153urs": 2439,
  "\u2581soon": 2440,
  "\u2581kudayi": 2441,
  "\u2581dibi": 2442,
  "\u2581im": 2443,
  "ayez": 2444,
  "\u2581baaraden": 2445,
  ":11": 2446,
  "\u2581pain": 2447,
  "\u2581sens": 2448,
  "\u2581d\u00e9si": 2449,
  "\u2581hakilitigiya": 2450,
  "\u2581pard": 2451,
  "\u2581pr\u00e9c": 2452,
  "\u2581sole": 2453,
  "\u2581conse": 2454,
  "\u2581publi": 2455,
  "\u2581pourrait": 2456,
  "oix": 2457,
  "\u2581wajibi": 2458,
  "ort\u00e9": 2459,
  "\u2581vingt": 2460,
  "5.": 2461,
  "\u2581g\u00e9n\u00e9": 2462,
  "\u2581k\u025bla": 2463,
  "tra": 2464,
  "\u2581cu": 2465,
  "\u2581ceci": 2466,
  "\u2581yanni": 2467,
  "\u2581latig\u025b": 2468,
  "occu": 2469,
  "\u2581aim\u00e9s": 2470,
  "\u2581pr\u00eatres": 2471,
  "y\u0254n": 2472,
  "\u2581s\u0254\u0303": 2473,
  "\u2581suman": 2474,
  "\u00e8rement": 2475,
  "gou": 2476,
  "lis": 2477,
  "off": 2478,
  "\u2581br": 2479,
  "\u2581cru": 2480,
  "\u2581viv": 2481,
  "\u00f4n": 2482,
  "lie": 2483,
  "onn\u00e9": 2484,
  "issement": 2485,
  "\u00e9t\u00e9": 2486,
  "\u2581nih": 2487,
  "\u2581w\u0254\u0254r\u0254": 2488,
  "\u2581rue": 2489,
  "\u2581s\u00e9p": 2490,
  "\u2581kanubaga": 2491,
  "hana": 2492,
  "\u2581end": 2493,
  "allah": 2494,
  "\u2581soleil": 2495,
  "one": 2496,
  "san": 2497,
  "\u2581donn": 2498,
  "\u2581serviteur": 2499,
  "mir": 2500,
  "\u2581retr": 2501,
  "k\u0254r\u0254baw": 2502,
  "\u2581ladili": 2503,
  "\u2581savait": 2504,
  "\u2581sin\u0254g\u0254": 2505,
  "\u2581ap": 2506,
  "\u2581enne": 2507,
  "\u2581lagi": 2508,
  "\u2581mira": 2509,
  "\u2581lab\u025bnnin": 2510,
  "d\u0254": 2511,
  "\u2581halibi": 2512,
  "\u2581cho": 2513,
  "\u2581int": 2514,
  "\u2581may": 2515,
  "\u2581petits": 2516,
  "\u2581continu": 2517,
  "isir": 2518,
  "\u2581gwan": 2519,
  "\u2581m\u00f2g\u00f2w": 2520,
  "inc": 2521,
  "toi": 2522,
  "oupe": 2523,
  "\u2581wee": 2524,
  "kasi": 2525,
  "\u2581sanu": 2526,
  "\u2581katuguni": 2527,
  "\u00e8tes": 2528,
  "\u2581han": 2529,
  "\u2581senu": 2530,
  "\u2581vivre": 2531,
  "ances": 2532,
  "\u2581wula": 2533,
  "\u2581kinibolo": 2534,
  "\u2581kunnafoni": 2535,
  "\u2581r\u00e8": 2536,
  "oivent": 2537,
  "is\u00e9s": 2538,
  "\u2581\u0272anaman": 2539,
  "mina": 2540,
  "\u2581croire": 2541,
  "aie": 2542,
  "bar": 2543,
  "\u00e9glise": 2544,
  "\u2581asse": 2545,
  "\u2581\u0254r\u0254mukaw": 2546,
  "\u2581existe": 2547,
  "aa": 2548,
  "jo": 2549,
  "cles": 2550,
  "\u2581isa": 2551,
  "\u00e9coute": 2552,
  "\u2581nalom": 2553,
  "\u2581faisait": 2554,
  "ant\u00e9": 2555,
  "\u2581mour": 2556,
  "\u2581foule": 2557,
  "\u2581kuntigiw": 2558,
  "\u2581^": 2559,
  "\u2581kis": 2560,
  "\u2581daga": 2561,
  "han": 2562,
  "\u2581har": 2563,
  "\u2581layi": 2564,
  "veille": 2565,
  "\u2581concer": 2566,
  "ais": 2567,
  "enw": 2568,
  "usi": 2569,
  "\u2581r\u00e9jou": 2570,
  "cul": 2571,
  "m\u00eames": 2572,
  "\u2581raison": 2573,
  "sait": 2574,
  "\u2581yakuba": 2575,
  "\u2581signifie": 2576,
  "\u2581r\u00e9gi": 2577,
  "\u2581villes": 2578,
  "\u2581\u0272an": 2579,
  "\u2581dira": 2580,
  "\u2581f\u025bti": 2581,
  "\u2581voya": 2582,
  "m\u00e8n": 2583,
  "ciens": 2584,
  "gence": 2585,
  "\u2581voud": 2586,
  "\u2581serez": 2587,
  "sigi": 2588,
  "lique": 2589,
  "\u2581villa": 2590,
  "\u2581if": 2591,
  "\u2581suuw": 2592,
  "\u2581commandement": 2593,
  "\u258149": 2594,
  "\u2581cla": 2595,
  "\u2581savons": 2596,
  "v\u025bn": 2597,
  "\u258148": 2598,
  "\u2581cul": 2599,
  "\u2581marie": 2600,
  "heur": 2601,
  "\u2581pla\u00eet": 2602,
  "hab": 2603,
  "\u2581\u0153u": 2604,
  "\u2581luc": 2605,
  "ision": 2606,
  "uss": 2607,
  "\u2581yoo": 2608,
  "tis": 2609,
  "\u2581buru": 2610,
  "\u2581t\u00f2\u00f2r\u00f2": 2611,
  "aujourd": 2612,
  ":27": 2613,
  "h\u0254n": 2614,
  "apr\u00e8s": 2615,
  "esp\u00e8re": 2616,
  "\u2581k\u0254ng\u0254": 2617,
  "\u2581sauver": 2618,
  "\u2581sep": 2619,
  "\u2581mille": 2620,
  "\u2581mariage": 2621,
  "\u2581zuwifuw": 2622,
  "\u2581k\u00f2r\u00f2": 2623,
  "chez": 2624,
  "teur": 2625,
  "issait": 2626,
  "\u2581bonya": 2627,
  "\u2581propre": 2628,
  "\u2581fra": 2629,
  "ayiwa": 2630,
  "\u2581er": 2631,
  "\u2581mit": 2632,
  "\u2581g\u025br\u025bf\u025b": 2633,
  "\u2581r\u00e9veil": 2634,
  "50": 2635,
  "aron": 2636,
  "\u2581gw\u025bn": 2637,
  "\u2581m\u00e9de": 2638,
  "\u2581gb\u025b": 2639,
  "\u2581plut": 2640,
  "cob": 2641,
  "\u2581sab": 2642,
  "\u2581tum": 2643,
  "\u2581d\u00e9ci": 2644,
  "\u2581combat": 2645,
  "\u2581meille": 2646,
  "\u2581dernier": 2647,
  "\u2581y\u0254r\u0254nin": 2648,
  "\u258146": 2649,
  "rons": 2650,
  "\u2581jira": 2651,
  "\u2581aider": 2652,
  "\u2581jeunes": 2653,
  "are": 2654,
  "\u2581kaka": 2655,
  "\u2581envers": 2656,
  "lli": 2657,
  "\u2581aa": 2658,
  "ds": 2659,
  "\u2581r\u00e9c": 2660,
  "\u2581jacob": 2661,
  "\u2581procha": 2662,
  "\u2581yeelen": 2663,
  "\u2581isi": 2664,
  "\u2581yee": 2665,
  "\u2581devez": 2666,
  "voir": 2667,
  "\u2581siyaw": 2668,
  "\u2581k\u025bn\u025bya": 2669,
  "mani": 2670,
  "indre": 2671,
  "\u2581maga": 2672,
  "\u2581nombreux": 2673,
  "\u2581proph\u00e8tes": 2674,
  "bana": 2675,
  "\u2581wan": 2676,
  "nement": 2677,
  "\u2581force": 2678,
  "\u2581arrive": 2679,
  "\u2581bange": 2680,
  "\u00e9l\u00e9": 2681,
  "\u2581gen": 2682,
  "\u2581kanb": 2683,
  "\u2581devait": 2684,
  "lenw": 2685,
  "\u2581c\u00f4t\u00e9": 2686,
  "\u00e9gypte": 2687,
  "\u2581lit": 2688,
  "ateur": 2689,
  "\u2581connaissance": 2690,
  "buru": 2691,
  "olom": 2692,
  "util": 2693,
  "\u2581garde": 2694,
  "usa": 2695,
  "baya": 2696,
  "\u2581cool": 2697,
  "\u2581surun": 2698,
  "\u2581jurumu": 2699,
  "\u2581p\u025br\u025bn": 2700,
  "\u2581\u0272ininka": 2701,
  "\u2581dusukasi": 2702,
  "\u2581conna\u00eetre": 2703,
  "tana": 2704,
  "\u2581p\u0254li": 2705,
  "aimerais": 2706,
  "\u2581som\u0254g\u0254w": 2707,
  "\u2581apprendre": 2708,
  "die": 2709,
  "sie": 2710,
  "ouse": 2711,
  "\u2581duv\u025bn": 2712,
  "\u2581libre": 2713,
  "kura": 2714,
  "orter": 2715,
  "\u2581sourit": 2716,
  "\u2581s\u00e8": 2717,
  "\u2581boon": 2718,
  "\u2581waaju": 2719,
  "\u2581exemple": 2720,
  "onner": 2721,
  "bagaya": 2722,
  "baliya": 2723,
  "\u00eatres": 2724,
  "\u258144": 2725,
  "gner": 2726,
  "\u2581mali": 2727,
  "loo": 2728,
  "\u258170": 2729,
  "\u2581chi": 2730,
  "isi\u00e8me": 2731,
  "\u2581serai": 2732,
  "g\u00e9s": 2733,
  "\u2581indi": 2734,
  "h\u00e9": 2735,
  "no": 2736,
  "\u2581\u2022": 2737,
  "\u2581p\u00e9": 2738,
  "oubli": 2739,
  "\u2581denk\u00e8": 2740,
  "\u2581pouvait": 2741,
  "\u2581kunu": 2742,
  "ctions": 2743,
  "\u2581jaabili": 2744,
  "\u25811:": 2745,
  "\u2581kolo": 2746,
  "\u2581mots": 2747,
  "\u2581\u00f4": 2748,
  "sara": 2749,
  "\u2581kuru": 2750,
  "\u2581ciden": 2751,
  "olution": 2752,
  "\u2581plut\u00f4t": 2753,
  "\u2581descend": 2754,
  "roit": 2755,
  "\u2581sent": 2756,
  "\u2581duniya": 2757,
  ":17": 2758,
  "\u2581lah": 2759,
  "\u2581teliya": 2760,
  "\u2581demanda": 2761,
  ":10": 2762,
  "enus": 2763,
  "essa": 2764,
  "\u2581s\u00fbr": 2765,
  "\u2581sran": 2766,
  "\u2581lamini": 2767,
  "\u2581milieu": 2768,
  "\u2581baro": 2769,
  "\u2581lakali": 2770,
  "\u2581troisi\u00e8me": 2771,
  "\u2581\u00e2g\u00e9": 2772,
  "ences": 2773,
  "\u2581kabi": 2774,
  "\u00e9qu": 2775,
  "\u2581sois": 2776,
  "k\u025bn\u025b": 2777,
  "si\u0272\u025b": 2778,
  "\u2581kou": 2779,
  "\u2581caf\u00e9": 2780,
  "\u2581is": 2781,
  "g\u025br\u025b": 2782,
  "alit\u00e9": 2783,
  "\u2581sogo": 2784,
  "\u2581t\u00e9l\u00e9": 2785,
  "\u2581s\u0254nna": 2786,
  "\u2581appel\u00e9": 2787,
  "\u2581bolila": 2788,
  "\u2581sunguru": 2789,
  "\u2581sebagaya": 2790,
  "\u00e9ga": 2791,
  "\u2581\u0272am\u0254g\u0254": 2792,
  "um": 2793,
  "tro": 2794,
  "\u2581mur": 2795,
  "\u2581dusukun": 2796,
  "ende": 2797,
  "\u2581same": 2798,
  "\u2581chefs": 2799,
  "\u2581sagesse": 2800,
  "f\u0254l\u0254": 2801,
  "\u2581bee": 2802,
  "ables": 2803,
  "\u2581bouche": 2804,
  "\u2581disait": 2805,
  "rou": 2806,
  "\u2581b\u00e2": 2807,
  "int\u00e9": 2808,
  "i\u00e8me": 2809,
  "\u2581goo": 2810,
  "\u2581r\u00e9f": 2811,
  "\u2581compris": 2812,
  "il\u00e0": 2813,
  "\u2581ait": 2814,
  "b\u00e8": 2815,
  "baliw": 2816,
  "\u2581revi": 2817,
  "espoir": 2818,
  "\u2581kalans": 2819,
  "\u2581tagama": 2820,
  "\u2581connais": 2821,
  "\u2581nourriture": 2822,
  "uro": 2823,
  "\u2581jeu": 2824,
  "\u2581d\u00e9c\u00e9": 2825,
  "enseigne": 2826,
  "\u2581humains": 2827,
  "iter": 2828,
  "\u2581aww": 2829,
  "\u2581f\u00eate": 2830,
  "\u2581sanni": 2831,
  "\u2581sig\u025bn": 2832,
  "\u2581milliers": 2833,
  "\u2581rapidement": 2834,
  "\u2581meur": 2835,
  "\u2581p\u00e9ch\u00e9s": 2836,
  "\u2581n\u00e0": 2837,
  "\u2581emi": 2838,
  "\u2581pra": 2839,
  "aimer": 2840,
  "\u2581dabila": 2841,
  "\u2581religion": 2842,
  "fri": 2843,
  "k\u0254n": 2844,
  "fara": 2845,
  "rence": 2846,
  "\u2581somme": 2847,
  "\u2581mat": 2848,
  "\u2581misi": 2849,
  "\u2581y\u00f2r\u00f2": 2850,
  "informa": 2851,
  "\u2581pr\u00eatre": 2852,
  "\u2581segira": 2853,
  "\u2581kanbelen": 2854,
  "koo": 2855,
  "\u2581ar\u0254n": 2856,
  "\u2581pauvres": 2857,
  "ree": 2858,
  "utu": 2859,
  "\u2581voulu": 2860,
  "\u2581disaient": 2861,
  "\u2581fru": 2862,
  "juguw": 2863,
  "\u2581phar": 2864,
  "rection": 2865,
  "\u2581recher": 2866,
  "\u2581dani": 2867,
  "\u2581prise": 2868,
  "\u2581essa": 2869,
  "\u2581verse": 2870,
  "\u2581miniti": 2871,
  "\u2581\u0272inina": 2872,
  "\u2581dilan": 2873,
  "\u2581recon": 2874,
  "\u2581mis\u00e9ri": 2875,
  "\u2581conf": 2876,
  "tation": 2877,
  "\u2581ayant": 2878,
  "\u2581t\u00e9moi": 2879,
  "\u2581karam\u0254g\u0254": 2880,
  "\u2581\u0272\u025bf\u0254": 2881,
  "\u2581semaine": 2882,
  "\u2581siranna": 2883,
  "mine": 2884,
  "\u2581year": 2885,
  "\u2581quant": 2886,
  "\u2581doivent": 2887,
  "\u2581m\u0254g\u0254\u0272\u0254g\u0254n": 2888,
  "\u00e9cu": 2889,
  "\u2581been": 2890,
  "\u2581mis\u00e9ricor": 2891,
  "\u2581exc": 2892,
  "\u2581b\u00e9n\u00e9": 2893,
  "\u2581cr\u00e9\u00e9": 2894,
  "\u2581anima": 2895,
  "\u2581col\u00e8re": 2896,
  "\u2581ressus": 2897,
  "\u2581deuxi\u00e8me": 2898,
  "\u2581permet": 2899,
  "\u2581environ": 2900,
  "bes": 2901,
  "appe": 2902,
  "\u2581faaw": 2903,
  "\u2581douze": 2904,
  "dam": 2905,
  "\u2581kaa": 2906,
  "\u2581lou": 2907,
  "\u00e9cess": 2908,
  "\u2581j\u0254\u0254n": 2909,
  "\u2581sani": 2910,
  "\u2581\u00e9cou": 2911,
  "\u2581h\u0254r\u0254n": 2912,
  "y\u0254": 2913,
  "cteur": 2914,
  "\u2581daan": 2915,
  "\u2581vont": 2916,
  "\u2581riche": 2917,
  "\u2581pharisi": 2918,
  "\u2581sc": 2919,
  "chant": 2920,
  "\u2581sanf\u025b": 2921,
  ":18": 2922,
  "agne": 2923,
  "veur": 2924,
  "enait": 2925,
  "\u2581cidenw": 2926,
  "tilennin": 2927,
  "\u2581m\u025bl\u025bk\u025bw": 2928,
  "\u2581popu": 2929,
  "ect": 2930,
  "\u2581hami": 2931,
  "\u2581pass": 2932,
  "\u2581serviteurs": 2933,
  "\u2581tilenninya": 2934,
  "\u2581fera": 2935,
  "\u2581j\u025bni": 2936,
  "\u2581dimanche": 2937,
  "\u2581difficile": 2938,
  "\u2581jon": 2939,
  "\u2581kpa": 2940,
  "\u2581p\u00e9ri": 2941,
  "\u2581reti": 2942,
  "mi\u025bn": 2943,
  "\u2581syn": 2944,
  "\u2581duman": 2945,
  "mie": 2946,
  "ode": 2947,
  "\u2581lol": 2948,
  "y\u0254r\u0254w": 2949,
  "\u2581like": 2950,
  "\u2581sant\u00e9": 2951,
  "excuser": 2952,
  "\u2581f\u0254l\u0254f\u0254l\u0254": 2953,
  "\u2581certaines": 2954,
  "\u2581zo": 2955,
  "\u2581aband": 2956,
  "\u2581seegi": 2957,
  "\u2581devons": 2958,
  "\u2581jigira": 2959,
  "\u2581n\u00e9cess": 2960,
  "\u2581bonheur": 2961,
  "ros": 2962,
  "\u2581inc": 2963,
  "avenir": 2964,
  "\u2581voil\u00e0": 2965,
  "\u2581images": 2966,
  "\u2581jum\u025bnw": 2967,
  "\u2581appris": 2968,
  "\u2581w\u025b": 2969,
  "\u2581s\u0254r\u0254la": 2970,
  "histoire": 2971,
  "\u2581m\u00e9decin": 2972,
  "\u2581demander": 2973,
  "\u014b\u025bl\u025b": 2974,
  "\u2581donn\u00e9e": 2975,
  "\u2581sud": 2976,
  "inqui": 2977,
  "\u2581v\u00eate": 2978,
  "\u2581y\u025bn\u014b\u025bl\u025b": 2979,
  "\u2581s\u0254b\u025b": 2980,
  "ol\u00e9": 2981,
  "honn": 2982,
  "\u2581bas": 2983,
  "\u2581tig": 2984,
  "\u2581parfa": 2985,
  "\u2581langues": 2986,
  "arer": 2987,
  "gine": 2988,
  "\u2581vivant": 2989,
  "\u0300n": 2990,
  "atta": 2991,
  "entrer": 2992,
  "\u2581aurait": 2993,
  "\u2581fantanw": 2994,
  "t\u00e9s": 2995,
  "\u2581kw": 2996,
  "isson": 2997,
  "avaient": 2998,
  "30": 2999,
  "\u2581cours": 3000,
  "\u2581constru": 3001,
  "w\u0254": 3002,
  "\u2581rou": 3003,
  "\u2581faim": 3004,
  "\u2581filles": 3005,
  "\u2581siranya": 3006,
  "ach": 3007,
  "\u2581nig\u025b": 3008,
  "\u2581f\u025btiw": 3009,
  "\u2581consid\u00e9": 3010,
  "dio": 3011,
  "\u258143": 3012,
  "nama": 3013,
  "\u2581di\u0272\u00e8": 3014,
  "\u2581wolom": 3015,
  "alement": 3016,
  "\u2581mauvais": 3017,
  "cole": 3018,
  "\u2581lar": 3019,
  "\u2581l\u00e8ve": 3020,
  "\u2581princip": 3021,
  "lin": 3022,
  "r\u00e9ti": 3023,
  "ordre": 3024,
  "matigi": 3025,
  "\u2581bient": 3026,
  "\u2581senti": 3027,
  "\u2581enseign": 3028,
  "-1": 3029,
  "\u2581\u0254n": 3030,
  "\u2581tch": 3031,
  "\u2581allah": 3032,
  "\u2581saban": 3033,
  "\u2581reconna": 3034,
  "\u2581bala": 3035,
  "truire": 3036,
  "\u2581s\u0153urs": 3037,
  "\u2581pho": 3038,
  "baara": 3039,
  "angile": 3040,
  "\u2581revenir": 3041,
  "\u2581jugement": 3042,
  "\u2581pharisiens": 3043,
  "\u0153il": 3044,
  "bien": 3045,
  "\u2581maa": 3046,
  "sions": 3047,
  "\u2581farati": 3048,
  "\u2581groupe": 3049,
  "mbla": 3050,
  "\u2581prend": 3051,
  "anya": 3052,
  "fari": 3053,
  "urer": 3054,
  "\u2581abi": 3055,
  "\u2581ado": 3056,
  "\u2581site": 3057,
  "\u2581tand": 3058,
  "\u2581warigw\u025b": 3059,
  "\u2581pourrais": 3060,
  "\u2581situation": 3061,
  "\u2581ari": 3062,
  "\u2581\u0272\u025b\u025b": 3063,
  "\u2581adul": 3064,
  "\u2581juga": 3065,
  "\u2581juge": 3066,
  "\u2581grands": 3067,
  "\u2581nation": 3068,
  "\u2581bient\u00f4t": 3069,
  "\u00fbt": 3070,
  "nen": 3071,
  "orts": 3072,
  "\u2581ensemble": 3073,
  "cs": 3074,
  "s\u0254": 3075,
  "\u2581<": 3076,
  "ici": 3077,
  "\u2581far": 3078,
  "antes": 3079,
  "\u2581l\u0254ra": 3080,
  "\u2581nata": 3081,
  "\u2581rois": 3082,
  "\u2581s\u0153ur": 3083,
  "\u2581sinji": 3084,
  "\u2581saints": 3085,
  "\u2581sortir": 3086,
  "\u2581pouvons": 3087,
  "\u2581k\u0254g\u0254": 3088,
  "\u2581matt": 3089,
  "\u2581m\u025b\u025bn": 3090,
  "masac\u025b": 3091,
  "\u2581y\u00e8r\u00e8w": 3092,
  "\u2581unique": 3093,
  "\u2581woro": 3094,
  "\u2581honte": 3095,
  "\u2581sorte": 3096,
  "\u2581tanga": 3097,
  "\u2581droite": 3098,
  "gui": 3099,
  "tez": 3100,
  "\u2581nz": 3101,
  "\u2581bro": 3102,
  "\u2581duni\u0272a": 3103,
  "\u2581k\u0254r\u0254ta": 3104,
  "\u2581mariki": 3105,
  "\u2581\u0272am\u0254g\u0254w": 3106,
  "\u2581tellement": 3107,
  "\u2581&": 3108,
  "\u2581olugu": 3109,
  "\u2581salut": 3110,
  "duction": 3111,
  "\u2581\u00e9tions": 3112,
  "wan": 3113,
  "\u00e7ons": 3114,
  "\u2581nax": 3115,
  "\u2581sugu": 3116,
  "\u2581gw\u025br\u025bla": 3117,
  "\u2581conc": 3118,
  "\u2581b\u0254si": 3119,
  "\u2581aaron": 3120,
  "\u2581allez": 3121,
  "oque": 3122,
  "\u2581cana": 3123,
  "\u2581disc": 3124,
  "\u2581\u00e9tant": 3125,
  "\u2581chr\u00e9ti": 3126,
  "\u2581malade": 3127,
  "\u2581message": 3128,
  "bas": 3129,
  "\u2581delili": 3130,
  "\u2581lafi\u0272\u025b": 3131,
  "\u2581law": 3132,
  "\u2581demeure": 3133,
  "\u2581kununna": 3134,
  "hieu": 3135,
  "\u2581ennemis": 3136,
  "\u2581ang": 3137,
  "\u2581ferai": 3138,
  "nom": 3139,
  "\u2581tel": 3140,
  "\u2581aide": 3141,
  "\u2581ouver": 3142,
  "\u2581petite": 3143,
  "isme": 3144,
  "\u2581\u00e9tran": 3145,
  "\u2581plaisir": 3146,
  "unis": 3147,
  "\u2581layidu": 3148,
  "vel": 3149,
  "\u2581,\"": 3150,
  "\u2581pye": 3151,
  "\u25812012": 3152,
  "\u2581biri": 3153,
  "\u2581kumaw": 3154,
  "\u00e8l\u00e8": 3155,
  "mait": 3156,
  "\u2581ara": 3157,
  "\u2581bad": 3158,
  "\u2581try": 3159,
  "importe": 3160,
  "\u2581setigi": 3161,
  "gers": 3162,
  "\u2581datu": 3163,
  "\u2581safe": 3164,
  "biri": 3165,
  "\u2581pr\u00eat": 3166,
  "gage": 3167,
  "\u2581actes": 3168,
  "\u2581entendre": 3169,
  "\u2581vit": 3170,
  "aider": 3171,
  "issons": 3172,
  "bagat\u0254w": 3173,
  "\u2581k\u025bl\u025bdenw": 3174,
  "\u2581prochain": 3175,
  "\u2581voudrais": 3176,
  "...]": 3177,
  "\u2581si\u00e8": 3178,
  "urit\u00e9": 3179,
  "\u2581kaam": 3180,
  "\u2581abraham": 3181,
  "\u2581liv": 3182,
  ".....": 3183,
  "\u2581sauv\u00e9": 3184,
  "\u2581yaala": 3185,
  "\u2581kabakuru": 3186,
  "chent": 3187,
  "\u2581arti": 3188,
  "\u2581sabanan": 3189,
  "\u2581/": 3190,
  "g\u00e9e": 3191,
  "loi": 3192,
  "riez": 3193,
  "\u2581fid\u00e8": 3194,
  "\u2581\u0272af\u025b": 3195,
  "\u00e9rance": 3196,
  "accompl": 3197,
  "\u2581kanubagaw": 3198,
  "dis": 3199,
  "\u2581int\u00e9": 3200,
  "egypte": 3201,
  "\u2581yeo": 3202,
  "\u2581yii": 3203,
  "\u2581yeli": 3204,
  "zare": 3205,
  "\u2581por": 3206,
  "\u2581crai": 3207,
  "c\u025b\u025b": 3208,
  "ene": 3209,
  "\u2581k\u00e8ra": 3210,
  "\u2581m\u025bnna": 3211,
  "\u2581dormir": 3212,
  "\u2581travers": 3213,
  "\u2581duba": 3214,
  "\u2581leva": 3215,
  "\u2581condam": 3216,
  "\u2581\u0272anmi\u025bn": 3217,
  "\u2581matthieu": 3218,
  "\u2581contraire": 3219,
  "bun": 3220,
  "eni": 3221,
  "inya": 3222,
  "y\u025br\u025b": 3223,
  "\u2581zoo": 3224,
  "\u2581all\u00e9": 3225,
  "\u2581pres": 3226,
  "\u2581tugunni": 3227,
  "\u2581taamasi\u0272\u025b": 3228,
  "gie": 3229,
  "oru": 3230,
  "\u2581ohun": 3231,
  "\u2581prie": 3232,
  "\u2581kaburu": 3233,
  "\u2581denbaya": 3234,
  "by": 3235,
  "vu": 3236,
  "\u2581woo": 3237,
  "\u2581samedi": 3238,
  "lligence": 3239,
  "\u2581$": 3240,
  "t\u00e9e": 3241,
  "\u2581!!!": 3242,
  "\u25811:2": 3243,
  "\u2581lak\u0254": 3244,
  "\u2581assis": 3245,
  "\u2581autant": 3246,
  "\u2581humain": 3247,
  "\u2581combien": 3248,
  "\u2581service": 3249,
  "\u2581r\u00e9pondre": 3250,
  "\u00e8nw": 3251,
  "rier": 3252,
  "tent": 3253,
  "\u2581balo": 3254,
  "\u2581sutana": 3255,
  "l\u00e9s": 3256,
  "vit\u00e9": 3257,
  "\u2581jin": 3258,
  "\u2581pen": 3259,
  "tenir": 3260,
  "\u2581sari": 3261,
  "\u2581m\u00eames": 3262,
  "\u2581lettre": 3263,
  "\u2581d\u00f4": 3264,
  "\u2581timo": 3265,
  "\u2581k\u0254niya": 3266,
  "\u2581village": 3267,
  "mbres": 3268,
  "minin": 3269,
  "\u2581oubli": 3270,
  "\u2581comprendre": 3271,
  "tie": 3272,
  "dire": 3273,
  "\u2581damin\u00e8": 3274,
  "cou": 3275,
  "\u00e9pre": 3276,
  "sisan": 3277,
  "\u2581tris": 3278,
  "\u2581poser": 3279,
  "\u2581repr\u00e9s": 3280,
  ":)": 3281,
  "f\u00e8": 3282,
  "ito": 3283,
  "lons": 3284,
  "\u2581tent": 3285,
  "\u2581escla": 3286,
  "\u2581particu": 3287,
  "\u2581naissance": 3288,
  "os\u00e9": 3289,
  "uie": 3290,
  "\u2581m\u0254n": 3291,
  "\u2581pous": 3292,
  "\u2581l\u0254nin": 3293,
  ":13": 3294,
  "\u2581zi": 3295,
  "\u2581asi": 3296,
  "\u2581dest": 3297,
  "antage": 3298,
  "\u2581fi\u0272\u025bn": 3299,
  "\u2581mariya": 3300,
  "\u2581dafanin": 3301,
  "\u2581\u0144": 3302,
  "boo": 3303,
  "tel": 3304,
  "\u2581\u00e9le": 3305,
  "\u2581m\u00e9ch": 3306,
  "issant": 3307,
  "\u2581voyez": 3308,
  "\u2581autour": 3309,
  "\u2581wolomanin": 3310,
  "anci": 3311,
  "siran": 3312,
  "\u2581bout": 3313,
  "\u2581enseigne": 3314,
  "gn\u00e9": 3315,
  "\u2581k\u0251": 3316,
  "\u2581kid": 3317,
  "appel": 3318,
  "image": 3319,
  "\u2581niin": 3320,
  "\u2581aimer": 3321,
  "\u2581assez": 3322,
  "\u2581fanan": 3323,
  "\u2581r\u00e8gne": 3324,
  "\u2581galile": 3325,
  "\u2581imm\u00e9di": 3326,
  "\u2581kibaro": 3327,
  "\u2581mot": 3328,
  "glise": 3329,
  "\u2581naan": 3330,
  "\u2581d\u00e9clar\u00e9": 3331,
  "urrection": 3332,
  "yst": 3333,
  "\u2581--": 3334,
  "\u2581nba": 3335,
  "\u2581st": 3336,
  "dess": 3337,
  "\u2581four": 3338,
  "\u2581trent": 3339,
  "\u2581mesure": 3340,
  "\u2581samari": 3341,
  "\u2581sigira": 3342,
  "\u2581j\u025bnkulu": 3343,
  "\u2581k\u0254segira": 3344,
  ":6": 3345,
  "\u2581t\u00e9n\u00e8": 3346,
  "\u2581convient": 3347,
  ":16": 3348,
  "\u2581fle": 3349,
  "\u2581leo": 3350,
  "\u2581diin": 3351,
  "\u2581maana": 3352,
  "\u2581cr\u00e9ation": 3353,
  "\u2581t\u00e9n\u00e8bres": 3354,
  "enseignement": 3355,
  "\u2581b\u0251": 3356,
  "\u2581f\u00f4": 3357,
  "\u2581sanin": 3358,
  "l\u00f2": 3359,
  "yu": 3360,
  "\u2581entier": 3361,
  "\u2581kumakan": 3362,
  "dan": 3363,
  "vie": 3364,
  "aband": 3365,
  "\u2581baden": 3366,
  "\u2581majigi": 3367,
  "\u2581ouv": 3368,
  "\u2581sis": 3369,
  "bl\u00e8me": 3370,
  "oient": 3371,
  "\u2581dije": 3372,
  "\u2581kerec": 3373,
  "\u2581probl\u00e8me": 3374,
  "\u2581glo": 3375,
  "\u2581free": 3376,
  "tiques": 3377,
  "\u2581[...]": 3378,
  "itement": 3379,
  "\u2581laisse": 3380,
  "\u2581savais": 3381,
  "\u2581anciens": 3382,
  "\u2581dannaya": 3383,
  "\u2581faisons": 3384,
  "\u2581m\u0254g\u0254tilennin": 3385,
  "mons": 3386,
  "\u2581nak": 3387,
  "\u2581fil\u00e8": 3388,
  "\u2581kafe": 3389,
  "\u2581taba": 3390,
  "\u2581jumanw": 3391,
  "\u2581198": 3392,
  "\u2581devenu": 3393,
  "\u2581r\u00e9surrection": 3394,
  "este": 3395,
  "\u2581jun": 3396,
  "\u2581vas": 3397,
  "\u2581galil": 3398,
  "\u2581bataki": 3399,
  "\u2581commun": 3400,
  "\u2581appel\u00e9s": 3401,
  "\u2581voulait": 3402,
  "\u2581attention": 3403,
  "\u2581commencement": 3404,
  "bon": 3405,
  "lez": 3406,
  "nago": 3407,
  "\u2581miis": 3408,
  "\u2581synago": 3409,
  "\u2581farikolo": 3410,
  "kis": 3411,
  "p\u00e9ci": 3412,
  "\u2581tex": 3413,
  "\u2581\u0272in\u025b": 3414,
  "\u2581jigin": 3415,
  ":14": 3416,
  "raw": 3417,
  "\u2581ii": 3418,
  "teau": 3419,
  "y\u025bl\u025b": 3420,
  "\u2581arr\u00ea": 3421,
  "\u2581camp": 3422,
  "\u2581plan": 3423,
  "\u2581post": 3424,
  "quelle": 3425,
  "\u2581r\u00e9sul": 3426,
  "\u2581sp\u00e9ci": 3427,
  "\u2581viens": 3428,
  "\u2581fi\u0272\u025bnt\u0254": 3429,
  "\u2581m\u00e8n": 3430,
  "\u2581you": 3431,
  "\u2581chev": 3432,
  "\u2581entra": 3433,
  "\u2581manif": 3434,
  "\u2581piti\u00e9": 3435,
  "\u2581k\u0254n\u0254na": 3436,
  "\u2581baptis\u00e9s": 3437,
  "\u2581(2": 3438,
  "\u2581fal": 3439,
  "\u2581bois": 3440,
  "\u2581good": 3441,
  "\u2581p\u00e8res": 3442,
  "\u2581pouvais": 3443,
  "us\u00e9": 3444,
  "arr\u00ea": 3445,
  "accue": 3446,
  "\u2581nzila": 3447,
  "\u2581pardon": 3448,
  "\u2581sim": 3449,
  "\u2581lana": 3450,
  "\u2581souvent": 3451,
  "\u2581choix": 3452,
  "\u2581laquelle": 3453,
  "c\u00e9e": 3454,
  "ret": 3455,
  "\u2581blan": 3456,
  "\u2581dabi": 3457,
  "\u2581kale": 3458,
  "\u2581chant": 3459,
  "\u2581toutefois": 3460,
  "op": 3461,
  "\u2581bus": 3462,
  "\u2581jes": 3463,
  "\u2581kaf": 3464,
  "\u2581demain": 3465,
  "\u2581membres": 3466,
  "\u2581waajuli": 3467,
  "\u2581habitants": 3468,
  "9.": 3469,
  "dy": 3470,
  "\u2581\u00e9tu": 3471,
  "\u2581baji": 3472,
  "\u2581mila": 3473,
  "\u2581suivant": 3474,
  "m\u00e8": 3475,
  "\u2581age": 3476,
  "adore": 3477,
  "yanin": 3478,
  "\u2581week": 3479,
  "\u2581satan": 3480,
  "\u2581marche": 3481,
  "\">": 3482,
  "d\u025bn": 3483,
  "\u2581=\"": 3484,
  "\u2581imm\u00e9dia": 3485,
  "hali": 3486,
  "\u2581tu\u00e9": 3487,
  "teurs": 3488,
  "\u2581maan": 3489,
  "\u2581r\u00e9v\u00e9": 3490,
  "\u2581tere": 3491,
  "\u0272\u0254g\u0254nw": 3492,
  "umanbolo": 3493,
  "int\u00e9rieur": 3494,
  "\u2581kongokolon": 3495,
  "\u2581ek": 3496,
  "cent": 3497,
  "\u00e9cole": 3498,
  "univers": 3499,
  "\u2581t\u025bm\u025bnin": 3500,
  "\u2581r\u00e9veille": 3501,
  "ral": 3502,
  "\u2581stu": 3503,
  "\u25812017": 3504,
  "\u2581prit": 3505,
  "\u2581chair": 3506,
  "\u2581rest\u00e9": 3507,
  "\u2581\u02bb": 3508,
  "\u00e9p\u00e9e": 3509,
  "\u25819:27": 3510,
  "\u2581nili": 3511,
  "\u2581prix": 3512,
  "\u2581prends": 3513,
  "\u2581v\u00eatements": 3514,
  "\u2581d\u00e9li": 3515,
  "\u2581murujan": 3516,
  "\u2581fonction": 3517,
  "\u2581t\u00e9moigna": 3518,
  "\u2581nouvelles": 3519,
  "\u2581connaissent": 3520,
  "jus": 3521,
  "enue": 3522,
  "\u2581eas": 3523,
  "\u2581demand": 3524,
  "\u2581particuli": 3525,
  "kara": 3526,
  "\u2581bhi": 3527,
  "ussit": 3528,
  "itions": 3529,
  "\u2581d\u00e9sert": 3530,
  "\u2581miiska": 3531,
  "unu": 3532,
  "\u2581n\u025b\u025bma": 3533,
  "\u2581lookin": 3534,
  "\u2581voulez": 3535,
  "\u2581laissez": 3536,
  "xe": 3537,
  "how": 3538,
  "l\u025bn": 3539,
  "\u2581aka": 3540,
  "\u2581bord": 3541,
  "\u2581diri": 3542,
  "\u2581nord": 3543,
  "\u2581galon": 3544,
  "\u2581parta": 3545,
  "j\u0254n": 3546,
  "ria": 3547,
  "waati": 3548,
  "\u2581prier": 3549,
  "\u2581nature": 3550,
  "\u2581yera": 3551,
  "conque": 3552,
  "\u2581preuve": 3553,
  "\u2581rencontre": 3554,
  "ch\u00e9e": 3555,
  "r\u00e9ci": 3556,
  "\u2581fau": 3557,
  "\u2581last": 3558,
  "\u2581respec": 3559,
  "ur\u00e9": 3560,
  "\u2581roma": 3561,
  "mation": 3562,
  "honneur": 3563,
  "\u2581r\u00e9gion": 3564,
  "\u25817.": 3565,
  "\u2581bru": 3566,
  "\u2581dav": 3567,
  "\u2581lim": 3568,
  "aleur": 3569,
  "aurais": 3570,
  "\u2581amour": 3571,
  "\u2581miiran": 3572,
  "yana": 3573,
  "\u2581grec": 3574,
  "\u2581k\u0254r\u0254b\u0254": 3575,
  "\u2581produit": 3576,
  "impression": 3577,
  "p\u00e8re": 3578,
  "\u2581m\u0254\u0300": 3579,
  "\u2581tau": 3580,
  "\u2581familles": 3581,
  "ap": 3582,
  "cal": 3583,
  "\u2581sil": 3584,
  "\u2581tol": 3585,
  "tanin": 3586,
  "\u2581b\u0254n\u025b": 3587,
  "\u2581faso": 3588,
  "\u2581fond": 3589,
  "\u2581vid\u00e9": 3590,
  "\u2581tombe": 3591,
  "\u2581proche": 3592,
  "\u2581travailler": 3593,
  "\u2581gard": 3594,
  "velopp": 3595,
  "\u00e9preuve": 3596,
  "\u2581r\u00e9sulta": 3597,
  "pour": 3598,
  "siens": 3599,
  "\u2581septe": 3600,
  "\u2581pensez": 3601,
  "\u2581num\u00e9": 3602,
  "\u2581rome": 3603,
  "\u2581soci": 3604,
  "\u2581soow": 3605,
  "\u2581yeah": 3606,
  "ann\u00e9es": 3607,
  "\u2581kiris": 3608,
  "\u2581s\u025bg\u025br\u025b": 3609,
  "\u2581k\u0254r\u0254tanin": 3610,
  "\u2581#": 3611,
  "\u2581c\u00e9": 3612,
  "\u2581\u014ba": 3613,
  "quel": 3614,
  "r\u00eate": 3615,
  "\u2581pi\u00e8": 3616,
  "\u2581ninnu": 3617,
  "\u2581verre": 3618,
  "up": 3619,
  "enya": 3620,
  "\u2581am\u00e9": 3621,
  "\u2581tin": 3622,
  "\u2581easy": 3623,
  "\u2581kasa": 3624,
  "enfants": 3625,
  "\u2581k\u025bcogo": 3626,
  "\u2581lak\u0254li": 3627,
  "\u2581reconn": 3628,
  "\u2581imm\u00e9diatement": 3629,
  "lai": 3630,
  "crit": 3631,
  "\u2581bre": 3632,
  "\u2581pauvre": 3633,
  "\u2581trente": 3634,
  "\u2581arriver": 3635,
  "\u2581viendra": 3636,
  "\u2581utiliser": 3637,
  "\u2581septembre": 3638,
  "?\u203a": 3639,
  "daf\u025b": 3640,
  "\u2581iru": 3641,
  "\u2581occ": 3642,
  "\u2581suff": 3643,
  "\u2581d\u00e9tru": 3644,
  "\u2581sauve": 3645,
  "origine": 3646,
  "\u2581recherche": 3647,
  "bee": 3648,
  "\u2581id": 3649,
  "vier": 3650,
  "\u2581tii": 3651,
  "\u2581coeur": 3652,
  "\u2581rendu": 3653,
  "\u2581davantage": 3654,
  "jama": 3655,
  "\u2581blog": 3656,
  "\u2581lala": 3657,
  "\u2581peine": 3658,
  "lir": 3659,
  "ung": 3660,
  "\u2581nk": 3661,
  "tama": 3662,
  "\u2581taw": 3663,
  "\u2581val": 3664,
  "conde": 3665,
  "cture": 3666,
  "orit\u00e9": 3667,
  "\u2581fuun": 3668,
  "\u2581niy\u0254r\u0254": 3669,
  "\u2581r\u00e9pondu": 3670,
  "ari": 3671,
  "\u2581cir": 3672,
  "arm\u00e9e": 3673,
  "\u2581marc": 3674,
  "\u2581signe": 3675,
  "\u2581disent": 3676,
  "\u2581simplement": 3677,
  "nie": 3678,
  "t\u0254nin": 3679,
  "\u2581forme": 3680,
  "\u2581yirali": 3681,
  "\u2581croient": 3682,
  "\u2581seconde": 3683,
  "\u2581k\u0254r\u0254t\u0254nin": 3684,
  "siw": 3685,
  "\u2581ty": 3686,
  "soci": 3687,
  "endez": 3688,
  "tient": 3689,
  "\u2581bles": 3690,
  "\u2581lire": 3691,
  "\u2581appar": 3692,
  "\u2581durant": 3693,
  "\u2581maladie": 3694,
  "ii": 3695,
  "x\u0254": 3696,
  "\u25816.": 3697,
  "\u2581luu": 3698,
  "\u2581adam": 3699,
  "\u2581biin": 3700,
  "\u2581daal": 3701,
  "\u2581c\u025bman": 3702,
  "\u2581riches": 3703,
  "gus": 3704,
  "\u25812\"": 3705,
  "\u00f4tre": 3706,
  "\u2581kya": 3707,
  "\u2581sam": 3708,
  "adama": 3709,
  "\u2581cara": 3710,
  "\u2581\u00eatres": 3711,
  "ussit\u00f4t": 3712,
  "\u2581sarakalasebaga": 3713,
  "10": 3714,
  "g\u025bnw": 3715,
  "l\u00e8ve": 3716,
  "\u2581cal": 3717,
  "erres": 3718,
  "\u2581kwla": 3719,
  "\u2581tenir": 3720,
  "\u2581kalifa": 3721,
  "\u2581\u0272umanya": 3722,
  "ero": 3723,
  "foro": 3724,
  "\u2581k\u0254\u0254": 3725,
  "\u2581zoova": 3726,
  "\u2581bonnes": 3727,
  "\u2581aussit\u00f4t": 3728,
  "\u2581mariyamu": 3729,
  "xt": 3730,
  "uya": 3731,
  "faga": 3732,
  "\u2581aye": 3733,
  "\u2581jard": 3734,
  "\u2581lati": 3735,
  "\u2581size": 3736,
  "\u2581r\u00e9fl\u00e9": 3737,
  "appelait": 3738,
  "\u2581animaux": 3739,
  "\u2581pri\u00e8res": 3740,
  "\u2581laj\u025bnnin": 3741,
  "1.": 3742,
  "\u2581las": 3743,
  "escla": 3744,
  "\u2581tr\u00e9s": 3745,
  "\u2581yigi": 3746,
  "\u2581mang\u00e9": 3747,
  "\u2581barikaman": 3748,
  "envo": 3749,
  "m\u00f2g\u00f2": 3750,
  "\u2581ori": 3751,
  "\u2581veo": 3752,
  "rable": 3753,
  "laient": 3754,
  "\u2581salom": 3755,
  "\u2581kalansen": 3756,
  "\u2581damin\u025btuma": 3757,
  "lus": 3758,
  "\u2581naga": 3759,
  "\u2581yeri": 3760,
  "\u2581foroba": 3761,
  "intelligence": 3762,
  "vis": 3763,
  "\u2581hala": 3764,
  "\u2581tuun": 3765,
  "\u2581n\u0254\u0254r\u0254": 3766,
  "\u2581tala": 3767,
  "excuse": 3768,
  "\u2581accue": 3769,
  "\u2581souvi": 3770,
  "\u2581celles": 3771,
  "\u2581crainte": 3772,
  "n\u00e9s": 3773,
  "\u2581\u00e2me": 3774,
  "mbl\u00e9e": 3775,
  "onn\u00e9s": 3776,
  "\u2581noon": 3777,
  "\u2581jugak": 3778,
  "\u2581consul": 3779,
  "\u2581kojuguba": 3780,
  "\u2581cre": 3781,
  "\u2581nee": 3782,
  "\u2581croy": 3783,
  "\u2581maman": 3784,
  "\u2581sun\u0254g\u0254": 3785,
  "\u2581kantigi": 3786,
  "\u2581chercher": 3787,
  "\u2581mul": 3788,
  "\u2581y\u025b\u025b": 3789,
  "\u2581appr": 3790,
  "\u2581t\u025br\u025b": 3791,
  "\u2581duguw": 3792,
  "\u2581nahana": 3793,
  "\u2581sembla": 3794,
  "\u2581namatama": 3795,
  "\u0272i": 3796,
  "y\u025bn": 3797,
  "\u00e9cou": 3798,
  "\u2581fur": 3799,
  "\u2581mai": 3800,
  "\u2581d\u00e9ce": 3801,
  "\u2581frapp": 3802,
  "\u2581laiss\u00e9": 3803,
  "\u2581galil\u00e9e": 3804,
  "\u2581particip": 3805,
  "\u2581kabakoyara": 3806,
  "\u0251\u0303": 3807,
  "\u2581<3": 3808,
  "...\"": 3809,
  "rain": 3810,
  "\u2581dja": 3811,
  "\u2581laba": 3812,
  "\u2581invit": 3813,
  "\u2581karan": 3814,
  "\u2581commande": 3815,
  "\u2581important": 3816,
  "!!!": 3817,
  "lati": 3818,
  "\u2581ladi": 3819,
  "\u2581tunu": 3820,
  "\u2581salomon": 3821,
  "\u2581s\u1ecd": 3822,
  "\u2581lee": 3823,
  "\u2581wow": 3824,
  "ganin": 3825,
  "kohun": 3826,
  "\u2581rasse": 3827,
  "\u2581k\u0254r\u0254c\u025b": 3828,
  "\u2581efforts": 3829,
  "\u2581kunbiri": 3830,
  "\u2581romains": 3831,
  "\u2581recevoir": 3832,
  "\u2581ohunkohun": 3833,
  ":7": 3834,
  "\u2581bin": 3835,
  "\u2581erre": 3836,
  "\u2581gent": 3837,
  "\u2581allait": 3838,
  "numanbolo": 3839,
  ":23": 3840,
  "\u0254bu": 3841,
  "bugu": 3842,
  "rant": 3843,
  "\u2581lis": 3844,
  "\u2581spi": 3845,
  "itig\u025b": 3846,
  "omani": 3847,
  "\u2581anti": 3848,
  "\u2581bina": 3849,
  "dessus": 3850,
  "\u2581bolola": 3851,
  "\u2581diff\u00e9rentes": 3852,
  "can": 3853,
  "isiw": 3854,
  "\u2581accep": 3855,
  "mba": 3856,
  "ssi": 3857,
  "ilit\u00e9": 3858,
  "\u2581ange": 3859,
  "\u2581next": 3860,
  "cience": 3861,
  "\u2581firent": 3862,
  "\u2581k\u025bn\u025byara": 3863,
  "\u00e9tu": 3864,
  "\u2581kn": 3865,
  "zi\u0272\u025b": 3866,
  "\u2581fai": 3867,
  "\u2581nul": 3868,
  "\u2581baby": 3869,
  "\u2581caya": 3870,
  "\u2581m\u00e9di": 3871,
  "\u2581\u00e9tats": 3872,
  "\u2581kanaan": 3873,
  "\u2581mankan": 3874,
  "\u2581projet": 3875,
  "\u2581tandis": 3876,
  "\u2581manifest": 3877,
  "\u2581y\u025br\u025by\u025br\u025b": 3878,
  "ab\u0254": 3879,
  "\u2581bw": 3880,
  "\u2581eg": 3881,
  "\u2581f\u00e8n": 3882,
  "\u2581gus": 3883,
  "\u2581laj\u025b": 3884,
  "rement": 3885,
  "\u2581suivi": 3886,
  "\u2581conseils": 3887,
  "\u2581mil": 3888,
  "illet": 3889,
  "\u2581lade": 3890,
  "\u2581s\u0254\u0303\u0254": 3891,
  "\u2581pr\u00e9si": 3892,
  "\u2581meilleur": 3893,
  "\u2581semaines": 3894,
  "eri": 3895,
  "\u2581\u00e9ch": 3896,
  "ansan": 3897,
  "inement": 3898,
  "\u2581lama": 3899,
  "\u2581maka": 3900,
  "\u2581sooo": 3901,
  "\u2581morte": 3902,
  "\u2581pours": 3903,
  "\u2581remar": 3904,
  "\u2581penser": 3905,
  "esp\u00e9rance": 3906,
  "\u2581m\u0254g\u0254baba": 3907,
  "del": 3908,
  "lant": 3909,
  "ritu": 3910,
  "yasi": 3911,
  "\u2581jig": 3912,
  "\u2581sub": 3913,
  "asion": 3914,
  "human": 3915,
  "\u2581pila": 3916,
  "mme": 3917,
  "\u2581oo": 3918,
  "\u2581br\u00fb": 3919,
  "\u2581gun": 3920,
  "\u2581prob": 3921,
  "\u2581looru": 3922,
  "sankolo": 3923,
  "\u2581permis": 3924,
  "\u2581cons\u00e9qu": 3925,
  "\u2581of": 3926,
  "\u2581r\u00ea": 3927,
  "\u2581cii": 3928,
  "\u2581baba": 3929,
  "\u2581k\u0254nna": 3930,
  "\u2581manque": 3931,
  "\u2581y\u025bl\u025bla": 3932,
  "\u2581sommeil": 3933,
  "\u25811-": 3934,
  "\u00e9qui": 3935,
  "\u2581appelle": 3936,
  "\u2581respons": 3937,
  "\u2581kititig\u025b": 3938,
  "\u2581souvenez": 3939,
  "rs": 3940,
  "\u2581@": 3941,
  "men": 3942,
  "sig": 3943,
  "kaba": 3944,
  "tifi": 3945,
  "\u2581boy": 3946,
  "\u2581ef\u025b": 3947,
  "\u2581\u00e0yi": 3948,
  "amuse": 3949,
  "\u00f4tres": 3950,
  "\u25812004": 3951,
  "\u2581bugu": 3952,
  "\u2581sein": 3953,
  "\u2581vide": 3954,
  "\u2581donda": 3955,
  "\u2581souri": 3956,
  "\u2581d\u0254g\u0254c\u025b": 3957,
  "\u2581prenez": 3958,
  "\u2581tilenn": 3959,
  "\u2581wolola": 3960,
  "\u2581yahutu": 3961,
  "\u2581\u0272\u025bnab\u0254": 3962,
  "\u2581devenir": 3963,
  "rit\u00e9": 3964,
  "\u2581\u00e9l\u00e9": 3965,
  "quent": 3966,
  "\u2581succ": 3967,
  "\u2581kiraw": 3968,
  "\u2581isra\u00e9l": 3969,
  "\u2581\u00e9coute": 3970,
  "\u2581trouvait": 3971,
  "run": 3972,
  "dait": 3973,
  "\u2581fix": 3974,
  "\u2581jos": 3975,
  "\u2581d\u00e9clare": 3976,
  "\u2581poursui": 3977,
  "\u2581finalement": 3978,
  ".2": 3979,
  ";)": 3980,
  "\u2581p\u00e2": 3981,
  "difi": 3982,
  "jana": 3983,
  "\u2581nor": 3984,
  "duits": 3985,
  "\u2581film": 3986,
  "\u2581phil": 3987,
  "\u2581tuer": 3988,
  "eglise": 3989,
  "\u00e9rience": 3990,
  "\u2581n\u0254g\u0254ya": 3991,
  "tit": 3992,
  "\u2581big": 3993,
  "\u2581mag": 3994,
  "\u00e9gard": 3995,
  "\u2581vite": 3996,
  "\u2581dites": 3997,
  "\u2581\u0272afan": 3998,
  "\u2581puisse": 3999,
  "\u2581saniya": 4000,
  "\u2581second": 4001,
  "\u00e8de": 4002,
  "\u2581sh": 4003,
  "esti": 4004,
  "\u00e9rie": 4005,
  "\u2581195": 4006,
  "\u2581kii": 4007,
  "\u2581bons": 4008,
  "\u2581chap": 4009,
  "\u2581hago": 4010,
  "v\u00e8rent": 4011,
  "\u2581h\u025b\u025br\u025b": 4012,
  "\u2581priez": 4013,
  "\u2581tilen": 4014,
  "\u2581pourra": 4015,
  "\u2581suivre": 4016,
  "\u2581conna\u00eet": 4017,
  "\u2581retrouv": 4018,
  "\u2581d\u00e9cembre": 4019,
  "\u2581histoire": 4020,
  "\u2581quiconque": 4021,
  "uns": 4022,
  "chet": 4023,
  "tile": 4024,
  "\u2581ha\u00ef": 4025,
  "onses": 4026,
  "\u2581bug\u0254": 4027,
  "\u2581lagu": 4028,
  "\u2581ti\u0272\u00e8": 4029,
  "\u2581tunun": 4030,
  "\u2581kiraya": 4031,
  "\u2581\u0261": 4032,
  "sira": 4033,
  "\u2581huit": 4034,
  "\u2581suiv": 4035,
  "\u2581faite": 4036,
  "\u2581kolon": 4037,
  "\u2581venue": 4038,
  "\u2581q": 4039,
  "ged": 4040,
  "\u2581f\u025b\u0300": 4041,
  "\u2581neu": 4042,
  "\u2581dur\u00e9e": 4043,
  "\u2581chang\u00e9": 4044,
  "\u2581gouver": 4045,
  "\u2581source": 4046,
  "\u00e9vangile": 4047,
  "\u2581ressuscit\u00e9": 4048,
  "\u2581m\u0254g\u0254k\u0254r\u0254baw": 4049,
  "ela": 4050,
  "tho": 4051,
  "\u258151": 4052,
  "rila": 4053,
  "r\u025bti": 4054,
  "\u00e9tat": 4055,
  "\u2581devi": 4056,
  "\u2581m\u00f4g\u00f4": 4057,
  "\u2581page": 4058,
  "\u2581t\u00e8na": 4059,
  "existe": 4060,
  "\u2581d\u00e9cid\u00e9": 4061,
  "ensemble": 4062,
  "lam": 4063,
  "ecti": 4064,
  "midi": 4065,
  "saan": 4066,
  "\u2581f\u00e9v": 4067,
  "\u2581nde": 4068,
  "annon": 4069,
  "\u2581cr\u00e9a": 4070,
  "\u2581domi": 4071,
  "\u2581appro": 4072,
  "\u2581kasira": 4073,
  "\u2581musique": 4074,
  "xu": 4075,
  "y\u00e9s": 4076,
  "\u2581kogo": 4077,
  "\u2581rent": 4078,
  "\u2581tulu": 4079,
  "\u2581wara": 4080,
  "attente": 4081,
  "\u2581diinan": 4082,
  "\u2581juk\u0254r\u0254": 4083,
  "\u014bo": 4084,
  "vol": 4085,
  "\u2581ache": 4086,
  "\u2581suru": 4087,
  "\u2581tiga": 4088,
  "\u2581vote": 4089,
  "\u2581caman": 4090,
  "\u2581taara": 4091,
  "\u2581certain": 4092,
  "\u2581p\u025br\u025bnna": 4093,
  "\u2581r\u00e9ponses": 4094,
  "\u2581n\u00e9cessaire": 4095,
  "para": 4096,
  "ribu": 4097,
  "aimes": 4098,
  "\u2581s\u0254li": 4099,
  "\u2581croit": 4100,
  "\u2581moyen": 4101,
  "\u2581sanga": 4102,
  "\u2581simon": 4103,
  "\u00e9criture": 4104,
  "\u2581grandes": 4105,
  "\u2581maisons": 4106,
  "\u2581spiritu": 4107,
  "pr": 4108,
  "ob\u00e9": 4109,
  "son": 4110,
  "\u2581book": 4111,
  "\u2581ferme": 4112,
  "\u2581lende": 4113,
  "\u2581pluie": 4114,
  "\u0272\u0254g\u0254nya": 4115,
  "\u2581fagara": 4116,
  "\u2581gar\u00e7on": 4117,
  "\u2581seerew": 4118,
  "\u2581arijana": 4119,
  "\u2581sariyaw": 4120,
  "\u2581abandonn\u00e9": 4121,
  "\u2581balimamuso": 4122,
  "it\u0254": 4123,
  "omi": 4124,
  "\u2581f\u00e9": 4125,
  "dieux": 4126,
  "lanan": 4127,
  "\u25812013": 4128,
  "\u2581fini": 4129,
  "\u2581parv": 4130,
  "\u2581samu": 4131,
  "\u2581test": 4132,
  "\u2581jud\u00e9e": 4133,
  "\u2581table": 4134,
  "\u2581k\u025bl\u025bk\u025b": 4135,
  "\u2581daalili": 4136,
  "\u2581r\u00e9fl\u00e9ch": 4137,
  "\u2581isra\u00e9lites": 4138,
  "\u2581j\u0254": 4139,
  "baaw": 4140,
  "liya": 4141,
  "\u2581tor": 4142,
  "\u2581koba": 4143,
  "cteurs": 4144,
  "\u2581gusun": 4145,
  "inqui\u00e8te": 4146,
  "\u2581lendemain": 4147,
  "\u2581nafolotigi": 4148,
  "\u2581religieuse": 4149,
  "wn": 4150,
  "\u2581no\u00e9": 4151,
  "esses": 4152,
  "\u2581karo": 4153,
  "dition": 4154,
  "\u2581datugu": 4155,
  "\u2581fran\u00e7a": 4156,
  "\u2581d\u00e9velopp": 4157,
  "ben": 4158,
  "gr\u00e9": 4159,
  "ica": 4160,
  "\u2581b\u00e0": 4161,
  "\u2581m\u00ec": 4162,
  "\u258118-": 4163,
  "\u2581bri": 4164,
  "\u2581doo": 4165,
  "\u2581wul": 4166,
  "attend": 4167,
  "\u2581faama": 4168,
  "\u2581telle": 4169,
  "\u2581capable": 4170,
  "emb": 4171,
  "\u2581pon": 4172,
  "\u0153uvre": 4173,
  "\u2581s\u025bn\u025b": 4174,
  "\u2581tota": 4175,
  "\u2581kunma": 4176,
  "\u2581l\u0254g\u0254kun": 4177,
  "\u2581baarak\u025bla": 4178,
  ":20": 4179,
  "car": 4180,
  "\u2581juin": 4181,
  "\u2581miir": 4182,
  "entend": 4183,
  "\u2581messa": 4184,
  "\u2581montre": 4185,
  "\u2581\u0272agami": 4186,
  "\u2581concerne": 4187,
  "\u2581population": 4188,
  "\u2581souffrance": 4189,
  "id": 4190,
  "w\u0251": 4191,
  "k\u0254n\u0254": 4192,
  "min\u025b": 4193,
  "\u2581nyo": 4194,
  "\u2581demi": 4195,
  "\u2581masi": 4196,
  "\u2581yere": 4197,
  "\u2581baasi": 4198,
  "\u2581ef\u025bzi": 4199,
  "\u2581nuits": 4200,
  "\u2581t\u00e9moignage": 4201,
  "hs": 4202,
  "\u2581ng": 4203,
  "emp\u00ea": 4204,
  "\u0254nin": 4205,
  "\u2581ber": 4206,
  "\u2581ham": 4207,
  "sionn": 4208,
  "\u2581atta": 4209,
  "\u2581jula": 4210,
  "\u2581champ": 4211,
  "\u2581phili": 4212,
  "\u2581souha": 4213,
  "\u2581tromp": 4214,
  "\u2581venus": 4215,
  "\u2581devrait": 4216,
  "\u2581peuples": 4217,
  "attention": 4218,
  "\u2581c\u025bk\u0254r\u0254baw": 4219,
  ":8": 4220,
  "ry": 4221,
  ":19": 4222,
  "ctu": 4223,
  "ton": 4224,
  "bele": 4225,
  "\u2581eze": 4226,
  "\u2581ayez": 4227,
  "\u2581kind": 4228,
  "\u2581otro": 4229,
  "\u2581d\u00e9c\u00e9d\u00e9": 4230,
  "\u2581jardin": 4231,
  "\u2581wolobagaw": 4232,
  "s\u025bn": 4233,
  "\u2581ik": 4234,
  "\u2581ps": 4235,
  "cool": 4236,
  "\u2581dons": 4237,
  "\u2581portes": 4238,
  "\u2581voyage": 4239,
  "\u2581janvier": 4240,
  "\u2581rapport": 4241,
  "\u2581derniers": 4242,
  "].": 4243,
  "\u2581;": 4244,
  "oun": 4245,
  "\u2581hoo": 4246,
  "\u2581l\u00e9g": 4247,
  "\u2581tre": 4248,
  "\u2581recom": 4249,
  "\u2581diable": 4250,
  "\u2581d\u00e9couv": 4251,
  "\u2581voient": 4252,
  "humanit\u00e9": 4253,
  "ned": 4254,
  "\u25812-": 4255,
  "\u2581n\u00f2": 4256,
  "\u2581r\u00f4": 4257,
  "\u2581mama": 4258,
  "\u2581must": 4259,
  "\u2581donko": 4260,
  "\u2581repos": 4261,
  "\u2581duguma": 4262,
  "\u2581danbaga": 4263,
  "intention": 4264,
  "com": 4265,
  "oit": 4266,
  "indi": 4267,
  "\u2581id\u00e9e": 4268,
  "\u2581tomb": 4269,
  "titude": 4270,
  "\u2581k\u0254r\u0254n": 4271,
  "\u2581lesqu": 4272,
  "\u2581denc\u025bw": 4273,
  "\u2581valeur": 4274,
  "\u2581regarde": 4275,
  "tala": 4276,
  "\u00e9tant": 4277,
  "\u2581atte": 4278,
  "\u2581feel": 4279,
  "\u2581lase": 4280,
  "\u2581levi": 4281,
  "\u2581y\u00f4r\u00f4": 4282,
  "\u2581fen": 4283,
  "ement": 4284,
  "ri\u00e8re": 4285,
  "\u2581minan": 4286,
  "\u2581tagar": 4287,
  "\u2581article": 4288,
  "\u2581pardonne": 4289,
  "\u2581traduction": 4290,
  ":15": 4291,
  "\u2581abs": 4292,
  "jecti": 4293,
  "\u2581amen": 4294,
  "\u2581jara": 4295,
  "\u2581y\u025ble": 4296,
  "\u2581zude": 4297,
  "\u2581\u00e9tat": 4298,
  "\u2581gonna": 4299,
  "\u2581m\u00e9rit": 4300,
  "\u2581attend": 4301,
  "\u2581cogoya": 4302,
  "\u2581famine": 4303,
  "\u2581mourut": 4304,
  "\u2581r\u00e9ussi": 4305,
  "\u2581promesse": 4306,
  "\u2581k\u0254l\u0254sikaw": 4307,
  "tif": 4308,
  "zan": 4309,
  "r\u00e9es": 4310,
  "\u2581ole": 4311,
  "vites": 4312,
  "\u2581mas\u00f2r\u00f2": 4313,
  "\u2581num\u00e9ro": 4314,
  "\u2581derni\u00e8re": 4315,
  "bia": 4316,
  "\u0254ru": 4317,
  "\u2581kora": 4318,
  "\u2581pare": 4319,
  "\u2581sair": 4320,
  "article": 4321,
  "\u2581voyons": 4322,
  "\u2581parties": 4323,
  "\u2581puisque": 4324,
  "\u2581bataille": 4325,
  "\u2581moo": 4326,
  "\u2581d\u00e9ta": 4327,
  "\u2581hin\u025b": 4328,
  "\u2581j\u025br\u025b": 4329,
  "\u2581kele": 4330,
  "\u2581lolo": 4331,
  "\u2581masaw": 4332,
  "\u2581resse": 4333,
  "\u2581super": 4334,
  "\u2581tiens": 4335,
  "ch\u00e8rent": 4336,
  "instant": 4337,
  "\u2581sairly": 4338,
  "\u2581laisser": 4339,
  "\u2581cr\u00e9ateur": 4340,
  "rita": 4341,
  "ttes": 4342,
  "\u2581dad": 4343,
  "\u2581mor": 4344,
  "\u2581emp\u00ea": 4345,
  "\u2581jig\u025b": 4346,
  "\u2581n\u025bn\u025b": 4347,
  "\u2581quar": 4348,
  "\u2581sila": 4349,
  "\u2581kasih": 4350,
  "\u2581b\u0254ns\u0254n": 4351,
  "\u2581katugu": 4352,
  "\u2581woloma": 4353,
  "lication": 4354,
  "ezi": 4355,
  "\u00e8se": 4356,
  "\u258152": 4357,
  "cule": 4358,
  "\u2581kat": 4359,
  "\u2581actu": 4360,
  "\u2581juma": 4361,
  "\u2581toun": 4362,
  "\u2581sinon": 4363,
  "\u2581d\u025bm\u025bbaga": 4364,
  "50.": 4365,
  "tera": 4366,
  "\u2581bil": 4367,
  "\u2581w\u025b\u0303": 4368,
  "istre": 4369,
  "\u2581feere": 4370,
  "\u2581minni": 4371,
  "\u2581phara": 4372,
  "\u2581weele": 4373,
  "\u2581choisi": 4374,
  "\u2581livres": 4375,
  "\u2581\u0153uvres": 4376,
  "\u2581sauveur": 4377,
  "\u2581miracles": 4378,
  "r\u00e9m": 4379,
  "\u2581us": 4380,
  ",...": 4381,
  "\u2581inf": 4382,
  "\u2581lut": 4383,
  "l\u00e8mes": 4384,
  "\u2581chine": 4385,
  "\u2581meurt": 4386,
  "\u2581sarah": 4387,
  "\u2581corint": 4388,
  "\u2581\u0272agali": 4389,
  "sc": 4390,
  "\u2581%": 4391,
  "voie": 4392,
  "yaka": 4393,
  "\u2581gba": 4394,
  "\u2581f\u0254ta": 4395,
  "nation": 4396,
  "\u2581colle": 4397,
  "\u2581jesus": 4398,
  "\u2581t\u00e8m\u00e8n": 4399,
  "versaire": 4400,
  "\u2581h\u0254r\u0254nya": 4401,
  "\u2581parlait": 4402,
  "\u2581p\u00e9riode": 4403,
  "g\u00e8": 4404,
  "\u2581ris": 4405,
  "\u2581t\u00f4t": 4406,
  "istes": 4407,
  "\u2581dege": 4408,
  "\u2581exac": 4409,
  "\u2581prov": 4410,
  "\u2581philipp": 4411,
  "\u2581respect": 4412,
  "\u2581premiers": 4413,
  "\u2581!!": 4414,
  "\u2581ina": 4415,
  "\u00e9tran": 4416,
  "\u2581date": 4417,
  "\u2581faniw": 4418,
  "\u2581l\u0254y\u0254r\u0254": 4419,
  "\u2581termin": 4420,
  "\u2581fallait": 4421,
  "\u2581retourn": 4422,
  "\u2581probl\u00e8mes": 4423,
  "14": 4424,
  "\u25811,": 4425,
  "lit\u00e9": 4426,
  "saraka": 4427,
  "\u2581forte": 4428,
  "\u2581pens\u00e9": 4429,
  "\u2581pr\u00eats": 4430,
  "\u2581titre": 4431,
  "\u2581juillet": 4432,
  "\u2581solomani": 4433,
  "em": 4434,
  ":25": 4435,
  "id\u00e9e": 4436,
  "\u2581jac": 4437,
  "viter": 4438,
  "\u2581gr\u00e2ces": 4439,
  "\u2581descendu": 4440,
  "\u2581pratique": 4441,
  "\u2581tilannin": 4442,
  "\u2581m\u0254g\u0254juguw": 4443,
  "\u2581v\u00e9": 4444,
  "zari": 4445,
  "rions": 4446,
  "\u2581chau": 4447,
  "\u2581ladon": 4448,
  "\u2581pr\u00e9sident": 4449,
  "\u2581+": 4450,
  "cho": 4451,
  "juru": 4452,
  "\u2581199": 4453,
  "\u2581dii": 4454,
  "\u2581cira": 4455,
  "\u2581oise": 4456,
  "\u2581tran": 4457,
  "\u2581yari": 4458,
  "\u2581\u0153uvre": 4459,
  "\u2581pr\u00e9par": 4460,
  "\u2581communi": 4461,
  "\u2581pr\u00e9sence": 4462,
  "\u2581\u0272iningaliw": 4463,
  "\u2581100": 4464,
  "\u2581avi": 4465,
  "\u2581mal\u0254": 4466,
  "isions": 4467,
  "\u2581biens": 4468,
  "\u2581dieux": 4469,
  "\u2581k\u00e0lan": 4470,
  "\u2581cibaga": 4471,
  "\u2581arriv\u00e9s": 4472,
  "hn": 4473,
  ":24": 4474,
  "\u2581gro": 4475,
  "\u2581nd\u025b": 4476,
  "\u2581hors": 4477,
  "action": 4478,
  "ations": 4479,
  "\u2581lem\u025bn": 4480,
  "\u2581obser": 4481,
  "\u2581b\u025bnnin": 4482,
  "\u2581semble": 4483,
  "\u2581tagged": 4484,
  "\u2581endroit": 4485,
  "\u2581personna": 4486,
  "\u025bl": 4487,
  "gir": 4488,
  "sus": 4489,
  "\u025bli": 4490,
  "\u2581nim": 4491,
  "\u2581nta": 4492,
  "bilit\u00e9": 4493,
  "gation": 4494,
  "\u2581vid\u00e9o": 4495,
  "\u2581solution": 4496,
  "\u2581ment": 4497,
  "\u2581liban": 4498,
  "\u2581naxan": 4499,
  "\u2581charge": 4500,
  "\u2581sauv\u00e9s": 4501,
  "\u2581savent": 4502,
  "\u2581samarie": 4503,
  "\u2581attendre": 4504,
  "\u2581pr\u00e9sente": 4505,
  "\u2581d\u00ec": 4506,
  "alle": 4507,
  "is\u00e9e": 4508,
  "\u2581parc": 4509,
  "taient": 4510,
  "\u2581photo": 4511,
  "\u2581repas": 4512,
  "occasion": 4513,
  "\u2581informa": 4514,
  "information": 4515,
  "\u2581baarak\u025blaw": 4516,
  "\u2581jij": 4517,
  "\u2581c\u025b\u025bw": 4518,
  "\u2581kule": 4519,
  "\u2581pron": 4520,
  "\u2581vaut": 4521,
  "\u2581jaman": 4522,
  "\u2581judas": 4523,
  "\u2581allons": 4524,
  "\u2581entrer": 4525,
  "\u2581lanaya": 4526,
  "\u2581r\u00e9comp": 4527,
  "\u2581\u00e9gypte": 4528,
  "\u2581faisant": 4529,
  "\u2581mis\u00e9ricordieux": 4530,
  "cat": 4531,
  "tun": 4532,
  "\u2581em": 4533,
  "\u2581k\u00f4": 4534,
  "\u2581\u00e9g": 4535,
  "ch\u00e9s": 4536,
  "line": 4537,
  "\u2581pun": 4538,
  "\u2581th\u00e9": 4539,
  "kalan": 4540,
  "\u2581awak": 4541,
  "\u2581rich": 4542,
  "\u00e9poque": 4543,
  "\u2581texte": 4544,
  "\u2581kakala": 4545,
  "\u2581k\u0254m\u0254g\u0254": 4546,
  "\u2581\u00e9pouse": 4547,
  "\u2581dagamun": 4548,
  "\u2581naloman": 4549,
  "\u2581poisson": 4550,
  "\u00f4ne": 4551,
  "irent": 4552,
  "\u2581mout": 4553,
  "k\u0254r\u0254ba": 4554,
  "occupe": 4555,
  "urunin": 4556,
  "\u2581plait": 4557,
  "\u2581donnez": 4558,
  "\u2581effecti": 4559,
  "\u2581pharaon": 4560,
  "\u2581diff\u00e9rence": 4561,
  "lor": 4562,
  "reux": 4563,
  "w\u025bli": 4564,
  "\u2581juu": 4565,
  "\u2581koko": 4566,
  "\u2581nkan": 4567,
  "\u2581babil": 4568,
  "\u2581soins": 4569,
  "\u2581banned": 4570,
  "21": 4571,
  "inf": 4572,
  "\u258155": 4573,
  "\u2581ed": 4574,
  "\u2581w\u00e0": 4575,
  "\u2581bel": 4576,
  "\u2581pal": 4577,
  "enons": 4578,
  "euses": 4579,
  "\u0254nh\u0254n": 4580,
  "\u2581ao\u00fbt": 4581,
  "\u2581folo": 4582,
  "\u2581kowa": 4583,
  "\u2581dakun": 4584,
  "\u2581ligne": 4585,
  "arriv\u00e9e": 4586,
  "\u2581\u0272umanw": 4587,
  "\u2581faransi": 4588,
  "assembl\u00e9e": 4589,
  "\u2581synagogue": 4590,
  "--": 4591,
  "abs": 4592,
  "\u2581af": 4593,
  "sant": 4594,
  "ayant": 4595,
  "prise": 4596,
  "arr\u00eate": 4597,
  "\u2581beg\u025bnw": 4598,
  "\u2581dispos": 4599,
  "\u2581aimeras": 4600,
  "\u2581masasig": 4601,
  "apprendre": 4602,
  "\u2581kuntigiya": 4603,
  "\u2581montagnes": 4604,
  "],": 4605,
  "her": 4606,
  "\u2581sp": 4607,
  "\u2581ze": 4608,
  "\u2581kas": 4609,
  "\u2581now": 4610,
  "\u2581x\u0254n": 4611,
  "leurs": 4612,
  "\u2581afri": 4613,
  "\u2581t\u0254\u0254w": 4614,
  "\u2581satis": 4615,
  "\u2581jacques": 4616,
  "\u2581continue": 4617,
  "__": 4618,
  "\u2581\u00b7": 4619,
  "mas": 4620,
  "ong": 4621,
  "yaw": 4622,
  "d\u0254mu": 4623,
  "lace": 4624,
  "\u258150/": 4625,
  "\u2581\u00e9to": 4626,
  "ennes": 4627,
  "\u2581cham": 4628,
  "\u2581kiya": 4629,
  "\u2581k\u025br\u025b": 4630,
  "\u2581dibaga": 4631,
  "\u2581kisili": 4632,
  "\u2581l\u00e9vites": 4633,
  "9-": 4634,
  "uli": 4635,
  "\u2581ir": 4636,
  "\u2581soin": 4637,
  "\u2581tint": 4638,
  "dawuda": 4639,
  "liquer": 4640,
  "\u2581affir": 4641,
  "\u2581liber": 4642,
  "\u2581r\u00e9uni": 4643,
  "\u2581woman": 4644,
  "diction": 4645,
  "pourquoi": 4646,
  "\u2581adultes": 4647,
  "\u258153": 4648,
  "bara": 4649,
  "\u2581aur": 4650,
  "arbre": 4651,
  "\u2581bisa": 4652,
  "\u2581tara": 4653,
  "\u2581gb\u025bl\u025b": 4654,
  "\u2581impos": 4655,
  "lations": 4656,
  "\u2581b\u00e9n\u00e9fi": 4657,
  "\u2581cheveux": 4658,
  "\u2581kunmab\u0254": 4659,
  "ct\u00e9": 4660,
  "\u014bga": 4661,
  "\u2581know": 4662,
  "\u2581n\u0254r\u0254": 4663,
  "entr\u00e9e": 4664,
  "\u2581f\u025b\u025br\u025b": 4665,
  "\u2581lam\u00e8n": 4666,
  "\u2581victi": 4667,
  "\u2581dirige": 4668,
  "\u2581lequel": 4669,
  "\u2581kabakow": 4670,
  "\u2581regardez": 4671,
  "\u2581masasigilan": 4672,
  "13": 4673,
  "cto": 4674,
  "mos": 4675,
  "ales": 4676,
  "ninw": 4677,
  "\u2581s\u00e9c": 4678,
  "accep": 4679,
  "isage": 4680,
  "zi\u0272\u025bw": 4681,
  "\u2581dunu": 4682,
  "urance": 4683,
  "\u0254r\u0254nan": 4684,
  "\u2581organ": 4685,
  "cations": 4686,
  "\u00e9ritage": 4687,
  "\u2581croyez": 4688,
  "\u2581d\u0254g\u0254ya": 4689,
  "\u2581justes": 4690,
  "\u2581conseil": 4691,
  "\u2581glorifi": 4692,
  "\u2581isiyaka": 4693,
  "\u2581chr\u00e9tiens": 4694,
  "\u2581travaille": 4695,
  "\u00e0n": 4696,
  "dra": 4697,
  "\u25811.": 4698,
  "ette": 4699,
  "l\u00e9es": 4700,
  "s\u025bb\u025b": 4701,
  "tien": 4702,
  "\u2581gau": 4703,
  "\u2581\u014bga": 4704,
  "\u2581gala": 4705,
  "\u2581gari": 4706,
  "\u2581sina": 4707,
  "\u2581vint": 4708,
  "liance": 4709,
  "\u2581plein": 4710,
  "\u2581telef": 4711,
  "\u2581gwansan": 4712,
  "hh": 4713,
  "\u00eat": 4714,
  "\u2581%%": 4715,
  "\u2581\u00e9v": 4716,
  "yens": 4717,
  "\u2581lin": 4718,
  "\u2581sus": 4719,
  "gique": 4720,
  "\u2581t\u00f2g\u00f2": 4721,
  "\u2581ezeki": 4722,
  "\u2581consulter": 4723,
  "\u2581surunyana": 4724,
  "r\u0254": 4725,
  "\u258156": 4726,
  "\u2581hun": 4727,
  "\u2581n\u00f9n": 4728,
  "aller": 4729,
  "arche": 4730,
  "\u2581conn": 4731,
  "\u2581k\u00f2ni": 4732,
  "\u2581yara": 4733,
  "\u2581cinqu": 4734,
  "\u2581fasse": 4735,
  "\u2581y\u0254r\u0254jan": 4736,
  "\u2581m\u0254g\u0254faga": 4737,
  "ny": 4738,
  "bri": 4739,
  "hen": 4740,
  "pr\u00e9": 4741,
  "val": 4742,
  "\u2581nw": 4743,
  "r\u00e8rent": 4744,
  "\u2581f\u0254taw": 4745,
  "\u2581crains": 4746,
  "\u2581dimina": 4747,
  "\u2581soumis": 4748,
  "\u2581batof\u025bn": 4749,
  "\u0251\u0251": 4750,
  "ell": 4751,
  "huit": 4752,
  "vage": 4753,
  "vaux": 4754,
  "\u2581uni": 4755,
  "\u2581wor": 4756,
  "ctifi": 4757,
  "ti\u00e8me": 4758,
  "\u2581couv": 4759,
  "\u2581faits": 4760,
  "accueil": 4761,
  "\u2581prisonni": 4762,
  "\u2581souffran": 4763,
  "ril": 4764,
  "riti": 4765,
  "\u2581bal": 4766,
  "\u2581y\u0254n": 4767,
  "\u2581b\u00e9b\u00e9": 4768,
  "\u2581lere": 4769,
  "\u2581r\u00e9pu": 4770,
  "\u2581zaki": 4771,
  "\u2581digne": 4772,
  "\u2581fruit": 4773,
  "\u2581possi": 4774,
  "ception": 4775,
  "onnement": 4776,
  "\u2581ap\u00f4tres": 4777,
  "\u2581sankaba": 4778,
  "\u2581lem\u025bniya": 4779,
  "\u2581repr\u00e9sent": 4780,
  "\u2581effectivement": 4781,
  "yin": 4782,
  "\u2581kh": 4783,
  "\u2581196": 4784,
  "\u2581amo": 4785,
  "\u2581b\u00e9n": 4786,
  "\u2581naa": 4787,
  "\u2581saw": 4788,
  "merci": 4789,
  "\u2581laaa": 4790,
  "\u2581kor\u025bn": 4791,
  "\u2581siraw": 4792,
  "\u2581\u00e9tudi": 4793,
  "\u2581batise": 4794,
  "\u2581reconnu": 4795,
  "\u2581m\u0254g\u0254babaw": 4796,
  "ua": 4797,
  "aba": 4798,
  "rio": 4799,
  "ting": 4800,
  "\u2581s\u00f2n": 4801,
  "sieur": 4802,
  "\u2581mean": 4803,
  "\u2581livr\u00e9": 4804,
  "\u2581fil\u025bli": 4805,
  "\u2581fleuve": 4806,
  "\u2581politi": 4807,
  "\u2581donnera": 4808,
  "\u2581demandez": 4809,
  "cis": 4810,
  "dou": 4811,
  "quis": 4812,
  "\u2581dji": 4813,
  "expri": 4814,
  "\u2581pros": 4815,
  "\u2581s\u025bg\u025b": 4816,
  "\u2581maria": 4817,
  "\u2581nuhun": 4818,
  "\u258150/50.": 4819,
  "\u2581consta": 4820,
  "\u2581terik\u025b": 4821,
  "\u2581baarak\u025b": 4822,
  "sarakalase": 4823,
  "\u2581ev": 4824,
  "alie": 4825,
  "k\u025bl\u025b": 4826,
  "\u2581aie": 4827,
  "phone": 4828,
  "\u2581f\u00f2l\u00f2": 4829,
  "\u2581daniel": 4830,
  "\u2581nyogon": 4831,
  "\u2581puisqu": 4832,
  "\u2581sabati": 4833,
  "\u2581tugura": 4834,
  "\u2581langage": 4835,
  "\u2581w\u0254\u0254r\u0254nan": 4836,
  "\u2581banabagat\u0254": 4837,
  "\u2581facilement": 4838,
  "riw": 4839,
  "\u00e9le": 4840,
  "mand": 4841,
  "\u2581mak": 4842,
  "\u2581b\u00e9ni": 4843,
  "\u2581fali": 4844,
  "\u2581f\u0254\u0272\u0254": 4845,
  "\u2581papa": 4846,
  "oublie": 4847,
  "\u2581racon": 4848,
  "interro": 4849,
  "\u2581vendre": 4850,
  "\u2581veulent": 4851,
  "\u0251\u0303\u0251": 4852,
  "\u2581w\u00ec": 4853,
  "ectu": 4854,
  "yila": 4855,
  "\u2581deb": 4856,
  "ciles": 4857,
  "duire": 4858,
  "hiens": 4859,
  "\u2581aveu": 4860,
  "\u2581bras": 4861,
  "\u2581t\u0254n\u0254": 4862,
  "l\u00e9ment": 4863,
  "\u2581h\u00e9bre": 4864,
  "\u2581j\u0254\u0254nw": 4865,
  "\u2581prot\u00e9": 4866,
  "enseign": 4867,
  "\u2581propri": 4868,
  "\u2581racont": 4869,
  "\u2581re\u00e7oit": 4870,
  "\u2581f\u00e9vrier": 4871,
  "\u2581pierres": 4872,
  "\u2581babil\u0254ni": 4873,
  "\u2581esclaves": 4874,
  "\u2581fanibugu": 4875,
  "\u2581tigitigi": 4876,
  "\u2581diff\u00e9rents": 4877,
  "\u2581souffrances": 4878,
  "18": 4879,
  "bus": 4880,
  "\u258158": 4881,
  "\u2581op": 4882,
  "nant": 4883,
  "taga": 4884,
  "\u2581hau": 4885,
  "\u2581baru": 4886,
  "\u2581f\u0254la": 4887,
  "\u2581mina": 4888,
  "\u2581susu": 4889,
  "\u2581tana": 4890,
  "esclave": 4891,
  "\u2581g\u00e9n\u00e9ra": 4892,
  "\u2581lonanw": 4893,
  "\u2581tumabee": 4894,
  "\u2581yahutuw": 4895,
  "\u2581nyogonfe": 4896,
  "\u2581comprenez": 4897,
  "\u2581xo": 4898,
  "kalo": 4899,
  "kira": 4900,
  "lier": 4901,
  "mett": 4902,
  "\u2581\u025br\u025b": 4903,
  "\u2581baga": 4904,
  "\u2581b\u0254na": 4905,
  "\u2581mini": 4906,
  "\u2581min\u00e8": 4907,
  "adress": 4908,
  "alcool": 4909,
  "\u2581lonan": 4910,
  "\u2581badenw": 4911,
  "\u2581min\u025bna": 4912,
  "\u2581courant": 4913,
  "\u2581kor\u025bnti": 4914,
  "\u2581libert\u00e9": 4915,
  "informations": 4916,
  "lit": 4917,
  "orer": 4918,
  "\u2581laf": 4919,
  "\u2581tak": 4920,
  "resser": 4921,
  "endroit": 4922,
  "\u2581ventre": 4923,
  "\u2581\u0272\u00e8nama": 4924,
  "\u2581appr\u00e9ci": 4925,
  "\u2581d\u0254g\u0254t\u0254r\u0254so": 4926,
  "oux": 4927,
  "\u2581j\u00e8": 4928,
  "\u2581soy": 4929,
  "\u2581am\u00e9ri": 4930,
  "\u2581capit": 4931,
  "\u2581murut": 4932,
  "\u2581sisen": 4933,
  "endront": 4934,
  "\u2581seereya": 4935,
  "\u2581travaux": 4936,
  "abandonne": 4937,
  "\u2581sanctifi": 4938,
  "6.": 4939,
  "maw": 4940,
  "\u2581g\u0254": 4941,
  "agw\u025b": 4942,
  "gnez": 4943,
  "\u2581ajou": 4944,
  "\u2581nahi": 4945,
  "\u2581pose": 4946,
  "\u2581seli": 4947,
  "\u2581tiin": 4948,
  "\u2581dugus": 4949,
  "\u2581mandi": 4950,
  "\u2581paris": 4951,
  "\u2581damani": 4952,
  "\u2581repris": 4953,
  "\u2581\u0272in\u025bna": 4954,
  "\u2581fi\u0272\u025bnt\u0254w": 4955,
  "\u2581nalomanw": 4956,
  "\u2581mis\u00e9ricorde": 4957,
  "yon": 4958,
  "\u2581bl": 4959,
  "\u2581kel": 4960,
  "\u2581lam": 4961,
  "\u2581ob\u00e9": 4962,
  "\u2581the": 4963,
  "\u2581lain": 4964,
  "\u2581mogo": 4965,
  "\u2581remis": 4966,
  "\u2581confor": 4967,
  "\u2581mari\u00e9s": 4968,
  "\u2581sainte": 4969,
  "\u2581t\u0254\u0272\u0254g\u0254n": 4970,
  "\u2581dugusagw\u025b": 4971,
  "00.": 4972,
  "par": 4973,
  "ph\u00e9": 4974,
  "\u2581y\u016b": 4975,
  "euvre": 4976,
  "\u2581that": 4977,
  "kojugu": 4978,
  "\u2581commis": 4979,
  "\u2581destin": 4980,
  "\u2581timote": 4981,
  "karam\u0254g\u0254": 4982,
  "\u2581kerec\u025bn": 4983,
  "\u2581qualit\u00e9": 4984,
  "\u2581voulons": 4985,
  "\u2581kabakoya": 4986,
  "15": 4987,
  "tout": 4988,
  "wili": 4989,
  "\u2581fl\u025b": 4990,
  "\u2581\u025b\u025bn": 4991,
  "gnent": 4992,
  "\u2581diza": 4993,
  "\u2581fiy\u025b": 4994,
  "\u2581mans": 4995,
  "\u2581change": 4996,
  "\u2581fa\u00e7ons": 4997,
  "\u2581profond": 4998,
  "ext\u00e9rieur": 4999,
  "\u2581exactement": 5000,
  "\u2581\u0272\u0254": 5001,
  "ol\u00e9e": 5002,
  "\u2581nte": 5003,
  "aimez": 5004,
  "graph": 5005,
  "\u2581suka": 5006,
  "\u2581\u00e9cri": 5007,
  "\u2581certes": 5008,
  "paravant": 5009,
  "\u2581taamana": 5010,
  "\u2581denmusow": 5011,
  "\u2581kirisita": 5012,
  ":9": 5013,
  "cre": 5014,
  "kana": 5015,
  "titu": 5016,
  "\u00e9loi": 5017,
  "\u2581s\u025bn": 5018,
  "\u2581soix": 5019,
  "ormais": 5020,
  "\u2581birin": 5021,
  "\u2581jinaw": 5022,
  "\u00e8nement": 5023,
  "\u2581cherche": 5024,
  "\u2581voulais": 5025,
  "\u2581commandements": 5026,
  "las": 5027,
  "\u2581bun": 5028,
  "\u2581leh": 5029,
  "avant": 5030,
  "\u2581hare": 5031,
  "\u2581lev\u00e9": 5032,
  "\u2581l\u0254ti": 5033,
  "\u2581tari": 5034,
  "\u2581dougou": 5035,
  "\u2581d\u00e9part": 5036,
  "\u2581naanin": 5037,
  "\u2581fagay\u0254r\u0254": 5038,
  "\u2581fran\u00e7ais": 5039,
  "\u2581pardonner": 5040,
  "\u2581pouvaient": 5041,
  "\u2581conscience": 5042,
  "b\u00e8n": 5043,
  "lui": 5044,
  "\u025bri": 5045,
  "ilen": 5046,
  "suis": 5047,
  "\u2581kp\u025b": 5048,
  "\u2581eaux": 5049,
  "\u2581noms": 5050,
  "mettre": 5051,
  "\u2581bless": 5052,
  "\u2581cesse": 5053,
  "\u2581troup": 5054,
  "\u2581buguri": 5055,
  "\u2581laaaan": 5056,
  "\u2581pronon": 5057,
  "\u2581terima": 5058,
  "\u2581r\u00e9alit\u00e9": 5059,
  "\u00efe": 5060,
  "\u2581\u0308": 5061,
  "z\u025bn": 5062,
  "\u0300w\u0254": 5063,
  "lance": 5064,
  "\u2581000)": 5065,
  "\u2581symp": 5066,
  "\u2581\u00e9loi": 5067,
  "\u2581\u0254\u0300w\u0254": 5068,
  "import": 5069,
  "\u2581centa": 5070,
  "\u2581landa": 5071,
  "\u2581sabar": 5072,
  "\u2581\u00e9cris": 5073,
  "aimerai": 5074,
  "\u2581accord": 5075,
  "\u2581appela": 5076,
  "\u2581jigiya": 5077,
  "\u2581junman": 5078,
  "\u2581compagn": 5079,
  "\u2581cherchez": 5080,
  "\u2581croyants": 5081,
  "\u2581worodugu": 5082,
  "amen": 5083,
  "fait": 5084,
  "fani": 5085,
  "\u2581nge": 5086,
  "\u2581cade": 5087,
  "\u2581need": 5088,
  "\u2581s\u0254r\u0254n": 5089,
  "\u2581quarante": 5090,
  "\u2581gouvernement": 5091,
  "\u2581t\u00fa": 5092,
  "aut\u00e9": 5093,
  "gles": 5094,
  "itan": 5095,
  "\u00f2r\u00f2n": 5096,
  "\u2581c\u00e9s": 5097,
  "\u2581fala": 5098,
  "\u2581faux": 5099,
  "\u2581nani": 5100,
  "\u2581seras": 5101,
  "attends": 5102,
  "\u2581conser": 5103,
  "\u2581d\u00e9tour": 5104,
  "\u2581gusun\u0254": 5105,
  "\u2581servir": 5106,
  "\u2581territ": 5107,
  "\u2581fangatigi": 5108,
  "\u2581r\u00e9sultats": 5109,
  "\u2581semblable": 5110,
  "\u2581r\u00e9ellement": 5111,
  "\u00e7u": 5112,
  "8.1": 5113,
  "\u2581b\u00f4": 5114,
  "9-20": 5115,
  "anti": 5116,
  "\u0254b\u025bw": 5117,
  "\u2581wot": 5118,
  "enfer": 5119,
  "\u2581cit\u00e9": 5120,
  "\u2581john": 5121,
  "\u2581k\u0254\u0272\u0254": 5122,
  "\u2581obli": 5123,
  "\u2581syst": 5124,
  "\u2581battre": 5125,
  "\u2581julakan": 5126,
  "\u2581parlent": 5127,
  "\u2581balimac\u025b": 5128,
  "\u2581kakalaya": 5129,
  ":37": 5130,
  "mal": 5131,
  "\u258165": 5132,
  "\u2581ee": 5133,
  "orow": 5134,
  "\u2581ext": 5135,
  "itiri": 5136,
  "table": 5137,
  "\u2581b\u00e2ti": 5138,
  "\u2581degi": 5139,
  "\u2581tobi": 5140,
  "\u2581b\u025bnna": 5141,
  "\u2581mari\u00e9": 5142,
  "\u2581b\u0254nnin": 5143,
  "\u2581cherch\u00e9": 5144,
  "\u2581douleur": 5145,
  "\u2581d\u00e9sormais": 5146,
  "\u2581sacrifice": 5147,
  "\u2581totalement": 5148,
  "approch\u00e8rent": 5149,
  "awo": 5150,
  "anni": 5151,
  "atan": 5152,
  "enda": 5153,
  "\u2581ess": 5154,
  "\u2581jer": 5155,
  "\u2581kah": 5156,
  "chait": 5157,
  "\u2581type": 5158,
  "\u2581yama": 5159,
  "\u2581\u0272af\u0254": 5160,
  "termin": 5161,
  "\u2581dents": 5162,
  "\u2581lieux": 5163,
  "\u2581tuman": 5164,
  "itation": 5165,
  "nements": 5166,
  "\u2581salaire": 5167,
  "\u2581apporter": 5168,
  "trg": 5169,
  "\u2581ny\u0254": 5170,
  "\u2581\u00e9v\u00e9": 5171,
  "gnait": 5172,
  "\u2581gir\u025b": 5173,
  "\u2581kil\u025b": 5174,
  "\u2581sala": 5175,
  "\u2581w\u00e8r\u00e8": 5176,
  "\u2581sortes": 5177,
  "\u2581devenus": 5178,
  ":28": 5179,
  "lew": 5180,
  "afri": 5181,
  "sais": 5182,
  "aim\u00e9s": 5183,
  "\u2581ngan": 5184,
  "\u2581carte": 5185,
  "\u2581siara": 5186,
  "usement": 5187,
  "\u2581rendit": 5188,
  "\u2581signes": 5189,
  "\u2581babylon": 5190,
  "\u2581vivants": 5191,
  "\u00e9ra": 5192,
  "\u258154": 5193,
  "\u2581gn": 5194,
  "\u2581m\u00e2": 5195,
  "enin": 5196,
  "\u2581193": 5197,
  "\u2581gui": 5198,
  "\u2581sup": 5199,
  "\u2581top": 5200,
  "9-20)": 5201,
  "obser": 5202,
  "\u2581lib\u00e9": 5203,
  "\u2581r\u00e9si": 5204,
  "\u2581\u00e9qui": 5205,
  "issage": 5206,
  "kanuya": 5207,
  "\u2581(28.1": 5208,
  "\u2581c\u00e9sar": 5209,
  "\u2581fonda": 5210,
  "\u2581k\u025bnin": 5211,
  "\u2581solda": 5212,
  "occuper": 5213,
  "\u2581ouvert": 5214,
  "\u2581points": 5215,
  "\u2581porter": 5216,
  "\u2581tulogw": 5217,
  "\u2581souviens": 5218,
  "\u2581(28.19-20)": 5219,
  "\u2581sacrifices": 5220,
  "11": 5221,
  "mont": 5222,
  "\u2581b\u00e8n": 5223,
  "\u2581kua": 5224,
  "\u2581maj": 5225,
  "\u2581nive": 5226,
  "\u2581amata": 5227,
  "istance": 5228,
  "\u2581dispar": 5229,
  "\u2581gauche": 5230,
  "\u2581muruti": 5231,
  "\u2581noonoo": 5232,
  "\u2581corinthiens": 5233,
  "5:": 5234,
  "far": 5235,
  "\u0272an": 5236,
  "\u2581koe": 5237,
  "faits": 5238,
  "\u2581no\u00ebl": 5239,
  "\u2581pati": 5240,
  "\u2581pewu": 5241,
  "\u2581quin": 5242,
  "kuntigi": 5243,
  "\u2581fid\u00e8le": 5244,
  "\u2581furak\u025b": 5245,
  "\u2581profes": 5246,
  "\u2581sayuli": 5247,
  "entendre": 5248,
  ":12": 5249,
  "tifs": 5250,
  "objet": 5251,
  "\u2581jago": 5252,
  "\u2581neuf": 5253,
  "\u2581popo": 5254,
  "instal": 5255,
  "\u2581mondi": 5256,
  "\u2581egypte": 5257,
  "\u2581sirana": 5258,
  "\u2581courage": 5259,
  "\u2581vinrent": 5260,
  "\u25812.": 5261,
  "\u25814-": 5262,
  "\u2581700": 5263,
  "\u2581dee": 5264,
  "duite": 5265,
  "laman": 5266,
  "\u2581....": 5267,
  "\u2581lamp": 5268,
  "\u2581maro": 5269,
  "\u2581poli": 5270,
  "\u2581d\u00e9rou": 5271,
  "\u2581loved": 5272,
  "\u2581mont\u00e9": 5273,
  "\u2581garder": 5274,
  "\u2581s\u0254lida": 5275,
  "\u2581paradis": 5276,
  "\u2581m\u00e0": 5277,
  "loon": 5278,
  "\u2581ooo": 5279,
  "\u2581\u00e2ge": 5280,
  "\u2581ayei": 5281,
  "\u2581gafew": 5282,
  "\u2581actions": 5283,
  "\u2581soci\u00e9t\u00e9": 5284,
  "\u2581souhaite": 5285,
  "\u2581s\u00e9curit\u00e9": 5286,
  "\u2581y\u025bl\u025bmana": 5287,
  "\u2581dagamunin": 5288,
  "ak": 5289,
  "gal": 5290,
  "bo\u0272a": 5291,
  "b\u025br\u025b": 5292,
  "musa": 5293,
  "erenw": 5294,
  "musow": 5295,
  "\u2581aawo": 5296,
  "\u2581nobar": 5297,
  "\u2581port\u00e9": 5298,
  "\u2581pr\u00e9f\u00e9": 5299,
  "\u2581donn\u00e9s": 5300,
  "\u2581triste": 5301,
  "\u2581tununa": 5302,
  "\u2581\u00e9tabli": 5303,
  "\u2581intinya": 5304,
  "\u2581siaram\u0254": 5305,
  "\u2581comments": 5306,
  "\u2581monsieur": 5307,
  "-2": 5308,
  "aise": 5309,
  "\u258134-": 5310,
  "\u2581d\u00f2w": 5311,
  "\u2581exa": 5312,
  "\u2581flo": 5313,
  "kumaw": 5314,
  "\u2581croix": 5315,
  "\u2581rends": 5316,
  "\u2581filipu": 5317,
  "\u2581labaan": 5318,
  "\u2581pens\u00e9e": 5319,
  "\u2581pi\u00e8ces": 5320,
  "agissait": 5321,
  "\u2581pleurer": 5322,
  "accomplir": 5323,
  "\u2581communaut\u00e9": 5324,
  "b\u0251": 5325,
  "aura": 5326,
  "\u2581ble": 5327,
  "\u2581dal": 5328,
  "\u2581dam": 5329,
  "\u2581gan": 5330,
  "dence": 5331,
  "upart": 5332,
  "\u2581vent": 5333,
  "amuser": 5334,
  "issais": 5335,
  "\u2581daman": 5336,
  "\u2581\u0254nh\u0254n": 5337,
  "\u2581disais": 5338,
  "\u2581mirent": 5339,
  "\u2581offici": 5340,
  "\u2581moutons": 5341,
  "\u2581passait": 5342,
  "\u2581plupart": 5343,
  "\u2581rassemb": 5344,
  "\u2581d\u00e9truire": 5345,
  "\u2581retourne": 5346,
  "\u00e8l": 5347,
  "45.": 5348,
  "hor": 5349,
  "net": 5350,
  "ved": 5351,
  "\u2581cy": 5352,
  "\u2581p\u00e8": 5353,
  "mb\u00e9c": 5354,
  "\u2581deh": 5355,
  "ister": 5356,
  "\u2581enjo": 5357,
  "\u2581here": 5358,
  "\u2581inte": 5359,
  "\u2581rivi": 5360,
  "\u2581colos": 5361,
  "\u2581isira": 5362,
  "\u2581total": 5363,
  "\u2581effect": 5364,
  "\u2581effica": 5365,
  "\u2581parlez": 5366,
  "\u2581suruta": 5367,
  "\u2581wulila": 5368,
  "\u2581changer": 5369,
  "\u2581damin\u025bna": 5370,
  "\u2581auparavant": 5371,
  "b\u00f2": 5372,
  "nn": 5373,
  "\u00eda": 5374,
  "pec": 5375,
  "\u2581ign": 5376,
  "\u2581k\u025bsu": 5377,
  "\u2581tend": 5378,
  "\u2581\u0272\u025bna": 5379,
  "\u2581b\u0254nin": 5380,
  "\u2581ladegi": 5381,
  "\u2581arriv\u00e9e": 5382,
  "\u2581malades": 5383,
  "'.": 5384,
  ":22": 5385,
  ":33": 5386,
  "\u2581g\u025b": 5387,
  "\u2581j\u00f9": 5388,
  "cifi": 5389,
  "manu": 5390,
  "mmen": 5391,
  "tara": 5392,
  "\u2581m\u025b\u025b": 5393,
  "enfui": 5394,
  "eront": 5395,
  "unit\u00e9": 5396,
  "\u2581agr\u00e9": 5397,
  "\u2581avis": 5398,
  "\u2581noir": 5399,
  "\u2581suun": 5400,
  "ininka": 5401,
  "\u2581eburu": 5402,
  "\u2581tente": 5403,
  "essayer": 5404,
  "\u2581litiri": 5405,
  "\u2581public": 5406,
  "approche": 5407,
  "\u00e9tranger": 5408,
  "\u2581capitale": 5409,
  "\u2581kisibaga": 5410,
  "\u2581philippe": 5411,
  "\u2581v\u00e9ritable": 5412,
  "od": 5413,
  "b\u0254n": 5414,
  "minw": 5415,
  "yimu": 5416,
  "\u2581kia": 5417,
  "\u2581sar": 5418,
  "\u2581uso": 5419,
  "\u2581y\u00e8l\u00e8": 5420,
  "\u2581dadon": 5421,
  "\u2581fanta": 5422,
  "\u2581isaac": 5423,
  "\u2581claire": 5424,
  "\u2581debout": 5425,
  "\u2581isra\u025bl": 5426,
  "\u2581lalaga": 5427,
  "\u2581sapiti": 5428,
  "\u2581ordonn\u00e9": 5429,
  "\u2581r\u00e9veillez": 5430,
  "\u2581construire": 5431,
  "\u2581tulogwerenw": 5432,
  "7.": 5433,
  "tah": 5434,
  "\u0254di": 5435,
  "\u258166": 5436,
  "\u2581k\u0129": 5437,
  "tidi": 5438,
  "\u2581day": 5439,
  "\u2581quo": 5440,
  "manan": 5441,
  "ombre": 5442,
  "\u2581r\u00e9f\u00e9": 5443,
  "\u2581s\u0254t\u0254": 5444,
  "tivit\u00e9": 5445,
  "\u2581enfin": 5446,
  "\u2581entr\u00e9": 5447,
  "\u2581nins\u0254n": 5448,
  "\u2581parfois": 5449,
  "\u2581difficul": 5450,
  "\u2581discours": 5451,
  "\u2581construction": 5452,
  "ize": 5453,
  "nor": 5454,
  "pit": 5455,
  "\u2581sag": 5456,
  "\u2581gouv": 5457,
  "\u2581gu\u00e9ri": 5458,
  "\u2581sebaa": 5459,
  "\u2581fruits": 5460,
  "\u2581namara": 5461,
  "\u2581venait": 5462,
  "\u2581reviend": 5463,
  "\u2581batizera": 5464,
  "\u2581d\u00e9cision": 5465,
  "\u2581m\u0254g\u0254jugu": 5466,
  "\u2581naaninan": 5467,
  "\u2581forobay\u0254r\u0254w": 5468,
  "\u2581farisogobana": 5469,
  "\u00e2me": 5470,
  "\u2581boi": 5471,
  "\u2581ch\u025b": 5472,
  "\u2581n\u0254n": 5473,
  "\u2581reg": 5474,
  "\u2581wie": 5475,
  "illez": 5476,
  "r\u00e9mie": 5477,
  "\u2581r\u00eave": 5478,
  "\u2581sibo": 5479,
  "\u2581all\u00e9s": 5480,
  "\u2581tr\u00f4ne": 5481,
  "artient": 5482,
  "blement": 5483,
  "\u2581farisi": 5484,
  "\u2581gir\u025bki": 5485,
  "\u2581sabbat": 5486,
  "\u2581isirayila": 5487,
  "\u2581impossible": 5488,
  "pon": 5489,
  "\u258159": 5490,
  "obsc": 5491,
  "\u2581foo": 5492,
  "\u2581zon": 5493,
  "\u2581amer": 5494,
  "\u2581jate": 5495,
  "\u2581kafo": 5496,
  "\u2581quat": 5497,
  "\u2581savi": 5498,
  "\u2581\u0272anab\u0254": 5499,
  "\u2581alatala": 5500,
  "\u2581conduit": 5501,
  "\u2581disponi": 5502,
  "\u2581philist": 5503,
  "\u2581sebaaya": 5504,
  "mentation": 5505,
  "\u2581craignez": 5506,
  "\u2581daniy\u025bli": 5507,
  "\u2581ef\u025bzikaw": 5508,
  "\u2581rappelle": 5509,
  "\u2581meilleure": 5510,
  ":26": 5511,
  "eng": 5512,
  "\u258157": 5513,
  "huile": 5514,
  "\u2581kami": 5515,
  "\u2581life": 5516,
  "ennemi": 5517,
  "rirent": 5518,
  "\u2581proba": 5519,
  "\u2581pr\u00e9c\u00e9": 5520,
  "\u2581repro": 5521,
  "\u2581s\u0254ng\u0254": 5522,
  "\u2581transp": 5523,
  "\u2581syst\u00e8me": 5524,
  "\u2581all\u00e8rent": 5525,
  "\u2581sapitiri": 5526,
  "\u2581kor\u025bntikaw": 5527,
  "\u2581kititig\u025blaw": 5528,
  "\u2581\u00bf": 5529,
  "ypo": 5530,
  "\u25813.": 5531,
  "\u2581d\u025bn": 5532,
  "\u2581joo": 5533,
  "\u2581ny\u025b": 5534,
  "\u2581yar": 5535,
  "aniya": 5536,
  "\u2581lune": 5537,
  "\u2581viol": 5538,
  "auteur": 5539,
  "erreur": 5540,
  "anmoins": 5541,
  "vention": 5542,
  "\u2581si\u00e8cle": 5543,
  "\u2581sortit": 5544,
  "\u2581filisiw": 5545,
  "\u2581kowagara": 5546,
  "exp\u00e9rience": 5547,
  "bin": 5548,
  "cap": 5549,
  "ets": 5550,
  "lou": 5551,
  "\u2581od": 5552,
  "ande": 5553,
  "dain": 5554,
  "th\u00e9e": 5555,
  "\u2581j\u00f2n": 5556,
  "\u2581k\u025bli": 5557,
  "\u2581\u0272\u0254\u0254n": 5558,
  "\u00e9pouse": 5559,
  "\u00e9quipe": 5560,
  "\u2581nomm\u00e9": 5561,
  "\u2581j\u025bns\u025bn": 5562,
  "\u2581k\u0254r\u0254si": 5563,
  "\u2581sabali": 5564,
  "\u2581sunguruw": 5565,
  "rentissage": 5566,
  "\u2581taamacogo": 5567,
  "\u2581philistins": 5568,
  "\u2581sungurunin": 5569,
  "\u2581\u00bb": 5570,
  "faw": 5571,
  "gar": 5572,
  "m\u00e8re": 5573,
  "\u2581dil": 5574,
  "\u2581basa": 5575,
  "\u2581d\u0254\u0300n": 5576,
  "\u2581surv": 5577,
  "jectif": 5578,
  "maniya": 5579,
  "zareth": 5580,
  "\u2581beg\u025bn": 5581,
  "afrique": 5582,
  "\u2581firiya": 5583,
  "\u2581muruku": 5584,
  "\u2581revenu": 5585,
  "\u00e9ternit\u00e9": 5586,
  "\u2581j\u00e9r\u00e9mie": 5587,
  "\u2581ressusc": 5588,
  "\u2581n\u00e9anmoins": 5589,
  "\u2581dadonkumaw": 5590,
  "mit": 5591,
  "\u258169": 5592,
  "ti\u0272\u00e8": 5593,
  "\u2581won": 5594,
  "isent": 5595,
  "\u2581poss": 5596,
  "aiment": 5597,
  "\u2581chans": 5598,
  "\u2581grecs": 5599,
  "\u2581r\u00e9ser": 5600,
  "\u2581\u0272inan": 5601,
  "\u2581dadili": 5602,
  "\u2581natuma": 5603,
  "\u2581rendez": 5604,
  "\u2581miliy\u0254n": 5605,
  "\u2581quotidi": 5606,
  "\u2581remerci": 5607,
  "\u2581enti\u00e8rement": 5608,
  "h\u00f4": 5609,
  "iw": 5610,
  "the": 5611,
  "ute": 5612,
  "basi": 5613,
  "vite": 5614,
  "\u2581aje": 5615,
  "\u2581f\u0254n": 5616,
  "iller": 5617,
  "injus": 5618,
  "orgue": 5619,
  "\u2581conta": 5620,
  "\u2581enjoy": 5621,
  "\u2581nalon": 5622,
  "\u2581voyant": 5623,
  "adamaden": 5624,
  "\u2581d\u00e9sol\u00e9e": 5625,
  "\u2581isra\u00e9li": 5626,
  "\u2581continuer": 5627,
  "\u2581kuntigiba": 5628,
  "\u2581retourner": 5629,
  "accomplissement": 5630,
  "\u2581\u00ab": 5631,
  "d\u0254n": 5632,
  "\u2581d\u00f9": 5633,
  "kala": 5634,
  "yira": 5635,
  "\u2581kaj": 5636,
  "ayons": 5637,
  "tesse": 5638,
  "\u2581lois": 5639,
  "\u2581r\u00f4le": 5640,
  "embras": 5641,
  "\u2581aurez": 5642,
  "\u2581pente": 5643,
  "\u2581resta": 5644,
  "\u2581m\u025b\u025bnna": 5645,
  "\u2581sachant": 5646,
  "\u2581comporte": 5647,
  "\u2581commencer": 5648,
  "\u2581informations": 5649,
  "ram": 5650,
  "\u2581kl": 5651,
  "avan": 5652,
  "f\u025b\u025bn": 5653,
  "phra": 5654,
  "gunin": 5655,
  "\u2581kiri": 5656,
  "\u2581prote": 5657,
  "\u2581s\u00e8b\u00e8n": 5658,
  "adresse": 5659,
  "\u2581cikura": 5660,
  "\u2581d\u00e9sol\u00e9": 5661,
  "\u2581k\u0254g\u0254ji": 5662,
  "\u2581s\u0254r\u0254ko": 5663,
  "\u2581fid\u00e8les": 5664,
  "obscurit\u00e9": 5665,
  "\u2581septi\u00e8me": 5666,
  "\u2581wajibiya": 5667,
  "uu": 5668,
  "ary": 5669,
  "ats": 5670,
  "red": 5671,
  "\u2581my": 5672,
  "ince": 5673,
  "\u0272\u025bna": 5674,
  "\u2581ile": 5675,
  "\u2581win": 5676,
  "cieux": 5677,
  "illir": 5678,
  "tiens": 5679,
  "\u2581maza": 5680,
  "\u2581yisa": 5681,
  "\u2581\u00e9cla": 5682,
  "\u2581accor": 5683,
  "\u2581genre": 5684,
  "\u2581years": 5685,
  "\u2581dehors": 5686,
  "\u2581diiman": 5687,
  "\u2581proph\u00e9": 5688,
  "\u2581purifi": 5689,
  "\u2581babylone": 5690,
  "\u2581relation": 5691,
  "ese": 5692,
  "r\u00eat": 5693,
  "tos": 5694,
  "\u2581ly": 5695,
  "lev\u00e9": 5696,
  "wara": 5697,
  "\u2581ch\u00e2": 5698,
  "\u2581k\u00f4n": 5699,
  "\u2581oli": 5700,
  "riers": 5701,
  "rista": 5702,
  "\u2581aint": 5703,
  "\u2581dur\u00e9": 5704,
  "\u2581foli": 5705,
  "\u2581poro": 5706,
  "\u2581says": 5707,
  "\u2581sisi": 5708,
  "\u2581cents": 5709,
  "\u2581woilu": 5710,
  "\u2581bateau": 5711,
  "\u2581damina": 5712,
  "\u2581longue": 5713,
  "\u2581ntalen": 5714,
  "\u2581rappel": 5715,
  "\u2581\u00e9poque": 5716,
  "\u2581bapt\u00eame": 5717,
  "\u2581accompli": 5718,
  "\u2581soixante": 5719,
  "\u2581m\u0254g\u0254\u0272uman": 5720,
  "\u2581r\u00e9veiller": 5721,
  "kh": 5722,
  "l\u00f4": 5723,
  "ace": 5724,
  "fen": 5725,
  "m\u00e9es": 5726,
  "\u2581bis": 5727,
  "l\u00e8ves": 5728,
  "ourou": 5729,
  "\u2581bama": 5730,
  "\u2581nayi": 5731,
  "\u2581v\u00e9cu": 5732,
  "ctobre": 5733,
  "\u2581arbre": 5734,
  "\u2581poss\u00e9": 5735,
  "\u2581arr\u00eat\u00e9": 5736,
  "\u2581consac": 5737,
  "\u2581instru": 5738,
  "\u2581visage": 5739,
  "\u2581profess": 5740,
  "\u2581murutili": 5741,
  "\u2581nazareth": 5742,
  "\u2581pr\u00e9parer": 5743,
  "\u2581accompagn": 5744,
  "\u2581\u0272inibagaw": 5745,
  "\u2581colossiens": 5746,
  "som": 5747,
  "\u25814.": 5748,
  "\u2581yg": 5749,
  "dit\u00e9": 5750,
  "\u2581197": 5751,
  "\u2581tit": 5752,
  "\u2581koni": 5753,
  "\u2581cach\u00e9": 5754,
  "\u2581hak\u025bw": 5755,
  "\u2581kuluw": 5756,
  "\u2581liste": 5757,
  "\u2581parla": 5758,
  "\u2581quitt\u00e9": 5759,
  "\u2581sup\u00e9ri": 5760,
  "\u2581lecture": 5761,
  "\u2581t\u0254\u0254r\u0254la": 5762,
  "\u2581pauvret\u00e9": 5763,
  "\u2581sentiment": 5764,
  "\u2581territoire": 5765,
  "sarakalasebagaw": 5766,
  "at\u0254": 5767,
  "too": 5768,
  "book": 5769,
  "l\u025bk\u025b": 5770,
  "sogo": 5771,
  "yiri": 5772,
  "rande": 5773,
  "\u25812014": 5774,
  "\u2581salu": 5775,
  "avance": 5776,
  "m\u025bl\u025bk\u025b": 5777,
  "\u2581saalo": 5778,
  "\u2581stupi": 5779,
  "wulanan": 5780,
  "\u2581feelin": 5781,
  "\u2581malgr\u00e9": 5782,
  "\u2581na\u00eetre": 5783,
  "\u2581salenw": 5784,
  "\u2581apport\u00e9": 5785,
  "\u2581erreurs": 5786,
  "\u2581gouvern": 5787,
  "\u2581oiseaux": 5788,
  "\u2581ailleurs": 5789,
  "\u2581puissant": 5790,
  "\u2581direction": 5791,
  "\u2581voulaient": 5792,
  "\u2581tilennenya": 5793,
  "\u2581wolonwulanan": 5794,
  "ane": 5795,
  "c\u00e9s": 5796,
  "zar": 5797,
  "gana": 5798,
  "zuda": 5799,
  "\u2581cik": 5800,
  "\u2581dra": 5801,
  "\u2581y\u025b\u0303": 5802,
  "yanni": 5803,
  "\u2581afu\u025b": 5804,
  "\u2581alij": 5805,
  "\u2581d\u00f9gu": 5806,
  "\u2581souh": 5807,
  "\u2581s\u00f4r\u00f4": 5808,
  "\u2581togo": 5809,
  "\u2581want": 5810,
  "entifi": 5811,
  "minanw": 5812,
  "m\u00e9ment": 5813,
  "\u2581vieux": 5814,
  "\u2581tryina": 5815,
  "\u2581wulaf\u025b": 5816,
  "\u2581craindre": 5817,
  "\u2581retrouv\u00e9": 5818,
  "\u2581sarakab\u0254": 5819,
  "\u2581devraient": 5820,
  "eli": 5821,
  "hum": 5822,
  "ois": 5823,
  "ut\u00e9": 5824,
  "\u2581bh": 5825,
  "\u2581190": 5826,
  "\u2581anc": 5827,
  "\u2581mboo": 5828,
  "\u2581sinc": 5829,
  "\u2581symb": 5830,
  "som\u0254g\u0254": 5831,
  "\u2581jasin": 5832,
  "\u2581l\u0254nko": 5833,
  "\u2581m\u00f9nna": 5834,
  "\u2581poste": 5835,
  "\u2581associ": 5836,
  "\u2581fantan": 5837,
  "\u2581karaba": 5838,
  "\u2581lazare": 5839,
  "\u2581makoya": 5840,
  "\u2581muntah": 5841,
  "\u2581susuli": 5842,
  "\u2581miracle": 5843,
  "\u2581sp\u00e9cial": 5844,
  "\u2581halakili": 5845,
  "apprentissage": 5846,
  "\u2581kalandensom\u0254g\u0254": 5847,
  "rc": 5848,
  "gba": 5849,
  "phe": 5850,
  "xan": 5851,
  "\u025bmu": 5852,
  "\u2581s\u00ec": 5853,
  "nent": 5854,
  "omma": 5855,
  "\u2581naw": 5856,
  "usion": 5857,
  "\u00e9tude": 5858,
  "\u25812018": 5859,
  "\u2581k\u00e9l\u00e9": 5860,
  "\u2581siko": 5861,
  "\u2581ameri": 5862,
  "\u2581penda": 5863,
  "\u2581vraie": 5864,
  "\u2581oubli\u00e9": 5865,
  "\u2581termes": 5866,
  "\u2581culture": 5867,
  "\u2581restent": 5868,
  "\u2581dumuniba": 5869,
  "\u2581karam\u00f2g\u00f2": 5870,
  "wali": 5871,
  "\u2581f\u00fbt": 5872,
  "isant": 5873,
  "moire": 5874,
  "\u2581duga": 5875,
  "\u2581gayi": 5876,
  "\u2581gros": 5877,
  "\u2581jeux": 5878,
  "\u2581wusu": 5879,
  "\u2581zezi": 5880,
  "\u2581z\u0254bu": 5881,
  "\u2581conva": 5882,
  "\u2581j\u00f9m\u025bn": 5883,
  "\u2581maris": 5884,
  "\u2581lazari": 5885,
  "\u2581bo\u0272af\u025bn": 5886,
  "\u2581donn\u00e9es": 5887,
  "\u2581\u00e9toiles": 5888,
  "\u2581difficiles": 5889,
  "\u00fcl": 5890,
  "\u2581s\u00e0": 5891,
  "hima": 5892,
  "\u2581sti": 5893,
  "\u00eetres": 5894,
  "\u2581fata": 5895,
  "\u2581koto": 5896,
  "\u2581lady": 5897,
  "\u2581mod\u00e8": 5898,
  "\u2581naza": 5899,
  "\u2581\u0272\u025bsin": 5900,
  "chement": 5901,
  "\u2581banana": 5902,
  "\u2581dafara": 5903,
  "\u2581souhait": 5904,
  "\u2581manamana": 5905,
  "\u2581timoth\u00e9e": 5906,
  "utilisation": 5907,
  "u\u00e9": 5908,
  "\u2581d\u00fb": 5909,
  "\u2581j\u00f2": 5910,
  "d\u00e9es": 5911,
  "orce": 5912,
  "usse": 5913,
  "\u00e9cut": 5914,
  "\u2581mux": 5915,
  "\u025bl\u025bya": 5916,
  "cident": 5917,
  "ection": 5918,
  "\u2581autor": 5919,
  "\u2581m\u00e9tho": 5920,
  "osition": 5921,
  "\u2581canaan": 5922,
  "\u2581compli": 5923,
  "\u2581contr\u00f4": 5924,
  "\u2581fisaya": 5925,
  "\u2581rapide": 5926,
  "\u2581serais": 5927,
  "\u2581\u00e9cout\u00e9": 5928,
  "\u2581alij\u025bn\u025b": 5929,
  "\u2581esprits": 5930,
  "\u2581\u0272asiran": 5931,
  "\u2581kelennama": 5932,
  "hon": 5933,
  "pic": 5934,
  "\u00e8b\u00e8": 5935,
  "enen": 5936,
  "ited": 5937,
  "\u2581bir": 5938,
  "\u2581ore": 5939,
  "oires": 5940,
  "olesc": 5941,
  "\u2581?...": 5942,
  "\u2581bira": 5943,
  "\u2581g\u00e8l\u00e8": 5944,
  "\u2581wafa": 5945,
  "outent": 5946,
  "\u2581gratu": 5947,
  "\u2581sim\u0254n": 5948,
  "\u2581aimait": 5949,
  "\u2581yirala": 5950,
  "\u2581am\u00e9rica": 5951,
  "\u2581lakolon": 5952,
  "\u2581limaniya": 5953,
  "\u2581recomman": 5954,
  "\u2581compagnons": 5955,
  "\u2581jalakibali": 5956,
  "\u2581retourn\u00e8rent": 5957,
  ":30": 5958,
  "dia": 5959,
  "fee": 5960,
  "duis": 5961,
  "ypes": 5962,
  "\u00e7ait": 5963,
  "asser": 5964,
  "endor": 5965,
  "minan": 5966,
  "taine": 5967,
  "\u2581esp\u00e8": 5968,
  "\u2581idio": 5969,
  "\u2581kanw": 5970,
  "\u2581lata": 5971,
  "\u2581rues": 5972,
  "\u2581sage": 5973,
  "assion": 5974,
  "\u2581imb\u00e9c": 5975,
  "\u2581tribu": 5976,
  "envoyer": 5977,
  "\u2581distin": 5978,
  "\u2581fariya": 5979,
  "\u2581caract\u00e9": 5980,
  "\u2581savaient": 5981,
  "\u2581dumunif\u025bn": 5982,
  "17": 5983,
  "\u2581nn": 5984,
  "mari": 5985,
  "t\u00e8re": 5986,
  "\u2581ana": 5987,
  "\u2581get": 5988,
  "\u2581m\u00e9p": 5989,
  "\u2581tuu": 5990,
  "\u2581sa\u00fcl": 5991,
  "\u2581baliw": 5992,
  "\u2581ding\u025b": 5993,
  "\u2581juges": 5994,
  "\u2581yahv\u00e9": 5995,
  "\u2581arbres": 5996,
  "\u2581marque": 5997,
  "\u2581pilate": 5998,
  "\u2581serons": 5999,
  "ducation": 6000,
  "\u2581humaine": 6001,
  "injustice": 6002,
  "\u2581nazar\u025bti": 6003,
  "\u2581s\u0254g\u0254mada": 6004,
  "\u2581viennent": 6005,
  "\u2581professionn": 6006,
  "hy": 6007,
  "cel": 6008,
  "d\u00e9s": 6009,
  "tier": 6010,
  "ara\u00eet": 6011,
  "\u2581cris": 6012,
  "\u2581fast": 6013,
  "\u2581joow": 6014,
  "\u2581solo": 6015,
  "\u2581stru": 6016,
  "\u2581tuba": 6017,
  "\u2581yoro": 6018,
  "\u2581c\u025bnni": 6019,
  "\u2581centre": 6020,
  "\u2581domuni": 6021,
  "\u2581filila": 6022,
  "\u2581annonc\u00e9": 6023,
  "\u2581apporte": 6024,
  "\u2581marcher": 6025,
  "\u2581rivi\u00e8re": 6026,
  "\u2581k\u0254g\u0254dugu": 6027,
  "\u2581souffrent": 6028,
  "\u2581compassion": 6029,
  "\u2581d\u025bs\u025bbagat\u0254w": 6030,
  "z\u025b": 6031,
  "nii": 6032,
  "voi": 6033,
  "envi": 6034,
  "\u2581obt": 6035,
  "coura": 6036,
  "eremi": 6037,
  "exist": 6038,
  "lises": 6039,
  "onn\u00e9e": 6040,
  "ressa": 6041,
  "\u00e9cria": 6042,
  "\u2581anci": 6043,
  "\u2581juif": 6044,
  "\u2581wana": 6045,
  "aurait": 6046,
  "vation": 6047,
  "\u2581seenw": 6048,
  "\u2581syrie": 6049,
  "exemple": 6050,
  "ination": 6051,
  "\u2581gw\u025bnin": 6052,
  "\u2581sortie": 6053,
  "\u2581m\u00e9moire": 6054,
  "\u2581s\u025bb\u025bnna": 6055,
  "\u2581\u00e9l\u00e9ments": 6056,
  "importance": 6057,
  "\u2581karam\u0254g\u0254w": 6058,
  "\u2581\u00e9trangers": 6059,
  "\u2581concernant": 6060,
  "blu": 6061,
  "cie": 6062,
  "\u025bti": 6063,
  "euro": 6064,
  "\u2581ask": 6065,
  "\u2581laa": 6066,
  "\u2581opp": 6067,
  "gonin": 6068,
  "\u2581bere": 6069,
  "\u2581kaga": 6070,
  "\u2581mena": 6071,
  "\u2581pero": 6072,
  "\u2581danga": 6073,
  "\u2581d\u00e9sir": 6074,
  "\u2581endor": 6075,
  "\u2581j\u0254nya": 6076,
  "\u2581s\u00e9par": 6077,
  "\u2581teris": 6078,
  "\u2581tient": 6079,
  "\u2581aimons": 6080,
  "\u2581fagali": 6081,
  "\u2581m\u00e9rite": 6082,
  "\u2581zeremi": 6083,
  "\u2581k\u0254r\u0254talen": 6084,
  "\u2581fangatigiw": 6085,
  "-3": 6086,
  "ave": 6087,
  "day": 6088,
  "cinq": 6089,
  "dama": 6090,
  "fasi": 6091,
  "saga": 6092,
  "siga": 6093,
  "\u0272ana": 6094,
  "\u2581dah": 6095,
  "\u2581tru": 6096,
  "g\u025bnin": 6097,
  "offre": 6098,
  "\u2581dece": 6099,
  "\u2581yaga": 6100,
  "\u2581bont\u00e9": 6101,
  "\u2581f\u0254l\u0254w": 6102,
  "\u2581kanin": 6103,
  "\u2581demeur": 6104,
  "\u2581divers": 6105,
  "\u2581niveau": 6106,
  "\u2581yuhana": 6107,
  "utiliser": 6108,
  "\u2581devient": 6109,
  "\u2581invit\u00e9s": 6110,
  "\u2581taay\u0254r\u0254": 6111,
  "\u2581wusulan": 6112,
  "\u2581entendez": 6113,
  "\u2581souffert": 6114,
  "\u2581connaissais": 6115,
  "24": 6116,
  "\u2581\u2192": 6117,
  "ysi": 6118,
  "\u0254ri": 6119,
  "\u2581ol": 6120,
  "\u2581bet": 6121,
  "\u2581dos": 6122,
  "\u2581lak": 6123,
  "\u2581tur": 6124,
  "\u2581web": 6125,
  "organ": 6126,
  "owabu": 6127,
  "\u2581jug\u00e9": 6128,
  "\u2581show": 6129,
  "\u2581tenu": 6130,
  "\u2581gb\u025br\u025b": 6131,
  "\u2581karoo": 6132,
  "\u2581saved": 6133,
  "annonce": 6134,
  "\u2581matins": 6135,
  "\u2581nimisa": 6136,
  "\u2581photos": 6137,
  "\u2581rentre": 6138,
  "\u2581verrez": 6139,
  "\u2581viande": 6140,
  "\u2581visite": 6141,
  "\u2581content": 6142,
  "\u2581justifi": 6143,
  "\u2581misiran": 6144,
  "\u2581k\u025bm\u025bkulu": 6145,
  "\u2581nouveaux": 6146,
  "c\u00f4": 6147,
  "ms": 6148,
  "leh": 6149,
  "\u00e9v\u00e9": 6150,
  "\u2581ow": 6151,
  "del\u00e0": 6152,
  "kiki": 6153,
  "ongo": 6154,
  "tage": 6155,
  "\u2581fag": 6156,
  "\u2581net": 6157,
  "tance": 6158,
  "\u25812020": 6159,
  "\u2581lien": 6160,
  "\u2581mars": 6161,
  "\u2581meri": 6162,
  "\u00e9chapp": 6163,
  "\u2581aient": 6164,
  "\u2581comba": 6165,
  "\u2581dunya": 6166,
  "\u2581d\u025bm\u025bn": 6167,
  "\u2581girin": 6168,
  "\u2581bisaba": 6169,
  "\u2581decemb": 6170,
  "\u2581finman": 6171,
  "\u2581hanbun": 6172,
  "m\u00e9diaire": 6173,
  "\u2581ma\u00eetres": 6174,
  "assurance": 6175,
  "\u2581y\u025br\u025bbo\u0272a": 6176,
  "\u2581cinquante": 6177,
  "bel": 6178,
  "cte": 6179,
  "c\u025bn": 6180,
  "gur": 6181,
  "\u2581n\u0251": 6182,
  "fila": 6183,
  "kogo": 6184,
  "qu\u00e9e": 6185,
  "\u2581bur": 6186,
  "xi\u00e8me": 6187,
  "\u2581b\u00eate": 6188,
  "\u2581inbe": 6189,
  "\u2581nove": 6190,
  "\u2581aimes": 6191,
  "\u2581doute": 6192,
  "\u2581fanin": 6193,
  "\u2581k\u025br\u025bn": 6194,
  "\u2581ngalon": 6195,
  "\u2581murukuw": 6196,
  "\u2581kerec\u025bnw": 6197,
  "\u2581m\u00e9chants": 6198,
  "\u2581sin\u0254g\u0254ra": 6199,
  "\u2581trouvent": 6200,
  "\u2581travaill\u00e9": 6201,
  "\u2581lesquelles": 6202,
  "nw": 6203,
  ":29": 6204,
  "ige": 6205,
  "iso": 6206,
  "om\u00e8": 6207,
  "or\u00e9": 6208,
  "\u00e8ge": 6209,
  "cili": 6210,
  "rine": 6211,
  "\u2581aza": 6212,
  "\u2581bul": 6213,
  "\u2581coo": 6214,
  "\u2581suf": 6215,
  "am\u00e9li": 6216,
  "ignor": 6217,
  "\u00e9cart": 6218,
  "\u0254r\u0254g\u0254": 6219,
  "\u2581beth": 6220,
  "\u2581mens": 6221,
  "\u2581perd": 6222,
  "inrent": 6223,
  "\u2581kol\u0254n": 6224,
  "\u2581mansa": 6225,
  "\u2581post\u00e9": 6226,
  "\u2581sijan": 6227,
  "\u2581conver": 6228,
  "\u2581envoya": 6229,
  "\u2581fitin\u025b": 6230,
  "\u2581instal": 6231,
  "\u2581lay\u0254r\u0254": 6232,
  "\u2581prince": 6233,
  "\u2581tr\u00e9sor": 6234,
  "\u2581nilif\u025bn": 6235,
  "\u2581quitter": 6236,
  "\u2581connaiss": 6237,
  "\u2581facebook": 6238,
  "\u2581arriv\u00e8rent": 6239,
  "b\u025b\u025b": 6240,
  "pes": 6241,
  "qua": 6242,
  "oser": 6243,
  "\u2581bit": 6244,
  "\u2581gu\u00e9": 6245,
  "denya": 6246,
  "\u25812019": 6247,
  "\u2581bada": 6248,
  "\u2581jina": 6249,
  "\u2581pos\u00e9": 6250,
  "\u2581scri": 6251,
  "\u2581\u00e9nor": 6252,
  "\u2581\u0272imi": 6253,
  "\u2581seuls": 6254,
  "oubliez": 6255,
  "\u258118-45.": 6256,
  "\u2581k\u0254r\u0254la": 6257,
  "\u2581k\u025bwali": 6258,
  "\u2581monter": 6259,
  "\u2581\u00e9l\u00e8ves": 6260,
  "\u2581k\u025bwalew": 6261,
  "\u2581obtenir": 6262,
  "\u2581poissons": 6263,
  "\u2581kunmab\u0254sara": 6264,
  "\u00efm": 6265,
  "bou": 6266,
  "dee": 6267,
  "\u258108": 6268,
  "enga": 6269,
  "irai": 6270,
  "yala": 6271,
  "\u2581k\u025bn": 6272,
  "r\u00e9hen": 6273,
  "\u2581agak": 6274,
  "\u2581bare": 6275,
  "\u2581d\u00e9fi": 6276,
  "\u2581mata": 6277,
  "kunb\u025bn": 6278,
  "\u2581makin": 6279,
  "\u2581tomb\u00e9": 6280,
  "approcha": 6281,
  "puissant": 6282,
  "\u2581terrain": 6283,
  "\u2581int\u00e9ress": 6284,
  "\u2581repr\u00e9sente": 6285,
  "23": 6286,
  "aan": 6287,
  "oui": 6288,
  "tar": 6289,
  "tch": 6290,
  "\u2581y\u0254": 6291,
  "gn\u00e9e": 6292,
  "ill\u00e9": 6293,
  "s\u0254li": 6294,
  "\u00e7ant": 6295,
  "\u2581kle": 6296,
  "\u2581sug": 6297,
  "aucun": 6298,
  "j\u00e9sus": 6299,
  "vaise": 6300,
  "\u2581best": 6301,
  "\u2581hier": 6302,
  "\u2581lal\u0254": 6303,
  "\u2581myst": 6304,
  "\u2581toke": 6305,
  "amiti\u00e9": 6306,
  "\u2581butun": 6307,
  "\u2581kpuro": 6308,
  "\u2581types": 6309,
  "demment": 6310,
  "\u2581faveur": 6311,
  "\u2581litres": 6312,
  "\u2581procla": 6313,
  "\u2581k\u025bl\u025bden": 6314,
  "\u2581miirila": 6315,
  "\u2581gw\u025bl\u025byaw": 6316,
  "\u2581souvenir": 6317,
  "\u2581r\u00e9jouissez": 6318,
  "/0": 6319,
  "t\u00f2": 6320,
  "era": 6321,
  "src": 6322,
  "adul": 6323,
  "cier": 6324,
  "gali": 6325,
  "mant": 6326,
  "saya": 6327,
  "\u00e9cla": 6328,
  "\u2581art": 6329,
  "\u2581cli": 6330,
  "\u2581sty": 6331,
  "\u2581c\u00e8ma": 6332,
  "\u2581proc": 6333,
  "\u25812005:": 6334,
  "\u2581culte": 6335,
  "diyanin": 6336,
  "\u2581danf\u025bn": 6337,
  "\u2581laj\u025bnw": 6338,
  "\u2581contribu": 6339,
  "\u2581jaabiliw": 6340,
  "\u2581novembre": 6341,
  "\u2581bololaf\u025bnw": 6342,
  "nis": 6343,
  "\u25815.": 6344,
  "\u2581xd": 6345,
  "ilon": 6346,
  "onie": 6347,
  "\u2581alo": 6348,
  "\u2581d\u00f2g\u00f2": 6349,
  "\u2581fier": 6350,
  "\u2581lang": 6351,
  "l\u00e8rent": 6352,
  "\u2581c\u0153urs": 6353,
  "\u2581d\u00e9fin": 6354,
  "\u2581juger": 6355,
  "\u2581kinin": 6356,
  "\u2581payer": 6357,
  "abilit\u00e9": 6358,
  "orgueil": 6359,
  "\u2581ennemi": 6360,
  "\u2581marier": 6361,
  "\u2581ny\u0254g\u0254n": 6362,
  "\u2581promis": 6363,
  "autorit\u00e9": 6364,
  "ph\u00e9siens": 6365,
  "seigneur": 6366,
  "\u2581makinwa": 6367,
  "\u2581montrer": 6368,
  "\u2581soldats": 6369,
  "\u2581nafoloba": 6370,
  "\u2581produits": 6371,
  "\u2581teris\u0254b\u025bw": 6372,
  "\u2581sarakab\u0254y\u0254r\u0254": 6373,
  "\u2581m\u0254g\u0254tilenninw": 6374,
  "cri": 6375,
  "let": 6376,
  "\u2581p\u00ea": 6377,
  "\u2581sw": 6378,
  "kiri": 6379,
  "pris": 6380,
  "tori": 6381,
  "\u2581sek": 6382,
  "\u2581bawo": 6383,
  "garamu": 6384,
  "\u2581faute": 6385,
  "\u2581c\u025bfari": 6386,
  "\u2581tintin": 6387,
  "\u2581badenma": 6388,
  "\u2581millions": 6389,
  "\u2581mondiale": 6390,
  "\u2581richesse": 6391,
  "\u2581r\u00e9compense": 6392,
  "interm\u00e9diaire": 6393,
  "zo": 6394,
  "oli": 6395,
  "aim\u00e9": 6396,
  "meau": 6397,
  "\u2581k\u025b\u025b": 6398,
  "\u2581lot": 6399,
  "\u2581poi": 6400,
  "alors": 6401,
  "\u2581tch\u00e8": 6402,
  "barras": 6403,
  "\u2581p\u00e2que": 6404,
  "enaient": 6405,
  "\u2581batoso": 6406,
  "\u2581compl\u00e8": 6407,
  "\u2581nyuman": 6408,
  "\u2581vienne": 6409,
  "\u2581\u00e9crire": 6410,
  "\u2581bamanan": 6411,
  "\u2581croyons": 6412,
  "\u2581magnifi": 6413,
  "\u2581s\u00e9parer": 6414,
  "\u2581denmis\u00e8n": 6415,
  "\u2581mauvaise": 6416,
  "\u2581p\u00e9cheurs": 6417,
  "\u00e9va": 6418,
  "\u2581fuu": 6419,
  "amori": 6420,
  "gueur": 6421,
  "taire": 6422,
  "\u2581!...": 6423,
  "\u2581cuis": 6424,
  "\u2581c\u00e9l\u00e9": 6425,
  "\u2581gars": 6426,
  "\u2581k\u00e8n\u00e8": 6427,
  "\u2581logo": 6428,
  "\u2581mode": 6429,
  "\u2581moon": 6430,
  "\u2581zuru": 6431,
  "agneau": 6432,
  "\u2581josu\u00e9": 6433,
  "\u2581multi": 6434,
  "\u2581physi": 6435,
  "\u2581r\u00e9pan": 6436,
  "\u2581topic": 6437,
  "\u2581woron": 6438,
  "\u2581arriva": 6439,
  "\u2581refus\u00e9": 6440,
  "\u2581secret": 6441,
  "\u2581mettent": 6442,
  "\u2581propres": 6443,
  "\u2581souffre": 6444,
  "\u2581disciple": 6445,
  "\u2581donnerai": 6446,
  "\u2581k\u0254n\u0254nt\u0254n": 6447,
  "\u2581malheure": 6448,
  "\u2581samarita": 6449,
  "\u2581tilenbaliya": 6450,
  "\u00ecn": 6451,
  "\u25813-": 6452,
  "appr": 6453,
  "asie": 6454,
  "bura": 6455,
  "elez": 6456,
  "ises": 6457,
  "s\u025bg\u025b": 6458,
  "quant": 6459,
  "\u0254g\u0254m\u025b": 6460,
  "\u2581dure": 6461,
  "\u2581k\u00e8l\u00e8": 6462,
  "\u2581mere": 6463,
  "\u2581nian": 6464,
  "\u2581sauf": 6465,
  "\u2581tort": 6466,
  "\u2581y\u025bg\u025b": 6467,
  "oeuvre": 6468,
  "\u2581talon": 6469,
  "\u2581repent": 6470,
  "\u2581accept\u00e9": 6471,
  "\u2581d\u00e9truit": 6472,
  "\u2581proches": 6473,
  "\u2581zurud\u025bn": 6474,
  "\u2581constitu": 6475,
  "\u2581farizi\u0272\u025bw": 6476,
  "\u0272\u0254g\u0254nkanuya": 6477,
  "\u2581banabagat\u0254w": 6478,
  "ls": 6479,
  "ud": 6480,
  "ath": 6481,
  "f\u00e8n": 6482,
  "sit": 6483,
  "zab": 6484,
  "\u2581ur": 6485,
  "cine": 6486,
  "liba": 6487,
  "obli": 6488,
  "r\u025bn\u025b": 6489,
  "uves": 6490,
  "\u2581red": 6491,
  "\u2581ste": 6492,
  "\u2581yon": 6493,
  "aurez": 6494,
  "kelen": 6495,
  "\u2581base": 6496,
  "\u2581saul": 6497,
  "\u0254r\u0254nya": 6498,
  "\u2581diver": 6499,
  "\u2581d\u00e9mar": 6500,
  "\u2581d\u0254g\u0254n": 6501,
  "gw\u025bdaf\u025b": 6502,
  "\u2581gagner": 6503,
  "\u2581lasigi": 6504,
  "\u2581nagasi": 6505,
  "\u2581verset": 6506,
  "\u2581farafin": 6507,
  "\u2581jumalon": 6508,
  "\u2581sagaden": 6509,
  "\u2581tagaman": 6510,
  "\u2581chapitre": 6511,
  "\u2581derri\u00e8re": 6512,
  "\u2581miligaramu": 6513,
  "\u00e9n": 6514,
  "bis": 6515,
  "pro": 6516,
  "\u258109": 6517,
  "\u2581tv": 6518,
  "c\u00f4te": 6519,
  "ssin": 6520,
  "\u2581hor": 6521,
  "\u2581sod": 6522,
  "\u2581tal": 6523,
  "intes": 6524,
  "ssiez": 6525,
  "\u2581mase": 6526,
  "\u2581effra": 6527,
  "\u2581ninja": 6528,
  "\u2581s\u00e9rie": 6529,
  "\u2581yinni": 6530,
  "ondance": 6531,
  "ancienne": 6532,
  "\u25812012...": 6533,
  "\u2581fassiez": 6534,
  "\u2581octobre": 6535,
  "\u2581presque": 6536,
  "\u2581comprend": 6537,
  "ank": 6538,
  "tir": 6539,
  "siri": 6540,
  "tanw": 6541,
  "\u2581bra": 6542,
  "\u2581tho": 6543,
  "istra": 6544,
  "\u2581buka": 6545,
  "\u2581dari": 6546,
  "\u2581ence": 6547,
  "\u2581f\u00e9li": 6548,
  "\u2581honn": 6549,
  "\u2581mous": 6550,
  "\u2581peau": 6551,
  "\u2581prog": 6552,
  "krista": 6553,
  "\u258113:11": 6554,
  "\u25811905.": 6555,
  "\u2581biran": 6556,
  "\u2581conte": 6557,
  "\u2581latin": 6558,
  "\u2581misira": 6559,
  "\u2581tubabu": 6560,
  "appelles": 6561,
  "\u2581jourdain": 6562,
  "\u2581retourna": 6563,
  "\u2581lafi\u0272\u025blon": 6564,
  "reg": 6565,
  "\u25815-": 6566,
  "ctri": 6567,
  "per\u00e7": 6568,
  "urez": 6569,
  "\u2581ata": 6570,
  "\u2581kp\u0251": 6571,
  "\u2581beso": 6572,
  "\u2581lani": 6573,
  "\u2581naxa": 6574,
  "\u2581tool": 6575,
  "\u2581tu\u00e9s": 6576,
  "ap\u00f4tre": 6577,
  "\u2581asiri": 6578,
  "\u2581bibli": 6579,
  "\u2581diina": 6580,
  "\u2581f\u00f2len": 6581,
  "\u2581nank\u0254": 6582,
  "arr\u00eater": 6583,
  "\u2581d\u00e9pend": 6584,
  "\u2581latig\u00e8": 6585,
  "\u2581moyens": 6586,
  "\u2581samuel": 6587,
  "\u2581accompl": 6588,
  "\u2581daganin": 6589,
  "\u2581permett": 6590,
  "\u2581setigiw": 6591,
  "\u2581s\u025bg\u025bs\u025bg\u025b": 6592,
  "\u2581merveille": 6593,
  "\u2581pentec\u00f4te": 6594,
  "isiray\u025blidenw": 6595,
  "din": 6596,
  "\u2581v\u025b": 6597,
  "avec": 6598,
  "oura": 6599,
  "qu\u00e9s": 6600,
  "\u2581mel": 6601,
  "\u2581rej": 6602,
  "\u2581shi": 6603,
  "\u2581tar": 6604,
  "entra": 6605,
  "isode": 6606,
  "\u2581boirai": 6607,
  "\u2581extr\u00e9m": 6608,
  "\u2581minanw": 6609,
  "\u2581now\u025bli": 6610,
  "\u2581palais": 6611,
  "\u2581saviez": 6612,
  "h\u00e9ritage": 6613,
  "\u2581envoy\u00e9s": 6614,
  "\u2581baaradenw": 6615,
  "\u2581faranfasi": 6616,
  "\u2581b\u00e9n\u00e9diction": 6617,
  "\u2581parfaitement": 6618,
  "12": 6619,
  "gt": 6620,
  "rode": 6621,
  "vrez": 6622,
  "yusi": 6623,
  "zuwe": 6624,
  "\u2581bam": 6625,
  "\u2581gom": 6626,
  "\u2581n\u00e9s": 6627,
  "\u2581pat": 6628,
  "kinin": 6629,
  "liers": 6630,
  "\u2581dent": 6631,
  "\u2581mac\u00e9": 6632,
  "\u2581\u00e2g\u00e9e": 6633,
  "\u2581efara": 6634,
  "\u2581talen": 6635,
  "\u2581yalor": 6636,
  "\u2581masak\u00e8": 6637,
  "\u2581yamaan": 6638,
  "\u2581esclave": 6639,
  "\u2581fagakun": 6640,
  "\u2581passage": 6641,
  "\u2581teliman": 6642,
  "accompagn": 6643,
  "veillance": 6644,
  "\u2581villages": 6645,
  "\u2581multitude": 6646,
  "\u2581tristesse": 6647,
  ":21": 6648,
  "vil": 6649,
  "\u2581ay": 6650,
  "\u2581kag": 6651,
  "\u2581t\u00f2w": 6652,
  "\u2581aloo": 6653,
  "\u2581euro": 6654,
  "\u2581jiba": 6655,
  "\u2581koro": 6656,
  "\u2581r\u00e9un": 6657,
  "\u2581sela": 6658,
  "\u2581sexu": 6659,
  "\u2581t\u025bma": 6660,
  "aimais": 6661,
  "\u2581bande": 6662,
  "\u2581bruit": 6663,
  "\u2581\u00e9gard": 6664,
  "aration": 6665,
  "\u2581consom": 6666,
  "\u2581djaman": 6667,
  "\u2581imagin": 6668,
  "\u2581jakuma": 6669,
  "\u2581months": 6670,
  "\u2581montr\u00e9": 6671,
  "\u2581origin": 6672,
  "\u2581tomber": 6673,
  "\u2581\u00e9viter": 6674,
  "\u2581essayer": 6675,
  "\u2581saamori": 6676,
  "\u2581scribes": 6677,
  "ignorance": 6678,
  "\u2581regarder": 6679,
  "\u2581senumanw": 6680,
  "\u2581wasabali": 6681,
  "\u2581bamanankan": 6682,
  "\u2581comprennent": 6683,
  "ia": 6684,
  "avi": 6685,
  "nal": 6686,
  "xin": 6687,
  "\u00eele": 6688,
  "\u0254na": 6689,
  "\u2581l\u00e2": 6690,
  "\u2581ok": 6691,
  "\u2581t\u00e2": 6692,
  "wabu": 6693,
  "\u2581c\u00f4t": 6694,
  "\u2581dia": 6695,
  "\u2581eti": 6696,
  "\u2581lac": 6697,
  "\u2581lko": 6698,
  "\u2581\u00e9vi": 6699,
  "allez": 6700,
  "ettes": 6701,
  "\u2581lion": 6702,
  "laires": 6703,
  "\u2581crier": 6704,
  "\u2581refus": 6705,
  "\u2581vigne": 6706,
  "\u2581\u00e9gaux": 6707,
  "\u2581appart": 6708,
  "\u2581finita": 6709,
  "\u2581lkoinw": 6710,
  "\u2581j\u0254nmuso": 6711,
  "\u2581princes": 6712,
  "\u2581r\u00e9alis\u00e9": 6713,
  "\u2581y\u00f2r\u00f2nin": 6714,
  "adressant": 6715,
  "\u2581retrouve": 6716,
  "\u2581t\u025bm\u025bnnen": 6717,
  "\u2581faisaient": 6718,
  "\u2581manifest\u00e9": 6719,
  "\u2581j\u025bn\u0272\u0254g\u0254nya": 6720,
  ".:": 6721,
  "lik": 6722,
  "\u258180": 6723,
  "athi": 6724,
  "onge": 6725,
  "pent": 6726,
  "sept": 6727,
  "y\u00f4r\u00f4": 6728,
  "\u0254gw\u025b": 6729,
  "\u2581d\u0254\u0254": 6730,
  "aurai": 6731,
  "doine": 6732,
  "\u2581avan": 6733,
  "\u2581koyi": 6734,
  "\u2581vict": 6735,
  "europe": 6736,
  "illent": 6737,
  "\u2581barna": 6738,
  "\u2581coupe": 6739,
  "\u2581group": 6740,
  "\u2581patri": 6741,
  "\u2581sabia": 6742,
  "\u2581d\u00e9mons": 6743,
  "\u2581d\u00e9test": 6744,
  "\u2581d\u0254\u0254nin": 6745,
  "\u2581fransi": 6746,
  "\u2581g\u00e8l\u00e8ya": 6747,
  "\u2581kisira": 6748,
  "\u2581libres": 6749,
  "\u2581longer": 6750,
  "\u2581mowabu": 6751,
  "\u2581tig\u025bra": 6752,
  "\u2581anc\u00eatres": 6753,
  "\u2581sagajigi": 6754,
  "\u2581construit": 6755,
  "\u2581richesses": 6756,
  "\u2581kuma\u0272\u0254g\u0254nya": 6757,
  "\u2581k\u025bl\u025bk\u025bminanw": 6758,
  ":49": 6759,
  "fir": 6760,
  "pha": 6761,
  "\u2581mc": 6762,
  "anie": 6763,
  "chel": 6764,
  "sili": 6765,
  "yaan": 6766,
  "\u2581ca\u00ef": 6767,
  "\u2581emb": 6768,
  "\u2581ger": 6769,
  "\u2581gwa": 6770,
  "\u2581nus": 6771,
  "\u2581r\u00e9v": 6772,
  "\u2581t\u00f9n": 6773,
  "is\u00e9es": 6774,
  "ption": 6775,
  "\u2581bori": 6776,
  "\u2581d\u0254r\u0254": 6777,
  "c\u00e8rent": 6778,
  "guille": 6779,
  "\u2581kos\u00e8b\u00e8": 6780,
  "\u2581pareil": 6781,
  "\u2581baptis\u00e9": 6782,
  "\u2581mission": 6783,
  "\u2581raisons": 6784,
  "\u2581certaine": 6785,
  "\u2581relations": 6786,
  "ev": 6787,
  "\u2581\u201c": 6788,
  "fit": 6789,
  "\u00e8le": 6790,
  "bies": 6791,
  "\u2581few": 6792,
  "\u2581lat": 6793,
  "affir": 6794,
  "faire": 6795,
  "onasi": 6796,
  "\u2581k\u00f4r\u00f4": 6797,
  "\u2581lam\u0254": 6798,
  "\u2581look": 6799,
  "\u2581nini": 6800,
  "\u2581pleu": 6801,
  "\u2581serv": 6802,
  "\u2581s\u00e8b\u00e8": 6803,
  "italie": 6804,
  "\u2581c\u00f4t\u00e9s": 6805,
  "\u2581ed\u0254mu": 6806,
  "\u2581k\u0254nin": 6807,
  "antaine": 6808,
  "\u00e9coutez": 6809,
  "\u2581dajuru": 6810,
  "\u2581eurent": 6811,
  "\u2581mari\u00e9e": 6812,
  "\u2581palest": 6813,
  "\u2581profon": 6814,
  "\u2581sanctu": 6815,
  "p\u00e9ration": 6816,
  "\u2581chanson": 6817,
  "\u2581kanulen": 6818,
  "\u2581pens\u00e9es": 6819,
  "\u2581surtout": 6820,
  "\u2581capables": 6821,
  "\u2581teliyara": 6822,
  "\u2581\u0272\u00e8namaya": 6823,
  "l\u00e9mentaires": 6824,
  "pie": 6825,
  "\u00e9ma": 6826,
  "\u2581dr": 6827,
  "\u2581eza": 6828,
  "aninw": 6829,
  "ininw": 6830,
  "ordin": 6831,
  "truis": 6832,
  "\u2581anin": 6833,
  "\u2581jet\u00e9": 6834,
  "\u2581lab\u0254": 6835,
  "\u2581pr\u00e9v": 6836,
  "\u2581toro": 6837,
  "ologie": 6838,
  "urunan": 6839,
  "\u2581d\u00e9pla": 6840,
  "\u2581pages": 6841,
  "\u2581proc\u00e9": 6842,
  "\u2581\u00e9lev\u00e9": 6843,
  "\u2581feront": 6844,
  "\u2581gardez": 6845,
  "\u2581labila": 6846,
  "\u2581single": 6847,
  "\u2581s\u00e9jour": 6848,
  "alliance": 6849,
  "enseigner": 6850,
  "\u2581s\u0254g\u0254madaf\u025b": 6851,
  "\u2581certainement": 6852,
  "ot": 6853,
  ":38": 6854,
  "\u00eene": 6855,
  "exer": 6856,
  "\u2581b\u00f2n": 6857,
  "\u2581hen": 6858,
  "gulan": 6859,
  "\u25811959": 6860,
  "\u2581fair": 6861,
  "\u2581gb\u0254n": 6862,
  "\u2581tani": 6863,
  "zuwifu": 6864,
  "\u2581biblu": 6865,
  "\u2581jonas": 6866,
  "\u2581argent": 6867,
  "\u2581k\u025by\u0254r\u0254": 6868,
  "\u2581progra": 6869,
  "\u2581succ\u00e8s": 6870,
  "\u2581chambre": 6871,
  "\u2581djamana": 6872,
  "\u2581effectu": 6873,
  "av\u00e8nement": 6874,
  "\u2581allaient": 6875,
  "\u2581d\u00e9termin": 6876,
  "\u2581patience": 6877,
  "\u2581vendredi": 6878,
  "\u2581mac\u00e9doine": 6879,
  "\u2581caract\u00e9ris": 6880,
  "j\u025b": 6881,
  ":44": 6882,
  "m\u0254\u0254": 6883,
  "\u0300r\u0254": 6884,
  "agir": 6885,
  "gban": 6886,
  "mit\u00e9": 6887,
  "moin": 6888,
  "tiez": 6889,
  "tiri": 6890,
  "\u2581c\u025b\u0300": 6891,
  "\u2581dum": 6892,
  "\u2581kur": 6893,
  "\u2581lor": 6894,
  "diyan": 6895,
  "\u2581b\u0254g\u0254": 6896,
  "\u2581jala": 6897,
  "\u2581kaun": 6898,
  "\u2581odds": 6899,
  "\u258114:17": 6900,
  "\u2581beyen": 6901,
  "\u2581clair": 6902,
  "\u2581dating": 6903,
  "\u2581saninw": 6904,
  "\u2581sauv\u00e9e": 6905,
  "\u2581tribus": 6906,
  "\u2581parfait": 6907,
  "\u2581cr\u00e9ature": 6908,
  "\u2581centaines": 6909,
  "\u2581formation": 6910,
  "\u2581vingtaine": 6911,
  "\u2581kowagarazu": 6912,
  "40": 6913,
  "rr": 6914,
  "ty": 6915,
  "\u25816-": 6916,
  "\u2581s\u00f9": 6917,
  "gnan": 6918,
  "k\u00e8la": 6919,
  "omin": 6920,
  "ouff": 6921,
  "tive": 6922,
  "ushi": 6923,
  "\u2581n\u00e9e": 6924,
  "\u2581sco": 6925,
  "chons": 6926,
  "t\u0254\u0254r\u0254": 6927,
  "zi\u00e8me": 6928,
  "\u2581adop": 6929,
  "\u2581bour": 6930,
  "\u2581h\u00e8r\u00e8": 6931,
  "\u2581jogo": 6932,
  "\u2581koun": 6933,
  "\u2581tels": 6934,
  "\u2581vies": 6935,
  "essaie": 6936,
  "y\u025bl\u025bma": 6937,
  "\u2581chers": 6938,
  "\u2581convi": 6939,
  "\u2581leele": 6940,
  "\u2581terme": 6941,
  "\u2581weeks": 6942,
  "absence": 6943,
  "\u2581batoli": 6944,
  "\u2581mu\u0272uli": 6945,
  "habitude": 6946,
  "\u2581h\u00e9breux": 6947,
  "\u2581nourris": 6948,
  "\u2581wagatiw": 6949,
  "\u00e9ducation": 6950,
  "\u2581c\u025bk\u0254r\u0254ba": 6951,
  "\u2581interdit": 6952,
  "\u2581pr\u00e9sents": 6953,
  "\u2581r\u00e9veill\u00e9": 6954,
  "\u2581enseigner": 6955,
  "\u2581extr\u00e9mit\u00e9s": 6956,
  "22": 6957,
  "ami": 6958,
  "\u258162": 6959,
  "daga": 6960,
  "\u2581hin": 6961,
  "\u2581ph\u00e9": 6962,
  "\u2581pur": 6963,
  "\u2581amun": 6964,
  "\u2581auto": 6965,
  "\u2581bann": 6966,
  "\u2581b\u0254ni": 6967,
  "\u2581jaaw": 6968,
  "\u2581jera": 6969,
  "\u2581occu": 6970,
  "aimait": 6971,
  "k\u025by\u0254r\u0254": 6972,
  "\u2581divin": 6973,
  "\u2581fuite": 6974,
  "\u2581baiser": 6975,
  "\u2581rest\u00e9e": 6976,
  "\u2581v\u025brise": 6977,
  "\u2581\u0272\u025byira": 6978,
  "\u2581partage": 6979,
  "\u2581ressemb": 6980,
  "\u2581devaient": 6981,
  "\u2581duurunan": 6982,
  "\u2581troupeau": 6983,
  "accompagne": 6984,
  "\u2581denmis\u00e8nw": 6985,
  "\u2581respecter": 6986,
  "\u2581m\u0254g\u0254fagala": 6987,
  "\u2581participer": 6988,
  "\u2581prisonniers": 6989,
  "?'": 6990,
  "_.": 6991,
  "rg": 6992,
  "ink": 6993,
  "tta": 6994,
  "\u2581??": 6995,
  "\u2581l\u00ec": 6996,
  "assi": 6997,
  "body": 6998,
  "dant": 6999,
  "oure": 7000,
  "unan": 7001,
  "\u00e8mes": 7002,
  "\u2581m\u00e9c": 7003,
  "appar": 7004,
  "ress\u00e9": 7005,
  "\u2581b\u025br\u025b": 7006,
  "\u2581dala": 7007,
  "\u2581esp\u00e9": 7008,
  "\u2581etre": 7009,
  "\u2581jang": 7010,
  "\u2581kof\u0254": 7011,
  "\u2581kore": 7012,
  "\u2581sabe": 7013,
  "\u2581tig\u00e8": 7014,
  "\u2581t\u00f4g\u00f4": 7015,
  "associ": 7016,
  "\u2581bwisi": 7017,
  "\u2581cr\u00e9er": 7018,
  "\u2581haute": 7019,
  "\u2581itali": 7020,
  "\u2581provo": 7021,
  "\u2581r\u00e9fle": 7022,
  "\u2581\u00e9tais": 7023,
  "\u2581consid": 7024,
  "\u2581modifi": 7025,
  "\u2581taille": 7026,
  "\u2581t\u00e9moin": 7027,
  "\u2581zonasi": 7028,
  "attendre": 7029,
  "\u2581adolesc": 7030,
  "\u2581kibaari": 7031,
  "\u2581lonanya": 7032,
  "\u2581version": 7033,
  "\u2581suivante": 7034,
  "\u2581telef\u0254ni": 7035,
  "\u2581trouverez": 7036,
  "\u2581conditions": 7037,
  ".3": 7038,
  "16": 7039,
  "\u00e2t": 7040,
  "gu\u00e8": 7041,
  "\u2581n\u00e8": 7042,
  "affi": 7043,
  "sent": 7044,
  "\u2581._.": 7045,
  "\u2581ate": 7046,
  "\u2581bha": 7047,
  "\u2581job": 7048,
  "autel": 7049,
  "ereur": 7050,
  "\u2581egil": 7051,
  "\u2581enga": 7052,
  "\u2581exer": 7053,
  "\u2581fiye": 7054,
  "\u2581hate": 7055,
  "\u2581kila": 7056,
  "imagin": 7057,
  "rences": 7058,
  "\u2581cess\u00e9": 7059,
  "\u2581convo": 7060,
  "assurer": 7061,
  "\u2581sebari": 7062,
  "\u2581teric\u025b": 7063,
  "\u2581tuguni": 7064,
  "\u2581annonce": 7065,
  "\u2581\u00e9couter": 7066,
  "\u2581douleurs": 7067,
  "\u2581nyininka": 7068,
  "\u2581r\u00e9sultat": 7069,
  "\u2581furu\u0272\u0254g\u0254n": 7070,
  "weh": 7071,
  "\u00e9ro": 7072,
  "\u2581ky": 7073,
  "\u2581t\u00e0": 7074,
  "huma": 7075,
  "lles": 7076,
  "\u2581103": 7077,
  "\u2581agi": 7078,
  "\u2581hel": 7079,
  "\u2581kod": 7080,
  "\u2581ng\u0254": 7081,
  "\u2581tee": 7082,
  "lever": 7083,
  "\u2581f\u0254li": 7084,
  "\u2581gof\u025b": 7085,
  "\u2581kizu": 7086,
  "\u2581soro": 7087,
  "\u2581star": 7088,
  "\u2581capac": 7089,
  "\u2581dimin": 7090,
  "\u2581janfa": 7091,
  "\u2581maraw": 7092,
  "\u2581r\u00e9con": 7093,
  "\u2581siens": 7094,
  "\u2581action": 7095,
  "\u2581chance": 7096,
  "\u2581day\u025bl\u025b": 7097,
  "\u2581destru": 7098,
  "\u2581duguba": 7099,
  "\u2581pleine": 7100,
  "emp\u00eacher": 7101,
  "interpr\u00e9": 7102,
  "\u2581donnent": 7103,
  "\u2581annoncer": 7104,
  "\u2581bangebagaw": 7105,
  "gh": 7106,
  "bur": 7107,
  "eta": 7108,
  "mat": 7109,
  "\u00ecla": 7110,
  "\u0254r\u025b": 7111,
  "\u258103": 7112,
  "\u2581w\u00f9": 7113,
  "ires": 7114,
  "\u2581env": 7115,
  "\u2581gbe": 7116,
  "\u2581hii": 7117,
  "\u2581low": 7118,
  "pital": 7119,
  "\u2581doct": 7120,
  "\u2581doma": 7121,
  "\u2581onze": 7122,
  "\u2581suit": 7123,
  "\u2581s\u0254s\u0254": 7124,
  "\u2581tech": 7125,
  "ignait": 7126,
  "\u2581kablo": 7127,
  "\u2581renon": 7128,
  "\u2581r\u00e9vol": 7129,
  "\u2581video": 7130,
  "arriver": 7131,
  "quement": 7132,
  "\u2581cacher": 7133,
  "\u2581erreur": 7134,
  "\u2581fan\u014bga": 7135,
  "\u2581march\u00e9": 7136,
  "\u2581suffit": 7137,
  "\u2581vision": 7138,
  "\u2581anglais": 7139,
  "\u2581chameau": 7140,
  "\u2581ezekiel": 7141,
  "\u2581mani\u00e8res": 7142,
  "\u2581m\u0254g\u0254balu": 7143,
  "\u2581partager": 7144,
  "\u2581position": 7145,
  "\u2581\u0272agamina": 7146,
  "\u2581sanctuaire": 7147,
  "1,": 7148,
  "ies": 7149,
  "sen": 7150,
  "\u00een\u00e9": 7151,
  "\u2581tw": 7152,
  "avis": 7153,
  "cons": 7154,
  "gn\u00e9s": 7155,
  "rira": 7156,
  "\u25811:8": 7157,
  "\u2581bang": 7158,
  "\u2581f\u00f2ra": 7159,
  "\u2581m\u00e2le": 7160,
  "\u2581nat\u0254": 7161,
  "\u2581wale": 7162,
  "\u2581yoli": 7163,
  "itemba": 7164,
  "onnant": 7165,
  "\u2581aloof": 7166,
  "\u2581coura": 7167,
  "\u2581d\u00e9liv": 7168,
  "\u2581d\u00e9mon": 7169,
  "\u2581lever": 7170,
  "\u2581norma": 7171,
  "\u2581venez": 7172,
  "\u2581isra\u00e8l": 7173,
  "\u2581kolati": 7174,
  "\u2581lafiya": 7175,
  "\u2581miseli": 7176,
  "\u2581m\u0254\u0254ilu": 7177,
  "\u2581crurent": 7178,
  "\u2581interro": 7179,
  "\u2581kotoolu": 7180,
  "\u2581passion": 7181,
  "\u2581rentrer": 7182,
  "\u2581aliments": 7183,
  "\u2581pourront": 7184,
  "\u2581samuy\u025bli": 7185,
  "\u2581sekitemba": 7186,
  "\u2581cons\u00e9quent": 7187,
  "\u2581synagogues": 7188,
  "\u014b\u0254": 7189,
  "an\u00e9": 7190,
  "ful": 7191,
  "ias": 7192,
  "zam": 7193,
  "aveu": 7194,
  "cale": 7195,
  "kunu": 7196,
  "acc\u00e8s": 7197,
  "cient": 7198,
  "saint": 7199,
  "tr\u00eame": 7200,
  "diyara": 7201,
  "hommes": 7202,
  "phra\u00efm": 7203,
  "\u2581bolow": 7204,
  "\u2581b\u025b\u025bri": 7205,
  "\u2581emplo": 7206,
  "\u2581expri": 7207,
  "\u2581gagn\u00e9": 7208,
  "\u2581haine": 7209,
  "\u2581sagaw": 7210,
  "\u2581salon": 7211,
  "\u2581veuve": 7212,
  "\u2581barque": 7213,
  "\u2581habite": 7214,
  "\u2581senuma": 7215,
  "\u2581enti\u00e8re": 7216,
  "\u2581jurumuw": 7217,
  "\u2581nalonma": 7218,
  "\u2581voisins": 7219,
  "\u2581puissances": 7220,
  "\u2581\u00e9v\u00e9nements": 7221,
  "\u2581difficult\u00e9s": 7222,
  "\u2581internation": 7223,
  ":35": 7224,
  "\u0254si": 7225,
  "\u25812,": 7226,
  "\u25818-": 7227,
  "\u2581ez": 7228,
  "\u2581y\u0251": 7229,
  "dans": 7230,
  "eter": 7231,
  "\u2581lai": 7232,
  "\u2581sit": 7233,
  "\u2581f\u0254x\u0254": 7234,
  "\u2581kili": 7235,
  "\u2581s\u0254ng": 7236,
  "\u2581vari": 7237,
  "\u25816.000": 7238,
  "\u2581sache": 7239,
  "\u2581salle": 7240,
  "\u2581classe": 7241,
  "\u2581gu\u00e9ris": 7242,
  "\u2581lafili": 7243,
  "\u2581crucifi": 7244,
  "\u2581d\u00e9c\u00e9d\u00e9e": 7245,
  "\u2581juguman": 7246,
  "\u2581pensais": 7247,
  "\u2581secours": 7248,
  "\u2581sixi\u00e8me": 7249,
  "affection": 7250,
  "\u2581agr\u00e9able": 7251,
  "\u2581heureuse": 7252,
  "\u2581r\u00e9pondra": 7253,
  "\u2581dugum\u0254g\u0254w": 7254,
  "\u2581kongosogo": 7255,
  "\u2581reviendrai": 7256,
  "xo": 7257,
  "nge": 7258,
  "\u258104": 7259,
  "k\u0254ti": 7260,
  "oise": 7261,
  "raid": 7262,
  "\u00e8nes": 7263,
  "\u2581fir": 7264,
  "\u2581kp\u0129": 7265,
  "\u2581lay": 7266,
  "ri\u00e8me": 7267,
  "verse": 7268,
  "\u2581gaza": 7269,
  "\u2581hehe": 7270,
  "\u2581pr\u00e9t": 7271,
  "\u2581t\u0254\u0254n": 7272,
  "itesse": 7273,
  "\u2581benna": 7274,
  "\u2581rouge": 7275,
  "\u2581tando": 7276,
  "\u2581\u00e9pous": 7277,
  "inabasi": 7278,
  "\u2581afraid": 7279,
  "\u2581champs": 7280,
  "\u2581dennin": 7281,
  "\u2581foules": 7282,
  "\u2581hadama": 7283,
  "\u2581nouvel": 7284,
  "\u2581r\u00e9pand": 7285,
  "eusement": 7286,
  "\u2581joindre": 7287,
  "\u2581matin\u00e9e": 7288,
  "\u2581prenons": 7289,
  "\u2581ressent": 7290,
  "\u2581sabemos": 7291,
  "\u2581condamn\u00e9": 7292,
  "\u2581dusukunna": 7293,
  "\u2581t\u00e9l\u00e9phone": 7294,
  "\u2581barikamanw": 7295,
  "\"?": 7296,
  "19": 7297,
  "25": 7298,
  "\u00fcm": 7299,
  "awu": 7300,
  "eil": 7301,
  "esi": 7302,
  "gen": 7303,
  "hou": 7304,
  "ss\u00e9": 7305,
  "\u2581\u025bn": 7306,
  "diti": 7307,
  "\u2581apo": 7308,
  "\u2581exh": 7309,
  "\u2581fr\u00e9": 7310,
  "\u2581kui": 7311,
  "\u2581lal": 7312,
  "\u2581oeu": 7313,
  "\u2581one": 7314,
  "quit\u00e9": 7315,
  "rieux": 7316,
  "\u00e9tend": 7317,
  "\u2581c\u00e9l\u00e8": 7318,
  "\u2581diko": 7319,
  "\u2581dite": 7320,
  "\u2581gwen": 7321,
  "\u2581joue": 7322,
  "\u2581kena": 7323,
  "\u2581k\u025bta": 7324,
  "\u2581syri": 7325,
  "\u2581v\u00e9hi": 7326,
  "\u2581\u00e9par": 7327,
  "bariya": 7328,
  "orient": 7329,
  "\u2581chiff": 7330,
  "\u2581emmen": 7331,
  "\u2581h\u00e9rit": 7332,
  "\u2581kuman": 7333,
  "ara\u00eetre": 7334,
  "attache": 7335,
  "biesage": 7336,
  "\u2581apprit": 7337,
  "\u2581compos": 7338,
  "\u2581comp\u00e9t": 7339,
  "\u2581membre": 7340,
  "\u2581mettez": 7341,
  "\u2581offrir": 7342,
  "\u2581perdre": 7343,
  "\u2581appel\u00e9e": 7344,
  "\u2581chanter": 7345,
  "\u2581compter": 7346,
  "\u2581zonatan": 7347,
  "int\u00e9resse": 7348,
  "\u2581parfaite": 7349,
  "\u2581d\u00e9cisions": 7350,
  "\u2581kantigiya": 7351,
  "\u2581politique": 7352,
  "\u2581\u0272agaminin": 7353,
  "\u2581uniquement": 7354,
  "\u2581mboobiesage": 7355,
  ".-": 7356,
  "bii": 7357,
  "lot": 7358,
  "pan": 7359,
  "\u25813:": 7360,
  "\u25818.": 7361,
  "ards": 7362,
  "heli": 7363,
  "\u2581gna": 7364,
  "\u2581jal": 7365,
  "\u2581reb": 7366,
  "\u00e9l\u00e8ve": 7367,
  "\u2581aman": 7368,
  "\u2581assa": 7369,
  "\u2581batt": 7370,
  "\u2581domu": 7371,
  "\u2581kayi": 7372,
  "\u2581lage": 7373,
  "\u2581miss": 7374,
  "\u2581musi": 7375,
  "\u2581m\u0254ni": 7376,
  "\u2581ruti": 7377,
  "\u2581semb": 7378,
  "vision": 7379,
  "\u2581extra": 7380,
  "\u2581offre": 7381,
  "\u2581sina\u00ef": 7382,
  "\u2581swali": 7383,
  "h\u0254r\u0254nya": 7384,
  "\u0272asiran": 7385,
  "\u2581brebis": 7386,
  "\u2581joueur": 7387,
  "\u2581l\u00e8vres": 7388,
  "\u2581minist": 7389,
  "\u2581vivent": 7390,
  "\u2581atteint": 7391,
  "\u2581jamanaw": 7392,
  "\u2581kabirin": 7393,
  "\u2581labanna": 7394,
  "interroge": 7395,
  "\u2581baptiser": 7396,
  "\u2581entendit": 7397,
  "\u2581kizuushi": 7398,
  "\u2581pourriez": 7399,
  "\u2581\u00e9tranger": 7400,
  "\u2581\u0272\u025byirali": 7401,
  "\u2581post\u00e9rit\u00e9": 7402,
  "\u014b\u025b": 7403,
  "daf": 7404,
  "vor": 7405,
  "daan": 7406,
  "djan": 7407,
  "\u2581cle": 7408,
  "\u2581ide": 7409,
  "\u2581imm": 7410,
  "k\u00e8law": 7411,
  "\u2581psau": 7412,
  "\u2581sida": 7413,
  "g\u025bninw": 7414,
  "\u2581fabri": 7415,
  "\u2581f\u025b\u025bnw": 7416,
  "\u2581jeter": 7417,
  "\u2581lutte": 7418,
  "anglais": 7419,
  "\u2581corres": 7420,
  "\u2581eburuw": 7421,
  "\u2581mod\u00e8le": 7422,
  "\u2581pr\u00e9nom": 7423,
  "\u2581rest\u00e9s": 7424,
  "\u2581soyons": 7425,
  "\u2581teriya": 7426,
  "exprimer": 7427,
  "\u2581groupes": 7428,
  "\u2581silence": 7429,
  "\u2581command\u00e9": 7430,
  "\u2581kabakoma": 7431,
  "\u2581tununinw": 7432,
  "\u2581latig\u025bnin": 7433,
  "dugugw\u025bdaf\u025b": 7434,
  "\u2581professeur": 7435,
  "fil": 7436,
  "\u2581km": 7437,
  "char": 7438,
  "insi": 7439,
  "labo": 7440,
  "onom": 7441,
  "y\u0254ti": 7442,
  "\u25812:4": 7443,
  "\u2581tha": 7444,
  "am\u00e9ri": 7445,
  "isaac": 7446,
  "qu\u00eate": 7447,
  "vit\u00e9s": 7448,
  "\u2581b\u00f2ra": 7449,
  "\u2581pri\u00e9": 7450,
  "foroko": 7451,
  "\u2581benja": 7452,
  "\u2581nyana": 7453,
  "\u2581pains": 7454,
  "\u2581peter": 7455,
  "\u2581style": 7456,
  "appr\u00e9ci": 7457,
  "\u2581cadeau": 7458,
  "\u2581distri": 7459,
  "\u2581edited": 7460,
  "\u2581k\u0254r\u0254f\u0254": 7461,
  "\u2581r\u00e9v\u00e9l\u00e9": 7462,
  "\u2581faibles": 7463,
  "\u2581r\u00e9jouit": 7464,
  "\u2581termin\u00e9": 7465,
  "\u2581victime": 7466,
  "\u2581arrivent": 7467,
  "\u2581ministre": 7468,
  "\u2581sigasiga": 7469,
  "\u2581transfor": 7470,
  "\u2581ezipitikaw": 7471,
  "8.": 7472,
  "bow": 7473,
  "gb\u025b": 7474,
  "\u2581uf": 7475,
  "\u2581r\u00e9g": 7476,
  "\u2581sai": 7477,
  "joint": 7478,
  "verra": 7479,
  "\u2581atti": 7480,
  "\u2581docu": 7481,
  "\u2581draw": 7482,
  "\u2581fron": 7483,
  "\u2581m\u0254ru": 7484,
  "\u2581sako": 7485,
  "\u2581dungu": 7486,
  "\u2581ibura": 7487,
  "\u2581jouer": 7488,
  "\u2581j\u0254nc\u025b": 7489,
  "\u2581m\u0254\u0300g\u0254": 7490,
  "\u2581objet": 7491,
  "\u2581passa": 7492,
  "\u2581trait": 7493,
  "\u2581commet": 7494,
  "\u2581daraka": 7495,
  "\u2581dessus": 7496,
  "\u2581messie": 7497,
  "\u2581telles": 7498,
  "\u2581zozuwe": 7499,
  "\u2581pourrez": 7500,
  "\u2581propose": 7501,
  "\u2581tileben": 7502,
  "\u2581fantanya": 7503,
  "\u2581halakira": 7504,
  "\u2581services": 7505,
  "\u2581r\u00e9f\u00e9rence": 7506,
  "ft": 7507,
  "p\u025b": 7508,
  "\u2581\u00f9": 7509,
  "\u258106": 7510,
  "arna": 7511,
  "caux": 7512,
  "cept": 7513,
  "ens\u00e9": 7514,
  "gwen": 7515,
  "tume": 7516,
  "unin": 7517,
  "\u2581not": 7518,
  "\u2581ump": 7519,
  "\u2581\u00e9mo": 7520,
  "gramu": 7521,
  "\u2581dili": 7522,
  "\u2581gnon": 7523,
  "\u2581g\u00e8r\u00e8": 7524,
  "\u2581hypo": 7525,
  "\u2581yahu": 7526,
  "\u2581calme": 7527,
  "\u2581fixes": 7528,
  "\u2581mises": 7529,
  "\u2581mouve": 7530,
  "acheter": 7531,
  "fection": 7532,
  "obtenir": 7533,
  "\u2581nafama": 7534,
  "\u2581vivons": 7535,
  "\u2581welela": 7536,
  "\u2581yahweh": 7537,
  "\u2581gbasaya": 7538,
  "\u2581ladiliw": 7539,
  "\u2581lettres": 7540,
  "\u2581mansaya": 7541,
  "denyabolo": 7542,
  "\u2581porogramu": 7543,
  "!\u203a": 7544,
  "\u03b5\u03b5": 7545,
  ":32": 7546,
  "jii": 7547,
  "\u2581mm": 7548,
  "dres": 7549,
  "enfu": 7550,
  "lure": 7551,
  "masu": 7552,
  "rets": 7553,
  "risi": 7554,
  "\u2581azi": 7555,
  "\u2581b\u00e0a": 7556,
  "\u2581eka": 7557,
  "\u2581yeu": 7558,
  "cario": 7559,
  "\u2581ligi": 7560,
  "\u2581moto": 7561,
  "\u2581mute": 7562,
  "dirent": 7563,
  "\u00e9crire": 7564,
  "\u25812004.": 7565,
  "\u2581buvez": 7566,
  "\u2581kabak": 7567,
  "\u2581russi": 7568,
  "\u2581seize": 7569,
  "oreille": 7570,
  "\u2581achev\u00e9": 7571,
  "\u2581fiyewu": 7572,
  "\u2581forces": 7573,
  "\u2581jamaba": 7574,
  "\u2581mannin": 7575,
  "\u2581refuse": 7576,
  "\u2581sinayi": 7577,
  "\u2581sodome": 7578,
  "\u2581s\u0254t\u0254ma": 7579,
  "\u2581\u014baniya": 7580,
  "\u2581condol\u00e9": 7581,
  "\u2581croyant": 7582,
  "\u2581dizaine": 7583,
  "\u2581iscario": 7584,
  "adamadenw": 7585,
  "\u2581demeures": 7586,
  "\u2581gwengwen": 7587,
  "\u2581prot\u00e9ger": 7588,
  "ob\u00e9issance": 7589,
  "\u2581propri\u00e9ta": 7590,
  "anniversaire": 7591,
  "\u2581possibilit\u00e9": 7592,
  "gs": 7593,
  "\u25812=": 7594,
  "\u258164": 7595,
  "\u2581^^": 7596,
  "\u2581hy": 7597,
  "\u2581m\u00e1": 7598,
  "endi": 7599,
  "ving": 7600,
  "\u2581bai": 7601,
  "\u2581fui": 7602,
  "\u2581gos": 7603,
  "\u2581iss": 7604,
  "\u2581p\u0254r": 7605,
  "\u2581xan": 7606,
  "onnon": 7607,
  "pante": 7608,
  "\u2581anni": 7609,
  "\u2581bian": 7610,
  "\u2581gnan": 7611,
  "\u2581ka\u0272i": 7612,
  "\u2581kiss": 7613,
  "\u2581sawa": 7614,
  "mannin": 7615,
  "\u2581for\u00eat": 7616,
  "\u2581couple": 7617,
  "\u2581dirais": 7618,
  "\u2581umpama": 7619,
  "\u2581wotoro": 7620,
  "\u2581\u00e9chapp": 7621,
  "\u2581devenue": 7622,
  "\u2581g\u00e9n\u00e9ral": 7623,
  "\u2581kibaruya": 7624,
  "\u2581recevrez": 7625,
  "\u2581victoire": 7626,
  "\u2581farafinna": 7627,
  "\u2581galontig\u025b": 7628,
  "\u2581fadenyabolo": 7629,
  "\u2581actuellement": 7630,
  "\u2581connaissances": 7631,
  ",,": 7632,
  "k\u025bn": 7633,
  "\u2581f\u00e0": 7634,
  "\u2581m\u00e8": 7635,
  "ceau": 7636,
  "haut": 7637,
  "vidu": 7638,
  "\u2581???": 7639,
  "\u2581afi": 7640,
  "\u2581her": 7641,
  "chiez": 7642,
  "ens\u00e9s": 7643,
  "\u2581dila": 7644,
  "\u2581moab": 7645,
  "\u2581nota": 7646,
  "\u2581vain": 7647,
  "alit\u00e9s": 7648,
  "ancien": 7649,
  "\u2581boule": 7650,
  "\u2581jerus": 7651,
  "\u2581sanda": 7652,
  "\u2581thank": 7653,
  "\u2581devint": 7654,
  "\u2581fourni": 7655,
  "\u2581tanuli": 7656,
  "\u2581\u0272\u0254g\u0254m\u025b": 7657,
  "empereur": 7658,
  "\u2581biranc\u025b": 7659,
  "\u2581f\u025bntigi": 7660,
  "\u2581moisson": 7661,
  "\u2581moments": 7662,
  "\u2581tombeau": 7663,
  "\u2581benjamin": 7664,
  "\u2581distance": 7665,
  "\u2581efficace": 7666,
  "\u2581explique": 7667,
  "\u2581minnif\u025bn": 7668,
  "\u2581sinik\u025bn\u025b": 7669,
  "\u2581victimes": 7670,
  "\u2581retrouver": 7671,
  "\u2581ala\u0272asiran": 7672,
  "\u2581adolescents": 7673,
  "\u2581\u300c": 7674,
  "enc": 7675,
  "eno": 7676,
  "ira": 7677,
  "\u2581az": 7678,
  "bini": 7679,
  "rase": 7680,
  "tika": 7681,
  "vons": 7682,
  "\u258120.": 7683,
  "\u258150.": 7684,
  "\u2581eye": 7685,
  "\u2581kee": 7686,
  "\u2581l\u025b\u025b": 7687,
  "\u2581yeh": 7688,
  "istan": 7689,
  "ouest": 7690,
  "\u2581bran": 7691,
  "\u2581r\u00e9gu": 7692,
  "\u2581sann": 7693,
  "\u2581yeuh": 7694,
  "\u2581\u0272ada": 7695,
  "itaire": 7696,
  "\u2581diyan": 7697,
  "\u2581d\u00f2r\u00f2n": 7698,
  "\u2581futur": 7699,
  "\u2581prati": 7700,
  "\u2581caract": 7701,
  "\u2581filipi": 7702,
  "\u2581yafara": 7703,
  "\u2581yanfan": 7704,
  "\u2581aveugle": 7705,
  "\u2581faamuya": 7706,
  "\u2581gratuit": 7707,
  "\u2581instant": 7708,
  "\u2581masac\u025bw": 7709,
  "\u2581poss\u00e8de": 7710,
  "\u2581raconte": 7711,
  "\u2581si\u00e8cles": 7712,
  "existence": 7713,
  "\u2581commen\u00e7a": 7714,
  "\u2581dusukunw": 7715,
  "\u2581folofolo": 7716,
  "\u2581internet": 7717,
  "\u2581seraient": 7718,
  "\u2581adamadenya": 7719,
  "2.": 7720,
  "f\u00f2": 7721,
  "got": 7722,
  "ilo": 7723,
  "zon": 7724,
  "\u258101": 7725,
  "\u2581k\u00ea": 7726,
  "\u2581l\u00f4": 7727,
  "pect": 7728,
  "saba": 7729,
  "t\u025bli": 7730,
  "\u2581194": 7731,
  "\u2581mad": 7732,
  "\u2581bile": 7733,
  "\u2581join": 7734,
  "kisili": 7735,
  "mankan": 7736,
  "ziyasi": 7737,
  "\u2581alako": 7738,
  "\u2581croya": 7739,
  "\u2581expli": 7740,
  "\u2581findi": 7741,
  "\u2581ordre": 7742,
  "\u2581roman": 7743,
  "\u2581sc\u00e8ne": 7744,
  "\u2581stup\u00e9": 7745,
  "\u2581\u00e2g\u00e9es": 7746,
  "\u2581jigit\u0254": 7747,
  "\u2581k\u0254k\u025bn\u025b": 7748,
  "\u2581k\u0254\u0272\u0254ya": 7749,
  "\u2581lahara": 7750,
  "\u2581risque": 7751,
  "issaient": 7752,
  "\u2581disparu": 7753,
  "\u2581dugunin": 7754,
  "\u2581d\u00e9fense": 7755,
  "\u2581prirent": 7756,
  "\u2581comprends": 7757,
  "\u2581lasigiden": 7758,
  "\u2581minist\u00e8re": 7759,
  "\u2581woronwula": 7760,
  "\u2581barikatanw": 7761,
  "\u2581changement": 7762,
  "\u2581importante": 7763,
  "\u2581nazar\u025btika": 7764,
  "\u2581karam\u0254g\u0254denw": 7765,
  "\u2581\u20ac": 7766,
  "ked": 7767,
  "\u2581(1": 7768,
  "auto": 7769,
  "rale": 7770,
  "s\u0254t\u0254": 7771,
  "\u00e9ner": 7772,
  "\u258118;": 7773,
  "\u2581eng": 7774,
  "\u2581n\u00ecn": 7775,
  "\u2581plu": 7776,
  "laban": 7777,
  "\u2581bale": 7778,
  "\u2581j\u025bg\u025b": 7779,
  "\u2581rose": 7780,
  "\u2581sika": 7781,
  "\u2581soup": 7782,
  "\u2581yuun": 7783,
  "\u2581\u00e2g\u00e9s": 7784,
  "\u2581banan": 7785,
  "\u2581grave": 7786,
  "\u2581nataw": 7787,
  "\u2581souve": 7788,
  "essalon": 7789,
  "\u2581beaut\u00e9": 7790,
  "\u2581bet\u025bli": 7791,
  "\u2581d\u025bs\u025bra": 7792,
  "\u2581limite": 7793,
  "\u2581pleurs": 7794,
  "\u2581sortis": 7795,
  "\u2581venues": 7796,
  "\u2581yaraga": 7797,
  "kariy\u0254ti": 7798,
  "\u2581amas\u0254t\u0254": 7799,
  "\u2581jiginni": 7800,
  "\u2581patient": 7801,
  "\u2581pensent": 7802,
  "pantek\u0254ti": 7803,
  "\u2581contr\u00f4le": 7804,
  "\u2581enceinte": 7805,
  "\u2581kasodenw": 7806,
  "\u2581lesquels": 7807,
  "\u2581oreilles": 7808,
  "\u2581souffrir": 7809,
  "\u2581attendant": 7810,
  "\u2581g\u00e9n\u00e9ration": 7811,
  "\u2581isra\u025bldenw": 7812,
  "\u2581t\u00e9l\u00e9vision": 7813,
  "\u0251n": 7814,
  "\u025bni": 7815,
  "dali": 7816,
  "h\u025br\u025b": 7817,
  "\u2581ade": 7818,
  "\u2581dol": 7819,
  "\u2581ena": 7820,
  "\u2581eni": 7821,
  "\u2581mio": 7822,
  "\u2581zhe": 7823,
  "athan": 7824,
  "ti\u00e8re": 7825,
  "\u25813:16": 7826,
  "\u2581doni": 7827,
  "\u2581g\u0254\u0254n": 7828,
  "\u2581jusu": 7829,
  "\u2581sali": 7830,
  "\u2581sana": 7831,
  "\u2581s\u0254g\u0254": 7832,
  "\u2581xili": 7833,
  "k\u0254r\u0254ta": 7834,
  "offrir": 7835,
  "\u2581achet": 7836,
  "\u2581banba": 7837,
  "\u2581boleh": 7838,
  "\u2581d\u00e9c\u00e8s": 7839,
  "\u2581kelly": 7840,
  "\u2581l\u0254nni": 7841,
  "\u2581adulte": 7842,
  "\u2581cin\u00e9ma": 7843,
  "\u2581devoir": 7844,
  "\u2581enlev\u00e9": 7845,
  "\u2581israel": 7846,
  "\u2581m\u00e9pris": 7847,
  "\u2581pleure": 7848,
  "\u2581poursu": 7849,
  "\u2581saison": 7850,
  "\u2581tenait": 7851,
  "\u2581t\u0254\u0254r\u0254w": 7852,
  "\u2581corresp": 7853,
  "\u2581gentils": 7854,
  "\u2581hauteur": 7855,
  "\u2581kalanso": 7856,
  "\u2581dubadenw": 7857,
  "\u2581glorifi\u00e9": 7858,
  "\u2581retourn\u00e9": 7859,
  "\u2581veuillez": 7860,
  "\u2581condition": 7861,
  "\u2581demandent": 7862,
  "\u2581farisi\u00e8nw": 7863,
  "\u2581permettre": 7864,
  "\u2581firiyamuso": 7865,
  "\u2581protection": 7866,
  "waa": 7867,
  "\u2581aj": 7868,
  "ramu": 7869,
  "\u2581dao": 7870,
  "\u2581dus": 7871,
  "\u2581gak": 7872,
  "accro": 7873,
  "\u25812016": 7874,
  "\u2581bird": 7875,
  "\u2581bobo": 7876,
  "\u2581hero": 7877,
  "\u2581las\u0254": 7878,
  "\u2581mugu": 7879,
  "\u2581soli": 7880,
  "\u2581tutu": 7881,
  "kilila": 7882,
  "\u2581avril": 7883,
  "\u2581kwlaa": 7884,
  "\u2581k\u0254n\u0254w": 7885,
  "\u2581lenen": 7886,
  "\u2581tent\u00e9": 7887,
  "\u2581tolon": 7888,
  "environ": 7889,
  "int\u00e9r\u00eat": 7890,
  "\u2581auront": 7891,
  "\u2581circon": 7892,
  "\u2581compag": 7893,
  "\u2581dessin": 7894,
  "\u2581revint": 7895,
  "\u2581tribun": 7896,
  "\u2581yafali": 7897,
  "ablement": 7898,
  "\u2581dogonin": 7899,
  "\u2581d\u00e9clara": 7900,
  "\u2581lab\u025bnna": 7901,
  "\u2581tumajan": 7902,
  "l\u0254nbariya": 7903,
  "\u2581reprises": 7904,
  "\u2581trouvera": 7905,
  "\u2581enseignait": 7906,
  "\u2581jalakiy\u0254r\u0254": 7907,
  "mbu": 7908,
  "\u025bnu": 7909,
  "\u258102": 7910,
  "\u258198": 7911,
  "maya": 7912,
  "omob": 7913,
  "yrie": 7914,
  "\u2581ik\u0254": 7915,
  "\u2581ran": 7916,
  "antan": 7917,
  "gandi": 7918,
  "quait": 7919,
  "\u2581baka": 7920,
  "\u2581navi": 7921,
  "\u2581subi": 7922,
  "\u2581sume": 7923,
  "\u2581vues": 7924,
  "engage": 7925,
  "sation": 7926,
  "\u2581c\u025bnna": 7927,
  "\u2581er\u0254di": 7928,
  "\u2581falen": 7929,
  "\u2581think": 7930,
  "ctement": 7931,
  "yptiens": 7932,
  "\u00e9couter": 7933,
  "\u2581banque": 7934,
  "\u2581nobody": 7935,
  "\u2581proces": 7936,
  "\u2581saheli": 7937,
  "\u2581soeurs": 7938,
  "\u2581\u00e9crits": 7939,
  "\u2581oeuvres": 7940,
  "\u2581sarakaw": 7941,
  "\u2581sirikaw": 7942,
  "\u2581conduire": 7943,
  "\u2581hamijuguw": 7944,
  "\u2581makoyaf\u025bn": 7945,
  "\u2581passeront": 7946,
  "\u2581rencontr\u00e9": 7947,
  "\u2581thessalon": 7948,
  "\u2581enseignera": 7949,
  "\u2581importants": 7950,
  "\u2581magnifique": 7951,
  "\u2581isikariy\u0254ti": 7952,
  "\u2581siral\u0254nbariya": 7953,
  "\u2581hakilitigiyako": 7954,
  "\u2581continuellement": 7955,
  "8,": 7956,
  "pas": 7957,
  "\u2581by": 7958,
  "adam": 7959,
  "eren": 7960,
  "t\u00e9es": 7961,
  "ypse": 7962,
  "\u25818:1": 7963,
  "\u2581duu": 7964,
  "\u2581fus": 7965,
  "admin": 7966,
  "\u2581aid\u00e9": 7967,
  "\u2581boyd": 7968,
  "\u2581elie": 7969,
  "\u2581jeun": 7970,
  "\u2581mago": 7971,
  "\u2581prot": 7972,
  "\u2581\u0272uma": 7973,
  "\u2581\u0272\u00e8na": 7974,
  "emploi": 7975,
  "\u2581chien": 7976,
  "\u2581dirai": 7977,
  "\u2581lampe": 7978,
  "\u2581liens": 7979,
  "courage": 7980,
  "olument": 7981,
  "\u2581miriya": 7982,
  "\u2581partis": 7983,
  "\u2581positi": 7984,
  "\u2581reprit": 7985,
  "\u2581passent": 7986,
  "\u2581discussi": 7987,
  "\u2581\u0272agamini": 7988,
  "\u2581craignent": 7989,
  "\u2581ressemble": 7990,
  "\u2581d\u00f2g\u00f2mannin": 7991,
  "\u2581exp\u00e9rience": 7992,
  "\u2581sigi\u0272\u0254g\u0254nw": 7993,
  "\u2581particulier": 7994,
  "\u014ba": 7995,
  "gga": 7996,
  "boam": 7997,
  "bran": 7998,
  "ceur": 7999,
  "nage": 8000,
  "xion": 8001,
  "\u258115.": 8002,
  "\u2581aya": 8003,
  "\u2581c\u00e9l": 8004,
  "\u2581gr\u00e8": 8005,
  "\u2581sea": 8006,
  "\u2581\u0153il": 8007,
  "urant": 8008,
  "zam\u025bn": 8009,
  "\u2581fare": 8010,
  "\u2581kilo": 8011,
  "\u2581lead": 8012,
  "\u2581nath": 8013,
  "\u2581note": 8014,
  "\u2581sert": 8015,
  "entiel": 8016,
  "luence": 8017,
  "\u0272asigi": 8018,
  "\u2581alive": 8019,
  "\u2581bukak": 8020,
  "\u2581idiot": 8021,
  "\u2581signa": 8022,
  "\u2581s\u0254nni": 8023,
  "\u2581th\u00e8me": 8024,
  "\u2581youtu": 8025,
  "\u2581y\u025br\u025bw": 8026,
  "\u2581connue": 8027,
  "\u2581jijara": 8028,
  "\u2581obtenu": 8029,
  "\u2581sachez": 8030,
  "\u2581venant": 8031,
  "\u2581diyanye": 8032,
  "\u2581r\u00e9gions": 8033,
  "\u2581sugandi": 8034,
  "ouverture": 8035,
  "\u2581gof\u025br\u025bn\u025b": 8036,
  "\u2581k\u025bn\u025bk\u025bn\u025b": 8037,
  "\u2581profond\u00e9": 8038,
  "\u2581consid\u00e9r\u00e9": 8039,
  "\u2581quatri\u00e8me": 8040,
  "\u2581s\u0254lidasiw": 8041,
  "\u2581tradition": 8042,
  "\u2581sini\u0272asigi": 8043,
  "\u2581traitement": 8044,
  "/20": 8045,
  "cro": 8046,
  "roo": 8047,
  "dala": 8048,
  "golo": 8049,
  "itez": 8050,
  "\u00e9cri": 8051,
  "\u25811.1": 8052,
  "\u258124\"": 8053,
  "\u2581ase": 8054,
  "\u2581ere": 8055,
  "\u2581sap": 8056,
  "itres": 8057,
  "\u2581boro": 8058,
  "\u2581k\u00e0ra": 8059,
  "\u2581lalo": 8060,
  "\u2581munu": 8061,
  "\u2581nugu": 8062,
  "\u2581pont": 8063,
  "\u2581send": 8064,
  "\u2581visi": 8065,
  "\u2581wulu": 8066,
  "\u2581yili": 8067,
  "envoie": 8068,
  "\u2581bulon": 8069,
  "\u2581kunko": 8070,
  "\u2581s\u025bg\u025bn": 8071,
  "\u2581tugur": 8072,
  "entends": 8073,
  "\u2581ferait": 8074,
  "\u2581ph\u00e9nom": 8075,
  "\u2581veuves": 8076,
  "\u2581commett": 8077,
  "\u2581serment": 8078,
  "\u2581utilis\u00e9": 8079,
  "\u2581m\u00e9chance": 8080,
  "\u2581pr\u00e9sent\u00e9": 8081,
  "\u2581compr\u00e9hen": 8082,
  "\u2581kabakuruw": 8083,
  "\u2581messagers": 8084,
  "\u2581nalomanya": 8085,
  "\u2581religions": 8086,
  "\u2581appartient": 8087,
  "\u2581clairement": 8088,
  "\u2581\u0272\u0254g\u0254nkunb\u025bn": 8089,
  "\u2581profond\u00e9ment": 8090,
  "f\u00f4": 8091,
  "bum": 8092,
  "b\u00e9s": 8093,
  "neu": 8094,
  "oid": 8095,
  "\u25817-": 8096,
  "breu": 8097,
  "cipe": 8098,
  "dame": 8099,
  "itaw": 8100,
  "kis\u025b": 8101,
  "y\u0254si": 8102,
  "\u2581asa": 8103,
  "\u2581dak": 8104,
  "\u2581hum": 8105,
  "agnol": 8106,
  "mis\u025bn": 8107,
  "\u2581b\u00e9th": 8108,
  "\u2581gnin": 8109,
  "\u2581hont": 8110,
  "\u2581irr\u00e9": 8111,
  "\u2581kong": 8112,
  "\u2581lame": 8113,
  "\u2581pars": 8114,
  "\u2581blanc": 8115,
  "\u2581dormi": 8116,
  "\u2581p\u00e9ris": 8117,
  "\u2581sacr\u00e9": 8118,
  "calypse": 8119,
  "\u2581course": 8120,
  "\u2581dunu\u0272a": 8121,
  "\u2581goyara": 8122,
  "\u2581k\u0254r\u0254k\u025b": 8123,
  "\u2581sigama": 8124,
  "\u2581veille": 8125,
  "offrande": 8126,
  "\u2581\u0272\u025bsinna": 8127,
  "\u2581affaires": 8128,
  "\u2581jonathan": 8129,
  "\u2581messager": 8130,
  "\u2581r\u00e9sister": 8131,
  "\u2581meilleurs": 8132,
  "\u2581pardonnez": 8133,
  "\u2581poursuivre": 8134,
  "\u2581destruction": 8135,
  "\u2581responsable": 8136,
  "**": 8137,
  "0.": 8138,
  "3.": 8139,
  "dd": 8140,
  "l\u00e2": 8141,
  "bol": 8142,
  "eut": 8143,
  "fun": 8144,
  "\u2581ef": 8145,
  "\u2581k\u00e9": 8146,
  "atte": 8147,
  "b\u025bli": 8148,
  "foyi": 8149,
  "trui": 8150,
  "\u258116.": 8151,
  "\u2581f\u025b\u025b": 8152,
  "\u2581iya": 8153,
  "oudre": 8154,
  "trois": 8155,
  "\u2581bisi": 8156,
  "\u2581cuba": 8157,
  "\u2581gila": 8158,
  "\u2581rena": 8159,
  "\u2581s\u00e9ri": 8160,
  "cateur": 8161,
  "rinama": 8162,
  "\u2581formu": 8163,
  "\u2581h\u00e9ros": 8164,
  "\u2581selen": 8165,
  "\u2581yiiko": 8166,
  "\u2581\u00e9tiez": 8167,
  "\u2581baraka": 8168,
  "\u2581d\u00e9tail": 8169,
  "\u2581faible": 8170,
  "\u2581k\u0254r\u0254g\u0254": 8171,
  "\u2581rejoin": 8172,
  "\u2581wariko": 8173,
  "evangile": 8174,
  "inations": 8175,
  "\u2581ameriki": 8176,
  "\u2581barokun": 8177,
  "\u2581remplis": 8178,
  "\u2581sanb\u025br\u025b": 8179,
  "\u2581appr\u00e9ci\u00e9": 8180,
  "\u2581conduite": 8181,
  "\u2581d\u00e9couver": 8182,
  "\u2581s\u025bn\u025bk\u025blaw": 8183,
  "interpr\u00e9tation": 8184,
  "ns": 8185,
  "sh": 8186,
  "daw": 8187,
  "ouss": 8188,
  "riki": 8189,
  "wiin": 8190,
  "\u258110.": 8191,
  "\u2581300": 8192,
  "\u2581bor": 8193,
  "\u2581cl\u00e9": 8194,
  "\u2581nou": 8195,
  "\u2581zab": 8196,
  "tanga": 8197,
  "\u2581fati": 8198,
  "\u2581gban": 8199,
  "\u2581hana": 8200,
  "\u2581hist": 8201,
  "\u2581nabu": 8202,
  "\u2581purs": 8203,
  "habite": 8204,
  "\u2581amen\u00e9": 8205,
  "\u2581forc\u00e9": 8206,
  "\u2581f\u00e9lic": 8207,
  "\u2581tesal": 8208,
  "\u2581vrais": 8209,
  "cateurs": 8210,
  "\u2581cheval": 8211,
  "\u2581sanng\u025b": 8212,
  "\u2581s\u0254s\u0254li": 8213,
  "\u2581tagat\u0254": 8214,
  "\u2581y\u00e8l\u00e8ma": 8215,
  "\u2581zowabu": 8216,
  "accompli": 8217,
  "\u2581enverra": 8218,
  "\u2581extr\u00eame": 8219,
  "\u2581pers\u00e9cu": 8220,
  "\u2581sachiez": 8221,
  "\u2581\u00e9glises": 8222,
  "\u2581convainc": 8223,
  "\u2581coupable": 8224,
  "\u2581k\u0254n\u0254f\u025bnw": 8225,
  "\u2581lafi\u0272\u025bna": 8226,
  "\u2581murutira": 8227,
  "obligation": 8228,
  "\u2581autrefois": 8229,
  "\u2581efarayimu": 8230,
  "\u2581spirituel": 8231,
  "\u2581\u0272ininkali": 8232,
  "\u2581pr\u00e9f\u00e9rable": 8233,
  "\u2581sanctifi\u00e9s": 8234,
  "\u2581signifiait": 8235,
  "\u2581kolatig\u025bninw": 8236,
  "\u2581bienveillance": 8237,
  "\":": 8238,
  "-)": 8239,
  "\u2581\u00f1": 8240,
  "bie": 8241,
  "dun": 8242,
  "in\u00e9": 8243,
  "los": 8244,
  "ora": 8245,
  "pri": 8246,
  "tou": 8247,
  "ust": 8248,
  "\u2581mr": 8249,
  "\u2581m\u00f9": 8250,
  "cris": 8251,
  "face": 8252,
  "sses": 8253,
  "t\u025br\u025b": 8254,
  "\u0254r\u0254m": 8255,
  "\u2581aaj": 8256,
  "\u2581bak": 8257,
  "\u2581kor": 8258,
  "\u2581van": 8259,
  "drait": 8260,
  "mey\u0254n": 8261,
  "minnu": 8262,
  "\u00e9tabl": 8263,
  "\u2581agit": 8264,
  "\u2581bulu": 8265,
  "\u2581j\u0254r\u0254": 8266,
  "\u2581kiko": 8267,
  "\u2581mine": 8268,
  "\u2581vend": 8269,
  "enfuit": 8270,
  "ommage": 8271,
  "\u2581archi": 8272,
  "\u2581chris": 8273,
  "\u2581forts": 8274,
  "\u2581k\u025blen": 8275,
  "\u2581niman": 8276,
  "\u2581n\u00f2\u00f2r\u00f2": 8277,
  "\u2581survi": 8278,
  "\u2581vertu": 8279,
  "affaire": 8280,
  "b\u025b\u025btigi": 8281,
  "enfance": 8282,
  "\u2581compat": 8283,
  "\u2581divert": 8284,
  "\u2581espoir": 8285,
  "\u2581fitini": 8286,
  "\u2581flanan": 8287,
  "\u2581kasadi": 8288,
  "\u2581multip": 8289,
  "\u2581nawomi": 8290,
  "\u2581police": 8291,
  "\u2581publi\u00e9": 8292,
  "\u2581relati": 8293,
  "\u2581vall\u00e9e": 8294,
  "adult\u00e8re": 8295,
  "\u2581c\u00e9l\u00e8bre": 8296,
  "\u2581kojuguw": 8297,
  "\u2581pr\u00e9par\u00e9": 8298,
  "\u2581tr\u00e9sors": 8299,
  "\u2581arrivera": 8300,
  "\u2581autorit\u00e9": 8301,
  "\u2581balimak\u00e8": 8302,
  "\u2581dafaninw": 8303,
  "\u2581poursuit": 8304,
  "\u2581\u0272anamanw": 8305,
  "\u2581autrement": 8306,
  "\u2581kanbelenw": 8307,
  "\u2581palestini": 8308,
  "\u2581pr\u00e9senter": 8309,
  "\u2581disponible": 8310,
  "\u2581isiray\u025bliden": 8311,
  "dir": 8312,
  "eth": 8313,
  "nit": 8314,
  "\u2581ls": 8315,
  "tand": 8316,
  "\u0272ali": 8317,
  "\u25811:6": 8318,
  "\u2581ath": 8319,
  "\u2581fri": 8320,
  "\u2581gou": 8321,
  "\u2581his": 8322,
  "\u2581sci": 8323,
  "\u2581zer": 8324,
  "f\u025b\u025br\u025b": 8325,
  "itait": 8326,
  "\u2581kis\u025b": 8327,
  "\u2581misa": 8328,
  "\u2581nala": 8329,
  "\u2581rass": 8330,
  "\u2581titi": 8331,
  "\u2581ufl\u025b": 8332,
  "manuel": 8333,
  "\u2581court": 8334,
  "\u2581kunba": 8335,
  "\u2581punta": 8336,
  "\u2581\u00e9tabl": 8337,
  "\u2581aiment": 8338,
  "\u2581confir": 8339,
  "\u2581connus": 8340,
  "\u2581essay\u00e9": 8341,
  "\u2581l\u0254nnin": 8342,
  "\u2581sagona": 8343,
  "\u2581wiwiin": 8344,
  "am\u00e9rique": 8345,
  "\u2581attenti": 8346,
  "\u2581kitabuw": 8347,
  "\u2581m\u00e9thode": 8348,
  "\u2581r\u00e9publi": 8349,
  "\u2581\u00e9coutez": 8350,
  "issements": 8351,
  "\u2581province": 8352,
  "\u2581souriait": 8353,
  "\u2581programme": 8354,
  "\u2581quotidien": 8355,
  "\u2581m\u00e9chancet\u00e9": 8356,
  "\u2581d\u00e9claration": 8357,
  "\u2581compl\u00e8tement": 8358,
  "\u2581enseignement": 8359,
  "\u2581probablement": 8360,
  "1]": 8361,
  "\u2581\u203a": 8362,
  "iez": 8363,
  "sta": 8364,
  "\u014bgo": 8365,
  "\u2581mt": 8366,
  "agr\u00e9": 8367,
  "deux": 8368,
  "diri": 8369,
  "\u2581gri": 8370,
  "\u2581yuu": 8371,
  "ch\u00e9es": 8372,
  "\u00e9cris": 8373,
  "\u25811:20": 8374,
  "\u2581code": 8375,
  "\u2581cr\u00e9e": 8376,
  "\u2581faam": 8377,
  "\u2581midi": 8378,
  "\u2581pire": 8379,
  "\u2581rafi": 8380,
  "\u2581s\u0254\u0254n": 8381,
  "\u2581tili": 8382,
  "\u2581time": 8383,
  "\u2581unis": 8384,
  "\u2581\u00e9vid": 8385,
  "dumuni": 8386,
  "kabini": 8387,
  "\u2581banta": 8388,
  "\u2581baris": 8389,
  "\u2581benin": 8390,
  "\u2581inqui": 8391,
  "\u2581k\u0254nd\u0254": 8392,
  "\u2581monte": 8393,
  "\u2581suici": 8394,
  "assyrie": 8395,
  "emp\u00eache": 8396,
  "honn\u00eate": 8397,
  "\u2581angili": 8398,
  "\u2581bilara": 8399,
  "\u2581fautes": 8400,
  "\u2581gu\u00e9rir": 8401,
  "\u2581larmes": 8402,
  "\u2581ninnge": 8403,
  "\u2581pousse": 8404,
  "\u2581quinze": 8405,
  "\u2581tranqu": 8406,
  "\u2581visit\u00e9": 8407,
  "\u2581yalaka": 8408,
  "\u2581guerres": 8409,
  "\u2581latig\u00e8ra": 8410,
  "\u2581lev\u00e8rent": 8411,
  "\u2581tesaloni": 8412,
  "\u2581v\u00eatement": 8413,
  "\u2581accueilli": 8414,
  "\u2581esp\u00e9rance": 8415,
  "\u2581reprendre": 8416,
  "\u2581personnage": 8417,
  "\u2581cons\u00e9quences": 8418,
  "!'": 8419,
  "26": 8420,
  "ng": 8421,
  ":31": 8422,
  "\u014bg\u025b": 8423,
  "\u2581t\u00f9": 8424,
  "ders": 8425,
  "l\u025bki": 8426,
  "reur": 8427,
  "xand": 8428,
  "yabi": 8429,
  "\u25813:1": 8430,
  "\u2581pin": 8431,
  "\u2581tue": 8432,
  "\u2581\u00e9vo": 8433,
  "ressi": 8434,
  "salom": 8435,
  "\u2581cat\u00e9": 8436,
  "\u2581file": 8437,
  "\u2581jaan": 8438,
  "\u2581kako": 8439,
  "\u2581m\u00e8ne": 8440,
  "\u2581nako": 8441,
  "\u2581zone": 8442,
  "qui\u00e8me": 8443,
  "ritigi": 8444,
  "\u2581birth": 8445,
  "\u2581danni": 8446,
  "\u2581pr\u00eate": 8447,
  "\u2581marthe": 8448,
  "\u2581m\u025bnilu": 8449,
  "\u2581dinkira": 8450,
  "\u2581divorce": 8451,
  "\u2581d\u00e9coura": 8452,
  "\u2581myst\u00e8re": 8453,
  "\u2581proph\u00e9t": 8454,
  "appellera": 8455,
  "\u2581angilikan": 8456,
  "\u2581cherchent": 8457,
  "\u2581demandait": 8458,
  "\u2581kunk\u0254r\u0254ta": 8459,
  "\u2581\u00e9tudiants": 8460,
  "\u2581barinabasi": 8461,
  "\u2581comportement": 8462,
  "\u2581suppl\u00e9mentaires": 8463,
  ".)": 8464,
  "xa": 8465,
  "abi": 8466,
  "gu\u00e9": 8467,
  "sia": 8468,
  "\u00e8ve": 8469,
  "\u00e9te": 8470,
  "\u00eatu": 8471,
  "deya": 8472,
  "port": 8473,
  "\u00eener": 8474,
  "\u258124-": 8475,
  "\u25813.1": 8476,
  "\u2581haw": 8477,
  "gw\u025br\u025b": 8478,
  "siy\u0254n": 8479,
  "vingt": 8480,
  "\u2581deci": 8481,
  "\u2581exau": 8482,
  "\u2581kunn": 8483,
  "\u2581luti": 8484,
  "arr\u00eata": 8485,
  "sit\u025bri": 8486,
  "\u00e9tabli": 8487,
  "\u2581cadre": 8488,
  "\u2581coups": 8489,
  "\u2581etats": 8490,
  "\u2581injus": 8491,
  "\u2581s\u00e9pul": 8492,
  "antongo": 8493,
  "\u2581chante": 8494,
  "\u2581correc": 8495,
  "\u2581dondaw": 8496,
  "\u2581ladege": 8497,
  "\u2581y\u025bl\u025bt\u0254": 8498,
  "\u2581\u00e9trang": 8499,
  "endormir": 8500,
  "\u2581aliment": 8501,
  "\u2581arri\u00e8re": 8502,
  "\u2581kisibaa": 8503,
  "\u2581limites": 8504,
  "\u2581rendons": 8505,
  "\u2581retenir": 8506,
  "\u2581sangaso": 8507,
  "\u2581symbole": 8508,
  "installer": 8509,
  "\u2581alliance": 8510,
  "\u2581dizaines": 8511,
  "\u2581k\u0254r\u0254b\u0254li": 8512,
  "\u2581iscariote": 8513,
  "\u2581processus": 8514,
  "\u2581\u00e9critures": 8515,
  "\u2581diff\u00e9rente": 8516,
  "\u2581kabaforoko": 8517,
  "\u2581commentaire": 8518,
  "\u2581descendance": 8519,
  "\u2581hakilitigiw": 8520,
  "\u2581sranantongo": 8521,
  "\u2581travaillent": 8522,
  "\u2581nis\u0254ndiyanin": 8523,
  ")?": 8524,
  "2,": 8525,
  ":'": 8526,
  "oz": 8527,
  "r\u0251": 8528,
  "???": 8529,
  "ann": 8530,
  "mii": 8531,
  "\u2581ih": 8532,
  "giri": 8533,
  "\u258110-": 8534,
  "\u2581146": 8535,
  "\u2581al\u025b": 8536,
  "\u2581flu": 8537,
  "\u2581inv": 8538,
  "rinin": 8539,
  "teaux": 8540,
  "\u2581acti": 8541,
  "\u2581d\u00e9vo": 8542,
  "\u2581m\u0254n\u025b": 8543,
  "\u2581vier": 8544,
  "\u2581voul": 8545,
  "humain": 8546,
  "piy\u025bri": 8547,
  "\u2581abisa": 8548,
  "\u2581ayons": 8549,
  "\u2581chois": 8550,
  "\u2581infor": 8551,
  "\u2581massa": 8552,
  "\u2581ordin": 8553,
  "\u2581plac\u00e9": 8554,
  "\u2581yiriw": 8555,
  "chaient": 8556,
  "gw\u025bl\u025bya": 8557,
  "tig\u025bkan": 8558,
  "\u2581auriez": 8559,
  "\u2581k\u025bn\u025bma": 8560,
  "\u2581labato": 8561,
  "\u2581para\u00eet": 8562,
  "\u2581quitte": 8563,
  "\u2581rappro": 8564,
  "\u2581royale": 8565,
  "\u2581sod\u0254mu": 8566,
  "\u2581fariman": 8567,
  "\u2581laiss\u00e9e": 8568,
  "\u2581miirili": 8569,
  "\u2581telefon": 8570,
  "embrasser": 8571,
  "\u2581auraient": 8572,
  "\u2581boissons": 8573,
  "\u2581v\u00e9hicule": 8574,
  "\u2581y\u025bl\u025bmani": 8575,
  "\u2581alemankan": 8576,
  "\u2581evolution": 8577,
  "\u2581absolument": 8578,
  "\u2581p\u0254rtig\u025bkan": 8579,
  "\u2581trouvaient": 8580,
  "\u2581demand\u00e8rent": 8581,
  "gb": 8582,
  "dji": 8583,
  "mut": 8584,
  "\u258163": 8585,
  "\u2581nt": 8586,
  "abri": 8587,
  "gure": 8588,
  "phie": 8589,
  "pire": 8590,
  "zira": 8591,
  "\u258110\"": 8592,
  "\u2581ahi": 8593,
  "\u2581c\u00e8w": 8594,
  "\u2581hou": 8595,
  "\u2581kum": 8596,
  "anche": 8597,
  "\u2581b\u00e9ta": 8598,
  "\u2581b\u0254b\u0254": 8599,
  "\u2581fama": 8600,
  "\u2581gana": 8601,
  "\u2581l\u0254li": 8602,
  "\u2581mura": 8603,
  "\u2581nu\u00e9e": 8604,
  "\u2581senw": 8605,
  "unique": 8606,
  "\u2581furan": 8607,
  "\u2581k\u0254\u0300r\u0254": 8608,
  "\u2581pr\u00e9vu": 8609,
  "\u2581rejet": 8610,
  "mission": 8611,
  "\u2581kilom\u00e8": 8612,
  "\u2581levain": 8613,
  "\u2581m\u00e9tier": 8614,
  "\u2581parent": 8615,
  "\u2581prions": 8616,
  "\u2581rempli": 8617,
  "\u2581soir\u00e9e": 8618,
  "\u2581voyait": 8619,
  "\u2581combats": 8620,
  "\u2581couleur": 8621,
  "\u2581faamuna": 8622,
  "\u2581crucifi\u00e9": 8623,
  "\u2581national": 8624,
  "\u2581karam\u00f2g\u00f2w": 8625,
  "\u2581suivirent": 8626,
  "\u2581viendront": 8627,
  "\u2581gouverneur": 8628,
  "\u2581sentiments": 8629,
  "\u2581malheureusement": 8630,
  "),": 8631,
  "\u0303\u0254": 8632,
  "\u2581\u0253": 8633,
  "t\u0254w": 8634,
  "yes": 8635,
  "-000": 8636,
  "l\u0254g\u0254": 8637,
  "n\u0254g\u0254": 8638,
  "\u2581aku": 8639,
  "\u2581joy": 8640,
  "\u2581kap": 8641,
  "\u2581nna": 8642,
  "aaron": 8643,
  "f\u025bnn\u025b": 8644,
  "vages": 8645,
  "\u2581idea": 8646,
  "\u2581maxi": 8647,
  "\u2581t\u0254r\u0254": 8648,
  "istait": 8649,
  "\u2581isire": 8650,
  "\u2581batoko": 8651,
  "\u2581k\u0254r\u0254t\u0254": 8652,
  "\u2581mat\u00e9ri": 8653,
  "\u2581persua": 8654,
  "\u2581soucis": 8655,
  "\u2581thomas": 8656,
  "itations": 8657,
  "\u00e9chapper": 8658,
  "\u2581abidjan": 8659,
  "\u2581commune": 8660,
  "\u2581c\u025b\u0272uman": 8661,
  "\u2581regard\u00e9": 8662,
  "\u2581r\u00e9union": 8663,
  "\u2581birthday": 8664,
  "\u2581fariyara": 8665,
  "\u2581k\u0254l\u0254sili": 8666,
  "\u2581objectif": 8667,
  "\u2581physique": 8668,
  "\u2581sagonata": 8669,
  "\u2581consid\u00e8re": 8670,
  "\u2581samarikaw": 8671,
  "\u2581tintinnin": 8672,
  "\u2581laminikogo": 8673,
  "\u2581nins\u0254ndiya": 8674,
  "\u2581d\u00e9veloppement": 8675,
  "mn": 8676,
  "jin": 8677,
  "ugu": 8678,
  "\u00e9to": 8679,
  "\u2581mp": 8680,
  "\u2581x\u0254": 8681,
  "adap": 8682,
  "dies": 8683,
  "dite": 8684,
  "g\u00e9es": 8685,
  "\u258118\"": 8686,
  "\u2581hol": 8687,
  "\u2581klo": 8688,
  "miner": 8689,
  "\u2581bure": 8690,
  "\u2581esti": 8691,
  "\u2581hari": 8692,
  "\u2581kita": 8693,
  "\u2581laxi": 8694,
  "\u2581pr\u00e9f": 8695,
  "\u2581zira": 8696,
  "enfuir": 8697,
  "\u2581abreu": 8698,
  "\u2581incap": 8699,
  "\u2581laada": 8700,
  "\u2581min\u025bn": 8701,
  "\u2581outre": 8702,
  "\u2581s\u0254b\u025bw": 8703,
  "denninw": 8704,
  "h\u00f4pital": 8705,
  "\u2581chasse": 8706,
  "\u2581devais": 8707,
  "\u2581disons": 8708,
  "\u2581h\u00e9rode": 8709,
  "\u2581s\u00e9pare": 8710,
  "\u2581affaire": 8711,
  "\u2581jaatika": 8712,
  "\u2581m\u00e9chant": 8713,
  "\u2581passera": 8714,
  "\u2581d\u0254nkiliw": 8715,
  "\u2581quantit\u00e9": 8716,
  "\u2581s\u00fbrement": 8717,
  "\u2581\u0272am\u0254g\u0254ya": 8718,
  "\u2581compagnie": 8719,
  "\u2581d\u00e9couvert": 8720,
  "\u2581puissants": 8721,
  "eh": 8722,
  ":00": 8723,
  "bos": 8724,
  "imm": 8725,
  "m\u0254n": 8726,
  "t\u025b\u025b": 8727,
  "\u25811\"": 8728,
  "\u2581p\u0254": 8729,
  "mmes": 8730,
  "vain": 8731,
  "\u258112-": 8732,
  "\u2581bl\u00e9": 8733,
  "\u2581inp": 8734,
  "\u2581ira": 8735,
  "\u2581m\u0254g": 8736,
  "\u2581nah": 8737,
  "\u2581nen": 8738,
  "\u2581nua": 8739,
  "\u2581ona": 8740,
  "babaw": 8741,
  "pecta": 8742,
  "ph\u00e8se": 8743,
  "voici": 8744,
  "\u25811939": 8745,
  "\u2581kata": 8746,
  "\u2581kene": 8747,
  "\u2581k\u025bt\u0254": 8748,
  "\u2581mien": 8749,
  "\u2581y\u025bt\u025b": 8750,
  "entour": 8751,
  "fitini": 8752,
  "lik\u025bla": 8753,
  "\u2581akala": 8754,
  "\u2581gotta": 8755,
  "\u2581m\u0254g\u0254s": 8756,
  "\u2581ouvre": 8757,
  "\u2581situ\u00e9": 8758,
  "\u2581si\u00e8ge": 8759,
  "\u2581bamako": 8760,
  "\u2581bo\u0272ana": 8761,
  "\u2581canada": 8762,
  "\u2581famili": 8763,
  "\u2581ikomin": 8764,
  "\u2581marifa": 8765,
  "\u2581quarti": 8766,
  "\u2581r\u00e9seau": 8767,
  "\u2581tchogo": 8768,
  "lacement": 8769,
  "ziray\u025bli": 8770,
  "\u2581apparut": 8771,
  "\u2581h\u00e9ritage": 8772,
  "\u2581lak\u0254lifa": 8773,
  "\u2581ouvriers": 8774,
  "\u2581\u00e9motions": 8775,
  "\u2581proph\u00e9tie": 8776,
  "application": 8777,
  "explication": 8778,
  "\u2581correspond": 8779,
  "\u2581r\u00e9pondirent": 8780,
  "\u2581r\u00e9fl\u00e9chissez": 8781,
  ":34": 8782,
  "aur": 8783,
  "ffe": 8784,
  "low": 8785,
  "\u0272\u0254n": 8786,
  "\u25811)": 8787,
  "\u2581jn": 8788,
  "brer": 8789,
  "\u2581y\u00e0n": 8790,
  "habit": 8791,
  "k\u0254r\u0254w": 8792,
  "oloca": 8793,
  "ulman": 8794,
  "\u2581lest": 8795,
  "\u2581pure": 8796,
  "\u2581soba": 8797,
  "\u2581\u00e9ner": 8798,
  "\u2581cor\u00e9e": 8799,
  "\u2581dunun": 8800,
  "\u2581forum": 8801,
  "\u2581gard\u00e9": 8802,
  "\u2581japon": 8803,
  "\u2581kooba": 8804,
  "\u2581peint": 8805,
  "\u2581pi\u00e8ce": 8806,
  "\u2581ap\u00f4tre": 8807,
  "\u2581orient": 8808,
  "\u2581rel\u00e8ve": 8809,
  "\u2581sendon": 8810,
  "\u2581trait\u00e9": 8811,
  "\u2581lalofu\u025b": 8812,
  "\u2581plan\u00e8te": 8813,
  "\u2581sig\u025bnna": 8814,
  "\u2581antiy\u0254si": 8815,
  "\u2581jeunesse": 8816,
  "\u2581musulman": 8817,
  "\u2581s\u0254lidasi": 8818,
  "\u2581tendance": 8819,
  "\u2581caract\u00e8re": 8820,
  "\u2581wolonfila": 8821,
  "\u2581semblables": 8822,
  "\u2581extr\u00eamement": 8823,
  "\u2581condol\u00e9ances": 8824,
  "\u2581responsables": 8825,
  "oh": 8826,
  "\u2581~": 8827,
  ":36": 8828,
  "kar": 8829,
  "y\u00e9e": 8830,
  "fili": 8831,
  "isez": 8832,
  "ison": 8833,
  "ttez": 8834,
  "\u2581gir": 8835,
  "\u2581gre": 8836,
  "\u2581los": 8837,
  "\u2581mod": 8838,
  "\u2581rom": 8839,
  "\u2581run": 8840,
  "gment": 8841,
  "intro": 8842,
  "lande": 8843,
  "magne": 8844,
  "owamu": 8845,
  "\u2581abro": 8846,
  "\u2581caph": 8847,
  "\u2581dina": 8848,
  "\u2581djan": 8849,
  "\u2581duzu": 8850,
  "\u2581ind\u00e9": 8851,
  "\u2581invo": 8852,
  "\u2581kiye": 8853,
  "\u2581sada": 8854,
  "\u2581seni": 8855,
  "\u2581t\u0254nu": 8856,
  "\u2581w\u00f9lu": 8857,
  "besaba": 8858,
  "dennin": 8859,
  "ellent": 8860,
  "isseur": 8861,
  "iti\u00e8me": 8862,
  "tigiya": 8863,
  "\u2581dolla": 8864,
  "\u2581juive": 8865,
  "\u2581kanne": 8866,
  "\u2581meure": 8867,
  "\u2581occup": 8868,
  "\u2581ramen": 8869,
  "aveugle": 8870,
  "\u2581animal": 8871,
  "\u2581cartes": 8872,
  "\u2581h\u00e9breu": 8873,
  "\u2581kimasu": 8874,
  "\u2581konnon": 8875,
  "\u2581litigi": 8876,
  "\u2581london": 8877,
  "\u2581offert": 8878,
  "\u2581ordres": 8879,
  "\u2581priant": 8880,
  "\u2581rentr\u00e9": 8881,
  "\u2581situ\u00e9e": 8882,
  "\u2581tienne": 8883,
  "\u2581tomb\u00e9e": 8884,
  "\u2581\u00e9quipe": 8885,
  "\u2581accord\u00e9": 8886,
  "\u2581dispose": 8887,
  "\u2581jurumut": 8888,
  "\u2581mati\u00e8re": 8889,
  "\u2581f\u0254\u0272\u0254bana": 8890,
  "\u2581revanche": 8891,
  "expression": 8892,
  "\u2581bololaf\u025bn": 8893,
  "\u2581chapitres": 8894,
  "\u2581filipikaw": 8895,
  "\u2581promesses": 8896,
  "\u2581pourraient": 8897,
  "\u2581r\u00e9sistance": 8898,
  "\u2581directement": 8899,
  "\u2581sacrificateurs": 8900,
  ".,": 8901,
  "cy": 8902,
  "\u00e8m": 8903,
  "duw": 8904,
  "faa": 8905,
  "kes": 8906,
  "lek": 8907,
  "ory": 8908,
  "ren": 8909,
  "\u2581y\u00f3": 8910,
  "d\u025bli": 8911,
  "gati": 8912,
  "ngue": 8913,
  "siez": 8914,
  "ties": 8915,
  "\u25811:5": 8916,
  "\u2581pya": 8917,
  "\u2581suw": 8918,
  "\u2581usa": 8919,
  "isais": 8920,
  "mbour": 8921,
  "\u25811987": 8922,
  "\u2581batu": 8923,
  "\u2581hait": 8924,
  "\u2581ha\u00efs": 8925,
  "\u2581menu": 8926,
  "\u2581muxu": 8927,
  "\u2581reje": 8928,
  "\u2581r\u00e9el": 8929,
  "\u2581unto": 8930,
  "amment": 8931,
  "d\u00e9lit\u00e9": 8932,
  "yakuba": 8933,
  "\u2581chaud": 8934,
  "\u2581jette": 8935,
  "\u2581ladki": 8936,
  "\u2581miira": 8937,
  "oration": 8938,
  "\u2581barima": 8939,
  "\u2581b\u00e9tail": 8940,
  "\u2581entr\u00e9e": 8941,
  "\u2581former": 8942,
  "\u2581pleur\u00e9": 8943,
  "\u2581recons": 8944,
  "\u2581rempla": 8945,
  "\u2581unders": 8946,
  "applique": 8947,
  "\u2581acheter": 8948,
  "\u2581contact": 8949,
  "\u2581c\u025bfariw": 8950,
  "\u2581kobabaw": 8951,
  "\u2581k\u025bwaati": 8952,
  "\u2581nafaman": 8953,
  "\u2581pr\u00e9pare": 8954,
  "\u2581consiste": 8955,
  "\u2581devrions": 8956,
  "\u2581diverses": 8957,
  "\u2581mamadenw": 8958,
  "\u2581\u0272agaliba": 8959,
  "\u2581iziray\u025bli": 8960,
  "\u2581prochaine": 8961,
  "\u2581rejoindre": 8962,
  "\u2581saniyanin": 8963,
  "\u2581isra\u00e9liens": 8964,
[...]
