<unk>	0
<s>	0
</s>	0
▁k	-0
▁d	-1
▁l	-2
an	-3
▁n	-4
▁s	-5
▁m	-6
▁a	-7
en	-8
▁b	-9
▁t	-10
es	-11
▁y	-12
▁p	-13
▁c	-14
on	-15
▁f	-16
in	-17
▁ka	-18
ou	-19
il	-20
▁la	-21
is	-22
▁j	-23
▁ye	-24
un	-25
▁de	-26
qu	-27
re	-28
ra	-29
it	-30
▁qu	-31
▁ma	-32
▁e	-33
▁le	-34
er	-35
▁v	-36
▁pa	-37
▁ko	-38
ent	-39
▁be	-40
le	-41
▁ne	-42
est	-43
la	-44
ma	-45
ri	-46
eu	-47
▁o	-48
us	-49
ɔn	-50
ga	-51
ous	-52
▁sa	-53
▁w	-54
▁et	-55
▁i	-56
▁se	-57
▁ni	-58
our	-59
▁na	-60
ti	-61
▁an	-62
om	-63
▁"	-64
▁fa	-65
▁à	-66
▁il	-67
▁pas	-68
▁kɛ	-69
..	-70
li	-71
▁en	-72
▁min	-73
▁que	-74
ɔg	-75
▁1	-76
▁di	-77
▁les	-78
ya	-79
oi	-80
ɛn	-81
▁je	-82
me	-83
▁un	-84
ba	-85
▁ce	-86
▁ba	-87
or	-88
ur	-89
▁kan	-90
ɔr	-91
ɔgɔ	-92
ta	-93
▁h	-94
▁si	-95
te	-96
▁aw	-97
▁u	-98
▁r	-99
ɔrɔ	-100
▁ta	-101
el	-102
ant	-103
▁ɲ	-104
▁lo	-105
▁du	-106
ce	-107
gi	-108
man	-109
ont	-110
▁tu	-111
▁fɔ	-112
▁2	-113
▁g	-114
ɛɛ	-115
▁tun	-116
▁est	-117
▁vous	-118
▁é	-119
ve	-120
▁au	-121
ai	-122
si	-123
gu	-124
▁?	-125
▁pour	-126
▁par	-127
ui	-128
ol	-129
ka	-130
ment	-131
ans	-132
▁qui	-133
és	-134
▁wa	-135
se	-136
▁des	-137
na	-138
▁da	-139
▁bɛɛ	-140
ro	-141
ena	-142
ana	-143
ch	-144
ne	-145
tre	-146
▁mɔgɔ	-147
▁ch	-148
ons	-149
."	-150
▁dans	-151
au	-152
▁su	-153
▁com	-154
rɛ	-155
▁ala	-156
de	-157
▁fɛ	-158
▁bi	-159
sa	-160
res	-161
▁te	-162
ar	-163
ɛrɛ	-164
▁tou	-165
▁ja	-166
va	-167
▁yo	-168
...	-169
▁to	-170
eur	-171
▁nin	-172
▁bena	-173
▁don	-174
▁fil	-175
▁re	-176
go	-177
▁une	-178
▁ya	-179
▁3	-180
end	-181
▁nous	-182
▁dɔ	-183
▁pl	-184
ère	-185
ge	-186
▁mais	-187
da	-188
▁kɔn	-189
ris	-190
▁tɛ	-191
té	-192
▁-	-193
ran	-194
▁ku	-195
ée	-196
▁plus	-197
▁koo	-198
mp	-199
▁man	-200
▁dé	-201
▁ti	-202
os	-203
▁ani	-204
ko	-205
▁ca	-206
▁dieu	-207
lu	-208
▁ha	-209
eux	-210
olo	-211
ci	-212
▁lui	-213
▁mon	-214
tion	-215
▁tout	-216
pp	-217
di	-218
▁so	-219
▁4	-220
den	-221
elen	-222
tait	-223
les	-224
rè	-225
ili	-226
lɛ	-227
ers	-228
mi	-229
▁kɔ	-230
▁kɔnɔ	-231
▁taga	-232
▁vi	-233
lle	-234
▁sont	-235
yi	-236
▁pr	-237
ni	-238
ut	-239
▁den	-240
▁sur	-241
zu	-242
▁ré	-243
rit	-244
▁ave	-245
▁kelen	-246
ux	-247
▁fait	-248
▁con	-249
▁bari	-250
▁bɔ	-251
ab	-252
isi	-253
▁ils	-254
▁!	-255
ogo	-256
aw	-257
▁dit	-258
ara	-259
ff	-260
▁mi	-261
int	-262
▁san	-263
▁jour	-264
que	-265
▁sɔrɔ	-266
ire	-267
et	-268
tigi	-269
cɛ	-270
▁ju	-271
▁mun	-272
▁mo	-273
▁lɔn	-274
▁fana	-275
▁peu	-276
▁son	-277
uso	-278
ila	-279
ort	-280
▁ai	-281
▁ki	-282
▁yɛrɛ	-283
▁kun	-284
mes	-285
gn	-286
lo	-287
▁li	-288
fa	-289
▁masa	-290
ɲɛ	-291
elle	-292
▁avec	-293
min	-294
vi	-295
▁pro	-296
▁minw	-297
▁ou	-298
oir	-299
être	-300
ez	-301
ille	-302
▁dis	-303
▁suis	-304
▁al	-305
▁moi	-306
ens	-307
ins	-308
▁comme	-309
▁kuma	-310
▁ci	-311
tu	-312
am	-313
▁yi	-314
▁bon	-315
omme	-316
▁ji	-317
▁me	-318
▁kos	-319
▁no	-320
ésus	-321
lan	-322
vait	-323
▁5	-324
▁elle	-325
▁jésus	-326
mɛ	-327
iti	-328
rès	-329
▁fo	-330
uru	-331
▁fe	-332
kɛ	-333
ouv	-334
▁yen	-335
▁ra	-336
ile	-337
▁dugu	-338
▁été	-339
▁faire	-340
ɔgɔn	-341
rent	-342
▁leur	-343
▁z	-344
jour	-345
rai	-346
ême	-347
▁ɲin	-348
▁ɲa	-349
▁tous	-350
▁tuma	-351
anna	-352
▁6	-353
baga	-354
ré	-355
▁cogo	-356
▁ga	-357
ils	-358
isa	-359
tes	-360
▁kana	-361
▁ale	-362
fi	-363
ors	-364
ants	-365
▁av	-366
▁bo	-367
▁nga	-368
tres	-369
▁yezu	-370
▁baara	-371
mu	-372
lɔ	-373
ussi	-374
as	-375
▁kɔrɔ	-376
denw	-377
bɛ	-378
une	-379
▁ban	-380
bu	-381
▁kɛra	-382
▁tugu	-383
uis	-384
bi	-385
al	-386
ki	-387
▁bien	-388
▁fils	-389
ble	-390
▁20	-391
▁vo	-392
▁aussi	-393
▁nka	-394
▁cɛ	-395
▁ans	-396
▁ent	-397
était	-398
esp	-399
cc	-400
▁ter	-401
▁ri	-402
▁10	-403
ite	-404
ru	-405
▁kanu	-406
▁sara	-407
▁in	-408
▁enf	-409
▁wo	-410
▁on	-411
ité	-412
du	-413
▁yɔrɔ	-414
▁8	-415
ign	-416
co	-417
né	-418
ɛlɛ	-419
tte	-420
uman	-421
ani	-422
▁olu	-423
▁quel	-424
▁muso	-425
▁wanna	-426
▁père	-427
ir	-428
che	-429
▁tr	-430
▁nom	-431
ance	-432
▁ses	-433
mana	-434
▁mɛn	-435
▁ont	-436
▁car	-437
▁kalan	-438
▁était	-439
ine	-440
▁jama	-441
▁ar	-442
▁7	-443
uni	-444
▁sera	-445
▁cela	-446
▁tra	-447
▁être	-448
▁monde	-449
wa	-450
▁peut	-451
▁app	-452
nin	-453
▁même	-454
iss	-455
ter	-456
to	-457
riya	-458
▁pers	-459
▁tɔ	-460
▁dɛ	-461
▁9	-462
▁do	-463
▁saan	-464
▁jus	-465
oup	-466
lima	-467
yɛ	-468
ommes	-469
▁ɲɔgɔn	-470
▁19	-471
kolo	-472
òn	-473
vez	-474
at	-475
bre	-476
onn	-477
igneur	-478
ama	-479
lé	-480
▁fem	-481
hui	-482
jourd	-483
▁gw	-484
▁wɛrɛ	-485
▁saba	-486
and	-487
▁seigneur	-488
▁loon	-489
▁mɔgɔw	-490
gɛ	-491
▁vie	-492
▁nun	-493
▁fɔlɔ	-494
ye	-495
vous	-496
ul	-497
▁jo	-498
▁comp	-499
app	-500
ini	-501
▁cette	-502
éc	-503
▁mort	-504
▁avait	-505
▁sira	-506
?"	-507
yɔrɔ	-508
ph	-509
▁ke	-510
▁gran	-511
▁cel	-512
mɔgɔ	-513
aient	-514
ale	-515
aman	-516
homme	-517
mis	-518
▁ten	-519
▁tena	-520
▁as	-521
▁aux	-522
▁.	-523
▁sou	-524
▁aujourd	-525
ju	-526
▁es	-527
av	-528
fɛ	-529
▁fɛɛn	-530
▁ex	-531
endre	-532
▁fɔɔ	-533
▁temp	-534
wu	-535
▁barika	-536
▁bè	-537
usu	-538
▁waa	-539
▁nu	-540
mɛn	-541
quoi	-542
▁enfants	-543
ku	-544
oo	-545
▁celui	-546
tions	-547
▁va	-548
▁deux	-549
▁rép	-550
rist	-551
▁ɲinin	-552
:1	-553
ça	-554
ji	-555
▁fan	-556
▁deen	-557
▁matigi	-558
▁po	-559
▁tro	-560
▁pourquoi	-561
▁15	-562
▁tile	-563
muso	-564
▁18	-565
▁seu	-566
▁tɔgɔ	-567
▁caaman	-568
▁cont	-569
gne	-570
▁jigi	-571
▁kama	-572
core	-573
▁tan	-574
▁dev	-575
▁ro	-576
▁alors	-577
isra	-578
▁ceux	-579
▁lab	-580
▁encore	-581
▁ser	-582
ence	-583
▁kris	-584
ue	-585
kan	-586
▁ben	-587
près	-588
▁oui	-589
mé	-590
be	-591
▁for	-592
▁kè	-593
kili	-594
ise	-595
ɔrɔn	-596
za	-597
▁11	-598
▁13	-599
▁12	-600
dé	-601
lon	-602
▁pi	-603
ho	-604
ure	-605
vre	-606
▁femme	-607
ler	-608
ex	-609
yɛli	-610
oire	-611
▁lon	-612
▁non	-613
▁ces	-614
éta	-615
ces	-616
so	-617
▁kala	-618
onne	-619
▁mes	-620
▁dencɛ	-621
▁jamana	-622
òg	-623
isan	-624
née	-625
ɔbɛ	-626
▁puis	-627
eurs	-628
▁we	-629
érit	-630
▁sigi	-631
▁nunu	-632
lement	-633
▁très	-634
▁homme	-635
ouve	-636
▁dɔw	-637
▁kosɔn	-638
ali	-639
▁toi	-640
▁comment	-641
aime	-642
vais	-643
▁où	-644
▁14	-645
ges	-646
▁jours	-647
ger	-648
êtes	-649
je	-650
▁tɛmɛ	-651
fu	-652
▁lu	-653
▁donc	-654
▁rien	-655
▁siran	-656
▁17	-657
▁fila	-658
isira	-659
ient	-660
rd	-661
endant	-662
▁yan	-663
ord	-664
▁yira	-665
▁jaab	-666
ation	-667
▁foyi	-668
ɔni	-669
ction	-670
▁beau	-671
▁vrai	-672
▁(	-673
▁mari	-674
▁sin	-675
pe	-676
ël	-677
▁ça	-678
jugu	-679
▁fi	-680
▁yes	-681
▁fò	-682
▁tigi	-683
▁bu	-684
▁temps	-685
▁che	-686
anin	-687
eure	-688
ts	-689
00	-690
▁pla	-691
ép	-692
▁faga	-693
▁pos	-694
▁grand	-695
▁dire	-696
▁mii	-697
ond	-698
▁éc	-699
entre	-700
vo	-701
▁maison	-702
esprit	-703
▁jan	-704
mb	-705
▁pri	-706
▁_	-707
▁sen	-708
▁peur	-709
▁bolo	-710
▁filɛ	-711
zi	-712
▁jusqu	-713
▁nii	-714
▁masacɛ	-715
▁16	-716
▁mara	-717
▁sisan	-718
▁dan	-719
rait	-720
ow	-721
▁sɔn	-722
ɲa	-723
▁roi	-724
ver	-725
òr	-726
▁éta	-727
ys	-728
▁terre	-729
▁ven	-730
israël	-731
▁sɔ	-732
▁deman	-733
▁per	-734
▁see	-735
ques	-736
bagaw	-737
▁cɛɛ	-738
▁ada	-739
▁diɲɛ	-740
isirayɛli	-741
:2	-742
▁mu	-743
tɔ	-744
ion	-745
▁cha	-746
hi	-747
▁jé	-748
èrent	-749
▁jaabi	-750
▁êtes	-751
vé	-752
kun	-753
tant	-754
▁déc	-755
▁kɛlɛ	-756
▁kosɔbɛ	-757
▁vérit	-758
▁cons	-759
▁minɛ	-760
▁parce	-761
▁là	-762
yara	-763
▁ɲininga	-764
use	-765
▁dusu	-766
fe	-767
nu	-768
▁rest	-769
▁bɛ	-770
▁x	-771
▁fois	-772
mo	-773
sé	-774
muni	-775
òrò	-776
▁lɔ	-777
▁eux	-778
▁yesu	-779
▁24	-780
▁22	-781
▁waga	-782
▁autres	-783
tt	-784
ème	-785
uma	-786
acc	-787
▁soit	-788
coup	-789
vent	-790
èn	-791
▁christ	-792
▁sommes	-793
▁isirayɛli	-794
▁beaucoup	-795
▁krista	-796
....	-797
▁conna	-798
▁toute	-799
jours	-800
▁parti	-801
▁quand	-802
urs	-803
▁toujours	-804
▁eff	-805
▁bɔra	-806
▁sɛ	-807
ɛna	-808
▁ain	-809
▁hakili	-810
▁pris	-811
▁ville	-812
▁taama	-813
bali	-814
orte	-815
▁kuntigi	-816
▁voi	-817
▁pre	-818
▁ret	-819
ête	-820
▁jamais	-821
▁trois	-822
ògò	-823
yez	-824
▁21	-825
▁dɛmɛ	-826
▁arri	-827
pi	-828
▁fara	-829
▁bila	-830
▁damin	-831
▁vérité	-832
▁nana	-833
ose	-834
fin	-835
▁masaya	-836
▁'	-837
▁faa	-838
▁mus	-839
ag	-840
ita	-841
ense	-842
isse	-843
ess	-844
fɛn	-845
▁fin	-846
ze	-847
éri	-848
▁sariya	-849
▁soo	-850
▁masaba	-851
tin	-852
ad	-853
autre	-854
▁pe	-855
kaw	-856
▁lors	-857
ole	-858
▁ainsi	-859
len	-860
▁23	-861
▁adama	-862
▁[	-863
▁wu	-864
▁ab	-865
▁balima	-866
▁personne	-867
omp	-868
▁dumuni	-869
cip	-870
▁vou	-871
▁...	-872
▁tiɲɛ	-873
▁ɲi	-874
ke	-875
▁walima	-876
autres	-877
▁jugu	-878
▁mar	-879
▁nan	-880
ait	-881
▁notre	-882
▁sais	-883
mer	-884
▁lan	-885
▁tagara	-886
▁25	-887
ct	-888
▁ɲɛ	-889
ments	-890
wɛ	-891
▁sig	-892
▁fu	-893
▁yala	-894
▁faut	-895
▁ton	-896
▁wagati	-897
bli	-898
éch	-899
olon	-900
▁nis	-901
▁trava	-902
▁veux	-903
▁gu	-904
▁mère	-905
▁kɔni	-906
▁roya	-907
ras	-908
out	-909
▁cɛma	-910
▁kisi	-911
▁wi	-912
▁ɲini	-913
erre	-914
▁kab	-915
▁ɲana	-916
rais	-917
▁hommes	-918
▁sau	-919
▁ayi	-920
gé	-921
▁yɛlɛ	-922
ents	-923
pt	-924
anw	-925
▁co	-926
▁nisɔn	-927
ɔɔ	-928
▁dɔɔni	-929
▁toutes	-930
yo	-931
kɔrɔ	-932
▁leurs	-933
ist	-934
enant	-935
vit	-936
▁comm	-937
diya	-938
▁,	-939
▁jɔn	-940
▁pu	-941
ume	-942
▁cro	-943
▁seul	-944
▁peux	-945
fs	-946
ouveau	-947
même	-948
oses	-949
th	-950
▁til	-951
▁quoi	-952
▁nouveau	-953
▁dugukolo	-954
▁el	-955
▁donné	-956
sion	-957
rer	-958
▁té	-959
▁kaba	-960
▁mis	-961
▁hali	-962
tern	-963
its	-964
▁choses	-965
▁too	-966
étais	-967
là	-968
rus	-969
▁jɛn	-970
ala	-971
▁premi	-972
▁zu	-973
▁tɔɔrɔ	-974
▁après	-975
▁bes	-976
▁pet	-977
avais	-978
▁cor	-979
▁personn	-980
▁daa	-981
▁cer	-982
▁sankolo	-983
ina	-984
▁pays	-985
▁afin	-986
eau	-987
▁miiri	-988
cé	-989
▁wele	-990
▁travail	-991
▁rep	-992
yé	-993
enir	-994
▁parole	-995
▁bonne	-996
itu	-997
aire	-998
!"	-999
▁royaume	-1000
gan	-1001
▁sun	-1002
olu	-1003
▁dè	-1004
oin	-1005
▁peup	-1006
▁fut	-1007
▁maint	-1008
cher	-1009
▁part	-1010
▁diff	-1011
rères	-1012
▁waati	-1013
▁vu	-1014
ja	-1015
endu	-1016
▁saraka	-1017
puis	-1018
eru	-1019
▁vraiment	-1020
▁eu	-1021
▁frères	-1022
▁bii	-1023
▁cas	-1024
avez	-1025
hova	-1026
▁nombre	-1027
inin	-1028
▁avez	-1029
emp	-1030
ser	-1031
▁fisa	-1032
▁saga	-1033
ante	-1034
▁acc	-1035
▁votre	-1036
nɛ	-1037
▁bé	-1038
yp	-1039
gun	-1040
vers	-1041
▁entre	-1042
bat	-1043
der	-1044
▁vers	-1045
▁26	-1046
▁fam	-1047
▁aime	-1048
▁kalo	-1049
▁kiba	-1050
▁cré	-1051
gent	-1052
▁wɛrɛw	-1053
▁étaient	-1054
ca	-1055
▁am	-1056
▁gens	-1057
▁quest	-1058
▁pendant	-1059
▁ph	-1060
▁besoin	-1061
oro	-1062
▁dun	-1063
▁mògò	-1064
oute	-1065
▁maintenant	-1066
aux	-1067
▁gr	-1068
do	-1069
▁sans	-1070
ona	-1071
▁yafa	-1072
▁saint	-1073
gue	-1074
rez	-1075
▁donne	-1076
▁suu	-1077
ɲuman	-1078
ner	-1079
alem	-1080
▁personnes	-1081
▁avons	-1082
▁mois	-1083
▁daminɛ	-1084
▁contre	-1085
laki	-1086
▁kojugu	-1087
▁loi	-1088
▁ah	-1089
jet	-1090
▁28	-1091
▁chose	-1092
ɲɛn	-1093
▁mé	-1094
▁dama	-1095
▁pou	-1096
oni	-1097
lè	-1098
▁teri	-1099
▁fr	-1100
enf	-1101
▁nisɔndiya	-1102
▁kaan	-1103
▁201	-1104
ître	-1105
avait	-1106
▁pré	-1107
▁envo	-1108
▁siya	-1109
rusalem	-1110
▁ele	-1111
cun	-1112
▁avoir	-1113
▁éga	-1114
▁laga	-1115
▁prés	-1116
inter	-1117
cer	-1118
lisa	-1119
▁bato	-1120
elles	-1121
▁jérusalem	-1122
aut	-1123
lait	-1124
▁can	-1125
▁depuis	-1126
▁prop	-1127
▁kalandenw	-1128
bɛn	-1129
▁tè	-1130
▁bana	-1131
▁peuple	-1132
▁laj	-1133
▁point	-1134
▁yɛ	-1135
▁trouv	-1136
cile	-1137
wuda	-1138
▁saa	-1139
ôt	-1140
ing	-1141
mɔgɔw	-1142
fɔ	-1143
con	-1144
▁moins	-1145
▁fais	-1146
▁sav	-1147
iste	-1148
lɛmu	-1149
èrè	-1150
▁ac	-1151
bo	-1152
ɲɔgɔn	-1153
▁répond	-1154
▁nouv	-1155
ac	-1156
amour	-1157
▁certa	-1158
▁journée	-1159
kɛla	-1160
rance	-1161
zalɛmu	-1162
▁mal	-1163
eruzalɛmu	-1164
ɔgɔma	-1165
▁mana	-1166
▁senuman	-1167
▁autre	-1168
▁fɔra	-1169
▁walisa	-1170
vid	-1171
▁met	-1172
▁janko	-1173
bari	-1174
▁wolo	-1175
▁say	-1176
▁heure	-1177
nan	-1178
▁zeruzalɛmu	-1179
ha	-1180
ères	-1181
kari	-1182
▁dou	-1183
▁mont	-1184
▁sy	-1185
▁matin	-1186
gɔ	-1187
▁dɔrɔn	-1188
amu	-1189
▁imp	-1190
▁bible	-1191
▁furu	-1192
▁retour	-1193
▁mer	-1194
su	-1195
piti	-1196
▁fari	-1197
▁pai	-1198
▁simp	-1199
▁labɛn	-1200
ines	-1201
▁dom	-1202
▁elles	-1203
▁kɛnɛ	-1204
▁ciel	-1205
▁discip	-1206
enn	-1207
▁seen	-1208
ées	-1209
▁bɔn	-1210
gwɛ	-1211
▁chez	-1212
▁nɔgɔ	-1213
enne	-1214
▁tora	-1215
▁confi	-1216
▁sui	-1217
ban	-1218
kɔ	-1219
▁boɲa	-1220
nga	-1221
▁laban	-1222
▁att	-1223
▁or	-1224
cu	-1225
▁."	-1226
ente	-1227
ob	-1228
▁denmis	-1229
bɔ	-1230
▁foi	-1231
▁bara	-1232
▁isirayɛlidenw	-1233
▁dafa	-1234
▁fili	-1235
▁wari	-1236
!!	-1237
▁proph	-1238
:3	-1239
▁30	-1240
▁rés	-1241
▁gwɛlɛ	-1242
ck	-1243
▁voir	-1244
▁passé	-1245
▁sɔgɔma	-1246
▁déb	-1247
▁dɔgɔ	-1248
▁dawuda	-1249
▁27	-1250
▁prê	-1251
▁kabako	-1252
œur	-1253
▁tugun	-1254
▁chemin	-1255
▁quelqu	-1256
▁cr	-1257
▁jumɛn	-1258
▁pouv	-1259
pa	-1260
▁gar	-1261
▁koow	-1262
▁envi	-1263
▁anw	-1264
▁kaso	-1265
▁dés	-1266
▁ren	-1267
▁paix	-1268
▁nafa	-1269
jan	-1270
▁kit	-1271
▁th	-1272
rir	-1273
illes	-1274
▁musa	-1275
ég	-1276
▁love	-1277
til	-1278
▁diyara	-1279
mun	-1280
▁ɲaa	-1281
▁cour	-1282
ɛnw	-1283
cha	-1284
eures	-1285
▁‹	-1286
▁ezi	-1287
imp	-1288
▁taa	-1289
▁donna	-1290
▁faamu	-1291
▁saya	-1292
▁vais	-1293
▁dòn	-1294
▁également	-1295
▁veu	-1296
▁david	-1297
▁fè	-1298
ɛnɛ	-1299
.'	-1300
moi	-1301
▁mako	-1302
▁kabini	-1303
▁péch	-1304
christ	-1305
▁effet	-1306
▁ver	-1307
▁ɲuman	-1308
▁ɲɛn	-1309
▁kasi	-1310
baw	-1311
▁avant	-1312
qui	-1313
cogo	-1314
▁répon	-1315
▁ɔ	-1316
▁kibaru	-1317
▁uns	-1318
for	-1319
▁disciples	-1320
▁diman	-1321
▁enfant	-1322
▁â	-1323
▁lagaw	-1324
▁ezipiti	-1325
enti	-1326
des	-1327
able	-1328
urun	-1329
▁cieux	-1330
don	-1331
ture	-1332
▁frère	-1333
▁ny	-1334
▁livre	-1335
▁nuit	-1336
▁zan	-1337
▁dép	-1338
att	-1339
inw	-1340
▁col	-1341
▁début	-1342
▁ense	-1343
▁ima	-1344
itigi	-1345
▁savez	-1346
▁écrit	-1347
▁kon	-1348
▁29	-1349
▁doit	-1350
▁segi	-1351
argent	-1352
▁0	-1353
▁bèè	-1354
masa	-1355
▁sababu	-1356
non	-1357
▁envoyé	-1358
ète	-1359
▁kunna	-1360
▁famille	-1361
.›	-1362
agit	-1363
▁coup	-1364
▁soi	-1365
▁sabu	-1366
kè	-1367
▁deenw	-1368
ît	-1369
liw	-1370
kil	-1371
ang	-1372
▁appel	-1373
▁40	-1374
▁rega	-1375
▁denmuso	-1376
▁kira	-1377
folo	-1378
▁jui	-1379
▁kow	-1380
▁cher	-1381
vres	-1382
ilu	-1383
abu	-1384
▁der	-1385
ïse	-1386
▁nos	-1387
ypte	-1388
▁voit	-1389
▁alla	-1390
lase	-1391
urent	-1392
▁dɔn	-1393
avoir	-1394
▁grande	-1395
▁juman	-1396
▁moïse	-1397
arri	-1398
▁denw	-1399
oso	-1400
▁fille	-1401
sible	-1402
▁facɛ	-1403
▁tɛmɛn	-1404
fo	-1405
▁sé	-1406
▁jii	-1407
lent	-1408
oie	-1409
mble	-1410
vant	-1411
▁sii	-1412
▁devant	-1413
▁mala	-1414
▁daali	-1415
▁souff	-1416
enu	-1417
yezu	-1418
▁hɛrɛ	-1419
▁fanga	-1420
▁gl	-1421
oles	-1422
▁ŋ	-1423
▁femmes	-1424
▁nouvelle	-1425
▁go	-1426
inte	-1427
▁cause	-1428
dez	-1429
▁déj	-1430
ed	-1431
▁aga	-1432
▁kunun	-1433
wi	-1434
▁mani	-1435
,"	-1436
▁tiɲɛn	-1437
▁ép	-1438
▁cɛn	-1439
▁facile	-1440
cti	-1441
▁fit	-1442
▁déjà	-1443
▁rev	-1444
▁heures	-1445
▁cou	-1446
▁question	-1447
tru	-1448
illi	-1449
ves	-1450
▁kɔse	-1451
▁heureux	-1452
▁kɛmɛ	-1453
▁simple	-1454
çon	-1455
▁ple	-1456
▁long	-1457
rendre	-1458
▁31	-1459
▁venu	-1460
sɛ	-1461
ellement	-1462
▁manger	-1463
▁cet	-1464
▁wɔ	-1465
▁tom	-1466
▁kuun	-1467
▁morts	-1468
tr	-1469
▁confiance	-1470
▁bata	-1471
▁ob	-1472
▁cin	-1473
▁pense	-1474
cle	-1475
ps	-1476
▁baa	-1477
gin	-1478
▁ad	-1479
hun	-1480
▁bibu	-1481
▁lorsque	-1482
.†	-1483
bolo	-1484
▁rend	-1485
▁wala	-1486
▁ak	-1487
▁aba	-1488
▁auprès	-1489
he	-1490
▁balimaw	-1491
▁bou	-1492
xi	-1493
illeurs	-1494
▁parle	-1495
▁33	-1496
▁dro	-1497
▁entendu	-1498
▁prison	-1499
▁kulu	-1500
▁lajɛn	-1501
pendant	-1502
▁jean	-1503
hu	-1504
▁kara	-1505
▁pens	-1506
▁sor	-1507
▁hai	-1508
rɛn	-1509
▁he	-1510
▁makari	-1511
▁mom	-1512
rô	-1513
mɔ	-1514
ligi	-1515
tement	-1516
▁faan	-1517
▁tigɛ	-1518
ration	-1519
▁adamaden	-1520
▁seulement	-1521
▁soir	-1522
▁vient	-1523
▁mɛlɛ	-1524
tan	-1525
issance	-1526
▁sago	-1527
▁bibulu	-1528
age	-1529
pé	-1530
amaya	-1531
▁kanuya	-1532
▁quelques	-1533
ront	-1534
ition	-1535
▁mɛlɛkɛ	-1536
▁krisita	-1537
dement	-1538
▁lieu	-1539
▁diya	-1540
▁nafolo	-1541
▁minkɛ	-1542
▁mɛ	-1543
▁hakɛ	-1544
▁bɛn	-1545
▁wasa	-1546
▁diffé	-1547
▁38	-1548
yant	-1549
▁grâ	-1550
▁gloire	-1551
▁premier	-1552
ennin	-1553
rifi	-1554
▁joona	-1555
▁cependant	-1556
▁parler	-1557
▁*	-1558
iser	-1559
▁sama	-1560
▁wili	-1561
ét	-1562
▁del	-1563
▁présent	-1564
▁ago	-1565
▁voici	-1566
▁jeune	-1567
nées	-1568
étern	-1569
▁comman	-1570
08	-1571
tigɛ	-1572
▁how	-1573
ché	-1574
ham	-1575
▁mɔ	-1576
▁hakil	-1577
▁jehova	-1578
▁minnu	-1579
ern	-1580
▁ins	-1581
rire	-1582
▁cap	-1583
ùn	-1584
▁kɔsegi	-1585
▁derni	-1586
rie	-1587
bra	-1588
▁sujet	-1589
ert	-1590
▁34	-1591
ògòn	-1592
dre	-1593
exc	-1594
▁corps	-1595
▁peuvent	-1596
lom	-1597
▁sarakalase	-1598
▁tɔɔ	-1599
▁cœur	-1600
▁gi	-1601
avons	-1602
▁puiss	-1603
issa	-1604
▁juifs	-1605
ention	-1606
rés	-1607
▁sous	-1608
▁main	-1609
▁ɲɛnamaya	-1610
art	-1611
▁tour	-1612
▁monta	-1613
▁place	-1614
▁lad	-1615
▁yɛn	-1616
▁nɛ	-1617
▁32	-1618
cont	-1619
▁kɔmɔgɔw	-1620
ɲè	-1621
ches	-1622
▁dont	-1623
▁quelque	-1624
▁disp	-1625
▁50	-1626
▁commen	-1627
cune	-1628
▁rec	-1629
kuma	-1630
▁avaient	-1631
ie	-1632
rin	-1633
ieurs	-1634
▁dois	-1635
▁wolon	-1636
▁ge	-1637
▁abada	-1638
enez	-1639
dée	-1640
ɔgɔw	-1641
▁plusieurs	-1642
ites	-1643
▁huma	-1644
▁mou	-1645
▁reç	-1646
▁servit	-1647
▁alabat	-1648
▁soyez	-1649
▁kɛwa	-1650
▁trouve	-1651
ayi	-1652
▁sɛbɛ	-1653
▁donner	-1654
▁ho	-1655
exp	-1656
▁vos	-1657
atre	-1658
bles	-1659
▁fani	-1660
▁hab	-1661
▁juru	-1662
yer	-1663
ilan	-1664
fé	-1665
▁tɔw	-1666
▁bamuso	-1667
000	-1668
ends	-1669
:4	-1670
▁religi	-1671
jou	-1672
▁prof	-1673
lée	-1674
▁ɲògòn	-1675
▁fɛn	-1676
▁paul	-1677
▁nɔ	-1678
▁35	-1679
▁bapt	-1680
▁pourtant	-1681
▁yé	-1682
heure	-1683
dc	-1684
▁lara	-1685
▁mɛnni	-1686
per	-1687
▁ici	-1688
▁nɛn	-1689
raham	-1690
▁kɛɲɛ	-1691
ron	-1692
nous	-1693
▁chaque	-1694
▁waasa	-1695
rê	-1696
▁sac	-1697
▁dur	-1698
niya	-1699
▁kp	-1700
tuma	-1701
▁aff	-1702
▁vol	-1703
▁prendre	-1704
més	-1705
wifu	-1706
sse	-1707
kin	-1708
▁inter	-1709
▁gé	-1710
▁kam	-1711
▁siɲɛ	-1712
▁ɲaga	-1713
ɛbɛ	-1714
▁akk	-1715
▁alabatoso	-1716
▁kɔlɔ	-1717
▁malo	-1718
▁akkdc	-1719
uve	-1720
▁desc	-1721
▁reste	-1722
▁chan	-1723
▁france	-1724
▁bat	-1725
accomp	-1726
nifi	-1727
▁ali	-1728
▁moment	-1729
▁savoir	-1730
▁rapp	-1731
▁sini	-1732
cation	-1733
▁faites	-1734
dent	-1735
▁sour	-1736
▁kitabu	-1737
appelle	-1738
▁réponse	-1739
▁kosòn	-1740
▁ɔrɔ	-1741
▁yu	-1742
▁deli	-1743
▁joli	-1744
▁décla	-1745
▁eut	-1746
▁pani	-1747
▁fou	-1748
ique	-1749
▁quatre	-1750
▁resp	-1751
▁wuli	-1752
▁yèrè	-1753
▁suite	-1754
▁selon	-1755
issez	-1756
▁mili	-1757
yan	-1758
▁bar	-1759
▁cra	-1760
▁petit	-1761
▁kosɛbɛ	-1762
lise	-1763
▁sang	-1764
▁teli	-1765
▁aimé	-1766
bé	-1767
▁aucun	-1768
éternel	-1769
iya	-1770
aires	-1771
▁hakilitigi	-1772
cla	-1773
▁loo	-1774
▁lumi	-1775
▁ɔrɔmu	-1776
▁aura	-1777
▁faran	-1778
▁off	-1779
▁sorti	-1780
▁esprit	-1781
▁ɛ	-1782
êmes	-1783
▁duni	-1784
▁adamadenw	-1785
ions	-1786
▁jalaki	-1787
ennent	-1788
pu	-1789
▁envie	-1790
▁possible	-1791
▁again	-1792
▁kò	-1793
bili	-1794
mini	-1795
▁kiti	-1796
▁temple	-1797
ôrô	-1798
▁exp	-1799
▁yiri	-1800
▁halaki	-1801
▁mas	-1802
▁train	-1803
isé	-1804
▁répondit	-1805
ures	-1806
wula	-1807
ɔɔn	-1808
gna	-1809
▁souv	-1810
.1	-1811
mbre	-1812
▁sòrò	-1813
▁tanu	-1814
mée	-1815
œu	-1816
kolon	-1817
▁dix	-1818
▁veut	-1819
bres	-1820
▁isra	-1821
▁grâce	-1822
im	-1823
▁fura	-1824
▁emp	-1825
▁tila	-1826
cep	-1827
ernel	-1828
dugu	-1829
igne	-1830
mon	-1831
▁ɲam	-1832
▁ress	-1833
▁kelenpe	-1834
▁cè	-1835
▁font	-1836
▁aucune	-1837
ailleurs	-1838
▁kà	-1839
▁kar	-1840
kow	-1841
arch	-1842
▁passe	-1843
eternel	-1844
▁seront	-1845
euse	-1846
ités	-1847
▁dariya	-1848
▁?"	-1849
▁pouvoir	-1850
suma	-1851
bagatɔ	-1852
▁gwɛlɛya	-1853
▁parents	-1854
20	-1855
▁eh	-1856
▁amis	-1857
lation	-1858
veil	-1859
▁mieux	-1860
▁=	-1861
▁all	-1862
abord	-1863
▁komi	-1864
▁aller	-1865
▁feu	-1866
▁jaa	-1867
gement	-1868
▁fer	-1869
▁voiture	-1870
▁ass	-1871
▁bali	-1872
▁ru	-1873
▁lɔnniya	-1874
▁lumière	-1875
ss	-1876
▁face	-1877
▁parmi	-1878
▁guerre	-1879
yima	-1880
▁joie	-1881
tice	-1882
▁ibra	-1883
ec	-1884
▁laiss	-1885
▁gra	-1886
wo	-1887
▁venir	-1888
▁ét	-1889
yons	-1890
▁kɔlɔsi	-1891
mps	-1892
▁mati	-1893
▁porte	-1894
▁lorsqu	-1895
▁tulo	-1896
▁né	-1897
manw	-1898
▁zuwifu	-1899
occ	-1900
▁bò	-1901
onté	-1902
téri	-1903
▁pau	-1904
▁yeux	-1905
▁port	-1906
▁tant	-1907
fɛnw	-1908
▁paroles	-1909
▁gal	-1910
▁kumana	-1911
▁200	-1912
appro	-1913
▁kura	-1914
▁loin	-1915
▁sait	-1916
▁trop	-1917
▁jija	-1918
▁servi	-1919
raient	-1920
▁sec	-1921
▁façon	-1922
st	-1923
▁vis	-1924
riture	-1925
▁katu	-1926
▁jati	-1927
▁fon	-1928
▁dò	-1929
▁étern	-1930
ele	-1931
▁lé	-1932
accord	-1933
ass	-1934
▁45	-1935
▁juda	-1936
▁sol	-1937
▁muru	-1938
rec	-1939
hovah	-1940
issent	-1941
utes	-1942
tigiw	-1943
vient	-1944
▁belle	-1945
▁milli	-1946
▁ag	-1947
▁dès	-1948
enfant	-1949
▁sere	-1950
▁langue	-1951
vée	-1952
ène	-1953
gypte	-1954
▁mugan	-1955
lais	-1956
▁kak	-1957
▁>	-1958
user	-1959
▁tard	-1960
tique	-1961
▁dara	-1962
▁aut	-1963
▁tɛna	-1964
▁siginin	-1965
▁contin	-1966
▁partout	-1967
▁at	-1968
▁maloya	-1969
▁signifi	-1970
▁fort	-1971
▁sort	-1972
po	-1973
ere	-1974
▁demande	-1975
▁nɔɔ	-1976
▁pierre	-1977
arti	-1978
uses	-1979
▁maître	-1980
▁ɲiningali	-1981
▁42	-1982
kɛlaw	-1983
▁ayiwa	-1984
▁banbali	-1985
usufu	-1986
▁ibrayima	-1987
uire	-1988
▁prin	-1989
▁jéhovah	-1990
▁rɔ	-1991
▁luka	-1992
▁diffi	-1993
kulu	-1994
▁ama	-1995
▁sigiyɔrɔ	-1996
▁hu	-1997
▁prophète	-1998
▁37	-1999
esse	-2000
aff	-2001
qué	-2002
moins	-2003
▁dogo	-2004
▁back	-2005
▁lafi	-2006
▁prom	-2007
▁rais	-2008
▁nɛɛ	-2009
▁sept	-2010
▁juste	-2011
▁cent	-2012
▁util	-2013
▁trans	-2014
dɛ	-2015
illa	-2016
▁lamɛn	-2017
vés	-2018
▁ɲè	-2019
▁esp	-2020
▁faris	-2021
mais	-2022
▁pied	-2023
▁lun	-2024
▁som	-2025
▁search	-2026
met	-2027
▁dem	-2028
▁rendre	-2029
▁sourire	-2030
▁différent	-2031
▁compr	-2032
▁naani	-2033
▁certains	-2034
▁celle	-2035
▁tête	-2036
▁compte	-2037
lɔn	-2038
▁sema	-2039
▁char	-2040
ori	-2041
▁nɔgɔn	-2042
▁mettre	-2043
gues	-2044
iles	-2045
▁pouvez	-2046
▁chef	-2047
els	-2048
▁foro	-2049
où	-2050
forma	-2051
tal	-2052
gô	-2053
oû	-2054
inɛ	-2055
rise	-2056
▁tɔn	-2057
▁minutes	-2058
gon	-2059
▁wun	-2060
▁muɲ	-2061
▁arrivé	-2062
▁nations	-2063
év	-2064
▁situ	-2065
▁tilan	-2066
▁réal	-2067
ouver	-2068
▁chacun	-2069
▁wolonwula	-2070
▁mɔgɔba	-2071
▁fant	-2072
▁partie	-2073
▁yɛlɛma	-2074
▁dumu	-2075
yɛri	-2076
▁israël	-2077
main	-2078
▁gwɛrɛ	-2079
ore	-2080
rage	-2081
gɛn	-2082
▁39	-2083
▁juguw	-2084
??	-2085
rée	-2086
▁dor	-2087
▁kɔfɛ	-2088
leur	-2089
▁nour	-2090
▁rencont	-2091
▁année	-2092
▁accomp	-2093
▁commence	-2094
onna	-2095
quer	-2096
▁furent	-2097
ill	-2098
masaba	-2099
baa	-2100
▁gb	-2101
▁jose	-2102
mm	-2103
▁mobili	-2104
ɔli	-2105
resse	-2106
▁vois	-2107
fuɛ	-2108
laire	-2109
anta	-2110
ɛɛrɛ	-2111
▁alabatosoba	-2112
▁eli	-2113
bl	-2114
agn	-2115
▁kal	-2116
▁para	-2117
▁trou	-2118
▁ving	-2119
▁péché	-2120
istoire	-2121
▁près	-2122
▁tasuma	-2123
▁ɲanagwɛ	-2124
ès	-2125
ima	-2126
▁ve	-2127
▁sufɛ	-2128
▁fran	-2129
▁quels	-2130
▁joseph	-2131
▁jou	-2132
▁kongo	-2133
▁yusufu	-2134
▁hon	-2135
▁and	-2136
arrive	-2137
▁duuru	-2138
▁première	-2139
▁mùn	-2140
itude	-2141
anan	-2142
foni	-2143
▁bati	-2144
▁kalanden	-2145
we	-2146
ati	-2147
cin	-2148
anto	-2149
ber	-2150
tɔn	-2151
▁aoû	-2152
▁enti	-2153
▁trouvé	-2154
▁crois	-2155
▁eso	-2156
▁mise	-2157
law	-2158
▁bɔyɔrɔ	-2159
▁blo	-2160
ònò	-2161
guni	-2162
ilila	-2163
▁aimez	-2164
▁soient	-2165
chi	-2166
isait	-2167
él	-2168
▁domma	-2169
▁dirent	-2170
tɔrɔ	-2171
▁sung	-2172
▁hi	-2173
▁lɔgɔ	-2174
âge	-2175
▁tò	-2176
▁regar	-2177
▁montagne	-2178
▁kunbɛn	-2179
dul	-2180
endra	-2181
fan	-2182
▁xa	-2183
gara	-2184
▁koɲuman	-2185
▁questions	-2186
▁haali	-2187
▁ord	-2188
▁yaa	-2189
▁cinq	-2190
gra	-2191
▁boli	-2192
▁supp	-2193
▁route	-2194
gw	-2195
▁bɛna	-2196
▁kali	-2197
una	-2198
▁zuda	-2199
ɔrɔnin	-2200
yen	-2201
▁kin	-2202
▁éternelle	-2203
▁haut	-2204
▁image	-2205
▁36	-2206
duit	-2207
sage	-2208
▁alu	-2209
▁prép	-2210
vement	-2211
▁volonté	-2212
▁bol	-2213
▁gwɛ	-2214
▁juguya	-2215
▁justice	-2216
▁mau	-2217
▁new	-2218
▁quelle	-2219
lah	-2220
▁sû	-2221
▁anu	-2222
▁voie	-2223
air	-2224
fois	-2225
▁ɲakɔrɔ	-2226
▁vue	-2227
ard	-2228
taw	-2229
kali	-2230
▁ǹ	-2231
▁danna	-2232
▁mourir	-2233
▁propos	-2234
▁denmisɛn	-2235
temps	-2236
▁kurun	-2237
mar	-2238
▁sad	-2239
▁sarakalasebagaw	-2240
▁awa	-2241
▁vin	-2242
▁mains	-2243
▁tilennin	-2244
▁:	-2245
jibi	-2246
▁..	-2247
▁oh	-2248
▁sɔɔ	-2249
▁quit	-2250
éli	-2251
▁rece	-2252
▁matiyo	-2253
▁prière	-2254
▁div	-2255
▁bele	-2256
▁serait	-2257
▁manière	-2258
▁din	-2259
▁men	-2260
▁sɛbɛn	-2261
tɛ	-2262
manɛ	-2263
emple	-2264
▁tɛmɛna	-2265
▁daf	-2266
ada	-2267
bil	-2268
ôgô	-2269
▁za	-2270
ee	-2271
▁rapi	-2272
▁suma	-2273
ression	-2274
itié	-2275
▁musow	-2276
▁seere	-2277
▁années	-2278
▁partir	-2279
▁quelles	-2280
sin	-2281
▁lɛ	-2282
▁muɲu	-2283
▁sifa	-2284
tiɲɛ	-2285
▁fla	-2286
▁yah	-2287
▁nɔgɔnin	-2288
kuru	-2289
ours	-2290
▁nama	-2291
▁janto	-2292
▁tɛmanɛ	-2293
▁dɔnkili	-2294
▁it	-2295
▁annon	-2296
▁droit	-2297
▁filanan	-2298
nes	-2299
année	-2300
ɲɔ	-2301
kuba	-2302
ress	-2303
suite	-2304
ly	-2305
▁boo	-2306
▁parlé	-2307
▁regard	-2308
▁demandé	-2309
▁47	-2310
bila	-2311
▁mɔɔ	-2312
▁cond	-2313
▁sacrifi	-2314
▁batize	-2315
▁longtemps	-2316
▁hé	-2317
asse	-2318
▁bɛɛn	-2319
▁trouver	-2320
▁ref	-2321
▁dali	-2322
jigi	-2323
▁fewu	-2324
▁ami	-2325
▁seule	-2326
▁import	-2327
▁passer	-2328
▁41	-2329
▁tele	-2330
▁boire	-2331
dè	-2332
▁ò	-2333
oman	-2334
▁kònò	-2335
médi	-2336
▁000	-2337
▁cô	-2338
▁lè	-2339
▁bla	-2340
▁tri	-2341
▁nombreuses	-2342
▁nya	-2343
▁disant	-2344
cité	-2345
▁siri	-2346
:5	-2347
eff	-2348
unes	-2349
▁anges	-2350
▁lanin	-2351
▁denmisɛnw	-2352
aide	-2353
gnes	-2354
▁banna	-2355
▁pol	-2356
▁kɛwaliw	-2357
).	-2358
▁perdu	-2359
▁dimi	-2360
ah	-2361
▁̀	-2362
▁remp	-2363
étaient	-2364
▁dɛsɛ	-2365
▁sages	-2366
▁kil	-2367
▁seko	-2368
▁entend	-2369
opp	-2370
tri	-2371
▁mbe	-2372
▁tag	-2373
▁delila	-2374
▁jɛ	-2375
▁tes	-2376
▁kari	-2377
▁mange	-2378
▁rester	-2379
mment	-2380
▁connu	-2381
▁piyɛri	-2382
▁wilila	-2383
nè	-2384
isation	-2385
▁ensuite	-2386
▁dɔgɔtɔrɔ	-2387
lut	-2388
▁voix	-2389
▁teriw	-2390
▁let	-2391
abraham	-2392
▁gɛrɛ	-2393
▁habit	-2394
▁témoins	-2395
sɔn	-2396
dayi	-2397
▁merci	-2398
ses	-2399
▁miiriya	-2400
▁siga	-2401
dit	-2402
▁but	-2403
▁cri	-2404
▁sanji	-2405
▁!"	-2406
▁dj	-2407
ange	-2408
▁fun	-2409
▁consi	-2410
▁pɛ	-2411
térieur	-2412
cor	-2413
▁gafe	-2414
ll	-2415
▁six	-2416
▁kini	-2417
▁reçu	-2418
▁farisogo	-2419
gle	-2420
▁60	-2421
▁sir	-2422
▁sta	-2423
▁alle	-2424
▁kɔnɔn	-2425
▁déf	-2426
▁dét	-2427
▁yin	-2428
▁contra	-2429
▁puissance	-2430
ome	-2431
itre	-2432
▁pieds	-2433
▁pan	-2434
▁commencé	-2435
œurs	-2436
▁soon	-2437
▁kudayi	-2438
▁dibi	-2439
▁im	-2440
ayez	-2441
▁baaraden	-2442
:11	-2443
▁pain	-2444
▁sens	-2445
▁dési	-2446
▁hakilitigiya	-2447
▁pard	-2448
▁préc	-2449
▁sole	-2450
▁conse	-2451
▁publi	-2452
▁pourrait	-2453
oix	-2454
▁wajibi	-2455
orté	-2456
▁vingt	-2457
5.	-2458
▁géné	-2459
▁kɛla	-2460
tra	-2461
▁cu	-2462
▁ceci	-2463
▁yanni	-2464
▁latigɛ	-2465
occu	-2466
▁aimés	-2467
▁prêtres	-2468
yɔn	-2469
▁sɔ̃	-2470
▁suman	-2471
èrement	-2472
gou	-2473
lis	-2474
off	-2475
▁br	-2476
▁cru	-2477
▁viv	-2478
ôn	-2479
lie	-2480
onné	-2481
issement	-2482
été	-2483
▁nih	-2484
▁wɔɔrɔ	-2485
▁rue	-2486
▁sép	-2487
▁kanubaga	-2488
hana	-2489
▁end	-2490
allah	-2491
▁soleil	-2492
one	-2493
san	-2494
▁donn	-2495
▁serviteur	-2496
mir	-2497
▁retr	-2498
kɔrɔbaw	-2499
▁ladili	-2500
▁savait	-2501
▁sinɔgɔ	-2502
▁ap	-2503
▁enne	-2504
▁lagi	-2505
▁mira	-2506
▁labɛnnin	-2507
dɔ	-2508
▁halibi	-2509
▁cho	-2510
▁int	-2511
▁may	-2512
▁petits	-2513
▁continu	-2514
isir	-2515
▁gwan	-2516
▁mògòw	-2517
inc	-2518
toi	-2519
oupe	-2520
▁wee	-2521
kasi	-2522
▁sanu	-2523
▁katuguni	-2524
ètes	-2525
▁han	-2526
▁senu	-2527
▁vivre	-2528
ances	-2529
▁wula	-2530
▁kinibolo	-2531
▁kunnafoni	-2532
▁rè	-2533
oivent	-2534
isés	-2535
▁ɲanaman	-2536
mina	-2537
▁croire	-2538
aie	-2539
bar	-2540
église	-2541
▁asse	-2542
▁ɔrɔmukaw	-2543
▁existe	-2544
aa	-2545
jo	-2546
cles	-2547
▁isa	-2548
écoute	-2549
▁nalom	-2550
▁faisait	-2551
anté	-2552
▁mour	-2553
▁foule	-2554
▁kuntigiw	-2555
▁^	-2556
▁kis	-2557
▁daga	-2558
han	-2559
▁har	-2560
▁layi	-2561
veille	-2562
▁concer	-2563
ais	-2564
enw	-2565
usi	-2566
▁réjou	-2567
cul	-2568
mêmes	-2569
▁raison	-2570
sait	-2571
▁yakuba	-2572
▁signifie	-2573
▁régi	-2574
▁villes	-2575
▁ɲan	-2576
▁dira	-2577
▁fɛti	-2578
▁voya	-2579
mèn	-2580
ciens	-2581
gence	-2582
▁voud	-2583
▁serez	-2584
sigi	-2585
lique	-2586
▁villa	-2587
▁if	-2588
▁suuw	-2589
▁commandement	-2590
▁49	-2591
▁cla	-2592
▁savons	-2593
vɛn	-2594
▁48	-2595
▁cul	-2596
▁marie	-2597
heur	-2598
▁plaît	-2599
hab	-2600
▁œu	-2601
▁luc	-2602
ision	-2603
uss	-2604
▁yoo	-2605
tis	-2606
▁buru	-2607
▁tòòrò	-2608
aujourd	-2609
:27	-2610
hɔn	-2611
après	-2612
espère	-2613
▁kɔngɔ	-2614
▁sauver	-2615
▁sep	-2616
▁mille	-2617
▁mariage	-2618
▁zuwifuw	-2619
▁kòrò	-2620
chez	-2621
teur	-2622
issait	-2623
▁bonya	-2624
▁propre	-2625
▁fra	-2626
ayiwa	-2627
▁er	-2628
▁mit	-2629
▁gɛrɛfɛ	-2630
▁réveil	-2631
50	-2632
aron	-2633
▁gwɛn	-2634
▁méde	-2635
▁gbɛ	-2636
▁plut	-2637
cob	-2638
▁sab	-2639
▁tum	-2640
▁déci	-2641
▁combat	-2642
▁meille	-2643
▁dernier	-2644
▁yɔrɔnin	-2645
▁46	-2646
rons	-2647
▁jira	-2648
▁aider	-2649
▁jeunes	-2650
are	-2651
▁kaka	-2652
▁envers	-2653
lli	-2654
▁aa	-2655
ds	-2656
▁réc	-2657
▁jacob	-2658
▁procha	-2659
▁yeelen	-2660
▁isi	-2661
▁yee	-2662
▁devez	-2663
voir	-2664
▁siyaw	-2665
▁kɛnɛya	-2666
mani	-2667
indre	-2668
▁maga	-2669
▁nombreux	-2670
▁prophètes	-2671
bana	-2672
▁wan	-2673
nement	-2674
▁force	-2675
▁arrive	-2676
▁bange	-2677
élé	-2678
▁gen	-2679
▁kanb	-2680
▁devait	-2681
lenw	-2682
▁côté	-2683
égypte	-2684
▁lit	-2685
ateur	-2686
▁connaissance	-2687
buru	-2688
olom	-2689
util	-2690
▁garde	-2691
usa	-2692
baya	-2693
▁cool	-2694
▁surun	-2695
▁jurumu	-2696
▁pɛrɛn	-2697
▁ɲininka	-2698
▁dusukasi	-2699
▁connaître	-2700
tana	-2701
▁pɔli	-2702
aimerais	-2703
▁somɔgɔw	-2704
▁apprendre	-2705
die	-2706
sie	-2707
ouse	-2708
▁duvɛn	-2709
▁libre	-2710
kura	-2711
orter	-2712
▁sourit	-2713
▁sè	-2714
▁boon	-2715
▁waaju	-2716
▁exemple	-2717
onner	-2718
bagaya	-2719
baliya	-2720
êtres	-2721
▁44	-2722
gner	-2723
▁mali	-2724
loo	-2725
▁70	-2726
▁chi	-2727
isième	-2728
▁serai	-2729
gés	-2730
▁indi	-2731
hé	-2732
no	-2733
▁•	-2734
▁pé	-2735
oubli	-2736
▁denkè	-2737
▁pouvait	-2738
▁kunu	-2739
ctions	-2740
▁jaabili	-2741
▁1:	-2742
▁kolo	-2743
▁mots	-2744
▁ô	-2745
sara	-2746
▁kuru	-2747
▁ciden	-2748
olution	-2749
▁plutôt	-2750
▁descend	-2751
roit	-2752
▁sent	-2753
▁duniya	-2754
:17	-2755
▁lah	-2756
▁teliya	-2757
▁demanda	-2758
:10	-2759
enus	-2760
essa	-2761
▁sûr	-2762
▁sran	-2763
▁lamini	-2764
▁milieu	-2765
▁baro	-2766
▁lakali	-2767
▁troisième	-2768
▁âgé	-2769
ences	-2770
▁kabi	-2771
équ	-2772
▁sois	-2773
kɛnɛ	-2774
siɲɛ	-2775
▁kou	-2776
▁café	-2777
▁is	-2778
gɛrɛ	-2779
alité	-2780
▁sogo	-2781
▁télé	-2782
▁sɔnna	-2783
▁appelé	-2784
▁bolila	-2785
▁sunguru	-2786
▁sebagaya	-2787
éga	-2788
▁ɲamɔgɔ	-2789
um	-2790
tro	-2791
▁mur	-2792
▁dusukun	-2793
ende	-2794
▁same	-2795
▁chefs	-2796
▁sagesse	-2797
fɔlɔ	-2798
▁bee	-2799
ables	-2800
▁bouche	-2801
▁disait	-2802
rou	-2803
▁bâ	-2804
inté	-2805
ième	-2806
▁goo	-2807
▁réf	-2808
▁compris	-2809
ilà	-2810
▁ait	-2811
bè	-2812
baliw	-2813
▁revi	-2814
espoir	-2815
▁kalans	-2816
▁tagama	-2817
▁connais	-2818
▁nourriture	-2819
uro	-2820
▁jeu	-2821
▁décé	-2822
enseigne	-2823
▁humains	-2824
iter	-2825
▁aww	-2826
▁fête	-2827
▁sanni	-2828
▁sigɛn	-2829
▁milliers	-2830
▁rapidement	-2831
▁meur	-2832
▁péchés	-2833
▁nà	-2834
▁emi	-2835
▁pra	-2836
aimer	-2837
▁dabila	-2838
▁religion	-2839
fri	-2840
kɔn	-2841
fara	-2842
rence	-2843
▁somme	-2844
▁mat	-2845
▁misi	-2846
▁yòrò	-2847
informa	-2848
▁prêtre	-2849
▁segira	-2850
▁kanbelen	-2851
koo	-2852
▁arɔn	-2853
▁pauvres	-2854
ree	-2855
utu	-2856
▁voulu	-2857
▁disaient	-2858
▁fru	-2859
juguw	-2860
▁phar	-2861
rection	-2862
▁recher	-2863
▁dani	-2864
▁prise	-2865
▁essa	-2866
▁verse	-2867
▁miniti	-2868
▁ɲinina	-2869
▁dilan	-2870
▁recon	-2871
▁miséri	-2872
▁conf	-2873
tation	-2874
▁ayant	-2875
▁témoi	-2876
▁karamɔgɔ	-2877
▁ɲɛfɔ	-2878
▁semaine	-2879
▁siranna	-2880
mine	-2881
▁year	-2882
▁quant	-2883
▁doivent	-2884
▁mɔgɔɲɔgɔn	-2885
écu	-2886
▁been	-2887
▁miséricor	-2888
▁exc	-2889
▁béné	-2890
▁créé	-2891
▁anima	-2892
▁colère	-2893
▁ressus	-2894
▁deuxième	-2895
▁permet	-2896
▁environ	-2897
bes	-2898
appe	-2899
▁faaw	-2900
▁douze	-2901
dam	-2902
▁kaa	-2903
▁lou	-2904
écess	-2905
▁jɔɔn	-2906
▁sani	-2907
▁écou	-2908
▁hɔrɔn	-2909
yɔ	-2910
cteur	-2911
▁daan	-2912
▁vont	-2913
▁riche	-2914
▁pharisi	-2915
▁sc	-2916
chant	-2917
▁sanfɛ	-2918
:18	-2919
agne	-2920
veur	-2921
enait	-2922
▁cidenw	-2923
tilennin	-2924
▁mɛlɛkɛw	-2925
▁popu	-2926
ect	-2927
▁hami	-2928
▁pass	-2929
▁serviteurs	-2930
▁tilenninya	-2931
▁fera	-2932
▁jɛni	-2933
▁dimanche	-2934
▁difficile	-2935
▁jon	-2936
▁kpa	-2937
▁péri	-2938
▁reti	-2939
miɛn	-2940
▁syn	-2941
▁duman	-2942
mie	-2943
ode	-2944
▁lol	-2945
yɔrɔw	-2946
▁like	-2947
▁santé	-2948
excuser	-2949
▁fɔlɔfɔlɔ	-2950
▁certaines	-2951
▁zo	-2952
▁aband	-2953
▁seegi	-2954
▁devons	-2955
▁jigira	-2956
▁nécess	-2957
▁bonheur	-2958
ros	-2959
▁inc	-2960
avenir	-2961
▁voilà	-2962
▁images	-2963
▁jumɛnw	-2964
▁appris	-2965
▁wɛ	-2966
▁sɔrɔla	-2967
histoire	-2968
▁médecin	-2969
▁demander	-2970
ŋɛlɛ	-2971
▁donnée	-2972
▁sud	-2973
inqui	-2974
▁vête	-2975
▁yɛnŋɛlɛ	-2976
▁sɔbɛ	-2977
olé	-2978
honn	-2979
▁bas	-2980
▁tig	-2981
▁parfa	-2982
▁langues	-2983
arer	-2984
gine	-2985
▁vivant	-2986
̀n	-2987
atta	-2988
entrer	-2989
▁aurait	-2990
▁fantanw	-2991
tés	-2992
▁kw	-2993
isson	-2994
avaient	-2995
30	-2996
▁cours	-2997
▁constru	-2998
wɔ	-2999
▁rou	-3000
▁faim	-3001
▁filles	-3002
▁siranya	-3003
ach	-3004
▁nigɛ	-3005
▁fɛtiw	-3006
▁considé	-3007
dio	-3008
▁43	-3009
nama	-3010
▁diɲè	-3011
▁wolom	-3012
alement	-3013
▁mauvais	-3014
cole	-3015
▁lar	-3016
▁lève	-3017
▁princip	-3018
lin	-3019
réti	-3020
ordre	-3021
matigi	-3022
▁bient	-3023
▁senti	-3024
▁enseign	-3025
-1	-3026
▁ɔn	-3027
▁tch	-3028
▁allah	-3029
▁saban	-3030
▁reconna	-3031
▁bala	-3032
truire	-3033
▁sœurs	-3034
▁pho	-3035
baara	-3036
angile	-3037
▁revenir	-3038
▁jugement	-3039
▁pharisiens	-3040
œil	-3041
bien	-3042
▁maa	-3043
sions	-3044
▁farati	-3045
▁groupe	-3046
mbla	-3047
▁prend	-3048
anya	-3049
fari	-3050
urer	-3051
▁abi	-3052
▁ado	-3053
▁site	-3054
▁tand	-3055
▁warigwɛ	-3056
▁pourrais	-3057
▁situation	-3058
▁ari	-3059
▁ɲɛɛ	-3060
▁adul	-3061
▁juga	-3062
▁juge	-3063
▁grands	-3064
▁nation	-3065
▁bientôt	-3066
ût	-3067
nen	-3068
orts	-3069
▁ensemble	-3070
cs	-3071
sɔ	-3072
▁<	-3073
ici	-3074
▁far	-3075
antes	-3076
▁lɔra	-3077
▁nata	-3078
▁rois	-3079
▁sœur	-3080
▁sinji	-3081
▁saints	-3082
▁sortir	-3083
▁pouvons	-3084
▁kɔgɔ	-3085
▁matt	-3086
▁mɛɛn	-3087
masacɛ	-3088
▁yèrèw	-3089
▁unique	-3090
▁woro	-3091
▁honte	-3092
▁sorte	-3093
▁tanga	-3094
▁droite	-3095
gui	-3096
tez	-3097
▁nz	-3098
▁bro	-3099
▁duniɲa	-3100
▁kɔrɔta	-3101
▁mariki	-3102
▁ɲamɔgɔw	-3103
▁tellement	-3104
▁&	-3105
▁olugu	-3106
▁salut	-3107
duction	-3108
▁étions	-3109
wan	-3110
çons	-3111
▁nax	-3112
▁sugu	-3113
▁gwɛrɛla	-3114
▁conc	-3115
▁bɔsi	-3116
▁aaron	-3117
▁allez	-3118
oque	-3119
▁cana	-3120
▁disc	-3121
▁étant	-3122
▁chréti	-3123
▁malade	-3124
▁message	-3125
bas	-3126
▁delili	-3127
▁lafiɲɛ	-3128
▁law	-3129
▁demeure	-3130
▁kununna	-3131
hieu	-3132
▁ennemis	-3133
▁ang	-3134
▁ferai	-3135
nom	-3136
▁tel	-3137
▁aide	-3138
▁ouver	-3139
▁petite	-3140
isme	-3141
▁étran	-3142
▁plaisir	-3143
unis	-3144
▁layidu	-3145
vel	-3146
▁,"	-3147
▁pye	-3148
▁2012	-3149
▁biri	-3150
▁kumaw	-3151
èlè	-3152
mait	-3153
▁ara	-3154
▁bad	-3155
▁try	-3156
importe	-3157
▁setigi	-3158
gers	-3159
▁datu	-3160
▁safe	-3161
biri	-3162
▁prêt	-3163
gage	-3164
▁actes	-3165
▁entendre	-3166
▁vit	-3167
aider	-3168
issons	-3169
bagatɔw	-3170
▁kɛlɛdenw	-3171
▁prochain	-3172
▁voudrais	-3173
...]	-3174
▁siè	-3175
urité	-3176
▁kaam	-3177
▁abraham	-3178
▁liv	-3179
.....	-3180
▁sauvé	-3181
▁yaala	-3182
▁kabakuru	-3183
chent	-3184
▁arti	-3185
▁sabanan	-3186
▁/	-3187
gée	-3188
loi	-3189
riez	-3190
▁fidè	-3191
▁ɲafɛ	-3192
érance	-3193
accompl	-3194
▁kanubagaw	-3195
dis	-3196
▁inté	-3197
egypte	-3198
▁yeo	-3199
▁yii	-3200
▁yeli	-3201
zare	-3202
▁por	-3203
▁crai	-3204
cɛɛ	-3205
ene	-3206
▁kèra	-3207
▁mɛnna	-3208
▁dormir	-3209
▁travers	-3210
▁duba	-3211
▁leva	-3212
▁condam	-3213
▁ɲanmiɛn	-3214
▁matthieu	-3215
▁contraire	-3216
bun	-3217
eni	-3218
inya	-3219
yɛrɛ	-3220
▁zoo	-3221
▁allé	-3222
▁pres	-3223
▁tugunni	-3224
▁taamasiɲɛ	-3225
gie	-3226
oru	-3227
▁ohun	-3228
▁prie	-3229
▁kaburu	-3230
▁denbaya	-3231
by	-3232
vu	-3233
▁woo	-3234
▁samedi	-3235
lligence	-3236
▁$	-3237
tée	-3238
▁!!!	-3239
▁1:2	-3240
▁lakɔ	-3241
▁assis	-3242
▁autant	-3243
▁humain	-3244
▁combien	-3245
▁service	-3246
▁répondre	-3247
ènw	-3248
rier	-3249
tent	-3250
▁balo	-3251
▁sutana	-3252
lés	-3253
vité	-3254
▁jin	-3255
▁pen	-3256
tenir	-3257
▁sari	-3258
▁mêmes	-3259
▁lettre	-3260
▁dô	-3261
▁timo	-3262
▁kɔniya	-3263
▁village	-3264
mbres	-3265
minin	-3266
▁oubli	-3267
▁comprendre	-3268
tie	-3269
dire	-3270
▁daminè	-3271
cou	-3272
épre	-3273
sisan	-3274
▁tris	-3275
▁poser	-3276
▁représ	-3277
:)	-3278
fè	-3279
ito	-3280
lons	-3281
▁tent	-3282
▁escla	-3283
▁particu	-3284
▁naissance	-3285
osé	-3286
uie	-3287
▁mɔn	-3288
▁pous	-3289
▁lɔnin	-3290
:13	-3291
▁zi	-3292
▁asi	-3293
▁dest	-3294
antage	-3295
▁fiɲɛn	-3296
▁mariya	-3297
▁dafanin	-3298
▁ń	-3299
boo	-3300
tel	-3301
▁éle	-3302
▁méch	-3303
issant	-3304
▁voyez	-3305
▁autour	-3306
▁wolomanin	-3307
anci	-3308
siran	-3309
▁bout	-3310
▁enseigne	-3311
gné	-3312
▁kɑ	-3313
▁kid	-3314
appel	-3315
image	-3316
▁niin	-3317
▁aimer	-3318
▁assez	-3319
▁fanan	-3320
▁règne	-3321
▁galile	-3322
▁immédi	-3323
▁kibaro	-3324
▁mot	-3325
glise	-3326
▁naan	-3327
▁déclaré	-3328
urrection	-3329
yst	-3330
▁--	-3331
▁nba	-3332
▁st	-3333
dess	-3334
▁four	-3335
▁trent	-3336
▁mesure	-3337
▁samari	-3338
▁sigira	-3339
▁jɛnkulu	-3340
▁kɔsegira	-3341
:6	-3342
▁ténè	-3343
▁convient	-3344
:16	-3345
▁fle	-3346
▁leo	-3347
▁diin	-3348
▁maana	-3349
▁création	-3350
▁ténèbres	-3351
enseignement	-3352
▁bɑ	-3353
▁fô	-3354
▁sanin	-3355
lò	-3356
yu	-3357
▁entier	-3358
▁kumakan	-3359
dan	-3360
vie	-3361
aband	-3362
▁baden	-3363
▁majigi	-3364
▁ouv	-3365
▁sis	-3366
blème	-3367
oient	-3368
▁dije	-3369
▁kerec	-3370
▁problème	-3371
▁glo	-3372
▁free	-3373
tiques	-3374
▁[...]	-3375
itement	-3376
▁laisse	-3377
▁savais	-3378
▁anciens	-3379
▁dannaya	-3380
▁faisons	-3381
▁mɔgɔtilennin	-3382
mons	-3383
▁nak	-3384
▁filè	-3385
▁kafe	-3386
▁taba	-3387
▁jumanw	-3388
▁198	-3389
▁devenu	-3390
▁résurrection	-3391
este	-3392
▁jun	-3393
▁vas	-3394
▁galil	-3395
▁bataki	-3396
▁commun	-3397
▁appelés	-3398
▁voulait	-3399
▁attention	-3400
▁commencement	-3401
bon	-3402
lez	-3403
nago	-3404
▁miis	-3405
▁synago	-3406
▁farikolo	-3407
kis	-3408
péci	-3409
▁tex	-3410
▁ɲinɛ	-3411
▁jigin	-3412
:14	-3413
raw	-3414
▁ii	-3415
teau	-3416
yɛlɛ	-3417
▁arrê	-3418
▁camp	-3419
▁plan	-3420
▁post	-3421
quelle	-3422
▁résul	-3423
▁spéci	-3424
▁viens	-3425
▁fiɲɛntɔ	-3426
▁mèn	-3427
▁you	-3428
▁chev	-3429
▁entra	-3430
▁manif	-3431
▁pitié	-3432
▁kɔnɔna	-3433
▁baptisés	-3434
▁(2	-3435
▁fal	-3436
▁bois	-3437
▁good	-3438
▁pères	-3439
▁pouvais	-3440
usé	-3441
arrê	-3442
accue	-3443
▁nzila	-3444
▁pardon	-3445
▁sim	-3446
▁lana	-3447
▁souvent	-3448
▁choix	-3449
▁laquelle	-3450
cée	-3451
ret	-3452
▁blan	-3453
▁dabi	-3454
▁kale	-3455
▁chant	-3456
▁toutefois	-3457
op	-3458
▁bus	-3459
▁jes	-3460
▁kaf	-3461
▁demain	-3462
▁membres	-3463
▁waajuli	-3464
▁habitants	-3465
9.	-3466
dy	-3467
▁étu	-3468
▁baji	-3469
▁mila	-3470
▁suivant	-3471
mè	-3472
▁age	-3473
adore	-3474
yanin	-3475
▁week	-3476
▁satan	-3477
▁marche	-3478
">	-3479
dɛn	-3480
▁="	-3481
▁immédia	-3482
hali	-3483
▁tué	-3484
teurs	-3485
▁maan	-3486
▁révé	-3487
▁tere	-3488
ɲɔgɔnw	-3489
umanbolo	-3490
intérieur	-3491
▁kongokolon	-3492
▁ek	-3493
cent	-3494
école	-3495
univers	-3496
▁tɛmɛnin	-3497
▁réveille	-3498
ral	-3499
▁stu	-3500
▁2017	-3501
▁prit	-3502
▁chair	-3503
▁resté	-3504
▁ʻ	-3505
épée	-3506
▁9:27	-3507
▁nili	-3508
▁prix	-3509
▁prends	-3510
▁vêtements	-3511
▁déli	-3512
▁murujan	-3513
▁fonction	-3514
▁témoigna	-3515
▁nouvelles	-3516
▁connaissent	-3517
jus	-3518
enue	-3519
▁eas	-3520
▁demand	-3521
▁particuli	-3522
kara	-3523
▁bhi	-3524
ussit	-3525
itions	-3526
▁désert	-3527
▁miiska	-3528
unu	-3529
▁nɛɛma	-3530
▁lookin	-3531
▁voulez	-3532
▁laissez	-3533
xe	-3534
how	-3535
lɛn	-3536
▁aka	-3537
▁bord	-3538
▁diri	-3539
▁nord	-3540
▁galon	-3541
▁parta	-3542
jɔn	-3543
ria	-3544
waati	-3545
▁prier	-3546
▁nature	-3547
▁yera	-3548
conque	-3549
▁preuve	-3550
▁rencontre	-3551
chée	-3552
réci	-3553
▁fau	-3554
▁last	-3555
▁respec	-3556
uré	-3557
▁roma	-3558
mation	-3559
honneur	-3560
▁région	-3561
▁7.	-3562
▁bru	-3563
▁dav	-3564
▁lim	-3565
aleur	-3566
aurais	-3567
▁amour	-3568
▁miiran	-3569
yana	-3570
▁grec	-3571
▁kɔrɔbɔ	-3572
▁produit	-3573
impression	-3574
père	-3575
▁mɔ̀	-3576
▁tau	-3577
▁familles	-3578
ap	-3579
cal	-3580
▁sil	-3581
▁tol	-3582
tanin	-3583
▁bɔnɛ	-3584
▁faso	-3585
▁fond	-3586
▁vidé	-3587
▁tombe	-3588
▁proche	-3589
▁travailler	-3590
▁gard	-3591
velopp	-3592
épreuve	-3593
▁résulta	-3594
pour	-3595
siens	-3596
▁septe	-3597
▁pensez	-3598
▁numé	-3599
▁rome	-3600
▁soci	-3601
▁soow	-3602
▁yeah	-3603
années	-3604
▁kiris	-3605
▁sɛgɛrɛ	-3606
▁kɔrɔtanin	-3607
▁#	-3608
▁cé	-3609
▁ŋa	-3610
quel	-3611
rête	-3612
▁piè	-3613
▁ninnu	-3614
▁verre	-3615
up	-3616
enya	-3617
▁amé	-3618
▁tin	-3619
▁easy	-3620
▁kasa	-3621
enfants	-3622
▁kɛcogo	-3623
▁lakɔli	-3624
▁reconn	-3625
▁immédiatement	-3626
lai	-3627
crit	-3628
▁bre	-3629
▁pauvre	-3630
▁trente	-3631
▁arriver	-3632
▁viendra	-3633
▁utiliser	-3634
▁septembre	-3635
?›	-3636
dafɛ	-3637
▁iru	-3638
▁occ	-3639
▁suff	-3640
▁détru	-3641
▁sauve	-3642
origine	-3643
▁recherche	-3644
bee	-3645
▁id	-3646
vier	-3647
▁tii	-3648
▁coeur	-3649
▁rendu	-3650
▁davantage	-3651
jama	-3652
▁blog	-3653
▁lala	-3654
▁peine	-3655
lir	-3656
ung	-3657
▁nk	-3658
tama	-3659
▁taw	-3660
▁val	-3661
conde	-3662
cture	-3663
orité	-3664
▁fuun	-3665
▁niyɔrɔ	-3666
▁répondu	-3667
ari	-3668
▁cir	-3669
armée	-3670
▁marc	-3671
▁signe	-3672
▁disent	-3673
▁simplement	-3674
nie	-3675
tɔnin	-3676
▁forme	-3677
▁yirali	-3678
▁croient	-3679
▁seconde	-3680
▁kɔrɔtɔnin	-3681
siw	-3682
▁ty	-3683
soci	-3684
endez	-3685
tient	-3686
▁bles	-3687
▁lire	-3688
▁appar	-3689
▁durant	-3690
▁maladie	-3691
ii	-3692
xɔ	-3693
▁6.	-3694
▁luu	-3695
▁adam	-3696
▁biin	-3697
▁daal	-3698
▁cɛman	-3699
▁riches	-3700
gus	-3701
▁2"	-3702
ôtre	-3703
▁kya	-3704
▁sam	-3705
adama	-3706
▁cara	-3707
▁êtres	-3708
ussitôt	-3709
▁sarakalasebaga	-3710
10	-3711
gɛnw	-3712
lève	-3713
▁cal	-3714
erres	-3715
▁kwla	-3716
▁tenir	-3717
▁kalifa	-3718
▁ɲumanya	-3719
ero	-3720
foro	-3721
▁kɔɔ	-3722
▁zoova	-3723
▁bonnes	-3724
▁aussitôt	-3725
▁mariyamu	-3726
xt	-3727
uya	-3728
faga	-3729
▁aye	-3730
▁jard	-3731
▁lati	-3732
▁size	-3733
▁réflé	-3734
appelait	-3735
▁animaux	-3736
▁prières	-3737
▁lajɛnnin	-3738
1.	-3739
▁las	-3740
escla	-3741
▁trés	-3742
▁yigi	-3743
▁mangé	-3744
▁barikaman	-3745
envo	-3746
mògò	-3747
▁ori	-3748
▁veo	-3749
rable	-3750
laient	-3751
▁salom	-3752
▁kalansen	-3753
▁daminɛtuma	-3754
lus	-3755
▁naga	-3756
▁yeri	-3757
▁foroba	-3758
intelligence	-3759
vis	-3760
▁hala	-3761
▁tuun	-3762
▁nɔɔrɔ	-3763
▁tala	-3764
excuse	-3765
▁accue	-3766
▁souvi	-3767
▁celles	-3768
▁crainte	-3769
nés	-3770
▁âme	-3771
mblée	-3772
onnés	-3773
▁noon	-3774
▁jugak	-3775
▁consul	-3776
▁kojuguba	-3777
▁cre	-3778
▁nee	-3779
▁croy	-3780
▁maman	-3781
▁sunɔgɔ	-3782
▁kantigi	-3783
▁chercher	-3784
▁mul	-3785
▁yɛɛ	-3786
▁appr	-3787
▁tɛrɛ	-3788
▁duguw	-3789
▁nahana	-3790
▁sembla	-3791
▁namatama	-3792
ɲi	-3793
yɛn	-3794
écou	-3795
▁fur	-3796
▁mai	-3797
▁déce	-3798
▁frapp	-3799
▁laissé	-3800
▁galilée	-3801
▁particip	-3802
▁kabakoyara	-3803
ɑ̃	-3804
▁<3	-3805
..."	-3806
rain	-3807
▁dja	-3808
▁laba	-3809
▁invit	-3810
▁karan	-3811
▁commande	-3812
▁important	-3813
!!!	-3814
lati	-3815
▁ladi	-3816
▁tunu	-3817
▁salomon	-3818
▁sọ	-3819
▁lee	-3820
▁wow	-3821
ganin	-3822
kohun	-3823
▁rasse	-3824
▁kɔrɔcɛ	-3825
▁efforts	-3826
▁kunbiri	-3827
▁romains	-3828
▁recevoir	-3829
▁ohunkohun	-3830
:7	-3831
▁bin	-3832
▁erre	-3833
▁gent	-3834
▁allait	-3835
numanbolo	-3836
:23	-3837
ɔbu	-3838
bugu	-3839
rant	-3840
▁lis	-3841
▁spi	-3842
itigɛ	-3843
omani	-3844
▁anti	-3845
▁bina	-3846
dessus	-3847
▁bolola	-3848
▁différentes	-3849
can	-3850
isiw	-3851
▁accep	-3852
mba	-3853
ssi	-3854
ilité	-3855
▁ange	-3856
▁next	-3857
cience	-3858
▁firent	-3859
▁kɛnɛyara	-3860
étu	-3861
▁kn	-3862
ziɲɛ	-3863
▁fai	-3864
▁nul	-3865
▁baby	-3866
▁caya	-3867
▁médi	-3868
▁états	-3869
▁kanaan	-3870
▁mankan	-3871
▁projet	-3872
▁tandis	-3873
▁manifest	-3874
▁yɛrɛyɛrɛ	-3875
abɔ	-3876
▁bw	-3877
▁eg	-3878
▁fèn	-3879
▁gus	-3880
▁lajɛ	-3881
rement	-3882
▁suivi	-3883
▁conseils	-3884
▁mil	-3885
illet	-3886
▁lade	-3887
▁sɔ̃ɔ	-3888
▁prési	-3889
▁meilleur	-3890
▁semaines	-3891
eri	-3892
▁éch	-3893
ansan	-3894
inement	-3895
▁lama	-3896
▁maka	-3897
▁sooo	-3898
▁morte	-3899
▁pours	-3900
▁remar	-3901
▁penser	-3902
espérance	-3903
▁mɔgɔbaba	-3904
del	-3905
lant	-3906
ritu	-3907
yasi	-3908
▁jig	-3909
▁sub	-3910
asion	-3911
human	-3912
▁pila	-3913
mme	-3914
▁oo	-3915
▁brû	-3916
▁gun	-3917
▁prob	-3918
▁looru	-3919
sankolo	-3920
▁permis	-3921
▁conséqu	-3922
▁of	-3923
▁rê	-3924
▁cii	-3925
▁baba	-3926
▁kɔnna	-3927
▁manque	-3928
▁yɛlɛla	-3929
▁sommeil	-3930
▁1-	-3931
équi	-3932
▁appelle	-3933
▁respons	-3934
▁kititigɛ	-3935
▁souvenez	-3936
rs	-3937
▁@	-3938
men	-3939
sig	-3940
kaba	-3941
tifi	-3942
▁boy	-3943
▁efɛ	-3944
▁àyi	-3945
amuse	-3946
ôtres	-3947
▁2004	-3948
▁bugu	-3949
▁sein	-3950
▁vide	-3951
▁donda	-3952
▁souri	-3953
▁dɔgɔcɛ	-3954
▁prenez	-3955
▁tilenn	-3956
▁wolola	-3957
▁yahutu	-3958
▁ɲɛnabɔ	-3959
▁devenir	-3960
rité	-3961
▁élé	-3962
quent	-3963
▁succ	-3964
▁kiraw	-3965
▁israél	-3966
▁écoute	-3967
▁trouvait	-3968
run	-3969
dait	-3970
▁fix	-3971
▁jos	-3972
▁déclare	-3973
▁poursui	-3974
▁finalement	-3975
.2	-3976
;)	-3977
▁pâ	-3978
difi	-3979
jana	-3980
▁nor	-3981
duits	-3982
▁film	-3983
▁phil	-3984
▁tuer	-3985
eglise	-3986
érience	-3987
▁nɔgɔya	-3988
tit	-3989
▁big	-3990
▁mag	-3991
égard	-3992
▁vite	-3993
▁dites	-3994
▁ɲafan	-3995
▁puisse	-3996
▁saniya	-3997
▁second	-3998
ède	-3999
▁sh	-4000
esti	-4001
érie	-4002
▁195	-4003
▁kii	-4004
▁bons	-4005
▁chap	-4006
▁hago	-4007
vèrent	-4008
▁hɛɛrɛ	-4009
▁priez	-4010
▁tilen	-4011
▁pourra	-4012
▁suivre	-4013
▁connaît	-4014
▁retrouv	-4015
▁décembre	-4016
▁histoire	-4017
▁quiconque	-4018
uns	-4019
chet	-4020
tile	-4021
▁haï	-4022
onses	-4023
▁bugɔ	-4024
▁lagu	-4025
▁tiɲè	-4026
▁tunun	-4027
▁kiraya	-4028
▁ɡ	-4029
sira	-4030
▁huit	-4031
▁suiv	-4032
▁faite	-4033
▁kolon	-4034
▁venue	-4035
▁q	-4036
ged	-4037
▁fɛ̀	-4038
▁neu	-4039
▁durée	-4040
▁changé	-4041
▁gouver	-4042
▁source	-4043
évangile	-4044
▁ressuscité	-4045
▁mɔgɔkɔrɔbaw	-4046
ela	-4047
tho	-4048
▁51	-4049
rila	-4050
rɛti	-4051
état	-4052
▁devi	-4053
▁môgô	-4054
▁page	-4055
▁tèna	-4056
existe	-4057
▁décidé	-4058
ensemble	-4059
lam	-4060
ecti	-4061
midi	-4062
saan	-4063
▁fév	-4064
▁nde	-4065
annon	-4066
▁créa	-4067
▁domi	-4068
▁appro	-4069
▁kasira	-4070
▁musique	-4071
xu	-4072
yés	-4073
▁kogo	-4074
▁rent	-4075
▁tulu	-4076
▁wara	-4077
attente	-4078
▁diinan	-4079
▁jukɔrɔ	-4080
ŋo	-4081
vol	-4082
▁ache	-4083
▁suru	-4084
▁tiga	-4085
▁vote	-4086
▁caman	-4087
▁taara	-4088
▁certain	-4089
▁pɛrɛnna	-4090
▁réponses	-4091
▁nécessaire	-4092
para	-4093
ribu	-4094
aimes	-4095
▁sɔli	-4096
▁croit	-4097
▁moyen	-4098
▁sanga	-4099
▁simon	-4100
écriture	-4101
▁grandes	-4102
▁maisons	-4103
▁spiritu	-4104
pr	-4105
obé	-4106
son	-4107
▁book	-4108
▁ferme	-4109
▁lende	-4110
▁pluie	-4111
ɲɔgɔnya	-4112
▁fagara	-4113
▁garçon	-4114
▁seerew	-4115
▁arijana	-4116
▁sariyaw	-4117
▁abandonné	-4118
▁balimamuso	-4119
itɔ	-4120
omi	-4121
▁fé	-4122
dieux	-4123
lanan	-4124
▁2013	-4125
▁fini	-4126
▁parv	-4127
▁samu	-4128
▁test	-4129
▁judée	-4130
▁table	-4131
▁kɛlɛkɛ	-4132
▁daalili	-4133
▁réfléch	-4134
▁israélites	-4135
▁jɔ	-4136
baaw	-4137
liya	-4138
▁tor	-4139
▁koba	-4140
cteurs	-4141
▁gusun	-4142
inquiète	-4143
▁lendemain	-4144
▁nafolotigi	-4145
▁religieuse	-4146
wn	-4147
▁noé	-4148
esses	-4149
▁karo	-4150
dition	-4151
▁datugu	-4152
▁frança	-4153
▁développ	-4154
ben	-4155
gré	-4156
ica	-4157
▁bà	-4158
▁mì	-4159
▁18-	-4160
▁bri	-4161
▁doo	-4162
▁wul	-4163
attend	-4164
▁faama	-4165
▁telle	-4166
▁capable	-4167
emb	-4168
▁pon	-4169
œuvre	-4170
▁sɛnɛ	-4171
▁tota	-4172
▁kunma	-4173
▁lɔgɔkun	-4174
▁baarakɛla	-4175
:20	-4176
car	-4177
▁juin	-4178
▁miir	-4179
entend	-4180
▁messa	-4181
▁montre	-4182
▁ɲagami	-4183
▁concerne	-4184
▁population	-4185
▁souffrance	-4186
id	-4187
wɑ	-4188
kɔnɔ	-4189
minɛ	-4190
▁nyo	-4191
▁demi	-4192
▁masi	-4193
▁yere	-4194
▁baasi	-4195
▁efɛzi	-4196
▁nuits	-4197
▁témoignage	-4198
hs	-4199
▁ng	-4200
empê	-4201
ɔnin	-4202
▁ber	-4203
▁ham	-4204
sionn	-4205
▁atta	-4206
▁jula	-4207
▁champ	-4208
▁phili	-4209
▁souha	-4210
▁tromp	-4211
▁venus	-4212
▁devrait	-4213
▁peuples	-4214
attention	-4215
▁cɛkɔrɔbaw	-4216
:8	-4217
ry	-4218
:19	-4219
ctu	-4220
ton	-4221
bele	-4222
▁eze	-4223
▁ayez	-4224
▁kind	-4225
▁otro	-4226
▁décédé	-4227
▁jardin	-4228
▁wolobagaw	-4229
sɛn	-4230
▁ik	-4231
▁ps	-4232
cool	-4233
▁dons	-4234
▁portes	-4235
▁voyage	-4236
▁janvier	-4237
▁rapport	-4238
▁derniers	-4239
].	-4240
▁;	-4241
oun	-4242
▁hoo	-4243
▁lég	-4244
▁tre	-4245
▁recom	-4246
▁diable	-4247
▁découv	-4248
▁voient	-4249
humanité	-4250
ned	-4251
▁2-	-4252
▁nò	-4253
▁rô	-4254
▁mama	-4255
▁must	-4256
▁donko	-4257
▁repos	-4258
▁duguma	-4259
▁danbaga	-4260
intention	-4261
com	-4262
oit	-4263
indi	-4264
▁idée	-4265
▁tomb	-4266
titude	-4267
▁kɔrɔn	-4268
▁lesqu	-4269
▁dencɛw	-4270
▁valeur	-4271
▁regarde	-4272
tala	-4273
étant	-4274
▁atte	-4275
▁feel	-4276
▁lase	-4277
▁levi	-4278
▁yôrô	-4279
▁fen	-4280
ement	-4281
rière	-4282
▁minan	-4283
▁tagar	-4284
▁article	-4285
▁pardonne	-4286
▁traduction	-4287
:15	-4288
▁abs	-4289
jecti	-4290
▁amen	-4291
▁jara	-4292
▁yɛle	-4293
▁zude	-4294
▁état	-4295
▁gonna	-4296
▁mérit	-4297
▁attend	-4298
▁cogoya	-4299
▁famine	-4300
▁mourut	-4301
▁réussi	-4302
▁promesse	-4303
▁kɔlɔsikaw	-4304
tif	-4305
zan	-4306
rées	-4307
▁ole	-4308
vites	-4309
▁masòrò	-4310
▁numéro	-4311
▁dernière	-4312
bia	-4313
ɔru	-4314
▁kora	-4315
▁pare	-4316
▁sair	-4317
article	-4318
▁voyons	-4319
▁parties	-4320
▁puisque	-4321
▁bataille	-4322
▁moo	-4323
▁déta	-4324
▁hinɛ	-4325
▁jɛrɛ	-4326
▁kele	-4327
▁lolo	-4328
▁masaw	-4329
▁resse	-4330
▁super	-4331
▁tiens	-4332
chèrent	-4333
instant	-4334
▁sairly	-4335
▁laisser	-4336
▁créateur	-4337
rita	-4338
ttes	-4339
▁dad	-4340
▁mor	-4341
▁empê	-4342
▁jigɛ	-4343
▁nɛnɛ	-4344
▁quar	-4345
▁sila	-4346
▁kasih	-4347
▁bɔnsɔn	-4348
▁katugu	-4349
▁woloma	-4350
lication	-4351
ezi	-4352
èse	-4353
▁52	-4354
cule	-4355
▁kat	-4356
▁actu	-4357
▁juma	-4358
▁toun	-4359
▁sinon	-4360
▁dɛmɛbaga	-4361
50.	-4362
tera	-4363
▁bil	-4364
▁wɛ̃	-4365
istre	-4366
▁feere	-4367
▁minni	-4368
▁phara	-4369
▁weele	-4370
▁choisi	-4371
▁livres	-4372
▁œuvres	-4373
▁sauveur	-4374
▁miracles	-4375
rém	-4376
▁us	-4377
,...	-4378
▁inf	-4379
▁lut	-4380
lèmes	-4381
▁chine	-4382
▁meurt	-4383
▁sarah	-4384
▁corint	-4385
▁ɲagali	-4386
sc	-4387
▁%	-4388
voie	-4389
yaka	-4390
▁gba	-4391
▁fɔta	-4392
nation	-4393
▁colle	-4394
▁jesus	-4395
▁tèmèn	-4396
versaire	-4397
▁hɔrɔnya	-4398
▁parlait	-4399
▁période	-4400
gè	-4401
▁ris	-4402
▁tôt	-4403
istes	-4404
▁dege	-4405
▁exac	-4406
▁prov	-4407
▁philipp	-4408
▁respect	-4409
▁premiers	-4410
▁!!	-4411
▁ina	-4412
étran	-4413
▁date	-4414
▁faniw	-4415
▁lɔyɔrɔ	-4416
▁termin	-4417
▁fallait	-4418
▁retourn	-4419
▁problèmes	-4420
14	-4421
▁1,	-4422
lité	-4423
saraka	-4424
▁forte	-4425
▁pensé	-4426
▁prêts	-4427
▁titre	-4428
▁juillet	-4429
▁solomani	-4430
em	-4431
:25	-4432
idée	-4433
▁jac	-4434
viter	-4435
▁grâces	-4436
▁descendu	-4437
▁pratique	-4438
▁tilannin	-4439
▁mɔgɔjuguw	-4440
▁vé	-4441
zari	-4442
rions	-4443
▁chau	-4444
▁ladon	-4445
▁président	-4446
▁+	-4447
cho	-4448
juru	-4449
▁199	-4450
▁dii	-4451
▁cira	-4452
▁oise	-4453
▁tran	-4454
▁yari	-4455
▁œuvre	-4456
▁prépar	-4457
▁communi	-4458
▁présence	-4459
▁ɲiningaliw	-4460
▁100	-4461
▁avi	-4462
▁malɔ	-4463
isions	-4464
▁biens	-4465
▁dieux	-4466
▁kàlan	-4467
▁cibaga	-4468
▁arrivés	-4469
hn	-4470
:24	-4471
▁gro	-4472
▁ndɛ	-4473
▁hors	-4474
action	-4475
ations	-4476
▁lemɛn	-4477
▁obser	-4478
▁bɛnnin	-4479
▁semble	-4480
▁tagged	-4481
▁endroit	-4482
▁personna	-4483
ɛl	-4484
gir	-4485
sus	-4486
ɛli	-4487
▁nim	-4488
▁nta	-4489
bilité	-4490
gation	-4491
▁vidéo	-4492
▁solution	-4493
▁ment	-4494
▁liban	-4495
▁naxan	-4496
▁charge	-4497
▁sauvés	-4498
▁savent	-4499
▁samarie	-4500
▁attendre	-4501
▁présente	-4502
▁dì	-4503
alle	-4504
isée	-4505
▁parc	-4506
taient	-4507
▁photo	-4508
▁repas	-4509
occasion	-4510
▁informa	-4511
information	-4512
▁baarakɛlaw	-4513
▁jij	-4514
▁cɛɛw	-4515
▁kule	-4516
▁pron	-4517
▁vaut	-4518
▁jaman	-4519
▁judas	-4520
▁allons	-4521
▁entrer	-4522
▁lanaya	-4523
▁récomp	-4524
▁égypte	-4525
▁faisant	-4526
▁miséricordieux	-4527
cat	-4528
tun	-4529
▁em	-4530
▁kô	-4531
▁ég	-4532
chés	-4533
line	-4534
▁pun	-4535
▁thé	-4536
kalan	-4537
▁awak	-4538
▁rich	-4539
époque	-4540
▁texte	-4541
▁kakala	-4542
▁kɔmɔgɔ	-4543
▁épouse	-4544
▁dagamun	-4545
▁naloman	-4546
▁poisson	-4547
ône	-4548
irent	-4549
▁mout	-4550
kɔrɔba	-4551
occupe	-4552
urunin	-4553
▁plait	-4554
▁donnez	-4555
▁effecti	-4556
▁pharaon	-4557
▁différence	-4558
lor	-4559
reux	-4560
wɛli	-4561
▁juu	-4562
▁koko	-4563
▁nkan	-4564
▁babil	-4565
▁soins	-4566
▁banned	-4567
21	-4568
inf	-4569
▁55	-4570
▁ed	-4571
▁wà	-4572
▁bel	-4573
▁pal	-4574
enons	-4575
euses	-4576
ɔnhɔn	-4577
▁août	-4578
▁folo	-4579
▁kowa	-4580
▁dakun	-4581
▁ligne	-4582
arrivée	-4583
▁ɲumanw	-4584
▁faransi	-4585
assemblée	-4586
▁synagogue	-4587
--	-4588
abs	-4589
▁af	-4590
sant	-4591
ayant	-4592
prise	-4593
arrête	-4594
▁begɛnw	-4595
▁dispos	-4596
▁aimeras	-4597
▁masasig	-4598
apprendre	-4599
▁kuntigiya	-4600
▁montagnes	-4601
],	-4602
her	-4603
▁sp	-4604
▁ze	-4605
▁kas	-4606
▁now	-4607
▁xɔn	-4608
leurs	-4609
▁afri	-4610
▁tɔɔw	-4611
▁satis	-4612
▁jacques	-4613
▁continue	-4614
__	-4615
▁·	-4616
mas	-4617
ong	-4618
yaw	-4619
dɔmu	-4620
lace	-4621
▁50/	-4622
▁éto	-4623
ennes	-4624
▁cham	-4625
▁kiya	-4626
▁kɛrɛ	-4627
▁dibaga	-4628
▁kisili	-4629
▁lévites	-4630
9-	-4631
uli	-4632
▁ir	-4633
▁soin	-4634
▁tint	-4635
dawuda	-4636
liquer	-4637
▁affir	-4638
▁liber	-4639
▁réuni	-4640
▁woman	-4641
diction	-4642
pourquoi	-4643
▁adultes	-4644
▁53	-4645
bara	-4646
▁aur	-4647
arbre	-4648
▁bisa	-4649
▁tara	-4650
▁gbɛlɛ	-4651
▁impos	-4652
lations	-4653
▁bénéfi	-4654
▁cheveux	-4655
▁kunmabɔ	-4656
cté	-4657
ŋga	-4658
▁know	-4659
▁nɔrɔ	-4660
entrée	-4661
▁fɛɛrɛ	-4662
▁lamèn	-4663
▁victi	-4664
▁dirige	-4665
▁lequel	-4666
▁kabakow	-4667
▁regardez	-4668
▁masasigilan	-4669
13	-4670
cto	-4671
mos	-4672
ales	-4673
ninw	-4674
▁séc	-4675
accep	-4676
isage	-4677
ziɲɛw	-4678
▁dunu	-4679
urance	-4680
ɔrɔnan	-4681
▁organ	-4682
cations	-4683
éritage	-4684
▁croyez	-4685
▁dɔgɔya	-4686
▁justes	-4687
▁conseil	-4688
▁glorifi	-4689
▁isiyaka	-4690
▁chrétiens	-4691
▁travaille	-4692
àn	-4693
dra	-4694
▁1.	-4695
ette	-4696
lées	-4697
sɛbɛ	-4698
tien	-4699
▁gau	-4700
▁ŋga	-4701
▁gala	-4702
▁gari	-4703
▁sina	-4704
▁vint	-4705
liance	-4706
▁plein	-4707
▁telef	-4708
▁gwansan	-4709
hh	-4710
êt	-4711
▁%%	-4712
▁év	-4713
yens	-4714
▁lin	-4715
▁sus	-4716
gique	-4717
▁tògò	-4718
▁ezeki	-4719
▁consulter	-4720
▁surunyana	-4721
rɔ	-4722
▁56	-4723
▁hun	-4724
▁nùn	-4725
aller	-4726
arche	-4727
▁conn	-4728
▁kòni	-4729
▁yara	-4730
▁cinqu	-4731
▁fasse	-4732
▁yɔrɔjan	-4733
▁mɔgɔfaga	-4734
ny	-4735
bri	-4736
hen	-4737
pré	-4738
val	-4739
▁nw	-4740
rèrent	-4741
▁fɔtaw	-4742
▁crains	-4743
▁dimina	-4744
▁soumis	-4745
▁batofɛn	-4746
ɑɑ	-4747
ell	-4748
huit	-4749
vage	-4750
vaux	-4751
▁uni	-4752
▁wor	-4753
ctifi	-4754
tième	-4755
▁couv	-4756
▁faits	-4757
accueil	-4758
▁prisonni	-4759
▁souffran	-4760
ril	-4761
riti	-4762
▁bal	-4763
▁yɔn	-4764
▁bébé	-4765
▁lere	-4766
▁répu	-4767
▁zaki	-4768
▁digne	-4769
▁fruit	-4770
▁possi	-4771
ception	-4772
onnement	-4773
▁apôtres	-4774
▁sankaba	-4775
▁lemɛniya	-4776
▁représent	-4777
▁effectivement	-4778
yin	-4779
▁kh	-4780
▁196	-4781
▁amo	-4782
▁bén	-4783
▁naa	-4784
▁saw	-4785
merci	-4786
▁laaa	-4787
▁korɛn	-4788
▁siraw	-4789
▁étudi	-4790
▁batise	-4791
▁reconnu	-4792
▁mɔgɔbabaw	-4793
ua	-4794
aba	-4795
rio	-4796
ting	-4797
▁sòn	-4798
sieur	-4799
▁mean	-4800
▁livré	-4801
▁filɛli	-4802
▁fleuve	-4803
▁politi	-4804
▁donnera	-4805
▁demandez	-4806
cis	-4807
dou	-4808
quis	-4809
▁dji	-4810
expri	-4811
▁pros	-4812
▁sɛgɛ	-4813
▁maria	-4814
▁nuhun	-4815
▁50/50.	-4816
▁consta	-4817
▁terikɛ	-4818
▁baarakɛ	-4819
sarakalase	-4820
▁ev	-4821
alie	-4822
kɛlɛ	-4823
▁aie	-4824
phone	-4825
▁fòlò	-4826
▁daniel	-4827
▁nyogon	-4828
▁puisqu	-4829
▁sabati	-4830
▁tugura	-4831
▁langage	-4832
▁wɔɔrɔnan	-4833
▁banabagatɔ	-4834
▁facilement	-4835
riw	-4836
éle	-4837
mand	-4838
▁mak	-4839
▁béni	-4840
▁fali	-4841
▁fɔɲɔ	-4842
▁papa	-4843
oublie	-4844
▁racon	-4845
interro	-4846
▁vendre	-4847
▁veulent	-4848
ɑ̃ɑ	-4849
▁wì	-4850
ectu	-4851
yila	-4852
▁deb	-4853
ciles	-4854
duire	-4855
hiens	-4856
▁aveu	-4857
▁bras	-4858
▁tɔnɔ	-4859
lément	-4860
▁hébre	-4861
▁jɔɔnw	-4862
▁proté	-4863
enseign	-4864
▁propri	-4865
▁racont	-4866
▁reçoit	-4867
▁février	-4868
▁pierres	-4869
▁babilɔni	-4870
▁esclaves	-4871
▁fanibugu	-4872
▁tigitigi	-4873
▁différents	-4874
▁souffrances	-4875
18	-4876
bus	-4877
▁58	-4878
▁op	-4879
nant	-4880
taga	-4881
▁hau	-4882
▁baru	-4883
▁fɔla	-4884
▁mina	-4885
▁susu	-4886
▁tana	-4887
esclave	-4888
▁généra	-4889
▁lonanw	-4890
▁tumabee	-4891
▁yahutuw	-4892
▁nyogonfe	-4893
▁comprenez	-4894
▁xo	-4895
kalo	-4896
kira	-4897
lier	-4898
mett	-4899
▁ɛrɛ	-4900
▁baga	-4901
▁bɔna	-4902
▁mini	-4903
▁minè	-4904
adress	-4905
alcool	-4906
▁lonan	-4907
▁badenw	-4908
▁minɛna	-4909
▁courant	-4910
▁korɛnti	-4911
▁liberté	-4912
informations	-4913
lit	-4914
orer	-4915
▁laf	-4916
▁tak	-4917
resser	-4918
endroit	-4919
▁ventre	-4920
▁ɲènama	-4921
▁appréci	-4922
▁dɔgɔtɔrɔso	-4923
oux	-4924
▁jè	-4925
▁soy	-4926
▁améri	-4927
▁capit	-4928
▁murut	-4929
▁sisen	-4930
endront	-4931
▁seereya	-4932
▁travaux	-4933
abandonne	-4934
▁sanctifi	-4935
6.	-4936
maw	-4937
▁gɔ	-4938
agwɛ	-4939
gnez	-4940
▁ajou	-4941
▁nahi	-4942
▁pose	-4943
▁seli	-4944
▁tiin	-4945
▁dugus	-4946
▁mandi	-4947
▁paris	-4948
▁damani	-4949
▁repris	-4950
▁ɲinɛna	-4951
▁fiɲɛntɔw	-4952
▁nalomanw	-4953
▁miséricorde	-4954
yon	-4955
▁bl	-4956
▁kel	-4957
▁lam	-4958
▁obé	-4959
▁the	-4960
▁lain	-4961
▁mogo	-4962
▁remis	-4963
▁confor	-4964
▁mariés	-4965
▁sainte	-4966
▁tɔɲɔgɔn	-4967
▁dugusagwɛ	-4968
00.	-4969
par	-4970
phé	-4971
▁yū	-4972
euvre	-4973
▁that	-4974
kojugu	-4975
▁commis	-4976
▁destin	-4977
▁timote	-4978
karamɔgɔ	-4979
▁kerecɛn	-4980
▁qualité	-4981
▁voulons	-4982
▁kabakoya	-4983
15	-4984
tout	-4985
wili	-4986
▁flɛ	-4987
▁ɛɛn	-4988
gnent	-4989
▁diza	-4990
▁fiyɛ	-4991
▁mans	-4992
▁change	-4993
▁façons	-4994
▁profond	-4995
extérieur	-4996
▁exactement	-4997
▁ɲɔ	-4998
olée	-4999
▁nte	-5000
aimez	-5001
graph	-5002
▁suka	-5003
▁écri	-5004
▁certes	-5005
paravant	-5006
▁taamana	-5007
▁denmusow	-5008
▁kirisita	-5009
:9	-5010
cre	-5011
kana	-5012
titu	-5013
éloi	-5014
▁sɛn	-5015
▁soix	-5016
ormais	-5017
▁birin	-5018
▁jinaw	-5019
ènement	-5020
▁cherche	-5021
▁voulais	-5022
▁commandements	-5023
las	-5024
▁bun	-5025
▁leh	-5026
avant	-5027
▁hare	-5028
▁levé	-5029
▁lɔti	-5030
▁tari	-5031
▁dougou	-5032
▁départ	-5033
▁naanin	-5034
▁fagayɔrɔ	-5035
▁français	-5036
▁pardonner	-5037
▁pouvaient	-5038
▁conscience	-5039
bèn	-5040
lui	-5041
ɛri	-5042
ilen	-5043
suis	-5044
▁kpɛ	-5045
▁eaux	-5046
▁noms	-5047
mettre	-5048
▁bless	-5049
▁cesse	-5050
▁troup	-5051
▁buguri	-5052
▁laaaan	-5053
▁pronon	-5054
▁terima	-5055
▁réalité	-5056
ïe	-5057
▁̈	-5058
zɛn	-5059
̀wɔ	-5060
lance	-5061
▁000)	-5062
▁symp	-5063
▁éloi	-5064
▁ɔ̀wɔ	-5065
import	-5066
▁centa	-5067
▁landa	-5068
▁sabar	-5069
▁écris	-5070
aimerai	-5071
▁accord	-5072
▁appela	-5073
▁jigiya	-5074
▁junman	-5075
▁compagn	-5076
▁cherchez	-5077
▁croyants	-5078
▁worodugu	-5079
amen	-5080
fait	-5081
fani	-5082
▁nge	-5083
▁cade	-5084
▁need	-5085
▁sɔrɔn	-5086
▁quarante	-5087
▁gouvernement	-5088
▁tú	-5089
auté	-5090
gles	-5091
itan	-5092
òròn	-5093
▁cés	-5094
▁fala	-5095
▁faux	-5096
▁nani	-5097
▁seras	-5098
attends	-5099
▁conser	-5100
▁détour	-5101
▁gusunɔ	-5102
▁servir	-5103
▁territ	-5104
▁fangatigi	-5105
▁résultats	-5106
▁semblable	-5107
▁réellement	-5108
çu	-5109
8.1	-5110
▁bô	-5111
9-20	-5112
anti	-5113
ɔbɛw	-5114
▁wot	-5115
enfer	-5116
▁cité	-5117
▁john	-5118
▁kɔɲɔ	-5119
▁obli	-5120
▁syst	-5121
▁battre	-5122
▁julakan	-5123
▁parlent	-5124
▁balimacɛ	-5125
▁kakalaya	-5126
:37	-5127
mal	-5128
▁65	-5129
▁ee	-5130
orow	-5131
▁ext	-5132
itiri	-5133
table	-5134
▁bâti	-5135
▁degi	-5136
▁tobi	-5137
▁bɛnna	-5138
▁marié	-5139
▁bɔnnin	-5140
▁cherché	-5141
▁douleur	-5142
▁désormais	-5143
▁sacrifice	-5144
▁totalement	-5145
approchèrent	-5146
awo	-5147
anni	-5148
atan	-5149
enda	-5150
▁ess	-5151
▁jer	-5152
▁kah	-5153
chait	-5154
▁type	-5155
▁yama	-5156
▁ɲafɔ	-5157
termin	-5158
▁dents	-5159
▁lieux	-5160
▁tuman	-5161
itation	-5162
nements	-5163
▁salaire	-5164
▁apporter	-5165
trg	-5166
▁nyɔ	-5167
▁évé	-5168
gnait	-5169
▁girɛ	-5170
▁kilɛ	-5171
▁sala	-5172
▁wèrè	-5173
▁sortes	-5174
▁devenus	-5175
:28	-5176
lew	-5177
afri	-5178
sais	-5179
aimés	-5180
▁ngan	-5181
▁carte	-5182
▁siara	-5183
usement	-5184
▁rendit	-5185
▁signes	-5186
▁babylon	-5187
▁vivants	-5188
éra	-5189
▁54	-5190
▁gn	-5191
▁mâ	-5192
enin	-5193
▁193	-5194
▁gui	-5195
▁sup	-5196
▁top	-5197
9-20)	-5198
obser	-5199
▁libé	-5200
▁rési	-5201
▁équi	-5202
issage	-5203
kanuya	-5204
▁(28.1	-5205
▁césar	-5206
▁fonda	-5207
▁kɛnin	-5208
▁solda	-5209
occuper	-5210
▁ouvert	-5211
▁points	-5212
▁porter	-5213
▁tulogw	-5214
▁souviens	-5215
▁(28.19-20)	-5216
▁sacrifices	-5217
11	-5218
mont	-5219
▁bèn	-5220
▁kua	-5221
▁maj	-5222
▁nive	-5223
▁amata	-5224
istance	-5225
▁dispar	-5226
▁gauche	-5227
▁muruti	-5228
▁noonoo	-5229
▁corinthiens	-5230
5:	-5231
far	-5232
ɲan	-5233
▁koe	-5234
faits	-5235
▁noël	-5236
▁pati	-5237
▁pewu	-5238
▁quin	-5239
kuntigi	-5240
▁fidèle	-5241
▁furakɛ	-5242
▁profes	-5243
▁sayuli	-5244
entendre	-5245
:12	-5246
tifs	-5247
objet	-5248
▁jago	-5249
▁neuf	-5250
▁popo	-5251
instal	-5252
▁mondi	-5253
▁egypte	-5254
▁sirana	-5255
▁courage	-5256
▁vinrent	-5257
▁2.	-5258
▁4-	-5259
▁700	-5260
▁dee	-5261
duite	-5262
laman	-5263
▁....	-5264
▁lamp	-5265
▁maro	-5266
▁poli	-5267
▁dérou	-5268
▁loved	-5269
▁monté	-5270
▁garder	-5271
▁sɔlida	-5272
▁paradis	-5273
▁mà	-5274
loon	-5275
▁ooo	-5276
▁âge	-5277
▁ayei	-5278
▁gafew	-5279
▁actions	-5280
▁société	-5281
▁souhaite	-5282
▁sécurité	-5283
▁yɛlɛmana	-5284
▁dagamunin	-5285
ak	-5286
gal	-5287
boɲa	-5288
bɛrɛ	-5289
musa	-5290
erenw	-5291
musow	-5292
▁aawo	-5293
▁nobar	-5294
▁porté	-5295
▁préfé	-5296
▁donnés	-5297
▁triste	-5298
▁tununa	-5299
▁établi	-5300
▁intinya	-5301
▁siaramɔ	-5302
▁comments	-5303
▁monsieur	-5304
-2	-5305
aise	-5306
▁34-	-5307
▁dòw	-5308
▁exa	-5309
▁flo	-5310
kumaw	-5311
▁croix	-5312
▁rends	-5313
▁filipu	-5314
▁labaan	-5315
▁pensée	-5316
▁pièces	-5317
agissait	-5318
▁pleurer	-5319
accomplir	-5320
▁communauté	-5321
bɑ	-5322
aura	-5323
▁ble	-5324
▁dal	-5325
▁dam	-5326
▁gan	-5327
dence	-5328
upart	-5329
▁vent	-5330
amuser	-5331
issais	-5332
▁daman	-5333
▁ɔnhɔn	-5334
▁disais	-5335
▁mirent	-5336
▁offici	-5337
▁moutons	-5338
▁passait	-5339
▁plupart	-5340
▁rassemb	-5341
▁détruire	-5342
▁retourne	-5343
èl	-5344
45.	-5345
hor	-5346
net	-5347
ved	-5348
▁cy	-5349
▁pè	-5350
mbéc	-5351
▁deh	-5352
ister	-5353
▁enjo	-5354
▁here	-5355
▁inte	-5356
▁rivi	-5357
▁colos	-5358
▁isira	-5359
▁total	-5360
▁effect	-5361
▁effica	-5362
▁parlez	-5363
▁suruta	-5364
▁wulila	-5365
▁changer	-5366
▁daminɛna	-5367
▁auparavant	-5368
bò	-5369
nn	-5370
ía	-5371
pec	-5372
▁ign	-5373
▁kɛsu	-5374
▁tend	-5375
▁ɲɛna	-5376
▁bɔnin	-5377
▁ladegi	-5378
▁arrivée	-5379
▁malades	-5380
'.	-5381
:22	-5382
:33	-5383
▁gɛ	-5384
▁jù	-5385
cifi	-5386
manu	-5387
mmen	-5388
tara	-5389
▁mɛɛ	-5390
enfui	-5391
eront	-5392
unité	-5393
▁agré	-5394
▁avis	-5395
▁noir	-5396
▁suun	-5397
ininka	-5398
▁eburu	-5399
▁tente	-5400
essayer	-5401
▁litiri	-5402
▁public	-5403
approche	-5404
étranger	-5405
▁capitale	-5406
▁kisibaga	-5407
▁philippe	-5408
▁véritable	-5409
od	-5410
bɔn	-5411
minw	-5412
yimu	-5413
▁kia	-5414
▁sar	-5415
▁uso	-5416
▁yèlè	-5417
▁dadon	-5418
▁fanta	-5419
▁isaac	-5420
▁claire	-5421
▁debout	-5422
▁israɛl	-5423
▁lalaga	-5424
▁sapiti	-5425
▁ordonné	-5426
▁réveillez	-5427
▁construire	-5428
▁tulogwerenw	-5429
7.	-5430
tah	-5431
ɔdi	-5432
▁66	-5433
▁kĩ	-5434
tidi	-5435
▁day	-5436
▁quo	-5437
manan	-5438
ombre	-5439
▁réfé	-5440
▁sɔtɔ	-5441
tivité	-5442
▁enfin	-5443
▁entré	-5444
▁ninsɔn	-5445
▁parfois	-5446
▁difficul	-5447
▁discours	-5448
▁construction	-5449
ize	-5450
nor	-5451
pit	-5452
▁sag	-5453
▁gouv	-5454
▁guéri	-5455
▁sebaa	-5456
▁fruits	-5457
▁namara	-5458
▁venait	-5459
▁reviend	-5460
▁batizera	-5461
▁décision	-5462
▁mɔgɔjugu	-5463
▁naaninan	-5464
▁forobayɔrɔw	-5465
▁farisogobana	-5466
âme	-5467
▁boi	-5468
▁chɛ	-5469
▁nɔn	-5470
▁reg	-5471
▁wie	-5472
illez	-5473
rémie	-5474
▁rêve	-5475
▁sibo	-5476
▁allés	-5477
▁trône	-5478
artient	-5479
blement	-5480
▁farisi	-5481
▁girɛki	-5482
▁sabbat	-5483
▁isirayila	-5484
▁impossible	-5485
pon	-5486
▁59	-5487
obsc	-5488
▁foo	-5489
▁zon	-5490
▁amer	-5491
▁jate	-5492
▁kafo	-5493
▁quat	-5494
▁savi	-5495
▁ɲanabɔ	-5496
▁alatala	-5497
▁conduit	-5498
▁disponi	-5499
▁philist	-5500
▁sebaaya	-5501
mentation	-5502
▁craignez	-5503
▁daniyɛli	-5504
▁efɛzikaw	-5505
▁rappelle	-5506
▁meilleure	-5507
:26	-5508
eng	-5509
▁57	-5510
huile	-5511
▁kami	-5512
▁life	-5513
ennemi	-5514
rirent	-5515
▁proba	-5516
▁précé	-5517
▁repro	-5518
▁sɔngɔ	-5519
▁transp	-5520
▁système	-5521
▁allèrent	-5522
▁sapitiri	-5523
▁korɛntikaw	-5524
▁kititigɛlaw	-5525
▁¿	-5526
ypo	-5527
▁3.	-5528
▁dɛn	-5529
▁joo	-5530
▁nyɛ	-5531
▁yar	-5532
aniya	-5533
▁lune	-5534
▁viol	-5535
auteur	-5536
erreur	-5537
anmoins	-5538
vention	-5539
▁siècle	-5540
▁sortit	-5541
▁filisiw	-5542
▁kowagara	-5543
expérience	-5544
bin	-5545
cap	-5546
ets	-5547
lou	-5548
▁od	-5549
ande	-5550
dain	-5551
thée	-5552
▁jòn	-5553
▁kɛli	-5554
▁ɲɔɔn	-5555
épouse	-5556
équipe	-5557
▁nommé	-5558
▁jɛnsɛn	-5559
▁kɔrɔsi	-5560
▁sabali	-5561
▁sunguruw	-5562
rentissage	-5563
▁taamacogo	-5564
▁philistins	-5565
▁sungurunin	-5566
▁»	-5567
faw	-5568
gar	-5569
mère	-5570
▁dil	-5571
▁basa	-5572
▁dɔ̀n	-5573
▁surv	-5574
jectif	-5575
maniya	-5576
zareth	-5577
▁begɛn	-5578
afrique	-5579
▁firiya	-5580
▁muruku	-5581
▁revenu	-5582
éternité	-5583
▁jérémie	-5584
▁ressusc	-5585
▁néanmoins	-5586
▁dadonkumaw	-5587
mit	-5588
▁69	-5589
tiɲè	-5590
▁won	-5591
isent	-5592
▁poss	-5593
aiment	-5594
▁chans	-5595
▁grecs	-5596
▁réser	-5597
▁ɲinan	-5598
▁dadili	-5599
▁natuma	-5600
▁rendez	-5601
▁miliyɔn	-5602
▁quotidi	-5603
▁remerci	-5604
▁entièrement	-5605
hô	-5606
iw	-5607
the	-5608
ute	-5609
basi	-5610
vite	-5611
▁aje	-5612
▁fɔn	-5613
iller	-5614
injus	-5615
orgue	-5616
▁conta	-5617
▁enjoy	-5618
▁nalon	-5619
▁voyant	-5620
adamaden	-5621
▁désolée	-5622
▁israéli	-5623
▁continuer	-5624
▁kuntigiba	-5625
▁retourner	-5626
accomplissement	-5627
▁«	-5628
dɔn	-5629
▁dù	-5630
kala	-5631
yira	-5632
▁kaj	-5633
ayons	-5634
tesse	-5635
▁lois	-5636
▁rôle	-5637
embras	-5638
▁aurez	-5639
▁pente	-5640
▁resta	-5641
▁mɛɛnna	-5642
▁sachant	-5643
▁comporte	-5644
▁commencer	-5645
▁informations	-5646
ram	-5647
▁kl	-5648
avan	-5649
fɛɛn	-5650
phra	-5651
gunin	-5652
▁kiri	-5653
▁prote	-5654
▁sèbèn	-5655
adresse	-5656
▁cikura	-5657
▁désolé	-5658
▁kɔgɔji	-5659
▁sɔrɔko	-5660
▁fidèles	-5661
obscurité	-5662
▁septième	-5663
▁wajibiya	-5664
uu	-5665
ary	-5666
ats	-5667
red	-5668
▁my	-5669
ince	-5670
ɲɛna	-5671
▁ile	-5672
▁win	-5673
cieux	-5674
illir	-5675
tiens	-5676
▁maza	-5677
▁yisa	-5678
▁écla	-5679
▁accor	-5680
▁genre	-5681
▁years	-5682
▁dehors	-5683
▁diiman	-5684
▁prophé	-5685
▁purifi	-5686
▁babylone	-5687
▁relation	-5688
ese	-5689
rêt	-5690
tos	-5691
▁ly	-5692
levé	-5693
wara	-5694
▁châ	-5695
▁kôn	-5696
▁oli	-5697
riers	-5698
rista	-5699
▁aint	-5700
▁duré	-5701
▁foli	-5702
▁poro	-5703
▁says	-5704
▁sisi	-5705
▁cents	-5706
▁woilu	-5707
▁bateau	-5708
▁damina	-5709
▁longue	-5710
▁ntalen	-5711
▁rappel	-5712
▁époque	-5713
▁baptême	-5714
▁accompli	-5715
▁soixante	-5716
▁mɔgɔɲuman	-5717
▁réveiller	-5718
kh	-5719
lô	-5720
ace	-5721
fen	-5722
mées	-5723
▁bis	-5724
lèves	-5725
ourou	-5726
▁bama	-5727
▁nayi	-5728
▁vécu	-5729
ctobre	-5730
▁arbre	-5731
▁possé	-5732
▁arrêté	-5733
▁consac	-5734
▁instru	-5735
▁visage	-5736
▁profess	-5737
▁murutili	-5738
▁nazareth	-5739
▁préparer	-5740
▁accompagn	-5741
▁ɲinibagaw	-5742
▁colossiens	-5743
som	-5744
▁4.	-5745
▁yg	-5746
dité	-5747
▁197	-5748
▁tit	-5749
▁koni	-5750
▁caché	-5751
▁hakɛw	-5752
▁kuluw	-5753
▁liste	-5754
▁parla	-5755
▁quitté	-5756
▁supéri	-5757
▁lecture	-5758
▁tɔɔrɔla	-5759
▁pauvreté	-5760
▁sentiment	-5761
▁territoire	-5762
sarakalasebagaw	-5763
atɔ	-5764
too	-5765
book	-5766
lɛkɛ	-5767
sogo	-5768
yiri	-5769
rande	-5770
▁2014	-5771
▁salu	-5772
avance	-5773
mɛlɛkɛ	-5774
▁saalo	-5775
▁stupi	-5776
wulanan	-5777
▁feelin	-5778
▁malgré	-5779
▁naître	-5780
▁salenw	-5781
▁apporté	-5782
▁erreurs	-5783
▁gouvern	-5784
▁oiseaux	-5785
▁ailleurs	-5786
▁puissant	-5787
▁direction	-5788
▁voulaient	-5789
▁tilennenya	-5790
▁wolonwulanan	-5791
ane	-5792
cés	-5793
zar	-5794
gana	-5795
zuda	-5796
▁cik	-5797
▁dra	-5798
▁yɛ̃	-5799
yanni	-5800
▁afuɛ	-5801
▁alij	-5802
▁dùgu	-5803
▁souh	-5804
▁sôrô	-5805
▁togo	-5806
▁want	-5807
entifi	-5808
minanw	-5809
mément	-5810
▁vieux	-5811
▁tryina	-5812
▁wulafɛ	-5813
▁craindre	-5814
▁retrouvé	-5815
▁sarakabɔ	-5816
▁devraient	-5817
eli	-5818
hum	-5819
ois	-5820
uté	-5821
▁bh	-5822
▁190	-5823
▁anc	-5824
▁mboo	-5825
▁sinc	-5826
▁symb	-5827
somɔgɔ	-5828
▁jasin	-5829
▁lɔnko	-5830
▁mùnna	-5831
▁poste	-5832
▁associ	-5833
▁fantan	-5834
▁karaba	-5835
▁lazare	-5836
▁makoya	-5837
▁muntah	-5838
▁susuli	-5839
▁miracle	-5840
▁spécial	-5841
▁halakili	-5842
apprentissage	-5843
▁kalandensomɔgɔ	-5844
rc	-5845
gba	-5846
phe	-5847
xan	-5848
ɛmu	-5849
▁sì	-5850
nent	-5851
omma	-5852
▁naw	-5853
usion	-5854
étude	-5855
▁2018	-5856
▁kélé	-5857
▁siko	-5858
▁ameri	-5859
▁penda	-5860
▁vraie	-5861
▁oublié	-5862
▁termes	-5863
▁culture	-5864
▁restent	-5865
▁dumuniba	-5866
▁karamògò	-5867
wali	-5868
▁fût	-5869
isant	-5870
moire	-5871
▁duga	-5872
▁gayi	-5873
▁gros	-5874
▁jeux	-5875
▁wusu	-5876
▁zezi	-5877
▁zɔbu	-5878
▁conva	-5879
▁jùmɛn	-5880
▁maris	-5881
▁lazari	-5882
▁boɲafɛn	-5883
▁données	-5884
▁étoiles	-5885
▁difficiles	-5886
ül	-5887
▁sà	-5888
hima	-5889
▁sti	-5890
îtres	-5891
▁fata	-5892
▁koto	-5893
▁lady	-5894
▁modè	-5895
▁naza	-5896
▁ɲɛsin	-5897
chement	-5898
▁banana	-5899
▁dafara	-5900
▁souhait	-5901
▁manamana	-5902
▁timothée	-5903
utilisation	-5904
ué	-5905
▁dû	-5906
▁jò	-5907
dées	-5908
orce	-5909
usse	-5910
écut	-5911
▁mux	-5912
ɛlɛya	-5913
cident	-5914
ection	-5915
▁autor	-5916
▁métho	-5917
osition	-5918
▁canaan	-5919
▁compli	-5920
▁contrô	-5921
▁fisaya	-5922
▁rapide	-5923
▁serais	-5924
▁écouté	-5925
▁alijɛnɛ	-5926
▁esprits	-5927
▁ɲasiran	-5928
▁kelennama	-5929
hon	-5930
pic	-5931
èbè	-5932
enen	-5933
ited	-5934
▁bir	-5935
▁ore	-5936
oires	-5937
olesc	-5938
▁?...	-5939
▁bira	-5940
▁gèlè	-5941
▁wafa	-5942
outent	-5943
▁gratu	-5944
▁simɔn	-5945
▁aimait	-5946
▁yirala	-5947
▁américa	-5948
▁lakolon	-5949
▁limaniya	-5950
▁recomman	-5951
▁compagnons	-5952
▁jalakibali	-5953
▁retournèrent	-5954
:30	-5955
dia	-5956
fee	-5957
duis	-5958
ypes	-5959
çait	-5960
asser	-5961
endor	-5962
minan	-5963
taine	-5964
▁espè	-5965
▁idio	-5966
▁kanw	-5967
▁lata	-5968
▁rues	-5969
▁sage	-5970
assion	-5971
▁imbéc	-5972
▁tribu	-5973
envoyer	-5974
▁distin	-5975
▁fariya	-5976
▁caracté	-5977
▁savaient	-5978
▁dumunifɛn	-5979
17	-5980
▁nn	-5981
mari	-5982
tère	-5983
▁ana	-5984
▁get	-5985
▁mép	-5986
▁tuu	-5987
▁saül	-5988
▁baliw	-5989
▁dingɛ	-5990
▁juges	-5991
▁yahvé	-5992
▁arbres	-5993
▁marque	-5994
▁pilate	-5995
▁serons	-5996
ducation	-5997
▁humaine	-5998
injustice	-5999
▁nazarɛti	-6000
▁sɔgɔmada	-6001
▁viennent	-6002
▁professionn	-6003
hy	-6004
cel	-6005
dés	-6006
tier	-6007
araît	-6008
▁cris	-6009
▁fast	-6010
▁joow	-6011
▁solo	-6012
▁stru	-6013
▁tuba	-6014
▁yoro	-6015
▁cɛnni	-6016
▁centre	-6017
▁domuni	-6018
▁filila	-6019
▁annoncé	-6020
▁apporte	-6021
▁marcher	-6022
▁rivière	-6023
▁kɔgɔdugu	-6024
▁souffrent	-6025
▁compassion	-6026
▁dɛsɛbagatɔw	-6027
zɛ	-6028
nii	-6029
voi	-6030
envi	-6031
▁obt	-6032
coura	-6033
eremi	-6034
exist	-6035
lises	-6036
onnée	-6037
ressa	-6038
écria	-6039
▁anci	-6040
▁juif	-6041
▁wana	-6042
aurait	-6043
vation	-6044
▁seenw	-6045
▁syrie	-6046
exemple	-6047
ination	-6048
▁gwɛnin	-6049
▁sortie	-6050
▁mémoire	-6051
▁sɛbɛnna	-6052
▁éléments	-6053
importance	-6054
▁karamɔgɔw	-6055
▁étrangers	-6056
▁concernant	-6057
blu	-6058
cie	-6059
ɛti	-6060
euro	-6061
▁ask	-6062
▁laa	-6063
▁opp	-6064
gonin	-6065
▁bere	-6066
▁kaga	-6067
▁mena	-6068
▁pero	-6069
▁danga	-6070
▁désir	-6071
▁endor	-6072
▁jɔnya	-6073
▁sépar	-6074
▁teris	-6075
▁tient	-6076
▁aimons	-6077
▁fagali	-6078
▁mérite	-6079
▁zeremi	-6080
▁kɔrɔtalen	-6081
▁fangatigiw	-6082
-3	-6083
ave	-6084
day	-6085
cinq	-6086
dama	-6087
fasi	-6088
saga	-6089
siga	-6090
ɲana	-6091
▁dah	-6092
▁tru	-6093
gɛnin	-6094
offre	-6095
▁dece	-6096
▁yaga	-6097
▁bonté	-6098
▁fɔlɔw	-6099
▁kanin	-6100
▁demeur	-6101
▁divers	-6102
▁niveau	-6103
▁yuhana	-6104
utiliser	-6105
▁devient	-6106
▁invités	-6107
▁taayɔrɔ	-6108
▁wusulan	-6109
▁entendez	-6110
▁souffert	-6111
▁connaissais	-6112
24	-6113
▁→	-6114
ysi	-6115
ɔri	-6116
▁ol	-6117
▁bet	-6118
▁dos	-6119
▁lak	-6120
▁tur	-6121
▁web	-6122
organ	-6123
owabu	-6124
▁jugé	-6125
▁show	-6126
▁tenu	-6127
▁gbɛrɛ	-6128
▁karoo	-6129
▁saved	-6130
annonce	-6131
▁matins	-6132
▁nimisa	-6133
▁photos	-6134
▁rentre	-6135
▁verrez	-6136
▁viande	-6137
▁visite	-6138
▁content	-6139
▁justifi	-6140
▁misiran	-6141
▁kɛmɛkulu	-6142
▁nouveaux	-6143
cô	-6144
ms	-6145
leh	-6146
évé	-6147
▁ow	-6148
delà	-6149
kiki	-6150
ongo	-6151
tage	-6152
▁fag	-6153
▁net	-6154
tance	-6155
▁2020	-6156
▁lien	-6157
▁mars	-6158
▁meri	-6159
échapp	-6160
▁aient	-6161
▁comba	-6162
▁dunya	-6163
▁dɛmɛn	-6164
▁girin	-6165
▁bisaba	-6166
▁decemb	-6167
▁finman	-6168
▁hanbun	-6169
médiaire	-6170
▁maîtres	-6171
assurance	-6172
▁yɛrɛboɲa	-6173
▁cinquante	-6174
bel	-6175
cte	-6176
cɛn	-6177
gur	-6178
▁nɑ	-6179
fila	-6180
kogo	-6181
quée	-6182
▁bur	-6183
xième	-6184
▁bête	-6185
▁inbe	-6186
▁nove	-6187
▁aimes	-6188
▁doute	-6189
▁fanin	-6190
▁kɛrɛn	-6191
▁ngalon	-6192
▁murukuw	-6193
▁kerecɛnw	-6194
▁méchants	-6195
▁sinɔgɔra	-6196
▁trouvent	-6197
▁travaillé	-6198
▁lesquelles	-6199
nw	-6200
:29	-6201
ige	-6202
iso	-6203
omè	-6204
oré	-6205
ège	-6206
cili	-6207
rine	-6208
▁aza	-6209
▁bul	-6210
▁coo	-6211
▁suf	-6212
améli	-6213
ignor	-6214
écart	-6215
ɔrɔgɔ	-6216
▁beth	-6217
▁mens	-6218
▁perd	-6219
inrent	-6220
▁kolɔn	-6221
▁mansa	-6222
▁posté	-6223
▁sijan	-6224
▁conver	-6225
▁envoya	-6226
▁fitinɛ	-6227
▁instal	-6228
▁layɔrɔ	-6229
▁prince	-6230
▁trésor	-6231
▁nilifɛn	-6232
▁quitter	-6233
▁connaiss	-6234
▁facebook	-6235
▁arrivèrent	-6236
bɛɛ	-6237
pes	-6238
qua	-6239
oser	-6240
▁bit	-6241
▁gué	-6242
denya	-6243
▁2019	-6244
▁bada	-6245
▁jina	-6246
▁posé	-6247
▁scri	-6248
▁énor	-6249
▁ɲimi	-6250
▁seuls	-6251
oubliez	-6252
▁18-45.	-6253
▁kɔrɔla	-6254
▁kɛwali	-6255
▁monter	-6256
▁élèves	-6257
▁kɛwalew	-6258
▁obtenir	-6259
▁poissons	-6260
▁kunmabɔsara	-6261
ïm	-6262
bou	-6263
dee	-6264
▁08	-6265
enga	-6266
irai	-6267
yala	-6268
▁kɛn	-6269
réhen	-6270
▁agak	-6271
▁bare	-6272
▁défi	-6273
▁mata	-6274
kunbɛn	-6275
▁makin	-6276
▁tombé	-6277
approcha	-6278
puissant	-6279
▁terrain	-6280
▁intéress	-6281
▁représente	-6282
23	-6283
aan	-6284
oui	-6285
tar	-6286
tch	-6287
▁yɔ	-6288
gnée	-6289
illé	-6290
sɔli	-6291
çant	-6292
▁kle	-6293
▁sug	-6294
aucun	-6295
jésus	-6296
vaise	-6297
▁best	-6298
▁hier	-6299
▁lalɔ	-6300
▁myst	-6301
▁toke	-6302
amitié	-6303
▁butun	-6304
▁kpuro	-6305
▁types	-6306
demment	-6307
▁faveur	-6308
▁litres	-6309
▁procla	-6310
▁kɛlɛden	-6311
▁miirila	-6312
▁gwɛlɛyaw	-6313
▁souvenir	-6314
▁réjouissez	-6315
/0	-6316
tò	-6317
era	-6318
src	-6319
adul	-6320
cier	-6321
gali	-6322
mant	-6323
saya	-6324
écla	-6325
▁art	-6326
▁cli	-6327
▁sty	-6328
▁cèma	-6329
▁proc	-6330
▁2005:	-6331
▁culte	-6332
diyanin	-6333
▁danfɛn	-6334
▁lajɛnw	-6335
▁contribu	-6336
▁jaabiliw	-6337
▁novembre	-6338
▁bololafɛnw	-6339
nis	-6340
▁5.	-6341
▁xd	-6342
ilon	-6343
onie	-6344
▁alo	-6345
▁dògò	-6346
▁fier	-6347
▁lang	-6348
lèrent	-6349
▁cœurs	-6350
▁défin	-6351
▁juger	-6352
▁kinin	-6353
▁payer	-6354
abilité	-6355
orgueil	-6356
▁ennemi	-6357
▁marier	-6358
▁nyɔgɔn	-6359
▁promis	-6360
autorité	-6361
phésiens	-6362
seigneur	-6363
▁makinwa	-6364
▁montrer	-6365
▁soldats	-6366
▁nafoloba	-6367
▁produits	-6368
▁terisɔbɛw	-6369
▁sarakabɔyɔrɔ	-6370
▁mɔgɔtilenninw	-6371
cri	-6372
let	-6373
▁pê	-6374
▁sw	-6375
kiri	-6376
pris	-6377
tori	-6378
▁sek	-6379
▁bawo	-6380
garamu	-6381
▁faute	-6382
▁cɛfari	-6383
▁tintin	-6384
▁badenma	-6385
▁millions	-6386
▁mondiale	-6387
▁richesse	-6388
▁récompense	-6389
intermédiaire	-6390
zo	-6391
oli	-6392
aimé	-6393
meau	-6394
▁kɛɛ	-6395
▁lot	-6396
▁poi	-6397
alors	-6398
▁tchè	-6399
barras	-6400
▁pâque	-6401
enaient	-6402
▁batoso	-6403
▁complè	-6404
▁nyuman	-6405
▁vienne	-6406
▁écrire	-6407
▁bamanan	-6408
▁croyons	-6409
▁magnifi	-6410
▁séparer	-6411
▁denmisèn	-6412
▁mauvaise	-6413
▁pécheurs	-6414
éva	-6415
▁fuu	-6416
amori	-6417
gueur	-6418
taire	-6419
▁!...	-6420
▁cuis	-6421
▁célé	-6422
▁gars	-6423
▁kènè	-6424
▁logo	-6425
▁mode	-6426
▁moon	-6427
▁zuru	-6428
agneau	-6429
▁josué	-6430
▁multi	-6431
▁physi	-6432
▁répan	-6433
▁topic	-6434
▁woron	-6435
▁arriva	-6436
▁refusé	-6437
▁secret	-6438
▁mettent	-6439
▁propres	-6440
▁souffre	-6441
▁disciple	-6442
▁donnerai	-6443
▁kɔnɔntɔn	-6444
▁malheure	-6445
▁samarita	-6446
▁tilenbaliya	-6447
ìn	-6448
▁3-	-6449
appr	-6450
asie	-6451
bura	-6452
elez	-6453
ises	-6454
sɛgɛ	-6455
quant	-6456
ɔgɔmɛ	-6457
▁dure	-6458
▁kèlè	-6459
▁mere	-6460
▁nian	-6461
▁sauf	-6462
▁tort	-6463
▁yɛgɛ	-6464
oeuvre	-6465
▁talon	-6466
▁repent	-6467
▁accepté	-6468
▁détruit	-6469
▁proches	-6470
▁zurudɛn	-6471
▁constitu	-6472
▁fariziɲɛw	-6473
ɲɔgɔnkanuya	-6474
▁banabagatɔw	-6475
ls	-6476
ud	-6477
ath	-6478
fèn	-6479
sit	-6480
zab	-6481
▁ur	-6482
cine	-6483
liba	-6484
obli	-6485
rɛnɛ	-6486
uves	-6487
▁red	-6488
▁ste	-6489
▁yon	-6490
aurez	-6491
kelen	-6492
▁base	-6493
▁saul	-6494
ɔrɔnya	-6495
▁diver	-6496
▁démar	-6497
▁dɔgɔn	-6498
gwɛdafɛ	-6499
▁gagner	-6500
▁lasigi	-6501
▁nagasi	-6502
▁verset	-6503
▁farafin	-6504
▁jumalon	-6505
▁sagaden	-6506
▁tagaman	-6507
▁chapitre	-6508
▁derrière	-6509
▁miligaramu	-6510
én	-6511
bis	-6512
pro	-6513
▁09	-6514
▁tv	-6515
côte	-6516
ssin	-6517
▁hor	-6518
▁sod	-6519
▁tal	-6520
intes	-6521
ssiez	-6522
▁mase	-6523
▁effra	-6524
▁ninja	-6525
▁série	-6526
▁yinni	-6527
ondance	-6528
ancienne	-6529
▁2012...	-6530
▁fassiez	-6531
▁octobre	-6532
▁presque	-6533
▁comprend	-6534
ank	-6535
tir	-6536
siri	-6537
tanw	-6538
▁bra	-6539
▁tho	-6540
istra	-6541
▁buka	-6542
▁dari	-6543
▁ence	-6544
▁féli	-6545
▁honn	-6546
▁mous	-6547
▁peau	-6548
▁prog	-6549
krista	-6550
▁13:11	-6551
▁1905.	-6552
▁biran	-6553
▁conte	-6554
▁latin	-6555
▁misira	-6556
▁tubabu	-6557
appelles	-6558
▁jourdain	-6559
▁retourna	-6560
▁lafiɲɛlon	-6561
reg	-6562
▁5-	-6563
ctri	-6564
perç	-6565
urez	-6566
▁ata	-6567
▁kpɑ	-6568
▁beso	-6569
▁lani	-6570
▁naxa	-6571
▁tool	-6572
▁tués	-6573
apôtre	-6574
▁asiri	-6575
▁bibli	-6576
▁diina	-6577
▁fòlen	-6578
▁nankɔ	-6579
arrêter	-6580
▁dépend	-6581
▁latigè	-6582
▁moyens	-6583
▁samuel	-6584
▁accompl	-6585
▁daganin	-6586
▁permett	-6587
▁setigiw	-6588
▁sɛgɛsɛgɛ	-6589
▁merveille	-6590
▁pentecôte	-6591
isirayɛlidenw	-6592
din	-6593
▁vɛ	-6594
avec	-6595
oura	-6596
qués	-6597
▁mel	-6598
▁rej	-6599
▁shi	-6600
▁tar	-6601
entra	-6602
isode	-6603
▁boirai	-6604
▁extrém	-6605
▁minanw	-6606
▁nowɛli	-6607
▁palais	-6608
▁saviez	-6609
héritage	-6610
▁envoyés	-6611
▁baaradenw	-6612
▁faranfasi	-6613
▁bénédiction	-6614
▁parfaitement	-6615
12	-6616
gt	-6617
rode	-6618
vrez	-6619
yusi	-6620
zuwe	-6621
▁bam	-6622
▁gom	-6623
▁nés	-6624
▁pat	-6625
kinin	-6626
liers	-6627
▁dent	-6628
▁macé	-6629
▁âgée	-6630
▁efara	-6631
▁talen	-6632
▁yalor	-6633
▁masakè	-6634
▁yamaan	-6635
▁esclave	-6636
▁fagakun	-6637
▁passage	-6638
▁teliman	-6639
accompagn	-6640
veillance	-6641
▁villages	-6642
▁multitude	-6643
▁tristesse	-6644
:21	-6645
vil	-6646
▁ay	-6647
▁kag	-6648
▁tòw	-6649
▁aloo	-6650
▁euro	-6651
▁jiba	-6652
▁koro	-6653
▁réun	-6654
▁sela	-6655
▁sexu	-6656
▁tɛma	-6657
aimais	-6658
▁bande	-6659
▁bruit	-6660
▁égard	-6661
aration	-6662
▁consom	-6663
▁djaman	-6664
▁imagin	-6665
▁jakuma	-6666
▁months	-6667
▁montré	-6668
▁origin	-6669
▁tomber	-6670
▁éviter	-6671
▁essayer	-6672
▁saamori	-6673
▁scribes	-6674
ignorance	-6675
▁regarder	-6676
▁senumanw	-6677
▁wasabali	-6678
▁bamanankan	-6679
▁comprennent	-6680
ia	-6681
avi	-6682
nal	-6683
xin	-6684
île	-6685
ɔna	-6686
▁lâ	-6687
▁ok	-6688
▁tâ	-6689
wabu	-6690
▁côt	-6691
▁dia	-6692
▁eti	-6693
▁lac	-6694
▁lko	-6695
▁évi	-6696
allez	-6697
ettes	-6698
▁lion	-6699
laires	-6700
▁crier	-6701
▁refus	-6702
▁vigne	-6703
▁égaux	-6704
▁appart	-6705
▁finita	-6706
▁lkoinw	-6707
▁jɔnmuso	-6708
▁princes	-6709
▁réalisé	-6710
▁yòrònin	-6711
adressant	-6712
▁retrouve	-6713
▁tɛmɛnnen	-6714
▁faisaient	-6715
▁manifesté	-6716
▁jɛnɲɔgɔnya	-6717
.:	-6718
lik	-6719
▁80	-6720
athi	-6721
onge	-6722
pent	-6723
sept	-6724
yôrô	-6725
ɔgwɛ	-6726
▁dɔɔ	-6727
aurai	-6728
doine	-6729
▁avan	-6730
▁koyi	-6731
▁vict	-6732
europe	-6733
illent	-6734
▁barna	-6735
▁coupe	-6736
▁group	-6737
▁patri	-6738
▁sabia	-6739
▁démons	-6740
▁détest	-6741
▁dɔɔnin	-6742
▁fransi	-6743
▁gèlèya	-6744
▁kisira	-6745
▁libres	-6746
▁longer	-6747
▁mowabu	-6748
▁tigɛra	-6749
▁ancêtres	-6750
▁sagajigi	-6751
▁construit	-6752
▁richesses	-6753
▁kumaɲɔgɔnya	-6754
▁kɛlɛkɛminanw	-6755
:49	-6756
fir	-6757
pha	-6758
▁mc	-6759
anie	-6760
chel	-6761
sili	-6762
yaan	-6763
▁caï	-6764
▁emb	-6765
▁ger	-6766
▁gwa	-6767
▁nus	-6768
▁rév	-6769
▁tùn	-6770
isées	-6771
ption	-6772
▁bori	-6773
▁dɔrɔ	-6774
cèrent	-6775
guille	-6776
▁kosèbè	-6777
▁pareil	-6778
▁baptisé	-6779
▁mission	-6780
▁raisons	-6781
▁certaine	-6782
▁relations	-6783
ev	-6784
▁“	-6785
fit	-6786
èle	-6787
bies	-6788
▁few	-6789
▁lat	-6790
affir	-6791
faire	-6792
onasi	-6793
▁kôrô	-6794
▁lamɔ	-6795
▁look	-6796
▁nini	-6797
▁pleu	-6798
▁serv	-6799
▁sèbè	-6800
italie	-6801
▁côtés	-6802
▁edɔmu	-6803
▁kɔnin	-6804
antaine	-6805
écoutez	-6806
▁dajuru	-6807
▁eurent	-6808
▁mariée	-6809
▁palest	-6810
▁profon	-6811
▁sanctu	-6812
pération	-6813
▁chanson	-6814
▁kanulen	-6815
▁pensées	-6816
▁surtout	-6817
▁capables	-6818
▁teliyara	-6819
▁ɲènamaya	-6820
lémentaires	-6821
pie	-6822
éma	-6823
▁dr	-6824
▁eza	-6825
aninw	-6826
ininw	-6827
ordin	-6828
truis	-6829
▁anin	-6830
▁jeté	-6831
▁labɔ	-6832
▁prév	-6833
▁toro	-6834
ologie	-6835
urunan	-6836
▁dépla	-6837
▁pages	-6838
▁procé	-6839
▁élevé	-6840
▁feront	-6841
▁gardez	-6842
▁labila	-6843
▁single	-6844
▁séjour	-6845
alliance	-6846
enseigner	-6847
▁sɔgɔmadafɛ	-6848
▁certainement	-6849
ot	-6850
:38	-6851
îne	-6852
exer	-6853
▁bòn	-6854
▁hen	-6855
gulan	-6856
▁1959	-6857
▁fair	-6858
▁gbɔn	-6859
▁tani	-6860
zuwifu	-6861
▁biblu	-6862
▁jonas	-6863
▁argent	-6864
▁kɛyɔrɔ	-6865
▁progra	-6866
▁succès	-6867
▁chambre	-6868
▁djamana	-6869
▁effectu	-6870
avènement	-6871
▁allaient	-6872
▁détermin	-6873
▁patience	-6874
▁vendredi	-6875
▁macédoine	-6876
▁caractéris	-6877
jɛ	-6878
:44	-6879
mɔɔ	-6880
̀rɔ	-6881
agir	-6882
gban	-6883
mité	-6884
moin	-6885
tiez	-6886
tiri	-6887
▁cɛ̀	-6888
▁dum	-6889
▁kur	-6890
▁lor	-6891
diyan	-6892
▁bɔgɔ	-6893
▁jala	-6894
▁kaun	-6895
▁odds	-6896
▁14:17	-6897
▁beyen	-6898
▁clair	-6899
▁dating	-6900
▁saninw	-6901
▁sauvée	-6902
▁tribus	-6903
▁parfait	-6904
▁créature	-6905
▁centaines	-6906
▁formation	-6907
▁vingtaine	-6908
▁kowagarazu	-6909
40	-6910
rr	-6911
ty	-6912
▁6-	-6913
▁sù	-6914
gnan	-6915
kèla	-6916
omin	-6917
ouff	-6918
tive	-6919
ushi	-6920
▁née	-6921
▁sco	-6922
chons	-6923
tɔɔrɔ	-6924
zième	-6925
▁adop	-6926
▁bour	-6927
▁hèrè	-6928
▁jogo	-6929
▁koun	-6930
▁tels	-6931
▁vies	-6932
essaie	-6933
yɛlɛma	-6934
▁chers	-6935
▁convi	-6936
▁leele	-6937
▁terme	-6938
▁weeks	-6939
absence	-6940
▁batoli	-6941
▁muɲuli	-6942
habitude	-6943
▁hébreux	-6944
▁nourris	-6945
▁wagatiw	-6946
éducation	-6947
▁cɛkɔrɔba	-6948
▁interdit	-6949
▁présents	-6950
▁réveillé	-6951
▁enseigner	-6952
▁extrémités	-6953
22	-6954
ami	-6955
▁62	-6956
daga	-6957
▁hin	-6958
▁phé	-6959
▁pur	-6960
▁amun	-6961
▁auto	-6962
▁bann	-6963
▁bɔni	-6964
▁jaaw	-6965
▁jera	-6966
▁occu	-6967
aimait	-6968
kɛyɔrɔ	-6969
▁divin	-6970
▁fuite	-6971
▁baiser	-6972
▁restée	-6973
▁vɛrise	-6974
▁ɲɛyira	-6975
▁partage	-6976
▁ressemb	-6977
▁devaient	-6978
▁duurunan	-6979
▁troupeau	-6980
accompagne	-6981
▁denmisènw	-6982
▁respecter	-6983
▁mɔgɔfagala	-6984
▁participer	-6985
▁prisonniers	-6986
?'	-6987
_.	-6988
rg	-6989
ink	-6990
tta	-6991
▁??	-6992
▁lì	-6993
assi	-6994
body	-6995
dant	-6996
oure	-6997
unan	-6998
èmes	-6999
▁méc	-7000
appar	-7001
ressé	-7002
▁bɛrɛ	-7003
▁dala	-7004
▁espé	-7005
▁etre	-7006
▁jang	-7007
▁kofɔ	-7008
▁kore	-7009
▁sabe	-7010
▁tigè	-7011
▁tôgô	-7012
associ	-7013
▁bwisi	-7014
▁créer	-7015
▁haute	-7016
▁itali	-7017
▁provo	-7018
▁réfle	-7019
▁étais	-7020
▁consid	-7021
▁modifi	-7022
▁taille	-7023
▁témoin	-7024
▁zonasi	-7025
attendre	-7026
▁adolesc	-7027
▁kibaari	-7028
▁lonanya	-7029
▁version	-7030
▁suivante	-7031
▁telefɔni	-7032
▁trouverez	-7033
▁conditions	-7034
.3	-7035
16	-7036
ât	-7037
guè	-7038
▁nè	-7039
affi	-7040
sent	-7041
▁._.	-7042
▁ate	-7043
▁bha	-7044
▁job	-7045
autel	-7046
ereur	-7047
▁egil	-7048
▁enga	-7049
▁exer	-7050
▁fiye	-7051
▁hate	-7052
▁kila	-7053
imagin	-7054
rences	-7055
▁cessé	-7056
▁convo	-7057
assurer	-7058
▁sebari	-7059
▁tericɛ	-7060
▁tuguni	-7061
▁annonce	-7062
▁écouter	-7063
▁douleurs	-7064
▁nyininka	-7065
▁résultat	-7066
▁furuɲɔgɔn	-7067
weh	-7068
éro	-7069
▁ky	-7070
▁tà	-7071
huma	-7072
lles	-7073
▁103	-7074
▁agi	-7075
▁hel	-7076
▁kod	-7077
▁ngɔ	-7078
▁tee	-7079
lever	-7080
▁fɔli	-7081
▁gofɛ	-7082
▁kizu	-7083
▁soro	-7084
▁star	-7085
▁capac	-7086
▁dimin	-7087
▁janfa	-7088
▁maraw	-7089
▁récon	-7090
▁siens	-7091
▁action	-7092
▁chance	-7093
▁dayɛlɛ	-7094
▁destru	-7095
▁duguba	-7096
▁pleine	-7097
empêcher	-7098
interpré	-7099
▁donnent	-7100
▁annoncer	-7101
▁bangebagaw	-7102
gh	-7103
bur	-7104
eta	-7105
mat	-7106
ìla	-7107
ɔrɛ	-7108
▁03	-7109
▁wù	-7110
ires	-7111
▁env	-7112
▁gbe	-7113
▁hii	-7114
▁low	-7115
pital	-7116
▁doct	-7117
▁doma	-7118
▁onze	-7119
▁suit	-7120
▁sɔsɔ	-7121
▁tech	-7122
ignait	-7123
▁kablo	-7124
▁renon	-7125
▁révol	-7126
▁video	-7127
arriver	-7128
quement	-7129
▁cacher	-7130
▁erreur	-7131
▁fanŋga	-7132
▁marché	-7133
▁suffit	-7134
▁vision	-7135
▁anglais	-7136
▁chameau	-7137
▁ezekiel	-7138
▁manières	-7139
▁mɔgɔbalu	-7140
▁partager	-7141
▁position	-7142
▁ɲagamina	-7143
▁sanctuaire	-7144
1,	-7145
ies	-7146
sen	-7147
îné	-7148
▁tw	-7149
avis	-7150
cons	-7151
gnés	-7152
rira	-7153
▁1:8	-7154
▁bang	-7155
▁fòra	-7156
▁mâle	-7157
▁natɔ	-7158
▁wale	-7159
▁yoli	-7160
itemba	-7161
onnant	-7162
▁aloof	-7163
▁coura	-7164
▁déliv	-7165
▁démon	-7166
▁lever	-7167
▁norma	-7168
▁venez	-7169
▁israèl	-7170
▁kolati	-7171
▁lafiya	-7172
▁miseli	-7173
▁mɔɔilu	-7174
▁crurent	-7175
▁interro	-7176
▁kotoolu	-7177
▁passion	-7178
▁rentrer	-7179
▁aliments	-7180
▁pourront	-7181
▁samuyɛli	-7182
▁sekitemba	-7183
▁conséquent	-7184
▁synagogues	-7185
ŋɔ	-7186
ané	-7187
ful	-7188
ias	-7189
zam	-7190
aveu	-7191
cale	-7192
kunu	-7193
accès	-7194
cient	-7195
saint	-7196
trême	-7197
diyara	-7198
hommes	-7199
phraïm	-7200
▁bolow	-7201
▁bɛɛri	-7202
▁emplo	-7203
▁expri	-7204
▁gagné	-7205
▁haine	-7206
▁sagaw	-7207
▁salon	-7208
▁veuve	-7209
▁barque	-7210
▁habite	-7211
▁senuma	-7212
▁entière	-7213
▁jurumuw	-7214
▁nalonma	-7215
▁voisins	-7216
▁puissances	-7217
▁événements	-7218
▁difficultés	-7219
▁internation	-7220
:35	-7221
ɔsi	-7222
▁2,	-7223
▁8-	-7224
▁ez	-7225
▁yɑ	-7226
dans	-7227
eter	-7228
▁lai	-7229
▁sit	-7230
▁fɔxɔ	-7231
▁kili	-7232
▁sɔng	-7233
▁vari	-7234
▁6.000	-7235
▁sache	-7236
▁salle	-7237
▁classe	-7238
▁guéris	-7239
▁lafili	-7240
▁crucifi	-7241
▁décédée	-7242
▁juguman	-7243
▁pensais	-7244
▁secours	-7245
▁sixième	-7246
affection	-7247
▁agréable	-7248
▁heureuse	-7249
▁répondra	-7250
▁dugumɔgɔw	-7251
▁kongosogo	-7252
▁reviendrai	-7253
xo	-7254
nge	-7255
▁04	-7256
kɔti	-7257
oise	-7258
raid	-7259
ènes	-7260
▁fir	-7261
▁kpĩ	-7262
▁lay	-7263
rième	-7264
verse	-7265
▁gaza	-7266
▁hehe	-7267
▁prét	-7268
▁tɔɔn	-7269
itesse	-7270
▁benna	-7271
▁rouge	-7272
▁tando	-7273
▁épous	-7274
inabasi	-7275
▁afraid	-7276
▁champs	-7277
▁dennin	-7278
▁foules	-7279
▁hadama	-7280
▁nouvel	-7281
▁répand	-7282
eusement	-7283
▁joindre	-7284
▁matinée	-7285
▁prenons	-7286
▁ressent	-7287
▁sabemos	-7288
▁condamné	-7289
▁dusukunna	-7290
▁téléphone	-7291
▁barikamanw	-7292
"?	-7293
19	-7294
25	-7295
üm	-7296
awu	-7297
eil	-7298
esi	-7299
gen	-7300
hou	-7301
ssé	-7302
▁ɛn	-7303
diti	-7304
▁apo	-7305
▁exh	-7306
▁fré	-7307
▁kui	-7308
▁lal	-7309
▁oeu	-7310
▁one	-7311
quité	-7312
rieux	-7313
étend	-7314
▁célè	-7315
▁diko	-7316
▁dite	-7317
▁gwen	-7318
▁joue	-7319
▁kena	-7320
▁kɛta	-7321
▁syri	-7322
▁véhi	-7323
▁épar	-7324
bariya	-7325
orient	-7326
▁chiff	-7327
▁emmen	-7328
▁hérit	-7329
▁kuman	-7330
araître	-7331
attache	-7332
biesage	-7333
▁apprit	-7334
▁compos	-7335
▁compét	-7336
▁membre	-7337
▁mettez	-7338
▁offrir	-7339
▁perdre	-7340
▁appelée	-7341
▁chanter	-7342
▁compter	-7343
▁zonatan	-7344
intéresse	-7345
▁parfaite	-7346
▁décisions	-7347
▁kantigiya	-7348
▁politique	-7349
▁ɲagaminin	-7350
▁uniquement	-7351
▁mboobiesage	-7352
.-	-7353
bii	-7354
lot	-7355
pan	-7356
▁3:	-7357
▁8.	-7358
ards	-7359
heli	-7360
▁gna	-7361
▁jal	-7362
▁reb	-7363
élève	-7364
▁aman	-7365
▁assa	-7366
▁batt	-7367
▁domu	-7368
▁kayi	-7369
▁lage	-7370
▁miss	-7371
▁musi	-7372
▁mɔni	-7373
▁ruti	-7374
▁semb	-7375
vision	-7376
▁extra	-7377
▁offre	-7378
▁sinaï	-7379
▁swali	-7380
hɔrɔnya	-7381
ɲasiran	-7382
▁brebis	-7383
▁joueur	-7384
▁lèvres	-7385
▁minist	-7386
▁vivent	-7387
▁atteint	-7388
▁jamanaw	-7389
▁kabirin	-7390
▁labanna	-7391
interroge	-7392
▁baptiser	-7393
▁entendit	-7394
▁kizuushi	-7395
▁pourriez	-7396
▁étranger	-7397
▁ɲɛyirali	-7398
▁postérité	-7399
ŋɛ	-7400
daf	-7401
vor	-7402
daan	-7403
djan	-7404
▁cle	-7405
▁ide	-7406
▁imm	-7407
kèlaw	-7408
▁psau	-7409
▁sida	-7410
gɛninw	-7411
▁fabri	-7412
▁fɛɛnw	-7413
▁jeter	-7414
▁lutte	-7415
anglais	-7416
▁corres	-7417
▁eburuw	-7418
▁modèle	-7419
▁prénom	-7420
▁restés	-7421
▁soyons	-7422
▁teriya	-7423
exprimer	-7424
▁groupes	-7425
▁silence	-7426
▁commandé	-7427
▁kabakoma	-7428
▁tununinw	-7429
▁latigɛnin	-7430
dugugwɛdafɛ	-7431
▁professeur	-7432
fil	-7433
▁km	-7434
char	-7435
insi	-7436
labo	-7437
onom	-7438
yɔti	-7439
▁2:4	-7440
▁tha	-7441
améri	-7442
isaac	-7443
quête	-7444
vités	-7445
▁bòra	-7446
▁prié	-7447
foroko	-7448
▁benja	-7449
▁nyana	-7450
▁pains	-7451
▁peter	-7452
▁style	-7453
appréci	-7454
▁cadeau	-7455
▁distri	-7456
▁edited	-7457
▁kɔrɔfɔ	-7458
▁révélé	-7459
▁faibles	-7460
▁réjouit	-7461
▁terminé	-7462
▁victime	-7463
▁arrivent	-7464
▁ministre	-7465
▁sigasiga	-7466
▁transfor	-7467
▁ezipitikaw	-7468
8.	-7469
bow	-7470
gbɛ	-7471
▁uf	-7472
▁rég	-7473
▁sai	-7474
joint	-7475
verra	-7476
▁atti	-7477
▁docu	-7478
▁draw	-7479
▁fron	-7480
▁mɔru	-7481
▁sako	-7482
▁dungu	-7483
▁ibura	-7484
▁jouer	-7485
▁jɔncɛ	-7486
▁mɔ̀gɔ	-7487
▁objet	-7488
▁passa	-7489
▁trait	-7490
▁commet	-7491
▁daraka	-7492
▁dessus	-7493
▁messie	-7494
▁telles	-7495
▁zozuwe	-7496
▁pourrez	-7497
▁propose	-7498
▁tileben	-7499
▁fantanya	-7500
▁halakira	-7501
▁services	-7502
▁référence	-7503
ft	-7504
pɛ	-7505
▁ù	-7506
▁06	-7507
arna	-7508
caux	-7509
cept	-7510
ensé	-7511
gwen	-7512
tume	-7513
unin	-7514
▁not	-7515
▁ump	-7516
▁émo	-7517
gramu	-7518
▁dili	-7519
▁gnon	-7520
▁gèrè	-7521
▁hypo	-7522
▁yahu	-7523
▁calme	-7524
▁fixes	-7525
▁mises	-7526
▁mouve	-7527
acheter	-7528
fection	-7529
obtenir	-7530
▁nafama	-7531
▁vivons	-7532
▁welela	-7533
▁yahweh	-7534
▁gbasaya	-7535
▁ladiliw	-7536
▁lettres	-7537
▁mansaya	-7538
denyabolo	-7539
▁porogramu	-7540
!›	-7541
εε	-7542
:32	-7543
jii	-7544
▁mm	-7545
dres	-7546
enfu	-7547
lure	-7548
masu	-7549
rets	-7550
risi	-7551
▁azi	-7552
▁bàa	-7553
▁eka	-7554
▁yeu	-7555
cario	-7556
▁ligi	-7557
▁moto	-7558
▁mute	-7559
dirent	-7560
écrire	-7561
▁2004.	-7562
▁buvez	-7563
▁kabak	-7564
▁russi	-7565
▁seize	-7566
oreille	-7567
▁achevé	-7568
▁fiyewu	-7569
▁forces	-7570
▁jamaba	-7571
▁mannin	-7572
▁refuse	-7573
▁sinayi	-7574
▁sodome	-7575
▁sɔtɔma	-7576
▁ŋaniya	-7577
▁condolé	-7578
▁croyant	-7579
▁dizaine	-7580
▁iscario	-7581
adamadenw	-7582
▁demeures	-7583
▁gwengwen	-7584
▁protéger	-7585
obéissance	-7586
▁propriéta	-7587
anniversaire	-7588
▁possibilité	-7589
gs	-7590
▁2=	-7591
▁64	-7592
▁^^	-7593
▁hy	-7594
▁má	-7595
endi	-7596
ving	-7597
▁bai	-7598
▁fui	-7599
▁gos	-7600
▁iss	-7601
▁pɔr	-7602
▁xan	-7603
onnon	-7604
pante	-7605
▁anni	-7606
▁bian	-7607
▁gnan	-7608
▁kaɲi	-7609
▁kiss	-7610
▁sawa	-7611
mannin	-7612
▁forêt	-7613
▁couple	-7614
▁dirais	-7615
▁umpama	-7616
▁wotoro	-7617
▁échapp	-7618
▁devenue	-7619
▁général	-7620
▁kibaruya	-7621
▁recevrez	-7622
▁victoire	-7623
▁farafinna	-7624
▁galontigɛ	-7625
▁fadenyabolo	-7626
▁actuellement	-7627
▁connaissances	-7628
,,	-7629
kɛn	-7630
▁fà	-7631
▁mè	-7632
ceau	-7633
haut	-7634
vidu	-7635
▁???	-7636
▁afi	-7637
▁her	-7638
chiez	-7639
ensés	-7640
▁dila	-7641
▁moab	-7642
▁nota	-7643
▁vain	-7644
alités	-7645
ancien	-7646
▁boule	-7647
▁jerus	-7648
▁sanda	-7649
▁thank	-7650
▁devint	-7651
▁fourni	-7652
▁tanuli	-7653
▁ɲɔgɔmɛ	-7654
empereur	-7655
▁birancɛ	-7656
▁fɛntigi	-7657
▁moisson	-7658
▁moments	-7659
▁tombeau	-7660
▁benjamin	-7661
▁distance	-7662
▁efficace	-7663
▁explique	-7664
▁minnifɛn	-7665
▁sinikɛnɛ	-7666
▁victimes	-7667
▁retrouver	-7668
▁alaɲasiran	-7669
▁adolescents	-7670
▁「	-7671
enc	-7672
eno	-7673
ira	-7674
▁az	-7675
bini	-7676
rase	-7677
tika	-7678
vons	-7679
▁20.	-7680
▁50.	-7681
▁eye	-7682
▁kee	-7683
▁lɛɛ	-7684
▁yeh	-7685
istan	-7686
ouest	-7687
▁bran	-7688
▁régu	-7689
▁sann	-7690
▁yeuh	-7691
▁ɲada	-7692
itaire	-7693
▁diyan	-7694
▁dòròn	-7695
▁futur	-7696
▁prati	-7697
▁caract	-7698
▁filipi	-7699
▁yafara	-7700
▁yanfan	-7701
▁aveugle	-7702
▁faamuya	-7703
▁gratuit	-7704
▁instant	-7705
▁masacɛw	-7706
▁possède	-7707
▁raconte	-7708
▁siècles	-7709
existence	-7710
▁commença	-7711
▁dusukunw	-7712
▁folofolo	-7713
▁internet	-7714
▁seraient	-7715
▁adamadenya	-7716
2.	-7717
fò	-7718
got	-7719
ilo	-7720
zon	-7721
▁01	-7722
▁kê	-7723
▁lô	-7724
pect	-7725
saba	-7726
tɛli	-7727
▁194	-7728
▁mad	-7729
▁bile	-7730
▁join	-7731
kisili	-7732
mankan	-7733
ziyasi	-7734
▁alako	-7735
▁croya	-7736
▁expli	-7737
▁findi	-7738
▁ordre	-7739
▁roman	-7740
▁scène	-7741
▁stupé	-7742
▁âgées	-7743
▁jigitɔ	-7744
▁kɔkɛnɛ	-7745
▁kɔɲɔya	-7746
▁lahara	-7747
▁risque	-7748
issaient	-7749
▁disparu	-7750
▁dugunin	-7751
▁défense	-7752
▁prirent	-7753
▁comprends	-7754
▁lasigiden	-7755
▁ministère	-7756
▁woronwula	-7757
▁barikatanw	-7758
▁changement	-7759
▁importante	-7760
▁nazarɛtika	-7761
▁karamɔgɔdenw	-7762
▁€	-7763
ked	-7764
▁(1	-7765
auto	-7766
rale	-7767
sɔtɔ	-7768
éner	-7769
▁18;	-7770
▁eng	-7771
▁nìn	-7772
▁plu	-7773
laban	-7774
▁bale	-7775
▁jɛgɛ	-7776
▁rose	-7777
▁sika	-7778
▁soup	-7779
▁yuun	-7780
▁âgés	-7781
▁banan	-7782
▁grave	-7783
▁nataw	-7784
▁souve	-7785
essalon	-7786
▁beauté	-7787
▁betɛli	-7788
▁dɛsɛra	-7789
▁limite	-7790
▁pleurs	-7791
▁sortis	-7792
▁venues	-7793
▁yaraga	-7794
kariyɔti	-7795
▁amasɔtɔ	-7796
▁jiginni	-7797
▁patient	-7798
▁pensent	-7799
pantekɔti	-7800
▁contrôle	-7801
▁enceinte	-7802
▁kasodenw	-7803
▁lesquels	-7804
▁oreilles	-7805
▁souffrir	-7806
▁attendant	-7807
▁génération	-7808
▁israɛldenw	-7809
▁télévision	-7810
ɑn	-7811
ɛni	-7812
dali	-7813
hɛrɛ	-7814
▁ade	-7815
▁dol	-7816
▁ena	-7817
▁eni	-7818
▁mio	-7819
▁zhe	-7820
athan	-7821
tière	-7822
▁3:16	-7823
▁doni	-7824
▁gɔɔn	-7825
▁jusu	-7826
▁sali	-7827
▁sana	-7828
▁sɔgɔ	-7829
▁xili	-7830
kɔrɔta	-7831
offrir	-7832
▁achet	-7833
▁banba	-7834
▁boleh	-7835
▁décès	-7836
▁kelly	-7837
▁lɔnni	-7838
▁adulte	-7839
▁cinéma	-7840
▁devoir	-7841
▁enlevé	-7842
▁israel	-7843
▁mépris	-7844
▁pleure	-7845
▁poursu	-7846
▁saison	-7847
▁tenait	-7848
▁tɔɔrɔw	-7849
▁corresp	-7850
▁gentils	-7851
▁hauteur	-7852
▁kalanso	-7853
▁dubadenw	-7854
▁glorifié	-7855
▁retourné	-7856
▁veuillez	-7857
▁condition	-7858
▁demandent	-7859
▁farisiènw	-7860
▁permettre	-7861
▁firiyamuso	-7862
▁protection	-7863
waa	-7864
▁aj	-7865
ramu	-7866
▁dao	-7867
▁dus	-7868
▁gak	-7869
accro	-7870
▁2016	-7871
▁bird	-7872
▁bobo	-7873
▁hero	-7874
▁lasɔ	-7875
▁mugu	-7876
▁soli	-7877
▁tutu	-7878
kilila	-7879
▁avril	-7880
▁kwlaa	-7881
▁kɔnɔw	-7882
▁lenen	-7883
▁tenté	-7884
▁tolon	-7885
environ	-7886
intérêt	-7887
▁auront	-7888
▁circon	-7889
▁compag	-7890
▁dessin	-7891
▁revint	-7892
▁tribun	-7893
▁yafali	-7894
ablement	-7895
▁dogonin	-7896
▁déclara	-7897
▁labɛnna	-7898
▁tumajan	-7899
lɔnbariya	-7900
▁reprises	-7901
▁trouvera	-7902
▁enseignait	-7903
▁jalakiyɔrɔ	-7904
mbu	-7905
ɛnu	-7906
▁02	-7907
▁98	-7908
maya	-7909
omob	-7910
yrie	-7911
▁ikɔ	-7912
▁ran	-7913
antan	-7914
gandi	-7915
quait	-7916
▁baka	-7917
▁navi	-7918
▁subi	-7919
▁sume	-7920
▁vues	-7921
engage	-7922
sation	-7923
▁cɛnna	-7924
▁erɔdi	-7925
▁falen	-7926
▁think	-7927
ctement	-7928
yptiens	-7929
écouter	-7930
▁banque	-7931
▁nobody	-7932
▁proces	-7933
▁saheli	-7934
▁soeurs	-7935
▁écrits	-7936
▁oeuvres	-7937
▁sarakaw	-7938
▁sirikaw	-7939
▁conduire	-7940
▁hamijuguw	-7941
▁makoyafɛn	-7942
▁passeront	-7943
▁rencontré	-7944
▁thessalon	-7945
▁enseignera	-7946
▁importants	-7947
▁magnifique	-7948
▁isikariyɔti	-7949
▁siralɔnbariya	-7950
▁hakilitigiyako	-7951
▁continuellement	-7952
8,	-7953
pas	-7954
▁by	-7955
adam	-7956
eren	-7957
tées	-7958
ypse	-7959
▁8:1	-7960
▁duu	-7961
▁fus	-7962
admin	-7963
▁aidé	-7964
▁boyd	-7965
▁elie	-7966
▁jeun	-7967
▁mago	-7968
▁prot	-7969
▁ɲuma	-7970
▁ɲèna	-7971
emploi	-7972
▁chien	-7973
▁dirai	-7974
▁lampe	-7975
▁liens	-7976
courage	-7977
olument	-7978
▁miriya	-7979
▁partis	-7980
▁positi	-7981
▁reprit	-7982
▁passent	-7983
▁discussi	-7984
▁ɲagamini	-7985
▁craignent	-7986
▁ressemble	-7987
▁dògòmannin	-7988
▁expérience	-7989
▁sigiɲɔgɔnw	-7990
▁particulier	-7991
ŋa	-7992
gga	-7993
boam	-7994
bran	-7995
ceur	-7996
nage	-7997
xion	-7998
▁15.	-7999
▁aya	-8000
▁cél	-8001
▁grè	-8002
▁sea	-8003
▁œil	-8004
urant	-8005
zamɛn	-8006
▁fare	-8007
▁kilo	-8008
▁lead	-8009
▁nath	-8010
▁note	-8011
▁sert	-8012
entiel	-8013
luence	-8014
ɲasigi	-8015
▁alive	-8016
▁bukak	-8017
▁idiot	-8018
▁signa	-8019
▁sɔnni	-8020
▁thème	-8021
▁youtu	-8022
▁yɛrɛw	-8023
▁connue	-8024
▁jijara	-8025
▁obtenu	-8026
▁sachez	-8027
▁venant	-8028
▁diyanye	-8029
▁régions	-8030
▁sugandi	-8031
ouverture	-8032
▁gofɛrɛnɛ	-8033
▁kɛnɛkɛnɛ	-8034
▁profondé	-8035
▁considéré	-8036
▁quatrième	-8037
▁sɔlidasiw	-8038
▁tradition	-8039
▁siniɲasigi	-8040
▁traitement	-8041
/20	-8042
cro	-8043
roo	-8044
dala	-8045
golo	-8046
itez	-8047
écri	-8048
▁1.1	-8049
▁24"	-8050
▁ase	-8051
▁ere	-8052
▁sap	-8053
itres	-8054
▁boro	-8055
▁kàra	-8056
▁lalo	-8057
▁munu	-8058
▁nugu	-8059
▁pont	-8060
▁send	-8061
▁visi	-8062
▁wulu	-8063
▁yili	-8064
envoie	-8065
▁bulon	-8066
▁kunko	-8067
▁sɛgɛn	-8068
▁tugur	-8069
entends	-8070
▁ferait	-8071
▁phénom	-8072
▁veuves	-8073
▁commett	-8074
▁serment	-8075
▁utilisé	-8076
▁méchance	-8077
▁présenté	-8078
▁compréhen	-8079
▁kabakuruw	-8080
▁messagers	-8081
▁nalomanya	-8082
▁religions	-8083
▁appartient	-8084
▁clairement	-8085
▁ɲɔgɔnkunbɛn	-8086
▁profondément	-8087
fô	-8088
bum	-8089
bés	-8090
neu	-8091
oid	-8092
▁7-	-8093
breu	-8094
cipe	-8095
dame	-8096
itaw	-8097
kisɛ	-8098
yɔsi	-8099
▁asa	-8100
▁dak	-8101
▁hum	-8102
agnol	-8103
misɛn	-8104
▁béth	-8105
▁gnin	-8106
▁hont	-8107
▁irré	-8108
▁kong	-8109
▁lame	-8110
▁pars	-8111
▁blanc	-8112
▁dormi	-8113
▁péris	-8114
▁sacré	-8115
calypse	-8116
▁course	-8117
▁dunuɲa	-8118
▁goyara	-8119
▁kɔrɔkɛ	-8120
▁sigama	-8121
▁veille	-8122
offrande	-8123
▁ɲɛsinna	-8124
▁affaires	-8125
▁jonathan	-8126
▁messager	-8127
▁résister	-8128
▁meilleurs	-8129
▁pardonnez	-8130
▁poursuivre	-8131
▁destruction	-8132
▁responsable	-8133
**	-8134
0.	-8135
3.	-8136
dd	-8137
lâ	-8138
bol	-8139
eut	-8140
fun	-8141
▁ef	-8142
▁ké	-8143
atte	-8144
bɛli	-8145
foyi	-8146
trui	-8147
▁16.	-8148
▁fɛɛ	-8149
▁iya	-8150
oudre	-8151
trois	-8152
▁bisi	-8153
▁cuba	-8154
▁gila	-8155
▁rena	-8156
▁séri	-8157
cateur	-8158
rinama	-8159
▁formu	-8160
▁héros	-8161
▁selen	-8162
▁yiiko	-8163
▁étiez	-8164
▁baraka	-8165
▁détail	-8166
▁faible	-8167
▁kɔrɔgɔ	-8168
▁rejoin	-8169
▁wariko	-8170
evangile	-8171
inations	-8172
▁ameriki	-8173
▁barokun	-8174
▁remplis	-8175
▁sanbɛrɛ	-8176
▁apprécié	-8177
▁conduite	-8178
▁découver	-8179
▁sɛnɛkɛlaw	-8180
interprétation	-8181
ns	-8182
sh	-8183
daw	-8184
ouss	-8185
riki	-8186
wiin	-8187
▁10.	-8188
▁300	-8189
▁bor	-8190
▁clé	-8191
▁nou	-8192
▁zab	-8193
tanga	-8194
▁fati	-8195
▁gban	-8196
▁hana	-8197
▁hist	-8198
▁nabu	-8199
▁purs	-8200
habite	-8201
▁amené	-8202
▁forcé	-8203
▁félic	-8204
▁tesal	-8205
▁vrais	-8206
cateurs	-8207
▁cheval	-8208
▁sanngɛ	-8209
▁sɔsɔli	-8210
▁tagatɔ	-8211
▁yèlèma	-8212
▁zowabu	-8213
accompli	-8214
▁enverra	-8215
▁extrême	-8216
▁persécu	-8217
▁sachiez	-8218
▁églises	-8219
▁convainc	-8220
▁coupable	-8221
▁kɔnɔfɛnw	-8222
▁lafiɲɛna	-8223
▁murutira	-8224
obligation	-8225
▁autrefois	-8226
▁efarayimu	-8227
▁spirituel	-8228
▁ɲininkali	-8229
▁préférable	-8230
▁sanctifiés	-8231
▁signifiait	-8232
▁kolatigɛninw	-8233
▁bienveillance	-8234
":	-8235
-)	-8236
▁ñ	-8237
bie	-8238
dun	-8239
iné	-8240
los	-8241
ora	-8242
pri	-8243
tou	-8244
ust	-8245
▁mr	-8246
▁mù	-8247
cris	-8248
face	-8249
sses	-8250
tɛrɛ	-8251
ɔrɔm	-8252
▁aaj	-8253
▁bak	-8254
▁kor	-8255
▁van	-8256
drait	-8257
meyɔn	-8258
minnu	-8259
établ	-8260
▁agit	-8261
▁bulu	-8262
▁jɔrɔ	-8263
▁kiko	-8264
▁mine	-8265
▁vend	-8266
enfuit	-8267
ommage	-8268
▁archi	-8269
▁chris	-8270
▁forts	-8271
▁kɛlen	-8272
▁niman	-8273
▁nòòrò	-8274
▁survi	-8275
▁vertu	-8276
affaire	-8277
bɛɛtigi	-8278
enfance	-8279
▁compat	-8280
▁divert	-8281
▁espoir	-8282
▁fitini	-8283
▁flanan	-8284
▁kasadi	-8285
▁multip	-8286
▁nawomi	-8287
▁police	-8288
▁publié	-8289
▁relati	-8290
▁vallée	-8291
adultère	-8292
▁célèbre	-8293
▁kojuguw	-8294
▁préparé	-8295
▁trésors	-8296
▁arrivera	-8297
▁autorité	-8298
▁balimakè	-8299
▁dafaninw	-8300
▁poursuit	-8301
▁ɲanamanw	-8302
▁autrement	-8303
▁kanbelenw	-8304
▁palestini	-8305
▁présenter	-8306
▁disponible	-8307
▁isirayɛliden	-8308
dir	-8309
eth	-8310
nit	-8311
▁ls	-8312
tand	-8313
ɲali	-8314
▁1:6	-8315
▁ath	-8316
▁fri	-8317
▁gou	-8318
▁his	-8319
▁sci	-8320
▁zer	-8321
fɛɛrɛ	-8322
itait	-8323
▁kisɛ	-8324
▁misa	-8325
▁nala	-8326
▁rass	-8327
▁titi	-8328
▁uflɛ	-8329
manuel	-8330
▁court	-8331
▁kunba	-8332
▁punta	-8333
▁établ	-8334
▁aiment	-8335
▁confir	-8336
▁connus	-8337
▁essayé	-8338
▁lɔnnin	-8339
▁sagona	-8340
▁wiwiin	-8341
amérique	-8342
▁attenti	-8343
▁kitabuw	-8344
▁méthode	-8345
▁républi	-8346
▁écoutez	-8347
issements	-8348
▁province	-8349
▁souriait	-8350
▁programme	-8351
▁quotidien	-8352
▁méchanceté	-8353
▁déclaration	-8354
▁complètement	-8355
▁enseignement	-8356
▁probablement	-8357
1]	-8358
▁›	-8359
iez	-8360
sta	-8361
ŋgo	-8362
▁mt	-8363
agré	-8364
deux	-8365
diri	-8366
▁gri	-8367
▁yuu	-8368
chées	-8369
écris	-8370
▁1:20	-8371
▁code	-8372
▁crée	-8373
▁faam	-8374
▁midi	-8375
▁pire	-8376
▁rafi	-8377
▁sɔɔn	-8378
▁tili	-8379
▁time	-8380
▁unis	-8381
▁évid	-8382
dumuni	-8383
kabini	-8384
▁banta	-8385
▁baris	-8386
▁benin	-8387
▁inqui	-8388
▁kɔndɔ	-8389
▁monte	-8390
▁suici	-8391
assyrie	-8392
empêche	-8393
honnête	-8394
▁angili	-8395
▁bilara	-8396
▁fautes	-8397
▁guérir	-8398
▁larmes	-8399
▁ninnge	-8400
▁pousse	-8401
▁quinze	-8402
▁tranqu	-8403
▁visité	-8404
▁yalaka	-8405
▁guerres	-8406
▁latigèra	-8407
▁levèrent	-8408
▁tesaloni	-8409
▁vêtement	-8410
▁accueilli	-8411
▁espérance	-8412
▁reprendre	-8413
▁personnage	-8414
▁conséquences	-8415
!'	-8416
26	-8417
ng	-8418
:31	-8419
ŋgɛ	-8420
▁tù	-8421
ders	-8422
lɛki	-8423
reur	-8424
xand	-8425
yabi	-8426
▁3:1	-8427
▁pin	-8428
▁tue	-8429
▁évo	-8430
ressi	-8431
salom	-8432
▁caté	-8433
▁file	-8434
▁jaan	-8435
▁kako	-8436
▁mène	-8437
▁nako	-8438
▁zone	-8439
quième	-8440
ritigi	-8441
▁birth	-8442
▁danni	-8443
▁prête	-8444
▁marthe	-8445
▁mɛnilu	-8446
▁dinkira	-8447
▁divorce	-8448
▁découra	-8449
▁mystère	-8450
▁prophét	-8451
appellera	-8452
▁angilikan	-8453
▁cherchent	-8454
▁demandait	-8455
▁kunkɔrɔta	-8456
▁étudiants	-8457
▁barinabasi	-8458
▁comportement	-8459
▁supplémentaires	-8460
.)	-8461
xa	-8462
abi	-8463
gué	-8464
sia	-8465
ève	-8466
éte	-8467
êtu	-8468
deya	-8469
port	-8470
îner	-8471
▁24-	-8472
▁3.1	-8473
▁haw	-8474
gwɛrɛ	-8475
siyɔn	-8476
vingt	-8477
▁deci	-8478
▁exau	-8479
▁kunn	-8480
▁luti	-8481
arrêta	-8482
sitɛri	-8483
établi	-8484
▁cadre	-8485
▁coups	-8486
▁etats	-8487
▁injus	-8488
▁sépul	-8489
antongo	-8490
▁chante	-8491
▁correc	-8492
▁dondaw	-8493
▁ladege	-8494
▁yɛlɛtɔ	-8495
▁étrang	-8496
endormir	-8497
▁aliment	-8498
▁arrière	-8499
▁kisibaa	-8500
▁limites	-8501
▁rendons	-8502
▁retenir	-8503
▁sangaso	-8504
▁symbole	-8505
installer	-8506
▁alliance	-8507
▁dizaines	-8508
▁kɔrɔbɔli	-8509
▁iscariote	-8510
▁processus	-8511
▁écritures	-8512
▁différente	-8513
▁kabaforoko	-8514
▁commentaire	-8515
▁descendance	-8516
▁hakilitigiw	-8517
▁sranantongo	-8518
▁travaillent	-8519
▁nisɔndiyanin	-8520
)?	-8521
2,	-8522
:'	-8523
oz	-8524
rɑ	-8525
???	-8526
ann	-8527
mii	-8528
▁ih	-8529
giri	-8530
▁10-	-8531
▁146	-8532
▁alɛ	-8533
▁flu	-8534
▁inv	-8535
rinin	-8536
teaux	-8537
▁acti	-8538
▁dévo	-8539
▁mɔnɛ	-8540
▁vier	-8541
▁voul	-8542
humain	-8543
piyɛri	-8544
▁abisa	-8545
▁ayons	-8546
▁chois	-8547
▁infor	-8548
▁massa	-8549
▁ordin	-8550
▁placé	-8551
▁yiriw	-8552
chaient	-8553
gwɛlɛya	-8554
tigɛkan	-8555
▁auriez	-8556
▁kɛnɛma	-8557
▁labato	-8558
▁paraît	-8559
▁quitte	-8560
▁rappro	-8561
▁royale	-8562
▁sodɔmu	-8563
▁fariman	-8564
▁laissée	-8565
▁miirili	-8566
▁telefon	-8567
embrasser	-8568
▁auraient	-8569
▁boissons	-8570
▁véhicule	-8571
▁yɛlɛmani	-8572
▁alemankan	-8573
▁evolution	-8574
▁absolument	-8575
▁pɔrtigɛkan	-8576
▁trouvaient	-8577
▁demandèrent	-8578
gb	-8579
dji	-8580
mut	-8581
▁63	-8582
▁nt	-8583
abri	-8584
gure	-8585
phie	-8586
pire	-8587
zira	-8588
▁10"	-8589
▁ahi	-8590
▁cèw	-8591
▁hou	-8592
▁kum	-8593
anche	-8594
▁béta	-8595
▁bɔbɔ	-8596
▁fama	-8597
▁gana	-8598
▁lɔli	-8599
▁mura	-8600
▁nuée	-8601
▁senw	-8602
unique	-8603
▁furan	-8604
▁kɔ̀rɔ	-8605
▁prévu	-8606
▁rejet	-8607
mission	-8608
▁kilomè	-8609
▁levain	-8610
▁métier	-8611
▁parent	-8612
▁prions	-8613
▁rempli	-8614
▁soirée	-8615
▁voyait	-8616
▁combats	-8617
▁couleur	-8618
▁faamuna	-8619
▁crucifié	-8620
▁national	-8621
▁karamògòw	-8622
▁suivirent	-8623
▁viendront	-8624
▁gouverneur	-8625
▁sentiments	-8626
▁malheureusement	-8627
),	-8628
̃ɔ	-8629
▁ɓ	-8630
tɔw	-8631
yes	-8632
-000	-8633
lɔgɔ	-8634
nɔgɔ	-8635
▁aku	-8636
▁joy	-8637
▁kap	-8638
▁nna	-8639
aaron	-8640
fɛnnɛ	-8641
vages	-8642
▁idea	-8643
▁maxi	-8644
▁tɔrɔ	-8645
istait	-8646
▁isire	-8647
▁batoko	-8648
▁kɔrɔtɔ	-8649
▁matéri	-8650
▁persua	-8651
▁soucis	-8652
▁thomas	-8653
itations	-8654
échapper	-8655
▁abidjan	-8656
▁commune	-8657
▁cɛɲuman	-8658
▁regardé	-8659
▁réunion	-8660
▁birthday	-8661
▁fariyara	-8662
▁kɔlɔsili	-8663
▁objectif	-8664
▁physique	-8665
▁sagonata	-8666
▁considère	-8667
▁samarikaw	-8668
▁tintinnin	-8669
▁laminikogo	-8670
▁ninsɔndiya	-8671
▁développement	-8672
mn	-8673
jin	-8674
ugu	-8675
éto	-8676
▁mp	-8677
▁xɔ	-8678
adap	-8679
dies	-8680
dite	-8681
gées	-8682
▁18"	-8683
▁hol	-8684
▁klo	-8685
miner	-8686
▁bure	-8687
▁esti	-8688
▁hari	-8689
▁kita	-8690
▁laxi	-8691
▁préf	-8692
▁zira	-8693
enfuir	-8694
▁abreu	-8695
▁incap	-8696
▁laada	-8697
▁minɛn	-8698
▁outre	-8699
▁sɔbɛw	-8700
denninw	-8701
hôpital	-8702
▁chasse	-8703
▁devais	-8704
▁disons	-8705
▁hérode	-8706
▁sépare	-8707
▁affaire	-8708
▁jaatika	-8709
▁méchant	-8710
▁passera	-8711
▁dɔnkiliw	-8712
▁quantité	-8713
▁sûrement	-8714
▁ɲamɔgɔya	-8715
▁compagnie	-8716
▁découvert	-8717
▁puissants	-8718
eh	-8719
:00	-8720
bos	-8721
imm	-8722
mɔn	-8723
tɛɛ	-8724
▁1"	-8725
▁pɔ	-8726
mmes	-8727
vain	-8728
▁12-	-8729
▁blé	-8730
▁inp	-8731
▁ira	-8732
▁mɔg	-8733
▁nah	-8734
▁nen	-8735
▁nua	-8736
▁ona	-8737
babaw	-8738
pecta	-8739
phèse	-8740
voici	-8741
▁1939	-8742
▁kata	-8743
▁kene	-8744
▁kɛtɔ	-8745
▁mien	-8746
▁yɛtɛ	-8747
entour	-8748
fitini	-8749
likɛla	-8750
▁akala	-8751
▁gotta	-8752
▁mɔgɔs	-8753
▁ouvre	-8754
▁situé	-8755
▁siège	-8756
▁bamako	-8757
▁boɲana	-8758
▁canada	-8759
▁famili	-8760
▁ikomin	-8761
▁marifa	-8762
▁quarti	-8763
▁réseau	-8764
▁tchogo	-8765
lacement	-8766
zirayɛli	-8767
▁apparut	-8768
▁héritage	-8769
▁lakɔlifa	-8770
▁ouvriers	-8771
▁émotions	-8772
▁prophétie	-8773
application	-8774
explication	-8775
▁correspond	-8776
▁répondirent	-8777
▁réfléchissez	-8778
:34	-8779
aur	-8780
ffe	-8781
low	-8782
ɲɔn	-8783
▁1)	-8784
▁jn	-8785
brer	-8786
▁yàn	-8787
habit	-8788
kɔrɔw	-8789
oloca	-8790
ulman	-8791
▁lest	-8792
▁pure	-8793
▁soba	-8794
▁éner	-8795
▁corée	-8796
▁dunun	-8797
▁forum	-8798
▁gardé	-8799
▁japon	-8800
▁kooba	-8801
▁peint	-8802
▁pièce	-8803
▁apôtre	-8804
▁orient	-8805
▁relève	-8806
▁sendon	-8807
▁traité	-8808
▁lalofuɛ	-8809
▁planète	-8810
▁sigɛnna	-8811
▁antiyɔsi	-8812
▁jeunesse	-8813
▁musulman	-8814
▁sɔlidasi	-8815
▁tendance	-8816
▁caractère	-8817
▁wolonfila	-8818
▁semblables	-8819
▁extrêmement	-8820
▁condoléances	-8821
▁responsables	-8822
oh	-8823
▁~	-8824
:36	-8825
kar	-8826
yée	-8827
fili	-8828
isez	-8829
ison	-8830
ttez	-8831
▁gir	-8832
▁gre	-8833
▁los	-8834
▁mod	-8835
▁rom	-8836
▁run	-8837
gment	-8838
intro	-8839
lande	-8840
magne	-8841
owamu	-8842
▁abro	-8843
▁caph	-8844
▁dina	-8845
▁djan	-8846
▁duzu	-8847
▁indé	-8848
▁invo	-8849
▁kiye	-8850
▁sada	-8851
▁seni	-8852
▁tɔnu	-8853
▁wùlu	-8854
besaba	-8855
dennin	-8856
ellent	-8857
isseur	-8858
itième	-8859
tigiya	-8860
▁dolla	-8861
▁juive	-8862
▁kanne	-8863
▁meure	-8864
▁occup	-8865
▁ramen	-8866
aveugle	-8867
▁animal	-8868
▁cartes	-8869
▁hébreu	-8870
▁kimasu	-8871
▁konnon	-8872
▁litigi	-8873
▁london	-8874
▁offert	-8875
▁ordres	-8876
▁priant	-8877
▁rentré	-8878
▁située	-8879
▁tienne	-8880
▁tombée	-8881
▁équipe	-8882
▁accordé	-8883
▁dispose	-8884
▁jurumut	-8885
▁matière	-8886
▁fɔɲɔbana	-8887
▁revanche	-8888
expression	-8889
▁bololafɛn	-8890
▁chapitres	-8891
▁filipikaw	-8892
▁promesses	-8893
▁pourraient	-8894
▁résistance	-8895
▁directement	-8896
▁sacrificateurs	-8897
.,	-8898
cy	-8899
èm	-8900
duw	-8901
faa	-8902
kes	-8903
lek	-8904
ory	-8905
ren	-8906
▁yó	-8907
dɛli	-8908
gati	-8909
ngue	-8910
siez	-8911
ties	-8912
▁1:5	-8913
▁pya	-8914
▁suw	-8915
▁usa	-8916
isais	-8917
mbour	-8918
▁1987	-8919
▁batu	-8920
▁hait	-8921
▁haïs	-8922
▁menu	-8923
▁muxu	-8924
▁reje	-8925
▁réel	-8926
▁unto	-8927
amment	-8928
délité	-8929
yakuba	-8930
▁chaud	-8931
▁jette	-8932
▁ladki	-8933
▁miira	-8934
oration	-8935
▁barima	-8936
▁bétail	-8937
▁entrée	-8938
▁former	-8939
▁pleuré	-8940
▁recons	-8941
▁rempla	-8942
▁unders	-8943
applique	-8944
▁acheter	-8945
▁contact	-8946
▁cɛfariw	-8947
▁kobabaw	-8948
▁kɛwaati	-8949
▁nafaman	-8950
▁prépare	-8951
▁consiste	-8952
▁devrions	-8953
▁diverses	-8954
▁mamadenw	-8955
▁ɲagaliba	-8956
▁izirayɛli	-8957
▁prochaine	-8958
▁rejoindre	-8959
▁saniyanin	-8960
▁israéliens	-8961
▁principaux	-8962
▁révélation	-8963
▁samaritains	-8964
▁ç	-8965
dix	-8966
ola	-8967
tɔɔ	-8968
wow	-8969
baba	-8970
isté	-8971
quit	-8972
tron	-8973
▁bag	-8974
▁dɛɛ	-8975
▁elo	-8976
envie	-8977
ident	-8978
insin	-8979
▁2021	-8980
▁adap	-8981
▁atun	-8982
▁cito	-8983
▁gout	-8984
▁nòfè	-8985
▁wali	-8986
▁wehe	-8987
▁admin	-8988
▁aidez	-8989
▁ainun	-8990
▁antio	-8991
▁armée	-8992
▁kolow	-8993
▁kɔseg	-8994
▁tenez	-8995
▁flamme	-8996
▁jatira	-8997
▁madame	-8998
▁moitié	-8999
▁saying	-9000
▁appeler	-9001
▁pécheur	-9002
▁ressour	-9003
▁stupide	-9004
▁bɛnzamɛn	-9005
▁capharna	-9006
▁kuluyɔrɔ	-9007
▁résoudre	-9008
▁tɔɲɔgɔnw	-9009
artiennent	-9010
▁cinquième	-9011
▁personnel	-9012
▁badenmailu	-9013
▁république	-9014
▁constamment	-9015
5,	-9016
onu	-9017
!!!!	-9018
aube	-9019
umɔɔ	-9020
étés	-9021
▁bye	-9022
▁dar	-9023
▁gla	-9024
▁iko	-9025
▁jɔɔ	-9026
▁lsg	-9027
▁lòn	-9028
anima	-9029
ative	-9030
feere	-9031
melle	-9032
ssent	-9033
▁agri	-9034
▁came	-9035
▁diye	-9036
▁fuck	-9037
▁read	-9038
▁yiru	-9039
aucune	-9040
essaye	-9041
yances	-9042
▁avais	-9043
▁avert	-9044
▁exact	-9045
▁lasun	-9046
▁médit	-9047
▁ngɔ̀n	-9048
▁saisi	-9049
accepte	-9050
issants	-9051
▁catégo	-9052
▁commer	-9053
▁fausse	-9054
▁jɔrɔkɔ	-9055
▁laxira	-9056
▁naaman	-9057
▁sentir	-9058
▁traite	-9059
annoncer	-9060
▁espèces	-9061
▁girɛkiw	-9062
▁kunsigi	-9063
▁mention	-9064
▁misiden	-9065
▁revient	-9066
▁verront	-9067
▁étonnés	-9068
améliorer	-9069
fariziɲɛw	-9070
▁abreuvés	-9071
▁apparaît	-9072
▁croyance	-9073
▁dɔgɔmuso	-9074
▁parcours	-9075
▁prennent	-9076
entreprise	-9077
▁croyances	-9078
▁entendant	-9079
▁mauvaises	-9080
▁mouvement	-9081
▁principal	-9082
▁rendirent	-9083
accompagner	-9084
▁prisonnier	-9085
▁understand	-9086
▁différences	-9087
▁palestiniens	-9088
▁propriétaire	-9089
▁véritablement	-9090
rds	-9091
sòn	-9092
élo	-9093
▁67	-9094
▁ue	-9095
▁xɛ	-9096
geux	-9097
kɔra	-9098
oign	-9099
onnu	-9100
segi	-9101
tool	-9102
ɲuma	-9103
▁17.	-9104
▁jur	-9105
▁keh	-9106
▁roo	-9107
▁rut	-9108
anges	-9109
areil	-9110
occup	-9111
▁doux	-9112
▁gaye	-9113
▁jamb	-9114
▁maît	-9115
▁tony	-9116
▁tɛgɛ	-9117
......	-9118
gèrent	-9119
roboam	-9120
▁2:49.	-9121
▁artis	-9122
▁daari	-9123
▁kônôn	-9124
▁levée	-9125
▁lundi	-9126
▁masih	-9127
▁simil	-9128
▁tomba	-9129
▁acquis	-9130
▁divine	-9131
▁dɔgɔma	-9132
▁famous	-9133
▁labɛnw	-9134
▁marqué	-9135
▁pilati	-9136
▁routes	-9137
▁soɲali	-9138
▁sujets	-9139
▁tilara	-9140
humilité	-9141
registre	-9142
▁persévé	-9143
▁raconté	-9144
▁spécifi	-9145
▁surface	-9146
▁ɲɔgɔnye	-9147
▁batisera	-9148
▁empêcher	-9149
▁imbécile	-9150
▁invitons	-9151
▁dafabaliw	-9152
▁kɔ̀rɔmuso	-9153
▁notamment	-9154
▁pardonnés	-9155
▁chrétienne	-9156
▁évidemment	-9157
▁sebagayabɛɛtigi	-9158
▁|	-9159
aga	-9160
doo	-9161
get	-9162
iye	-9163
ost	-9164
▁8,	-9165
▁mg	-9166
▁xe	-9167
lubi	-9168
mogɔ	-9169
pend	-9170
ther	-9171
▁11.	-9172
▁afa	-9173
▁gèn	-9174
▁kɔ̃	-9175
:1313	-9176
accou	-9177
celui	-9178
dents	-9179
gents	-9180
limaw	-9181
▁dant	-9182
▁dort	-9183
▁fine	-9184
▁hoti	-9185
▁jabi	-9186
▁jèya	-9187
▁kadi	-9188
▁kuwo	-9189
▁kèla	-9190
▁neni	-9191
▁payé	-9192
▁sûre	-9193
▁terr	-9194
▁tinɛ	-9195
▁yaad	-9196
empire	-9197
▁blood	-9198
▁bɛmaw	-9199
▁circu	-9200
▁eligi	-9201
▁galen	-9202
▁garan	-9203
▁ignor	-9204
▁match	-9205
▁noces	-9206
▁nyini	-9207
▁soeur	-9208
obowamu	-9209
olocaus	-9210
▁acheté	-9211
▁avions	-9212
▁droits	-9213
▁mangez	-9214
▁pasito	-9215
▁réguli	-9216
▁sewara	-9217
▁suivit	-9218
▁voleur	-9219
▁yulubi	-9220
▁yɔrɔla	-9221
▁yɛlema	-9222
ecriture	-9223
▁aillent	-9224
▁contemp	-9225
▁deliliw	-9226
▁docteur	-9227
▁jɛnitaw	-9228
▁louange	-9229
▁wotorow	-9230
▁dònbaliw	-9231
▁jéroboam	-9232
▁kàramogɔ	-9233
▁maladies	-9234
▁remettre	-9235
tɔnkuntigi	-9236
▁milliards	-9237
▁religieux	-9238
▁réveillée	-9239
▁troupeaux	-9240
▁accompagné	-9241
▁connaissez	-9242
▁gofɛrɛnɛman	-9243
3,	-9244
jon	-9245
uil	-9246
èma	-9247
̀rɛ	-9248
▁2:	-9249
▁8"	-9250
▁rd	-9251
▁sn	-9252
▁xi	-9253
%...	-9254
guer	-9255
land	-9256
lila	-9257
zɔbu	-9258
âtre	-9259
▁alé	-9260
▁bah	-9261
▁sèg	-9262
▁wil	-9263
venir	-9264
▁bɔnɔ	-9265
▁dula	-9266
▁fosi	-9267
▁gest	-9268
▁labi	-9269
▁lyri	-9270
▁mùso	-9271
▁sexe	-9272
▁ɲrun	-9273
avança	-9274
duwani	-9275
iciens	-9276
tances	-9277
yusufu	-9278
▁auxqu	-9279
▁dunuɲ	-9280
▁délai	-9281
▁dénom	-9282
▁gundo	-9283
▁james	-9284
▁konon	-9285
▁mafee	-9286
▁menti	-9287
▁minkè	-9288
▁récit	-9289
▁sigui	-9290
▁wunɛn	-9291
encoura	-9292
gnation	-9293
omobile	-9294
zuwifuw	-9295
▁africa	-9296
▁dunuya	-9297
▁fleurs	-9298
▁idoles	-9299
▁sayang	-9300
▁techni	-9301
accepter	-9302
piration	-9303
▁chevaux	-9304
▁devriez	-9305
▁domaine	-9306
▁faisais	-9307
▁kalanna	-9308
▁regards	-9309
▁decembro	-9310
▁environs	-9311
▁prostern	-9312
▁ressenti	-9313
▁tooltool	-9314
▁demeurent	-9315
▁descendre	-9316
▁ephésiens	-9317
▁kàlandenw	-9318
▁supérieur	-9319
▁énormément	-9320
▁reconnaître	-9321
▁conformément	-9322
▁reconnaissance	-9323
ïs	-9324
bal	-9325
eza	-9326
hoo	-9327
ooo	-9328
épr	-9329
ûte	-9330
▁gê	-9331
▁wè	-9332
anou	-9333
antu	-9334
dose	-9335
roni	-9336
éter	-9337
▁hom	-9338
▁liɛ	-9339
▁out	-9340
▁pot	-9341
▁épr	-9342
ainsi	-9343
tures	-9344
▁aate	-9345
▁allu	-9346
▁bayo	-9347
▁buku	-9348
▁chal	-9349
▁kodo	-9350
▁lili	-9351
▁mera	-9352
▁rang	-9353
▁renf	-9354
dation	-9355
ortent	-9356
▁cikgu	-9357
▁denkɛ	-9358
▁elize	-9359
▁jugés	-9360
▁kɛtaw	-9361
▁portu	-9362
▁terri	-9363
▁crédit	-9364
▁défaut	-9365
▁esumɔɔ	-9366
▁invite	-9367
▁lasɔmi	-9368
▁parles	-9369
▁rendra	-9370
▁règles	-9371
▁sumana	-9372
▁sɔ̃ɔsi	-9373
▁sɔ̃ɔwa	-9374
▁touche	-9375
dictions	-9376
▁dafalen	-9377
▁girinya	-9378
▁malheur	-9379
▁senumaw	-9380
▁versets	-9381
▁dépasser	-9382
▁qualités	-9383
▁soumises	-9384
▁descendit	-9385
▁dumunifèn	-9386
▁premières	-9387
▁dirigeants	-9388
▁kojugukɛlaw	-9389
▁zeruzalɛmukaw	-9390
fr	-9391
amɔ	-9392
eus	-9393
osa	-9394
anse	-9395
boon	-9396
invo	-9397
minè	-9398
ning	-9399
page	-9400
sier	-9401
siya	-9402
èrèn	-9403
▁blu	-9404
▁dim	-9405
▁kaw	-9406
▁kay	-9407
▁mɑɑ	-9408
▁nyi	-9409
▁pes	-9410
▁éva	-9411
▁ɔri	-9412
:1818	-9413
auras	-9414
banku	-9415
ginan	-9416
illon	-9417
ɲɛnin	-9418
▁1914	-9419
▁bhii	-9420
▁djou	-9421
▁fɛrɛ	-9422
▁land	-9423
▁plat	-9424
▁romp	-9425
▁subs	-9426
aratɛɛ	-9427
entraî	-9428
lamanw	-9429
misɛnw	-9430
ouvrir	-9431
rables	-9432
ɲumanw	-9433
▁aimée	-9434
▁améli	-9435
▁bienv	-9436
▁bêtes	-9437
▁enfer	-9438
▁kakak	-9439
▁korea	-9440
▁lions	-9441
▁mennu	-9442
▁mɛnta	-9443
▁nèèma	-9444
▁sitan	-9445
▁tamin	-9446
▁tigiw	-9447
▁envoie	-9448
▁kunkun	-9449
▁livrer	-9450
▁muɲuna	-9451
▁romain	-9452
▁ɛrɛzɛn	-9453
kuntigiw	-9454
mblement	-9455
▁badencɛ	-9456
▁collabo	-9457
▁duninya	-9458
▁kumasen	-9459
▁meurent	-9460
▁petites	-9461
▁ressens	-9462
▁restait	-9463
▁univers	-9464
▁vivante	-9465
▁ɛsitɛri	-9466
approcher	-9467
opération	-9468
▁actuelle	-9469
▁distribu	-9470
▁implique	-9471
▁persuadé	-9472
▁accomplie	-9473
▁demandons	-9474
▁faribanku	-9475
▁forcément	-9476
▁supporter	-9477
accomplisse	-9478
▁apocalypse	-9479
▁maseduwani	-9480
▁dunuɲaratɛɛ	-9481
',	-9482
lia	-9483
sun	-9484
uri	-9485
▁uk	-9486
▁up	-9487
▁yĩ	-9488
actu	-9489
iner	-9490
kiba	-9491
oeil	-9492
orde	-9493
sisi	-9494
tian	-9495
uter	-9496
ŋolu	-9497
▁bow	-9498
▁dap	-9499
▁jeû	-9500
▁nav	-9501
▁sak	-9502
diens	-9503
lante	-9504
pects	-9505
épous	-9506
▁annu	-9507
▁bris	-9508
▁desu	-9509
▁hona	-9510
▁kere	-9511
▁mori	-9512
▁méta	-9513
▁nyin	-9514
▁repr	-9515
▁sail	-9516
▁séch	-9517
▁tagi	-9518
▁tags	-9519
▁véri	-9520
autant	-9521
éviter	-9522
▁exist	-9523
▁farin	-9524
▁foyih	-9525
▁hòròn	-9526
▁illus	-9527
▁kouma	-9528
▁libra	-9529
▁munna	-9530
▁neemo	-9531
▁reine	-9532
▁sinna	-9533
▁sukun	-9534
▁tɔgɔw	-9535
▁tɔmbu	-9536
▁abroad	-9537
▁ancien	-9538
▁comple	-9539
▁farala	-9540
▁komiji	-9541
▁lyrics	-9542
▁tabali	-9543
▁textes	-9544
objectif	-9545
▁affirme	-9546
▁cidenya	-9547
▁devrais	-9548
▁gnongon	-9549
▁londres	-9550
▁proster	-9551
▁allemand	-9552
▁baptiste	-9553
▁conduits	-9554
▁magistra	-9555
▁pardonné	-9556
▁réaliser	-9557
▁seeginan	-9558
▁voitures	-9559
▁yiridenw	-9560
▁combattre	-9561
▁capharnaüm	-9562
▁fangabaara	-9563
▁litigieuse	-9564
▁connaissait	-9565
▁merveilleux	-9566
▁personnages	-9567
?!	-9568
▁🙂	-9569
juu	-9570
pen	-9571
xɔn	-9572
ɔgo	-9573
▁iv	-9574
amis	-9575
dise	-9576
fier	-9577
gala	-9578
nait	-9579
unny	-9580
▁mac	-9581
▁miw	-9582
▁sex	-9583
estre	-9584
kanni	-9585
quées	-9586
tiers	-9587
vidus	-9588
▁2015	-9589
▁6:23	-9590
▁démé	-9591
▁feen	-9592
▁lajè	-9593
▁mutu	-9594
▁nico	-9595
▁nina	-9596
▁pang	-9597
▁suba	-9598
▁séle	-9599
▁trah	-9600
▁your	-9601
instru	-9602
kolonw	-9603
ressed	-9604
ɛrɛzɛn	-9605
▁bibia	-9606
▁blank	-9607
▁sabía	-9608
▁saran	-9609
▁sympa	-9610
▁tonɲa	-9611
▁yiran	-9612
▁yɔrɔw	-9613
▁cɛtigɛ	-9614
▁empris	-9615
▁faggot	-9616
▁fɔlɔta	-9617
▁ifunny	-9618
▁manqué	-9619
▁marigi	-9620
▁perman	-9621
▁russie	-9622
▁couvrir	-9623
▁fɛfɛɛrɛ	-9624
▁reviens	-9625
▁binaanin	-9626
▁sentiers	-9627
appartient	-9628
▁autorités	-9629
▁inpressed	-9630
▁justement	-9631
▁populaire	-9632
▁perfection	-9633
▁rappellera	-9634
▁disponibles	-9635
▁importantes	-9636
##	-9637
28	-9638
70	-9639
án	-9640
▁ˈ	-9641
aka	-9642
nel	-9643
zɔn	-9644
▁90	-9645
dieu	-9646
mira	-9647
osun	-9648
sias	-9649
érir	-9650
▁afe	-9651
▁air	-9652
▁bés	-9653
▁crè	-9654
▁eko	-9655
▁hmm	-9656
▁lok	-9657
▁tle	-9658
▁unt	-9659
▁anne	-9660
▁cɛkɛ	-9661
▁dèmè	-9662
▁heee	-9663
▁lawa	-9664
▁lika	-9665
▁race	-9666
▁réfu	-9667
envers	-9668
tèrent	-9669
▁bébés	-9670
▁exemp	-9671
▁feras	-9672
▁jugez	-9673
▁parab	-9674
▁voile	-9675
▁betani	-9676
▁cancer	-9677
▁fantas	-9678
▁jambes	-9679
▁jɛnina	-9680
▁leçons	-9681
▁posses	-9682
▁sentez	-9683
iniquité	-9684
▁composé	-9685
▁damanin	-9686
▁douceur	-9687
▁dɔgɔnin	-9688
▁exhorte	-9689
▁jijanin	-9690
▁kanbele	-9691
▁masɔrɔn	-9692
▁précisé	-9693
▁science	-9694
▁troupes	-9695
▁chrétien	-9696
▁prescrit	-9697
▁principe	-9698
▁servante	-9699
▁ɲɛnabɔla	-9700
▁réconcili	-9701
▁apprennent	-9702
▁denmisɛnni	-9703
▁extraordin	-9704
▁kɔlɔsibaga	-9705
▁trouvèrent	-9706
,'	-9707
hɔ	-9708
yn	-9709
elo	-9710
orr	-9711
thé	-9712
tue	-9713
anso	-9714
etat	-9715
ffee	-9716
ocat	-9717
▁19"	-9718
▁500	-9719
▁ach	-9720
▁doi	-9721
▁elf	-9722
▁gem	-9723
▁hiv	-9724
▁mos	-9725
▁sɔ̄	-9726
effet	-9727
islam	-9728
ɲògòn	-9729
▁amou	-9730
▁cɛɲa	-9731
▁joab	-9732
▁piin	-9733
▁sout	-9734
▁tire	-9735
▁vive	-9736
▁waan	-9737
illons	-9738
kofoni	-9739
▁bɛgɛn	-9740
▁final	-9741
▁gwɛra	-9742
▁konni	-9743
ephraïm	-9744
faction	-9745
veilles	-9746
èvement	-9747
▁bɛgɛnw	-9748
▁confié	-9749
▁entour	-9750
▁grosse	-9751
▁kayifu	-9752
▁plaire	-9753
▁specta	-9754
▁tiɲɛko	-9755
▁tɛliya	-9756
▁vierge	-9757
▁yɛrɛkɛ	-9758
▁apprend	-9759
▁cadeaux	-9760
▁circons	-9761
▁dollars	-9762
▁fugulan	-9763
▁jurumun	-9764
▁kununko	-9765
▁misaali	-9766
▁ordonna	-9767
▁pensons	-9768
▁serpent	-9769
▁soutien	-9770
▁campagne	-9771
▁défendre	-9772
▁hypocrit	-9773
▁tribunal	-9774
▁justifiés	-9775
▁tɔɔrɔjugu	-9776
▁discussion	-9777
▁frankofoni	-9778
▁rencontrer	-9779
▁descendants	-9780
▁généralement	-9781
▁jamanakuntigi	-9782
▁éternellement	-9783
▁thessaloniciens	-9784
27	-9785
_<	-9786
ek	-9787
▁ì	-9788
asa	-9789
cia	-9790
gɔn	-9791
roi	-9792
▁05	-9793
▁07	-9794
▁3,	-9795
oniw	-9796
rika	-9797
▁400	-9798
▁>_<	-9799
▁esa	-9800
▁kau	-9801
▁lié	-9802
▁moy	-9803
▁nne	-9804
siyaw	-9805
xanŋo	-9806
étudi	-9807
ɔgɔwɔ	-9808
▁awas	-9809
▁débu	-9810
▁etes	-9811
▁lour	-9812
▁moti	-9813
▁wita	-9814
▁yeni	-9815
▁1466.	-9816
▁anani	-9817
▁douce	-9818
▁froid	-9819
▁kakan	-9820
▁kunti	-9821
▁manya	-9822
▁parfu	-9823
▁poids	-9824
▁volon	-9825
effectu	-9826
graphie	-9827
ouvrage	-9828
▁bureau	-9829
▁bònsòn	-9830
▁désire	-9831
▁genèse	-9832
▁kumafu	-9833
▁oiseau	-9834
kɔrɔsigi	-9835
tiennent	-9836
▁mɔgɔdaf	-9837
▁plantes	-9838
▁prenant	-9839
▁sortent	-9840
▁amoureux	-9841
▁attendez	-9842
▁barnabas	-9843
▁kanulenw	-9844
▁tiennent	-9845
▁witamini	-9846
▁américain	-9847
▁kasadiman	-9848
▁sigiyɔrɔw	-9849
▁sigiɲɔgɔn	-9850
▁décourager	-9851
▁enseignant	-9852
▁pleinement	-9853
▁religieuses	-9854
▁condamnation	-9855
ld	-9856
yɑ	-9857
ɛr	-9858
▁😉	-9859
oma	-9860
▁83	-9861
▁dh	-9862
▁hâ	-9863
isie	-9864
lɔnw	-9865
orge	-9866
▁1:4	-9867
▁bua	-9868
▁eau	-9869
▁enj	-9870
▁gat	-9871
▁haa	-9872
▁kai	-9873
▁mea	-9874
▁she	-9875
▁ski	-9876
▁xin	-9877
▁yor	-9878
▁ɔɔn	-9879
enses	-9880
ituma	-9881
ouvre	-9882
ustra	-9883
▁deni	-9884
▁madu	-9885
▁manu	-9886
▁tama	-9887
▁tchi	-9888
▁woyo	-9889
▁épre	-9890
▁épée	-9891
sariya	-9892
▁armes	-9893
▁awake	-9894
▁créat	-9895
▁céléb	-9896
▁gaman	-9897
▁guide	-9898
▁klist	-9899
▁kunfɛ	-9900
▁récol	-9901
▁régna	-9902
▁zhezu	-9903
asseoir	-9904
engager	-9905
▁adored	-9906
▁apparu	-9907
▁dabari	-9908
▁denilu	-9909
▁emploi	-9910
▁espèce	-9911
▁fadenw	-9912
▁kakdee	-9913
▁lagamɛ	-9914
▁manase	-9915
▁penses	-9916
▁priait	-9917
▁rendus	-9918
▁sermon	-9919
▁sɔrɔli	-9920
▁vidéos	-9921
▁études	-9922
arrivait	-9923
entrerez	-9924
▁chemins	-9925
▁condole	-9926
▁encoura	-9927
▁fortifi	-9928
▁isireli	-9929
▁rendait	-9930
▁tchaman	-9931
▁vouloir	-9932
▁belebele	-9933
▁espérons	-9934
▁sympathi	-9935
▁duvɛnkɛnɛ	-9936
▁entrèrent	-9937
▁réflexion	-9938
▁événement	-9939
▁kojugukɛla	-9940
▁mɔgɔkɔrɔba	-9941
▁ressources	-9942
▁principales	-9943
▁accomplissez	-9944
▁intelligence	-9945
▁nafolobatigi	-9946
▁international	-9947
-5	-9948
4.	-9949
:77	-9950
lic	-9951
▁4,	-9952
▁4:	-9953
▁68	-9954
▁zɛ	-9955
admi	-9956
cées	-9957
deni	-9958
hous	-9959
jala	-9960
écar	-9961
▁beh	-9962
▁eve	-9963
▁lux	-9964
▁ndi	-9965
▁rab	-9966
▁sto	-9967
itant	-9968
kisan	-9969
stitu	-9970
trait	-9971
▁1:10	-9972
▁conv	-9973
▁dédi	-9974
▁info	-9975
▁lɛsɛ	-9976
▁mach	-9977
▁sien	-9978
▁timi	-9979
▁accès	-9980
▁black	-9981
▁domun	-9982
▁favor	-9983
▁intro	-9984
▁kabin	-9985
▁keden	-9986
▁kenya	-9987
▁konin	-9988
▁lanna	-9989
▁recev	-9990
tements	-9991
▁désobé	-9992
▁kirisi	-9993
▁lɛgɛrɛ	-9994
▁mourra	-9995
▁quator	-9996
▁sommet	-9997
▁tagawa	-9998
identité	-9999
▁conduis	-10000
▁empêche	-10001
▁mangent	-10002
▁aiguille	-10003
▁articles	-10004
▁aveugles	-10005
▁batofɛnw	-10006
▁dogoyɔrɔ	-10007
▁election	-10008
▁provient	-10009
▁possibles	-10010
▁transport	-10011
▁arriveront	-10012
▁découverte	-10013
▁entreprise	-10014
▁kirayakuma	-10015
▁réalisation	-10016
▁sincèrement	-10017
ɔw	-10018
ɛ̄	-10019
---	-10020
;-)	-10021
dar	-10022
tur	-10023
wer	-10024
̀nɔ	-10025
▁73	-10026
▁râ	-10027
▁sm	-10028
▁tô	-10029
amer	-10030
geur	-10031
gnon	-10032
mugu	-10033
muru	-10034
yari	-10035
ɲini	-10036
▁30.	-10037
▁kom	-10038
▁lau	-10039
▁mei	-10040
▁nie	-10041
▁nuŋ	-10042
▁rfi	-10043
▁wal	-10044
estin	-10045
initi	-10046
toire	-10047
▁bwes	-10048
▁nɛni	-10049
animal	-10050
dulité	-10051
effond	-10052
espace	-10053
gwɛlɛn	-10054
jurumu	-10055
maient	-10056
▁bénit	-10057
▁chute	-10058
▁déran	-10059
▁litté	-10060
▁musom	-10061
▁pêche	-10062
▁tiers	-10063
▁tuent	-10064
▁batɛmu	-10065
▁blessé	-10066
▁buruju	-10067
▁caïphe	-10068
▁kalama	-10069
▁objets	-10070
▁phrase	-10071
▁restez	-10072
▁régime	-10073
▁terres	-10074
▁untung	-10075
explique	-10076
▁artiste	-10077
▁attribu	-10078
▁bwisiku	-10079
▁compose	-10080
▁connait	-10081
▁coucher	-10082
▁essayez	-10083
▁konnigɛ	-10084
▁magwɛrɛ	-10085
▁manassé	-10086
▁vieille	-10087
istration	-10088
▁centaine	-10089
▁chambres	-10090
▁détruits	-10091
▁individu	-10092
▁tenaient	-10093
▁imbéciles	-10094
▁jagwɛlɛya	-10095
▁politesse	-10096
▁sortirent	-10097
▁ressuscite	-10098
45	-10099
ig	-10100
▁ע	-10101
apo	-10102
cra	-10103
har	-10104
lub	-10105
mmy	-10106
nou	-10107
taa	-10108
yew	-10109
▁9.	-10110
▁=)	-10111
▁ul	-10112
boli	-10113
espé	-10114
liso	-10115
lòsi	-10116
tons	-10117
tugu	-10118
unuŋ	-10119
▁ahh	-10120
▁bei	-10121
▁clo	-10122
▁lao	-10123
▁mah	-10124
▁ram	-10125
▁sel	-10126
▁sté	-10127
autés	-10128
entes	-10129
ligan	-10130
▁bref	-10131
▁culp	-10132
▁dame	-10133
▁dɔɔ̄	-10134
▁ekun	-10135
▁fôlô	-10136
▁kulo	-10137
▁kèmè	-10138
▁mard	-10139
▁murs	-10140
▁nege	-10141
▁siɲa	-10142
▁tres	-10143
▁tùma	-10144
jamana	-10145
thenti	-10146
▁11:11	-10147
▁agent	-10148
▁allée	-10149
▁châti	-10150
▁débat	-10151
▁films	-10152
▁initi	-10153
▁kooko	-10154
▁kɔ̀nɔ	-10155
▁large	-10156
▁nimis	-10157
▁panne	-10158
▁tirer	-10159
▁ŋunuŋ	-10160
▁diront	-10161
▁figure	-10162
▁gwɛman	-10163
▁jigɛba	-10164
▁kòlòsi	-10165
▁partit	-10166
▁safari	-10167
▁sinsin	-10168
▁tourne	-10169
▁chacune	-10170
▁chaleur	-10171
▁césarée	-10172
▁egilisi	-10173
▁histori	-10174
▁kɔnɔgwɛ	-10175
▁nisɔngɔ	-10176
▁rendant	-10177
▁réjouir	-10178
▁répandu	-10179
expliquer	-10180
▁kɔnɔnako	-10181
▁quartier	-10182
▁remarqué	-10183
▁ezekiyasi	-10184
▁iburahima	-10185
▁mɔgɔtɔɔrɔ	-10186
▁réfléchir	-10187
organisation	-10188
▁communication	-10189
▁personnellement	-10190
ilɛ	-10191
mum	-10192
pir	-10193
wns	-10194
épa	-10195
▁4"	-10196
cice	-10197
ento	-10198
lage	-10199
like	-10200
osse	-10201
tire	-10202
▁anj	-10203
angle	-10204
céens	-10205
inɛri	-10206
mmène	-10207
vions	-10208
èdent	-10209
édifi	-10210
▁blas	-10211
▁bleu	-10212
▁brit	-10213
▁chou	-10214
▁cors	-10215
▁crit	-10216
▁côte	-10217
▁cɛya	-10218
▁girl	-10219
▁jela	-10220
▁liga	-10221
▁magi	-10222
▁nice	-10223
▁plon	-10224
▁relâ	-10225
▁sabi	-10226
▁sɑ̃ɑ	-10227
randes	-10228
étions	-10229
▁crise	-10230
▁desse	-10231
▁grèce	-10232
▁jɛŋgɛ	-10233
▁loonw	-10234
▁lucas	-10235
▁munaa	-10236
▁quali	-10237
▁sanfè	-10238
▁silan	-10239
▁tɛrɛn	-10240
▁édifi	-10241
adressa	-10242
emparer	-10243
▁excell	-10244
▁gwanna	-10245
▁jarabi	-10246
▁kokura	-10247
▁mienne	-10248
▁touché	-10249
▁tourné	-10250
▁cuisine	-10251
▁dafalan	-10252
▁kasoden	-10253
▁miirira	-10254
▁périsse	-10255
▁regarda	-10256
▁rembour	-10257
▁reposer	-10258
esclavage	-10259
kalandenw	-10260
quisition	-10261
▁abisalɔn	-10262
▁archives	-10263
▁december	-10264
▁faudrait	-10265
▁kɔrɔmuso	-10266
▁makarila	-10267
▁bienheure	-10268
▁gravement	-10269
▁masirinin	-10270
▁propriété	-10271
▁nafolofɛnw	-10272
▁permettent	-10273
▁reviennent	-10274
accouchement	-10275
▁kɔlɔsibagaw	-10276
▁préparation	-10277
▁témoignages	-10278
▁mɔgɔdafaninw	-10279
37	-10280
ין	-10281
ẹ́	-10282
ọk	-10283
dro	-10284
gee	-10285
ice	-10286
ley	-10287
lén	-10288
uts	-10289
▁6,	-10290
▁hô	-10291
▁sk	-10292
alla	-10293
allu	-10294
deur	-10295
gari	-10296
look	-10297
mɔri	-10298
ngan	-10299
rice	-10300
wafa	-10301
yeee	-10302
yuli	-10303
▁fac	-10304
▁ken	-10305
▁kpe	-10306
▁nnɔ	-10307
▁ron	-10308
▁vég	-10309
▁yau	-10310
etait	-10311
hanga	-10312
kurun	-10313
lɛnin	-10314
onnes	-10315
rasiw	-10316
écran	-10317
▁apol	-10318
▁cria	-10319
▁démo	-10320
▁kabo	-10321
▁kado	-10322
▁kame	-10323
▁lent	-10324
▁male	-10325
▁miri	-10326
▁yire	-10327
kɛbaga	-10328
▁broke	-10329
▁catho	-10330
▁dɛndɛ	-10331
▁levez	-10332
▁louis	-10333
▁perte	-10334
▁tradu	-10335
▁utile	-10336
▁évolu	-10337
épisode	-10338
▁naforo	-10339
▁passés	-10340
▁prêché	-10341
▁végéta	-10342
fɛrinama	-10343
▁donnant	-10344
▁femelle	-10345
▁hommage	-10346
▁minnɔgɔ	-10347
▁nourrir	-10348
▁objecti	-10349
▁tableau	-10350
kisandiri	-10351
▁dalakuma	-10352
▁divinité	-10353
▁djamanan	-10354
▁hauteurs	-10355
▁rappelez	-10356
▁sadayeee	-10357
▁souriant	-10358
▁soutenir	-10359
▁suivants	-10360
▁surprise	-10361
▁violence	-10362
intéresser	-10363
▁bangebaga	-10364
▁bienfaits	-10365
▁directeur	-10366
▁découvrir	-10367
▁entendent	-10368
▁entrepris	-10369
▁satisfait	-10370
▁tagamasiɲɛ	-10371
▁yɔrɔlakolon	-10372
2:	-10373
6,	-10374
mɑ	-10375
àa	-10376
daa	-10377
hio	-10378
ino	-10379
mor	-10380
mou	-10381
ted	-10382
èce	-10383
▁bê	-10384
▁ts	-10385
▁tì	-10386
bert	-10387
janw	-10388
mara	-10389
mets	-10390
orta	-10391
zifa	-10392
▁[1]	-10393
▁daw	-10394
▁dow	-10395
▁ika	-10396
▁iné	-10397
▁otu	-10398
▁use	-10399
▁éli	-10400
▁ɲen	-10401
cence	-10402
herbe	-10403
illée	-10404
infir	-10405
quand	-10406
sière	-10407
yɔɔrɔ	-10408
▁biga	-10409
▁bloo	-10410
▁boit	-10411
▁mike	-10412
▁pari	-10413
▁said	-10414
▁stra	-10415
▁surp	-10416
▁wìla	-10417
mɔɔilu	-10418
ronter	-10419
sayuli	-10420
yeelen	-10421
▁1959.	-10422
▁chass	-10423
▁jɛnna	-10424
▁kanun	-10425
▁koowo	-10426
▁lumin	-10427
▁messi	-10428
▁murna	-10429
▁telen	-10430
▁tɔnmɔ	-10431
ditions	-10432
▁ajouta	-10433
▁balawu	-10434
▁kunkan	-10435
▁lutter	-10436
▁matern	-10437
▁saisit	-10438
▁sekɔra	-10439
▁suffis	-10440
▁tumana	-10441
▁wazifa	-10442
écoutent	-10443
▁aspects	-10444
▁baarala	-10445
▁donnait	-10446
▁kèlèbaa	-10447
▁mesures	-10448
▁renonce	-10449
▁simeyɔn	-10450
▁évident	-10451
abondance	-10452
▁balimakɛ	-10453
▁capacité	-10454
▁collecti	-10455
▁dencɛilu	-10456
▁klistfuɛ	-10457
▁longueur	-10458
▁parvenus	-10459
▁secondes	-10460
▁offrandes	-10461
▁tagahanga	-10462
▁égyptiens	-10463
▁gufɛrinama	-10464
▁habitaient	-10465
▁merveilles	-10466
▁spirituels	-10467
▁baarakɛcogo	-10468
▁changements	-10469
▁connaissons	-10470
▁alɛkisandiri	-10471
act	-10472
bor	-10473
dal	-10474
lun	-10475
vnw	-10476
ɛsi	-10477
▁py	-10478
alèm	-10479
bɔnɛ	-10480
enna	-10481
mise	-10482
neuf	-10483
▁hey	-10484
▁hos	-10485
▁hoy	-10486
▁ini	-10487
▁kuu	-10488
▁paa	-10489
▁pee	-10490
▁res	-10491
▁wla	-10492
▁עין	-10493
excus	-10494
lable	-10495
mique	-10496
▁1:17	-10497
▁chɛɛ	-10498
▁fufa	-10499
▁gosi	-10500
▁résu	-10501
▁toma	-10502
▁zeri	-10503
ctures	-10504
images	-10505
équili	-10506
▁acces	-10507
▁boonw	-10508
▁damas	-10509
▁danse	-10510
▁déchi	-10511
▁ezayi	-10512
▁fanva	-10513
▁kanma	-10514
▁lancé	-10515
▁lolow	-10516
▁môgôw	-10517
▁olivu	-10518
▁recue	-10519
▁tuées	-10520
▁yɔɔrɔ	-10521
animaux	-10522
▁banner	-10523
▁bulonɔ	-10524
▁chiens	-10525
▁habitu	-10526
▁lɛtɛrɛ	-10527
▁nuŋgba	-10528
▁sisiba	-10529
appareil	-10530
apporter	-10531
ressions	-10532
▁bigawns	-10533
▁décider	-10534
▁furancɛ	-10535
▁garçons	-10536
▁kɔrɔman	-10537
▁psaumes	-10538
▁souffle	-10539
▁torosun	-10540
influence	-10541
▁enseigné	-10542
▁tɔɔrɔkow	-10543
▁yɛlɛtuma	-10544
▁compliqué	-10545
▁dɔnkilila	-10546
▁phénomène	-10547
▁condoleeza	-10548
▁dɛsɛbagatɔ	-10549
▁kilomètres	-10550
▁kongosogow	-10551
▁possession	-10552
▁commentaires	-10553
▁dusukunnakow	-10554
▁sarakalasebaaw	-10555
49	-10556
nd	-10557
30.	-10558
adi	-10559
cen	-10560
hés	-10561
kou	-10562
mpe	-10563
tee	-10564
ango	-10565
ctes	-10566
erie	-10567
immo	-10568
leke	-10569
osow	-10570
▁amp	-10571
▁nar	-10572
▁old	-10573
▁sha	-10574
▁vih	-10575
▁yir	-10576
aperç	-10577
comme	-10578
enais	-10579
tahun	-10580
tueux	-10581
zaine	-10582
▁3:11	-10583
▁agir	-10584
▁amus	-10585
▁assu	-10586
▁cess	-10587
▁dise	-10588
▁flan	-10589
▁gere	-10590
▁joué	-10591
▁kisa	-10592
▁koon	-10593
▁kèɲè	-10594
▁lisa	-10595
▁mets	-10596
▁minu	-10597
▁papi	-10598
▁rede	-10599
▁refu	-10600
▁soif	-10601
▁tiri	-10602
▁vêtu	-10603
▁wonu	-10604
cevoir	-10605
contre	-10606
quérir	-10607
▁aperç	-10608
▁corru	-10609
▁croyi	-10610
▁deuil	-10611
▁donso	-10612
▁emanu	-10613
▁explo	-10614
▁kaane	-10615
▁kawan	-10616
▁modes	-10617
▁natte	-10618
▁situe	-10619
▁époux	-10620
ditionn	-10621
housias	-10622
matique	-10623
parents	-10624
▁cooper	-10625
▁elizab	-10626
▁feeren	-10627
▁frappé	-10628
▁gomorr	-10629
▁kagala	-10630
▁manana	-10631
▁masɔrɔ	-10632
▁passée	-10633
▁portée	-10634
▁rachel	-10635
▁racine	-10636
▁remise	-10637
▁remont	-10638
▁révèle	-10639
▁virent	-10640
éloigner	-10641
▁ajouter	-10642
▁dilanna	-10643
▁diminin	-10644
▁haminan	-10645
▁kasobon	-10646
▁produis	-10647
▁sigilen	-10648
▁trouvez	-10649
▁assassin	-10650
▁béthanie	-10651
▁carrière	-10652
▁couronne	-10653
▁gentille	-10654
▁habitent	-10655
▁insensés	-10656
▁maridose	-10657
▁totalité	-10658
▁ladilikan	-10659
▁rendaient	-10660
▁fonctionne	-10661
▁production	-10662
▁zerobowamu	-10663
ep	-10664
ón	-10665
ɡe	-10666
enɛ	-10667
kit	-10668
org	-10669
ple	-10670
siɑ	-10671
ɑri	-10672
▁2)	-10673
▁72	-10674
▁kì	-10675
fènw	-10676
fɔɲɔ	-10677
issé	-10678
jeun	-10679
ries	-10680
yini	-10681
▁(20	-10682
▁48.	-10683
▁kei	-10684
▁kut	-10685
▁kɛr	-10686
▁mba	-10687
▁mol	-10688
▁nɡe	-10689
▁opé	-10690
▁oya	-10691
▁sév	-10692
▁tyr	-10693
▁ɲɔn	-10694
hiver	-10695
itent	-10696
proch	-10697
roits	-10698
viers	-10699
▁amie	-10700
▁aras	-10701
▁dess	-10702
▁disi	-10703
▁donw	-10704
▁edɛn	-10705
▁idol	-10706
▁jack	-10707
▁koli	-10708
▁noob	-10709
▁tɔɲɔ	-10710
▁wɑ̃ɑ	-10711
illant	-10712
prêtre	-10713
quatre	-10714
sibles	-10715
▁affec	-10716
▁cellu	-10717
▁conçu	-10718
▁créée	-10719
▁daddy	-10720
▁festi	-10721
▁gwili	-10722
▁march	-10723
▁mélan	-10724
▁proxi	-10725
▁sable	-10726
▁woolo	-10727
▁wèrèw	-10728
appeler	-10729
▁adorer	-10730
▁armées	-10731
▁assemb	-10732
▁bènbaw	-10733
▁cɛnnin	-10734
▁démont	-10735
▁détres	-10736
▁misère	-10737
▁mousso	-10738
▁oeuvre	-10739
▁posent	-10740
▁totale	-10741
rédulité	-10742
▁attendu	-10743
▁château	-10744
▁compara	-10745
▁délivre	-10746
▁gusunɔn	-10747
▁honteux	-10748
▁philoso	-10749
▁portuga	-10750
▁renvoie	-10751
▁secrets	-10752
▁ɲininna	-10753
accomplit	-10754
▁contient	-10755
▁embarras	-10756
▁huitième	-10757
▁jamakulu	-10758
▁nimisara	-10759
▁sɛnɛkɛla	-10760
▁venaient	-10761
enregistre	-10762
▁efficaces	-10763
▁irréproch	-10764
▁lɔnbaliya	-10765
▁collection	-10766
▁faranyɔrɔw	-10767
▁légèrement	-10768
▁magistrats	-10769
▁conséquence	-10770
33	-10771
];	-10772
zz	-10773
éd	-10774
:41	-10775
das	-10776
dɔw	-10777
wal	-10778
émo	-10779
ôts	-10780
ɲin	-10781
▁ep	-10782
▁ib	-10783
dien	-10784
dure	-10785
fana	-10786
fils	-10787
fura	-10788
gwan	-10789
itée	-10790
ouvé	-10791
▁ako	-10792
▁igi	-10793
▁sip	-10794
▁swĩ	-10795
▁tie	-10796
▁xun	-10797
▁yɑ̃	-10798
emmen	-10799
kiraw	-10800
osent	-10801
▁1:11	-10802
▁5:14	-10803
▁assi	-10804
▁beyi	-10805
▁deep	-10806
▁jiri	-10807
▁stat	-10808
▁turu	-10809
▁yawe	-10810
allais	-10811
aspect	-10812
larité	-10813
▁affli	-10814
▁album	-10815
▁baali	-10816
▁bɛɛrɛ	-10817
▁dépar	-10818
▁isaïe	-10819
▁labèn	-10820
▁neige	-10821
▁nusɔn	-10822
▁offer	-10823
▁tâche	-10824
dessous	-10825
rateurs	-10826
▁envisa	-10827
▁europé	-10828
▁fiyɛra	-10829
▁gentil	-10830
▁gɔmɔri	-10831
▁invité	-10832
▁kɛlɛba	-10833
▁masaso	-10834
▁normal	-10835
▁nɛnili	-10836
▁places	-10837
▁réfugi	-10838
▁tougou	-10839
▁abinɛri	-10840
▁arrêter	-10841
▁bonsoir	-10842
▁corsair	-10843
▁dispers	-10844
▁dorment	-10845
▁intelli	-10846
▁observa	-10847
▁projets	-10848
▁simples	-10849
▁suivent	-10850
▁yebaliw	-10851
▁yɛrɛkun	-10852
▁activité	-10853
▁gomorrhe	-10854
▁laissant	-10855
▁mensonge	-10856
▁préparés	-10857
▁saniyara	-10858
▁écoutent	-10859
▁christian	-10860
▁courageux	-10861
▁emanuwɛli	-10862
▁fondation	-10863
▁française	-10864
▁individus	-10865
▁objectifs	-10866
▁présentes	-10867
▁kalanbagaw	-10868
▁telefɔniko	-10869
alimentation	-10870
▁dominations	-10871
accompagnement	-10872
4,	-10873
9:	-10874
amé	-10875
aso	-10876
tic	-10877
▁5,	-10878
▁75	-10879
adop	-10880
anne	-10881
bere	-10882
dits	-10883
iler	-10884
yane	-10885
▁ann	-10886
▁bia	-10887
▁dég	-10888
▁fyɛ	-10889
▁iye	-10890
▁kpo	-10891
▁pay	-10892
▁ŋun	-10893
explo	-10894
inion	-10895
▁1:18	-10896
▁1:27	-10897
▁affi	-10898
▁biɲɛ	-10899
▁blow	-10900
▁djon	-10901
▁enni	-10902
▁king	-10903
▁maux	-10904
▁récu	-10905
▁tamo	-10906
▁tcha	-10907
▁théo	-10908
▁wogo	-10909
avions	-10910
endras	-10911
vaient	-10912
▁benko	-10913
▁cibaa	-10914
▁fleur	-10915
▁josɔn	-10916
▁saali	-10917
▁vendu	-10918
▁yinri	-10919
▁étape	-10920
illesse	-10921
issante	-10922
itaires	-10923
rations	-10924
écoutes	-10925
▁courir	-10926
▁dirait	-10927
▁formes	-10928
▁gwɛnna	-10929
▁humble	-10930
▁kɔɲɔcɛ	-10931
▁navire	-10932
▁regret	-10933
▁réunis	-10934
▁sombre	-10935
▁transg	-10936
▁yirige	-10937
illement	-10938
▁boisson	-10939
▁fournir	-10940
▁jiginna	-10941
▁mandimi	-10942
▁oublier	-10943
▁ouvrage	-10944
▁propiti	-10945
▁rejoint	-10946
▁suicide	-10947
▁espagnol	-10948
▁profiter	-10949
▁sexuelle	-10950
▁bibliques	-10951
▁bwisikumɔ	-10952
▁condamnés	-10953
▁demandant	-10954
▁dernières	-10955
▁partirent	-10956
acquisition	-10957
▁baaraɲuman	-10958
▁mandiminin	-10959
▁yɛrɛboɲala	-10960
▁enseignants	-10961
▁nécessaires	-10962
▁suffisamment	-10963
administration	-10964
▁enseignements	-10965
▁tilenbaliyako	-10966
yy	-10967
̃ɛ	-10968
-18	-10969
:46	-10970
eue	-10971
mus	-10972
nya	-10973
xte	-10974
▁os	-10975
▁wɑ	-10976
assé	-10977
cter	-10978
deen	-10979
hypo	-10980
idio	-10981
jira	-10982
lusi	-10983
léem	-10984
mail	-10985
rasi	-10986
sung	-10987
vées	-10988
▁16-	-10989
▁4:3	-10990
▁ayé	-10991
▁baw	-10992
▁ila	-10993
▁nye	-10994
▁oyi	-10995
▁put	-10996
▁ros	-10997
▁srɛ	-10998
:2323	-10999
arrêt	-11000
insta	-11001
jigin	-11002
kodon	-11003
usent	-11004
▁bouc	-11005
▁dégo	-11006
▁fìla	-11007
▁janu	-11008
▁malé	-11009
▁mɛni	-11010
▁nino	-11011
▁noun	-11012
▁nuan	-11013
▁pili	-11014
▁pɛrɛ	-11015
▁tèmè	-11016
▁wuri	-11017
▁yeee	-11018
▁ɲene	-11019
lusion	-11020
tasuma	-11021
▁alain	-11022
▁banni	-11023
▁bikin	-11024
▁fonde	-11025
▁kumun	-11026
▁lance	-11027
▁leçon	-11028
▁prodi	-11029
▁renom	-11030
▁règle	-11031
▁saddu	-11032
▁sidon	-11033
▁sidɔn	-11034
▁singa	-11035
▁sùrun	-11036
▁tabɛn	-11037
gations	-11038
▁avanta	-11039
▁cayara	-11040
▁classi	-11041
▁danger	-11042
▁kiyama	-11043
▁kuturu	-11044
▁kòròfò	-11045
▁leader	-11046
▁makònò	-11047
▁repose	-11048
▁suppli	-11049
▁église	-11050
▁ɲadenw	-11051
estation	-11052
▁arasɛli	-11053
▁céleste	-11054
▁dantuma	-11055
▁faganin	-11056
▁intérêt	-11057
▁pourras	-11058
▁sanjiba	-11059
▁bethléem	-11060
▁consacré	-11061
▁démarche	-11062
▁fidélité	-11063
▁messages	-11064
▁rappeler	-11065
▁sigarɛti	-11066
▁waatijan	-11067
▁incapable	-11068
▁jerusalèm	-11069
▁possédait	-11070
▁tentation	-11071
▁yahudiyan	-11072
▁éphésiens	-11073
▁étrangère	-11074
▁commettras	-11075
▁considérés	-11076
▁jamanadenw	-11077
▁réputation	-11078
▁sadducéens	-11079
intervention	-11080
▁anniversaire	-11081
bô	-11082
ks	-11083
ww	-11084
,..	-11085
eso	-11086
fon	-11087
îme	-11088
ɔgɛ	-11089
▁$.	-11090
▁86	-11091
▁[3	-11092
▁ec	-11093
▁él	-11094
ands	-11095
céan	-11096
gard	-11097
matɔ	-11098
ords	-11099
yait	-11100
émer	-11101
▁bln	-11102
▁dip	-11103
▁flè	-11104
▁mut	-11105
▁nam	-11106
▁wol	-11107
▁wud	-11108
erɔdi	-11109
mence	-11110
▁1950	-11111
▁3:18	-11112
▁arra	-11113
▁biru	-11114
▁daaw	-11115
▁dafɛ	-11116
▁déco	-11117
▁laka	-11118
▁nɔnɔ	-11119
▁obéi	-11120
▁siin	-11121
▁séré	-11122
▁tɛri	-11123
▁ɛntɛ	-11124
appela	-11125
▁condu	-11126
▁crime	-11127
▁créés	-11128
▁diras	-11129
▁leila	-11130
▁mères	-11131
▁niaan	-11132
▁produ	-11133
▁radio	-11134
▁sites	-11135
▁touma	-11136
▁wooda	-11137
▁yerus	-11138
miiriya	-11139
utilise	-11140
▁banakɔ	-11141
▁courte	-11142
▁débuts	-11143
▁faamaw	-11144
▁fufafu	-11145
▁graves	-11146
▁identi	-11147
▁kunkow	-11148
▁masiri	-11149
▁nuages	-11150
▁pacifi	-11151
▁promet	-11152
▁préser	-11153
▁répète	-11154
▁sayako	-11155
▁suppri	-11156
▁tilefɛ	-11157
▁touman	-11158
observer	-11159
▁absalom	-11160
▁choisir	-11161
▁diction	-11162
▁désagré	-11163
▁faranna	-11164
▁gouttes	-11165
▁moindre	-11166
▁mɛncogo	-11167
▁nombres	-11168
▁tourner	-11169
▁attitude	-11170
▁bayɛlɛma	-11171
▁bâtiment	-11172
▁marchent	-11173
▁médicaux	-11174
▁persécut	-11175
▁prostitu	-11176
▁remarque	-11177
▁respecte	-11178
▁versions	-11179
▁faamubali	-11180
▁maintenir	-11181
▁portugais	-11182
▁proximité	-11183
▁précédent	-11184
▁sélection	-11185
▁balimamusow	-11186
▁quotidienne	-11187
▁batizelikɛla	-11188
▁compréhension	-11189
1:	-11190
55	-11191
ân	-11192
:43	-11193
gea	-11194
gez	-11195
ggu	-11196
idé	-11197
ike	-11198
van	-11199
▁cm	-11200
▁dy	-11201
abil	-11202
assa	-11203
chec	-11204
romp	-11205
umes	-11206
▁anɛ	-11207
▁aɲi	-11208
▁cos	-11209
▁fas	-11210
▁jim	-11211
▁maɲ	-11212
▁seg	-11213
▁teh	-11214
▁vac	-11215
▁wɔn	-11216
▁yea	-11217
alpha	-11218
iques	-11219
osité	-11220
▁100%	-11221
▁acte	-11222
▁alli	-11223
▁bani	-11224
▁cata	-11225
▁copa	-11226
▁dafè	-11227
▁défa	-11228
▁fuir	-11229
▁kimi	-11230
▁luck	-11231
▁madi	-11232
▁nali	-11233
▁nyer	-11234
▁tiré	-11235
▁tuna	-11236
▁woso	-11237
auront	-11238
nafolo	-11239
onnent	-11240
▁copie	-11241
▁desɛn	-11242
▁durer	-11243
▁décon	-11244
▁ecrit	-11245
▁enter	-11246
▁forow	-11247
▁idées	-11248
▁phone	-11249
▁préci	-11250
▁saine	-11251
kɛbagaw	-11252
quaient	-11253
ressait	-11254
▁chaîne	-11255
▁double	-11256
▁désirs	-11257
▁faniso	-11258
▁kalanw	-11259
▁kalila	-11260
▁korent	-11261
▁lakunu	-11262
▁lɔgɔbɔ	-11263
▁prises	-11264
▁refuge	-11265
▁retira	-11266
▁siraba	-11267
▁énorme	-11268
activité	-11269
▁besoins	-11270
▁consola	-11271
▁déroule	-11272
▁hòrònya	-11273
▁january	-11274
▁meurtri	-11275
▁moyenne	-11276
▁surpris	-11277
▁veillez	-11278
attachera	-11279
enfuirent	-11280
oublierai	-11281
ressement	-11282
▁domicile	-11283
▁dugutigi	-11284
▁erection	-11285
▁lumières	-11286
▁miliyari	-11287
▁mépriser	-11288
▁setigiya	-11289
▁sɔngɔgwɛ	-11290
▁tilennen	-11291
▁ɲenematɔ	-11292
▁accueille	-11293
▁souverain	-11294
▁structure	-11295
▁entendirent	-11296
▁tremblement	-11297
▁fadenyabolow	-11298
dh	-11299
kɑ	-11300
▁{	-11301
bru	-11302
dow	-11303
fɔɔ	-11304
gas	-11305
gil	-11306
unt	-11307
vin	-11308
wlɛ	-11309
îte	-11310
ɔgi	-11311
▁ɔ́	-11312
arɔn	-11313
chir	-11314
dasi	-11315
iens	-11316
incu	-11317
inde	-11318
lama	-11319
ompe	-11320
wulu	-11321
▁20"	-11322
▁33-	-11323
▁beb	-11324
▁gru	-11325
▁nto	-11326
▁pàa	-11327
▁tsu	-11328
▁uka	-11329
▁zen	-11330
exécu	-11331
mɔnin	-11332
▁aɲia	-11333
▁cali	-11334
▁chaî	-11335
▁coût	-11336
▁days	-11337
▁ford	-11338
▁funu	-11339
▁fyew	-11340
▁mexi	-11341
▁mɔna	-11342
▁rira	-11343
▁saye	-11344
▁siss	-11345
▁siɲè	-11346
▁supe	-11347
▁yɛɛn	-11348
charie	-11349
excusa	-11350
farinw	-11351
tières	-11352
▁auras	-11353
▁bòlen	-11354
▁cikan	-11355
▁collè	-11356
▁dange	-11357
▁ezawu	-11358
▁flori	-11359
▁forma	-11360
▁frais	-11361
▁jolie	-11362
▁kaari	-11363
▁nanti	-11364
▁obéir	-11365
▁ouais	-11366
▁sabau	-11367
▁souci	-11368
▁sɛnrɛ	-11369
▁versé	-11370
archite	-11371
horreur	-11372
kodonoz	-11373
▁11:11.	-11374
▁chaman	-11375
▁chants	-11376
▁chargé	-11377
▁diyana	-11378
▁kilila	-11379
▁kènèya	-11380
▁mirila	-11381
▁précip	-11382
▁renfor	-11383
▁silasi	-11384
▁timina	-11385
▁yaadon	-11386
▁écrite	-11387
aiguille	-11388
arrivais	-11389
burukalo	-11390
▁balimak	-11391
▁diyanin	-11392
▁détails	-11393
▁dɔgɔkun	-11394
▁littéra	-11395
▁meurtre	-11396
▁retirer	-11397
▁terrifi	-11398
allemagne	-11399
appellent	-11400
▁confront	-11401
▁cɛfarinw	-11402
▁devienne	-11403
▁activités	-11404
▁encourage	-11405
▁jurumukow	-11406
▁scientifi	-11407
▁comprirent	-11408
▁difficulté	-11409
▁domination	-11410
▁permettant	-11411
▁firiyamusow	-11412
▁ressemblent	-11413
▁tesalonikaw	-11414
▁cinquantaine	-11415
▁signification	-11416
▁ɲenematɔmɔnin	-11417
▁responsabilité	-11418
gaw	-11419
ker	-11420
kon	-11421
tak	-11422
ŋge	-11423
▁gâ	-11424
ball	-11425
guus	-11426
wari	-11427
yopi	-11428
êtus	-11429
▁adv	-11430
▁aki	-11431
▁amb	-11432
▁dôw	-11433
▁rem	-11434
▁sal	-11435
océan	-11436
pɛrɛn	-11437
vants	-11438
▁club	-11439
▁dedo	-11440
▁déro	-11441
▁ever	-11442
▁fure	-11443
▁févr	-11444
▁itan	-11445
▁kati	-11446
▁kuat	-11447
▁kuna	-11448
▁lait	-11449
▁lila	-11450
▁loko	-11451
▁makè	-11452
▁nɛgɛ	-11453
▁préd	-11454
antanw	-11455
jeuner	-11456
▁2013:	-11457
▁aille	-11458
▁bride	-11459
▁discu	-11460
▁foyer	-11461
▁local	-11462
▁melch	-11463
▁outil	-11464
▁porno	-11465
▁remon	-11466
▁renvo	-11467
▁secou	-11468
▁sifaw	-11469
▁yɔrɔn	-11470
attaque	-11471
ccident	-11472
▁bɔlɔnw	-11473
▁décide	-11474
▁décrit	-11475
▁guérie	-11476
▁obligé	-11477
▁voisin	-11478
▁voulut	-11479
▁ɲɛminɛ	-11480
▁afiriki	-11481
▁charité	-11482
▁dimilon	-11483
▁donkili	-11484
▁kalanba	-11485
▁prépara	-11486
▁support	-11487
▁volguus	-11488
▁yiranni	-11489
entretien	-11490
▁précieux	-11491
▁royaumes	-11492
▁solitude	-11493
▁yɛrɛminɛ	-11494
kodonozɔri	-11495
▁isirelibɑ	-11496
▁librarika	-11497
▁reviendra	-11498
▁répandait	-11499
inspiration	-11500
▁barikatigi	-11501
▁excellente	-11502
▁sariyasɛbɛ	-11503
▁consolateur	-11504
▁nusɔndiyara	-11505
établissement	-11506
▁professionnel	-11507
,.	-11508
82	-11509
if	-11510
agi	-11511
amp	-11512
dui	-11513
ind	-11514
kur	-11515
nig	-11516
rum	-11517
uii	-11518
umu	-11519
zer	-11520
ints	-11521
tous	-11522
uede	-11523
înés	-11524
▁chu	-11525
▁gyi	-11526
▁hay	-11527
▁jen	-11528
▁kol	-11529
▁meu	-11530
▁paï	-11531
▁vus	-11532
▁ɛsi	-11533
chage	-11534
illés	-11535
intég	-11536
ismes	-11537
perçu	-11538
raine	-11539
rasse	-11540
▁1968	-11541
▁andi	-11542
▁bɔrɔ	-11543
▁chat	-11544
▁cɛɛn	-11545
▁even	-11546
▁from	-11547
▁gbɛn	-11548
▁give	-11549
▁issu	-11550
▁juli	-11551
▁lako	-11552
▁mang	-11553
▁more	-11554
▁numu	-11555
▁pape	-11556
▁plén	-11557
▁sili	-11558
▁sisé	-11559
▁tina	-11560
▁tolo	-11561
▁zayi	-11562
▁ɲɔti	-11563
ctrice	-11564
geance	-11565
kɔnɔna	-11566
onomie	-11567
▁accro	-11568
▁kanto	-11569
▁karne	-11570
▁kiero	-11571
▁mogow	-11572
▁mécré	-11573
▁nuked	-11574
▁sanam	-11575
▁vivez	-11576
▁yikes	-11577
dɔnkili	-11578
éloigne	-11579
▁canané	-11580
▁détrui	-11581
▁europe	-11582
▁furucɛ	-11583
▁furula	-11584
▁jinatɔ	-11585
▁kunndɛ	-11586
▁latuma	-11587
▁moteur	-11588
▁nommée	-11589
▁ouvrit	-11590
▁profit	-11591
▁saurez	-11592
▁souris	-11593
▁talent	-11594
▁venons	-11595
▁wantin	-11596
exercice	-11597
▁bonjour	-11598
▁chaînes	-11599
▁dessein	-11600
▁destiné	-11601
▁décédés	-11602
▁endormi	-11603
▁indique	-11604
▁logique	-11605
▁mamaden	-11606
▁morceau	-11607
▁qualifi	-11608
▁réponds	-11609
▁antioche	-11610
▁continué	-11611
▁couleurs	-11612
▁oliviers	-11613
▁quittera	-11614
▁raconter	-11615
▁reproche	-11616
▁réaction	-11617
▁zacharie	-11618
▁convaincu	-11619
▁divisions	-11620
▁kanaankaw	-11621
▁manifeste	-11622
▁pratiques	-11623
▁remercier	-11624
▁souhaitez	-11625
▁telephone	-11626
▁tilennenw	-11627
▁alabatosow	-11628
▁hypocrites	-11629
▁profondeur	-11630
▁traditionn	-11631
▁culpabilité	-11632
▁kantigimanw	-11633
▁personnelle	-11634
▁travaillons	-11635
0,	-11636
▁ɑ	-11637
.13	-11638
?›,	-11639
aha	-11640
aré	-11641
gre	-11642
hos	-11643
ket	-11644
kpo	-11645
nay	-11646
wot	-11647
yak	-11648
ŋgɔ	-11649
▁1/	-11650
▁bm	-11651
▁jô	-11652
hɛmu	-11653
lakɔ	-11654
ople	-11655
rète	-11656
▁14.	-11657
▁15-	-11658
▁750	-11659
▁gbo	-11660
▁lil	-11661
▁ner	-11662
▁pru	-11663
▁scé	-11664
▁tas	-11665
▁yay	-11666
▁òlu	-11667
anaël	-11668
culer	-11669
enser	-11670
envol	-11671
extra	-11672
galen	-11673
ilati	-11674
illit	-11675
incar	-11676
tants	-11677
ville	-11678
évalu	-11679
▁3:10	-11680
▁aîné	-11681
▁batɛ	-11682
▁fula	-11683
▁féri	-11684
▁goût	-11685
▁kare	-11686
▁kowo	-11687
▁kyun	-11688
▁lamu	-11689
▁late	-11690
▁péné	-11691
▁rive	-11692
▁seri	-11693
▁sine	-11694
▁tian	-11695
▁visa	-11696
▁âmes	-11697
estime	-11698
excell	-11699
mettez	-11700
taires	-11701
▁abiga	-11702
▁accus	-11703
▁bezan	-11704
▁fichi	-11705
▁fêtes	-11706
▁jetés	-11707
▁netto	-11708
▁noire	-11709
▁phila	-11710
▁reçue	-11711
▁surpr	-11712
ezipiti	-11713
▁baliku	-11714
▁banget	-11715
▁couché	-11716
▁couver	-11717
▁damasi	-11718
▁dɛmɛna	-11719
▁emmené	-11720
▁gomina	-11721
▁hériti	-11722
▁kantan	-11723
▁kourou	-11724
▁kulera	-11725
▁parten	-11726
▁presse	-11727
▁prover	-11728
▁sotigi	-11729
▁suisse	-11730
▁tinxin	-11731
▁trouva	-11732
▁étapes	-11733
adresser	-11734
angoisse	-11735
attitude	-11736
tanayɛli	-11737
▁augment	-11738
▁chasser	-11739
▁dununya	-11740
▁kasikan	-11741
▁pensait	-11742
▁réjouis	-11743
▁sariɲan	-11744
▁siniman	-11745
▁traiter	-11746
▁complexe	-11747
▁ibrahima	-11748
▁jamanjan	-11749
▁labanlon	-11750
▁mangerai	-11751
▁melchisé	-11752
▁supporte	-11753
▁tagasaga	-11754
▁tiɲɛkuma	-11755
▁éloignés	-11756
université	-11757
▁assemblée	-11758
▁certitude	-11759
▁frontière	-11760
▁girɛkikan	-11761
▁maɲininka	-11762
▁plénitude	-11763
▁américains	-11764
▁tɔɔrɔbagaw	-11765
▁demandaient	-11766
-8	-11767
.*	-11768
̃.	-11769
esa	-11770
pus	-11771
soo	-11772
yoo	-11773
̀gɔ	-11774
▁?!	-11775
▁ey	-11776
▁jw	-11777
▁ns	-11778
▁tɑ	-11779
▁yè	-11780
____	-11781
aéro	-11782
bala	-11783
enou	-11784
gène	-11785
jara	-11786
kama	-11787
mero	-11788
quet	-11789
éder	-11790
îmes	-11791
▁1,5	-11792
▁bos	-11793
▁cui	-11794
▁dau	-11795
▁dgo	-11796
▁ehe	-11797
▁idé	-11798
▁rac	-11799
▁saf	-11800
assit	-11801
attra	-11802
kɔngɔ	-11803
terre	-11804
usage	-11805
vième	-11806
érité	-11807
▁10:6	-11808
▁anna	-11809
▁baat	-11810
▁brig	-11811
▁caïn	-11812
▁dign	-11813
▁dégu	-11814
▁guer	-11815
▁sabo	-11816
▁tiwo	-11817
▁tome	-11818
▁tumɛ	-11819
▁vale	-11820
▁vert	-11821
andili	-11822
ateurs	-11823
empris	-11824
engolu	-11825
envoya	-11826
itaine	-11827
▁1948,	-11828
▁1991.	-11829
▁abɛli	-11830
▁aimed	-11831
▁alone	-11832
▁biala	-11833
▁finir	-11834
▁jeudi	-11835
▁jujɔn	-11836
▁kɛɛrɛ	-11837
▁mbele	-11838
▁quête	-11839
▁redou	-11840
▁récip	-11841
▁sayin	-11842
▁yinnɛ	-11843
abonner	-11844
entoure	-11845
énergie	-11846
éprouve	-11847
▁bakari	-11848
▁baraga	-11849
▁dagara	-11850
▁gɛlɛya	-11851
▁kèlenw	-11852
▁manges	-11853
▁marita	-11854
▁ninivu	-11855
▁parfum	-11856
▁perfor	-11857
▁renouv	-11858
▁salari	-11859
▁sìrila	-11860
▁titres	-11861
ternance	-11862
térieure	-11863
▁afrique	-11864
▁croyiez	-11865
▁honnête	-11866
▁nankɔtu	-11867
▁parcour	-11868
▁preuves	-11869
▁précise	-11870
▁refaire	-11871
▁restera	-11872
▁sumansi	-11873
▁syriens	-11874
▁videwow	-11875
▁ancienne	-11876
▁demandes	-11877
▁déplacer	-11878
▁détruite	-11879
▁kɛlɛbolo	-11880
▁lannakow	-11881
▁méthodes	-11882
▁pleurait	-11883
▁tɔɔrɔnin	-11884
▁communion	-11885
▁fonctions	-11886
▁musobaara	-11887
▁commandant	-11888
▁comprenait	-11889
▁dilanbagaw	-11890
▁hadamadenw	-11891
▁melchiséde	-11892
▁prophéties	-11893
▁repentance	-11894
▁stupéfaits	-11895
▁disparaître	-11896
▁rencontrent	-11897
▁consommation	-11898
▁spécialistes	-11899
▁yahudiyanuna	-11900
:0	-11901
bs	-11902
ey	-11903
tô	-11904
zé	-11905
cts	-11906
eki	-11907
gni	-11908
him	-11909
kha	-11910
mel	-11911
osu	-11912
rat	-11913
ɛɛ̄	-11914
ɲam	-11915
▁>>	-11916
▁dɑ	-11917
▁zé	-11918
eden	-11919
fiɲɛ	-11920
huna	-11921
isit	-11922
luge	-11923
moni	-11924
omis	-11925
yeur	-11926
▁ava	-11927
▁bug	-11928
▁ché	-11929
▁cop	-11930
▁cur	-11931
▁fig	-11932
▁fre	-11933
▁jôé	-11934
▁kuɑ	-11935
▁nje	-11936
▁pét	-11937
▁uru	-11938
▁vec	-11939
achat	-11940
athie	-11941
avion	-11942
bassa	-11943
dɛndɛ	-11944
inage	-11945
invit	-11946
isses	-11947
moine	-11948
oméga	-11949
▁colo	-11950
▁dɔɔn	-11951
▁gara	-11952
▁hace	-11953
▁hong	-11954
▁inno	-11955
▁kera	-11956
▁lado	-11957
▁lele	-11958
▁loki	-11959
▁mary	-11960
▁maso	-11961
▁mons	-11962
▁muɛ̄	-11963
▁pony	-11964
▁rire	-11965
▁tura	-11966
▁yabi	-11967
▁ŋaan	-11968
getara	-11969
kibaru	-11970
office	-11971
risɛsi	-11972
▁appli	-11973
▁bénis	-11974
▁cycle	-11975
▁cérém	-11976
▁fyɛwu	-11977
▁gbeen	-11978
▁grain	-11979
▁kaali	-11980
▁kayɛn	-11981
▁mased	-11982
▁musée	-11983
▁retra	-11984
▁royal	-11985
▁visit	-11986
▁ŋgban	-11987
comment	-11988
inspire	-11989
kɔrɔnin	-11990
tations	-11991
▁amoniw	-11992
▁chauff	-11993
▁dignes	-11994
▁divisé	-11995
▁dogora	-11996
▁déluge	-11997
▁examin	-11998
▁expéri	-11999
▁inféri	-12000
▁masakɛ	-12001
▁mercre	-12002
▁ordonn	-12003
▁plante	-12004
▁saisis	-12005
▁tariki	-12006
▁tigila	-12007
▁treize	-12008
▁verser	-12009
▁yɛtɛɛn	-12010
▁affirmé	-12011
▁arrêtés	-12012
▁contenu	-12013
▁madiyan	-12014
▁mettait	-12015
▁patɔrɔn	-12016
▁polisiw	-12017
▁progrès	-12018
▁superbe	-12019
▁sɔrasiw	-12020
honnêteté	-12021
épaisseur	-12022
évolution	-12023
▁corinthe	-12024
▁document	-12025
▁portrait	-12026
▁publique	-12027
▁sanukuru	-12028
▁sensible	-12029
▁vacances	-12030
accueillir	-12031
enseignant	-12032
inquiétude	-12033
▁accomplis	-12034
▁capacités	-12035
▁dergetara	-12036
▁fondament	-12037
▁koɲumankɛ	-12038
▁naturelle	-12039
▁poussière	-12040
▁racontera	-12041
▁rassemble	-12042
▁conception	-12043
▁convaincre	-12044
▁dimikojugu	-12045
▁kunnafoniw	-12046
▁disposition	-12047
▁instructions	-12048
&#	-12049
2]	-12050
39	-12051
7,	-12052
dr	-12053
hɛ	-12054
env	-12055
iri	-12056
lat	-12057
nba	-12058
sés	-12059
tɛn	-12060
vle	-12061
▁bt	-12062
▁mɑ	-12063
bato	-12064
cins	-12065
fort	-12066
kule	-12067
lina	-12068
liwɛ	-12069
tard	-12070
▁120	-12071
▁1:7	-12072
▁?."	-12073
▁are	-12074
▁fro	-12075
▁hur	-12076
▁jue	-12077
▁koi	-12078
▁kok	-12079
▁ome	-12080
▁tte	-12081
▁épi	-12082
:2424	-12083
cheur	-12084
duguw	-12085
ennen	-12086
lenya	-12087
naire	-12088
vable	-12089
▁1:24	-12090
▁asan	-12091
▁cous	-12092
▁cute	-12093
▁duru	-12094
▁gali	-12095
▁hain	-12096
▁immo	-12097
▁kela	-12098
▁kèrè	-12099
▁loup	-12100
▁légu	-12101
▁meme	-12102
▁miel	-12103
▁nawa	-12104
▁nɔni	-12105
▁rain	-12106
▁sale	-12107
▁sami	-12108
▁scho	-12109
▁suan	-12110
▁zéro	-12111
allait	-12112
atoire	-12113
impose	-12114
isible	-12115
istant	-12116
likise	-12117
rateur	-12118
valent	-12119
yèrent	-12120
▁17.30	-12121
▁aviez	-12122
▁coutu	-12123
▁falan	-12124
▁gamin	-12125
▁gbana	-12126
▁kanan	-12127
▁kanna	-12128
▁kolof	-12129
▁koura	-12130
▁lanen	-12131
▁movie	-12132
▁prédi	-12133
▁sango	-12134
▁socha	-12135
▁tryin	-12136
▁verra	-12137
urgence	-12138
urunali	-12139
▁amoriw	-12140
▁craign	-12141
▁cɛmanw	-12142
▁déposé	-12143
▁faudra	-12144
▁franse	-12145
▁levais	-12146
▁occupé	-12147
▁perdus	-12148
▁prient	-12149
▁relevé	-12150
▁restes	-12151
▁vivait	-12152
▁yibɛrɛ	-12153
olescent	-12154
▁alleman	-12155
▁bateaux	-12156
▁batɛmun	-12157
▁dumukun	-12158
▁essenti	-12159
▁faɲuman	-12160
▁feuille	-12161
▁inscrit	-12162
▁jehovah	-12163
▁morning	-12164
▁servent	-12165
événement	-12166
▁commerce	-12167
▁demeurez	-12168
▁docteurs	-12169
▁endormis	-12170
▁générale	-12171
▁miracule	-12172
▁médicale	-12173
▁remercie	-12174
▁croyaient	-12175
▁cɛɲumanba	-12176
▁devinrent	-12177
▁faamuyali	-12178
▁manyadali	-12179
▁pourrions	-12180
▁recommand	-12181
▁sodɔmukaw	-12182
▁dakɔrɔsigi	-12183
▁kɔnɔnakuma	-12184
▁patrimoine	-12185
▁principale	-12186
▁tigilamɔgɔ	-12187
▁yɛrɛyɛrɛla	-12188
▁divertissant	-12189
46	-12190
nɔ	-12191
ate	-12192
cit	-12193
gbɔ	-12194
med	-12195
rab	-12196
sée	-12197
win	-12198
▁91	-12199
▁sò	-12200
▁ɲé	-12201
olis	-12202
roup	-12203
wuli	-12204
▁250	-12205
▁cɛw	-12206
▁diy	-12207
▁gud	-12208
▁mys	-12209
▁sow	-12210
▁tɛn	-12211
▁tɛ̃	-12212
▁ɲɔ̀	-12213
:1010	-12214
autor	-12215
dique	-12216
esian	-12217
idiot	-12218
irili	-12219
niman	-12220
phant	-12221
épuis	-12222
▁2:13	-12223
▁abor	-12224
▁creo	-12225
▁dada	-12226
▁déga	-12227
▁dɔxɔ	-12228
▁fixé	-12229
▁goya	-12230
▁holy	-12231
▁kaye	-12232
▁kpɛn	-12233
▁mein	-12234
▁pana	-12235
▁prou	-12236
▁rédi	-12237
▁sogi	-12238
▁tien	-12239
▁yona	-12240
▁ŋɔni	-12241
▁ɲama	-12242
giques	-12243
oppose	-12244
talité	-12245
xandre	-12246
▁akabu	-12247
▁bantu	-12248
▁battu	-12249
▁benba	-12250
▁chang	-12251
▁colon	-12252
▁coran	-12253
▁doués	-12254
▁décro	-12255
▁fluwa	-12256
▁kogow	-12257
▁kɛlon	-12258
▁lagwɛ	-12259
▁natan	-12260
▁omega	-12261
▁sinam	-12262
▁taatɔ	-12263
▁terew	-12264
▁truii	-12265
▁weenɛ	-12266
▁école	-12267
affiche	-12268
▁accusé	-12269
▁arrête	-12270
▁barila	-12271
▁belles	-12272
▁bigger	-12273
▁boulot	-12274
▁chanté	-12275
▁esther	-12276
▁fermes	-12277
▁ferons	-12278
▁galilé	-12279
▁grince	-12280
▁guérit	-12281
▁ingana	-12282
▁mɔgɛnu	-12283
▁patron	-12284
▁posées	-12285
▁trompé	-12286
▁téléph	-12287
▁walasa	-12288
▁ɲasuma	-12289
olutions	-12290
▁attaché	-12291
▁awirili	-12292
▁gestion	-12293
▁journal	-12294
▁passant	-12295
▁prendra	-12296
▁revenus	-12297
▁station	-12298
▁yelifɛn	-12299
accueille	-12300
actualité	-12301
exception	-12302
▁définiti	-12303
▁effectué	-12304
▁endroits	-12305
▁entendue	-12306
▁farahuna	-12307
▁furakɛla	-12308
▁glorieux	-12309
▁identifi	-12310
▁kɛlɛbaga	-12311
▁makɔnɔna	-12312
▁mystères	-12313
▁mɛlikise	-12314
▁puissent	-12315
▁saninman	-12316
▁sauvages	-12317
▁zurunali	-12318
abandonner	-12319
▁ananiyasi	-12320
▁boulevers	-12321
▁bɔnsɔnilu	-12322
▁conserver	-12323
▁documents	-12324
▁jugements	-12325
▁kolɔnbaga	-12326
▁nathanaël	-12327
▁reconnaît	-12328
▁sankolola	-12329
▁bénéficier	-12330
▁nomination	-12331
▁originaire	-12332
▁rencontres	-12333
▁satisfaire	-12334
▁situations	-12335
▁taamasiɲɛw	-12336
▁deviendront	-12337
▁générations	-12338
▁israélienne	-12339
▁mutuellement	-12340
▁présentation	-12341
▁appartiennent	-12342
?:	-12343
ik	-12344
kô	-12345
asi	-12346
dad	-12347
fer	-12348
jɛn	-12349
kut	-12350
nɛn	-12351
pre	-12352
èni	-12353
̀lɔ	-12354
▁(3	-12355
▁61	-12356
▁8:	-12357
2...	-12358
?...	-12359
fati	-12360
ibra	-12361
role	-12362
▁12.	-12363
▁17-	-12364
▁awo	-12365
▁bom	-12366
▁civ	-12367
▁dév	-12368
▁ego	-12369
▁ker	-12370
▁lib	-12371
▁pha	-12372
▁pis	-12373
▁pix	-12374
▁wuu	-12375
:2525	-12376
emplo	-12377
endie	-12378
enfon	-12379
isser	-12380
lailu	-12381
lines	-12382
mière	-12383
pecti	-12384
suman	-12385
titue	-12386
éveil	-12387
▁cɛra	-12388
▁digi	-12389
▁keli	-12390
▁kòse	-12391
▁luma	-12392
▁news	-12393
▁real	-12394
▁rele	-12395
▁rock	-12396
▁sɔmb	-12397
▁tipu	-12398
▁yele	-12399
deyawu	-12400
étonne	-12401
▁abram	-12402
▁adult	-12403
▁alert	-12404
▁alifa	-12405
▁bwese	-12406
▁béssé	-12407
▁bɔ̀rɛ	-12408
▁culti	-12409
▁incar	-12410
▁kiiti	-12411
▁kuraw	-12412
▁mener	-12413
▁price	-12414
▁sudan	-12415
▁today	-12416
▁vecnu	-12417
▁zones	-12418
▁ɲaari	-12419
apporte	-12420
balimaw	-12421
essence	-12422
exprime	-12423
fugulan	-12424
▁aniaan	-12425
▁bamakɔ	-12426
▁barish	-12427
▁boloko	-12428
▁décède	-12429
▁outils	-12430
▁privil	-12431
▁provin	-12432
▁school	-12433
▁sitanè	-12434
▁sɔgɔwɔ	-12435
▁tarika	-12436
▁tombés	-12437
▁étouff	-12438
▁ɲɔgɔnw	-12439
isations	-12440
kalanden	-12441
viennent	-12442
▁auteurs	-12443
▁déteste	-12444
▁enfance	-12445
▁kamyabi	-12446
▁kungolo	-12447
▁nanbara	-12448
▁théâtre	-12449
▁tombent	-12450
▁toucher	-12451
essentiel	-12452
▁approche	-12453
▁atteinte	-12454
▁batiseli	-12455
▁boɲafɛnw	-12456
▁chiffres	-12457
▁dénombre	-12458
▁dɔgɔninw	-12459
▁emmanuel	-12460
▁fitininw	-12461
▁imaginez	-12462
▁kalatara	-12463
▁pouvoirs	-12464
▁puissiez	-12465
▁répandit	-12466
▁subayɛli	-12467
▁yɛdeyawu	-12468
▁zoziyasi	-12469
▁échapper	-12470
▁ŋunuŋunu	-12471
▁accomplir	-12472
▁châtiment	-12473
▁commettre	-12474
▁excellent	-12475
▁fondement	-12476
▁pensaient	-12477
▁renseigne	-12478
▁résidence	-12479
▁tranquill	-12480
association	-12481
▁respectueux	-12482
▁spirituelle	-12483
▁alimentation	-12484
▁bénédictions	-12485
▁correctement	-12486
▁fonctionnent	-12487
▁régulièrement	-12488
44	-12489
cè	-12490
▁î	-12491
diw	-12492
guu	-12493
inv	-12494
old	-12495
tor	-12496
ɔki	-12497
▁(?	-12498
▁3)	-12499
▁bã	-12500
▁cl	-12501
▁fê	-12502
▁çà	-12503
▁̀.	-12504
auff	-12505
dine	-12506
dɛki	-12507
esté	-12508
fais	-12509
mati	-12510
oirs	-12511
sons	-12512
tɔya	-12513
tɛmɛ	-12514
yɛni	-12515
ésie	-12516
▁11-	-12517
▁8:5	-12518
▁aso	-12519
▁beg	-12520
▁doa	-12521
▁kɔɛ	-12522
▁lag	-12523
▁mec	-12524
▁oro	-12525
agnes	-12526
appli	-12527
illis	-12528
issue	-12529
nenya	-12530
osait	-12531
tante	-12532
tesho	-12533
tigui	-12534
ventu	-12535
écrit	-12536
▁afew	-12537
▁boko	-12538
▁bɛma	-12539
▁clef	-12540
▁clin	-12541
▁favo	-12542
▁haki	-12543
▁judi	-12544
▁masu	-12545
▁mate	-12546
▁réta	-12547
▁tang	-12548
▁tron	-12549
▁usfs	-12550
▁veau	-12551
enance	-12552
entret	-12553
ession	-12554
mininw	-12555
wagati	-12556
▁abond	-12557
▁bière	-12558
▁danbe	-12559
▁dangu	-12560
▁daram	-12561
▁dépos	-12562
▁glace	-12563
▁jetez	-12564
▁jumèn	-12565
▁kɔsie	-12566
▁mardo	-12567
▁masse	-12568
▁nôtre	-12569
▁promo	-12570
▁risen	-12571
▁tarde	-12572
▁voies	-12573
enlever	-12574
ressent	-12575
▁assise	-12576
▁bɔnɛna	-12577
▁discer	-12578
▁gardes	-12579
▁kariba	-12580
▁kiriti	-12581
▁kɔnɔni	-12582
▁kɔseyi	-12583
▁landaw	-12584
▁mentir	-12585
▁nôtres	-12586
▁option	-12587
▁parena	-12588
▁poussé	-12589
▁précis	-12590
▁pâques	-12591
▁repous	-12592
▁récupé	-12593
▁résumé	-12594
▁sarayi	-12595
auraient	-12596
encontre	-12597
installe	-12598
▁absence	-12599
▁chargés	-12600
▁coutume	-12601
▁donnons	-12602
▁dépasse	-12603
▁emporté	-12604
▁envoyer	-12605
▁exclusi	-12606
▁financi	-12607
▁millier	-12608
▁ouverte	-12609
▁prêcher	-12610
▁tempête	-12611
▁éternel	-12612
adoration	-12613
animation	-12614
attendais	-12615
▁accident	-12616
▁accordée	-12617
▁demeurer	-12618
▁farimanw	-12619
▁kalangwɛ	-12620
▁kɛlɛyɔrɔ	-12621
▁ladiliba	-12622
▁maîtrise	-12623
▁paiement	-12624
▁philadel	-12625
▁produire	-12626
▁recevant	-12627
▁sépulcre	-12628
▁terrible	-12629
▁vivaient	-12630
▁yiriwara	-12631
alternance	-12632
approchant	-12633
olocaustes	-12634
▁campagnes	-12635
▁ecritures	-12636
▁olivuyiri	-12637
▁puissions	-12638
▁sugandili	-12639
▁considérer	-12640
▁développer	-12641
▁karanbagaw	-12642
▁koloftesho	-12643
▁restaurant	-12644
▁entreprises	-12645
▁information	-12646
▁kunkanbaara	-12647
▁kɔrɔtalenba	-12648
▁nisɔndiyara	-12649
▁sacrificateur	-12650
▁í	-12651
.."	-12652
.10	-12653
ade	-12654
dat	-12655
ete	-12656
goo	-12657
kpa	-12658
pal	-12659
pau	-12660
▁om	-12661
▁ɲe	-12662
acha	-12663
ache	-12664
ania	-12665
boro	-12666
fere	-12667
gili	-12668
goya	-12669
héro	-12670
kusi	-12671
▁9:5	-12672
▁bœu	-12673
▁fol	-12674
▁nsi	-12675
▁oka	-12676
▁ola	-12677
▁psy	-12678
▁qué	-12679
▁tim	-12680
abîme	-12681
anman	-12682
effor	-12683
hôtel	-12684
issed	-12685
kunna	-12686
lerie	-12687
rages	-12688
éloge	-12689
▁1:15	-12690
▁amor	-12691
▁baar	-12692
▁busk	-12693
▁daji	-12694
▁déçu	-12695
▁fans	-12696
▁foto	-12697
▁gaba	-12698
▁inde	-12699
▁jéri	-12700
▁kabô	-12701
▁keta	-12702
▁kids	-12703
▁klun	-12704
▁kônô	-12705
▁lɛrɛ	-12706
▁miin	-12707
▁muet	-12708
▁nwon	-12709
▁park	-12710
▁ruth	-12711
▁sene	-12712
▁tali	-12713
▁teen	-12714
▁toko	-12715
▁upon	-12716
achète	-12717
dèrent	-12718
effica	-12719
sɔgɔma	-12720
yɔrɔko	-12721
zowabu	-12722
échias	-12723
épanou	-12724
▁burun	-12725
▁coupé	-12726
▁demeu	-12727
▁denma	-12728
▁dontɔ	-12729
▁fanba	-12730
▁fanka	-12731
▁folie	-12732
▁kalaw	-12733
▁kikoo	-12734
▁lagey	-12735
▁makan	-12736
▁misiw	-12737
▁notes	-12738
▁pensa	-12739
▁perse	-12740
▁récla	-12741
▁réuss	-12742
▁saraï	-12743
▁tufan	-12744
accorde	-12745
glement	-12746
inverse	-12747
▁ajouté	-12748
▁basnay	-12749
▁cɛncɛn	-12750
▁ferais	-12751
▁fɔcogo	-12752
▁genoux	-12753
▁hategi	-12754
▁honore	-12755
▁michel	-12756
▁mètres	-12757
▁papier	-12758
▁portez	-12759
▁prouve	-12760
▁rejeté	-12761
▁régner	-12762
▁sabari	-12763
▁troupe	-12764
amertume	-12765
cription	-12766
▁combatt	-12767
▁decides	-12768
▁devenez	-12769
▁lagwɛli	-12770
▁longues	-12771
▁munumun	-12772
▁musoman	-12773
▁plateau	-12774
▁proposé	-12775
▁protège	-12776
▁survint	-12777
▁sɔngɔrɔ	-12778
▁écrites	-12779
▁belgique	-12780
▁généreux	-12781
▁interpré	-12782
▁miiriyaw	-12783
▁musomanw	-12784
▁offrande	-12785
▁paraîtra	-12786
▁pɛrɛnkan	-12787
▁surement	-12788
▁épargnée	-12789
▁dusuɲuman	-12790
▁dɔmiiriya	-12791
▁héritiers	-12792
▁participé	-12793
imagination	-12794
▁catholique	-12795
▁discipline	-12796
▁définition	-12797
▁malheureux	-12798
▁association	-12799
▁considérable	-12800
▁mɛlikisedɛki	-12801
▁participants	-12802
▁philadelphie	-12803
emprisonnement	-12804
▁professionnels	-12805
!」	-12806
7:	-12807
cm	-12808
vɛ	-12809
xx	-12810
în	-12811
:66	-12812
hom	-12813
lip	-12814
thi	-12815
éré	-12816
évo	-12817
▁""	-12818
▁5:	-12819
▁dí	-12820
▁iz	-12821
▁mw	-12822
cien	-12823
dais	-12824
hier	-12825
mémo	-12826
omne	-12827
orun	-12828
osor	-12829
pers	-12830
phel	-12831
pɔli	-12832
tira	-12833
ysée	-12834
ŋana	-12835
▁25.	-12836
▁bud	-12837
▁enc	-12838
▁euh	-12839
▁gaa	-12840
▁gad	-12841
▁hot	-12842
▁ifi	-12843
▁jam	-12844
▁lèn	-12845
▁myé	-12846
▁nuu	-12847
▁oyé	-12848
▁piy	-12849
▁sla	-12850
▁sàm	-12851
▁tré	-12852
▁vau	-12853
▁yad	-12854
belli	-12855
ceaux	-12856
ciers	-12857
isera	-12858
kpoyi	-12859
phère	-12860
rains	-12861
éclat	-12862
▁2:19	-12863
▁ahhh	-12864
▁cava	-12865
▁cɛɲɛ	-12866
▁deme	-12867
▁done	-12868
▁famu	-12869
▁jeph	-12870
▁kahe	-12871
▁kani	-12872
▁kono	-12873
▁lada	-12874
▁mami	-12875
▁math	-12876
▁mett	-12877
▁mika	-12878
▁mile	-12879
▁rama	-12880
▁tuyo	-12881
▁téré	-12882
▁yeya	-12883
▁ɲɔrɔ	-12884
crisie	-12885
goninw	-12886
kannin	-12887
équité	-12888
▁24:44	-12889
▁décha	-12890
▁dépou	-12891
▁ferez	-12892
▁formé	-12893
▁kirin	-12894
▁kɛnɛn	-12895
▁manga	-12896
▁moder	-12897
▁numan	-12898
▁nyɔɔn	-12899
▁nyɛmɛ	-12900
▁nyɛrɛ	-12901
▁probe	-12902
▁périr	-12903
▁reali	-12904
▁segin	-12905
▁suive	-12906
▁tulon	-12907
▁vainc	-12908
▁vente	-12909
emporte	-12910
endrait	-12911
▁alcool	-12912
▁apport	-12913
▁assuré	-12914
▁better	-12915
▁bisigi	-12916
▁copain	-12917
▁fɔbali	-12918
▁jɛhova	-12919
▁kilisi	-12920
▁lâcher	-12921
▁légiti	-12922
▁ménage	-12923
▁patrie	-12924
▁recouv	-12925
▁retenu	-12926
▁reçues	-12927
▁saduse	-12928
▁tourna	-12929
▁yigiya	-12930
▁étoile	-12931
attaquer	-12932
▁accepte	-12933
▁clients	-12934
▁dormait	-12935
▁délivré	-12936
▁kòsegin	-12937
▁mettant	-12938
▁méprise	-12939
▁séparés	-12940
entendent	-12941
inquiéter	-12942
équilibre	-12943
▁arrivées	-12944
▁citoyens	-12945
▁denɲɛnin	-12946
▁instants	-12947
▁journées	-12948
▁jurumutò	-12949
▁kurumari	-12950
▁malidenw	-12951
▁mangeait	-12952
▁mariyama	-12953
▁neuvième	-12954
▁parvenir	-12955
▁raisonna	-12956
▁renommée	-12957
▁samarika	-12958
▁épreuves	-12959
adversaire	-12960
assistance	-12961
▁baptisant	-12962
▁bolokinin	-12963
▁constitue	-12964
▁créatures	-12965
▁dannabaaw	-12966
▁dispositi	-12967
▁détruites	-12968
▁fankannin	-12969
▁gɔmɔrikaw	-12970
▁mɔgɔsɔbɛw	-12971
▁sumalenya	-12972
▁baarakèlaw	-12973
▁kininkinin	-12974
▁politiques	-12975
▁yinnɛkpoyi	-12976
▁nafolotigiw	-12977
karamɔgɔɲuman	-12978
▁modifications	-12979
:.	-12980
gl	-12981
-10	-12982
.24	-12983
/10	-12984
:40	-12985
atò	-12986
had	-12987
rui	-12988
sif	-12989
tik	-12990
way	-12991
yii	-12992
ûté	-12993
▁9-	-12994
▁ij	-12995
▁ém	-12996
▁ɲo	-12997
aine	-12998
bòli	-12999
dimi	-13000
dons	-13001
ggle	-13002
ings	-13003
kisu	-13004
kòrò	-13005
lɛrɛ	-13006
oler	-13007
rani	-13008
rite	-13009
sɔbɛ	-13010
urée	-13011
wanè	-13012
▁130	-13013
▁19-	-13014
▁bac	-13015
▁dén	-13016
▁gɔr	-13017
▁key	-13018
▁mir	-13019
▁pak	-13020
▁vir	-13021
▁yit	-13022
abram	-13023
crire	-13024
euble	-13025
gance	-13026
hakil	-13027
rique	-13028
▁8:17	-13029
▁awlo	-13030
▁bibi	-13031
▁busy	-13032
▁daba	-13033
▁dekh	-13034
▁desi	-13035
▁dulu	-13036
▁fafe	-13037
▁fiki	-13038
▁fòli	-13039
▁help	-13040
▁infi	-13041
▁jude	-13042
▁kato	-13043
▁list	-13044
▁mixi	-13045
▁méda	-13046
▁nenu	-13047
▁nfen	-13048
▁scan	-13049
▁sege	-13050
▁sick	-13051
▁sons	-13052
▁swĩi	-13053
▁town	-13054
▁vole	-13055
▁yafe	-13056
▁yĩsi	-13057
chodon	-13058
immédi	-13059
ralité	-13060
walima	-13061
étoile	-13062
▁13:49	-13063
▁3:1-5	-13064
▁affer	-13065
▁avion	-13066
▁blogs	-13067
▁civil	-13068
▁labil	-13069
▁légis	-13070
▁music	-13071
▁puede	-13072
▁seliw	-13073
▁silas	-13074
▁souli	-13075
▁wɛɛrɛ	-13076
▁étend	-13077
erreurs	-13078
lɔnniya	-13079
émotion	-13080
▁50%...	-13081
▁adress	-13082
▁baaraw	-13083
▁cachés	-13084
▁craint	-13085
▁datumo	-13086
▁galaad	-13087
▁galiba	-13088
▁jatigɛ	-13089
▁magara	-13090
▁nyinin	-13091
▁occupe	-13092
▁psaume	-13093
▁realii	-13094
▁soldat	-13095
▁somɔgɔ	-13096
▁surnom	-13097
▁tables	-13098
▁tendre	-13099
▁tigiya	-13100
▁tilant	-13101
▁tobiya	-13102
▁walaka	-13103
▁zakari	-13104
aéroport	-13105
excusait	-13106
ibrayima	-13107
▁blanche	-13108
▁entrent	-13109
▁etiyopi	-13110
▁fagalon	-13111
▁formule	-13112
▁gbɛlɛya	-13113
▁joueurs	-13114
▁kalanfa	-13115
▁menteur	-13116
▁portant	-13117
▁rébelli	-13118
▁termine	-13119
▁wilinin	-13120
ronnement	-13121
▁danganin	-13122
▁gerennen	-13123
▁jatiminɛ	-13124
▁logement	-13125
▁parabole	-13126
▁prononcé	-13127
▁sukununi	-13128
chodonosor	-13129
▁catégorie	-13130
▁disparaît	-13131
▁intéresse	-13132
▁masedwanè	-13133
▁poursuivi	-13134
▁suivantes	-13135
▁tagafɛnnɛ	-13136
▁tɔgɔɲuman	-13137
▁fondements	-13138
▁identiques	-13139
▁impression	-13140
▁recherches	-13141
entraînement	-13142
▁gentillesse	-13143
▁tranquillité	-13144
sarakalasebaga	-13145
▁dɔnkililabagaw	-13146
▁nabuchodonosor	-13147
29	-13148
35	-13149
38	-13150
aj	-13151
▁➜	-13152
chu	-13153
ecc	-13154
git	-13155
kia	-13156
mez	-13157
pel	-13158
vas	-13159
wɛn	-13160
▁+5	-13161
▁6:	-13162
▁ot	-13163
▁ry	-13164
bɛka	-13165
dani	-13166
deli	-13167
gile	-13168
miez	-13169
zani	-13170
épar	-13171
▁aun	-13172
▁flé	-13173
▁ice	-13174
▁kwn	-13175
▁meh	-13176
▁nas	-13177
▁ray	-13178
▁sat	-13179
▁vul	-13180
▁yun	-13181
▁ɔwɔ	-13182
...."	-13183
:1414	-13184
anamu	-13185
anter	-13186
dable	-13187
envoi	-13188
forme	-13189
ritɔw	-13190
écrou	-13191
▁alam	-13192
▁basi	-13193
▁buli	-13194
▁coin	-13195
▁coqu	-13196
▁fɔɔn	-13197
▁gili	-13198
▁goli	-13199
▁hâte	-13200
▁jana	-13201
▁jɔnw	-13202
▁kaau	-13203
▁kona	-13204
▁mers	-13205
▁odio	-13206
▁paru	-13207
▁polo	-13208
▁tons	-13209
▁toum	-13210
▁évit	-13211
autrui	-13212
encens	-13213
inclin	-13214
raires	-13215
▁enfui	-13216
▁fɔlon	-13217
▁labla	-13218
▁litre	-13219
▁lɔnna	-13220
▁mardi	-13221
▁miles	-13222
▁proie	-13223
▁queue	-13224
▁sabre	-13225
▁soign	-13226
▁usage	-13227
▁yenin	-13228
adapter	-13229
automne	-13230
olation	-13231
ortable	-13232
épouser	-13233
▁adopté	-13234
▁aimera	-13235
▁auteur	-13236
▁chroni	-13237
▁dagamu	-13238
▁enfuis	-13239
▁gengen	-13240
▁lilato	-13241
▁makɔnɔ	-13242
▁mouton	-13243
▁nyɔɔnɛ	-13244
▁pikiri	-13245
▁piyɔni	-13246
▁procès	-13247
▁revoir	-13248
▁sinema	-13249
▁sissan	-13250
▁survie	-13251
▁tagala	-13252
▁tiɲɛna	-13253
▁utiles	-13254
▁zeriko	-13255
▁ɲejira	-13256
apprends	-13257
dugukolo	-13258
entement	-13259
kikikiki	-13260
▁bergers	-13261
▁enterré	-13262
▁findixi	-13263
▁fisaman	-13264
▁history	-13265
▁jéricho	-13266
▁kanngan	-13267
▁listing	-13268
▁lènburu	-13269
▁ouverts	-13270
▁parlons	-13271
▁royauté	-13272
▁sababou	-13273
▁talents	-13274
▁verrons	-13275
▁wololon	-13276
▁élément	-13277
▁arrivait	-13278
▁benkanni	-13279
▁célébrer	-13280
▁discuter	-13281
▁doctrine	-13282
▁détresse	-13283
▁festival	-13284
▁fréquent	-13285
▁hakɛkɛla	-13286
▁kalansow	-13287
▁labènnen	-13288
▁mourrait	-13289
▁médecins	-13290
▁appliquer	-13291
▁dimanches	-13292
▁jagokɛlaw	-13293
▁ladibagaw	-13294
▁mardochée	-13295
▁parlaient	-13296
▁puissante	-13297
▁spectacle	-13298
▁yɔrɔnyini	-13299
▁accessible	-13300
▁commençait	-13301
▁karamɔgɔkɛ	-13302
▁particulière	-13303
▁persévérance	-13304
enregistrement	-13305
▁nabukodonozɔri	-13306
"*	-13307
6:	-13308
iv	-13309
mê	-13310
-19	-13311
aum	-13312
bih	-13313
cir	-13314
esc	-13315
eti	-13316
kle	-13317
mur	-13318
oué	-13319
six	-13320
yme	-13321
▁bb	-13322
▁bũ	-13323
▁fâ	-13324
angé	-13325
arra	-13326
gibu	-13327
rata	-13328
rêts	-13329
▁13.	-13330
▁1:1	-13331
▁47%	-13332
▁600	-13333
▁ahe	-13334
▁dai	-13335
▁iki	-13336
▁lea	-13337
▁nbu	-13338
▁ras	-13339
▁sah	-13340
▁tse	-13341
▁élo	-13342
avert	-13343
berto	-13344
exhor	-13345
expul	-13346
geait	-13347
négal	-13348
teint	-13349
trice	-13350
xiété	-13351
▁down	-13352
▁dudo	-13353
▁dura	-13354
▁eloï	-13355
▁fool	-13356
▁jeta	-13357
▁joke	-13358
▁just	-13359
▁kahi	-13360
▁kile	-13361
▁kĩru	-13362
▁lass	-13363
▁live	-13364
▁mɛya	-13365
▁réce	-13366
▁sɔnɔ	-13367
▁tonn	-13368
▁wôrô	-13369
▁zoro	-13370
endrai	-13371
médier	-13372
pilati	-13373
zafati	-13374
▁1987.	-13375
▁attra	-13376
▁autel	-13377
▁balik	-13378
▁benan	-13379
▁bâtit	-13380
▁congé	-13381
▁eleza	-13382
▁fumée	-13383
▁fèèrè	-13384
▁gross	-13385
▁hélas	-13386
▁kafar	-13387
▁kasɔn	-13388
▁meurs	-13389
▁nanya	-13390
▁neces	-13391
▁neemi	-13392
▁porta	-13393
▁scéna	-13394
▁stade	-13395
▁ɲanin	-13396
actions	-13397
affirme	-13398
apparti	-13399
▁cogodi	-13400
▁congré	-13401
▁doctor	-13402
▁donnes	-13403
▁déclin	-13404
▁entrés	-13405
▁jɛnita	-13406
▁kabila	-13407
▁keliya	-13408
▁kɛndɛn	-13409
▁millén	-13410
▁ouvrir	-13411
▁retiré	-13412
▁sègèrè	-13413
▁ɲɛnajɛ	-13414
arrivera	-13415
attacher	-13416
authenti	-13417
identifi	-13418
ologique	-13419
▁concent	-13420
▁confort	-13421
▁demisɛn	-13422
▁dugugbɛ	-13423
▁eglises	-13424
▁entendi	-13425
▁faamaya	-13426
▁fournit	-13427
▁helpful	-13428
▁modèles	-13429
▁offrent	-13430
▁passées	-13431
▁préfère	-13432
▁rainbow	-13433
▁rendent	-13434
▁surveil	-13435
▁taisent	-13436
▁tintinw	-13437
▁visiter	-13438
▁écrivit	-13439
▁barikisu	-13440
▁bilayɔrɔ	-13441
▁champion	-13442
▁dagamuna	-13443
▁entendus	-13444
▁furakɛli	-13445
▁halakiko	-13446
▁jalakira	-13447
▁kisibaya	-13448
▁paraître	-13449
▁patients	-13450
▁remédier	-13451
▁réunions	-13452
▁stupides	-13453
▁abondance	-13454
▁datugulan	-13455
▁elizabɛti	-13456
▁histoires	-13457
▁janfamɔgɔ	-13458
▁jerusalem	-13459
▁kabakoman	-13460
▁kodogonin	-13461
▁kongowulu	-13462
▁labilanin	-13463
▁lɛsɛbagaw	-13464
▁mɔgɔkɔrɔw	-13465
▁provinces	-13466
▁récemment	-13467
▁trompette	-13468
▁descendant	-13469
▁deviennent	-13470
▁kafaranamu	-13471
▁kolɔnbagaw	-13472
▁kɛrɛnnenya	-13473
▁manifestée	-13474
▁rassembler	-13475
▁recommanda	-13476
▁tagamacogo	-13477
mɔgɔtilennin	-13478
▁compétences	-13479
▁dakɔrɔsigiw	-13480
▁grincements	-13481
▁précisément	-13482
▁transmettre	-13483
▁dusukasifani	-13484
▁galontigɛlaw	-13485
ao	-13486
dj	-13487
:55	-13488
awa	-13489
bla	-13490
ege	-13491
fɔm	-13492
iii	-13493
nez	-13494
ude	-13495
zin	-13496
ènè	-13497
▁87	-13498
▁io	-13499
▁lc	-13500
▁lā	-13501
▁uu	-13502
▁».	-13503
▁ɲu	-13504
aule	-13505
biji	-13506
bile	-13507
eran	-13508
gest	-13509
kaso	-13510
lend	-13511
oooo	-13512
peau	-13513
pore	-13514
sive	-13515
tari	-13516
usée	-13517
▁13-	-13518
▁amy	-13519
▁biw	-13520
▁cun	-13521
▁evi	-13522
▁gay	-13523
▁gon	-13524
▁ita	-13525
▁jwo	-13526
▁jye	-13527
▁lɛn	-13528
▁nai	-13529
▁sch	-13530
▁war	-13531
▁zet	-13532
▁équ	-13533
filen	-13534
itugu	-13535
lants	-13536
mukan	-13537
teriw	-13538
xions	-13539
▁1000	-13540
▁1:37	-13541
▁6:10	-13542
▁arro	-13543
▁chin	-13544
▁còrò	-13545
▁dana	-13546
▁kase	-13547
▁kɔɔw	-13548
▁leya	-13549
▁loya	-13550
▁mato	-13551
▁nabi	-13552
▁riga	-13553
▁robe	-13554
▁romè	-13555
▁tooo	-13556
▁wang	-13557
▁yang	-13558
infini	-13559
midité	-13560
offici	-13561
regist	-13562
yɔrɔba	-13563
çaient	-13564
éclair	-13565
▁.....	-13566
▁adoré	-13567
▁clean	-13568
▁conon	-13569
▁denba	-13570
▁faliw	-13571
▁fière	-13572
▁fonds	-13573
▁gnana	-13574
▁impli	-13575
▁jigɛw	-13576
▁kpoyi	-13577
▁kɔrɔw	-13578
▁lâche	-13579
▁magie	-13580
▁malad	-13581
▁since	-13582
▁tiile	-13583
▁watch	-13584
▁wunna	-13585
▁xɛmɛn	-13586
imagine	-13587
▁banaba	-13588
▁bènnen	-13589
▁domini	-13590
▁exposé	-13591
▁fierté	-13592
▁fortes	-13593
▁foudre	-13594
▁italie	-13595
▁kowaga	-13596
▁kɔrɔba	-13597
▁locaux	-13598
▁mettra	-13599
▁médica	-13600
▁nimero	-13601
▁people	-13602
▁samson	-13603
▁statut	-13604
▁tobili	-13605
apprécie	-13606
tilehɛmu	-13607
▁accorde	-13608
▁bangera	-13609
▁blogger	-13610
▁chiffre	-13611
▁comptes	-13612
▁conflit	-13613
▁còrònin	-13614
▁erebɛka	-13615
▁galaadi	-13616
▁montant	-13617
▁saurait	-13618
▁sentais	-13619
▁sources	-13620
▁sɔmburu	-13621
▁trouble	-13622
▁utilise	-13623
versaires	-13624
▁britanni	-13625
▁enregist	-13626
▁fɛnɲuman	-13627
▁kantigiw	-13628
▁kumacogo	-13629
▁mercredi	-13630
▁peinture	-13631
▁sigidala	-13632
▁souhaité	-13633
▁struggle	-13634
▁évidence	-13635
approchent	-13636
feereyɔɔrɔ	-13637
▁bénéfices	-13638
▁condamner	-13639
▁contribué	-13640
▁distances	-13641
▁dɔgɔtɔrɔw	-13642
▁meurtrier	-13643
▁nimanfɛnw	-13644
▁numanbolo	-13645
▁officiers	-13646
exhortation	-13647
▁continuent	-13648
▁libération	-13649
▁meilleures	-13650
▁signifient	-13651
accompliront	-13652
▁baarakɛmuso	-13653
▁galontigɛla	-13654
▁holocaustes	-13655
▁traductions	-13656
▁descendaient	-13657
▁premièrement	-13658
▁christianisme	-13659
▁lemɛniyamɔɔilu	-13660
ic	-13661
jh	-13662
alu	-13663
arc	-13664
ilé	-13665
iyo	-13666
jig	-13667
xes	-13668
yri	-13669
âne	-13670
▁fẹ	-13671
▁rm	-13672
▁sɑ	-13673
allé	-13674
etre	-13675
fite	-13676
inno	-13677
rrrg	-13678
▁17"	-13679
▁230	-13680
▁28-	-13681
▁apa	-13682
▁aru	-13683
▁cry	-13684
▁dik	-13685
▁kha	-13686
▁nda	-13687
▁noo	-13688
▁nwu	-13689
▁shɔ	-13690
▁sum	-13691
▁sɑɑ	-13692
▁tem	-13693
▁tib	-13694
▁tow	-13695
▁yaw	-13696
cogow	-13697
febru	-13698
garde	-13699
impôt	-13700
isigi	-13701
kansi	-13702
kɛrɛn	-13703
rette	-13704
▁..."	-13705
▁abat	-13706
▁bold	-13707
▁boom	-13708
▁buat	-13709
▁bɔri	-13710
▁bɔtɔ	-13711
▁déla	-13712
▁días	-13713
▁foot	-13714
▁haha	-13715
▁hoon	-13716
▁jaɲa	-13717
▁kafa	-13718
▁kafu	-13719
▁kamp	-13720
▁laju	-13721
▁mail	-13722
▁make	-13723
▁modé	-13724
▁nuho	-13725
▁nvle	-13726
▁néga	-13727
▁porn	-13728
▁sɔnn	-13729
▁tima	-13730
▁toit	-13731
▁tɔ̃ɔ	-13732
▁wule	-13733
▁wɔrɔ	-13734
▁îles	-13735
accent	-13736
auprès	-13737
chette	-13738
enenli	-13739
graver	-13740
hanama	-13741
heures	-13742
latigɛ	-13743
oiseau	-13744
tigiba	-13745
▁andre	-13746
▁angle	-13747
▁annzɛ	-13748
▁barik	-13749
▁brûlé	-13750
▁croie	-13751
▁fandi	-13752
▁infir	-13753
▁insta	-13754
▁kilin	-13755
▁kitna	-13756
▁kɔlɔn	-13757
▁nulle	-13758
▁pixra	-13759
▁salam	-13760
▁soirs	-13761
▁sport	-13762
▁tourn	-13763
▁tours	-13764
▁vents	-13765
oiseaux	-13766
tention	-13767
▁arrrrg	-13768
▁batora	-13769
▁chauss	-13770
▁farali	-13771
▁guyane	-13772
▁hamina	-13773
▁kpɛkun	-13774
▁kurunw	-13775
▁mascul	-13776
▁montés	-13777
▁nbuuru	-13778
▁nɔgɔra	-13779
▁plaine	-13780
▁retard	-13781
▁toucha	-13782
▁traces	-13783
▁zetoro	-13784
empathie	-13785
february	-13786
mination	-13787
pédition	-13788
ɲɛnamaya	-13789
▁duurumɔ	-13790
▁détruis	-13791
▁extrait	-13792
▁féminin	-13793
▁italien	-13794
▁kalanni	-13795
▁mowabuw	-13796
▁remplie	-13797
adressent	-13798
encourage	-13799
▁communes	-13800
▁cultures	-13801
▁dayɛlɛla	-13802
▁fariziɲɛ	-13803
▁gosligan	-13804
▁installé	-13805
▁jahanama	-13806
▁juguyara	-13807
▁kènèyara	-13808
▁murutigi	-13809
▁occasion	-13810
▁ouvertes	-13811
▁rebelles	-13812
▁sainteté	-13813
▁sourires	-13814
▁tigaforo	-13815
▁touchant	-13816
▁troubles	-13817
▁téléchar	-13818
▁voudrait	-13819
▁étonnant	-13820
apparition	-13821
excellence	-13822
équitation	-13823
▁canadiens	-13824
▁capitaine	-13825
▁captivité	-13826
▁détestent	-13827
▁exception	-13828
▁passèrent	-13829
▁perspecti	-13830
▁possèdent	-13831
▁principes	-13832
▁quinzaine	-13833
▁regardent	-13834
▁remarquer	-13835
▁retournée	-13836
▁reçoivent	-13837
▁sanulaman	-13838
▁sanyɛlɛma	-13839
▁sauvetage	-13840
▁sensation	-13841
▁solutions	-13842
▁souffrait	-13843
▁bɛtilehɛmu	-13844
▁dugugbɛkan	-13845
▁fondations	-13846
▁laissèrent	-13847
▁miiriɲuman	-13848
▁persécutés	-13849
▁craignaient	-13850
▁disparition	-13851
▁malédiction	-13852
▁proposition	-13853
▁compatissant	-13854
▁kilisienenli	-13855
▁réfléchissait	-13856
sò	-13857
.""	-13858
:39	-13859
ano	-13860
aoû	-13861
bit	-13862
dai	-13863
ext	-13864
olɛ	-13865
sur	-13866
unw	-13867
ven	-13868
yee	-13869
èri	-13870
▁"?	-13871
▁'.	-13872
▁7:	-13873
▁hd	-13874
▁sb	-13875
:77"	-13876
alam	-13877
anŋo	-13878
bour	-13879
ciel	-13880
gami	-13881
kaan	-13882
kami	-13883
lɛnw	-13884
nité	-13885
nnnn	-13886
rasu	-13887
èque	-13888
āina	-13889
▁27-	-13890
▁afɛ	-13891
▁azu	-13892
▁bho	-13893
▁bèe	-13894
▁dàn	-13895
▁gas	-13896
▁kot	-13897
▁kyo	-13898
▁mìn	-13899
▁mɔɛ	-13900
▁nég	-13901
▁sàn	-13902
▁who	-13903
▁yam	-13904
▁ève	-13905
▁édu	-13906
▁ésa	-13907
berna	-13908
cules	-13909
elait	-13910
entou	-13911
faran	-13912
gbala	-13913
janko	-13914
orent	-13915
rants	-13916
sable	-13917
senin	-13918
timis	-13919
▁1:13	-13920
▁baih	-13921
▁body	-13922
▁bura	-13923
▁choo	-13924
▁comb	-13925
▁doke	-13926
▁dumb	-13927
▁dɔlɔ	-13928
▁fasa	-13929
▁gare	-13930
▁gati	-13931
▁jooo	-13932
▁koma	-13933
▁lean	-13934
▁mabɔ	-13935
▁paie	-13936
▁wodi	-13937
▁wɔgɔ	-13938
▁émer	-13939
batala	-13940
cheurs	-13941
dɛlifi	-13942
eresse	-13943
expéri	-13944
hérode	-13945
israel	-13946
tirent	-13947
▁10:10	-13948
▁28:19	-13949
▁3:77"	-13950
▁abord	-13951
▁afiɛn	-13952
▁aides	-13953
▁amadu	-13954
▁danka	-13955
▁dinin	-13956
▁domin	-13957
▁fumer	-13958
▁henri	-13959
▁indis	-13960
▁kagni	-13961
▁ladka	-13962
▁laver	-13963
▁mammy	-13964
▁micha	-13965
▁muxun	-13966
▁niyen	-13967
▁ntola	-13968
▁ofisi	-13969
▁piste	-13970
▁siyɔn	-13971
▁sɔɔni	-13972
▁tamar	-13973
▁xinla	-13974
▁yennu	-13975
anxiété	-13976
bilités	-13977
inconnu	-13978
jinliwɛ	-13979
kulekan	-13980
ritigiw	-13981
▁abramu	-13982
▁avenue	-13983
▁caffee	-13984
▁examen	-13985
▁finale	-13986
▁foroko	-13987
▁frappe	-13988
▁fureur	-13989
▁fériés	-13990
▁kannin	-13991
▁kissed	-13992
▁lawaji	-13993
▁lisons	-13994
▁mortes	-13995
▁païens	-13996
▁rocher	-13997
▁satuma	-13998
▁sɛbɛxi	-13999
▁tarder	-14000
▁vivres	-14001
▁zoroba	-14002
▁éclair	-14003
immédiat	-14004
lisation	-14005
nagement	-14006
▁alberto	-14007
▁annonça	-14008
▁avancer	-14009
▁azariya	-14010
▁cɛmancɛ	-14011
▁dentist	-14012
▁dignité	-14013
▁gardien	-14014
▁indiqué	-14015
▁informé	-14016
▁jifilen	-14017
▁prêchée	-14018
▁remonte	-14019
▁réserve	-14020
▁saintes	-14021
▁taberna	-14022
▁tunisie	-14023
▁valeurs	-14024
▁voulant	-14025
appliquer	-14026
araissent	-14027
▁duration	-14028
▁débarras	-14029
▁feuilles	-14030
▁jabibiji	-14031
▁nilifɛnw	-14032
▁piyɔniye	-14033
▁quatorze	-14034
▁semblait	-14035
▁terminée	-14036
▁attendait	-14037
▁avantages	-14038
▁classique	-14039
▁connaisse	-14040
▁fortement	-14041
▁gilasenin	-14042
▁labancogo	-14043
▁lɔnnikɛla	-14044
▁médiateur	-14045
▁prononcer	-14046
▁élections	-14047
▁accueillir	-14048
▁filadɛlifi	-14049
▁laminijama	-14050
▁sumangbala	-14051
▁travaillez	-14052
▁tɔgɔtigiba	-14053
authenticité	-14054
▁cherchaient	-14055
▁intéressant	-14056
▁populations	-14057
▁commencèrent	-14058
▁conversation	-14059
▁dénombrement	-14060
▁siranbagatɔw	-14061
▁kafefeereyɔɔrɔ	-14062
▁principalement	-14063
36	-14064
43	-14065
;"	-14066
èr	-14067
ún	-14068
ẹẹ	-14069
▁]	-14070
amo	-14071
bèè	-14072
dus	-14073
gel	-14074
hal	-14075
hat	-14076
hua	-14077
koe	-14078
mad	-14079
muw	-14080
pin	-14081
tha	-14082
▁hɔ	-14083
▁kg	-14084
agri	-14085
août	-14086
audi	-14087
cain	-14088
dace	-14089
dale	-14090
eror	-14091
hori	-14092
jiri	-14093
kɔlɔ	-14094
lieu	-14095
lits	-14096
maga	-14097
mage	-14098
ores	-14099
piré	-14100
sɛli	-14101
ticu	-14102
trer	-14103
wasi	-14104
yali	-14105
înée	-14106
▁1:3	-14107
▁4:4	-14108
▁aan	-14109
▁bob	-14110
▁cau	-14111
▁ebo	-14112
▁fis	-14113
▁kih	-14114
▁kɛ̄	-14115
▁leu	-14116
▁lẹẹ	-14117
▁mma	-14118
▁tij	-14119
armes	-14120
avent	-14121
cepti	-14122
empar	-14123
esari	-14124
lumun	-14125
mògòw	-14126
nelle	-14127
simɔn	-14128
▁4:13	-14129
▁astu	-14130
▁beta	-14131
▁capt	-14132
▁clan	-14133
▁dèsè	-14134
▁dɔkɔ	-14135
▁enle	-14136
▁kelé	-14137
▁kokɛ	-14138
▁kôgô	-14139
▁kɛko	-14140
▁lévi	-14141
▁lɛri	-14142
▁muga	-14143
▁nara	-14144
▁pilo	-14145
▁rare	-14146
▁sòsò	-14147
▁taan	-14148
▁toil	-14149
▁vali	-14150
▁yoya	-14151
ignent	-14152
illard	-14153
invite	-14154
melɛki	-14155
yokusi	-14156
éteint	-14157
▁10:24	-14158
▁akayi	-14159
▁cache	-14160
▁candi	-14161
▁divor	-14162
▁etait	-14163
▁fermé	-14164
▁front	-14165
▁fɔnin	-14166
▁gnini	-14167
▁handi	-14168
▁jaune	-14169
▁jeûne	-14170
▁kajal	-14171
▁kaman	-14172
▁laten	-14173
▁lavés	-14174
▁lekin	-14175
▁lorou	-14176
▁miens	-14177
▁russe	-14178
▁tagab	-14179
▁tomow	-14180
▁tuntu	-14181
▁tɔnit	-14182
▁ébran	-14183
▁étude	-14184
aurions	-14185
ouvante	-14186
▁alainw	-14187
▁chassé	-14188
▁djonan	-14189
▁défend	-14190
▁dɔtɔrɔ	-14191
▁effets	-14192
▁ekobee	-14193
▁exaucé	-14194
▁filipe	-14195
▁filɛko	-14196
▁frappa	-14197
▁hayiti	-14198
▁latina	-14199
▁libéré	-14200
▁makobe	-14201
▁perdue	-14202
▁rendue	-14203
▁sezare	-14204
▁sorona	-14205
▁tolong	-14206
▁tɛmɛtɔ	-14207
▁ɲanako	-14208
▁ɲèminè	-14209
emmanuel	-14210
existent	-14211
humidité	-14212
▁adressé	-14213
▁baarako	-14214
▁démocra	-14215
▁emperor	-14216
▁excuses	-14217
▁faciles	-14218
▁fermera	-14219
▁filenya	-14220
▁further	-14221
▁fèèrèbò	-14222
▁honneur	-14223
▁naturel	-14224
▁normali	-14225
▁pouvant	-14226
▁saurais	-14227
▁sentier	-14228
▁visible	-14229
amusement	-14230
exécution	-14231
▁annoncée	-14232
▁artistes	-14233
▁coutumes	-14234
▁louanges	-14235
▁lẹẹkansi	-14236
▁marchons	-14237
▁miiriliw	-14238
▁paradise	-14239
▁parfaits	-14240
▁pouvions	-14241
▁pression	-14242
▁repentir	-14243
▁tɛmɛtɛmɛ	-14244
▁vérifier	-14245
▁welelike	-14246
approchera	-14247
interroger	-14248
natanayɛli	-14249
▁balimacɛw	-14250
▁consommer	-14251
▁dangereux	-14252
▁demandais	-14253
▁kabakurun	-14254
▁montèrent	-14255
▁musulmans	-14256
▁nationale	-14257
▁sagadɛndɛ	-14258
▁surunyara	-14259
▁tijinliwɛ	-14260
emplacement	-14261
instruction	-14262
▁diɲɛlatigɛ	-14263
▁fiɲɛntɔman	-14264
▁kɛrɛnkɛrɛn	-14265
▁prophétise	-14266
▁supérieure	-14267
▁séparation	-14268
▁profondeurs	-14269
▁prédication	-14270
▁senumanŋolu	-14271
41	-14272
fw	-14273
âh	-14274
ṣe	-14275
asɛ	-14276
ely	-14277
fia	-14278
gis	-14279
hee	-14280
lum	-14281
nee	-14282
▁99	-14283
▁?.	-14284
▁kr	-14285
▁sí	-14286
enai	-14287
guée	-14288
kutɔ	-14289
ptés	-14290
tain	-14291
èvre	-14292
▁41"	-14293
▁8.1	-14294
▁[13	-14295
▁any	-14296
▁bɛt	-14297
▁gaw	-14298
▁gbɔ	-14299
▁gnè	-14300
▁guy	-14301
▁iti	-14302
▁jas	-14303
▁kad	-14304
▁koy	-14305
▁kɔr	-14306
▁nez	-14307
▁noh	-14308
▁ope	-14309
▁tap	-14310
▁vel	-14311
▁way	-14312
▁ému	-14313
cause	-14314
gines	-14315
illie	-14316
ousse	-14317
prême	-14318
usuma	-14319
viens	-14320
éleva	-14321
▁2...	-14322
▁2010	-14323
▁2011	-14324
▁aung	-14325
▁aver	-14326
▁boni	-14327
▁coté	-14328
▁céré	-14329
▁dako	-14330
▁igno	-14331
▁inti	-14332
▁jɔ̀n	-14333
▁kate	-14334
▁kirg	-14335
▁koso	-14336
▁laki	-14337
▁loca	-14338
▁lwan	-14339
▁mɛgɛ	-14340
▁nàli	-14341
▁pele	-14342
▁rand	-14343
▁tlon	-14344
▁wuda	-14345
▁yinw	-14346
▁écar	-14347
▁ɲɛci	-14348
aimons	-14349
avocat	-14350
dankan	-14351
deyawo	-14352
tigɛla	-14353
▁ahead	-14354
▁baroo	-14355
▁batiz	-14356
▁bâton	-14357
▁bònya	-14358
▁bɔnna	-14359
▁centi	-14360
▁coute	-14361
▁fouet	-14362
▁gabri	-14363
▁gamme	-14364
▁hauts	-14365
▁kabla	-14366
▁kônon	-14367
▁laodi	-14368
▁motif	-14369
▁mâles	-14370
▁perpé	-14371
▁plaça	-14372
▁proud	-14373
▁puits	-14374
▁pèler	-14375
▁sangu	-14376
▁soron	-14377
▁stres	-14378
▁tahun	-14379
▁techn	-14380
▁tirée	-14381
▁tungu	-14382
▁verbe	-14383
▁vivra	-14384
▁ŋunan	-14385
▁ɔkutɔ	-14386
fununan	-14387
illants	-14388
échappe	-14389
éclaire	-14390
établir	-14391
▁baisse	-14392
▁balaam	-14393
▁balamu	-14394
▁barkin	-14395
▁dalili	-14396
▁dedans	-14397
▁estime	-14398
▁jusque	-14399
▁koosiɑ	-14400
▁kouman	-14401
▁mantan	-14402
▁marisi	-14403
▁neticu	-14404
▁pattes	-14405
▁prenne	-14406
▁pɛrɛsi	-14407
▁réunit	-14408
▁sacogo	-14409
▁sarati	-14410
▁sauvez	-14411
▁succom	-14412
▁sɔ̃ɔmɔ	-14413
▁tuntun	-14414
▁verras	-14415
▁verres	-14416
▁wasaya	-14417
▁wunnin	-14418
▁yɛlɛko	-14419
▁économ	-14420
▁énervé	-14421
isateurs	-14422
▁assurer	-14423
▁bengali	-14424
▁challen	-14425
▁chances	-14426
▁cɛnkuma	-14427
▁faamuli	-14428
▁fiyɛkan	-14429
▁friends	-14430
▁khesari	-14431
▁kɛnɛnma	-14432
▁légumes	-14433
▁machine	-14434
▁nourrit	-14435
▁passons	-14436
▁portent	-14437
▁seniors	-14438
▁sincère	-14439
▁suprême	-14440
▁tilancɛ	-14441
▁valable	-14442
▁yɛlɛnin	-14443
▁éloigné	-14444
asɛrisɛsi	-14445
▁accepter	-14446
▁auxquels	-14447
▁division	-14448
▁désordre	-14449
▁effrayés	-14450
▁exemples	-14451
▁extermin	-14452
▁injustes	-14453
▁montrent	-14454
▁remporté	-14455
▁sedeyawo	-14456
▁solofere	-14457
▁trouvant	-14458
▁éloigner	-14459
automobile	-14460
efficacité	-14461
interrogea	-14462
▁annonçant	-14463
▁conscient	-14464
▁cérémonie	-14465
▁hɔrɔnmuso	-14466
▁jɛnibaliw	-14467
▁messieurs	-14468
▁nombreuse	-14469
▁parlèrent	-14470
▁princesse	-14471
▁sumantigi	-14472
kojugukɛlaw	-14473
▁allabatala	-14474
▁appartenez	-14475
▁commencent	-14476
▁engagement	-14477
▁précieuses	-14478
▁prévention	-14479
▁similaires	-14480
▁communiquer	-14481
▁destination	-14482
▁professeurs	-14483
▁sigiyɔrɔman	-14484
▁recommandons	-14485
tɔnkuntigidankan	-14486
54	-14487
:"	-14488
”.	-14489
▁←	-14490
alo	-14491
asu	-14492
ata	-14493
bec	-14494
hin	-14495
ier	-14496
rop	-14497
vah	-14498
vra	-14499
▁bì	-14500
▁ip	-14501
▁sô	-14502
▁ɲì	-14503
appu	-14504
auts	-14505
demp	-14506
doba	-14507
fiez	-14508
fòlò	-14509
gele	-14510
géni	-14511
hero	-14512
maan	-14513
nɛri	-14514
orée	-14515
sida	-14516
tila	-14517
uies	-14518
▁14-	-14519
▁buy	-14520
▁dua	-14521
▁eur	-14522
▁gin	-14523
▁guo	-14524
▁ize	-14525
▁lel	-14526
▁ler	-14527
▁lii	-14528
▁léa	-14529
▁nia	-14530
▁pit	-14531
▁poo	-14532
▁rio	-14533
▁sié	-14534
▁uwu	-14535
banaw	-14536
bédée	-14537
dasiw	-14538
dingɛ	-14539
errer	-14540
maire	-14541
notre	-14542
orage	-14543
outez	-14544
tagne	-14545
yɔngɔ	-14546
▁421.	-14547
▁arit	-14548
▁baaw	-14549
▁conç	-14550
▁copi	-14551
▁crie	-14552
▁foni	-14553
▁fɛnw	-14554
▁geth	-14555
▁gueu	-14556
▁iken	-14557
▁impo	-14558
▁jòni	-14559
▁lawo	-14560
▁mano	-14561
▁melo	-14562
▁muna	-14563
▁muni	-14564
▁nabɔ	-14565
▁négo	-14566
▁prud	-14567
▁sard	-14568
▁sion	-14569
▁slut	-14570
▁susc	-14571
▁tinx	-14572
▁tite	-14573
▁true	-14574
▁vélo	-14575
▁were	-14576
▁xɔrɔ	-14577
▁yaya	-14578
▁yint	-14579
▁zanw	-14580
▁élus	-14581
entuma	-14582
quants	-14583
ussent	-14584
vresse	-14585
yanfan	-14586
▁balle	-14587
▁boute	-14588
▁casse	-14589
▁chars	-14590
▁cheva	-14591
▁gagne	-14592
▁hôtel	-14593
▁impri	-14594
▁kaata	-14595
▁kafɔɔ	-14596
▁kalau	-14597
▁kinda	-14598
▁kojuu	-14599
▁melek	-14600
▁métro	-14601
▁nigga	-14602
▁nkanu	-14603
▁négli	-14604
▁passi	-14605
▁piège	-14606
▁sɔɔru	-14607
▁teles	-14608
▁tilew	-14609
▁timan	-14610
▁troub	-14611
▁virus	-14612
▁vécut	-14613
▁wanns	-14614
▁willi	-14615
artiste	-14616
gatoire	-14617
mettent	-14618
ouvrira	-14619
ttement	-14620
▁aperçu	-14621
▁appare	-14622
▁cesser	-14623
▁chaude	-14624
▁cèkòrò	-14625
▁donlon	-14626
▁faanin	-14627
▁fagako	-14628
▁fondée	-14629
▁grandi	-14630
▁jijali	-14631
▁josias	-14632
▁kanŋga	-14633
▁kumala	-14634
▁laissa	-14635
▁lawuli	-14636
▁listen	-14637
▁lɔgɔma	-14638
▁missin	-14639
▁nanwlɛ	-14640
▁oublie	-14641
▁parcou	-14642
▁perdra	-14643
▁permit	-14644
▁précau	-14645
▁ramené	-14646
▁retent	-14647
▁réduit	-14648
▁saisir	-14649
▁silisi	-14650
▁symbol	-14651
▁tenang	-14652
antement	-14653
ventions	-14654
▁accueil	-14655
▁aladali	-14656
▁because	-14657
▁colline	-14658
▁dessous	-14659
▁donyɔrɔ	-14660
▁fikiran	-14661
▁flammes	-14662
▁fortune	-14663
▁fratern	-14664
▁immense	-14665
▁kolonma	-14666
▁kununli	-14667
▁kɔnɔman	-14668
▁lajɛnba	-14669
▁navires	-14670
▁ordonne	-14671
▁purifié	-14672
▁remplir	-14673
▁revêtus	-14674
▁récipro	-14675
▁zanwiye	-14676
▁zébédée	-14677
▁chansons	-14678
▁crieront	-14679
▁dibijugu	-14680
▁eburukan	-14681
▁expliqué	-14682
▁fòlòfòlò	-14683
▁intérêts	-14684
▁kalantaw	-14685
▁kɔsegitɔ	-14686
▁manquent	-14687
▁rapporte	-14688
▁recettes	-14689
▁souvient	-14690
appartiens	-14691
encourager	-14692
exposition	-14693
hakilitigi	-14694
évaluation	-14695
▁affection	-14696
▁conduisit	-14697
▁expliquer	-14698
▁haminanko	-14699
▁kowagaras	-14700
▁kɛlɛkɛwot	-14701
▁multiples	-14702
▁prosterne	-14703
▁provoquer	-14704
▁reconstru	-14705
▁revinrent	-14706
▁tagaborow	-14707
▁tasumaman	-14708
▁yɔrɔɲuman	-14709
allaitement	-14710
▁abandonnée	-14711
▁automobile	-14712
▁auxquelles	-14713
▁connaîtrez	-14714
▁kowagarase	-14715
▁lafiɲɛyɔrɔ	-14716
▁marifakɛlɛ	-14717
▁permanence	-14718
▁satisfaction	-14719
▁aritasɛrisɛsi	-14720
▁gouvernements	-14721
▁mɔgɔtɔɔrɔkuma	-14722
▁ɔkutɔburukalo	-14723
▁jamanakuntigiya	-14724
ên	-14725
apa	-14726
elé	-14727
exa	-14728
fus	-14729
gbo	-14730
gia	-14731
hes	-14732
iru	-14733
joo	-14734
nat	-14735
ono	-14736
rib	-14737
zun	-14738
▁!.	-14739
▁#1	-14740
▁(:	-14741
▁00	-14742
▁3"	-14743
▁?)	-14744
▁iṣ	-14745
▁»,	-14746
ahah	-14747
dusu	-14748
gger	-14749
gies	-14750
hɔɔn	-14751
illu	-14752
mane	-14753
mori	-14754
nagé	-14755
nice	-14756
olue	-14757
phat	-14758
rang	-14759
rich	-14760
yida	-14761
élie	-14762
▁(2)	-14763
▁180	-14764
▁23.	-14765
▁800	-14766
▁aho	-14767
▁akɛ	-14768
▁bũu	-14769
▁gol	-14770
▁kus	-14771
▁nyu	-14772
▁nyè	-14773
▁tir	-14774
:1616	-14775
aleme	-14776
anciw	-14777
dente	-14778
estes	-14779
gnées	-14780
range	-14781
talon	-14782
yants	-14783
yɔgɔn	-14784
époux	-14785
▁19:5	-14786
▁admi	-14787
▁argu	-14788
▁brou	-14789
▁dark	-14790
▁demo	-14791
▁diab	-14792
▁dyna	-14793
▁fiɲɛ	-14794
▁hani	-14795
▁kaci	-14796
▁kang	-14797
▁laye	-14798
▁muda	-14799
▁pere	-14800
▁rebe	-14801
▁réch	-14802
▁saza	-14803
▁scul	-14804
▁tomo	-14805
▁tɛtɛ	-14806
auriez	-14807
devant	-14808
efface	-14809
emmène	-14810
estine	-14811
impact	-14812
impôts	-14813
pierre	-14814
sement	-14815
▁2021,	-14816
▁angel	-14817
▁avent	-14818
▁bamba	-14819
▁basig	-14820
▁boîte	-14821
▁bànba	-14822
▁bâtir	-14823
▁cerve	-14824
▁coins	-14825
▁corne	-14826
▁datum	-14827
▁dimen	-14828
▁djama	-14829
▁expos	-14830
▁fourn	-14831
▁gigun	-14832
▁hebur	-14833
▁influ	-14834
▁janin	-14835
▁kaɲan	-14836
▁loner	-14837
▁micro	-14838
▁minis	-14839
▁niger	-14840
▁persu	-14841
▁peurs	-14842
▁plans	-14843
▁poche	-14844
▁puisi	-14845
▁safar	-14846
▁songe	-14847
▁sufuɛ	-14848
▁tsuma	-14849
▁yoman	-14850
accuser	-14851
bèètigi	-14852
culaire	-14853
observe	-14854
zonatan	-14855
édition	-14856
▁accept	-14857
▁aidera	-14858
▁allant	-14859
▁austra	-14860
▁biisit	-14861
▁brûler	-14862
▁confie	-14863
▁couper	-14864
▁dugaan	-14865
▁dɔɔ̄nu	-14866
▁engage	-14867
▁espace	-14868
▁impecc	-14869
▁jatera	-14870
▁kafila	-14871
▁koɲuma	-14872
▁lancer	-14873
▁lignes	-14874
▁maraka	-14875
▁niièce	-14876
▁rédemp	-14877
▁sienne	-14878
▁statue	-14879
▁straté	-14880
▁suivez	-14881
▁séparé	-14882
▁terror	-14883
▁vagues	-14884
▁yĩsiru	-14885
▁élimin	-14886
▁étudié	-14887
▁ɲɔtiɲɔ	-14888
▁ɲɛfɔli	-14889
allemand	-14890
assassin	-14891
hɔɔnnnnn	-14892
internet	-14893
établira	-14894
▁alasira	-14895
▁betanga	-14896
▁couvert	-14897
▁dànkari	-14898
▁dònniya	-14899
▁finance	-14900
▁francis	-14901
▁furulon	-14902
▁intenti	-14903
▁kelenya	-14904
▁médical	-14905
▁méditer	-14906
▁observé	-14907
▁révolte	-14908
▁sauvage	-14909
▁secteur	-14910
▁sentait	-14911
▁serions	-14912
▁stature	-14913
▁sérieux	-14914
▁vitesse	-14915
▁vivrons	-14916
▁édition	-14917
accordent	-14918
attendait	-14919
karamɔgɔw	-14920
▁agissent	-14921
▁bénéfici	-14922
▁complète	-14923
▁conclure	-14924
▁conflits	-14925
▁détourne	-14926
▁habitait	-14927
▁kaamyabi	-14928
▁kɔsegiko	-14929
▁muraille	-14930
▁mɔgɔsɔbɛ	-14931
▁officier	-14932
▁présenta	-14933
▁rapporté	-14934
▁réfléchi	-14935
▁révélées	-14936
▁sinamuso	-14937
▁sɛbɛnnin	-14938
▁tɔnitɔni	-14939
hypocrisie	-14940
▁construis	-14941
▁consultez	-14942
▁découvrez	-14943
▁imposible	-14944
▁interdite	-14945
▁melekenin	-14946
▁méprisera	-14947
▁regardait	-14948
▁rébellion	-14949
entendaient	-14950
▁bànbaanciw	-14951
▁hakilijigi	-14952
▁photograph	-14953
▁prostituée	-14954
▁quelconque	-14955
▁réflexions	-14956
▁tilenbaliw	-14957
▁yerusaleme	-14958
architecture	-14959
▁hakiritigiw	-14960
▁incrédulité	-14961
▁namaramɔgɔw	-14962
▁kɛlɛkuntigiw	-14963
▁lagwɛlikɛlaw	-14964
▁exclusivement	-14965
▁sebaayabèètigi	-14966
34	-14967
:-	-14968
<3	-14969
af	-14970
xy	-14971
xɛ	-14972
ɣu	-14973
▁✓	-14974
###	-14975
232	-14976
ars	-14977
gua	-14978
jui	-14979
oon	-14980
sal	-14981
uto	-14982
▁(4	-14983
▁85	-14984
▁gy	-14985
▁ml	-14986
▁mû	-14987
▁og	-14988
▁wé	-14989
chus	-14990
cire	-14991
dɛna	-14992
ingo	-14993
lymp	-14994
olés	-14995
quie	-14996
tole	-14997
élan	-14998
ɔnun	-14999
▁aap	-15000
▁cit	-15001
▁duw	-15002
▁déç	-15003
▁goû	-15004
▁hal	-15005
▁ibi	-15006
▁klɔ	-15007
▁klɛ	-15008
▁mɑn	-15009
▁nán	-15010
▁org	-15011
▁seo	-15012
▁spe	-15013
▁sɔm	-15014
▁was	-15015
▁yèn	-15016
▁yɔɔ	-15017
▁âne	-15018
:1111	-15019
:3737	-15020
gnant	-15021
incon	-15022
insul	-15023
quons	-15024
reurs	-15025
solom	-15026
ɔgosi	-15027
▁5:20	-15028
▁8:29	-15029
▁bela	-15030
▁bron	-15031
▁cili	-15032
▁crié	-15033
▁elfe	-15034
▁fàso	-15035
▁géni	-15036
▁heur	-15037
▁kôfè	-15038
▁lafa	-15039
▁lave	-15040
▁left	-15041
▁liés	-15042
▁mɛrɛ	-15043
▁niko	-15044
▁oeil	-15045
▁panp	-15046
▁samj	-15047
▁saut	-15048
▁tiya	-15049
▁toho	-15050
▁tuen	-15051
▁waka	-15052
bilier	-15053
cieuse	-15054
rɛnɛti	-15055
wajibi	-15056
yptien	-15057
▁15:20	-15058
▁23...	-15059
▁andré	-15060
▁aînés	-15061
▁brûle	-15062
▁chale	-15063
▁diplô	-15064
▁doron	-15065
▁facil	-15066
▁furaw	-15067
▁geste	-15068
▁guère	-15069
▁heart	-15070
▁insul	-15071
▁kakoo	-15072
▁masuk	-15073
▁nomme	-15074
▁obsta	-15075
▁rokun	-15076
▁samus	-15077
▁signé	-15078
▁siini	-15079
▁élève	-15080
▁évacu	-15081
abandon	-15082
apprend	-15083
dafanin	-15084
espagne	-15085
ɔrɔninw	-15086
▁1:2020	-15087
▁adapté	-15088
▁assyri	-15089
▁baibol	-15090
▁battus	-15091
▁benlon	-15092
▁brûlés	-15093
▁couche	-15094
▁crimin	-15095
▁dibiba	-15096
▁goutte	-15097
▁gèrèla	-15098
▁infidè	-15099
▁lament	-15100
▁laɲini	-15101
▁matiyu	-15102
▁restri	-15103
▁saluez	-15104
▁sumanw	-15105
▁sɔgosi	-15106
▁tantun	-15107
▁tenter	-15108
▁videwo	-15109
▁ɲènabò	-15110
individu	-15111
matiques	-15112
occident	-15113
solomani	-15114
équipage	-15115
▁african	-15116
▁attente	-15117
▁bweseru	-15118
▁captifs	-15119
▁colonne	-15120
▁danfara	-15121
▁desizɔn	-15122
▁dossier	-15123
▁déplace	-15124
▁gbansan	-15125
▁goliath	-15126
▁kaburuw	-15127
▁karanna	-15128
▁kɔsieyo	-15129
▁niveaux	-15130
▁parlais	-15131
▁parvenu	-15132
▁réalise	-15133
▁servant	-15134
▁telesar	-15135
▁théorie	-15136
▁trouvée	-15137
▁waajibi	-15138
▁william	-15139
▁yinwege	-15140
▁échange	-15141
affichage	-15142
▁eligiera	-15143
▁lakɔliso	-15144
▁laodicée	-15145
▁malobali	-15146
▁nintɔɔrɔ	-15147
▁pleuvoir	-15148
▁rapports	-15149
▁retraite	-15150
▁syrienne	-15151
▁zayirisi	-15152
angleterre	-15153
engagement	-15154
équivalent	-15155
▁circoncis	-15156
▁existence	-15157
▁grossesse	-15158
▁nécessité	-15159
▁technique	-15160
abandonnera	-15161
▁demisɛnnin	-15162
▁faranfaran	-15163
▁frontières	-15164
▁gengenjiri	-15165
▁kanbelenya	-15166
▁mɔgɔɲumanw	-15167
▁rassemblés	-15168
▁transforme	-15169
▁dumunibabaw	-15170
▁spécialiste	-15171
▁korentengolu	-15172
▁personnalité	-15173
▁spécialement	-15174
▁extraordinaire	-15175
▁irréprochables	-15176
▁représentation	-15177
▁extraordinaires	-15178
-4	-15179
65	-15180
jè	-15181
mò	-15182
ṣi	-15183
▁§	-15184
ㄨㄣ	-15185
!,"	-15186
.14	-15187
30;	-15188
75.	-15189
aru	-15190
ght	-15191
his	-15192
ish	-15193
kiw	-15194
kok	-15195
naw	-15196
rac	-15197
▁7,	-15198
▁gò	-15199
▁ln	-15200
▁pt	-15201
bede	-15202
bins	-15203
dias	-15204
dori	-15205
endo	-15206
filɛ	-15207
ilaw	-15208
insu	-15209
onso	-15210
tais	-15211
urés	-15212
view	-15213
waan	-15214
êque	-15215
ṣiṣe	-15216
▁25"	-15217
▁2:8	-15218
▁40.	-15219
▁[2]	-15220
▁aja	-15221
▁ané	-15222
▁bêt	-15223
▁god	-15224
▁gor	-15225
▁hés	-15226
▁iṣẹ	-15227
▁jua	-15228
▁knw	-15229
▁léo	-15230
▁mee	-15231
▁nse	-15232
▁nxu	-15233
▁ske	-15234
▁uri	-15235
▁var	-15236
▁wus	-15237
▁ziz	-15238
acute	-15239
chets	-15240
kunun	-15241
mbles	-15242
nalom	-15243
ouman	-15244
thani	-15245
ttent	-15246
union	-15247
yaala	-15248
ɔgoya	-15249
▁####	-15250
▁1935	-15251
▁1974	-15252
▁1:49	-15253
▁20..	-15254
▁3:17	-15255
▁agne	-15256
▁aima	-15257
▁amoo	-15258
▁baal	-15259
▁baje	-15260
▁daka	-15261
▁dinɛ	-15262
▁duit	-15263
▁déni	-15264
▁déri	-15265
▁dɛrɛ	-15266
▁fenw	-15267
▁kusu	-15268
▁lamɛ	-15269
▁looo	-15270
▁mmla	-15271
▁nɛrɛ	-15272
▁silo	-15273
▁soph	-15274
▁séqu	-15275
▁sìra	-15276
▁tlan	-15277
[...]
