{
  "<unk>": 0,
  "<s>": 1,
  "</s>": 2,
  "▁k": 3,
  "▁d": 4,
  "▁l": 5,
  "an": 6,
  "▁n": 7,
  "▁s": 8,
  "▁m": 9,
  "▁a": 10,
  "en": 11,
  "▁b": 12,
  "▁t": 13,
  "es": 14,
  "▁y": 15,
  "▁p": 16,
  "▁c": 17,
  "on": 18,
  "▁f": 19,
  "in": 20,
  "▁ka": 21,
  "ou": 22,
  "il": 23,
  "▁la": 24,
  "is": 25,
  "▁j": 26,
  "▁ye": 27,
  "un": 28,
  "▁de": 29,
  "qu": 30,
  "re": 31,
  "ra": 32,
  "it": 33,
  "▁qu": 34,
  "▁ma": 35,
  "▁e": 36,
  "▁le": 37,
  "er": 38,
  "▁v": 39,
  "▁pa": 40,
  "▁ko": 41,
  "ent": 42,
  "▁be": 43,
  "le": 44,
  "▁ne": 45,
  "est": 46,
  "la": 47,
  "ma": 48,
  "ri": 49,
  "eu": 50,
  "▁o": 51,
  "us": 52,
  "ɔn": 53,
  "ga": 54,
  "ous": 55,
  "▁sa": 56,
  "▁w": 57,
  "▁et": 58,
  "▁i": 59,
  "▁se": 60,
  "▁ni": 61,
  "our": 62,
  "▁na": 63,
  "ti": 64,
  "▁an": 65,
  "om": 66,
  "▁\"": 67,
  "▁fa": 68,
  "▁à": 69,
  "▁il": 70,
  "▁pas": 71,
  "▁kɛ": 72,
  "..": 73,
  "li": 74,
  "▁en": 75,
  "▁min": 76,
  "▁que": 77,
  "ɔg": 78,
  "▁1": 79,
  "▁di": 80,
  "▁les": 81,
  "ya": 82,
  "oi": 83,
  "ɛn": 84,
  "▁je": 85,
  "me": 86,
  "▁un": 87,
  "ba": 88,
  "▁ce": 89,
  "▁ba": 90,
  "or": 91,
  "ur": 92,
  "▁kan": 93,
  "ɔr": 94,
  "ɔgɔ": 95,
  "ta": 96,
  "▁h": 97,
  "▁si": 98,
  "te": 99,
  "▁aw": 100,
  "▁u": 101,
  "▁r": 102,
  "ɔrɔ": 103,
  "▁ta": 104,
  "el": 105,
  "ant": 106,
  "▁ɲ": 107,
  "▁lo": 108,
  "▁du": 109,
  "ce": 110,
  "gi": 111,
  "man": 112,
  "ont": 113,
  "▁tu": 114,
  "▁fɔ": 115,
  "▁2": 116,
  "▁g": 117,
  "ɛɛ": 118,
  "▁tun": 119,
  "▁est": 120,
  "▁vous": 121,
  "▁é": 122,
  "ve": 123,
  "▁au": 124,
  "ai": 125,
  "si": 126,
  "gu": 127,
  "▁?": 128,
  "▁pour": 129,
  "▁par": 130,
  "ui": 131,
  "ol": 132,
  "ka": 133,
  "ment": 134,
  "ans": 135,
  "▁qui": 136,
  "és": 137,
  "▁wa": 138,
  "se": 139,
  "▁des": 140,
  "na": 141,
  "▁da": 142,
  "▁bɛɛ": 143,
  "ro": 144,
  "ena": 145,
  "ana": 146,
  "ch": 147,
  "ne": 148,
  "tre": 149,
  "▁mɔgɔ": 150,
  "▁ch": 151,
  "ons": 152,
  ".\"": 153,
  "▁dans": 154,
  "au": 155,
  "▁su": 156,
  "▁com": 157,
  "rɛ": 158,
  "▁ala": 159,
  "de": 160,
  "▁fɛ": 161,
  "▁bi": 162,
  "sa": 163,
  "res": 164,
  "▁te": 165,
  "ar": 166,
  "ɛrɛ": 167,
  "▁tou": 168,
  "▁ja": 169,
  "va": 170,
  "▁yo": 171,
  "...": 172,
  "▁to": 173,
  "eur": 174,
  "▁nin": 175,
  "▁bena": 176,
  "▁don": 177,
  "▁fil": 178,
  "▁re": 179,
  "go": 180,
  "▁une": 181,
  "▁ya": 182,
  "▁3": 183,
  "end": 184,
  "▁nous": 185,
  "▁dɔ": 186,
  "▁pl": 187,
  "ère": 188,
  "ge": 189,
  "▁mais": 190,
  "da": 191,
  "▁kɔn": 192,
  "ris": 193,
  "▁tɛ": 194,
  "té": 195,
  "▁-": 196,
  "ran": 197,
  "▁ku": 198,
  "ée": 199,
  "▁plus": 200,
  "▁koo": 201,
  "mp": 202,
  "▁man": 203,
  "▁dé": 204,
  "▁ti": 205,
  "os": 206,
  "▁ani": 207,
  "ko": 208,
  "▁ca": 209,
  "▁dieu": 210,
  "lu": 211,
  "▁ha": 212,
  "eux": 213,
  "olo": 214,
  "ci": 215,
  "▁lui": 216,
  "▁mon": 217,
  "tion": 218,
  "▁tout": 219,
  "pp": 220,
  "di": 221,
  "▁so": 222,
  "▁4": 223,
  "den": 224,
  "elen": 225,
  "tait": 226,
  "les": 227,
  "rè": 228,
  "ili": 229,
  "lɛ": 230,
  "ers": 231,
  "mi": 232,
  "▁kɔ": 233,
  "▁kɔnɔ": 234,
  "▁taga": 235,
  "▁vi": 236,
  "lle": 237,
  "▁sont": 238,
  "yi": 239,
  "▁pr": 240,
  "ni": 241,
  "ut": 242,
  "▁den": 243,
  "▁sur": 244,
  "zu": 245,
  "▁ré": 246,
  "rit": 247,
  "▁ave": 248,
  "▁kelen": 249,
  "ux": 250,
  "▁fait": 251,
  "▁con": 252,
  "▁bari": 253,
  "▁bɔ": 254,
  "ab": 255,
  "isi": 256,
  "▁ils": 257,
  "▁!": 258,
  "ogo": 259,
  "aw": 260,
  "▁dit": 261,
  "ara": 262,
  "ff": 263,
  "▁mi": 264,
  "int": 265,
  "▁san": 266,
  "▁jour": 267,
  "que": 268,
  "▁sɔrɔ": 269,
  "ire": 270,
  "et": 271,
  "tigi": 272,
  "cɛ": 273,
  "▁ju": 274,
  "▁mun": 275,
  "▁mo": 276,
  "▁lɔn": 277,
  "▁fana": 278,
  "▁peu": 279,
  "▁son": 280,
  "uso": 281,
  "ila": 282,
  "ort": 283,
  "▁ai": 284,
  "▁ki": 285,
  "▁yɛrɛ": 286,
  "▁kun": 287,
  "mes": 288,
  "gn": 289,
  "lo": 290,
  "▁li": 291,
  "fa": 292,
  "▁masa": 293,
  "ɲɛ": 294,
  "elle": 295,
  "▁avec": 296,
  "min": 297,
  "vi": 298,
  "▁pro": 299,
  "▁minw": 300,
  "▁ou": 301,
  "oir": 302,
  "être": 303,
  "ez": 304,
  "ille": 305,
  "▁dis": 306,
  "▁suis": 307,
  "▁al": 308,
  "▁moi": 309,
  "ens": 310,
  "ins": 311,
  "▁comme": 312,
  "▁kuma": 313,
  "▁ci": 314,
  "tu": 315,
  "am": 316,
  "▁yi": 317,
  "▁bon": 318,
  "omme": 319,
  "▁ji": 320,
  "▁me": 321,
  "▁kos": 322,
  "▁no": 323,
  "ésus": 324,
  "lan": 325,
  "vait": 326,
  "▁5": 327,
  "▁elle": 328,
  "▁jésus": 329,
  "mɛ": 330,
  "iti": 331,
  "rès": 332,
  "▁fo": 333,
  "uru": 334,
  "▁fe": 335,
  "kɛ": 336,
  "ouv": 337,
  "▁yen": 338,
  "▁ra": 339,
  "ile": 340,
  "▁dugu": 341,
  "▁été": 342,
  "▁faire": 343,
  "ɔgɔn": 344,
  "rent": 345,
  "▁leur": 346,
  "▁z": 347,
  "jour": 348,
  "rai": 349,
  "ême": 350,
  "▁ɲin": 351,
  "▁ɲa": 352,
  "▁tous": 353,
  "▁tuma": 354,
  "anna": 355,
  "▁6": 356,
  "baga": 357,
  "ré": 358,
  "▁cogo": 359,
  "▁ga": 360,
  "ils": 361,
  "isa": 362,
  "tes": 363,
  "▁kana": 364,
  "▁ale": 365,
  "fi": 366,
  "ors": 367,
  "ants": 368,
  "▁av": 369,
  "▁bo": 370,
  "▁nga": 371,
  "tres": 372,
  "▁yezu": 373,
  "▁baara": 374,
  "mu": 375,
  "lɔ": 376,
  "ussi": 377,
  "as": 378,
  "▁kɔrɔ": 379,
  "denw": 380,
  "bɛ": 381,
  "une": 382,
  "▁ban": 383,
  "bu": 384,
  "▁kɛra": 385,
  "▁tugu": 386,
  "uis": 387,
  "bi": 388,
  "al": 389,
  "ki": 390,
  "▁bien": 391,
  "▁fils": 392,
  "ble": 393,
  "▁20": 394,
  "▁vo": 395,
  "▁aussi": 396,
  "▁nka": 397,
  "▁cɛ": 398,
  "▁ans": 399,
  "▁ent": 400,
  "était": 401,
  "esp": 402,
  "cc": 403,
  "▁ter": 404,
  "▁ri": 405,
  "▁10": 406,
  "ite": 407,
  "ru": 408,
  "▁kanu": 409,
  "▁sara": 410,
  "▁in": 411,
  "▁enf": 412,
  "▁wo": 413,
  "▁on": 414,
  "ité": 415,
  "du": 416,
  "▁yɔrɔ": 417,
  "▁8": 418,
  "ign": 419,
  "co": 420,
  "né": 421,
  "ɛlɛ": 422,
  "tte": 423,
  "uman": 424,
  "ani": 425,
  "▁olu": 426,
  "▁quel": 427,
  "▁muso": 428,
  "▁wanna": 429,
  "▁père": 430,
  "ir": 431,
  "che": 432,
  "▁tr": 433,
  "▁nom": 434,
  "ance": 435,
  "▁ses": 436,
  "mana": 437,
  "▁mɛn": 438,
  "▁ont": 439,
  "▁car": 440,
  "▁kalan": 441,
  "▁était": 442,
  "ine": 443,
  "▁jama": 444,
  "▁ar": 445,
  "▁7": 446,
  "uni": 447,
  "▁sera": 448,
  "▁cela": 449,
  "▁tra": 450,
  "▁être": 451,
  "▁monde": 452,
  "wa": 453,
  "▁peut": 454,
  "▁app": 455,
  "nin": 456,
  "▁même": 457,
  "iss": 458,
  "ter": 459,
  "to": 460,
  "riya": 461,
  "▁pers": 462,
  "▁tɔ": 463,
  "▁dɛ": 464,
  "▁9": 465,
  "▁do": 466,
  "▁saan": 467,
  "▁jus": 468,
  "oup": 469,
  "lima": 470,
  "yɛ": 471,
  "ommes": 472,
  "▁ɲɔgɔn": 473,
  "▁19": 474,
  "kolo": 475,
  "òn": 476,
  "vez": 477,
  "at": 478,
  "bre": 479,
  "onn": 480,
  "igneur": 481,
  "ama": 482,
  "lé": 483,
  "▁fem": 484,
  "hui": 485,
  "jourd": 486,
  "▁gw": 487,
  "▁wɛrɛ": 488,
  "▁saba": 489,
  "and": 490,
  "▁seigneur": 491,
  "▁loon": 492,
  "▁mɔgɔw": 493,
  "gɛ": 494,
  "▁vie": 495,
  "▁nun": 496,
  "▁fɔlɔ": 497,
  "ye": 498,
  "vous": 499,
  "ul": 500,
  "▁jo": 501,
  "▁comp": 502,
  "app": 503,
  "ini": 504,
  "▁cette": 505,
  "éc": 506,
  "▁mort": 507,
  "▁avait": 508,
  "▁sira": 509,
  "?\"": 510,
  "yɔrɔ": 511,
  "ph": 512,
  "▁ke": 513,
  "▁gran": 514,
  "▁cel": 515,
  "mɔgɔ": 516,
  "aient": 517,
  "ale": 518,
  "aman": 519,
  "homme": 520,
  "mis": 521,
  "▁ten": 522,
  "▁tena": 523,
  "▁as": 524,
  "▁aux": 525,
  "▁.": 526,
  "▁sou": 527,
  "▁aujourd": 528,
  "ju": 529,
  "▁es": 530,
  "av": 531,
  "fɛ": 532,
  "▁fɛɛn": 533,
  "▁ex": 534,
  "endre": 535,
  "▁fɔɔ": 536,
  "▁temp": 537,
  "wu": 538,
  "▁barika": 539,
  "▁bè": 540,
  "usu": 541,
  "▁waa": 542,
  "▁nu": 543,
  "mɛn": 544,
  "quoi": 545,
  "▁enfants": 546,
  "ku": 547,
  "oo": 548,
  "▁celui": 549,
  "tions": 550,
  "▁va": 551,
  "▁deux": 552,
  "▁rép": 553,
  "rist": 554,
  "▁ɲinin": 555,
  ":1": 556,
  "ça": 557,
  "ji": 558,
  "▁fan": 559,
  "▁deen": 560,
  "▁matigi": 561,
  "▁po": 562,
  "▁tro": 563,
  "▁pourquoi": 564,
  "▁15": 565,
  "▁tile": 566,
  "muso": 567,
  "▁18": 568,
  "▁seu": 569,
  "▁tɔgɔ": 570,
  "▁caaman": 571,
  "▁cont": 572,
  "gne": 573,
  "▁jigi": 574,
  "▁kama": 575,
  "core": 576,
  "▁tan": 577,
  "▁dev": 578,
  "▁ro": 579,
  "▁alors": 580,
  "isra": 581,
  "▁ceux": 582,
  "▁lab": 583,
  "▁encore": 584,
  "▁ser": 585,
  "ence": 586,
  "▁kris": 587,
  "ue": 588,
  "kan": 589,
  "▁ben": 590,
  "près": 591,
  "▁oui": 592,
  "mé": 593,
  "be": 594,
  "▁for": 595,
  "▁kè": 596,
  "kili": 597,
  "ise": 598,
  "ɔrɔn": 599,
  "za": 600,
  "▁11": 601,
  "▁13": 602,
  "▁12": 603,
  "dé": 604,
  "lon": 605,
  "▁pi": 606,
  "ho": 607,
  "ure": 608,
  "vre": 609,
  "▁femme": 610,
  "ler": 611,
  "ex": 612,
  "yɛli": 613,
  "oire": 614,
  "▁lon": 615,
  "▁non": 616,
  "▁ces": 617,
  "éta": 618,
  "ces": 619,
  "so": 620,
  "▁kala": 621,
  "onne": 622,
  "▁mes": 623,
  "▁dencɛ": 624,
  "▁jamana": 625,
  "òg": 626,
  "isan": 627,
  "née": 628,
  "ɔbɛ": 629,
  "▁puis": 630,
  "eurs": 631,
  "▁we": 632,
  "érit": 633,
  "▁sigi": 634,
  "▁nunu": 635,
  "lement": 636,
  "▁très": 637,
  "▁homme": 638,
  "ouve": 639,
  "▁dɔw": 640,
  "▁kosɔn": 641,
  "ali": 642,
  "▁toi": 643,
  "▁comment": 644,
  "aime": 645,
  "vais": 646,
  "▁où": 647,
  "▁14": 648,
  "ges": 649,
  "▁jours": 650,
  "ger": 651,
  "êtes": 652,
  "je": 653,
  "▁tɛmɛ": 654,
  "fu": 655,
  "▁lu": 656,
  "▁donc": 657,
  "▁rien": 658,
  "▁siran": 659,
  "▁17": 660,
  "▁fila": 661,
  "isira": 662,
  "ient": 663,
  "rd": 664,
  "endant": 665,
  "▁yan": 666,
  "ord": 667,
  "▁yira": 668,
  "▁jaab": 669,
  "ation": 670,
  "▁foyi": 671,
  "ɔni": 672,
  "ction": 673,
  "▁beau": 674,
  "▁vrai": 675,
  "▁(": 676,
  "▁mari": 677,
  "▁sin": 678,
  "pe": 679,
  "ël": 680,
  "▁ça": 681,
  "jugu": 682,
  "▁fi": 683,
  "▁yes": 684,
  "▁fò": 685,
  "▁tigi": 686,
  "▁bu": 687,
  "▁temps": 688,
  "▁che": 689,
  "anin": 690,
  "eure": 691,
  "ts": 692,
  "00": 693,
  "▁pla": 694,
  "ép": 695,
  "▁faga": 696,
  "▁pos": 697,
  "▁grand": 698,
  "▁dire": 699,
  "▁mii": 700,
  "ond": 701,
  "▁éc": 702,
  "entre": 703,
  "vo": 704,
  "▁maison": 705,
  "esprit": 706,
  "▁jan": 707,
  "mb": 708,
  "▁pri": 709,
  "▁_": 710,
  "▁sen": 711,
  "▁peur": 712,
  "▁bolo": 713,
  "▁filɛ": 714,
  "zi": 715,
  "▁jusqu": 716,
  "▁nii": 717,
  "▁masacɛ": 718,
  "▁16": 719,
  "▁mara": 720,
  "▁sisan": 721,
  "▁dan": 722,
  "rait": 723,
  "ow": 724,
  "▁sɔn": 725,
  "ɲa": 726,
  "▁roi": 727,
  "ver": 728,
  "òr": 729,
  "▁éta": 730,
  "ys": 731,
  "▁terre": 732,
  "▁ven": 733,
  "israël": 734,
  "▁sɔ": 735,
  "▁deman": 736,
  "▁per": 737,
  "▁see": 738,
  "ques": 739,
  "bagaw": 740,
  "▁cɛɛ": 741,
  "▁ada": 742,
  "▁diɲɛ": 743,
  "isirayɛli": 744,
  ":2": 745,
  "▁mu": 746,
  "tɔ": 747,
  "ion": 748,
  "▁cha": 749,
  "hi": 750,
  "▁jé": 751,
  "èrent": 752,
  "▁jaabi": 753,
  "▁êtes": 754,
  "vé": 755,
  "kun": 756,
  "tant": 757,
  "▁déc": 758,
  "▁kɛlɛ": 759,
  "▁kosɔbɛ": 760,
  "▁vérit": 761,
  "▁cons": 762,
  "▁minɛ": 763,
  "▁parce": 764,
  "▁là": 765,
  "yara": 766,
  "▁ɲininga": 767,
  "use": 768,
  "▁dusu": 769,
  "fe": 770,
  "nu": 771,
  "▁rest": 772,
  "▁bɛ": 773,
  "▁x": 774,
  "▁fois": 775,
  "mo": 776,
  "sé": 777,
  "muni": 778,
  "òrò": 779,
  "▁lɔ": 780,
  "▁eux": 781,
  "▁yesu": 782,
  "▁24": 783,
  "▁22": 784,
  "▁waga": 785,
  "▁autres": 786,
  "tt": 787,
  "ème": 788,
  "uma": 789,
  "acc": 790,
  "▁soit": 791,
  "coup": 792,
  "vent": 793,
  "èn": 794,
  "▁christ": 795,
  "▁sommes": 796,
  "▁isirayɛli": 797,
  "▁beaucoup": 798,
  "▁krista": 799,
  "....": 800,
  "▁conna": 801,
  "▁toute": 802,
  "jours": 803,
  "▁parti": 804,
  "▁quand": 805,
  "urs": 806,
  "▁toujours": 807,
  "▁eff": 808,
  "▁bɔra": 809,
  "▁sɛ": 810,
  "ɛna": 811,
  "▁ain": 812,
  "▁hakili": 813,
  "▁pris": 814,
  "▁ville": 815,
  "▁taama": 816,
  "bali": 817,
  "orte": 818,
  "▁kuntigi": 819,
  "▁voi": 820,
  "▁pre": 821,
  "▁ret": 822,
  "ête": 823,
  "▁jamais": 824,
  "▁trois": 825,
  "ògò": 826,
  "yez": 827,
  "▁21": 828,
  "▁dɛmɛ": 829,
  "▁arri": 830,
  "pi": 831,
  "▁fara": 832,
  "▁bila": 833,
  "▁damin": 834,
  "▁vérité": 835,
  "▁nana": 836,
  "ose": 837,
  "fin": 838,
  "▁masaya": 839,
  "▁'": 840,
  "▁faa": 841,
  "▁mus": 842,
  "ag": 843,
  "ita": 844,
  "ense": 845,
  "isse": 846,
  "ess": 847,
  "fɛn": 848,
  "▁fin": 849,
  "ze": 850,
  "éri": 851,
  "▁sariya": 852,
  "▁soo": 853,
  "▁masaba": 854,
  "tin": 855,
  "ad": 856,
  "autre": 857,
  "▁pe": 858,
  "kaw": 859,
  "▁lors": 860,
  "ole": 861,
  "▁ainsi": 862,
  "len": 863,
  "▁23": 864,
  "▁adama": 865,
  "▁[": 866,
  "▁wu": 867,
  "▁ab": 868,
  "▁balima": 869,
  "▁personne": 870,
  "omp": 871,
  "▁dumuni": 872,
  "cip": 873,
  "▁vou": 874,
  "▁...": 875,
  "▁tiɲɛ": 876,
  "▁ɲi": 877,
  "ke": 878,
  "▁walima": 879,
  "autres": 880,
  "▁jugu": 881,
  "▁mar": 882,
  "▁nan": 883,
  "ait": 884,
  "▁notre": 885,
  "▁sais": 886,
  "mer": 887,
  "▁lan": 888,
  "▁tagara": 889,
  "▁25": 890,
  "ct": 891,
  "▁ɲɛ": 892,
  "ments": 893,
  "wɛ": 894,
  "▁sig": 895,
  "▁fu": 896,
  "▁yala": 897,
  "▁faut": 898,
  "▁ton": 899,
  "▁wagati": 900,
  "bli": 901,
  "éch": 902,
  "olon": 903,
  "▁nis": 904,
  "▁trava": 905,
  "▁veux": 906,
  "▁gu": 907,
  "▁mère": 908,
  "▁kɔni": 909,
  "▁roya": 910,
  "ras": 911,
  "out": 912,
  "▁cɛma": 913,
  "▁kisi": 914,
  "▁wi": 915,
  "▁ɲini": 916,
  "erre": 917,
  "▁kab": 918,
  "▁ɲana": 919,
  "rais": 920,
  "▁hommes": 921,
  "▁sau": 922,
  "▁ayi": 923,
  "gé": 924,
  "▁yɛlɛ": 925,
  "ents": 926,
  "pt": 927,
  "anw": 928,
  "▁co": 929,
  "▁nisɔn": 930,
  "ɔɔ": 931,
  "▁dɔɔni": 932,
  "▁toutes": 933,
  "yo": 934,
  "kɔrɔ": 935,
  "▁leurs": 936,
  "ist": 937,
  "enant": 938,
  "vit": 939,
  "▁comm": 940,
  "diya": 941,
  "▁,": 942,
  "▁jɔn": 943,
  "▁pu": 944,
  "ume": 945,
  "▁cro": 946,
  "▁seul": 947,
  "▁peux": 948,
  "fs": 949,
  "ouveau": 950,
  "même": 951,
  "oses": 952,
  "th": 953,
  "▁til": 954,
  "▁quoi": 955,
  "▁nouveau": 956,
  "▁dugukolo": 957,
  "▁el": 958,
  "▁donné": 959,
  "sion": 960,
  "rer": 961,
  "▁té": 962,
  "▁kaba": 963,
  "▁mis": 964,
  "▁hali": 965,
  "tern": 966,
  "its": 967,
  "▁choses": 968,
  "▁too": 969,
  "étais": 970,
  "là": 971,
  "rus": 972,
  "▁jɛn": 973,
  "ala": 974,
  "▁premi": 975,
  "▁zu": 976,
  "▁tɔɔrɔ": 977,
  "▁après": 978,
  "▁bes": 979,
  "▁pet": 980,
  "avais": 981,
  "▁cor": 982,
  "▁personn": 983,
  "▁daa": 984,
  "▁cer": 985,
  "▁sankolo": 986,
  "ina": 987,
  "▁pays": 988,
  "▁afin": 989,
  "eau": 990,
  "▁miiri": 991,
  "cé": 992,
  "▁wele": 993,
  "▁travail": 994,
  "▁rep": 995,
  "yé": 996,
  "enir": 997,
  "▁parole": 998,
  "▁bonne": 999,
  "itu": 1000,
  "aire": 1001,
  "!\"": 1002,
  "▁royaume": 1003,
  "gan": 1004,
  "▁sun": 1005,
  "olu": 1006,
  "▁dè": 1007,
  "oin": 1008,
  "▁peup": 1009,
  "▁fut": 1010,
  "▁maint": 1011,
  "cher": 1012,
  "▁part": 1013,
  "▁diff": 1014,
  "rères": 1015,
  "▁waati": 1016,
  "▁vu": 1017,
  "ja": 1018,
  "endu": 1019,
  "▁saraka": 1020,
  "puis": 1021,
  "eru": 1022,
  "▁vraiment": 1023,
  "▁eu": 1024,
  "▁frères": 1025,
  "▁bii": 1026,
  "▁cas": 1027,
  "avez": 1028,
  "hova": 1029,
  "▁nombre": 1030,
  "inin": 1031,
  "▁avez": 1032,
  "emp": 1033,
  "ser": 1034,
  "▁fisa": 1035,
  "▁saga": 1036,
  "ante": 1037,
  "▁acc": 1038,
  "▁votre": 1039,
  "nɛ": 1040,
  "▁bé": 1041,
  "yp": 1042,
  "gun": 1043,
  "vers": 1044,
  "▁entre": 1045,
  "bat": 1046,
  "der": 1047,
  "▁vers": 1048,
  "▁26": 1049,
  "▁fam": 1050,
  "▁aime": 1051,
  "▁kalo": 1052,
  "▁kiba": 1053,
  "▁cré": 1054,
  "gent": 1055,
  "▁wɛrɛw": 1056,
  "▁étaient": 1057,
  "ca": 1058,
  "▁am": 1059,
  "▁gens": 1060,
  "▁quest": 1061,
  "▁pendant": 1062,
  "▁ph": 1063,
  "▁besoin": 1064,
  "oro": 1065,
  "▁dun": 1066,
  "▁mògò": 1067,
  "oute": 1068,
  "▁maintenant": 1069,
  "aux": 1070,
  "▁gr": 1071,
  "do": 1072,
  "▁sans": 1073,
  "ona": 1074,
  "▁yafa": 1075,
  "▁saint": 1076,
  "gue": 1077,
  "rez": 1078,
  "▁donne": 1079,
  "▁suu": 1080,
  "ɲuman": 1081,
  "ner": 1082,
  "alem": 1083,
  "▁personnes": 1084,
  "▁avons": 1085,
  "▁mois": 1086,
  "▁daminɛ": 1087,
  "▁contre": 1088,
  "laki": 1089,
  "▁kojugu": 1090,
  "▁loi": 1091,
  "▁ah": 1092,
  "jet": 1093,
  "▁28": 1094,
  "▁chose": 1095,
  "ɲɛn": 1096,
  "▁mé": 1097,
  "▁dama": 1098,
  "▁pou": 1099,
  "oni": 1100,
  "lè": 1101,
  "▁teri": 1102,
  "▁fr": 1103,
  "enf": 1104,
  "▁nisɔndiya": 1105,
  "▁kaan": 1106,
  "▁201": 1107,
  "ître": 1108,
  "avait": 1109,
  "▁pré": 1110,
  "▁envo": 1111,
  "▁siya": 1112,
  "rusalem": 1113,
  "▁ele": 1114,
  "cun": 1115,
  "▁avoir": 1116,
  "▁éga": 1117,
  "▁laga": 1118,
  "▁prés": 1119,
  "inter": 1120,
  "cer": 1121,
  "lisa": 1122,
  "▁bato": 1123,
  "elles": 1124,
  "▁jérusalem": 1125,
  "aut": 1126,
  "lait": 1127,
  "▁can": 1128,
  "▁depuis": 1129,
  "▁prop": 1130,
  "▁kalandenw": 1131,
  "bɛn": 1132,
  "▁tè": 1133,
  "▁bana": 1134,
  "▁peuple": 1135,
  "▁laj": 1136,
  "▁point": 1137,
  "▁yɛ": 1138,
  "▁trouv": 1139,
  "cile": 1140,
  "wuda": 1141,
  "▁saa": 1142,
  "ôt": 1143,
  "ing": 1144,
  "mɔgɔw": 1145,
  "fɔ": 1146,
  "con": 1147,
  "▁moins": 1148,
  "▁fais": 1149,
  "▁sav": 1150,
  "iste": 1151,
  "lɛmu": 1152,
  "èrè": 1153,
  "▁ac": 1154,
  "bo": 1155,
  "ɲɔgɔn": 1156,
  "▁répond": 1157,
  "▁nouv": 1158,
  "ac": 1159,
  "amour": 1160,
  "▁certa": 1161,
  "▁journée": 1162,
  "kɛla": 1163,
  "rance": 1164,
  "zalɛmu": 1165,
  "▁mal": 1166,
  "eruzalɛmu": 1167,
  "ɔgɔma": 1168,
  "▁mana": 1169,
  "▁senuman": 1170,
  "▁autre": 1171,
  "▁fɔra": 1172,
  "▁walisa": 1173,
  "vid": 1174,
  "▁met": 1175,
  "▁janko": 1176,
  "bari": 1177,
  "▁wolo": 1178,
  "▁say": 1179,
  "▁heure": 1180,
  "nan": 1181,
  "▁zeruzalɛmu": 1182,
  "ha": 1183,
  "ères": 1184,
  "kari": 1185,
  "▁dou": 1186,
  "▁mont": 1187,
  "▁sy": 1188,
  "▁matin": 1189,
  "gɔ": 1190,
  "▁dɔrɔn": 1191,
  "amu": 1192,
  "▁imp": 1193,
  "▁bible": 1194,
  "▁furu": 1195,
  "▁retour": 1196,
  "▁mer": 1197,
  "su": 1198,
  "piti": 1199,
  "▁fari": 1200,
  "▁pai": 1201,
  "▁simp": 1202,
  "▁labɛn": 1203,
  "ines": 1204,
  "▁dom": 1205,
  "▁elles": 1206,
  "▁kɛnɛ": 1207,
  "▁ciel": 1208,
  "▁discip": 1209,
  "enn": 1210,
  "▁seen": 1211,
  "ées": 1212,
  "▁bɔn": 1213,
  "gwɛ": 1214,
  "▁chez": 1215,
  "▁nɔgɔ": 1216,
  "enne": 1217,
  "▁tora": 1218,
  "▁confi": 1219,
  "▁sui": 1220,
  "ban": 1221,
  "kɔ": 1222,
  "▁boɲa": 1223,
  "nga": 1224,
  "▁laban": 1225,
  "▁att": 1226,
  "▁or": 1227,
  "cu": 1228,
  "▁.\"": 1229,
  "ente": 1230,
  "ob": 1231,
  "▁denmis": 1232,
  "bɔ": 1233,
  "▁foi": 1234,
  "▁bara": 1235,
  "▁isirayɛlidenw": 1236,
  "▁dafa": 1237,
  "▁fili": 1238,
  "▁wari": 1239,
  "!!": 1240,
  "▁proph": 1241,
  ":3": 1242,
  "▁30": 1243,
  "▁rés": 1244,
  "▁gwɛlɛ": 1245,
  "ck": 1246,
  "▁voir": 1247,
  "▁passé": 1248,
  "▁sɔgɔma": 1249,
  "▁déb": 1250,
  "▁dɔgɔ": 1251,
  "▁dawuda": 1252,
  "▁27": 1253,
  "▁prê": 1254,
  "▁kabako": 1255,
  "œur": 1256,
  "▁tugun": 1257,
  "▁chemin": 1258,
  "▁quelqu": 1259,
  "▁cr": 1260,
  "▁jumɛn": 1261,
  "▁pouv": 1262,
  "pa": 1263,
  "▁gar": 1264,
  "▁koow": 1265,
  "▁envi": 1266,
  "▁anw": 1267,
  "▁kaso": 1268,
  "▁dés": 1269,
  "▁ren": 1270,
  "▁paix": 1271,
  "▁nafa": 1272,
  "jan": 1273,
  "▁kit": 1274,
  "▁th": 1275,
  "rir": 1276,
  "illes": 1277,
  "▁musa": 1278,
  "ég": 1279,
  "▁love": 1280,
  "til": 1281,
  "▁diyara": 1282,
  "mun": 1283,
  "▁ɲaa": 1284,
  "▁cour": 1285,
  "ɛnw": 1286,
  "cha": 1287,
  "eures": 1288,
  "▁‹": 1289,
  "▁ezi": 1290,
  "imp": 1291,
  "▁taa": 1292,
  "▁donna": 1293,
  "▁faamu": 1294,
  "▁saya": 1295,
  "▁vais": 1296,
  "▁dòn": 1297,
  "▁également": 1298,
  "▁veu": 1299,
  "▁david": 1300,
  "▁fè": 1301,
  "ɛnɛ": 1302,
  ".'": 1303,
  "moi": 1304,
  "▁mako": 1305,
  "▁kabini": 1306,
  "▁péch": 1307,
  "christ": 1308,
  "▁effet": 1309,
  "▁ver": 1310,
  "▁ɲuman": 1311,
  "▁ɲɛn": 1312,
  "▁kasi": 1313,
  "baw": 1314,
  "▁avant": 1315,
  "qui": 1316,
  "cogo": 1317,
  "▁répon": 1318,
  "▁ɔ": 1319,
  "▁kibaru": 1320,
  "▁uns": 1321,
  "for": 1322,
  "▁disciples": 1323,
  "▁diman": 1324,
  "▁enfant": 1325,
  "▁â": 1326,
  "▁lagaw": 1327,
  "▁ezipiti": 1328,
  "enti": 1329,
  "des": 1330,
  "able": 1331,
  "urun": 1332,
  "▁cieux": 1333,
  "don": 1334,
  "ture": 1335,
  "▁frère": 1336,
  "▁ny": 1337,
  "▁livre": 1338,
  "▁nuit": 1339,
  "▁zan": 1340,
  "▁dép": 1341,
  "att": 1342,
  "inw": 1343,
  "▁col": 1344,
  "▁début": 1345,
  "▁ense": 1346,
  "▁ima": 1347,
  "itigi": 1348,
  "▁savez": 1349,
  "▁écrit": 1350,
  "▁kon": 1351,
  "▁29": 1352,
  "▁doit": 1353,
  "▁segi": 1354,
  "argent": 1355,
  "▁0": 1356,
  "▁bèè": 1357,
  "masa": 1358,
  "▁sababu": 1359,
  "non": 1360,
  "▁envoyé": 1361,
  "ète": 1362,
  "▁kunna": 1363,
  "▁famille": 1364,
  ".›": 1365,
  "agit": 1366,
  "▁coup": 1367,
  "▁soi": 1368,
  "▁sabu": 1369,
  "kè": 1370,
  "▁deenw": 1371,
  "ît": 1372,
  "liw": 1373,
  "kil": 1374,
  "ang": 1375,
  "▁appel": 1376,
  "▁40": 1377,
  "▁rega": 1378,
  "▁denmuso": 1379,
  "▁kira": 1380,
  "folo": 1381,
  "▁jui": 1382,
  "▁kow": 1383,
  "▁cher": 1384,
  "vres": 1385,
  "ilu": 1386,
  "abu": 1387,
  "▁der": 1388,
  "ïse": 1389,
  "▁nos": 1390,
  "ypte": 1391,
  "▁voit": 1392,
  "▁alla": 1393,
  "lase": 1394,
  "urent": 1395,
  "▁dɔn": 1396,
  "avoir": 1397,
  "▁grande": 1398,
  "▁juman": 1399,
  "▁moïse": 1400,
  "arri": 1401,
  "▁denw": 1402,
  "oso": 1403,
  "▁fille": 1404,
  "sible": 1405,
  "▁facɛ": 1406,
  "▁tɛmɛn": 1407,
  "fo": 1408,
  "▁sé": 1409,
  "▁jii": 1410,
  "lent": 1411,
  "oie": 1412,
  "mble": 1413,
  "vant": 1414,
  "▁sii": 1415,
  "▁devant": 1416,
  "▁mala": 1417,
  "▁daali": 1418,
  "▁souff": 1419,
  "enu": 1420,
  "yezu": 1421,
  "▁hɛrɛ": 1422,
  "▁fanga": 1423,
  "▁gl": 1424,
  "oles": 1425,
  "▁ŋ": 1426,
  "▁femmes": 1427,
  "▁nouvelle": 1428,
  "▁go": 1429,
  "inte": 1430,
  "▁cause": 1431,
  "dez": 1432,
  "▁déj": 1433,
  "ed": 1434,
  "▁aga": 1435,
  "▁kunun": 1436,
  "wi": 1437,
  "▁mani": 1438,
  ",\"": 1439,
  "▁tiɲɛn": 1440,
  "▁ép": 1441,
  "▁cɛn": 1442,
  "▁facile": 1443,
  "cti": 1444,
  "▁fit": 1445,
  "▁déjà": 1446,
  "▁rev": 1447,
  "▁heures": 1448,
  "▁cou": 1449,
  "▁question": 1450,
  "tru": 1451,
  "illi": 1452,
  "ves": 1453,
  "▁kɔse": 1454,
  "▁heureux": 1455,
  "▁kɛmɛ": 1456,
  "▁simple": 1457,
  "çon": 1458,
  "▁ple": 1459,
  "▁long": 1460,
  "rendre": 1461,
  "▁31": 1462,
  "▁venu": 1463,
  "sɛ": 1464,
  "ellement": 1465,
  "▁manger": 1466,
  "▁cet": 1467,
  "▁wɔ": 1468,
  "▁tom": 1469,
  "▁kuun": 1470,
  "▁morts": 1471,
  "tr": 1472,
  "▁confiance": 1473,
  "▁bata": 1474,
  "▁ob": 1475,
  "▁cin": 1476,
  "▁pense": 1477,
  "cle": 1478,
  "ps": 1479,
  "▁baa": 1480,
  "gin": 1481,
  "▁ad": 1482,
  "hun": 1483,
  "▁bibu": 1484,
  "▁lorsque": 1485,
  ".†": 1486,
  "bolo": 1487,
  "▁rend": 1488,
  "▁wala": 1489,
  "▁ak": 1490,
  "▁aba": 1491,
  "▁auprès": 1492,
  "he": 1493,
  "▁balimaw": 1494,
  "▁bou": 1495,
  "xi": 1496,
  "illeurs": 1497,
  "▁parle": 1498,
  "▁33": 1499,
  "▁dro": 1500,
  "▁entendu": 1501,
  "▁prison": 1502,
  "▁kulu": 1503,
  "▁lajɛn": 1504,
  "pendant": 1505,
  "▁jean": 1506,
  "hu": 1507,
  "▁kara": 1508,
  "▁pens": 1509,
  "▁sor": 1510,
  "▁hai": 1511,
  "rɛn": 1512,
  "▁he": 1513,
  "▁makari": 1514,
  "▁mom": 1515,
  "rô": 1516,
  "mɔ": 1517,
  "ligi": 1518,
  "tement": 1519,
  "▁faan": 1520,
  "▁tigɛ": 1521,
  "ration": 1522,
  "▁adamaden": 1523,
  "▁seulement": 1524,
  "▁soir": 1525,
  "▁vient": 1526,
  "▁mɛlɛ": 1527,
  "tan": 1528,
  "issance": 1529,
  "▁sago": 1530,
  "▁bibulu": 1531,
  "age": 1532,
  "pé": 1533,
  "amaya": 1534,
  "▁kanuya": 1535,
  "▁quelques": 1536,
  "ront": 1537,
  "ition": 1538,
  "▁mɛlɛkɛ": 1539,
  "▁krisita": 1540,
  "dement": 1541,
  "▁lieu": 1542,
  "▁diya": 1543,
  "▁nafolo": 1544,
  "▁minkɛ": 1545,
  "▁mɛ": 1546,
  "▁hakɛ": 1547,
  "▁bɛn": 1548,
  "▁wasa": 1549,
  "▁diffé": 1550,
  "▁38": 1551,
  "yant": 1552,
  "▁grâ": 1553,
  "▁gloire": 1554,
  "▁premier": 1555,
  "ennin": 1556,
  "rifi": 1557,
  "▁joona": 1558,
  "▁cependant": 1559,
  "▁parler": 1560,
  "▁*": 1561,
  "iser": 1562,
  "▁sama": 1563,
  "▁wili": 1564,
  "ét": 1565,
  "▁del": 1566,
  "▁présent": 1567,
  "▁ago": 1568,
  "▁voici": 1569,
  "▁jeune": 1570,
  "nées": 1571,
  "étern": 1572,
  "▁comman": 1573,
  "08": 1574,
  "tigɛ": 1575,
  "▁how": 1576,
  "ché": 1577,
  "ham": 1578,
  "▁mɔ": 1579,
  "▁hakil": 1580,
  "▁jehova": 1581,
  "▁minnu": 1582,
  "ern": 1583,
  "▁ins": 1584,
  "rire": 1585,
  "▁cap": 1586,
  "ùn": 1587,
  "▁kɔsegi": 1588,
  "▁derni": 1589,
  "rie": 1590,
  "bra": 1591,
  "▁sujet": 1592,
  "ert": 1593,
  "▁34": 1594,
  "ògòn": 1595,
  "dre": 1596,
  "exc": 1597,
  "▁corps": 1598,
  "▁peuvent": 1599,
  "lom": 1600,
  "▁sarakalase": 1601,
  "▁tɔɔ": 1602,
  "▁cœur": 1603,
  "▁gi": 1604,
  "avons": 1605,
  "▁puiss": 1606,
  "issa": 1607,
  "▁juifs": 1608,
  "ention": 1609,
  "rés": 1610,
  "▁sous": 1611,
  "▁main": 1612,
  "▁ɲɛnamaya": 1613,
  "art": 1614,
  "▁tour": 1615,
  "▁monta": 1616,
  "▁place": 1617,
  "▁lad": 1618,
  "▁yɛn": 1619,
  "▁nɛ": 1620,
  "▁32": 1621,
  "cont": 1622,
  "▁kɔmɔgɔw": 1623,
  "ɲè": 1624,
  "ches": 1625,
  "▁dont": 1626,
  "▁quelque": 1627,
  "▁disp": 1628,
  "▁50": 1629,
  "▁commen": 1630,
  "cune": 1631,
  "▁rec": 1632,
  "kuma": 1633,
  "▁avaient": 1634,
  "ie": 1635,
  "rin": 1636,
  "ieurs": 1637,
  "▁dois": 1638,
  "▁wolon": 1639,
  "▁ge": 1640,
  "▁abada": 1641,
  "enez": 1642,
  "dée": 1643,
  "ɔgɔw": 1644,
  "▁plusieurs": 1645,
  "ites": 1646,
  "▁huma": 1647,
  "▁mou": 1648,
  "▁reç": 1649,
  "▁servit": 1650,
  "▁alabat": 1651,
  "▁soyez": 1652,
  "▁kɛwa": 1653,
  "▁trouve": 1654,
  "ayi": 1655,
  "▁sɛbɛ": 1656,
  "▁donner": 1657,
  "▁ho": 1658,
  "exp": 1659,
  "▁vos": 1660,
  "atre": 1661,
  "bles": 1662,
  "▁fani": 1663,
  "▁hab": 1664,
  "▁juru": 1665,
  "yer": 1666,
  "ilan": 1667,
  "fé": 1668,
  "▁tɔw": 1669,
  "▁bamuso": 1670,
  "000": 1671,
  "ends": 1672,
  ":4": 1673,
  "▁religi": 1674,
  "jou": 1675,
  "▁prof": 1676,
  "lée": 1677,
  "▁ɲògòn": 1678,
  "▁fɛn": 1679,
  "▁paul": 1680,
  "▁nɔ": 1681,
  "▁35": 1682,
  "▁bapt": 1683,
  "▁pourtant": 1684,
  "▁yé": 1685,
  "heure": 1686,
  "dc": 1687,
  "▁lara": 1688,
  "▁mɛnni": 1689,
  "per": 1690,
  "▁ici": 1691,
  "▁nɛn": 1692,
  "raham": 1693,
  "▁kɛɲɛ": 1694,
  "ron": 1695,
  "nous": 1696,
  "▁chaque": 1697,
  "▁waasa": 1698,
  "rê": 1699,
  "▁sac": 1700,
  "▁dur": 1701,
  "niya": 1702,
  "▁kp": 1703,
  "tuma": 1704,
  "▁aff": 1705,
  "▁vol": 1706,
  "▁prendre": 1707,
  "més": 1708,
  "wifu": 1709,
  "sse": 1710,
  "kin": 1711,
  "▁inter": 1712,
  "▁gé": 1713,
  "▁kam": 1714,
  "▁siɲɛ": 1715,
  "▁ɲaga": 1716,
  "ɛbɛ": 1717,
  "▁akk": 1718,
  "▁alabatoso": 1719,
  "▁kɔlɔ": 1720,
  "▁malo": 1721,
  "▁akkdc": 1722,
  "uve": 1723,
  "▁desc": 1724,
  "▁reste": 1725,
  "▁chan": 1726,
  "▁france": 1727,
  "▁bat": 1728,
  "accomp": 1729,
  "nifi": 1730,
  "▁ali": 1731,
  "▁moment": 1732,
  "▁savoir": 1733,
  "▁rapp": 1734,
  "▁sini": 1735,
  "cation": 1736,
  "▁faites": 1737,
  "dent": 1738,
  "▁sour": 1739,
  "▁kitabu": 1740,
  "appelle": 1741,
  "▁réponse": 1742,
  "▁kosòn": 1743,
  "▁ɔrɔ": 1744,
  "▁yu": 1745,
  "▁deli": 1746,
  "▁joli": 1747,
  "▁décla": 1748,
  "▁eut": 1749,
  "▁pani": 1750,
  "▁fou": 1751,
  "ique": 1752,
  "▁quatre": 1753,
  "▁resp": 1754,
  "▁wuli": 1755,
  "▁yèrè": 1756,
  "▁suite": 1757,
  "▁selon": 1758,
  "issez": 1759,
  "▁mili": 1760,
  "yan": 1761,
  "▁bar": 1762,
  "▁cra": 1763,
  "▁petit": 1764,
  "▁kosɛbɛ": 1765,
  "lise": 1766,
  "▁sang": 1767,
  "▁teli": 1768,
  "▁aimé": 1769,
  "bé": 1770,
  "▁aucun": 1771,
  "éternel": 1772,
  "iya": 1773,
  "aires": 1774,
  "▁hakilitigi": 1775,
  "cla": 1776,
  "▁loo": 1777,
  "▁lumi": 1778,
  "▁ɔrɔmu": 1779,
  "▁aura": 1780,
  "▁faran": 1781,
  "▁off": 1782,
  "▁sorti": 1783,
  "▁esprit": 1784,
  "▁ɛ": 1785,
  "êmes": 1786,
  "▁duni": 1787,
  "▁adamadenw": 1788,
  "ions": 1789,
  "▁jalaki": 1790,
  "ennent": 1791,
  "pu": 1792,
  "▁envie": 1793,
  "▁possible": 1794,
  "▁again": 1795,
  "▁kò": 1796,
  "bili": 1797,
  "mini": 1798,
  "▁kiti": 1799,
  "▁temple": 1800,
  "ôrô": 1801,
  "▁exp": 1802,
  "▁yiri": 1803,
  "▁halaki": 1804,
  "▁mas": 1805,
  "▁train": 1806,
  "isé": 1807,
  "▁répondit": 1808,
  "ures": 1809,
  "wula": 1810,
  "ɔɔn": 1811,
  "gna": 1812,
  "▁souv": 1813,
  ".1": 1814,
  "mbre": 1815,
  "▁sòrò": 1816,
  "▁tanu": 1817,
  "mée": 1818,
  "œu": 1819,
  "kolon": 1820,
  "▁dix": 1821,
  "▁veut": 1822,
  "bres": 1823,
  "▁isra": 1824,
  "▁grâce": 1825,
  "im": 1826,
  "▁fura": 1827,
  "▁emp": 1828,
  "▁tila": 1829,
  "cep": 1830,
  "ernel": 1831,
  "dugu": 1832,
  "igne": 1833,
  "mon": 1834,
  "▁ɲam": 1835,
  "▁ress": 1836,
  "▁kelenpe": 1837,
  "▁cè": 1838,
  "▁font": 1839,
  "▁aucune": 1840,
  "ailleurs": 1841,
  "▁kà": 1842,
  "▁kar": 1843,
  "kow": 1844,
  "arch": 1845,
  "▁passe": 1846,
  "eternel": 1847,
  "▁seront": 1848,
  "euse": 1849,
  "ités": 1850,
  "▁dariya": 1851,
  "▁?\"": 1852,
  "▁pouvoir": 1853,
  "suma": 1854,
  "bagatɔ": 1855,
  "▁gwɛlɛya": 1856,
  "▁parents": 1857,
  "20": 1858,
  "▁eh": 1859,
  "▁amis": 1860,
  "lation": 1861,
  "veil": 1862,
  "▁mieux": 1863,
  "▁=": 1864,
  "▁all": 1865,
  "abord": 1866,
  "▁komi": 1867,
  "▁aller": 1868,
  "▁feu": 1869,
  "▁jaa": 1870,
  "gement": 1871,
  "▁fer": 1872,
  "▁voiture": 1873,
  "▁ass": 1874,
  "▁bali": 1875,
  "▁ru": 1876,
  "▁lɔnniya": 1877,
  "▁lumière": 1878,
  "ss": 1879,
  "▁face": 1880,
  "▁parmi": 1881,
  "▁guerre": 1882,
  "yima": 1883,
  "▁joie": 1884,
  "tice": 1885,
  "▁ibra": 1886,
  "ec": 1887,
  "▁laiss": 1888,
  "▁gra": 1889,
  "wo": 1890,
  "▁venir": 1891,
  "▁ét": 1892,
  "yons": 1893,
  "▁kɔlɔsi": 1894,
  "mps": 1895,
  "▁mati": 1896,
  "▁porte": 1897,
  "▁lorsqu": 1898,
  "▁tulo": 1899,
  "▁né": 1900,
  "manw": 1901,
  "▁zuwifu": 1902,
  "occ": 1903,
  "▁bò": 1904,
  "onté": 1905,
  "téri": 1906,
  "▁pau": 1907,
  "▁yeux": 1908,
  "▁port": 1909,
  "▁tant": 1910,
  "fɛnw": 1911,
  "▁paroles": 1912,
  "▁gal": 1913,
  "▁kumana": 1914,
  "▁200": 1915,
  "appro": 1916,
  "▁kura": 1917,
  "▁loin": 1918,
  "▁sait": 1919,
  "▁trop": 1920,
  "▁jija": 1921,
  "▁servi": 1922,
  "raient": 1923,
  "▁sec": 1924,
  "▁façon": 1925,
  "st": 1926,
  "▁vis": 1927,
  "riture": 1928,
  "▁katu": 1929,
  "▁jati": 1930,
  "▁fon": 1931,
  "▁dò": 1932,
  "▁étern": 1933,
  "ele": 1934,
  "▁lé": 1935,
  "accord": 1936,
  "ass": 1937,
  "▁45": 1938,
  "▁juda": 1939,
  "▁sol": 1940,
  "▁muru": 1941,
  "rec": 1942,
  "hovah": 1943,
  "issent": 1944,
  "utes": 1945,
  "tigiw": 1946,
  "vient": 1947,
  "▁belle": 1948,
  "▁milli": 1949,
  "▁ag": 1950,
  "▁dès": 1951,
  "enfant": 1952,
  "▁sere": 1953,
  "▁langue": 1954,
  "vée": 1955,
  "ène": 1956,
  "gypte": 1957,
  "▁mugan": 1958,
  "lais": 1959,
  "▁kak": 1960,
  "▁>": 1961,
  "user": 1962,
  "▁tard": 1963,
  "tique": 1964,
  "▁dara": 1965,
  "▁aut": 1966,
  "▁tɛna": 1967,
  "▁siginin": 1968,
  "▁contin": 1969,
  "▁partout": 1970,
  "▁at": 1971,
  "▁maloya": 1972,
  "▁signifi": 1973,
  "▁fort": 1974,
  "▁sort": 1975,
  "po": 1976,
  "ere": 1977,
  "▁demande": 1978,
  "▁nɔɔ": 1979,
  "▁pierre": 1980,
  "arti": 1981,
  "uses": 1982,
  "▁maître": 1983,
  "▁ɲiningali": 1984,
  "▁42": 1985,
  "kɛlaw": 1986,
  "▁ayiwa": 1987,
  "▁banbali": 1988,
  "usufu": 1989,
  "▁ibrayima": 1990,
  "uire": 1991,
  "▁prin": 1992,
  "▁jéhovah": 1993,
  "▁rɔ": 1994,
  "▁luka": 1995,
  "▁diffi": 1996,
  "kulu": 1997,
  "▁ama": 1998,
  "▁sigiyɔrɔ": 1999,
  "▁hu": 2000,
  "▁prophète": 2001,
  "▁37": 2002,
  "esse": 2003,
  "aff": 2004,
  "qué": 2005,
  "moins": 2006,
  "▁dogo": 2007,
  "▁back": 2008,
  "▁lafi": 2009,
  "▁prom": 2010,
  "▁rais": 2011,
  "▁nɛɛ": 2012,
  "▁sept": 2013,
  "▁juste": 2014,
  "▁cent": 2015,
  "▁util": 2016,
  "▁trans": 2017,
  "dɛ": 2018,
  "illa": 2019,
  "▁lamɛn": 2020,
  "vés": 2021,
  "▁ɲè": 2022,
  "▁esp": 2023,
  "▁faris": 2024,
  "mais": 2025,
  "▁pied": 2026,
  "▁lun": 2027,
  "▁som": 2028,
  "▁search": 2029,
  "met": 2030,
  "▁dem": 2031,
  "▁rendre": 2032,
  "▁sourire": 2033,
  "▁différent": 2034,
  "▁compr": 2035,
  "▁naani": 2036,
  "▁certains": 2037,
  "▁celle": 2038,
  "▁tête": 2039,
  "▁compte": 2040,
  "lɔn": 2041,
  "▁sema": 2042,
  "▁char": 2043,
  "ori": 2044,
  "▁nɔgɔn": 2045,
  "▁mettre": 2046,
  "gues": 2047,
  "iles": 2048,
  "▁pouvez": 2049,
  "▁chef": 2050,
  "els": 2051,
  "▁foro": 2052,
  "où": 2053,
  "forma": 2054,
  "tal": 2055,
  "gô": 2056,
  "oû": 2057,
  "inɛ": 2058,
  "rise": 2059,
  "▁tɔn": 2060,
  "▁minutes": 2061,
  "gon": 2062,
  "▁wun": 2063,
  "▁muɲ": 2064,
  "▁arrivé": 2065,
  "▁nations": 2066,
  "év": 2067,
  "▁situ": 2068,
  "▁tilan": 2069,
  "▁réal": 2070,
  "ouver": 2071,
  "▁chacun": 2072,
  "▁wolonwula": 2073,
  "▁mɔgɔba": 2074,
  "▁fant": 2075,
  "▁partie": 2076,
  "▁yɛlɛma": 2077,
  "▁dumu": 2078,
  "yɛri": 2079,
  "▁israël": 2080,
  "main": 2081,
  "▁gwɛrɛ": 2082,
  "ore": 2083,
  "rage": 2084,
  "gɛn": 2085,
  "▁39": 2086,
  "▁juguw": 2087,
  "??": 2088,
  "rée": 2089,
  "▁dor": 2090,
  "▁kɔfɛ": 2091,
  "leur": 2092,
  "▁nour": 2093,
  "▁rencont": 2094,
  "▁année": 2095,
  "▁accomp": 2096,
  "▁commence": 2097,
  "onna": 2098,
  "quer": 2099,
  "▁furent": 2100,
  "ill": 2101,
  "masaba": 2102,
  "baa": 2103,
  "▁gb": 2104,
  "▁jose": 2105,
  "mm": 2106,
  "▁mobili": 2107,
  "ɔli": 2108,
  "resse": 2109,
  "▁vois": 2110,
  "fuɛ": 2111,
  "laire": 2112,
  "anta": 2113,
  "ɛɛrɛ": 2114,
  "▁alabatosoba": 2115,
  "▁eli": 2116,
  "bl": 2117,
  "agn": 2118,
  "▁kal": 2119,
  "▁para": 2120,
  "▁trou": 2121,
  "▁ving": 2122,
  "▁péché": 2123,
  "istoire": 2124,
  "▁près": 2125,
  "▁tasuma": 2126,
  "▁ɲanagwɛ": 2127,
  "ès": 2128,
  "ima": 2129,
  "▁ve": 2130,
  "▁sufɛ": 2131,
  "▁fran": 2132,
  "▁quels": 2133,
  "▁joseph": 2134,
  "▁jou": 2135,
  "▁kongo": 2136,
  "▁yusufu": 2137,
  "▁hon": 2138,
  "▁and": 2139,
  "arrive": 2140,
  "▁duuru": 2141,
  "▁première": 2142,
  "▁mùn": 2143,
  "itude": 2144,
  "anan": 2145,
  "foni": 2146,
  "▁bati": 2147,
  "▁kalanden": 2148,
  "we": 2149,
  "ati": 2150,
  "cin": 2151,
  "anto": 2152,
  "ber": 2153,
  "tɔn": 2154,
  "▁aoû": 2155,
  "▁enti": 2156,
  "▁trouvé": 2157,
  "▁crois": 2158,
  "▁eso": 2159,
  "▁mise": 2160,
  "law": 2161,
  "▁bɔyɔrɔ": 2162,
  "▁blo": 2163,
  "ònò": 2164,
  "guni": 2165,
  "ilila": 2166,
  "▁aimez": 2167,
  "▁soient": 2168,
  "chi": 2169,
  "isait": 2170,
  "él": 2171,
  "▁domma": 2172,
  "▁dirent": 2173,
  "tɔrɔ": 2174,
  "▁sung": 2175,
  "▁hi": 2176,
  "▁lɔgɔ": 2177,
  "âge": 2178,
  "▁tò": 2179,
  "▁regar": 2180,
  "▁montagne": 2181,
  "▁kunbɛn": 2182,
  "dul": 2183,
  "endra": 2184,
  "fan": 2185,
  "▁xa": 2186,
  "gara": 2187,
  "▁koɲuman": 2188,
  "▁questions": 2189,
  "▁haali": 2190,
  "▁ord": 2191,
  "▁yaa": 2192,
  "▁cinq": 2193,
  "gra": 2194,
  "▁boli": 2195,
  "▁supp": 2196,
  "▁route": 2197,
  "gw": 2198,
  "▁bɛna": 2199,
  "▁kali": 2200,
  "una": 2201,
  "▁zuda": 2202,
  "ɔrɔnin": 2203,
  "yen": 2204,
  "▁kin": 2205,
  "▁éternelle": 2206,
  "▁haut": 2207,
  "▁image": 2208,
  "▁36": 2209,
  "duit": 2210,
  "sage": 2211,
  "▁alu": 2212,
  "▁prép": 2213,
  "vement": 2214,
  "▁volonté": 2215,
  "▁bol": 2216,
  "▁gwɛ": 2217,
  "▁juguya": 2218,
  "▁justice": 2219,
  "▁mau": 2220,
  "▁new": 2221,
  "▁quelle": 2222,
  "lah": 2223,
  "▁sû": 2224,
  "▁anu": 2225,
  "▁voie": 2226,
  "air": 2227,
  "fois": 2228,
  "▁ɲakɔrɔ": 2229,
  "▁vue": 2230,
  "ard": 2231,
  "taw": 2232,
  "kali": 2233,
  "▁ǹ": 2234,
  "▁danna": 2235,
  "▁mourir": 2236,
  "▁propos": 2237,
  "▁denmisɛn": 2238,
  "temps": 2239,
  "▁kurun": 2240,
  "mar": 2241,
  "▁sad": 2242,
  "▁sarakalasebagaw": 2243,
  "▁awa": 2244,
  "▁vin": 2245,
  "▁mains": 2246,
  "▁tilennin": 2247,
  "▁:": 2248,
  "jibi": 2249,
  "▁..": 2250,
  "▁oh": 2251,
  "▁sɔɔ": 2252,
  "▁quit": 2253,
  "éli": 2254,
  "▁rece": 2255,
  "▁matiyo": 2256,
  "▁prière": 2257,
  "▁div": 2258,
  "▁bele": 2259,
  "▁serait": 2260,
  "▁manière": 2261,
  "▁din": 2262,
  "▁men": 2263,
  "▁sɛbɛn": 2264,
  "tɛ": 2265,
  "manɛ": 2266,
  "emple": 2267,
  "▁tɛmɛna": 2268,
  "▁daf": 2269,
  "ada": 2270,
  "bil": 2271,
  "ôgô": 2272,
  "▁za": 2273,
  "ee": 2274,
  "▁rapi": 2275,
  "▁suma": 2276,
  "ression": 2277,
  "itié": 2278,
  "▁musow": 2279,
  "▁seere": 2280,
  "▁années": 2281,
  "▁partir": 2282,
  "▁quelles": 2283,
  "sin": 2284,
  "▁lɛ": 2285,
  "▁muɲu": 2286,
  "▁sifa": 2287,
  "tiɲɛ": 2288,
  "▁fla": 2289,
  "▁yah": 2290,
  "▁nɔgɔnin": 2291,
  "kuru": 2292,
  "ours": 2293,
  "▁nama": 2294,
  "▁janto": 2295,
  "▁tɛmanɛ": 2296,
  "▁dɔnkili": 2297,
  "▁it": 2298,
  "▁annon": 2299,
  "▁droit": 2300,
  "▁filanan": 2301,
  "nes": 2302,
  "année": 2303,
  "ɲɔ": 2304,
  "kuba": 2305,
  "ress": 2306,
  "suite": 2307,
  "ly": 2308,
  "▁boo": 2309,
  "▁parlé": 2310,
  "▁regard": 2311,
  "▁demandé": 2312,
  "▁47": 2313,
  "bila": 2314,
  "▁mɔɔ": 2315,
  "▁cond": 2316,
  "▁sacrifi": 2317,
  "▁batize": 2318,
  "▁longtemps": 2319,
  "▁hé": 2320,
  "asse": 2321,
  "▁bɛɛn": 2322,
  "▁trouver": 2323,
  "▁ref": 2324,
  "▁dali": 2325,
  "jigi": 2326,
  "▁fewu": 2327,
  "▁ami": 2328,
  "▁seule": 2329,
  "▁import": 2330,
  "▁passer": 2331,
  "▁41": 2332,
  "▁tele": 2333,
  "▁boire": 2334,
  "dè": 2335,
  "▁ò": 2336,
  "oman": 2337,
  "▁kònò": 2338,
  "médi": 2339,
  "▁000": 2340,
  "▁cô": 2341,
  "▁lè": 2342,
  "▁bla": 2343,
  "▁tri": 2344,
  "▁nombreuses": 2345,
  "▁nya": 2346,
  "▁disant": 2347,
  "cité": 2348,
  "▁siri": 2349,
  ":5": 2350,
  "eff": 2351,
  "unes": 2352,
  "▁anges": 2353,
  "▁lanin": 2354,
  "▁denmisɛnw": 2355,
  "aide": 2356,
  "gnes": 2357,
  "▁banna": 2358,
  "▁pol": 2359,
  "▁kɛwaliw": 2360,
  ").": 2361,
  "▁perdu": 2362,
  "▁dimi": 2363,
  "ah": 2364,
  "▁̀": 2365,
  "▁remp": 2366,
  "étaient": 2367,
  "▁dɛsɛ": 2368,
  "▁sages": 2369,
  "▁kil": 2370,
  "▁seko": 2371,
  "▁entend": 2372,
  "opp": 2373,
  "tri": 2374,
  "▁mbe": 2375,
  "▁tag": 2376,
  "▁delila": 2377,
  "▁jɛ": 2378,
  "▁tes": 2379,
  "▁kari": 2380,
  "▁mange": 2381,
  "▁rester": 2382,
  "mment": 2383,
  "▁connu": 2384,
  "▁piyɛri": 2385,
  "▁wilila": 2386,
  "nè": 2387,
  "isation": 2388,
  "▁ensuite": 2389,
  "▁dɔgɔtɔrɔ": 2390,
  "lut": 2391,
  "▁voix": 2392,
  "▁teriw": 2393,
  "▁let": 2394,
  "abraham": 2395,
  "▁gɛrɛ": 2396,
  "▁habit": 2397,
  "▁témoins": 2398,
  "sɔn": 2399,
  "dayi": 2400,
  "▁merci": 2401,
  "ses": 2402,
  "▁miiriya": 2403,
  "▁siga": 2404,
  "dit": 2405,
  "▁but": 2406,
  "▁cri": 2407,
  "▁sanji": 2408,
  "▁!\"": 2409,
  "▁dj": 2410,
  "ange": 2411,
  "▁fun": 2412,
  "▁consi": 2413,
  "▁pɛ": 2414,
  "térieur": 2415,
  "cor": 2416,
  "▁gafe": 2417,
  "ll": 2418,
  "▁six": 2419,
  "▁kini": 2420,
  "▁reçu": 2421,
  "▁farisogo": 2422,
  "gle": 2423,
  "▁60": 2424,
  "▁sir": 2425,
  "▁sta": 2426,
  "▁alle": 2427,
  "▁kɔnɔn": 2428,
  "▁déf": 2429,
  "▁dét": 2430,
  "▁yin": 2431,
  "▁contra": 2432,
  "▁puissance": 2433,
  "ome": 2434,
  "itre": 2435,
  "▁pieds": 2436,
  "▁pan": 2437,
  "▁commencé": 2438,
  "œurs": 2439,
  "▁soon": 2440,
  "▁kudayi": 2441,
  "▁dibi": 2442,
  "▁im": 2443,
  "ayez": 2444,
  "▁baaraden": 2445,
  ":11": 2446,
  "▁pain": 2447,
  "▁sens": 2448,
  "▁dési": 2449,
  "▁hakilitigiya": 2450,
  "▁pard": 2451,
  "▁préc": 2452,
  "▁sole": 2453,
  "▁conse": 2454,
  "▁publi": 2455,
  "▁pourrait": 2456,
  "oix": 2457,
  "▁wajibi": 2458,
  "orté": 2459,
  "▁vingt": 2460,
  "5.": 2461,
  "▁géné": 2462,
  "▁kɛla": 2463,
  "tra": 2464,
  "▁cu": 2465,
  "▁ceci": 2466,
  "▁yanni": 2467,
  "▁latigɛ": 2468,
  "occu": 2469,
  "▁aimés": 2470,
  "▁prêtres": 2471,
  "yɔn": 2472,
  "▁sɔ̃": 2473,
  "▁suman": 2474,
  "èrement": 2475,
  "gou": 2476,
  "lis": 2477,
  "off": 2478,
  "▁br": 2479,
  "▁cru": 2480,
  "▁viv": 2481,
  "ôn": 2482,
  "lie": 2483,
  "onné": 2484,
  "issement": 2485,
  "été": 2486,
  "▁nih": 2487,
  "▁wɔɔrɔ": 2488,
  "▁rue": 2489,
  "▁sép": 2490,
  "▁kanubaga": 2491,
  "hana": 2492,
  "▁end": 2493,
  "allah": 2494,
  "▁soleil": 2495,
  "one": 2496,
  "san": 2497,
  "▁donn": 2498,
  "▁serviteur": 2499,
  "mir": 2500,
  "▁retr": 2501,
  "kɔrɔbaw": 2502,
  "▁ladili": 2503,
  "▁savait": 2504,
  "▁sinɔgɔ": 2505,
  "▁ap": 2506,
  "▁enne": 2507,
  "▁lagi": 2508,
  "▁mira": 2509,
  "▁labɛnnin": 2510,
  "dɔ": 2511,
  "▁halibi": 2512,
  "▁cho": 2513,
  "▁int": 2514,
  "▁may": 2515,
  "▁petits": 2516,
  "▁continu": 2517,
  "isir": 2518,
  "▁gwan": 2519,
  "▁mògòw": 2520,
  "inc": 2521,
  "toi": 2522,
  "oupe": 2523,
  "▁wee": 2524,
  "kasi": 2525,
  "▁sanu": 2526,
  "▁katuguni": 2527,
  "ètes": 2528,
  "▁han": 2529,
  "▁senu": 2530,
  "▁vivre": 2531,
  "ances": 2532,
  "▁wula": 2533,
  "▁kinibolo": 2534,
  "▁kunnafoni": 2535,
  "▁rè": 2536,
  "oivent": 2537,
  "isés": 2538,
  "▁ɲanaman": 2539,
  "mina": 2540,
  "▁croire": 2541,
  "aie": 2542,
  "bar": 2543,
  "église": 2544,
  "▁asse": 2545,
  "▁ɔrɔmukaw": 2546,
  "▁existe": 2547,
  "aa": 2548,
  "jo": 2549,
  "cles": 2550,
  "▁isa": 2551,
  "écoute": 2552,
  "▁nalom": 2553,
  "▁faisait": 2554,
  "anté": 2555,
  "▁mour": 2556,
  "▁foule": 2557,
  "▁kuntigiw": 2558,
  "▁^": 2559,
  "▁kis": 2560,
  "▁daga": 2561,
  "han": 2562,
  "▁har": 2563,
  "▁layi": 2564,
  "veille": 2565,
  "▁concer": 2566,
  "ais": 2567,
  "enw": 2568,
  "usi": 2569,
  "▁réjou": 2570,
  "cul": 2571,
  "mêmes": 2572,
  "▁raison": 2573,
  "sait": 2574,
  "▁yakuba": 2575,
  "▁signifie": 2576,
  "▁régi": 2577,
  "▁villes": 2578,
  "▁ɲan": 2579,
  "▁dira": 2580,
  "▁fɛti": 2581,
  "▁voya": 2582,
  "mèn": 2583,
  "ciens": 2584,
  "gence": 2585,
  "▁voud": 2586,
  "▁serez": 2587,
  "sigi": 2588,
  "lique": 2589,
  "▁villa": 2590,
  "▁if": 2591,
  "▁suuw": 2592,
  "▁commandement": 2593,
  "▁49": 2594,
  "▁cla": 2595,
  "▁savons": 2596,
  "vɛn": 2597,
  "▁48": 2598,
  "▁cul": 2599,
  "▁marie": 2600,
  "heur": 2601,
  "▁plaît": 2602,
  "hab": 2603,
  "▁œu": 2604,
  "▁luc": 2605,
  "ision": 2606,
  "uss": 2607,
  "▁yoo": 2608,
  "tis": 2609,
  "▁buru": 2610,
  "▁tòòrò": 2611,
  "aujourd": 2612,
  ":27": 2613,
  "hɔn": 2614,
  "après": 2615,
  "espère": 2616,
  "▁kɔngɔ": 2617,
  "▁sauver": 2618,
  "▁sep": 2619,
  "▁mille": 2620,
  "▁mariage": 2621,
  "▁zuwifuw": 2622,
  "▁kòrò": 2623,
  "chez": 2624,
  "teur": 2625,
  "issait": 2626,
  "▁bonya": 2627,
  "▁propre": 2628,
  "▁fra": 2629,
  "ayiwa": 2630,
  "▁er": 2631,
  "▁mit": 2632,
  "▁gɛrɛfɛ": 2633,
  "▁réveil": 2634,
  "50": 2635,
  "aron": 2636,
  "▁gwɛn": 2637,
  "▁méde": 2638,
  "▁gbɛ": 2639,
  "▁plut": 2640,
  "cob": 2641,
  "▁sab": 2642,
  "▁tum": 2643,
  "▁déci": 2644,
  "▁combat": 2645,
  "▁meille": 2646,
  "▁dernier": 2647,
  "▁yɔrɔnin": 2648,
  "▁46": 2649,
  "rons": 2650,
  "▁jira": 2651,
  "▁aider": 2652,
  "▁jeunes": 2653,
  "are": 2654,
  "▁kaka": 2655,
  "▁envers": 2656,
  "lli": 2657,
  "▁aa": 2658,
  "ds": 2659,
  "▁réc": 2660,
  "▁jacob": 2661,
  "▁procha": 2662,
  "▁yeelen": 2663,
  "▁isi": 2664,
  "▁yee": 2665,
  "▁devez": 2666,
  "voir": 2667,
  "▁siyaw": 2668,
  "▁kɛnɛya": 2669,
  "mani": 2670,
  "indre": 2671,
  "▁maga": 2672,
  "▁nombreux": 2673,
  "▁prophètes": 2674,
  "bana": 2675,
  "▁wan": 2676,
  "nement": 2677,
  "▁force": 2678,
  "▁arrive": 2679,
  "▁bange": 2680,
  "élé": 2681,
  "▁gen": 2682,
  "▁kanb": 2683,
  "▁devait": 2684,
  "lenw": 2685,
  "▁côté": 2686,
  "égypte": 2687,
  "▁lit": 2688,
  "ateur": 2689,
  "▁connaissance": 2690,
  "buru": 2691,
  "olom": 2692,
  "util": 2693,
  "▁garde": 2694,
  "usa": 2695,
  "baya": 2696,
  "▁cool": 2697,
  "▁surun": 2698,
  "▁jurumu": 2699,
  "▁pɛrɛn": 2700,
  "▁ɲininka": 2701,
  "▁dusukasi": 2702,
  "▁connaître": 2703,
  "tana": 2704,
  "▁pɔli": 2705,
  "aimerais": 2706,
  "▁somɔgɔw": 2707,
  "▁apprendre": 2708,
  "die": 2709,
  "sie": 2710,
  "ouse": 2711,
  "▁duvɛn": 2712,
  "▁libre": 2713,
  "kura": 2714,
  "orter": 2715,
  "▁sourit": 2716,
  "▁sè": 2717,
  "▁boon": 2718,
  "▁waaju": 2719,
  "▁exemple": 2720,
  "onner": 2721,
  "bagaya": 2722,
  "baliya": 2723,
  "êtres": 2724,
  "▁44": 2725,
  "gner": 2726,
  "▁mali": 2727,
  "loo": 2728,
  "▁70": 2729,
  "▁chi": 2730,
  "isième": 2731,
  "▁serai": 2732,
  "gés": 2733,
  "▁indi": 2734,
  "hé": 2735,
  "no": 2736,
  "▁•": 2737,
  "▁pé": 2738,
  "oubli": 2739,
  "▁denkè": 2740,
  "▁pouvait": 2741,
  "▁kunu": 2742,
  "ctions": 2743,
  "▁jaabili": 2744,
  "▁1:": 2745,
  "▁kolo": 2746,
  "▁mots": 2747,
  "▁ô": 2748,
  "sara": 2749,
  "▁kuru": 2750,
  "▁ciden": 2751,
  "olution": 2752,
  "▁plutôt": 2753,
  "▁descend": 2754,
  "roit": 2755,
  "▁sent": 2756,
  "▁duniya": 2757,
  ":17": 2758,
  "▁lah": 2759,
  "▁teliya": 2760,
  "▁demanda": 2761,
  ":10": 2762,
  "enus": 2763,
  "essa": 2764,
  "▁sûr": 2765,
  "▁sran": 2766,
  "▁lamini": 2767,
  "▁milieu": 2768,
  "▁baro": 2769,
  "▁lakali": 2770,
  "▁troisième": 2771,
  "▁âgé": 2772,
  "ences": 2773,
  "▁kabi": 2774,
  "équ": 2775,
  "▁sois": 2776,
  "kɛnɛ": 2777,
  "siɲɛ": 2778,
  "▁kou": 2779,
  "▁café": 2780,
  "▁is": 2781,
  "gɛrɛ": 2782,
  "alité": 2783,
  "▁sogo": 2784,
  "▁télé": 2785,
  "▁sɔnna": 2786,
  "▁appelé": 2787,
  "▁bolila": 2788,
  "▁sunguru": 2789,
  "▁sebagaya": 2790,
  "éga": 2791,
  "▁ɲamɔgɔ": 2792,
  "um": 2793,
  "tro": 2794,
  "▁mur": 2795,
  "▁dusukun": 2796,
  "ende": 2797,
  "▁same": 2798,
  "▁chefs": 2799,
  "▁sagesse": 2800,
  "fɔlɔ": 2801,
  "▁bee": 2802,
  "ables": 2803,
  "▁bouche": 2804,
  "▁disait": 2805,
  "rou": 2806,
  "▁bâ": 2807,
  "inté": 2808,
  "ième": 2809,
  "▁goo": 2810,
  "▁réf": 2811,
  "▁compris": 2812,
  "ilà": 2813,
  "▁ait": 2814,
  "bè": 2815,
  "baliw": 2816,
  "▁revi": 2817,
  "espoir": 2818,
  "▁kalans": 2819,
  "▁tagama": 2820,
  "▁connais": 2821,
  "▁nourriture": 2822,
  "uro": 2823,
  "▁jeu": 2824,
  "▁décé": 2825,
  "enseigne": 2826,
  "▁humains": 2827,
  "iter": 2828,
  "▁aww": 2829,
  "▁fête": 2830,
  "▁sanni": 2831,
  "▁sigɛn": 2832,
  "▁milliers": 2833,
  "▁rapidement": 2834,
  "▁meur": 2835,
  "▁péchés": 2836,
  "▁nà": 2837,
  "▁emi": 2838,
  "▁pra": 2839,
  "aimer": 2840,
  "▁dabila": 2841,
  "▁religion": 2842,
  "fri": 2843,
  "kɔn": 2844,
  "fara": 2845,
  "rence": 2846,
  "▁somme": 2847,
  "▁mat": 2848,
  "▁misi": 2849,
  "▁yòrò": 2850,
  "informa": 2851,
  "▁prêtre": 2852,
  "▁segira": 2853,
  "▁kanbelen": 2854,
  "koo": 2855,
  "▁arɔn": 2856,
  "▁pauvres": 2857,
  "ree": 2858,
  "utu": 2859,
  "▁voulu": 2860,
  "▁disaient": 2861,
  "▁fru": 2862,
  "juguw": 2863,
  "▁phar": 2864,
  "rection": 2865,
  "▁recher": 2866,
  "▁dani": 2867,
  "▁prise": 2868,
  "▁essa": 2869,
  "▁verse": 2870,
  "▁miniti": 2871,
  "▁ɲinina": 2872,
  "▁dilan": 2873,
  "▁recon": 2874,
  "▁miséri": 2875,
  "▁conf": 2876,
  "tation": 2877,
  "▁ayant": 2878,
  "▁témoi": 2879,
  "▁karamɔgɔ": 2880,
  "▁ɲɛfɔ": 2881,
  "▁semaine": 2882,
  "▁siranna": 2883,
  "mine": 2884,
  "▁year": 2885,
  "▁quant": 2886,
  "▁doivent": 2887,
  "▁mɔgɔɲɔgɔn": 2888,
  "écu": 2889,
  "▁been": 2890,
  "▁miséricor": 2891,
  "▁exc": 2892,
  "▁béné": 2893,
  "▁créé": 2894,
  "▁anima": 2895,
  "▁colère": 2896,
  "▁ressus": 2897,
  "▁deuxième": 2898,
  "▁permet": 2899,
  "▁environ": 2900,
  "bes": 2901,
  "appe": 2902,
  "▁faaw": 2903,
  "▁douze": 2904,
  "dam": 2905,
  "▁kaa": 2906,
  "▁lou": 2907,
  "écess": 2908,
  "▁jɔɔn": 2909,
  "▁sani": 2910,
  "▁écou": 2911,
  "▁hɔrɔn": 2912,
  "yɔ": 2913,
  "cteur": 2914,
  "▁daan": 2915,
  "▁vont": 2916,
  "▁riche": 2917,
  "▁pharisi": 2918,
  "▁sc": 2919,
  "chant": 2920,
  "▁sanfɛ": 2921,
  ":18": 2922,
  "agne": 2923,
  "veur": 2924,
  "enait": 2925,
  "▁cidenw": 2926,
  "tilennin": 2927,
  "▁mɛlɛkɛw": 2928,
  "▁popu": 2929,
  "ect": 2930,
  "▁hami": 2931,
  "▁pass": 2932,
  "▁serviteurs": 2933,
  "▁tilenninya": 2934,
  "▁fera": 2935,
  "▁jɛni": 2936,
  "▁dimanche": 2937,
  "▁difficile": 2938,
  "▁jon": 2939,
  "▁kpa": 2940,
  "▁péri": 2941,
  "▁reti": 2942,
  "miɛn": 2943,
  "▁syn": 2944,
  "▁duman": 2945,
  "mie": 2946,
  "ode": 2947,
  "▁lol": 2948,
  "yɔrɔw": 2949,
  "▁like": 2950,
  "▁santé": 2951,
  "excuser": 2952,
  "▁fɔlɔfɔlɔ": 2953,
  "▁certaines": 2954,
  "▁zo": 2955,
  "▁aband": 2956,
  "▁seegi": 2957,
  "▁devons": 2958,
  "▁jigira": 2959,
  "▁nécess": 2960,
  "▁bonheur": 2961,
  "ros": 2962,
  "▁inc": 2963,
  "avenir": 2964,
  "▁voilà": 2965,
  "▁images": 2966,
  "▁jumɛnw": 2967,
  "▁appris": 2968,
  "▁wɛ": 2969,
  "▁sɔrɔla": 2970,
  "histoire": 2971,
  "▁médecin": 2972,
  "▁demander": 2973,
  "ŋɛlɛ": 2974,
  "▁donnée": 2975,
  "▁sud": 2976,
  "inqui": 2977,
  "▁vête": 2978,
  "▁yɛnŋɛlɛ": 2979,
  "▁sɔbɛ": 2980,
  "olé": 2981,
  "honn": 2982,
  "▁bas": 2983,
  "▁tig": 2984,
  "▁parfa": 2985,
  "▁langues": 2986,
  "arer": 2987,
  "gine": 2988,
  "▁vivant": 2989,
  "̀n": 2990,
  "atta": 2991,
  "entrer": 2992,
  "▁aurait": 2993,
  "▁fantanw": 2994,
  "tés": 2995,
  "▁kw": 2996,
  "isson": 2997,
  "avaient": 2998,
  "30": 2999,
  "▁cours": 3000,
  "▁constru": 3001,
  "wɔ": 3002,
  "▁rou": 3003,
  "▁faim": 3004,
  "▁filles": 3005,
  "▁siranya": 3006,
  "ach": 3007,
  "▁nigɛ": 3008,
  "▁fɛtiw": 3009,
  "▁considé": 3010,
  "dio": 3011,
  "▁43": 3012,
  "nama": 3013,
  "▁diɲè": 3014,
  "▁wolom": 3015,
  "alement": 3016,
  "▁mauvais": 3017,
  "cole": 3018,
  "▁lar": 3019,
  "▁lève": 3020,
  "▁princip": 3021,
  "lin": 3022,
  "réti": 3023,
  "ordre": 3024,
  "matigi": 3025,
  "▁bient": 3026,
  "▁senti": 3027,
  "▁enseign": 3028,
  "-1": 3029,
  "▁ɔn": 3030,
  "▁tch": 3031,
  "▁allah": 3032,
  "▁saban": 3033,
  "▁reconna": 3034,
  "▁bala": 3035,
  "truire": 3036,
  "▁sœurs": 3037,
  "▁pho": 3038,
  "baara": 3039,
  "angile": 3040,
  "▁revenir": 3041,
  "▁jugement": 3042,
  "▁pharisiens": 3043,
  "œil": 3044,
  "bien": 3045,
  "▁maa": 3046,
  "sions": 3047,
  "▁farati": 3048,
  "▁groupe": 3049,
  "mbla": 3050,
  "▁prend": 3051,
  "anya": 3052,
  "fari": 3053,
  "urer": 3054,
  "▁abi": 3055,
  "▁ado": 3056,
  "▁site": 3057,
  "▁tand": 3058,
  "▁warigwɛ": 3059,
  "▁pourrais": 3060,
  "▁situation": 3061,
  "▁ari": 3062,
  "▁ɲɛɛ": 3063,
  "▁adul": 3064,
  "▁juga": 3065,
  "▁juge": 3066,
  "▁grands": 3067,
  "▁nation": 3068,
  "▁bientôt": 3069,
  "ût": 3070,
  "nen": 3071,
  "orts": 3072,
  "▁ensemble": 3073,
  "cs": 3074,
  "sɔ": 3075,
  "▁<": 3076,
  "ici": 3077,
  "▁far": 3078,
  "antes": 3079,
  "▁lɔra": 3080,
  "▁nata": 3081,
  "▁rois": 3082,
  "▁sœur": 3083,
  "▁sinji": 3084,
  "▁saints": 3085,
  "▁sortir": 3086,
  "▁pouvons": 3087,
  "▁kɔgɔ": 3088,
  "▁matt": 3089,
  "▁mɛɛn": 3090,
  "masacɛ": 3091,
  "▁yèrèw": 3092,
  "▁unique": 3093,
  "▁woro": 3094,
  "▁honte": 3095,
  "▁sorte": 3096,
  "▁tanga": 3097,
  "▁droite": 3098,
  "gui": 3099,
  "tez": 3100,
  "▁nz": 3101,
  "▁bro": 3102,
  "▁duniɲa": 3103,
  "▁kɔrɔta": 3104,
  "▁mariki": 3105,
  "▁ɲamɔgɔw": 3106,
  "▁tellement": 3107,
  "▁&": 3108,
  "▁olugu": 3109,
  "▁salut": 3110,
  "duction": 3111,
  "▁étions": 3112,
  "wan": 3113,
  "çons": 3114,
  "▁nax": 3115,
  "▁sugu": 3116,
  "▁gwɛrɛla": 3117,
  "▁conc": 3118,
  "▁bɔsi": 3119,
  "▁aaron": 3120,
  "▁allez": 3121,
  "oque": 3122,
  "▁cana": 3123,
  "▁disc": 3124,
  "▁étant": 3125,
  "▁chréti": 3126,
  "▁malade": 3127,
  "▁message": 3128,
  "bas": 3129,
  "▁delili": 3130,
  "▁lafiɲɛ": 3131,
  "▁law": 3132,
  "▁demeure": 3133,
  "▁kununna": 3134,
  "hieu": 3135,
  "▁ennemis": 3136,
  "▁ang": 3137,
  "▁ferai": 3138,
  "nom": 3139,
  "▁tel": 3140,
  "▁aide": 3141,
  "▁ouver": 3142,
  "▁petite": 3143,
  "isme": 3144,
  "▁étran": 3145,
  "▁plaisir": 3146,
  "unis": 3147,
  "▁layidu": 3148,
  "vel": 3149,
  "▁,\"": 3150,
  "▁pye": 3151,
  "▁2012": 3152,
  "▁biri": 3153,
  "▁kumaw": 3154,
  "èlè": 3155,
  "mait": 3156,
  "▁ara": 3157,
  "▁bad": 3158,
  "▁try": 3159,
  "importe": 3160,
  "▁setigi": 3161,
  "gers": 3162,
  "▁datu": 3163,
  "▁safe": 3164,
  "biri": 3165,
  "▁prêt": 3166,
  "gage": 3167,
  "▁actes": 3168,
  "▁entendre": 3169,
  "▁vit": 3170,
  "aider": 3171,
  "issons": 3172,
  "bagatɔw": 3173,
  "▁kɛlɛdenw": 3174,
  "▁prochain": 3175,
  "▁voudrais": 3176,
  "...]": 3177,
  "▁siè": 3178,
  "urité": 3179,
  "▁kaam": 3180,
  "▁abraham": 3181,
  "▁liv": 3182,
  ".....": 3183,
  "▁sauvé": 3184,
  "▁yaala": 3185,
  "▁kabakuru": 3186,
  "chent": 3187,
  "▁arti": 3188,
  "▁sabanan": 3189,
  "▁/": 3190,
  "gée": 3191,
  "loi": 3192,
  "riez": 3193,
  "▁fidè": 3194,
  "▁ɲafɛ": 3195,
  "érance": 3196,
  "accompl": 3197,
  "▁kanubagaw": 3198,
  "dis": 3199,
  "▁inté": 3200,
  "egypte": 3201,
  "▁yeo": 3202,
  "▁yii": 3203,
  "▁yeli": 3204,
  "zare": 3205,
  "▁por": 3206,
  "▁crai": 3207,
  "cɛɛ": 3208,
  "ene": 3209,
  "▁kèra": 3210,
  "▁mɛnna": 3211,
  "▁dormir": 3212,
  "▁travers": 3213,
  "▁duba": 3214,
  "▁leva": 3215,
  "▁condam": 3216,
  "▁ɲanmiɛn": 3217,
  "▁matthieu": 3218,
  "▁contraire": 3219,
  "bun": 3220,
  "eni": 3221,
  "inya": 3222,
  "yɛrɛ": 3223,
  "▁zoo": 3224,
  "▁allé": 3225,
  "▁pres": 3226,
  "▁tugunni": 3227,
  "▁taamasiɲɛ": 3228,
  "gie": 3229,
  "oru": 3230,
  "▁ohun": 3231,
  "▁prie": 3232,
  "▁kaburu": 3233,
  "▁denbaya": 3234,
  "by": 3235,
  "vu": 3236,
  "▁woo": 3237,
  "▁samedi": 3238,
  "lligence": 3239,
  "▁$": 3240,
  "tée": 3241,
  "▁!!!": 3242,
  "▁1:2": 3243,
  "▁lakɔ": 3244,
  "▁assis": 3245,
  "▁autant": 3246,
  "▁humain": 3247,
  "▁combien": 3248,
  "▁service": 3249,
  "▁répondre": 3250,
  "ènw": 3251,
  "rier": 3252,
  "tent": 3253,
  "▁balo": 3254,
  "▁sutana": 3255,
  "lés": 3256,
  "vité": 3257,
  "▁jin": 3258,
  "▁pen": 3259,
  "tenir": 3260,
  "▁sari": 3261,
  "▁mêmes": 3262,
  "▁lettre": 3263,
  "▁dô": 3264,
  "▁timo": 3265,
  "▁kɔniya": 3266,
  "▁village": 3267,
  "mbres": 3268,
  "minin": 3269,
  "▁oubli": 3270,
  "▁comprendre": 3271,
  "tie": 3272,
  "dire": 3273,
  "▁daminè": 3274,
  "cou": 3275,
  "épre": 3276,
  "sisan": 3277,
  "▁tris": 3278,
  "▁poser": 3279,
  "▁représ": 3280,
  ":)": 3281,
  "fè": 3282,
  "ito": 3283,
  "lons": 3284,
  "▁tent": 3285,
  "▁escla": 3286,
  "▁particu": 3287,
  "▁naissance": 3288,
  "osé": 3289,
  "uie": 3290,
  "▁mɔn": 3291,
  "▁pous": 3292,
  "▁lɔnin": 3293,
  ":13": 3294,
  "▁zi": 3295,
  "▁asi": 3296,
  "▁dest": 3297,
  "antage": 3298,
  "▁fiɲɛn": 3299,
  "▁mariya": 3300,
  "▁dafanin": 3301,
  "▁ń": 3302,
  "boo": 3303,
  "tel": 3304,
  "▁éle": 3305,
  "▁méch": 3306,
  "issant": 3307,
  "▁voyez": 3308,
  "▁autour": 3309,
  "▁wolomanin": 3310,
  "anci": 3311,
  "siran": 3312,
  "▁bout": 3313,
  "▁enseigne": 3314,
  "gné": 3315,
  "▁kɑ": 3316,
  "▁kid": 3317,
  "appel": 3318,
  "image": 3319,
  "▁niin": 3320,
  "▁aimer": 3321,
  "▁assez": 3322,
  "▁fanan": 3323,
  "▁règne": 3324,
  "▁galile": 3325,
  "▁immédi": 3326,
  "▁kibaro": 3327,
  "▁mot": 3328,
  "glise": 3329,
  "▁naan": 3330,
  "▁déclaré": 3331,
  "urrection": 3332,
  "yst": 3333,
  "▁--": 3334,
  "▁nba": 3335,
  "▁st": 3336,
  "dess": 3337,
  "▁four": 3338,
  "▁trent": 3339,
  "▁mesure": 3340,
  "▁samari": 3341,
  "▁sigira": 3342,
  "▁jɛnkulu": 3343,
  "▁kɔsegira": 3344,
  ":6": 3345,
  "▁ténè": 3346,
  "▁convient": 3347,
  ":16": 3348,
  "▁fle": 3349,
  "▁leo": 3350,
  "▁diin": 3351,
  "▁maana": 3352,
  "▁création": 3353,
  "▁ténèbres": 3354,
  "enseignement": 3355,
  "▁bɑ": 3356,
  "▁fô": 3357,
  "▁sanin": 3358,
  "lò": 3359,
  "yu": 3360,
  "▁entier": 3361,
  "▁kumakan": 3362,
  "dan": 3363,
  "vie": 3364,
  "aband": 3365,
  "▁baden": 3366,
  "▁majigi": 3367,
  "▁ouv": 3368,
  "▁sis": 3369,
  "blème": 3370,
  "oient": 3371,
  "▁dije": 3372,
  "▁kerec": 3373,
  "▁problème": 3374,
  "▁glo": 3375,
  "▁free": 3376,
  "tiques": 3377,
  "▁[...]": 3378,
  "itement": 3379,
  "▁laisse": 3380,
  "▁savais": 3381,
  "▁anciens": 3382,
  "▁dannaya": 3383,
  "▁faisons": 3384,
  "▁mɔgɔtilennin": 3385,
  "mons": 3386,
  "▁nak": 3387,
  "▁filè": 3388,
  "▁kafe": 3389,
  "▁taba": 3390,
  "▁jumanw": 3391,
  "▁198": 3392,
  "▁devenu": 3393,
  "▁résurrection": 3394,
  "este": 3395,
  "▁jun": 3396,
  "▁vas": 3397,
  "▁galil": 3398,
  "▁bataki": 3399,
  "▁commun": 3400,
  "▁appelés": 3401,
  "▁voulait": 3402,
  "▁attention": 3403,
  "▁commencement": 3404,
  "bon": 3405,
  "lez": 3406,
  "nago": 3407,
  "▁miis": 3408,
  "▁synago": 3409,
  "▁farikolo": 3410,
  "kis": 3411,
  "péci": 3412,
  "▁tex": 3413,
  "▁ɲinɛ": 3414,
  "▁jigin": 3415,
  ":14": 3416,
  "raw": 3417,
  "▁ii": 3418,
  "teau": 3419,
  "yɛlɛ": 3420,
  "▁arrê": 3421,
  "▁camp": 3422,
  "▁plan": 3423,
  "▁post": 3424,
  "quelle": 3425,
  "▁résul": 3426,
  "▁spéci": 3427,
  "▁viens": 3428,
  "▁fiɲɛntɔ": 3429,
  "▁mèn": 3430,
  "▁you": 3431,
  "▁chev": 3432,
  "▁entra": 3433,
  "▁manif": 3434,
  "▁pitié": 3435,
  "▁kɔnɔna": 3436,
  "▁baptisés": 3437,
  "▁(2": 3438,
  "▁fal": 3439,
  "▁bois": 3440,
  "▁good": 3441,
  "▁pères": 3442,
  "▁pouvais": 3443,
  "usé": 3444,
  "arrê": 3445,
  "accue": 3446,
  "▁nzila": 3447,
  "▁pardon": 3448,
  "▁sim": 3449,
  "▁lana": 3450,
  "▁souvent": 3451,
  "▁choix": 3452,
  "▁laquelle": 3453,
  "cée": 3454,
  "ret": 3455,
  "▁blan": 3456,
  "▁dabi": 3457,
  "▁kale": 3458,
  "▁chant": 3459,
  "▁toutefois": 3460,
  "op": 3461,
  "▁bus": 3462,
  "▁jes": 3463,
  "▁kaf": 3464,
  "▁demain": 3465,
  "▁membres": 3466,
  "▁waajuli": 3467,
  "▁habitants": 3468,
  "9.": 3469,
  "dy": 3470,
  "▁étu": 3471,
  "▁baji": 3472,
  "▁mila": 3473,
  "▁suivant": 3474,
  "mè": 3475,
  "▁age": 3476,
  "adore": 3477,
  "yanin": 3478,
  "▁week": 3479,
  "▁satan": 3480,
  "▁marche": 3481,
  "\">": 3482,
  "dɛn": 3483,
  "▁=\"": 3484,
  "▁immédia": 3485,
  "hali": 3486,
  "▁tué": 3487,
  "teurs": 3488,
  "▁maan": 3489,
  "▁révé": 3490,
  "▁tere": 3491,
  "ɲɔgɔnw": 3492,
  "umanbolo": 3493,
  "intérieur": 3494,
  "▁kongokolon": 3495,
  "▁ek": 3496,
  "cent": 3497,
  "école": 3498,
  "univers": 3499,
  "▁tɛmɛnin": 3500,
  "▁réveille": 3501,
  "ral": 3502,
  "▁stu": 3503,
  "▁2017": 3504,
  "▁prit": 3505,
  "▁chair": 3506,
  "▁resté": 3507,
  "▁ʻ": 3508,
  "épée": 3509,
  "▁9:27": 3510,
  "▁nili": 3511,
  "▁prix": 3512,
  "▁prends": 3513,
  "▁vêtements": 3514,
  "▁déli": 3515,
  "▁murujan": 3516,
  "▁fonction": 3517,
  "▁témoigna": 3518,
  "▁nouvelles": 3519,
  "▁connaissent": 3520,
  "jus": 3521,
  "enue": 3522,
  "▁eas": 3523,
  "▁demand": 3524,
  "▁particuli": 3525,
  "kara": 3526,
  "▁bhi": 3527,
  "ussit": 3528,
  "itions": 3529,
  "▁désert": 3530,
  "▁miiska": 3531,
  "unu": 3532,
  "▁nɛɛma": 3533,
  "▁lookin": 3534,
  "▁voulez": 3535,
  "▁laissez": 3536,
  "xe": 3537,
  "how": 3538,
  "lɛn": 3539,
  "▁aka": 3540,
  "▁bord": 3541,
  "▁diri": 3542,
  "▁nord": 3543,
  "▁galon": 3544,
  "▁parta": 3545,
  "jɔn": 3546,
  "ria": 3547,
  "waati": 3548,
  "▁prier": 3549,
  "▁nature": 3550,
  "▁yera": 3551,
  "conque": 3552,
  "▁preuve": 3553,
  "▁rencontre": 3554,
  "chée": 3555,
  "réci": 3556,
  "▁fau": 3557,
  "▁last": 3558,
  "▁respec": 3559,
  "uré": 3560,
  "▁roma": 3561,
  "mation": 3562,
  "honneur": 3563,
  "▁région": 3564,
  "▁7.": 3565,
  "▁bru": 3566,
  "▁dav": 3567,
  "▁lim": 3568,
  "aleur": 3569,
  "aurais": 3570,
  "▁amour": 3571,
  "▁miiran": 3572,
  "yana": 3573,
  "▁grec": 3574,
  "▁kɔrɔbɔ": 3575,
  "▁produit": 3576,
  "impression": 3577,
  "père": 3578,
  "▁mɔ̀": 3579,
  "▁tau": 3580,
  "▁familles": 3581,
  "ap": 3582,
  "cal": 3583,
  "▁sil": 3584,
  "▁tol": 3585,
  "tanin": 3586,
  "▁bɔnɛ": 3587,
  "▁faso": 3588,
  "▁fond": 3589,
  "▁vidé": 3590,
  "▁tombe": 3591,
  "▁proche": 3592,
  "▁travailler": 3593,
  "▁gard": 3594,
  "velopp": 3595,
  "épreuve": 3596,
  "▁résulta": 3597,
  "pour": 3598,
  "siens": 3599,
  "▁septe": 3600,
  "▁pensez": 3601,
  "▁numé": 3602,
  "▁rome": 3603,
  "▁soci": 3604,
  "▁soow": 3605,
  "▁yeah": 3606,
  "années": 3607,
  "▁kiris": 3608,
  "▁sɛgɛrɛ": 3609,
  "▁kɔrɔtanin": 3610,
  "▁#": 3611,
  "▁cé": 3612,
  "▁ŋa": 3613,
  "quel": 3614,
  "rête": 3615,
  "▁piè": 3616,
  "▁ninnu": 3617,
  "▁verre": 3618,
  "up": 3619,
  "enya": 3620,
  "▁amé": 3621,
  "▁tin": 3622,
  "▁easy": 3623,
  "▁kasa": 3624,
  "enfants": 3625,
  "▁kɛcogo": 3626,
  "▁lakɔli": 3627,
  "▁reconn": 3628,
  "▁immédiatement": 3629,
  "lai": 3630,
  "crit": 3631,
  "▁bre": 3632,
  "▁pauvre": 3633,
  "▁trente": 3634,
  "▁arriver": 3635,
  "▁viendra": 3636,
  "▁utiliser": 3637,
  "▁septembre": 3638,
  "?›": 3639,
  "dafɛ": 3640,
  "▁iru": 3641,
  "▁occ": 3642,
  "▁suff": 3643,
  "▁détru": 3644,
  "▁sauve": 3645,
  "origine": 3646,
  "▁recherche": 3647,
  "bee": 3648,
  "▁id": 3649,
  "vier": 3650,
  "▁tii": 3651,
  "▁coeur": 3652,
  "▁rendu": 3653,
  "▁davantage": 3654,
  "jama": 3655,
  "▁blog": 3656,
  "▁lala": 3657,
  "▁peine": 3658,
  "lir": 3659,
  "ung": 3660,
  "▁nk": 3661,
  "tama": 3662,
  "▁taw": 3663,
  "▁val": 3664,
  "conde": 3665,
  "cture": 3666,
  "orité": 3667,
  "▁fuun": 3668,
  "▁niyɔrɔ": 3669,
  "▁répondu": 3670,
  "ari": 3671,
  "▁cir": 3672,
  "armée": 3673,
  "▁marc": 3674,
  "▁signe": 3675,
  "▁disent": 3676,
  "▁simplement": 3677,
  "nie": 3678,
  "tɔnin": 3679,
  "▁forme": 3680,
  "▁yirali": 3681,
  "▁croient": 3682,
  "▁seconde": 3683,
  "▁kɔrɔtɔnin": 3684,
  "siw": 3685,
  "▁ty": 3686,
  "soci": 3687,
  "endez": 3688,
  "tient": 3689,
  "▁bles": 3690,
  "▁lire": 3691,
  "▁appar": 3692,
  "▁durant": 3693,
  "▁maladie": 3694,
  "ii": 3695,
  "xɔ": 3696,
  "▁6.": 3697,
  "▁luu": 3698,
  "▁adam": 3699,
  "▁biin": 3700,
  "▁daal": 3701,
  "▁cɛman": 3702,
  "▁riches": 3703,
  "gus": 3704,
  "▁2\"": 3705,
  "ôtre": 3706,
  "▁kya": 3707,
  "▁sam": 3708,
  "adama": 3709,
  "▁cara": 3710,
  "▁êtres": 3711,
  "ussitôt": 3712,
  "▁sarakalasebaga": 3713,
  "10": 3714,
  "gɛnw": 3715,
  "lève": 3716,
  "▁cal": 3717,
  "erres": 3718,
  "▁kwla": 3719,
  "▁tenir": 3720,
  "▁kalifa": 3721,
  "▁ɲumanya": 3722,
  "ero": 3723,
  "foro": 3724,
  "▁kɔɔ": 3725,
  "▁zoova": 3726,
  "▁bonnes": 3727,
  "▁aussitôt": 3728,
  "▁mariyamu": 3729,
  "xt": 3730,
  "uya": 3731,
  "faga": 3732,
  "▁aye": 3733,
  "▁jard": 3734,
  "▁lati": 3735,
  "▁size": 3736,
  "▁réflé": 3737,
  "appelait": 3738,
  "▁animaux": 3739,
  "▁prières": 3740,
  "▁lajɛnnin": 3741,
  "1.": 3742,
  "▁las": 3743,
  "escla": 3744,
  "▁trés": 3745,
  "▁yigi": 3746,
  "▁mangé": 3747,
  "▁barikaman": 3748,
  "envo": 3749,
  "mògò": 3750,
  "▁ori": 3751,
  "▁veo": 3752,
  "rable": 3753,
  "laient": 3754,
  "▁salom": 3755,
  "▁kalansen": 3756,
  "▁daminɛtuma": 3757,
  "lus": 3758,
  "▁naga": 3759,
  "▁yeri": 3760,
  "▁foroba": 3761,
  "intelligence": 3762,
  "vis": 3763,
  "▁hala": 3764,
  "▁tuun": 3765,
  "▁nɔɔrɔ": 3766,
  "▁tala": 3767,
  "excuse": 3768,
  "▁accue": 3769,
  "▁souvi": 3770,
  "▁celles": 3771,
  "▁crainte": 3772,
  "nés": 3773,
  "▁âme": 3774,
  "mblée": 3775,
  "onnés": 3776,
  "▁noon": 3777,
  "▁jugak": 3778,
  "▁consul": 3779,
  "▁kojuguba": 3780,
  "▁cre": 3781,
  "▁nee": 3782,
  "▁croy": 3783,
  "▁maman": 3784,
  "▁sunɔgɔ": 3785,
  "▁kantigi": 3786,
  "▁chercher": 3787,
  "▁mul": 3788,
  "▁yɛɛ": 3789,
  "▁appr": 3790,
  "▁tɛrɛ": 3791,
  "▁duguw": 3792,
  "▁nahana": 3793,
  "▁sembla": 3794,
  "▁namatama": 3795,
  "ɲi": 3796,
  "yɛn": 3797,
  "écou": 3798,
  "▁fur": 3799,
  "▁mai": 3800,
  "▁déce": 3801,
  "▁frapp": 3802,
  "▁laissé": 3803,
  "▁galilée": 3804,
  "▁particip": 3805,
  "▁kabakoyara": 3806,
  "ɑ̃": 3807,
  "▁<3": 3808,
  "...\"": 3809,
  "rain": 3810,
  "▁dja": 3811,
  "▁laba": 3812,
  "▁invit": 3813,
  "▁karan": 3814,
  "▁commande": 3815,
  "▁important": 3816,
  "!!!": 3817,
  "lati": 3818,
  "▁ladi": 3819,
  "▁tunu": 3820,
  "▁salomon": 3821,
  "▁sọ": 3822,
  "▁lee": 3823,
  "▁wow": 3824,
  "ganin": 3825,
  "kohun": 3826,
  "▁rasse": 3827,
  "▁kɔrɔcɛ": 3828,
  "▁efforts": 3829,
  "▁kunbiri": 3830,
  "▁romains": 3831,
  "▁recevoir": 3832,
  "▁ohunkohun": 3833,
  ":7": 3834,
  "▁bin": 3835,
  "▁erre": 3836,
  "▁gent": 3837,
  "▁allait": 3838,
  "numanbolo": 3839,
  ":23": 3840,
  "ɔbu": 3841,
  "bugu": 3842,
  "rant": 3843,
  "▁lis": 3844,
  "▁spi": 3845,
  "itigɛ": 3846,
  "omani": 3847,
  "▁anti": 3848,
  "▁bina": 3849,
  "dessus": 3850,
  "▁bolola": 3851,
  "▁différentes": 3852,
  "can": 3853,
  "isiw": 3854,
  "▁accep": 3855,
  "mba": 3856,
  "ssi": 3857,
  "ilité": 3858,
  "▁ange": 3859,
  "▁next": 3860,
  "cience": 3861,
  "▁firent": 3862,
  "▁kɛnɛyara": 3863,
  "étu": 3864,
  "▁kn": 3865,
  "ziɲɛ": 3866,
  "▁fai": 3867,
  "▁nul": 3868,
  "▁baby": 3869,
  "▁caya": 3870,
  "▁médi": 3871,
  "▁états": 3872,
  "▁kanaan": 3873,
  "▁mankan": 3874,
  "▁projet": 3875,
  "▁tandis": 3876,
  "▁manifest": 3877,
  "▁yɛrɛyɛrɛ": 3878,
  "abɔ": 3879,
  "▁bw": 3880,
  "▁eg": 3881,
  "▁fèn": 3882,
  "▁gus": 3883,
  "▁lajɛ": 3884,
  "rement": 3885,
  "▁suivi": 3886,
  "▁conseils": 3887,
  "▁mil": 3888,
  "illet": 3889,
  "▁lade": 3890,
  "▁sɔ̃ɔ": 3891,
  "▁prési": 3892,
  "▁meilleur": 3893,
  "▁semaines": 3894,
  "eri": 3895,
  "▁éch": 3896,
  "ansan": 3897,
  "inement": 3898,
  "▁lama": 3899,
  "▁maka": 3900,
  "▁sooo": 3901,
  "▁morte": 3902,
  "▁pours": 3903,
  "▁remar": 3904,
  "▁penser": 3905,
  "espérance": 3906,
  "▁mɔgɔbaba": 3907,
  "del": 3908,
  "lant": 3909,
  "ritu": 3910,
  "yasi": 3911,
  "▁jig": 3912,
  "▁sub": 3913,
  "asion": 3914,
  "human": 3915,
  "▁pila": 3916,
  "mme": 3917,
  "▁oo": 3918,
  "▁brû": 3919,
  "▁gun": 3920,
  "▁prob": 3921,
  "▁looru": 3922,
  "sankolo": 3923,
  "▁permis": 3924,
  "▁conséqu": 3925,
  "▁of": 3926,
  "▁rê": 3927,
  "▁cii": 3928,
  "▁baba": 3929,
  "▁kɔnna": 3930,
  "▁manque": 3931,
  "▁yɛlɛla": 3932,
  "▁sommeil": 3933,
  "▁1-": 3934,
  "équi": 3935,
  "▁appelle": 3936,
  "▁respons": 3937,
  "▁kititigɛ": 3938,
  "▁souvenez": 3939,
  "rs": 3940,
  "▁@": 3941,
  "men": 3942,
  "sig": 3943,
  "kaba": 3944,
  "tifi": 3945,
  "▁boy": 3946,
  "▁efɛ": 3947,
  "▁àyi": 3948,
  "amuse": 3949,
  "ôtres": 3950,
  "▁2004": 3951,
  "▁bugu": 3952,
  "▁sein": 3953,
  "▁vide": 3954,
  "▁donda": 3955,
  "▁souri": 3956,
  "▁dɔgɔcɛ": 3957,
  "▁prenez": 3958,
  "▁tilenn": 3959,
  "▁wolola": 3960,
  "▁yahutu": 3961,
  "▁ɲɛnabɔ": 3962,
  "▁devenir": 3963,
  "rité": 3964,
  "▁élé": 3965,
  "quent": 3966,
  "▁succ": 3967,
  "▁kiraw": 3968,
  "▁israél": 3969,
  "▁écoute": 3970,
  "▁trouvait": 3971,
  "run": 3972,
  "dait": 3973,
  "▁fix": 3974,
  "▁jos": 3975,
  "▁déclare": 3976,
  "▁poursui": 3977,
  "▁finalement": 3978,
  ".2": 3979,
  ";)": 3980,
  "▁pâ": 3981,
  "difi": 3982,
  "jana": 3983,
  "▁nor": 3984,
  "duits": 3985,
  "▁film": 3986,
  "▁phil": 3987,
  "▁tuer": 3988,
  "eglise": 3989,
  "érience": 3990,
  "▁nɔgɔya": 3991,
  "tit": 3992,
  "▁big": 3993,
  "▁mag": 3994,
  "égard": 3995,
  "▁vite": 3996,
  "▁dites": 3997,
  "▁ɲafan": 3998,
  "▁puisse": 3999,
  "▁saniya": 4000,
  "▁second": 4001,
  "ède": 4002,
  "▁sh": 4003,
  "esti": 4004,
  "érie": 4005,
  "▁195": 4006,
  "▁kii": 4007,
  "▁bons": 4008,
  "▁chap": 4009,
  "▁hago": 4010,
  "vèrent": 4011,
  "▁hɛɛrɛ": 4012,
  "▁priez": 4013,
  "▁tilen": 4014,
  "▁pourra": 4015,
  "▁suivre": 4016,
  "▁connaît": 4017,
  "▁retrouv": 4018,
  "▁décembre": 4019,
  "▁histoire": 4020,
  "▁quiconque": 4021,
  "uns": 4022,
  "chet": 4023,
  "tile": 4024,
  "▁haï": 4025,
  "onses": 4026,
  "▁bugɔ": 4027,
  "▁lagu": 4028,
  "▁tiɲè": 4029,
  "▁tunun": 4030,
  "▁kiraya": 4031,
  "▁ɡ": 4032,
  "sira": 4033,
  "▁huit": 4034,
  "▁suiv": 4035,
  "▁faite": 4036,
  "▁kolon": 4037,
  "▁venue": 4038,
  "▁q": 4039,
  "ged": 4040,
  "▁fɛ̀": 4041,
  "▁neu": 4042,
  "▁durée": 4043,
  "▁changé": 4044,
  "▁gouver": 4045,
  "▁source": 4046,
  "évangile": 4047,
  "▁ressuscité": 4048,
  "▁mɔgɔkɔrɔbaw": 4049,
  "ela": 4050,
  "tho": 4051,
  "▁51": 4052,
  "rila": 4053,
  "rɛti": 4054,
  "état": 4055,
  "▁devi": 4056,
  "▁môgô": 4057,
  "▁page": 4058,
  "▁tèna": 4059,
  "existe": 4060,
  "▁décidé": 4061,
  "ensemble": 4062,
  "lam": 4063,
  "ecti": 4064,
  "midi": 4065,
  "saan": 4066,
  "▁fév": 4067,
  "▁nde": 4068,
  "annon": 4069,
  "▁créa": 4070,
  "▁domi": 4071,
  "▁appro": 4072,
  "▁kasira": 4073,
  "▁musique": 4074,
  "xu": 4075,
  "yés": 4076,
  "▁kogo": 4077,
  "▁rent": 4078,
  "▁tulu": 4079,
  "▁wara": 4080,
  "attente": 4081,
  "▁diinan": 4082,
  "▁jukɔrɔ": 4083,
  "ŋo": 4084,
  "vol": 4085,
  "▁ache": 4086,
  "▁suru": 4087,
  "▁tiga": 4088,
  "▁vote": 4089,
  "▁caman": 4090,
  "▁taara": 4091,
  "▁certain": 4092,
  "▁pɛrɛnna": 4093,
  "▁réponses": 4094,
  "▁nécessaire": 4095,
  "para": 4096,
  "ribu": 4097,
  "aimes": 4098,
  "▁sɔli": 4099,
  "▁croit": 4100,
  "▁moyen": 4101,
  "▁sanga": 4102,
  "▁simon": 4103,
  "écriture": 4104,
  "▁grandes": 4105,
  "▁maisons": 4106,
  "▁spiritu": 4107,
  "pr": 4108,
  "obé": 4109,
  "son": 4110,
  "▁book": 4111,
  "▁ferme": 4112,
  "▁lende": 4113,
  "▁pluie": 4114,
  "ɲɔgɔnya": 4115,
  "▁fagara": 4116,
  "▁garçon": 4117,
  "▁seerew": 4118,
  "▁arijana": 4119,
  "▁sariyaw": 4120,
  "▁abandonné": 4121,
  "▁balimamuso": 4122,
  "itɔ": 4123,
  "omi": 4124,
  "▁fé": 4125,
  "dieux": 4126,
  "lanan": 4127,
  "▁2013": 4128,
  "▁fini": 4129,
  "▁parv": 4130,
  "▁samu": 4131,
  "▁test": 4132,
  "▁judée": 4133,
  "▁table": 4134,
  "▁kɛlɛkɛ": 4135,
  "▁daalili": 4136,
  "▁réfléch": 4137,
  "▁israélites": 4138,
  "▁jɔ": 4139,
  "baaw": 4140,
  "liya": 4141,
  "▁tor": 4142,
  "▁koba": 4143,
  "cteurs": 4144,
  "▁gusun": 4145,
  "inquiète": 4146,
  "▁lendemain": 4147,
  "▁nafolotigi": 4148,
  "▁religieuse": 4149,
  "wn": 4150,
  "▁noé": 4151,
  "esses": 4152,
  "▁karo": 4153,
  "dition": 4154,
  "▁datugu": 4155,
  "▁frança": 4156,
  "▁développ": 4157,
  "ben": 4158,
  "gré": 4159,
  "ica": 4160,
  "▁bà": 4161,
  "▁mì": 4162,
  "▁18-": 4163,
  "▁bri": 4164,
  "▁doo": 4165,
  "▁wul": 4166,
  "attend": 4167,
  "▁faama": 4168,
  "▁telle": 4169,
  "▁capable": 4170,
  "emb": 4171,
  "▁pon": 4172,
  "œuvre": 4173,
  "▁sɛnɛ": 4174,
  "▁tota": 4175,
  "▁kunma": 4176,
  "▁lɔgɔkun": 4177,
  "▁baarakɛla": 4178,
  ":20": 4179,
  "car": 4180,
  "▁juin": 4181,
  "▁miir": 4182,
  "entend": 4183,
  "▁messa": 4184,
  "▁montre": 4185,
  "▁ɲagami": 4186,
  "▁concerne": 4187,
  "▁population": 4188,
  "▁souffrance": 4189,
  "id": 4190,
  "wɑ": 4191,
  "kɔnɔ": 4192,
  "minɛ": 4193,
  "▁nyo": 4194,
  "▁demi": 4195,
  "▁masi": 4196,
  "▁yere": 4197,
  "▁baasi": 4198,
  "▁efɛzi": 4199,
  "▁nuits": 4200,
  "▁témoignage": 4201,
  "hs": 4202,
  "▁ng": 4203,
  "empê": 4204,
  "ɔnin": 4205,
  "▁ber": 4206,
  "▁ham": 4207,
  "sionn": 4208,
  "▁atta": 4209,
  "▁jula": 4210,
  "▁champ": 4211,
  "▁phili": 4212,
  "▁souha": 4213,
  "▁tromp": 4214,
  "▁venus": 4215,
  "▁devrait": 4216,
  "▁peuples": 4217,
  "attention": 4218,
  "▁cɛkɔrɔbaw": 4219,
  ":8": 4220,
  "ry": 4221,
  ":19": 4222,
  "ctu": 4223,
  "ton": 4224,
  "bele": 4225,
  "▁eze": 4226,
  "▁ayez": 4227,
  "▁kind": 4228,
  "▁otro": 4229,
  "▁décédé": 4230,
  "▁jardin": 4231,
  "▁wolobagaw": 4232,
  "sɛn": 4233,
  "▁ik": 4234,
  "▁ps": 4235,
  "cool": 4236,
  "▁dons": 4237,
  "▁portes": 4238,
  "▁voyage": 4239,
  "▁janvier": 4240,
  "▁rapport": 4241,
  "▁derniers": 4242,
  "].": 4243,
  "▁;": 4244,
  "oun": 4245,
  "▁hoo": 4246,
  "▁lég": 4247,
  "▁tre": 4248,
  "▁recom": 4249,
  "▁diable": 4250,
  "▁découv": 4251,
  "▁voient": 4252,
  "humanité": 4253,
  "ned": 4254,
  "▁2-": 4255,
  "▁nò": 4256,
  "▁rô": 4257,
  "▁mama": 4258,
  "▁must": 4259,
  "▁donko": 4260,
  "▁repos": 4261,
  "▁duguma": 4262,
  "▁danbaga": 4263,
  "intention": 4264,
  "com": 4265,
  "oit": 4266,
  "indi": 4267,
  "▁idée": 4268,
  "▁tomb": 4269,
  "titude": 4270,
  "▁kɔrɔn": 4271,
  "▁lesqu": 4272,
  "▁dencɛw": 4273,
  "▁valeur": 4274,
  "▁regarde": 4275,
  "tala": 4276,
  "étant": 4277,
  "▁atte": 4278,
  "▁feel": 4279,
  "▁lase": 4280,
  "▁levi": 4281,
  "▁yôrô": 4282,
  "▁fen": 4283,
  "ement": 4284,
  "rière": 4285,
  "▁minan": 4286,
  "▁tagar": 4287,
  "▁article": 4288,
  "▁pardonne": 4289,
  "▁traduction": 4290,
  ":15": 4291,
  "▁abs": 4292,
  "jecti": 4293,
  "▁amen": 4294,
  "▁jara": 4295,
  "▁yɛle": 4296,
  "▁zude": 4297,
  "▁état": 4298,
  "▁gonna": 4299,
  "▁mérit": 4300,
  "▁attend": 4301,
  "▁cogoya": 4302,
  "▁famine": 4303,
  "▁mourut": 4304,
  "▁réussi": 4305,
  "▁promesse": 4306,
  "▁kɔlɔsikaw": 4307,
  "tif": 4308,
  "zan": 4309,
  "rées": 4310,
  "▁ole": 4311,
  "vites": 4312,
  "▁masòrò": 4313,
  "▁numéro": 4314,
  "▁dernière": 4315,
  "bia": 4316,
  "ɔru": 4317,
  "▁kora": 4318,
  "▁pare": 4319,
  "▁sair": 4320,
  "article": 4321,
  "▁voyons": 4322,
  "▁parties": 4323,
  "▁puisque": 4324,
  "▁bataille": 4325,
  "▁moo": 4326,
  "▁déta": 4327,
  "▁hinɛ": 4328,
  "▁jɛrɛ": 4329,
  "▁kele": 4330,
  "▁lolo": 4331,
  "▁masaw": 4332,
  "▁resse": 4333,
  "▁super": 4334,
  "▁tiens": 4335,
  "chèrent": 4336,
  "instant": 4337,
  "▁sairly": 4338,
  "▁laisser": 4339,
  "▁créateur": 4340,
  "rita": 4341,
  "ttes": 4342,
  "▁dad": 4343,
  "▁mor": 4344,
  "▁empê": 4345,
  "▁jigɛ": 4346,
  "▁nɛnɛ": 4347,
  "▁quar": 4348,
  "▁sila": 4349,
  "▁kasih": 4350,
  "▁bɔnsɔn": 4351,
  "▁katugu": 4352,
  "▁woloma": 4353,
  "lication": 4354,
  "ezi": 4355,
  "èse": 4356,
  "▁52": 4357,
  "cule": 4358,
  "▁kat": 4359,
  "▁actu": 4360,
  "▁juma": 4361,
  "▁toun": 4362,
  "▁sinon": 4363,
  "▁dɛmɛbaga": 4364,
  "50.": 4365,
  "tera": 4366,
  "▁bil": 4367,
  "▁wɛ̃": 4368,
  "istre": 4369,
  "▁feere": 4370,
  "▁minni": 4371,
  "▁phara": 4372,
  "▁weele": 4373,
  "▁choisi": 4374,
  "▁livres": 4375,
  "▁œuvres": 4376,
  "▁sauveur": 4377,
  "▁miracles": 4378,
  "rém": 4379,
  "▁us": 4380,
  ",...": 4381,
  "▁inf": 4382,
  "▁lut": 4383,
  "lèmes": 4384,
  "▁chine": 4385,
  "▁meurt": 4386,
  "▁sarah": 4387,
  "▁corint": 4388,
  "▁ɲagali": 4389,
  "sc": 4390,
  "▁%": 4391,
  "voie": 4392,
  "yaka": 4393,
  "▁gba": 4394,
  "▁fɔta": 4395,
  "nation": 4396,
  "▁colle": 4397,
  "▁jesus": 4398,
  "▁tèmèn": 4399,
  "versaire": 4400,
  "▁hɔrɔnya": 4401,
  "▁parlait": 4402,
  "▁période": 4403,
  "gè": 4404,
  "▁ris": 4405,
  "▁tôt": 4406,
  "istes": 4407,
  "▁dege": 4408,
  "▁exac": 4409,
  "▁prov": 4410,
  "▁philipp": 4411,
  "▁respect": 4412,
  "▁premiers": 4413,
  "▁!!": 4414,
  "▁ina": 4415,
  "étran": 4416,
  "▁date": 4417,
  "▁faniw": 4418,
  "▁lɔyɔrɔ": 4419,
  "▁termin": 4420,
  "▁fallait": 4421,
  "▁retourn": 4422,
  "▁problèmes": 4423,
  "14": 4424,
  "▁1,": 4425,
  "lité": 4426,
  "saraka": 4427,
  "▁forte": 4428,
  "▁pensé": 4429,
  "▁prêts": 4430,
  "▁titre": 4431,
  "▁juillet": 4432,
  "▁solomani": 4433,
  "em": 4434,
  ":25": 4435,
  "idée": 4436,
  "▁jac": 4437,
  "viter": 4438,
  "▁grâces": 4439,
  "▁descendu": 4440,
  "▁pratique": 4441,
  "▁tilannin": 4442,
  "▁mɔgɔjuguw": 4443,
  "▁vé": 4444,
  "zari": 4445,
  "rions": 4446,
  "▁chau": 4447,
  "▁ladon": 4448,
  "▁président": 4449,
  "▁+": 4450,
  "cho": 4451,
  "juru": 4452,
  "▁199": 4453,
  "▁dii": 4454,
  "▁cira": 4455,
  "▁oise": 4456,
  "▁tran": 4457,
  "▁yari": 4458,
  "▁œuvre": 4459,
  "▁prépar": 4460,
  "▁communi": 4461,
  "▁présence": 4462,
  "▁ɲiningaliw": 4463,
  "▁100": 4464,
  "▁avi": 4465,
  "▁malɔ": 4466,
  "isions": 4467,
  "▁biens": 4468,
  "▁dieux": 4469,
  "▁kàlan": 4470,
  "▁cibaga": 4471,
  "▁arrivés": 4472,
  "hn": 4473,
  ":24": 4474,
  "▁gro": 4475,
  "▁ndɛ": 4476,
  "▁hors": 4477,
  "action": 4478,
  "ations": 4479,
  "▁lemɛn": 4480,
  "▁obser": 4481,
  "▁bɛnnin": 4482,
  "▁semble": 4483,
  "▁tagged": 4484,
  "▁endroit": 4485,
  "▁personna": 4486,
  "ɛl": 4487,
  "gir": 4488,
  "sus": 4489,
  "ɛli": 4490,
  "▁nim": 4491,
  "▁nta": 4492,
  "bilité": 4493,
  "gation": 4494,
  "▁vidéo": 4495,
  "▁solution": 4496,
  "▁ment": 4497,
  "▁liban": 4498,
  "▁naxan": 4499,
  "▁charge": 4500,
  "▁sauvés": 4501,
  "▁savent": 4502,
  "▁samarie": 4503,
  "▁attendre": 4504,
  "▁présente": 4505,
  "▁dì": 4506,
  "alle": 4507,
  "isée": 4508,
  "▁parc": 4509,
  "taient": 4510,
  "▁photo": 4511,
  "▁repas": 4512,
  "occasion": 4513,
  "▁informa": 4514,
  "information": 4515,
  "▁baarakɛlaw": 4516,
  "▁jij": 4517,
  "▁cɛɛw": 4518,
  "▁kule": 4519,
  "▁pron": 4520,
  "▁vaut": 4521,
  "▁jaman": 4522,
  "▁judas": 4523,
  "▁allons": 4524,
  "▁entrer": 4525,
  "▁lanaya": 4526,
  "▁récomp": 4527,
  "▁égypte": 4528,
  "▁faisant": 4529,
  "▁miséricordieux": 4530,
  "cat": 4531,
  "tun": 4532,
  "▁em": 4533,
  "▁kô": 4534,
  "▁ég": 4535,
  "chés": 4536,
  "line": 4537,
  "▁pun": 4538,
  "▁thé": 4539,
  "kalan": 4540,
  "▁awak": 4541,
  "▁rich": 4542,
  "époque": 4543,
  "▁texte": 4544,
  "▁kakala": 4545,
  "▁kɔmɔgɔ": 4546,
  "▁épouse": 4547,
  "▁dagamun": 4548,
  "▁naloman": 4549,
  "▁poisson": 4550,
  "ône": 4551,
  "irent": 4552,
  "▁mout": 4553,
  "kɔrɔba": 4554,
  "occupe": 4555,
  "urunin": 4556,
  "▁plait": 4557,
  "▁donnez": 4558,
  "▁effecti": 4559,
  "▁pharaon": 4560,
  "▁différence": 4561,
  "lor": 4562,
  "reux": 4563,
  "wɛli": 4564,
  "▁juu": 4565,
  "▁koko": 4566,
  "▁nkan": 4567,
  "▁babil": 4568,
  "▁soins": 4569,
  "▁banned": 4570,
  "21": 4571,
  "inf": 4572,
  "▁55": 4573,
  "▁ed": 4574,
  "▁wà": 4575,
  "▁bel": 4576,
  "▁pal": 4577,
  "enons": 4578,
  "euses": 4579,
  "ɔnhɔn": 4580,
  "▁août": 4581,
  "▁folo": 4582,
  "▁kowa": 4583,
  "▁dakun": 4584,
  "▁ligne": 4585,
  "arrivée": 4586,
  "▁ɲumanw": 4587,
  "▁faransi": 4588,
  "assemblée": 4589,
  "▁synagogue": 4590,
  "--": 4591,
  "abs": 4592,
  "▁af": 4593,
  "sant": 4594,
  "ayant": 4595,
  "prise": 4596,
  "arrête": 4597,
  "▁begɛnw": 4598,
  "▁dispos": 4599,
  "▁aimeras": 4600,
  "▁masasig": 4601,
  "apprendre": 4602,
  "▁kuntigiya": 4603,
  "▁montagnes": 4604,
  "],": 4605,
  "her": 4606,
  "▁sp": 4607,
  "▁ze": 4608,
  "▁kas": 4609,
  "▁now": 4610,
  "▁xɔn": 4611,
  "leurs": 4612,
  "▁afri": 4613,
  "▁tɔɔw": 4614,
  "▁satis": 4615,
  "▁jacques": 4616,
  "▁continue": 4617,
  "__": 4618,
  "▁·": 4619,
  "mas": 4620,
  "ong": 4621,
  "yaw": 4622,
  "dɔmu": 4623,
  "lace": 4624,
  "▁50/": 4625,
  "▁éto": 4626,
  "ennes": 4627,
  "▁cham": 4628,
  "▁kiya": 4629,
  "▁kɛrɛ": 4630,
  "▁dibaga": 4631,
  "▁kisili": 4632,
  "▁lévites": 4633,
  "9-": 4634,
  "uli": 4635,
  "▁ir": 4636,
  "▁soin": 4637,
  "▁tint": 4638,
  "dawuda": 4639,
  "liquer": 4640,
  "▁affir": 4641,
  "▁liber": 4642,
  "▁réuni": 4643,
  "▁woman": 4644,
  "diction": 4645,
  "pourquoi": 4646,
  "▁adultes": 4647,
  "▁53": 4648,
  "bara": 4649,
  "▁aur": 4650,
  "arbre": 4651,
  "▁bisa": 4652,
  "▁tara": 4653,
  "▁gbɛlɛ": 4654,
  "▁impos": 4655,
  "lations": 4656,
  "▁bénéfi": 4657,
  "▁cheveux": 4658,
  "▁kunmabɔ": 4659,
  "cté": 4660,
  "ŋga": 4661,
  "▁know": 4662,
  "▁nɔrɔ": 4663,
  "entrée": 4664,
  "▁fɛɛrɛ": 4665,
  "▁lamèn": 4666,
  "▁victi": 4667,
  "▁dirige": 4668,
  "▁lequel": 4669,
  "▁kabakow": 4670,
  "▁regardez": 4671,
  "▁masasigilan": 4672,
  "13": 4673,
  "cto": 4674,
  "mos": 4675,
  "ales": 4676,
  "ninw": 4677,
  "▁séc": 4678,
  "accep": 4679,
  "isage": 4680,
  "ziɲɛw": 4681,
  "▁dunu": 4682,
  "urance": 4683,
  "ɔrɔnan": 4684,
  "▁organ": 4685,
  "cations": 4686,
  "éritage": 4687,
  "▁croyez": 4688,
  "▁dɔgɔya": 4689,
  "▁justes": 4690,
  "▁conseil": 4691,
  "▁glorifi": 4692,
  "▁isiyaka": 4693,
  "▁chrétiens": 4694,
  "▁travaille": 4695,
  "àn": 4696,
  "dra": 4697,
  "▁1.": 4698,
  "ette": 4699,
  "lées": 4700,
  "sɛbɛ": 4701,
  "tien": 4702,
  "▁gau": 4703,
  "▁ŋga": 4704,
  "▁gala": 4705,
  "▁gari": 4706,
  "▁sina": 4707,
  "▁vint": 4708,
  "liance": 4709,
  "▁plein": 4710,
  "▁telef": 4711,
  "▁gwansan": 4712,
  "hh": 4713,
  "êt": 4714,
  "▁%%": 4715,
  "▁év": 4716,
  "yens": 4717,
  "▁lin": 4718,
  "▁sus": 4719,
  "gique": 4720,
  "▁tògò": 4721,
  "▁ezeki": 4722,
  "▁consulter": 4723,
  "▁surunyana": 4724,
  "rɔ": 4725,
  "▁56": 4726,
  "▁hun": 4727,
  "▁nùn": 4728,
  "aller": 4729,
  "arche": 4730,
  "▁conn": 4731,
  "▁kòni": 4732,
  "▁yara": 4733,
  "▁cinqu": 4734,
  "▁fasse": 4735,
  "▁yɔrɔjan": 4736,
  "▁mɔgɔfaga": 4737,
  "ny": 4738,
  "bri": 4739,
  "hen": 4740,
  "pré": 4741,
  "val": 4742,
  "▁nw": 4743,
  "rèrent": 4744,
  "▁fɔtaw": 4745,
  "▁crains": 4746,
  "▁dimina": 4747,
  "▁soumis": 4748,
  "▁batofɛn": 4749,
  "ɑɑ": 4750,
  "ell": 4751,
  "huit": 4752,
  "vage": 4753,
  "vaux": 4754,
  "▁uni": 4755,
  "▁wor": 4756,
  "ctifi": 4757,
  "tième": 4758,
  "▁couv": 4759,
  "▁faits": 4760,
  "accueil": 4761,
  "▁prisonni": 4762,
  "▁souffran": 4763,
  "ril": 4764,
  "riti": 4765,
  "▁bal": 4766,
  "▁yɔn": 4767,
  "▁bébé": 4768,
  "▁lere": 4769,
  "▁répu": 4770,
  "▁zaki": 4771,
  "▁digne": 4772,
  "▁fruit": 4773,
  "▁possi": 4774,
  "ception": 4775,
  "onnement": 4776,
  "▁apôtres": 4777,
  "▁sankaba": 4778,
  "▁lemɛniya": 4779,
  "▁représent": 4780,
  "▁effectivement": 4781,
  "yin": 4782,
  "▁kh": 4783,
  "▁196": 4784,
  "▁amo": 4785,
  "▁bén": 4786,
  "▁naa": 4787,
  "▁saw": 4788,
  "merci": 4789,
  "▁laaa": 4790,
  "▁korɛn": 4791,
  "▁siraw": 4792,
  "▁étudi": 4793,
  "▁batise": 4794,
  "▁reconnu": 4795,
  "▁mɔgɔbabaw": 4796,
  "ua": 4797,
  "aba": 4798,
  "rio": 4799,
  "ting": 4800,
  "▁sòn": 4801,
  "sieur": 4802,
  "▁mean": 4803,
  "▁livré": 4804,
  "▁filɛli": 4805,
  "▁fleuve": 4806,
  "▁politi": 4807,
  "▁donnera": 4808,
  "▁demandez": 4809,
  "cis": 4810,
  "dou": 4811,
  "quis": 4812,
  "▁dji": 4813,
  "expri": 4814,
  "▁pros": 4815,
  "▁sɛgɛ": 4816,
  "▁maria": 4817,
  "▁nuhun": 4818,
  "▁50/50.": 4819,
  "▁consta": 4820,
  "▁terikɛ": 4821,
  "▁baarakɛ": 4822,
  "sarakalase": 4823,
  "▁ev": 4824,
  "alie": 4825,
  "kɛlɛ": 4826,
  "▁aie": 4827,
  "phone": 4828,
  "▁fòlò": 4829,
  "▁daniel": 4830,
  "▁nyogon": 4831,
  "▁puisqu": 4832,
  "▁sabati": 4833,
  "▁tugura": 4834,
  "▁langage": 4835,
  "▁wɔɔrɔnan": 4836,
  "▁banabagatɔ": 4837,
  "▁facilement": 4838,
  "riw": 4839,
  "éle": 4840,
  "mand": 4841,
  "▁mak": 4842,
  "▁béni": 4843,
  "▁fali": 4844,
  "▁fɔɲɔ": 4845,
  "▁papa": 4846,
  "oublie": 4847,
  "▁racon": 4848,
  "interro": 4849,
  "▁vendre": 4850,
  "▁veulent": 4851,
  "ɑ̃ɑ": 4852,
  "▁wì": 4853,
  "ectu": 4854,
  "yila": 4855,
  "▁deb": 4856,
  "ciles": 4857,
  "duire": 4858,
  "hiens": 4859,
  "▁aveu": 4860,
  "▁bras": 4861,
  "▁tɔnɔ": 4862,
  "lément": 4863,
  "▁hébre": 4864,
  "▁jɔɔnw": 4865,
  "▁proté": 4866,
  "enseign": 4867,
  "▁propri": 4868,
  "▁racont": 4869,
  "▁reçoit": 4870,
  "▁février": 4871,
  "▁pierres": 4872,
  "▁babilɔni": 4873,
  "▁esclaves": 4874,
  "▁fanibugu": 4875,
  "▁tigitigi": 4876,
  "▁différents": 4877,
  "▁souffrances": 4878,
  "18": 4879,
  "bus": 4880,
  "▁58": 4881,
  "▁op": 4882,
  "nant": 4883,
  "taga": 4884,
  "▁hau": 4885,
  "▁baru": 4886,
  "▁fɔla": 4887,
  "▁mina": 4888,
  "▁susu": 4889,
  "▁tana": 4890,
  "esclave": 4891,
  "▁généra": 4892,
  "▁lonanw": 4893,
  "▁tumabee": 4894,
  "▁yahutuw": 4895,
  "▁nyogonfe": 4896,
  "▁comprenez": 4897,
  "▁xo": 4898,
  "kalo": 4899,
  "kira": 4900,
  "lier": 4901,
  "mett": 4902,
  "▁ɛrɛ": 4903,
  "▁baga": 4904,
  "▁bɔna": 4905,
  "▁mini": 4906,
  "▁minè": 4907,
  "adress": 4908,
  "alcool": 4909,
  "▁lonan": 4910,
  "▁badenw": 4911,
  "▁minɛna": 4912,
  "▁courant": 4913,
  "▁korɛnti": 4914,
  "▁liberté": 4915,
  "informations": 4916,
  "lit": 4917,
  "orer": 4918,
  "▁laf": 4919,
  "▁tak": 4920,
  "resser": 4921,
  "endroit": 4922,
  "▁ventre": 4923,
  "▁ɲènama": 4924,
  "▁appréci": 4925,
  "▁dɔgɔtɔrɔso": 4926,
  "oux": 4927,
  "▁jè": 4928,
  "▁soy": 4929,
  "▁améri": 4930,
  "▁capit": 4931,
  "▁murut": 4932,
  "▁sisen": 4933,
  "endront": 4934,
  "▁seereya": 4935,
  "▁travaux": 4936,
  "abandonne": 4937,
  "▁sanctifi": 4938,
  "6.": 4939,
  "maw": 4940,
  "▁gɔ": 4941,
  "agwɛ": 4942,
  "gnez": 4943,
  "▁ajou": 4944,
  "▁nahi": 4945,
  "▁pose": 4946,
  "▁seli": 4947,
  "▁tiin": 4948,
  "▁dugus": 4949,
  "▁mandi": 4950,
  "▁paris": 4951,
  "▁damani": 4952,
  "▁repris": 4953,
  "▁ɲinɛna": 4954,
  "▁fiɲɛntɔw": 4955,
  "▁nalomanw": 4956,
  "▁miséricorde": 4957,
  "yon": 4958,
  "▁bl": 4959,
  "▁kel": 4960,
  "▁lam": 4961,
  "▁obé": 4962,
  "▁the": 4963,
  "▁lain": 4964,
  "▁mogo": 4965,
  "▁remis": 4966,
  "▁confor": 4967,
  "▁mariés": 4968,
  "▁sainte": 4969,
  "▁tɔɲɔgɔn": 4970,
  "▁dugusagwɛ": 4971,
  "00.": 4972,
  "par": 4973,
  "phé": 4974,
  "▁yū": 4975,
  "euvre": 4976,
  "▁that": 4977,
  "kojugu": 4978,
  "▁commis": 4979,
  "▁destin": 4980,
  "▁timote": 4981,
  "karamɔgɔ": 4982,
  "▁kerecɛn": 4983,
  "▁qualité": 4984,
  "▁voulons": 4985,
  "▁kabakoya": 4986,
  "15": 4987,
  "tout": 4988,
  "wili": 4989,
  "▁flɛ": 4990,
  "▁ɛɛn": 4991,
  "gnent": 4992,
  "▁diza": 4993,
  "▁fiyɛ": 4994,
  "▁mans": 4995,
  "▁change": 4996,
  "▁façons": 4997,
  "▁profond": 4998,
  "extérieur": 4999,
  "▁exactement": 5000,
  "▁ɲɔ": 5001,
  "olée": 5002,
  "▁nte": 5003,
  "aimez": 5004,
  "graph": 5005,
  "▁suka": 5006,
  "▁écri": 5007,
  "▁certes": 5008,
  "paravant": 5009,
  "▁taamana": 5010,
  "▁denmusow": 5011,
  "▁kirisita": 5012,
  ":9": 5013,
  "cre": 5014,
  "kana": 5015,
  "titu": 5016,
  "éloi": 5017,
  "▁sɛn": 5018,
  "▁soix": 5019,
  "ormais": 5020,
  "▁birin": 5021,
  "▁jinaw": 5022,
  "ènement": 5023,
  "▁cherche": 5024,
  "▁voulais": 5025,
  "▁commandements": 5026,
  "las": 5027,
  "▁bun": 5028,
  "▁leh": 5029,
  "avant": 5030,
  "▁hare": 5031,
  "▁levé": 5032,
  "▁lɔti": 5033,
  "▁tari": 5034,
  "▁dougou": 5035,
  "▁départ": 5036,
  "▁naanin": 5037,
  "▁fagayɔrɔ": 5038,
  "▁français": 5039,
  "▁pardonner": 5040,
  "▁pouvaient": 5041,
  "▁conscience": 5042,
  "bèn": 5043,
  "lui": 5044,
  "ɛri": 5045,
  "ilen": 5046,
  "suis": 5047,
  "▁kpɛ": 5048,
  "▁eaux": 5049,
  "▁noms": 5050,
  "mettre": 5051,
  "▁bless": 5052,
  "▁cesse": 5053,
  "▁troup": 5054,
  "▁buguri": 5055,
  "▁laaaan": 5056,
  "▁pronon": 5057,
  "▁terima": 5058,
  "▁réalité": 5059,
  "ïe": 5060,
  "▁̈": 5061,
  "zɛn": 5062,
  "̀wɔ": 5063,
  "lance": 5064,
  "▁000)": 5065,
  "▁symp": 5066,
  "▁éloi": 5067,
  "▁ɔ̀wɔ": 5068,
  "import": 5069,
  "▁centa": 5070,
  "▁landa": 5071,
  "▁sabar": 5072,
  "▁écris": 5073,
  "aimerai": 5074,
  "▁accord": 5075,
  "▁appela": 5076,
  "▁jigiya": 5077,
  "▁junman": 5078,
  "▁compagn": 5079,
  "▁cherchez": 5080,
  "▁croyants": 5081,
  "▁worodugu": 5082,
  "amen": 5083,
  "fait": 5084,
  "fani": 5085,
  "▁nge": 5086,
  "▁cade": 5087,
  "▁need": 5088,
  "▁sɔrɔn": 5089,
  "▁quarante": 5090,
  "▁gouvernement": 5091,
  "▁tú": 5092,
  "auté": 5093,
  "gles": 5094,
  "itan": 5095,
  "òròn": 5096,
  "▁cés": 5097,
  "▁fala": 5098,
  "▁faux": 5099,
  "▁nani": 5100,
  "▁seras": 5101,
  "attends": 5102,
  "▁conser": 5103,
  "▁détour": 5104,
  "▁gusunɔ": 5105,
  "▁servir": 5106,
  "▁territ": 5107,
  "▁fangatigi": 5108,
  "▁résultats": 5109,
  "▁semblable": 5110,
  "▁réellement": 5111,
  "çu": 5112,
  "8.1": 5113,
  "▁bô": 5114,
  "9-20": 5115,
  "anti": 5116,
  "ɔbɛw": 5117,
  "▁wot": 5118,
  "enfer": 5119,
  "▁cité": 5120,
  "▁john": 5121,
  "▁kɔɲɔ": 5122,
  "▁obli": 5123,
  "▁syst": 5124,
  "▁battre": 5125,
  "▁julakan": 5126,
  "▁parlent": 5127,
  "▁balimacɛ": 5128,
  "▁kakalaya": 5129,
  ":37": 5130,
  "mal": 5131,
  "▁65": 5132,
  "▁ee": 5133,
  "orow": 5134,
  "▁ext": 5135,
  "itiri": 5136,
  "table": 5137,
  "▁bâti": 5138,
  "▁degi": 5139,
  "▁tobi": 5140,
  "▁bɛnna": 5141,
  "▁marié": 5142,
  "▁bɔnnin": 5143,
  "▁cherché": 5144,
  "▁douleur": 5145,
  "▁désormais": 5146,
  "▁sacrifice": 5147,
  "▁totalement": 5148,
  "approchèrent": 5149,
  "awo": 5150,
  "anni": 5151,
  "atan": 5152,
  "enda": 5153,
  "▁ess": 5154,
  "▁jer": 5155,
  "▁kah": 5156,
  "chait": 5157,
  "▁type": 5158,
  "▁yama": 5159,
  "▁ɲafɔ": 5160,
  "termin": 5161,
  "▁dents": 5162,
  "▁lieux": 5163,
  "▁tuman": 5164,
  "itation": 5165,
  "nements": 5166,
  "▁salaire": 5167,
  "▁apporter": 5168,
  "trg": 5169,
  "▁nyɔ": 5170,
  "▁évé": 5171,
  "gnait": 5172,
  "▁girɛ": 5173,
  "▁kilɛ": 5174,
  "▁sala": 5175,
  "▁wèrè": 5176,
  "▁sortes": 5177,
  "▁devenus": 5178,
  ":28": 5179,
  "lew": 5180,
  "afri": 5181,
  "sais": 5182,
  "aimés": 5183,
  "▁ngan": 5184,
  "▁carte": 5185,
  "▁siara": 5186,
  "usement": 5187,
  "▁rendit": 5188,
  "▁signes": 5189,
  "▁babylon": 5190,
  "▁vivants": 5191,
  "éra": 5192,
  "▁54": 5193,
  "▁gn": 5194,
  "▁mâ": 5195,
  "enin": 5196,
  "▁193": 5197,
  "▁gui": 5198,
  "▁sup": 5199,
  "▁top": 5200,
  "9-20)": 5201,
  "obser": 5202,
  "▁libé": 5203,
  "▁rési": 5204,
  "▁équi": 5205,
  "issage": 5206,
  "kanuya": 5207,
  "▁(28.1": 5208,
  "▁césar": 5209,
  "▁fonda": 5210,
  "▁kɛnin": 5211,
  "▁solda": 5212,
  "occuper": 5213,
  "▁ouvert": 5214,
  "▁points": 5215,
  "▁porter": 5216,
  "▁tulogw": 5217,
  "▁souviens": 5218,
  "▁(28.19-20)": 5219,
  "▁sacrifices": 5220,
  "11": 5221,
  "mont": 5222,
  "▁bèn": 5223,
  "▁kua": 5224,
  "▁maj": 5225,
  "▁nive": 5226,
  "▁amata": 5227,
  "istance": 5228,
  "▁dispar": 5229,
  "▁gauche": 5230,
  "▁muruti": 5231,
  "▁noonoo": 5232,
  "▁corinthiens": 5233,
  "5:": 5234,
  "far": 5235,
  "ɲan": 5236,
  "▁koe": 5237,
  "faits": 5238,
  "▁noël": 5239,
  "▁pati": 5240,
  "▁pewu": 5241,
  "▁quin": 5242,
  "kuntigi": 5243,
  "▁fidèle": 5244,
  "▁furakɛ": 5245,
  "▁profes": 5246,
  "▁sayuli": 5247,
  "entendre": 5248,
  ":12": 5249,
  "tifs": 5250,
  "objet": 5251,
  "▁jago": 5252,
  "▁neuf": 5253,
  "▁popo": 5254,
  "instal": 5255,
  "▁mondi": 5256,
  "▁egypte": 5257,
  "▁sirana": 5258,
  "▁courage": 5259,
  "▁vinrent": 5260,
  "▁2.": 5261,
  "▁4-": 5262,
  "▁700": 5263,
  "▁dee": 5264,
  "duite": 5265,
  "laman": 5266,
  "▁....": 5267,
  "▁lamp": 5268,
  "▁maro": 5269,
  "▁poli": 5270,
  "▁dérou": 5271,
  "▁loved": 5272,
  "▁monté": 5273,
  "▁garder": 5274,
  "▁sɔlida": 5275,
  "▁paradis": 5276,
  "▁mà": 5277,
  "loon": 5278,
  "▁ooo": 5279,
  "▁âge": 5280,
  "▁ayei": 5281,
  "▁gafew": 5282,
  "▁actions": 5283,
  "▁société": 5284,
  "▁souhaite": 5285,
  "▁sécurité": 5286,
  "▁yɛlɛmana": 5287,
  "▁dagamunin": 5288,
  "ak": 5289,
  "gal": 5290,
  "boɲa": 5291,
  "bɛrɛ": 5292,
  "musa": 5293,
  "erenw": 5294,
  "musow": 5295,
  "▁aawo": 5296,
  "▁nobar": 5297,
  "▁porté": 5298,
  "▁préfé": 5299,
  "▁donnés": 5300,
  "▁triste": 5301,
  "▁tununa": 5302,
  "▁établi": 5303,
  "▁intinya": 5304,
  "▁siaramɔ": 5305,
  "▁comments": 5306,
  "▁monsieur": 5307,
  "-2": 5308,
  "aise": 5309,
  "▁34-": 5310,
  "▁dòw": 5311,
  "▁exa": 5312,
  "▁flo": 5313,
  "kumaw": 5314,
  "▁croix": 5315,
  "▁rends": 5316,
  "▁filipu": 5317,
  "▁labaan": 5318,
  "▁pensée": 5319,
  "▁pièces": 5320,
  "agissait": 5321,
  "▁pleurer": 5322,
  "accomplir": 5323,
  "▁communauté": 5324,
  "bɑ": 5325,
  "aura": 5326,
  "▁ble": 5327,
  "▁dal": 5328,
  "▁dam": 5329,
  "▁gan": 5330,
  "dence": 5331,
  "upart": 5332,
  "▁vent": 5333,
  "amuser": 5334,
  "issais": 5335,
  "▁daman": 5336,
  "▁ɔnhɔn": 5337,
  "▁disais": 5338,
  "▁mirent": 5339,
  "▁offici": 5340,
  "▁moutons": 5341,
  "▁passait": 5342,
  "▁plupart": 5343,
  "▁rassemb": 5344,
  "▁détruire": 5345,
  "▁retourne": 5346,
  "èl": 5347,
  "45.": 5348,
  "hor": 5349,
  "net": 5350,
  "ved": 5351,
  "▁cy": 5352,
  "▁pè": 5353,
  "mbéc": 5354,
  "▁deh": 5355,
  "ister": 5356,
  "▁enjo": 5357,
  "▁here": 5358,
  "▁inte": 5359,
  "▁rivi": 5360,
  "▁colos": 5361,
  "▁isira": 5362,
  "▁total": 5363,
  "▁effect": 5364,
  "▁effica": 5365,
  "▁parlez": 5366,
  "▁suruta": 5367,
  "▁wulila": 5368,
  "▁changer": 5369,
  "▁daminɛna": 5370,
  "▁auparavant": 5371,
  "bò": 5372,
  "nn": 5373,
  "ía": 5374,
  "pec": 5375,
  "▁ign": 5376,
  "▁kɛsu": 5377,
  "▁tend": 5378,
  "▁ɲɛna": 5379,
  "▁bɔnin": 5380,
  "▁ladegi": 5381,
  "▁arrivée": 5382,
  "▁malades": 5383,
  "'.": 5384,
  ":22": 5385,
  ":33": 5386,
  "▁gɛ": 5387,
  "▁jù": 5388,
  "cifi": 5389,
  "manu": 5390,
  "mmen": 5391,
  "tara": 5392,
  "▁mɛɛ": 5393,
  "enfui": 5394,
  "eront": 5395,
  "unité": 5396,
  "▁agré": 5397,
  "▁avis": 5398,
  "▁noir": 5399,
  "▁suun": 5400,
  "ininka": 5401,
  "▁eburu": 5402,
  "▁tente": 5403,
  "essayer": 5404,
  "▁litiri": 5405,
  "▁public": 5406,
  "approche": 5407,
  "étranger": 5408,
  "▁capitale": 5409,
  "▁kisibaga": 5410,
  "▁philippe": 5411,
  "▁véritable": 5412,
  "od": 5413,
  "bɔn": 5414,
  "minw": 5415,
  "yimu": 5416,
  "▁kia": 5417,
  "▁sar": 5418,
  "▁uso": 5419,
  "▁yèlè": 5420,
  "▁dadon": 5421,
  "▁fanta": 5422,
  "▁isaac": 5423,
  "▁claire": 5424,
  "▁debout": 5425,
  "▁israɛl": 5426,
  "▁lalaga": 5427,
  "▁sapiti": 5428,
  "▁ordonné": 5429,
  "▁réveillez": 5430,
  "▁construire": 5431,
  "▁tulogwerenw": 5432,
  "7.": 5433,
  "tah": 5434,
  "ɔdi": 5435,
  "▁66": 5436,
  "▁kĩ": 5437,
  "tidi": 5438,
  "▁day": 5439,
  "▁quo": 5440,
  "manan": 5441,
  "ombre": 5442,
  "▁réfé": 5443,
  "▁sɔtɔ": 5444,
  "tivité": 5445,
  "▁enfin": 5446,
  "▁entré": 5447,
  "▁ninsɔn": 5448,
  "▁parfois": 5449,
  "▁difficul": 5450,
  "▁discours": 5451,
  "▁construction": 5452,
  "ize": 5453,
  "nor": 5454,
  "pit": 5455,
  "▁sag": 5456,
  "▁gouv": 5457,
  "▁guéri": 5458,
  "▁sebaa": 5459,
  "▁fruits": 5460,
  "▁namara": 5461,
  "▁venait": 5462,
  "▁reviend": 5463,
  "▁batizera": 5464,
  "▁décision": 5465,
  "▁mɔgɔjugu": 5466,
  "▁naaninan": 5467,
  "▁forobayɔrɔw": 5468,
  "▁farisogobana": 5469,
  "âme": 5470,
  "▁boi": 5471,
  "▁chɛ": 5472,
  "▁nɔn": 5473,
  "▁reg": 5474,
  "▁wie": 5475,
  "illez": 5476,
  "rémie": 5477,
  "▁rêve": 5478,
  "▁sibo": 5479,
  "▁allés": 5480,
  "▁trône": 5481,
  "artient": 5482,
  "blement": 5483,
  "▁farisi": 5484,
  "▁girɛki": 5485,
  "▁sabbat": 5486,
  "▁isirayila": 5487,
  "▁impossible": 5488,
  "pon": 5489,
  "▁59": 5490,
  "obsc": 5491,
  "▁foo": 5492,
  "▁zon": 5493,
  "▁amer": 5494,
  "▁jate": 5495,
  "▁kafo": 5496,
  "▁quat": 5497,
  "▁savi": 5498,
  "▁ɲanabɔ": 5499,
  "▁alatala": 5500,
  "▁conduit": 5501,
  "▁disponi": 5502,
  "▁philist": 5503,
  "▁sebaaya": 5504,
  "mentation": 5505,
  "▁craignez": 5506,
  "▁daniyɛli": 5507,
  "▁efɛzikaw": 5508,
  "▁rappelle": 5509,
  "▁meilleure": 5510,
  ":26": 5511,
  "eng": 5512,
  "▁57": 5513,
  "huile": 5514,
  "▁kami": 5515,
  "▁life": 5516,
  "ennemi": 5517,
  "rirent": 5518,
  "▁proba": 5519,
  "▁précé": 5520,
  "▁repro": 5521,
  "▁sɔngɔ": 5522,
  "▁transp": 5523,
  "▁système": 5524,
  "▁allèrent": 5525,
  "▁sapitiri": 5526,
  "▁korɛntikaw": 5527,
  "▁kititigɛlaw": 5528,
  "▁¿": 5529,
  "ypo": 5530,
  "▁3.": 5531,
  "▁dɛn": 5532,
  "▁joo": 5533,
  "▁nyɛ": 5534,
  "▁yar": 5535,
  "aniya": 5536,
  "▁lune": 5537,
  "▁viol": 5538,
  "auteur": 5539,
  "erreur": 5540,
  "anmoins": 5541,
  "vention": 5542,
  "▁siècle": 5543,
  "▁sortit": 5544,
  "▁filisiw": 5545,
  "▁kowagara": 5546,
  "expérience": 5547,
  "bin": 5548,
  "cap": 5549,
  "ets": 5550,
  "lou": 5551,
  "▁od": 5552,
  "ande": 5553,
  "dain": 5554,
  "thée": 5555,
  "▁jòn": 5556,
  "▁kɛli": 5557,
  "▁ɲɔɔn": 5558,
  "épouse": 5559,
  "équipe": 5560,
  "▁nommé": 5561,
  "▁jɛnsɛn": 5562,
  "▁kɔrɔsi": 5563,
  "▁sabali": 5564,
  "▁sunguruw": 5565,
  "rentissage": 5566,
  "▁taamacogo": 5567,
  "▁philistins": 5568,
  "▁sungurunin": 5569,
  "▁»": 5570,
  "faw": 5571,
  "gar": 5572,
  "mère": 5573,
  "▁dil": 5574,
  "▁basa": 5575,
  "▁dɔ̀n": 5576,
  "▁surv": 5577,
  "jectif": 5578,
  "maniya": 5579,
  "zareth": 5580,
  "▁begɛn": 5581,
  "afrique": 5582,
  "▁firiya": 5583,
  "▁muruku": 5584,
  "▁revenu": 5585,
  "éternité": 5586,
  "▁jérémie": 5587,
  "▁ressusc": 5588,
  "▁néanmoins": 5589,
  "▁dadonkumaw": 5590,
  "mit": 5591,
  "▁69": 5592,
  "tiɲè": 5593,
  "▁won": 5594,
  "isent": 5595,
  "▁poss": 5596,
  "aiment": 5597,
  "▁chans": 5598,
  "▁grecs": 5599,
  "▁réser": 5600,
  "▁ɲinan": 5601,
  "▁dadili": 5602,
  "▁natuma": 5603,
  "▁rendez": 5604,
  "▁miliyɔn": 5605,
  "▁quotidi": 5606,
  "▁remerci": 5607,
  "▁entièrement": 5608,
  "hô": 5609,
  "iw": 5610,
  "the": 5611,
  "ute": 5612,
  "basi": 5613,
  "vite": 5614,
  "▁aje": 5615,
  "▁fɔn": 5616,
  "iller": 5617,
  "injus": 5618,
  "orgue": 5619,
  "▁conta": 5620,
  "▁enjoy": 5621,
  "▁nalon": 5622,
  "▁voyant": 5623,
  "adamaden": 5624,
  "▁désolée": 5625,
  "▁israéli": 5626,
  "▁continuer": 5627,
  "▁kuntigiba": 5628,
  "▁retourner": 5629,
  "accomplissement": 5630,
  "▁«": 5631,
  "dɔn": 5632,
  "▁dù": 5633,
  "kala": 5634,
  "yira": 5635,
  "▁kaj": 5636,
  "ayons": 5637,
  "tesse": 5638,
  "▁lois": 5639,
  "▁rôle": 5640,
  "embras": 5641,
  "▁aurez": 5642,
  "▁pente": 5643,
  "▁resta": 5644,
  "▁mɛɛnna": 5645,
  "▁sachant": 5646,
  "▁comporte": 5647,
  "▁commencer": 5648,
  "▁informations": 5649,
  "ram": 5650,
  "▁kl": 5651,
  "avan": 5652,
  "fɛɛn": 5653,
  "phra": 5654,
  "gunin": 5655,
  "▁kiri": 5656,
  "▁prote": 5657,
  "▁sèbèn": 5658,
  "adresse": 5659,
  "▁cikura": 5660,
  "▁désolé": 5661,
  "▁kɔgɔji": 5662,
  "▁sɔrɔko": 5663,
  "▁fidèles": 5664,
  "obscurité": 5665,
  "▁septième": 5666,
  "▁wajibiya": 5667,
  "uu": 5668,
  "ary": 5669,
  "ats": 5670,
  "red": 5671,
  "▁my": 5672,
  "ince": 5673,
  "ɲɛna": 5674,
  "▁ile": 5675,
  "▁win": 5676,
  "cieux": 5677,
  "illir": 5678,
  "tiens": 5679,
  "▁maza": 5680,
  "▁yisa": 5681,
  "▁écla": 5682,
  "▁accor": 5683,
  "▁genre": 5684,
  "▁years": 5685,
  "▁dehors": 5686,
  "▁diiman": 5687,
  "▁prophé": 5688,
  "▁purifi": 5689,
  "▁babylone": 5690,
  "▁relation": 5691,
  "ese": 5692,
  "rêt": 5693,
  "tos": 5694,
  "▁ly": 5695,
  "levé": 5696,
  "wara": 5697,
  "▁châ": 5698,
  "▁kôn": 5699,
  "▁oli": 5700,
  "riers": 5701,
  "rista": 5702,
  "▁aint": 5703,
  "▁duré": 5704,
  "▁foli": 5705,
  "▁poro": 5706,
  "▁says": 5707,
  "▁sisi": 5708,
  "▁cents": 5709,
  "▁woilu": 5710,
  "▁bateau": 5711,
  "▁damina": 5712,
  "▁longue": 5713,
  "▁ntalen": 5714,
  "▁rappel": 5715,
  "▁époque": 5716,
  "▁baptême": 5717,
  "▁accompli": 5718,
  "▁soixante": 5719,
  "▁mɔgɔɲuman": 5720,
  "▁réveiller": 5721,
  "kh": 5722,
  "lô": 5723,
  "ace": 5724,
  "fen": 5725,
  "mées": 5726,
  "▁bis": 5727,
  "lèves": 5728,
  "ourou": 5729,
  "▁bama": 5730,
  "▁nayi": 5731,
  "▁vécu": 5732,
  "ctobre": 5733,
  "▁arbre": 5734,
  "▁possé": 5735,
  "▁arrêté": 5736,
  "▁consac": 5737,
  "▁instru": 5738,
  "▁visage": 5739,
  "▁profess": 5740,
  "▁murutili": 5741,
  "▁nazareth": 5742,
  "▁préparer": 5743,
  "▁accompagn": 5744,
  "▁ɲinibagaw": 5745,
  "▁colossiens": 5746,
  "som": 5747,
  "▁4.": 5748,
  "▁yg": 5749,
  "dité": 5750,
  "▁197": 5751,
  "▁tit": 5752,
  "▁koni": 5753,
  "▁caché": 5754,
  "▁hakɛw": 5755,
  "▁kuluw": 5756,
  "▁liste": 5757,
  "▁parla": 5758,
  "▁quitté": 5759,
  "▁supéri": 5760,
  "▁lecture": 5761,
  "▁tɔɔrɔla": 5762,
  "▁pauvreté": 5763,
  "▁sentiment": 5764,
  "▁territoire": 5765,
  "sarakalasebagaw": 5766,
  "atɔ": 5767,
  "too": 5768,
  "book": 5769,
  "lɛkɛ": 5770,
  "sogo": 5771,
  "yiri": 5772,
  "rande": 5773,
  "▁2014": 5774,
  "▁salu": 5775,
  "avance": 5776,
  "mɛlɛkɛ": 5777,
  "▁saalo": 5778,
  "▁stupi": 5779,
  "wulanan": 5780,
  "▁feelin": 5781,
  "▁malgré": 5782,
  "▁naître": 5783,
  "▁salenw": 5784,
  "▁apporté": 5785,
  "▁erreurs": 5786,
  "▁gouvern": 5787,
  "▁oiseaux": 5788,
  "▁ailleurs": 5789,
  "▁puissant": 5790,
  "▁direction": 5791,
  "▁voulaient": 5792,
  "▁tilennenya": 5793,
  "▁wolonwulanan": 5794,
  "ane": 5795,
  "cés": 5796,
  "zar": 5797,
  "gana": 5798,
  "zuda": 5799,
  "▁cik": 5800,
  "▁dra": 5801,
  "▁yɛ̃": 5802,
  "yanni": 5803,
  "▁afuɛ": 5804,
  "▁alij": 5805,
  "▁dùgu": 5806,
  "▁souh": 5807,
  "▁sôrô": 5808,
  "▁togo": 5809,
  "▁want": 5810,
  "entifi": 5811,
  "minanw": 5812,
  "mément": 5813,
  "▁vieux": 5814,
  "▁tryina": 5815,
  "▁wulafɛ": 5816,
  "▁craindre": 5817,
  "▁retrouvé": 5818,
  "▁sarakabɔ": 5819,
  "▁devraient": 5820,
  "eli": 5821,
  "hum": 5822,
  "ois": 5823,
  "uté": 5824,
  "▁bh": 5825,
  "▁190": 5826,
  "▁anc": 5827,
  "▁mboo": 5828,
  "▁sinc": 5829,
  "▁symb": 5830,
  "somɔgɔ": 5831,
  "▁jasin": 5832,
  "▁lɔnko": 5833,
  "▁mùnna": 5834,
  "▁poste": 5835,
  "▁associ": 5836,
  "▁fantan": 5837,
  "▁karaba": 5838,
  "▁lazare": 5839,
  "▁makoya": 5840,
  "▁muntah": 5841,
  "▁susuli": 5842,
  "▁miracle": 5843,
  "▁spécial": 5844,
  "▁halakili": 5845,
  "apprentissage": 5846,
  "▁kalandensomɔgɔ": 5847,
  "rc": 5848,
  "gba": 5849,
  "phe": 5850,
  "xan": 5851,
  "ɛmu": 5852,
  "▁sì": 5853,
  "nent": 5854,
  "omma": 5855,
  "▁naw": 5856,
  "usion": 5857,
  "étude": 5858,
  "▁2018": 5859,
  "▁kélé": 5860,
  "▁siko": 5861,
  "▁ameri": 5862,
  "▁penda": 5863,
  "▁vraie": 5864,
  "▁oublié": 5865,
  "▁termes": 5866,
  "▁culture": 5867,
  "▁restent": 5868,
  "▁dumuniba": 5869,
  "▁karamògò": 5870,
  "wali": 5871,
  "▁fût": 5872,
  "isant": 5873,
  "moire": 5874,
  "▁duga": 5875,
  "▁gayi": 5876,
  "▁gros": 5877,
  "▁jeux": 5878,
  "▁wusu": 5879,
  "▁zezi": 5880,
  "▁zɔbu": 5881,
  "▁conva": 5882,
  "▁jùmɛn": 5883,
  "▁maris": 5884,
  "▁lazari": 5885,
  "▁boɲafɛn": 5886,
  "▁données": 5887,
  "▁étoiles": 5888,
  "▁difficiles": 5889,
  "ül": 5890,
  "▁sà": 5891,
  "hima": 5892,
  "▁sti": 5893,
  "îtres": 5894,
  "▁fata": 5895,
  "▁koto": 5896,
  "▁lady": 5897,
  "▁modè": 5898,
  "▁naza": 5899,
  "▁ɲɛsin": 5900,
  "chement": 5901,
  "▁banana": 5902,
  "▁dafara": 5903,
  "▁souhait": 5904,
  "▁manamana": 5905,
  "▁timothée": 5906,
  "utilisation": 5907,
  "ué": 5908,
  "▁dû": 5909,
  "▁jò": 5910,
  "dées": 5911,
  "orce": 5912,
  "usse": 5913,
  "écut": 5914,
  "▁mux": 5915,
  "ɛlɛya": 5916,
  "cident": 5917,
  "ection": 5918,
  "▁autor": 5919,
  "▁métho": 5920,
  "osition": 5921,
  "▁canaan": 5922,
  "▁compli": 5923,
  "▁contrô": 5924,
  "▁fisaya": 5925,
  "▁rapide": 5926,
  "▁serais": 5927,
  "▁écouté": 5928,
  "▁alijɛnɛ": 5929,
  "▁esprits": 5930,
  "▁ɲasiran": 5931,
  "▁kelennama": 5932,
  "hon": 5933,
  "pic": 5934,
  "èbè": 5935,
  "enen": 5936,
  "ited": 5937,
  "▁bir": 5938,
  "▁ore": 5939,
  "oires": 5940,
  "olesc": 5941,
  "▁?...": 5942,
  "▁bira": 5943,
  "▁gèlè": 5944,
  "▁wafa": 5945,
  "outent": 5946,
  "▁gratu": 5947,
  "▁simɔn": 5948,
  "▁aimait": 5949,
  "▁yirala": 5950,
  "▁américa": 5951,
  "▁lakolon": 5952,
  "▁limaniya": 5953,
  "▁recomman": 5954,
  "▁compagnons": 5955,
  "▁jalakibali": 5956,
  "▁retournèrent": 5957,
  ":30": 5958,
  "dia": 5959,
  "fee": 5960,
  "duis": 5961,
  "ypes": 5962,
  "çait": 5963,
  "asser": 5964,
  "endor": 5965,
  "minan": 5966,
  "taine": 5967,
  "▁espè": 5968,
  "▁idio": 5969,
  "▁kanw": 5970,
  "▁lata": 5971,
  "▁rues": 5972,
  "▁sage": 5973,
  "assion": 5974,
  "▁imbéc": 5975,
  "▁tribu": 5976,
  "envoyer": 5977,
  "▁distin": 5978,
  "▁fariya": 5979,
  "▁caracté": 5980,
  "▁savaient": 5981,
  "▁dumunifɛn": 5982,
  "17": 5983,
  "▁nn": 5984,
  "mari": 5985,
  "tère": 5986,
  "▁ana": 5987,
  "▁get": 5988,
  "▁mép": 5989,
  "▁tuu": 5990,
  "▁saül": 5991,
  "▁baliw": 5992,
  "▁dingɛ": 5993,
  "▁juges": 5994,
  "▁yahvé": 5995,
  "▁arbres": 5996,
  "▁marque": 5997,
  "▁pilate": 5998,
  "▁serons": 5999,
  "ducation": 6000,
  "▁humaine": 6001,
  "injustice": 6002,
  "▁nazarɛti": 6003,
  "▁sɔgɔmada": 6004,
  "▁viennent": 6005,
  "▁professionn": 6006,
  "hy": 6007,
  "cel": 6008,
  "dés": 6009,
  "tier": 6010,
  "araît": 6011,
  "▁cris": 6012,
  "▁fast": 6013,
  "▁joow": 6014,
  "▁solo": 6015,
  "▁stru": 6016,
  "▁tuba": 6017,
  "▁yoro": 6018,
  "▁cɛnni": 6019,
  "▁centre": 6020,
  "▁domuni": 6021,
  "▁filila": 6022,
  "▁annoncé": 6023,
  "▁apporte": 6024,
  "▁marcher": 6025,
  "▁rivière": 6026,
  "▁kɔgɔdugu": 6027,
  "▁souffrent": 6028,
  "▁compassion": 6029,
  "▁dɛsɛbagatɔw": 6030,
  "zɛ": 6031,
  "nii": 6032,
  "voi": 6033,
  "envi": 6034,
  "▁obt": 6035,
  "coura": 6036,
  "eremi": 6037,
  "exist": 6038,
  "lises": 6039,
  "onnée": 6040,
  "ressa": 6041,
  "écria": 6042,
  "▁anci": 6043,
  "▁juif": 6044,
  "▁wana": 6045,
  "aurait": 6046,
  "vation": 6047,
  "▁seenw": 6048,
  "▁syrie": 6049,
  "exemple": 6050,
  "ination": 6051,
  "▁gwɛnin": 6052,
  "▁sortie": 6053,
  "▁mémoire": 6054,
  "▁sɛbɛnna": 6055,
  "▁éléments": 6056,
  "importance": 6057,
  "▁karamɔgɔw": 6058,
  "▁étrangers": 6059,
  "▁concernant": 6060,
  "blu": 6061,
  "cie": 6062,
  "ɛti": 6063,
  "euro": 6064,
  "▁ask": 6065,
  "▁laa": 6066,
  "▁opp": 6067,
  "gonin": 6068,
  "▁bere": 6069,
  "▁kaga": 6070,
  "▁mena": 6071,
  "▁pero": 6072,
  "▁danga": 6073,
  "▁désir": 6074,
  "▁endor": 6075,
  "▁jɔnya": 6076,
  "▁sépar": 6077,
  "▁teris": 6078,
  "▁tient": 6079,
  "▁aimons": 6080,
  "▁fagali": 6081,
  "▁mérite": 6082,
  "▁zeremi": 6083,
  "▁kɔrɔtalen": 6084,
  "▁fangatigiw": 6085,
  "-3": 6086,
  "ave": 6087,
  "day": 6088,
  "cinq": 6089,
  "dama": 6090,
  "fasi": 6091,
  "saga": 6092,
  "siga": 6093,
  "ɲana": 6094,
  "▁dah": 6095,
  "▁tru": 6096,
  "gɛnin": 6097,
  "offre": 6098,
  "▁dece": 6099,
  "▁yaga": 6100,
  "▁bonté": 6101,
  "▁fɔlɔw": 6102,
  "▁kanin": 6103,
  "▁demeur": 6104,
  "▁divers": 6105,
  "▁niveau": 6106,
  "▁yuhana": 6107,
  "utiliser": 6108,
  "▁devient": 6109,
  "▁invités": 6110,
  "▁taayɔrɔ": 6111,
  "▁wusulan": 6112,
  "▁entendez": 6113,
  "▁souffert": 6114,
  "▁connaissais": 6115,
  "24": 6116,
  "▁→": 6117,
  "ysi": 6118,
  "ɔri": 6119,
  "▁ol": 6120,
  "▁bet": 6121,
  "▁dos": 6122,
  "▁lak": 6123,
  "▁tur": 6124,
  "▁web": 6125,
  "organ": 6126,
  "owabu": 6127,
  "▁jugé": 6128,
  "▁show": 6129,
  "▁tenu": 6130,
  "▁gbɛrɛ": 6131,
  "▁karoo": 6132,
  "▁saved": 6133,
  "annonce": 6134,
  "▁matins": 6135,
  "▁nimisa": 6136,
  "▁photos": 6137,
  "▁rentre": 6138,
  "▁verrez": 6139,
  "▁viande": 6140,
  "▁visite": 6141,
  "▁content": 6142,
  "▁justifi": 6143,
  "▁misiran": 6144,
  "▁kɛmɛkulu": 6145,
  "▁nouveaux": 6146,
  "cô": 6147,
  "ms": 6148,
  "leh": 6149,
  "évé": 6150,
  "▁ow": 6151,
  "delà": 6152,
  "kiki": 6153,
  "ongo": 6154,
  "tage": 6155,
  "▁fag": 6156,
  "▁net": 6157,
  "tance": 6158,
  "▁2020": 6159,
  "▁lien": 6160,
  "▁mars": 6161,
  "▁meri": 6162,
  "échapp": 6163,
  "▁aient": 6164,
  "▁comba": 6165,
  "▁dunya": 6166,
  "▁dɛmɛn": 6167,
  "▁girin": 6168,
  "▁bisaba": 6169,
  "▁decemb": 6170,
  "▁finman": 6171,
  "▁hanbun": 6172,
  "médiaire": 6173,
  "▁maîtres": 6174,
  "assurance": 6175,
  "▁yɛrɛboɲa": 6176,
  "▁cinquante": 6177,
  "bel": 6178,
  "cte": 6179,
  "cɛn": 6180,
  "gur": 6181,
  "▁nɑ": 6182,
  "fila": 6183,
  "kogo": 6184,
  "quée": 6185,
  "▁bur": 6186,
  "xième": 6187,
  "▁bête": 6188,
  "▁inbe": 6189,
  "▁nove": 6190,
  "▁aimes": 6191,
  "▁doute": 6192,
  "▁fanin": 6193,
  "▁kɛrɛn": 6194,
  "▁ngalon": 6195,
  "▁murukuw": 6196,
  "▁kerecɛnw": 6197,
  "▁méchants": 6198,
  "▁sinɔgɔra": 6199,
  "▁trouvent": 6200,
  "▁travaillé": 6201,
  "▁lesquelles": 6202,
  "nw": 6203,
  ":29": 6204,
  "ige": 6205,
  "iso": 6206,
  "omè": 6207,
  "oré": 6208,
  "ège": 6209,
  "cili": 6210,
  "rine": 6211,
  "▁aza": 6212,
  "▁bul": 6213,
  "▁coo": 6214,
  "▁suf": 6215,
  "améli": 6216,
  "ignor": 6217,
  "écart": 6218,
  "ɔrɔgɔ": 6219,
  "▁beth": 6220,
  "▁mens": 6221,
  "▁perd": 6222,
  "inrent": 6223,
  "▁kolɔn": 6224,
  "▁mansa": 6225,
  "▁posté": 6226,
  "▁sijan": 6227,
  "▁conver": 6228,
  "▁envoya": 6229,
  "▁fitinɛ": 6230,
  "▁instal": 6231,
  "▁layɔrɔ": 6232,
  "▁prince": 6233,
  "▁trésor": 6234,
  "▁nilifɛn": 6235,
  "▁quitter": 6236,
  "▁connaiss": 6237,
  "▁facebook": 6238,
  "▁arrivèrent": 6239,
  "bɛɛ": 6240,
  "pes": 6241,
  "qua": 6242,
  "oser": 6243,
  "▁bit": 6244,
  "▁gué": 6245,
  "denya": 6246,
  "▁2019": 6247,
  "▁bada": 6248,
  "▁jina": 6249,
  "▁posé": 6250,
  "▁scri": 6251,
  "▁énor": 6252,
  "▁ɲimi": 6253,
  "▁seuls": 6254,
  "oubliez": 6255,
  "▁18-45.": 6256,
  "▁kɔrɔla": 6257,
  "▁kɛwali": 6258,
  "▁monter": 6259,
  "▁élèves": 6260,
  "▁kɛwalew": 6261,
  "▁obtenir": 6262,
  "▁poissons": 6263,
  "▁kunmabɔsara": 6264,
  "ïm": 6265,
  "bou": 6266,
  "dee": 6267,
  "▁08": 6268,
  "enga": 6269,
  "irai": 6270,
  "yala": 6271,
  "▁kɛn": 6272,
  "réhen": 6273,
  "▁agak": 6274,
  "▁bare": 6275,
  "▁défi": 6276,
  "▁mata": 6277,
  "kunbɛn": 6278,
  "▁makin": 6279,
  "▁tombé": 6280,
  "approcha": 6281,
  "puissant": 6282,
  "▁terrain": 6283,
  "▁intéress": 6284,
  "▁représente": 6285,
  "23": 6286,
  "aan": 6287,
  "oui": 6288,
  "tar": 6289,
  "tch": 6290,
  "▁yɔ": 6291,
  "gnée": 6292,
  "illé": 6293,
  "sɔli": 6294,
  "çant": 6295,
  "▁kle": 6296,
  "▁sug": 6297,
  "aucun": 6298,
  "jésus": 6299,
  "vaise": 6300,
  "▁best": 6301,
  "▁hier": 6302,
  "▁lalɔ": 6303,
  "▁myst": 6304,
  "▁toke": 6305,
  "amitié": 6306,
  "▁butun": 6307,
  "▁kpuro": 6308,
  "▁types": 6309,
  "demment": 6310,
  "▁faveur": 6311,
  "▁litres": 6312,
  "▁procla": 6313,
  "▁kɛlɛden": 6314,
  "▁miirila": 6315,
  "▁gwɛlɛyaw": 6316,
  "▁souvenir": 6317,
  "▁réjouissez": 6318,
  "/0": 6319,
  "tò": 6320,
  "era": 6321,
  "src": 6322,
  "adul": 6323,
  "cier": 6324,
  "gali": 6325,
  "mant": 6326,
  "saya": 6327,
  "écla": 6328,
  "▁art": 6329,
  "▁cli": 6330,
  "▁sty": 6331,
  "▁cèma": 6332,
  "▁proc": 6333,
  "▁2005:": 6334,
  "▁culte": 6335,
  "diyanin": 6336,
  "▁danfɛn": 6337,
  "▁lajɛnw": 6338,
  "▁contribu": 6339,
  "▁jaabiliw": 6340,
  "▁novembre": 6341,
  "▁bololafɛnw": 6342,
  "nis": 6343,
  "▁5.": 6344,
  "▁xd": 6345,
  "ilon": 6346,
  "onie": 6347,
  "▁alo": 6348,
  "▁dògò": 6349,
  "▁fier": 6350,
  "▁lang": 6351,
  "lèrent": 6352,
  "▁cœurs": 6353,
  "▁défin": 6354,
  "▁juger": 6355,
  "▁kinin": 6356,
  "▁payer": 6357,
  "abilité": 6358,
  "orgueil": 6359,
  "▁ennemi": 6360,
  "▁marier": 6361,
  "▁nyɔgɔn": 6362,
  "▁promis": 6363,
  "autorité": 6364,
  "phésiens": 6365,
  "seigneur": 6366,
  "▁makinwa": 6367,
  "▁montrer": 6368,
  "▁soldats": 6369,
  "▁nafoloba": 6370,
  "▁produits": 6371,
  "▁terisɔbɛw": 6372,
  "▁sarakabɔyɔrɔ": 6373,
  "▁mɔgɔtilenninw": 6374,
  "cri": 6375,
  "let": 6376,
  "▁pê": 6377,
  "▁sw": 6378,
  "kiri": 6379,
  "pris": 6380,
  "tori": 6381,
  "▁sek": 6382,
  "▁bawo": 6383,
  "garamu": 6384,
  "▁faute": 6385,
  "▁cɛfari": 6386,
  "▁tintin": 6387,
  "▁badenma": 6388,
  "▁millions": 6389,
  "▁mondiale": 6390,
  "▁richesse": 6391,
  "▁récompense": 6392,
  "intermédiaire": 6393,
  "zo": 6394,
  "oli": 6395,
  "aimé": 6396,
  "meau": 6397,
  "▁kɛɛ": 6398,
  "▁lot": 6399,
  "▁poi": 6400,
  "alors": 6401,
  "▁tchè": 6402,
  "barras": 6403,
  "▁pâque": 6404,
  "enaient": 6405,
  "▁batoso": 6406,
  "▁complè": 6407,
  "▁nyuman": 6408,
  "▁vienne": 6409,
  "▁écrire": 6410,
  "▁bamanan": 6411,
  "▁croyons": 6412,
  "▁magnifi": 6413,
  "▁séparer": 6414,
  "▁denmisèn": 6415,
  "▁mauvaise": 6416,
  "▁pécheurs": 6417,
  "éva": 6418,
  "▁fuu": 6419,
  "amori": 6420,
  "gueur": 6421,
  "taire": 6422,
  "▁!...": 6423,
  "▁cuis": 6424,
  "▁célé": 6425,
  "▁gars": 6426,
  "▁kènè": 6427,
  "▁logo": 6428,
  "▁mode": 6429,
  "▁moon": 6430,
  "▁zuru": 6431,
  "agneau": 6432,
  "▁josué": 6433,
  "▁multi": 6434,
  "▁physi": 6435,
  "▁répan": 6436,
  "▁topic": 6437,
  "▁woron": 6438,
  "▁arriva": 6439,
  "▁refusé": 6440,
  "▁secret": 6441,
  "▁mettent": 6442,
  "▁propres": 6443,
  "▁souffre": 6444,
  "▁disciple": 6445,
  "▁donnerai": 6446,
  "▁kɔnɔntɔn": 6447,
  "▁malheure": 6448,
  "▁samarita": 6449,
  "▁tilenbaliya": 6450,
  "ìn": 6451,
  "▁3-": 6452,
  "appr": 6453,
  "asie": 6454,
  "bura": 6455,
  "elez": 6456,
  "ises": 6457,
  "sɛgɛ": 6458,
  "quant": 6459,
  "ɔgɔmɛ": 6460,
  "▁dure": 6461,
  "▁kèlè": 6462,
  "▁mere": 6463,
  "▁nian": 6464,
  "▁sauf": 6465,
  "▁tort": 6466,
  "▁yɛgɛ": 6467,
  "oeuvre": 6468,
  "▁talon": 6469,
  "▁repent": 6470,
  "▁accepté": 6471,
  "▁détruit": 6472,
  "▁proches": 6473,
  "▁zurudɛn": 6474,
  "▁constitu": 6475,
  "▁fariziɲɛw": 6476,
  "ɲɔgɔnkanuya": 6477,
  "▁banabagatɔw": 6478,
  "ls": 6479,
  "ud": 6480,
  "ath": 6481,
  "fèn": 6482,
  "sit": 6483,
  "zab": 6484,
  "▁ur": 6485,
  "cine": 6486,
  "liba": 6487,
  "obli": 6488,
  "rɛnɛ": 6489,
  "uves": 6490,
  "▁red": 6491,
  "▁ste": 6492,
  "▁yon": 6493,
  "aurez": 6494,
  "kelen": 6495,
  "▁base": 6496,
  "▁saul": 6497,
  "ɔrɔnya": 6498,
  "▁diver": 6499,
  "▁démar": 6500,
  "▁dɔgɔn": 6501,
  "gwɛdafɛ": 6502,
  "▁gagner": 6503,
  "▁lasigi": 6504,
  "▁nagasi": 6505,
  "▁verset": 6506,
  "▁farafin": 6507,
  "▁jumalon": 6508,
  "▁sagaden": 6509,
  "▁tagaman": 6510,
  "▁chapitre": 6511,
  "▁derrière": 6512,
  "▁miligaramu": 6513,
  "én": 6514,
  "bis": 6515,
  "pro": 6516,
  "▁09": 6517,
  "▁tv": 6518,
  "côte": 6519,
  "ssin": 6520,
  "▁hor": 6521,
  "▁sod": 6522,
  "▁tal": 6523,
  "intes": 6524,
  "ssiez": 6525,
  "▁mase": 6526,
  "▁effra": 6527,
  "▁ninja": 6528,
  "▁série": 6529,
  "▁yinni": 6530,
  "ondance": 6531,
  "ancienne": 6532,
  "▁2012...": 6533,
  "▁fassiez": 6534,
  "▁octobre": 6535,
  "▁presque": 6536,
  "▁comprend": 6537,
  "ank": 6538,
  "tir": 6539,
  "siri": 6540,
  "tanw": 6541,
  "▁bra": 6542,
  "▁tho": 6543,
  "istra": 6544,
  "▁buka": 6545,
  "▁dari": 6546,
  "▁ence": 6547,
  "▁féli": 6548,
  "▁honn": 6549,
  "▁mous": 6550,
  "▁peau": 6551,
  "▁prog": 6552,
  "krista": 6553,
  "▁13:11": 6554,
  "▁1905.": 6555,
  "▁biran": 6556,
  "▁conte": 6557,
  "▁latin": 6558,
  "▁misira": 6559,
  "▁tubabu": 6560,
  "appelles": 6561,
  "▁jourdain": 6562,
  "▁retourna": 6563,
  "▁lafiɲɛlon": 6564,
  "reg": 6565,
  "▁5-": 6566,
  "ctri": 6567,
  "perç": 6568,
  "urez": 6569,
  "▁ata": 6570,
  "▁kpɑ": 6571,
  "▁beso": 6572,
  "▁lani": 6573,
  "▁naxa": 6574,
  "▁tool": 6575,
  "▁tués": 6576,
  "apôtre": 6577,
  "▁asiri": 6578,
  "▁bibli": 6579,
  "▁diina": 6580,
  "▁fòlen": 6581,
  "▁nankɔ": 6582,
  "arrêter": 6583,
  "▁dépend": 6584,
  "▁latigè": 6585,
  "▁moyens": 6586,
  "▁samuel": 6587,
  "▁accompl": 6588,
  "▁daganin": 6589,
  "▁permett": 6590,
  "▁setigiw": 6591,
  "▁sɛgɛsɛgɛ": 6592,
  "▁merveille": 6593,
  "▁pentecôte": 6594,
  "isirayɛlidenw": 6595,
  "din": 6596,
  "▁vɛ": 6597,
  "avec": 6598,
  "oura": 6599,
  "qués": 6600,
  "▁mel": 6601,
  "▁rej": 6602,
  "▁shi": 6603,
  "▁tar": 6604,
  "entra": 6605,
  "isode": 6606,
  "▁boirai": 6607,
  "▁extrém": 6608,
  "▁minanw": 6609,
  "▁nowɛli": 6610,
  "▁palais": 6611,
  "▁saviez": 6612,
  "héritage": 6613,
  "▁envoyés": 6614,
  "▁baaradenw": 6615,
  "▁faranfasi": 6616,
  "▁bénédiction": 6617,
  "▁parfaitement": 6618,
  "12": 6619,
  "gt": 6620,
  "rode": 6621,
  "vrez": 6622,
  "yusi": 6623,
  "zuwe": 6624,
  "▁bam": 6625,
  "▁gom": 6626,
  "▁nés": 6627,
  "▁pat": 6628,
  "kinin": 6629,
  "liers": 6630,
  "▁dent": 6631,
  "▁macé": 6632,
  "▁âgée": 6633,
  "▁efara": 6634,
  "▁talen": 6635,
  "▁yalor": 6636,
  "▁masakè": 6637,
  "▁yamaan": 6638,
  "▁esclave": 6639,
  "▁fagakun": 6640,
  "▁passage": 6641,
  "▁teliman": 6642,
  "accompagn": 6643,
  "veillance": 6644,
  "▁villages": 6645,
  "▁multitude": 6646,
  "▁tristesse": 6647,
  ":21": 6648,
  "vil": 6649,
  "▁ay": 6650,
  "▁kag": 6651,
  "▁tòw": 6652,
  "▁aloo": 6653,
  "▁euro": 6654,
  "▁jiba": 6655,
  "▁koro": 6656,
  "▁réun": 6657,
  "▁sela": 6658,
  "▁sexu": 6659,
  "▁tɛma": 6660,
  "aimais": 6661,
  "▁bande": 6662,
  "▁bruit": 6663,
  "▁égard": 6664,
  "aration": 6665,
  "▁consom": 6666,
  "▁djaman": 6667,
  "▁imagin": 6668,
  "▁jakuma": 6669,
  "▁months": 6670,
  "▁montré": 6671,
  "▁origin": 6672,
  "▁tomber": 6673,
  "▁éviter": 6674,
  "▁essayer": 6675,
  "▁saamori": 6676,
  "▁scribes": 6677,
  "ignorance": 6678,
  "▁regarder": 6679,
  "▁senumanw": 6680,
  "▁wasabali": 6681,
  "▁bamanankan": 6682,
  "▁comprennent": 6683,
  "ia": 6684,
  "avi": 6685,
  "nal": 6686,
  "xin": 6687,
  "île": 6688,
  "ɔna": 6689,
  "▁lâ": 6690,
  "▁ok": 6691,
  "▁tâ": 6692,
  "wabu": 6693,
  "▁côt": 6694,
  "▁dia": 6695,
  "▁eti": 6696,
  "▁lac": 6697,
  "▁lko": 6698,
  "▁évi": 6699,
  "allez": 6700,
  "ettes": 6701,
  "▁lion": 6702,
  "laires": 6703,
  "▁crier": 6704,
  "▁refus": 6705,
  "▁vigne": 6706,
  "▁égaux": 6707,
  "▁appart": 6708,
  "▁finita": 6709,
  "▁lkoinw": 6710,
  "▁jɔnmuso": 6711,
  "▁princes": 6712,
  "▁réalisé": 6713,
  "▁yòrònin": 6714,
  "adressant": 6715,
  "▁retrouve": 6716,
  "▁tɛmɛnnen": 6717,
  "▁faisaient": 6718,
  "▁manifesté": 6719,
  "▁jɛnɲɔgɔnya": 6720,
  ".:": 6721,
  "lik": 6722,
  "▁80": 6723,
  "athi": 6724,
  "onge": 6725,
  "pent": 6726,
  "sept": 6727,
  "yôrô": 6728,
  "ɔgwɛ": 6729,
  "▁dɔɔ": 6730,
  "aurai": 6731,
  "doine": 6732,
  "▁avan": 6733,
  "▁koyi": 6734,
  "▁vict": 6735,
  "europe": 6736,
  "illent": 6737,
  "▁barna": 6738,
  "▁coupe": 6739,
  "▁group": 6740,
  "▁patri": 6741,
  "▁sabia": 6742,
  "▁démons": 6743,
  "▁détest": 6744,
  "▁dɔɔnin": 6745,
  "▁fransi": 6746,
  "▁gèlèya": 6747,
  "▁kisira": 6748,
  "▁libres": 6749,
  "▁longer": 6750,
  "▁mowabu": 6751,
  "▁tigɛra": 6752,
  "▁ancêtres": 6753,
  "▁sagajigi": 6754,
  "▁construit": 6755,
  "▁richesses": 6756,
  "▁kumaɲɔgɔnya": 6757,
  "▁kɛlɛkɛminanw": 6758,
  ":49": 6759,
  "fir": 6760,
  "pha": 6761,
  "▁mc": 6762,
  "anie": 6763,
  "chel": 6764,
  "sili": 6765,
  "yaan": 6766,
  "▁caï": 6767,
  "▁emb": 6768,
  "▁ger": 6769,
  "▁gwa": 6770,
  "▁nus": 6771,
  "▁rév": 6772,
  "▁tùn": 6773,
  "isées": 6774,
  "ption": 6775,
  "▁bori": 6776,
  "▁dɔrɔ": 6777,
  "cèrent": 6778,
  "guille": 6779,
  "▁kosèbè": 6780,
  "▁pareil": 6781,
  "▁baptisé": 6782,
  "▁mission": 6783,
  "▁raisons": 6784,
  "▁certaine": 6785,
  "▁relations": 6786,
  "ev": 6787,
  "▁“": 6788,
  "fit": 6789,
  "èle": 6790,
  "bies": 6791,
  "▁few": 6792,
  "▁lat": 6793,
  "affir": 6794,
  "faire": 6795,
  "onasi": 6796,
  "▁kôrô": 6797,
  "▁lamɔ": 6798,
  "▁look": 6799,
  "▁nini": 6800,
  "▁pleu": 6801,
  "▁serv": 6802,
  "▁sèbè": 6803,
  "italie": 6804,
  "▁côtés": 6805,
  "▁edɔmu": 6806,
  "▁kɔnin": 6807,
  "antaine": 6808,
  "écoutez": 6809,
  "▁dajuru": 6810,
  "▁eurent": 6811,
  "▁mariée": 6812,
  "▁palest": 6813,
  "▁profon": 6814,
  "▁sanctu": 6815,
  "pération": 6816,
  "▁chanson": 6817,
  "▁kanulen": 6818,
  "▁pensées": 6819,
  "▁surtout": 6820,
  "▁capables": 6821,
  "▁teliyara": 6822,
  "▁ɲènamaya": 6823,
  "lémentaires": 6824,
  "pie": 6825,
  "éma": 6826,
  "▁dr": 6827,
  "▁eza": 6828,
  "aninw": 6829,
  "ininw": 6830,
  "ordin": 6831,
  "truis": 6832,
  "▁anin": 6833,
  "▁jeté": 6834,
  "▁labɔ": 6835,
  "▁prév": 6836,
  "▁toro": 6837,
  "ologie": 6838,
  "urunan": 6839,
  "▁dépla": 6840,
  "▁pages": 6841,
  "▁procé": 6842,
  "▁élevé": 6843,
  "▁feront": 6844,
  "▁gardez": 6845,
  "▁labila": 6846,
  "▁single": 6847,
  "▁séjour": 6848,
  "alliance": 6849,
  "enseigner": 6850,
  "▁sɔgɔmadafɛ": 6851,
  "▁certainement": 6852,
  "ot": 6853,
  ":38": 6854,
  "îne": 6855,
  "exer": 6856,
  "▁bòn": 6857,
  "▁hen": 6858,
  "gulan": 6859,
  "▁1959": 6860,
  "▁fair": 6861,
  "▁gbɔn": 6862,
  "▁tani": 6863,
  "zuwifu": 6864,
  "▁biblu": 6865,
  "▁jonas": 6866,
  "▁argent": 6867,
  "▁kɛyɔrɔ": 6868,
  "▁progra": 6869,
  "▁succès": 6870,
  "▁chambre": 6871,
  "▁djamana": 6872,
  "▁effectu": 6873,
  "avènement": 6874,
  "▁allaient": 6875,
  "▁détermin": 6876,
  "▁patience": 6877,
  "▁vendredi": 6878,
  "▁macédoine": 6879,
  "▁caractéris": 6880,
  "jɛ": 6881,
  ":44": 6882,
  "mɔɔ": 6883,
  "̀rɔ": 6884,
  "agir": 6885,
  "gban": 6886,
  "mité": 6887,
  "moin": 6888,
  "tiez": 6889,
  "tiri": 6890,
  "▁cɛ̀": 6891,
  "▁dum": 6892,
  "▁kur": 6893,
  "▁lor": 6894,
  "diyan": 6895,
  "▁bɔgɔ": 6896,
  "▁jala": 6897,
  "▁kaun": 6898,
  "▁odds": 6899,
  "▁14:17": 6900,
  "▁beyen": 6901,
  "▁clair": 6902,
  "▁dating": 6903,
  "▁saninw": 6904,
  "▁sauvée": 6905,
  "▁tribus": 6906,
  "▁parfait": 6907,
  "▁créature": 6908,
  "▁centaines": 6909,
  "▁formation": 6910,
  "▁vingtaine": 6911,
  "▁kowagarazu": 6912,
  "40": 6913,
  "rr": 6914,
  "ty": 6915,
  "▁6-": 6916,
  "▁sù": 6917,
  "gnan": 6918,
  "kèla": 6919,
  "omin": 6920,
  "ouff": 6921,
  "tive": 6922,
  "ushi": 6923,
  "▁née": 6924,
  "▁sco": 6925,
  "chons": 6926,
  "tɔɔrɔ": 6927,
  "zième": 6928,
  "▁adop": 6929,
  "▁bour": 6930,
  "▁hèrè": 6931,
  "▁jogo": 6932,
  "▁koun": 6933,
  "▁tels": 6934,
  "▁vies": 6935,
  "essaie": 6936,
  "yɛlɛma": 6937,
  "▁chers": 6938,
  "▁convi": 6939,
  "▁leele": 6940,
  "▁terme": 6941,
  "▁weeks": 6942,
  "absence": 6943,
  "▁batoli": 6944,
  "▁muɲuli": 6945,
  "habitude": 6946,
  "▁hébreux": 6947,
  "▁nourris": 6948,
  "▁wagatiw": 6949,
  "éducation": 6950,
  "▁cɛkɔrɔba": 6951,
  "▁interdit": 6952,
  "▁présents": 6953,
  "▁réveillé": 6954,
  "▁enseigner": 6955,
  "▁extrémités": 6956,
  "22": 6957,
  "ami": 6958,
  "▁62": 6959,
  "daga": 6960,
  "▁hin": 6961,
  "▁phé": 6962,
  "▁pur": 6963,
  "▁amun": 6964,
  "▁auto": 6965,
  "▁bann": 6966,
  "▁bɔni": 6967,
  "▁jaaw": 6968,
  "▁jera": 6969,
  "▁occu": 6970,
  "aimait": 6971,
  "kɛyɔrɔ": 6972,
  "▁divin": 6973,
  "▁fuite": 6974,
  "▁baiser": 6975,
  "▁restée": 6976,
  "▁vɛrise": 6977,
  "▁ɲɛyira": 6978,
  "▁partage": 6979,
  "▁ressemb": 6980,
  "▁devaient": 6981,
  "▁duurunan": 6982,
  "▁troupeau": 6983,
  "accompagne": 6984,
  "▁denmisènw": 6985,
  "▁respecter": 6986,
  "▁mɔgɔfagala": 6987,
  "▁participer": 6988,
  "▁prisonniers": 6989,
  "?'": 6990,
  "_.": 6991,
  "rg": 6992,
  "ink": 6993,
  "tta": 6994,
  "▁??": 6995,
  "▁lì": 6996,
  "assi": 6997,
  "body": 6998,
  "dant": 6999,
  "oure": 7000,
  "unan": 7001,
  "èmes": 7002,
  "▁méc": 7003,
  "appar": 7004,
  "ressé": 7005,
  "▁bɛrɛ": 7006,
  "▁dala": 7007,
  "▁espé": 7008,
  "▁etre": 7009,
  "▁jang": 7010,
  "▁kofɔ": 7011,
  "▁kore": 7012,
  "▁sabe": 7013,
  "▁tigè": 7014,
  "▁tôgô": 7015,
  "associ": 7016,
  "▁bwisi": 7017,
  "▁créer": 7018,
  "▁haute": 7019,
  "▁itali": 7020,
  "▁provo": 7021,
  "▁réfle": 7022,
  "▁étais": 7023,
  "▁consid": 7024,
  "▁modifi": 7025,
  "▁taille": 7026,
  "▁témoin": 7027,
  "▁zonasi": 7028,
  "attendre": 7029,
  "▁adolesc": 7030,
  "▁kibaari": 7031,
  "▁lonanya": 7032,
  "▁version": 7033,
  "▁suivante": 7034,
  "▁telefɔni": 7035,
  "▁trouverez": 7036,
  "▁conditions": 7037,
  ".3": 7038,
  "16": 7039,
  "ât": 7040,
  "guè": 7041,
  "▁nè": 7042,
  "affi": 7043,
  "sent": 7044,
  "▁._.": 7045,
  "▁ate": 7046,
  "▁bha": 7047,
  "▁job": 7048,
  "autel": 7049,
  "ereur": 7050,
  "▁egil": 7051,
  "▁enga": 7052,
  "▁exer": 7053,
  "▁fiye": 7054,
  "▁hate": 7055,
  "▁kila": 7056,
  "imagin": 7057,
  "rences": 7058,
  "▁cessé": 7059,
  "▁convo": 7060,
  "assurer": 7061,
  "▁sebari": 7062,
  "▁tericɛ": 7063,
  "▁tuguni": 7064,
  "▁annonce": 7065,
  "▁écouter": 7066,
  "▁douleurs": 7067,
  "▁nyininka": 7068,
  "▁résultat": 7069,
  "▁furuɲɔgɔn": 7070,
  "weh": 7071,
  "éro": 7072,
  "▁ky": 7073,
  "▁tà": 7074,
  "huma": 7075,
  "lles": 7076,
  "▁103": 7077,
  "▁agi": 7078,
  "▁hel": 7079,
  "▁kod": 7080,
  "▁ngɔ": 7081,
  "▁tee": 7082,
  "lever": 7083,
  "▁fɔli": 7084,
  "▁gofɛ": 7085,
  "▁kizu": 7086,
  "▁soro": 7087,
  "▁star": 7088,
  "▁capac": 7089,
  "▁dimin": 7090,
  "▁janfa": 7091,
  "▁maraw": 7092,
  "▁récon": 7093,
  "▁siens": 7094,
  "▁action": 7095,
  "▁chance": 7096,
  "▁dayɛlɛ": 7097,
  "▁destru": 7098,
  "▁duguba": 7099,
  "▁pleine": 7100,
  "empêcher": 7101,
  "interpré": 7102,
  "▁donnent": 7103,
  "▁annoncer": 7104,
  "▁bangebagaw": 7105,
  "gh": 7106,
  "bur": 7107,
  "eta": 7108,
  "mat": 7109,
  "ìla": 7110,
  "ɔrɛ": 7111,
  "▁03": 7112,
  "▁wù": 7113,
  "ires": 7114,
  "▁env": 7115,
  "▁gbe": 7116,
  "▁hii": 7117,
  "▁low": 7118,
  "pital": 7119,
  "▁doct": 7120,
  "▁doma": 7121,
  "▁onze": 7122,
  "▁suit": 7123,
  "▁sɔsɔ": 7124,
  "▁tech": 7125,
  "ignait": 7126,
  "▁kablo": 7127,
  "▁renon": 7128,
  "▁révol": 7129,
  "▁video": 7130,
  "arriver": 7131,
  "quement": 7132,
  "▁cacher": 7133,
  "▁erreur": 7134,
  "▁fanŋga": 7135,
  "▁marché": 7136,
  "▁suffit": 7137,
  "▁vision": 7138,
  "▁anglais": 7139,
  "▁chameau": 7140,
  "▁ezekiel": 7141,
  "▁manières": 7142,
  "▁mɔgɔbalu": 7143,
  "▁partager": 7144,
  "▁position": 7145,
  "▁ɲagamina": 7146,
  "▁sanctuaire": 7147,
  "1,": 7148,
  "ies": 7149,
  "sen": 7150,
  "îné": 7151,
  "▁tw": 7152,
  "avis": 7153,
  "cons": 7154,
  "gnés": 7155,
  "rira": 7156,
  "▁1:8": 7157,
  "▁bang": 7158,
  "▁fòra": 7159,
  "▁mâle": 7160,
  "▁natɔ": 7161,
  "▁wale": 7162,
  "▁yoli": 7163,
  "itemba": 7164,
  "onnant": 7165,
  "▁aloof": 7166,
  "▁coura": 7167,
  "▁déliv": 7168,
  "▁démon": 7169,
  "▁lever": 7170,
  "▁norma": 7171,
  "▁venez": 7172,
  "▁israèl": 7173,
  "▁kolati": 7174,
  "▁lafiya": 7175,
  "▁miseli": 7176,
  "▁mɔɔilu": 7177,
  "▁crurent": 7178,
  "▁interro": 7179,
  "▁kotoolu": 7180,
  "▁passion": 7181,
  "▁rentrer": 7182,
  "▁aliments": 7183,
  "▁pourront": 7184,
  "▁samuyɛli": 7185,
  "▁sekitemba": 7186,
  "▁conséquent": 7187,
  "▁synagogues": 7188,
  "ŋɔ": 7189,
  "ané": 7190,
  "ful": 7191,
  "ias": 7192,
  "zam": 7193,
  "aveu": 7194,
  "cale": 7195,
  "kunu": 7196,
  "accès": 7197,
  "cient": 7198,
  "saint": 7199,
  "trême": 7200,
  "diyara": 7201,
  "hommes": 7202,
  "phraïm": 7203,
  "▁bolow": 7204,
  "▁bɛɛri": 7205,
  "▁emplo": 7206,
  "▁expri": 7207,
  "▁gagné": 7208,
  "▁haine": 7209,
  "▁sagaw": 7210,
  "▁salon": 7211,
  "▁veuve": 7212,
  "▁barque": 7213,
  "▁habite": 7214,
  "▁senuma": 7215,
  "▁entière": 7216,
  "▁jurumuw": 7217,
  "▁nalonma": 7218,
  "▁voisins": 7219,
  "▁puissances": 7220,
  "▁événements": 7221,
  "▁difficultés": 7222,
  "▁internation": 7223,
  ":35": 7224,
  "ɔsi": 7225,
  "▁2,": 7226,
  "▁8-": 7227,
  "▁ez": 7228,
  "▁yɑ": 7229,
  "dans": 7230,
  "eter": 7231,
  "▁lai": 7232,
  "▁sit": 7233,
  "▁fɔxɔ": 7234,
  "▁kili": 7235,
  "▁sɔng": 7236,
  "▁vari": 7237,
  "▁6.000": 7238,
  "▁sache": 7239,
  "▁salle": 7240,
  "▁classe": 7241,
  "▁guéris": 7242,
  "▁lafili": 7243,
  "▁crucifi": 7244,
  "▁décédée": 7245,
  "▁juguman": 7246,
  "▁pensais": 7247,
  "▁secours": 7248,
  "▁sixième": 7249,
  "affection": 7250,
  "▁agréable": 7251,
  "▁heureuse": 7252,
  "▁répondra": 7253,
  "▁dugumɔgɔw": 7254,
  "▁kongosogo": 7255,
  "▁reviendrai": 7256,
  "xo": 7257,
  "nge": 7258,
  "▁04": 7259,
  "kɔti": 7260,
  "oise": 7261,
  "raid": 7262,
  "ènes": 7263,
  "▁fir": 7264,
  "▁kpĩ": 7265,
  "▁lay": 7266,
  "rième": 7267,
  "verse": 7268,
  "▁gaza": 7269,
  "▁hehe": 7270,
  "▁prét": 7271,
  "▁tɔɔn": 7272,
  "itesse": 7273,
  "▁benna": 7274,
  "▁rouge": 7275,
  "▁tando": 7276,
  "▁épous": 7277,
  "inabasi": 7278,
  "▁afraid": 7279,
  "▁champs": 7280,
  "▁dennin": 7281,
  "▁foules": 7282,
  "▁hadama": 7283,
  "▁nouvel": 7284,
  "▁répand": 7285,
  "eusement": 7286,
  "▁joindre": 7287,
  "▁matinée": 7288,
  "▁prenons": 7289,
  "▁ressent": 7290,
  "▁sabemos": 7291,
  "▁condamné": 7292,
  "▁dusukunna": 7293,
  "▁téléphone": 7294,
  "▁barikamanw": 7295,
  "\"?": 7296,
  "19": 7297,
  "25": 7298,
  "üm": 7299,
  "awu": 7300,
  "eil": 7301,
  "esi": 7302,
  "gen": 7303,
  "hou": 7304,
  "ssé": 7305,
  "▁ɛn": 7306,
  "diti": 7307,
  "▁apo": 7308,
  "▁exh": 7309,
  "▁fré": 7310,
  "▁kui": 7311,
  "▁lal": 7312,
  "▁oeu": 7313,
  "▁one": 7314,
  "quité": 7315,
  "rieux": 7316,
  "étend": 7317,
  "▁célè": 7318,
  "▁diko": 7319,
  "▁dite": 7320,
  "▁gwen": 7321,
  "▁joue": 7322,
  "▁kena": 7323,
  "▁kɛta": 7324,
  "▁syri": 7325,
  "▁véhi": 7326,
  "▁épar": 7327,
  "bariya": 7328,
  "orient": 7329,
  "▁chiff": 7330,
  "▁emmen": 7331,
  "▁hérit": 7332,
  "▁kuman": 7333,
  "araître": 7334,
  "attache": 7335,
  "biesage": 7336,
  "▁apprit": 7337,
  "▁compos": 7338,
  "▁compét": 7339,
  "▁membre": 7340,
  "▁mettez": 7341,
  "▁offrir": 7342,
  "▁perdre": 7343,
  "▁appelée": 7344,
  "▁chanter": 7345,
  "▁compter": 7346,
  "▁zonatan": 7347,
  "intéresse": 7348,
  "▁parfaite": 7349,
  "▁décisions": 7350,
  "▁kantigiya": 7351,
  "▁politique": 7352,
  "▁ɲagaminin": 7353,
  "▁uniquement": 7354,
  "▁mboobiesage": 7355,
  ".-": 7356,
  "bii": 7357,
  "lot": 7358,
  "pan": 7359,
  "▁3:": 7360,
  "▁8.": 7361,
  "ards": 7362,
  "heli": 7363,
  "▁gna": 7364,
  "▁jal": 7365,
  "▁reb": 7366,
  "élève": 7367,
  "▁aman": 7368,
  "▁assa": 7369,
  "▁batt": 7370,
  "▁domu": 7371,
  "▁kayi": 7372,
  "▁lage": 7373,
  "▁miss": 7374,
  "▁musi": 7375,
  "▁mɔni": 7376,
  "▁ruti": 7377,
  "▁semb": 7378,
  "vision": 7379,
  "▁extra": 7380,
  "▁offre": 7381,
  "▁sinaï": 7382,
  "▁swali": 7383,
  "hɔrɔnya": 7384,
  "ɲasiran": 7385,
  "▁brebis": 7386,
  "▁joueur": 7387,
  "▁lèvres": 7388,
  "▁minist": 7389,
  "▁vivent": 7390,
  "▁atteint": 7391,
  "▁jamanaw": 7392,
  "▁kabirin": 7393,
  "▁labanna": 7394,
  "interroge": 7395,
  "▁baptiser": 7396,
  "▁entendit": 7397,
  "▁kizuushi": 7398,
  "▁pourriez": 7399,
  "▁étranger": 7400,
  "▁ɲɛyirali": 7401,
  "▁postérité": 7402,
  "ŋɛ": 7403,
  "daf": 7404,
  "vor": 7405,
  "daan": 7406,
  "djan": 7407,
  "▁cle": 7408,
  "▁ide": 7409,
  "▁imm": 7410,
  "kèlaw": 7411,
  "▁psau": 7412,
  "▁sida": 7413,
  "gɛninw": 7414,
  "▁fabri": 7415,
  "▁fɛɛnw": 7416,
  "▁jeter": 7417,
  "▁lutte": 7418,
  "anglais": 7419,
  "▁corres": 7420,
  "▁eburuw": 7421,
  "▁modèle": 7422,
  "▁prénom": 7423,
  "▁restés": 7424,
  "▁soyons": 7425,
  "▁teriya": 7426,
  "exprimer": 7427,
  "▁groupes": 7428,
  "▁silence": 7429,
  "▁commandé": 7430,
  "▁kabakoma": 7431,
  "▁tununinw": 7432,
  "▁latigɛnin": 7433,
  "dugugwɛdafɛ": 7434,
  "▁professeur": 7435,
  "fil": 7436,
  "▁km": 7437,
  "char": 7438,
  "insi": 7439,
  "labo": 7440,
  "onom": 7441,
  "yɔti": 7442,
  "▁2:4": 7443,
  "▁tha": 7444,
  "améri": 7445,
  "isaac": 7446,
  "quête": 7447,
  "vités": 7448,
  "▁bòra": 7449,
  "▁prié": 7450,
  "foroko": 7451,
  "▁benja": 7452,
  "▁nyana": 7453,
  "▁pains": 7454,
  "▁peter": 7455,
  "▁style": 7456,
  "appréci": 7457,
  "▁cadeau": 7458,
  "▁distri": 7459,
  "▁edited": 7460,
  "▁kɔrɔfɔ": 7461,
  "▁révélé": 7462,
  "▁faibles": 7463,
  "▁réjouit": 7464,
  "▁terminé": 7465,
  "▁victime": 7466,
  "▁arrivent": 7467,
  "▁ministre": 7468,
  "▁sigasiga": 7469,
  "▁transfor": 7470,
  "▁ezipitikaw": 7471,
  "8.": 7472,
  "bow": 7473,
  "gbɛ": 7474,
  "▁uf": 7475,
  "▁rég": 7476,
  "▁sai": 7477,
  "joint": 7478,
  "verra": 7479,
  "▁atti": 7480,
  "▁docu": 7481,
  "▁draw": 7482,
  "▁fron": 7483,
  "▁mɔru": 7484,
  "▁sako": 7485,
  "▁dungu": 7486,
  "▁ibura": 7487,
  "▁jouer": 7488,
  "▁jɔncɛ": 7489,
  "▁mɔ̀gɔ": 7490,
  "▁objet": 7491,
  "▁passa": 7492,
  "▁trait": 7493,
  "▁commet": 7494,
  "▁daraka": 7495,
  "▁dessus": 7496,
  "▁messie": 7497,
  "▁telles": 7498,
  "▁zozuwe": 7499,
  "▁pourrez": 7500,
  "▁propose": 7501,
  "▁tileben": 7502,
  "▁fantanya": 7503,
  "▁halakira": 7504,
  "▁services": 7505,
  "▁référence": 7506,
  "ft": 7507,
  "pɛ": 7508,
  "▁ù": 7509,
  "▁06": 7510,
  "arna": 7511,
  "caux": 7512,
  "cept": 7513,
  "ensé": 7514,
  "gwen": 7515,
  "tume": 7516,
  "unin": 7517,
  "▁not": 7518,
  "▁ump": 7519,
  "▁émo": 7520,
  "gramu": 7521,
  "▁dili": 7522,
  "▁gnon": 7523,
  "▁gèrè": 7524,
  "▁hypo": 7525,
  "▁yahu": 7526,
  "▁calme": 7527,
  "▁fixes": 7528,
  "▁mises": 7529,
  "▁mouve": 7530,
  "acheter": 7531,
  "fection": 7532,
  "obtenir": 7533,
  "▁nafama": 7534,
  "▁vivons": 7535,
  "▁welela": 7536,
  "▁yahweh": 7537,
  "▁gbasaya": 7538,
  "▁ladiliw": 7539,
  "▁lettres": 7540,
  "▁mansaya": 7541,
  "denyabolo": 7542,
  "▁porogramu": 7543,
  "!›": 7544,
  "εε": 7545,
  ":32": 7546,
  "jii": 7547,
  "▁mm": 7548,
  "dres": 7549,
  "enfu": 7550,
  "lure": 7551,
  "masu": 7552,
  "rets": 7553,
  "risi": 7554,
  "▁azi": 7555,
  "▁bàa": 7556,
  "▁eka": 7557,
  "▁yeu": 7558,
  "cario": 7559,
  "▁ligi": 7560,
  "▁moto": 7561,
  "▁mute": 7562,
  "dirent": 7563,
  "écrire": 7564,
  "▁2004.": 7565,
  "▁buvez": 7566,
  "▁kabak": 7567,
  "▁russi": 7568,
  "▁seize": 7569,
  "oreille": 7570,
  "▁achevé": 7571,
  "▁fiyewu": 7572,
  "▁forces": 7573,
  "▁jamaba": 7574,
  "▁mannin": 7575,
  "▁refuse": 7576,
  "▁sinayi": 7577,
  "▁sodome": 7578,
  "▁sɔtɔma": 7579,
  "▁ŋaniya": 7580,
  "▁condolé": 7581,
  "▁croyant": 7582,
  "▁dizaine": 7583,
  "▁iscario": 7584,
  "adamadenw": 7585,
  "▁demeures": 7586,
  "▁gwengwen": 7587,
  "▁protéger": 7588,
  "obéissance": 7589,
  "▁propriéta": 7590,
  "anniversaire": 7591,
  "▁possibilité": 7592,
  "gs": 7593,
  "▁2=": 7594,
  "▁64": 7595,
  "▁^^": 7596,
  "▁hy": 7597,
  "▁má": 7598,
  "endi": 7599,
  "ving": 7600,
  "▁bai": 7601,
  "▁fui": 7602,
  "▁gos": 7603,
  "▁iss": 7604,
  "▁pɔr": 7605,
  "▁xan": 7606,
  "onnon": 7607,
  "pante": 7608,
  "▁anni": 7609,
  "▁bian": 7610,
  "▁gnan": 7611,
  "▁kaɲi": 7612,
  "▁kiss": 7613,
  "▁sawa": 7614,
  "mannin": 7615,
  "▁forêt": 7616,
  "▁couple": 7617,
  "▁dirais": 7618,
  "▁umpama": 7619,
  "▁wotoro": 7620,
  "▁échapp": 7621,
  "▁devenue": 7622,
  "▁général": 7623,
  "▁kibaruya": 7624,
  "▁recevrez": 7625,
  "▁victoire": 7626,
  "▁farafinna": 7627,
  "▁galontigɛ": 7628,
  "▁fadenyabolo": 7629,
  "▁actuellement": 7630,
  "▁connaissances": 7631,
  ",,": 7632,
  "kɛn": 7633,
  "▁fà": 7634,
  "▁mè": 7635,
  "ceau": 7636,
  "haut": 7637,
  "vidu": 7638,
  "▁???": 7639,
  "▁afi": 7640,
  "▁her": 7641,
  "chiez": 7642,
  "ensés": 7643,
  "▁dila": 7644,
  "▁moab": 7645,
  "▁nota": 7646,
  "▁vain": 7647,
  "alités": 7648,
  "ancien": 7649,
  "▁boule": 7650,
  "▁jerus": 7651,
  "▁sanda": 7652,
  "▁thank": 7653,
  "▁devint": 7654,
  "▁fourni": 7655,
  "▁tanuli": 7656,
  "▁ɲɔgɔmɛ": 7657,
  "empereur": 7658,
  "▁birancɛ": 7659,
  "▁fɛntigi": 7660,
  "▁moisson": 7661,
  "▁moments": 7662,
  "▁tombeau": 7663,
  "▁benjamin": 7664,
  "▁distance": 7665,
  "▁efficace": 7666,
  "▁explique": 7667,
  "▁minnifɛn": 7668,
  "▁sinikɛnɛ": 7669,
  "▁victimes": 7670,
  "▁retrouver": 7671,
  "▁alaɲasiran": 7672,
  "▁adolescents": 7673,
  "▁「": 7674,
  "enc": 7675,
  "eno": 7676,
  "ira": 7677,
  "▁az": 7678,
  "bini": 7679,
  "rase": 7680,
  "tika": 7681,
  "vons": 7682,
  "▁20.": 7683,
  "▁50.": 7684,
  "▁eye": 7685,
  "▁kee": 7686,
  "▁lɛɛ": 7687,
  "▁yeh": 7688,
  "istan": 7689,
  "ouest": 7690,
  "▁bran": 7691,
  "▁régu": 7692,
  "▁sann": 7693,
  "▁yeuh": 7694,
  "▁ɲada": 7695,
  "itaire": 7696,
  "▁diyan": 7697,
  "▁dòròn": 7698,
  "▁futur": 7699,
  "▁prati": 7700,
  "▁caract": 7701,
  "▁filipi": 7702,
  "▁yafara": 7703,
  "▁yanfan": 7704,
  "▁aveugle": 7705,
  "▁faamuya": 7706,
  "▁gratuit": 7707,
  "▁instant": 7708,
  "▁masacɛw": 7709,
  "▁possède": 7710,
  "▁raconte": 7711,
  "▁siècles": 7712,
  "existence": 7713,
  "▁commença": 7714,
  "▁dusukunw": 7715,
  "▁folofolo": 7716,
  "▁internet": 7717,
  "▁seraient": 7718,
  "▁adamadenya": 7719,
  "2.": 7720,
  "fò": 7721,
  "got": 7722,
  "ilo": 7723,
  "zon": 7724,
  "▁01": 7725,
  "▁kê": 7726,
  "▁lô": 7727,
  "pect": 7728,
  "saba": 7729,
  "tɛli": 7730,
  "▁194": 7731,
  "▁mad": 7732,
  "▁bile": 7733,
  "▁join": 7734,
  "kisili": 7735,
  "mankan": 7736,
  "ziyasi": 7737,
  "▁alako": 7738,
  "▁croya": 7739,
  "▁expli": 7740,
  "▁findi": 7741,
  "▁ordre": 7742,
  "▁roman": 7743,
  "▁scène": 7744,
  "▁stupé": 7745,
  "▁âgées": 7746,
  "▁jigitɔ": 7747,
  "▁kɔkɛnɛ": 7748,
  "▁kɔɲɔya": 7749,
  "▁lahara": 7750,
  "▁risque": 7751,
  "issaient": 7752,
  "▁disparu": 7753,
  "▁dugunin": 7754,
  "▁défense": 7755,
  "▁prirent": 7756,
  "▁comprends": 7757,
  "▁lasigiden": 7758,
  "▁ministère": 7759,
  "▁woronwula": 7760,
  "▁barikatanw": 7761,
  "▁changement": 7762,
  "▁importante": 7763,
  "▁nazarɛtika": 7764,
  "▁karamɔgɔdenw": 7765,
  "▁€": 7766,
  "ked": 7767,
  "▁(1": 7768,
  "auto": 7769,
  "rale": 7770,
  "sɔtɔ": 7771,
  "éner": 7772,
  "▁18;": 7773,
  "▁eng": 7774,
  "▁nìn": 7775,
  "▁plu": 7776,
  "laban": 7777,
  "▁bale": 7778,
  "▁jɛgɛ": 7779,
  "▁rose": 7780,
  "▁sika": 7781,
  "▁soup": 7782,
  "▁yuun": 7783,
  "▁âgés": 7784,
  "▁banan": 7785,
  "▁grave": 7786,
  "▁nataw": 7787,
  "▁souve": 7788,
  "essalon": 7789,
  "▁beauté": 7790,
  "▁betɛli": 7791,
  "▁dɛsɛra": 7792,
  "▁limite": 7793,
  "▁pleurs": 7794,
  "▁sortis": 7795,
  "▁venues": 7796,
  "▁yaraga": 7797,
  "kariyɔti": 7798,
  "▁amasɔtɔ": 7799,
  "▁jiginni": 7800,
  "▁patient": 7801,
  "▁pensent": 7802,
  "pantekɔti": 7803,
  "▁contrôle": 7804,
  "▁enceinte": 7805,
  "▁kasodenw": 7806,
  "▁lesquels": 7807,
  "▁oreilles": 7808,
  "▁souffrir": 7809,
  "▁attendant": 7810,
  "▁génération": 7811,
  "▁israɛldenw": 7812,
  "▁télévision": 7813,
  "ɑn": 7814,
  "ɛni": 7815,
  "dali": 7816,
  "hɛrɛ": 7817,
  "▁ade": 7818,
  "▁dol": 7819,
  "▁ena": 7820,
  "▁eni": 7821,
  "▁mio": 7822,
  "▁zhe": 7823,
  "athan": 7824,
  "tière": 7825,
  "▁3:16": 7826,
  "▁doni": 7827,
  "▁gɔɔn": 7828,
  "▁jusu": 7829,
  "▁sali": 7830,
  "▁sana": 7831,
  "▁sɔgɔ": 7832,
  "▁xili": 7833,
  "kɔrɔta": 7834,
  "offrir": 7835,
  "▁achet": 7836,
  "▁banba": 7837,
  "▁boleh": 7838,
  "▁décès": 7839,
  "▁kelly": 7840,
  "▁lɔnni": 7841,
  "▁adulte": 7842,
  "▁cinéma": 7843,
  "▁devoir": 7844,
  "▁enlevé": 7845,
  "▁israel": 7846,
  "▁mépris": 7847,
  "▁pleure": 7848,
  "▁poursu": 7849,
  "▁saison": 7850,
  "▁tenait": 7851,
  "▁tɔɔrɔw": 7852,
  "▁corresp": 7853,
  "▁gentils": 7854,
  "▁hauteur": 7855,
  "▁kalanso": 7856,
  "▁dubadenw": 7857,
  "▁glorifié": 7858,
  "▁retourné": 7859,
  "▁veuillez": 7860,
  "▁condition": 7861,
  "▁demandent": 7862,
  "▁farisiènw": 7863,
  "▁permettre": 7864,
  "▁firiyamuso": 7865,
  "▁protection": 7866,
  "waa": 7867,
  "▁aj": 7868,
  "ramu": 7869,
  "▁dao": 7870,
  "▁dus": 7871,
  "▁gak": 7872,
  "accro": 7873,
  "▁2016": 7874,
  "▁bird": 7875,
  "▁bobo": 7876,
  "▁hero": 7877,
  "▁lasɔ": 7878,
  "▁mugu": 7879,
  "▁soli": 7880,
  "▁tutu": 7881,
  "kilila": 7882,
  "▁avril": 7883,
  "▁kwlaa": 7884,
  "▁kɔnɔw": 7885,
  "▁lenen": 7886,
  "▁tenté": 7887,
  "▁tolon": 7888,
  "environ": 7889,
  "intérêt": 7890,
  "▁auront": 7891,
  "▁circon": 7892,
  "▁compag": 7893,
  "▁dessin": 7894,
  "▁revint": 7895,
  "▁tribun": 7896,
  "▁yafali": 7897,
  "ablement": 7898,
  "▁dogonin": 7899,
  "▁déclara": 7900,
  "▁labɛnna": 7901,
  "▁tumajan": 7902,
  "lɔnbariya": 7903,
  "▁reprises": 7904,
  "▁trouvera": 7905,
  "▁enseignait": 7906,
  "▁jalakiyɔrɔ": 7907,
  "mbu": 7908,
  "ɛnu": 7909,
  "▁02": 7910,
  "▁98": 7911,
  "maya": 7912,
  "omob": 7913,
  "yrie": 7914,
  "▁ikɔ": 7915,
  "▁ran": 7916,
  "antan": 7917,
  "gandi": 7918,
  "quait": 7919,
  "▁baka": 7920,
  "▁navi": 7921,
  "▁subi": 7922,
  "▁sume": 7923,
  "▁vues": 7924,
  "engage": 7925,
  "sation": 7926,
  "▁cɛnna": 7927,
  "▁erɔdi": 7928,
  "▁falen": 7929,
  "▁think": 7930,
  "ctement": 7931,
  "yptiens": 7932,
  "écouter": 7933,
  "▁banque": 7934,
  "▁nobody": 7935,
  "▁proces": 7936,
  "▁saheli": 7937,
  "▁soeurs": 7938,
  "▁écrits": 7939,
  "▁oeuvres": 7940,
  "▁sarakaw": 7941,
  "▁sirikaw": 7942,
  "▁conduire": 7943,
  "▁hamijuguw": 7944,
  "▁makoyafɛn": 7945,
  "▁passeront": 7946,
  "▁rencontré": 7947,
  "▁thessalon": 7948,
  "▁enseignera": 7949,
  "▁importants": 7950,
  "▁magnifique": 7951,
  "▁isikariyɔti": 7952,
  "▁siralɔnbariya": 7953,
  "▁hakilitigiyako": 7954,
  "▁continuellement": 7955,
  "8,": 7956,
  "pas": 7957,
  "▁by": 7958,
  "adam": 7959,
  "eren": 7960,
  "tées": 7961,
  "ypse": 7962,
  "▁8:1": 7963,
  "▁duu": 7964,
  "▁fus": 7965,
  "admin": 7966,
  "▁aidé": 7967,
  "▁boyd": 7968,
  "▁elie": 7969,
  "▁jeun": 7970,
  "▁mago": 7971,
  "▁prot": 7972,
  "▁ɲuma": 7973,
  "▁ɲèna": 7974,
  "emploi": 7975,
  "▁chien": 7976,
  "▁dirai": 7977,
  "▁lampe": 7978,
  "▁liens": 7979,
  "courage": 7980,
  "olument": 7981,
  "▁miriya": 7982,
  "▁partis": 7983,
  "▁positi": 7984,
  "▁reprit": 7985,
  "▁passent": 7986,
  "▁discussi": 7987,
  "▁ɲagamini": 7988,
  "▁craignent": 7989,
  "▁ressemble": 7990,
  "▁dògòmannin": 7991,
  "▁expérience": 7992,
  "▁sigiɲɔgɔnw": 7993,
  "▁particulier": 7994,
  "ŋa": 7995,
  "gga": 7996,
  "boam": 7997,
  "bran": 7998,
  "ceur": 7999,
  "nage": 8000,
  "xion": 8001,
  "▁15.": 8002,
  "▁aya": 8003,
  "▁cél": 8004,
  "▁grè": 8005,
  "▁sea": 8006,
  "▁œil": 8007,
  "urant": 8008,
  "zamɛn": 8009,
  "▁fare": 8010,
  "▁kilo": 8011,
  "▁lead": 8012,
  "▁nath": 8013,
  "▁note": 8014,
  "▁sert": 8015,
  "entiel": 8016,
  "luence": 8017,
  "ɲasigi": 8018,
  "▁alive": 8019,
  "▁bukak": 8020,
  "▁idiot": 8021,
  "▁signa": 8022,
  "▁sɔnni": 8023,
  "▁thème": 8024,
  "▁youtu": 8025,
  "▁yɛrɛw": 8026,
  "▁connue": 8027,
  "▁jijara": 8028,
  "▁obtenu": 8029,
  "▁sachez": 8030,
  "▁venant": 8031,
  "▁diyanye": 8032,
  "▁régions": 8033,
  "▁sugandi": 8034,
  "ouverture": 8035,
  "▁gofɛrɛnɛ": 8036,
  "▁kɛnɛkɛnɛ": 8037,
  "▁profondé": 8038,
  "▁considéré": 8039,
  "▁quatrième": 8040,
  "▁sɔlidasiw": 8041,
  "▁tradition": 8042,
  "▁siniɲasigi": 8043,
  "▁traitement": 8044,
  "/20": 8045,
  "cro": 8046,
  "roo": 8047,
  "dala": 8048,
  "golo": 8049,
  "itez": 8050,
  "écri": 8051,
  "▁1.1": 8052,
  "▁24\"": 8053,
  "▁ase": 8054,
  "▁ere": 8055,
  "▁sap": 8056,
  "itres": 8057,
  "▁boro": 8058,
  "▁kàra": 8059,
  "▁lalo": 8060,
  "▁munu": 8061,
  "▁nugu": 8062,
  "▁pont": 8063,
  "▁send": 8064,
  "▁visi": 8065,
  "▁wulu": 8066,
  "▁yili": 8067,
  "envoie": 8068,
  "▁bulon": 8069,
  "▁kunko": 8070,
  "▁sɛgɛn": 8071,
  "▁tugur": 8072,
  "entends": 8073,
  "▁ferait": 8074,
  "▁phénom": 8075,
  "▁veuves": 8076,
  "▁commett": 8077,
  "▁serment": 8078,
  "▁utilisé": 8079,
  "▁méchance": 8080,
  "▁présenté": 8081,
  "▁compréhen": 8082,
  "▁kabakuruw": 8083,
  "▁messagers": 8084,
  "▁nalomanya": 8085,
  "▁religions": 8086,
  "▁appartient": 8087,
  "▁clairement": 8088,
  "▁ɲɔgɔnkunbɛn": 8089,
  "▁profondément": 8090,
  "fô": 8091,
  "bum": 8092,
  "bés": 8093,
  "neu": 8094,
  "oid": 8095,
  "▁7-": 8096,
  "breu": 8097,
  "cipe": 8098,
  "dame": 8099,
  "itaw": 8100,
  "kisɛ": 8101,
  "yɔsi": 8102,
  "▁asa": 8103,
  "▁dak": 8104,
  "▁hum": 8105,
  "agnol": 8106,
  "misɛn": 8107,
  "▁béth": 8108,
  "▁gnin": 8109,
  "▁hont": 8110,
  "▁irré": 8111,
  "▁kong": 8112,
  "▁lame": 8113,
  "▁pars": 8114,
  "▁blanc": 8115,
  "▁dormi": 8116,
  "▁péris": 8117,
  "▁sacré": 8118,
  "calypse": 8119,
  "▁course": 8120,
  "▁dunuɲa": 8121,
  "▁goyara": 8122,
  "▁kɔrɔkɛ": 8123,
  "▁sigama": 8124,
  "▁veille": 8125,
  "offrande": 8126,
  "▁ɲɛsinna": 8127,
  "▁affaires": 8128,
  "▁jonathan": 8129,
  "▁messager": 8130,
  "▁résister": 8131,
  "▁meilleurs": 8132,
  "▁pardonnez": 8133,
  "▁poursuivre": 8134,
  "▁destruction": 8135,
  "▁responsable": 8136,
  "**": 8137,
  "0.": 8138,
  "3.": 8139,
  "dd": 8140,
  "lâ": 8141,
  "bol": 8142,
  "eut": 8143,
  "fun": 8144,
  "▁ef": 8145,
  "▁ké": 8146,
  "atte": 8147,
  "bɛli": 8148,
  "foyi": 8149,
  "trui": 8150,
  "▁16.": 8151,
  "▁fɛɛ": 8152,
  "▁iya": 8153,
  "oudre": 8154,
  "trois": 8155,
  "▁bisi": 8156,
  "▁cuba": 8157,
  "▁gila": 8158,
  "▁rena": 8159,
  "▁séri": 8160,
  "cateur": 8161,
  "rinama": 8162,
  "▁formu": 8163,
  "▁héros": 8164,
  "▁selen": 8165,
  "▁yiiko": 8166,
  "▁étiez": 8167,
  "▁baraka": 8168,
  "▁détail": 8169,
  "▁faible": 8170,
  "▁kɔrɔgɔ": 8171,
  "▁rejoin": 8172,
  "▁wariko": 8173,
  "evangile": 8174,
  "inations": 8175,
  "▁ameriki": 8176,
  "▁barokun": 8177,
  "▁remplis": 8178,
  "▁sanbɛrɛ": 8179,
  "▁apprécié": 8180,
  "▁conduite": 8181,
  "▁découver": 8182,
  "▁sɛnɛkɛlaw": 8183,
  "interprétation": 8184,
  "ns": 8185,
  "sh": 8186,
  "daw": 8187,
  "ouss": 8188,
  "riki": 8189,
  "wiin": 8190,
  "▁10.": 8191,
  "▁300": 8192,
  "▁bor": 8193,
  "▁clé": 8194,
  "▁nou": 8195,
  "▁zab": 8196,
  "tanga": 8197,
  "▁fati": 8198,
  "▁gban": 8199,
  "▁hana": 8200,
  "▁hist": 8201,
  "▁nabu": 8202,
  "▁purs": 8203,
  "habite": 8204,
  "▁amené": 8205,
  "▁forcé": 8206,
  "▁félic": 8207,
  "▁tesal": 8208,
  "▁vrais": 8209,
  "cateurs": 8210,
  "▁cheval": 8211,
  "▁sanngɛ": 8212,
  "▁sɔsɔli": 8213,
  "▁tagatɔ": 8214,
  "▁yèlèma": 8215,
  "▁zowabu": 8216,
  "accompli": 8217,
  "▁enverra": 8218,
  "▁extrême": 8219,
  "▁persécu": 8220,
  "▁sachiez": 8221,
  "▁églises": 8222,
  "▁convainc": 8223,
  "▁coupable": 8224,
  "▁kɔnɔfɛnw": 8225,
  "▁lafiɲɛna": 8226,
  "▁murutira": 8227,
  "obligation": 8228,
  "▁autrefois": 8229,
  "▁efarayimu": 8230,
  "▁spirituel": 8231,
  "▁ɲininkali": 8232,
  "▁préférable": 8233,
  "▁sanctifiés": 8234,
  "▁signifiait": 8235,
  "▁kolatigɛninw": 8236,
  "▁bienveillance": 8237,
  "\":": 8238,
  "-)": 8239,
  "▁ñ": 8240,
  "bie": 8241,
  "dun": 8242,
  "iné": 8243,
  "los": 8244,
  "ora": 8245,
  "pri": 8246,
  "tou": 8247,
  "ust": 8248,
  "▁mr": 8249,
  "▁mù": 8250,
  "cris": 8251,
  "face": 8252,
  "sses": 8253,
  "tɛrɛ": 8254,
  "ɔrɔm": 8255,
  "▁aaj": 8256,
  "▁bak": 8257,
  "▁kor": 8258,
  "▁van": 8259,
  "drait": 8260,
  "meyɔn": 8261,
  "minnu": 8262,
  "établ": 8263,
  "▁agit": 8264,
  "▁bulu": 8265,
  "▁jɔrɔ": 8266,
  "▁kiko": 8267,
  "▁mine": 8268,
  "▁vend": 8269,
  "enfuit": 8270,
  "ommage": 8271,
  "▁archi": 8272,
  "▁chris": 8273,
  "▁forts": 8274,
  "▁kɛlen": 8275,
  "▁niman": 8276,
  "▁nòòrò": 8277,
  "▁survi": 8278,
  "▁vertu": 8279,
  "affaire": 8280,
  "bɛɛtigi": 8281,
  "enfance": 8282,
  "▁compat": 8283,
  "▁divert": 8284,
  "▁espoir": 8285,
  "▁fitini": 8286,
  "▁flanan": 8287,
  "▁kasadi": 8288,
  "▁multip": 8289,
  "▁nawomi": 8290,
  "▁police": 8291,
  "▁publié": 8292,
  "▁relati": 8293,
  "▁vallée": 8294,
  "adultère": 8295,
  "▁célèbre": 8296,
  "▁kojuguw": 8297,
  "▁préparé": 8298,
  "▁trésors": 8299,
  "▁arrivera": 8300,
  "▁autorité": 8301,
  "▁balimakè": 8302,
  "▁dafaninw": 8303,
  "▁poursuit": 8304,
  "▁ɲanamanw": 8305,
  "▁autrement": 8306,
  "▁kanbelenw": 8307,
  "▁palestini": 8308,
  "▁présenter": 8309,
  "▁disponible": 8310,
  "▁isirayɛliden": 8311,
  "dir": 8312,
  "eth": 8313,
  "nit": 8314,
  "▁ls": 8315,
  "tand": 8316,
  "ɲali": 8317,
  "▁1:6": 8318,
  "▁ath": 8319,
  "▁fri": 8320,
  "▁gou": 8321,
  "▁his": 8322,
  "▁sci": 8323,
  "▁zer": 8324,
  "fɛɛrɛ": 8325,
  "itait": 8326,
  "▁kisɛ": 8327,
  "▁misa": 8328,
  "▁nala": 8329,
  "▁rass": 8330,
  "▁titi": 8331,
  "▁uflɛ": 8332,
  "manuel": 8333,
  "▁court": 8334,
  "▁kunba": 8335,
  "▁punta": 8336,
  "▁établ": 8337,
  "▁aiment": 8338,
  "▁confir": 8339,
  "▁connus": 8340,
  "▁essayé": 8341,
  "▁lɔnnin": 8342,
  "▁sagona": 8343,
  "▁wiwiin": 8344,
  "amérique": 8345,
  "▁attenti": 8346,
  "▁kitabuw": 8347,
  "▁méthode": 8348,
  "▁républi": 8349,
  "▁écoutez": 8350,
  "issements": 8351,
  "▁province": 8352,
  "▁souriait": 8353,
  "▁programme": 8354,
  "▁quotidien": 8355,
  "▁méchanceté": 8356,
  "▁déclaration": 8357,
  "▁complètement": 8358,
  "▁enseignement": 8359,
  "▁probablement": 8360,
  "1]": 8361,
  "▁›": 8362,
  "iez": 8363,
  "sta": 8364,
  "ŋgo": 8365,
  "▁mt": 8366,
  "agré": 8367,
  "deux": 8368,
  "diri": 8369,
  "▁gri": 8370,
  "▁yuu": 8371,
  "chées": 8372,
  "écris": 8373,
  "▁1:20": 8374,
  "▁code": 8375,
  "▁crée": 8376,
  "▁faam": 8377,
  "▁midi": 8378,
  "▁pire": 8379,
  "▁rafi": 8380,
  "▁sɔɔn": 8381,
  "▁tili": 8382,
  "▁time": 8383,
  "▁unis": 8384,
  "▁évid": 8385,
  "dumuni": 8386,
  "kabini": 8387,
  "▁banta": 8388,
  "▁baris": 8389,
  "▁benin": 8390,
  "▁inqui": 8391,
  "▁kɔndɔ": 8392,
  "▁monte": 8393,
  "▁suici": 8394,
  "assyrie": 8395,
  "empêche": 8396,
  "honnête": 8397,
  "▁angili": 8398,
  "▁bilara": 8399,
  "▁fautes": 8400,
  "▁guérir": 8401,
  "▁larmes": 8402,
  "▁ninnge": 8403,
  "▁pousse": 8404,
  "▁quinze": 8405,
  "▁tranqu": 8406,
  "▁visité": 8407,
  "▁yalaka": 8408,
  "▁guerres": 8409,
  "▁latigèra": 8410,
  "▁levèrent": 8411,
  "▁tesaloni": 8412,
  "▁vêtement": 8413,
  "▁accueilli": 8414,
  "▁espérance": 8415,
  "▁reprendre": 8416,
  "▁personnage": 8417,
  "▁conséquences": 8418,
  "!'": 8419,
  "26": 8420,
  "ng": 8421,
  ":31": 8422,
  "ŋgɛ": 8423,
  "▁tù": 8424,
  "ders": 8425,
  "lɛki": 8426,
  "reur": 8427,
  "xand": 8428,
  "yabi": 8429,
  "▁3:1": 8430,
  "▁pin": 8431,
  "▁tue": 8432,
  "▁évo": 8433,
  "ressi": 8434,
  "salom": 8435,
  "▁caté": 8436,
  "▁file": 8437,
  "▁jaan": 8438,
  "▁kako": 8439,
  "▁mène": 8440,
  "▁nako": 8441,
  "▁zone": 8442,
  "quième": 8443,
  "ritigi": 8444,
  "▁birth": 8445,
  "▁danni": 8446,
  "▁prête": 8447,
  "▁marthe": 8448,
  "▁mɛnilu": 8449,
  "▁dinkira": 8450,
  "▁divorce": 8451,
  "▁découra": 8452,
  "▁mystère": 8453,
  "▁prophét": 8454,
  "appellera": 8455,
  "▁angilikan": 8456,
  "▁cherchent": 8457,
  "▁demandait": 8458,
  "▁kunkɔrɔta": 8459,
  "▁étudiants": 8460,
  "▁barinabasi": 8461,
  "▁comportement": 8462,
  "▁supplémentaires": 8463,
  ".)": 8464,
  "xa": 8465,
  "abi": 8466,
  "gué": 8467,
  "sia": 8468,
  "ève": 8469,
  "éte": 8470,
  "êtu": 8471,
  "deya": 8472,
  "port": 8473,
  "îner": 8474,
  "▁24-": 8475,
  "▁3.1": 8476,
  "▁haw": 8477,
  "gwɛrɛ": 8478,
  "siyɔn": 8479,
  "vingt": 8480,
  "▁deci": 8481,
  "▁exau": 8482,
  "▁kunn": 8483,
  "▁luti": 8484,
  "arrêta": 8485,
  "sitɛri": 8486,
  "établi": 8487,
  "▁cadre": 8488,
  "▁coups": 8489,
  "▁etats": 8490,
  "▁injus": 8491,
  "▁sépul": 8492,
  "antongo": 8493,
  "▁chante": 8494,
  "▁correc": 8495,
  "▁dondaw": 8496,
  "▁ladege": 8497,
  "▁yɛlɛtɔ": 8498,
  "▁étrang": 8499,
  "endormir": 8500,
  "▁aliment": 8501,
  "▁arrière": 8502,
  "▁kisibaa": 8503,
  "▁limites": 8504,
  "▁rendons": 8505,
  "▁retenir": 8506,
  "▁sangaso": 8507,
  "▁symbole": 8508,
  "installer": 8509,
  "▁alliance": 8510,
  "▁dizaines": 8511,
  "▁kɔrɔbɔli": 8512,
  "▁iscariote": 8513,
  "▁processus": 8514,
  "▁écritures": 8515,
  "▁différente": 8516,
  "▁kabaforoko": 8517,
  "▁commentaire": 8518,
  "▁descendance": 8519,
  "▁hakilitigiw": 8520,
  "▁sranantongo": 8521,
  "▁travaillent": 8522,
  "▁nisɔndiyanin": 8523,
  ")?": 8524,
  "2,": 8525,
  ":'": 8526,
  "oz": 8527,
  "rɑ": 8528,
  "???": 8529,
  "ann": 8530,
  "mii": 8531,
  "▁ih": 8532,
  "giri": 8533,
  "▁10-": 8534,
  "▁146": 8535,
  "▁alɛ": 8536,
  "▁flu": 8537,
  "▁inv": 8538,
  "rinin": 8539,
  "teaux": 8540,
  "▁acti": 8541,
  "▁dévo": 8542,
  "▁mɔnɛ": 8543,
  "▁vier": 8544,
  "▁voul": 8545,
  "humain": 8546,
  "piyɛri": 8547,
  "▁abisa": 8548,
  "▁ayons": 8549,
  "▁chois": 8550,
  "▁infor": 8551,
  "▁massa": 8552,
  "▁ordin": 8553,
  "▁placé": 8554,
  "▁yiriw": 8555,
  "chaient": 8556,
  "gwɛlɛya": 8557,
  "tigɛkan": 8558,
  "▁auriez": 8559,
  "▁kɛnɛma": 8560,
  "▁labato": 8561,
  "▁paraît": 8562,
  "▁quitte": 8563,
  "▁rappro": 8564,
  "▁royale": 8565,
  "▁sodɔmu": 8566,
  "▁fariman": 8567,
  "▁laissée": 8568,
  "▁miirili": 8569,
  "▁telefon": 8570,
  "embrasser": 8571,
  "▁auraient": 8572,
  "▁boissons": 8573,
  "▁véhicule": 8574,
  "▁yɛlɛmani": 8575,
  "▁alemankan": 8576,
  "▁evolution": 8577,
  "▁absolument": 8578,
  "▁pɔrtigɛkan": 8579,
  "▁trouvaient": 8580,
  "▁demandèrent": 8581,
  "gb": 8582,
  "dji": 8583,
  "mut": 8584,
  "▁63": 8585,
  "▁nt": 8586,
  "abri": 8587,
  "gure": 8588,
  "phie": 8589,
  "pire": 8590,
  "zira": 8591,
  "▁10\"": 8592,
  "▁ahi": 8593,
  "▁cèw": 8594,
  "▁hou": 8595,
  "▁kum": 8596,
  "anche": 8597,
  "▁béta": 8598,
  "▁bɔbɔ": 8599,
  "▁fama": 8600,
  "▁gana": 8601,
  "▁lɔli": 8602,
  "▁mura": 8603,
  "▁nuée": 8604,
  "▁senw": 8605,
  "unique": 8606,
  "▁furan": 8607,
  "▁kɔ̀rɔ": 8608,
  "▁prévu": 8609,
  "▁rejet": 8610,
  "mission": 8611,
  "▁kilomè": 8612,
  "▁levain": 8613,
  "▁métier": 8614,
  "▁parent": 8615,
  "▁prions": 8616,
  "▁rempli": 8617,
  "▁soirée": 8618,
  "▁voyait": 8619,
  "▁combats": 8620,
  "▁couleur": 8621,
  "▁faamuna": 8622,
  "▁crucifié": 8623,
  "▁national": 8624,
  "▁karamògòw": 8625,
  "▁suivirent": 8626,
  "▁viendront": 8627,
  "▁gouverneur": 8628,
  "▁sentiments": 8629,
  "▁malheureusement": 8630,
  "),": 8631,
  "̃ɔ": 8632,
  "▁ɓ": 8633,
  "tɔw": 8634,
  "yes": 8635,
  "-000": 8636,
  "lɔgɔ": 8637,
  "nɔgɔ": 8638,
  "▁aku": 8639,
  "▁joy": 8640,
  "▁kap": 8641,
  "▁nna": 8642,
  "aaron": 8643,
  "fɛnnɛ": 8644,
  "vages": 8645,
  "▁idea": 8646,
  "▁maxi": 8647,
  "▁tɔrɔ": 8648,
  "istait": 8649,
  "▁isire": 8650,
  "▁batoko": 8651,
  "▁kɔrɔtɔ": 8652,
  "▁matéri": 8653,
  "▁persua": 8654,
  "▁soucis": 8655,
  "▁thomas": 8656,
  "itations": 8657,
  "échapper": 8658,
  "▁abidjan": 8659,
  "▁commune": 8660,
  "▁cɛɲuman": 8661,
  "▁regardé": 8662,
  "▁réunion": 8663,
  "▁birthday": 8664,
  "▁fariyara": 8665,
  "▁kɔlɔsili": 8666,
  "▁objectif": 8667,
  "▁physique": 8668,
  "▁sagonata": 8669,
  "▁considère": 8670,
  "▁samarikaw": 8671,
  "▁tintinnin": 8672,
  "▁laminikogo": 8673,
  "▁ninsɔndiya": 8674,
  "▁développement": 8675,
  "mn": 8676,
  "jin": 8677,
  "ugu": 8678,
  "éto": 8679,
  "▁mp": 8680,
  "▁xɔ": 8681,
  "adap": 8682,
  "dies": 8683,
  "dite": 8684,
  "gées": 8685,
  "▁18\"": 8686,
  "▁hol": 8687,
  "▁klo": 8688,
  "miner": 8689,
  "▁bure": 8690,
  "▁esti": 8691,
  "▁hari": 8692,
  "▁kita": 8693,
  "▁laxi": 8694,
  "▁préf": 8695,
  "▁zira": 8696,
  "enfuir": 8697,
  "▁abreu": 8698,
  "▁incap": 8699,
  "▁laada": 8700,
  "▁minɛn": 8701,
  "▁outre": 8702,
  "▁sɔbɛw": 8703,
  "denninw": 8704,
  "hôpital": 8705,
  "▁chasse": 8706,
  "▁devais": 8707,
  "▁disons": 8708,
  "▁hérode": 8709,
  "▁sépare": 8710,
  "▁affaire": 8711,
  "▁jaatika": 8712,
  "▁méchant": 8713,
  "▁passera": 8714,
  "▁dɔnkiliw": 8715,
  "▁quantité": 8716,
  "▁sûrement": 8717,
  "▁ɲamɔgɔya": 8718,
  "▁compagnie": 8719,
  "▁découvert": 8720,
  "▁puissants": 8721,
  "eh": 8722,
  ":00": 8723,
  "bos": 8724,
  "imm": 8725,
  "mɔn": 8726,
  "tɛɛ": 8727,
  "▁1\"": 8728,
  "▁pɔ": 8729,
  "mmes": 8730,
  "vain": 8731,
  "▁12-": 8732,
  "▁blé": 8733,
  "▁inp": 8734,
  "▁ira": 8735,
  "▁mɔg": 8736,
  "▁nah": 8737,
  "▁nen": 8738,
  "▁nua": 8739,
  "▁ona": 8740,
  "babaw": 8741,
  "pecta": 8742,
  "phèse": 8743,
  "voici": 8744,
  "▁1939": 8745,
  "▁kata": 8746,
  "▁kene": 8747,
  "▁kɛtɔ": 8748,
  "▁mien": 8749,
  "▁yɛtɛ": 8750,
  "entour": 8751,
  "fitini": 8752,
  "likɛla": 8753,
  "▁akala": 8754,
  "▁gotta": 8755,
  "▁mɔgɔs": 8756,
  "▁ouvre": 8757,
  "▁situé": 8758,
  "▁siège": 8759,
  "▁bamako": 8760,
  "▁boɲana": 8761,
  "▁canada": 8762,
  "▁famili": 8763,
  "▁ikomin": 8764,
  "▁marifa": 8765,
  "▁quarti": 8766,
  "▁réseau": 8767,
  "▁tchogo": 8768,
  "lacement": 8769,
  "zirayɛli": 8770,
  "▁apparut": 8771,
  "▁héritage": 8772,
  "▁lakɔlifa": 8773,
  "▁ouvriers": 8774,
  "▁émotions": 8775,
  "▁prophétie": 8776,
  "application": 8777,
  "explication": 8778,
  "▁correspond": 8779,
  "▁répondirent": 8780,
  "▁réfléchissez": 8781,
  ":34": 8782,
  "aur": 8783,
  "ffe": 8784,
  "low": 8785,
  "ɲɔn": 8786,
  "▁1)": 8787,
  "▁jn": 8788,
  "brer": 8789,
  "▁yàn": 8790,
  "habit": 8791,
  "kɔrɔw": 8792,
  "oloca": 8793,
  "ulman": 8794,
  "▁lest": 8795,
  "▁pure": 8796,
  "▁soba": 8797,
  "▁éner": 8798,
  "▁corée": 8799,
  "▁dunun": 8800,
  "▁forum": 8801,
  "▁gardé": 8802,
  "▁japon": 8803,
  "▁kooba": 8804,
  "▁peint": 8805,
  "▁pièce": 8806,
  "▁apôtre": 8807,
  "▁orient": 8808,
  "▁relève": 8809,
  "▁sendon": 8810,
  "▁traité": 8811,
  "▁lalofuɛ": 8812,
  "▁planète": 8813,
  "▁sigɛnna": 8814,
  "▁antiyɔsi": 8815,
  "▁jeunesse": 8816,
  "▁musulman": 8817,
  "▁sɔlidasi": 8818,
  "▁tendance": 8819,
  "▁caractère": 8820,
  "▁wolonfila": 8821,
  "▁semblables": 8822,
  "▁extrêmement": 8823,
  "▁condoléances": 8824,
  "▁responsables": 8825,
  "oh": 8826,
  "▁~": 8827,
  ":36": 8828,
  "kar": 8829,
  "yée": 8830,
  "fili": 8831,
  "isez": 8832,
  "ison": 8833,
  "ttez": 8834,
  "▁gir": 8835,
  "▁gre": 8836,
  "▁los": 8837,
  "▁mod": 8838,
  "▁rom": 8839,
  "▁run": 8840,
  "gment": 8841,
  "intro": 8842,
  "lande": 8843,
  "magne": 8844,
  "owamu": 8845,
  "▁abro": 8846,
  "▁caph": 8847,
  "▁dina": 8848,
  "▁djan": 8849,
  "▁duzu": 8850,
  "▁indé": 8851,
  "▁invo": 8852,
  "▁kiye": 8853,
  "▁sada": 8854,
  "▁seni": 8855,
  "▁tɔnu": 8856,
  "▁wùlu": 8857,
  "besaba": 8858,
  "dennin": 8859,
  "ellent": 8860,
  "isseur": 8861,
  "itième": 8862,
  "tigiya": 8863,
  "▁dolla": 8864,
  "▁juive": 8865,
  "▁kanne": 8866,
  "▁meure": 8867,
  "▁occup": 8868,
  "▁ramen": 8869,
  "aveugle": 8870,
  "▁animal": 8871,
  "▁cartes": 8872,
  "▁hébreu": 8873,
  "▁kimasu": 8874,
  "▁konnon": 8875,
  "▁litigi": 8876,
  "▁london": 8877,
  "▁offert": 8878,
  "▁ordres": 8879,
  "▁priant": 8880,
  "▁rentré": 8881,
  "▁située": 8882,
  "▁tienne": 8883,
  "▁tombée": 8884,
  "▁équipe": 8885,
  "▁accordé": 8886,
  "▁dispose": 8887,
  "▁jurumut": 8888,
  "▁matière": 8889,
  "▁fɔɲɔbana": 8890,
  "▁revanche": 8891,
  "expression": 8892,
  "▁bololafɛn": 8893,
  "▁chapitres": 8894,
  "▁filipikaw": 8895,
  "▁promesses": 8896,
  "▁pourraient": 8897,
  "▁résistance": 8898,
  "▁directement": 8899,
  "▁sacrificateurs": 8900,
  ".,": 8901,
  "cy": 8902,
  "èm": 8903,
  "duw": 8904,
  "faa": 8905,
  "kes": 8906,
  "lek": 8907,
  "ory": 8908,
  "ren": 8909,
  "▁yó": 8910,
  "dɛli": 8911,
  "gati": 8912,
  "ngue": 8913,
  "siez": 8914,
  "ties": 8915,
  "▁1:5": 8916,
  "▁pya": 8917,
  "▁suw": 8918,
  "▁usa": 8919,
  "isais": 8920,
  "mbour": 8921,
  "▁1987": 8922,
  "▁batu": 8923,
  "▁hait": 8924,
  "▁haïs": 8925,
  "▁menu": 8926,
  "▁muxu": 8927,
  "▁reje": 8928,
  "▁réel": 8929,
  "▁unto": 8930,
  "amment": 8931,
  "délité": 8932,
  "yakuba": 8933,
  "▁chaud": 8934,
  "▁jette": 8935,
  "▁ladki": 8936,
  "▁miira": 8937,
  "oration": 8938,
  "▁barima": 8939,
  "▁bétail": 8940,
  "▁entrée": 8941,
  "▁former": 8942,
  "▁pleuré": 8943,
  "▁recons": 8944,
  "▁rempla": 8945,
  "▁unders": 8946,
  "applique": 8947,
  "▁acheter": 8948,
  "▁contact": 8949,
  "▁cɛfariw": 8950,
  "▁kobabaw": 8951,
  "▁kɛwaati": 8952,
  "▁nafaman": 8953,
  "▁prépare": 8954,
  "▁consiste": 8955,
  "▁devrions": 8956,
  "▁diverses": 8957,
  "▁mamadenw": 8958,
  "▁ɲagaliba": 8959,
  "▁izirayɛli": 8960,
  "▁prochaine": 8961,
  "▁rejoindre": 8962,
  "▁saniyanin": 8963,
  "▁israéliens": 8964,
  "▁principaux": 8965,
  "▁révélation": 8966,
  "▁samaritains": 8967,
  "▁ç": 8968,
  "dix": 8969,
  "ola": 8970,
  "tɔɔ": 8971,
  "wow": 8972,
  "baba": 8973,
  "isté": 8974,
  "quit": 8975,
  "tron": 8976,
  "▁bag": 8977,
  "▁dɛɛ": 8978,
  "▁elo": 8979,
  "envie": 8980,
  "ident": 8981,
  "insin": 8982,
  "▁2021": 8983,
  "▁adap": 8984,
  "▁atun": 8985,
  "▁cito": 8986,
  "▁gout": 8987,
  "▁nòfè": 8988,
  "▁wali": 8989,
  "▁wehe": 8990,
  "▁admin": 8991,
  "▁aidez": 8992,
  "▁ainun": 8993,
  "▁antio": 8994,
  "▁armée": 8995,
  "▁kolow": 8996,
  "▁kɔseg": 8997,
  "▁tenez": 8998,
  "▁flamme": 8999,
  "▁jatira": 9000,
  "▁madame": 9001,
  "▁moitié": 9002,
  "▁saying": 9003,
  "▁appeler": 9004,
  "▁pécheur": 9005,
  "▁ressour": 9006,
  "▁stupide": 9007,
  "▁bɛnzamɛn": 9008,
  "▁capharna": 9009,
  "▁kuluyɔrɔ": 9010,
  "▁résoudre": 9011,
  "▁tɔɲɔgɔnw": 9012,
  "artiennent": 9013,
  "▁cinquième": 9014,
  "▁personnel": 9015,
  "▁badenmailu": 9016,
  "▁république": 9017,
  "▁constamment": 9018,
  "5,": 9019,
  "onu": 9020,
  "!!!!": 9021,
  "aube": 9022,
  "umɔɔ": 9023,
  "étés": 9024,
  "▁bye": 9025,
  "▁dar": 9026,
  "▁gla": 9027,
  "▁iko": 9028,
  "▁jɔɔ": 9029,
  "▁lsg": 9030,
  "▁lòn": 9031,
  "anima": 9032,
  "ative": 9033,
  "feere": 9034,
  "melle": 9035,
  "ssent": 9036,
  "▁agri": 9037,
  "▁came": 9038,
  "▁diye": 9039,
  "▁fuck": 9040,
  "▁read": 9041,
  "▁yiru": 9042,
  "aucune": 9043,
  "essaye": 9044,
  "yances": 9045,
  "▁avais": 9046,
  "▁avert": 9047,
  "▁exact": 9048,
  "▁lasun": 9049,
  "▁médit": 9050,
  "▁ngɔ̀n": 9051,
  "▁saisi": 9052,
  "accepte": 9053,
  "issants": 9054,
  "▁catégo": 9055,
  "▁commer": 9056,
  "▁fausse": 9057,
  "▁jɔrɔkɔ": 9058,
  "▁laxira": 9059,
  "▁naaman": 9060,
  "▁sentir": 9061,
  "▁traite": 9062,
  "annoncer": 9063,
  "▁espèces": 9064,
  "▁girɛkiw": 9065,
  "▁kunsigi": 9066,
  "▁mention": 9067,
  "▁misiden": 9068,
  "▁revient": 9069,
  "▁verront": 9070,
  "▁étonnés": 9071,
  "améliorer": 9072,
  "fariziɲɛw": 9073,
  "▁abreuvés": 9074,
  "▁apparaît": 9075,
  "▁croyance": 9076,
  "▁dɔgɔmuso": 9077,
  "▁parcours": 9078,
  "▁prennent": 9079,
  "entreprise": 9080,
  "▁croyances": 9081,
  "▁entendant": 9082,
  "▁mauvaises": 9083,
  "▁mouvement": 9084,
  "▁principal": 9085,
  "▁rendirent": 9086,
  "accompagner": 9087,
  "▁prisonnier": 9088,
  "▁understand": 9089,
  "▁différences": 9090,
  "▁palestiniens": 9091,
  "▁propriétaire": 9092,
  "▁véritablement": 9093,
  "rds": 9094,
  "sòn": 9095,
  "élo": 9096,
  "▁67": 9097,
  "▁ue": 9098,
  "▁xɛ": 9099,
  "geux": 9100,
  "kɔra": 9101,
  "oign": 9102,
  "onnu": 9103,
  "segi": 9104,
  "tool": 9105,
  "ɲuma": 9106,
  "▁17.": 9107,
  "▁jur": 9108,
  "▁keh": 9109,
  "▁roo": 9110,
  "▁rut": 9111,
  "anges": 9112,
  "areil": 9113,
  "occup": 9114,
  "▁doux": 9115,
  "▁gaye": 9116,
  "▁jamb": 9117,
  "▁maît": 9118,
  "▁tony": 9119,
  "▁tɛgɛ": 9120,
  "......": 9121,
  "gèrent": 9122,
  "roboam": 9123,
  "▁2:49.": 9124,
  "▁artis": 9125,
  "▁daari": 9126,
  "▁kônôn": 9127,
  "▁levée": 9128,
  "▁lundi": 9129,
  "▁masih": 9130,
  "▁simil": 9131,
  "▁tomba": 9132,
  "▁acquis": 9133,
  "▁divine": 9134,
  "▁dɔgɔma": 9135,
  "▁famous": 9136,
  "▁labɛnw": 9137,
  "▁marqué": 9138,
  "▁pilati": 9139,
  "▁routes": 9140,
  "▁soɲali": 9141,
  "▁sujets": 9142,
  "▁tilara": 9143,
  "humilité": 9144,
  "registre": 9145,
  "▁persévé": 9146,
  "▁raconté": 9147,
  "▁spécifi": 9148,
  "▁surface": 9149,
  "▁ɲɔgɔnye": 9150,
  "▁batisera": 9151,
  "▁empêcher": 9152,
  "▁imbécile": 9153,
  "▁invitons": 9154,
  "▁dafabaliw": 9155,
  "▁kɔ̀rɔmuso": 9156,
  "▁notamment": 9157,
  "▁pardonnés": 9158,
  "▁chrétienne": 9159,
  "▁évidemment": 9160,
  "▁sebagayabɛɛtigi": 9161,
  "▁|": 9162,
  "aga": 9163,
  "doo": 9164,
  "get": 9165,
  "iye": 9166,
  "ost": 9167,
  "▁8,": 9168,
  "▁mg": 9169,
  "▁xe": 9170,
  "lubi": 9171,
  "mogɔ": 9172,
  "pend": 9173,
  "ther": 9174,
  "▁11.": 9175,
  "▁afa": 9176,
  "▁gèn": 9177,
  "▁kɔ̃": 9178,
  ":1313": 9179,
  "accou": 9180,
  "celui": 9181,
  "dents": 9182,
  "gents": 9183,
  "limaw": 9184,
  "▁dant": 9185,
  "▁dort": 9186,
  "▁fine": 9187,
  "▁hoti": 9188,
  "▁jabi": 9189,
  "▁jèya": 9190,
  "▁kadi": 9191,
  "▁kuwo": 9192,
  "▁kèla": 9193,
  "▁neni": 9194,
  "▁payé": 9195,
  "▁sûre": 9196,
  "▁terr": 9197,
  "▁tinɛ": 9198,
  "▁yaad": 9199,
  "empire": 9200,
  "▁blood": 9201,
  "▁bɛmaw": 9202,
  "▁circu": 9203,
  "▁eligi": 9204,
  "▁galen": 9205,
  "▁garan": 9206,
  "▁ignor": 9207,
  "▁match": 9208,
  "▁noces": 9209,
  "▁nyini": 9210,
  "▁soeur": 9211,
  "obowamu": 9212,
  "olocaus": 9213,
  "▁acheté": 9214,
  "▁avions": 9215,
  "▁droits": 9216,
  "▁mangez": 9217,
  "▁pasito": 9218,
  "▁réguli": 9219,
  "▁sewara": 9220,
  "▁suivit": 9221,
  "▁voleur": 9222,
  "▁yulubi": 9223,
  "▁yɔrɔla": 9224,
  "▁yɛlema": 9225,
  "ecriture": 9226,
  "▁aillent": 9227,
  "▁contemp": 9228,
  "▁deliliw": 9229,
  "▁docteur": 9230,
  "▁jɛnitaw": 9231,
  "▁louange": 9232,
  "▁wotorow": 9233,
  "▁dònbaliw": 9234,
  "▁jéroboam": 9235,
  "▁kàramogɔ": 9236,
  "▁maladies": 9237,
  "▁remettre": 9238,
  "tɔnkuntigi": 9239,
  "▁milliards": 9240,
  "▁religieux": 9241,
  "▁réveillée": 9242,
  "▁troupeaux": 9243,
  "▁accompagné": 9244,
  "▁connaissez": 9245,
  "▁gofɛrɛnɛman": 9246,
  "3,": 9247,
  "jon": 9248,
  "uil": 9249,
  "èma": 9250,
  "̀rɛ": 9251,
  "▁2:": 9252,
  "▁8\"": 9253,
  "▁rd": 9254,
  "▁sn": 9255,
  "▁xi": 9256,
  "%...": 9257,
  "guer": 9258,
  "land": 9259,
  "lila": 9260,
  "zɔbu": 9261,
  "âtre": 9262,
  "▁alé": 9263,
  "▁bah": 9264,
  "▁sèg": 9265,
  "▁wil": 9266,
  "venir": 9267,
  "▁bɔnɔ": 9268,
  "▁dula": 9269,
  "▁fosi": 9270,
  "▁gest": 9271,
  "▁labi": 9272,
  "▁lyri": 9273,
  "▁mùso": 9274,
  "▁sexe": 9275,
  "▁ɲrun": 9276,
  "avança": 9277,
  "duwani": 9278,
  "iciens": 9279,
  "tances": 9280,
  "yusufu": 9281,
  "▁auxqu": 9282,
  "▁dunuɲ": 9283,
  "▁délai": 9284,
  "▁dénom": 9285,
  "▁gundo": 9286,
  "▁james": 9287,
  "▁konon": 9288,
  "▁mafee": 9289,
  "▁menti": 9290,
  "▁minkè": 9291,
  "▁récit": 9292,
  "▁sigui": 9293,
  "▁wunɛn": 9294,
  "encoura": 9295,
  "gnation": 9296,
  "omobile": 9297,
  "zuwifuw": 9298,
  "▁africa": 9299,
  "▁dunuya": 9300,
  "▁fleurs": 9301,
  "▁idoles": 9302,
  "▁sayang": 9303,
  "▁techni": 9304,
  "accepter": 9305,
  "piration": 9306,
  "▁chevaux": 9307,
  "▁devriez": 9308,
  "▁domaine": 9309,
  "▁faisais": 9310,
  "▁kalanna": 9311,
  "▁regards": 9312,
  "▁decembro": 9313,
  "▁environs": 9314,
  "▁prostern": 9315,
  "▁ressenti": 9316,
  "▁tooltool": 9317,
  "▁demeurent": 9318,
  "▁descendre": 9319,
  "▁ephésiens": 9320,
  "▁kàlandenw": 9321,
  "▁supérieur": 9322,
  "▁énormément": 9323,
  "▁reconnaître": 9324,
  "▁conformément": 9325,
  "▁reconnaissance": 9326,
  "ïs": 9327,
  "bal": 9328,
  "eza": 9329,
  "hoo": 9330,
  "ooo": 9331,
  "épr": 9332,
  "ûte": 9333,
  "▁gê": 9334,
  "▁wè": 9335,
  "anou": 9336,
  "antu": 9337,
  "dose": 9338,
  "roni": 9339,
  "éter": 9340,
  "▁hom": 9341,
  "▁liɛ": 9342,
  "▁out": 9343,
  "▁pot": 9344,
  "▁épr": 9345,
  "ainsi": 9346,
  "tures": 9347,
  "▁aate": 9348,
  "▁allu": 9349,
  "▁bayo": 9350,
  "▁buku": 9351,
  "▁chal": 9352,
  "▁kodo": 9353,
  "▁lili": 9354,
  "▁mera": 9355,
  "▁rang": 9356,
  "▁renf": 9357,
  "dation": 9358,
  "ortent": 9359,
  "▁cikgu": 9360,
  "▁denkɛ": 9361,
  "▁elize": 9362,
  "▁jugés": 9363,
  "▁kɛtaw": 9364,
  "▁portu": 9365,
  "▁terri": 9366,
  "▁crédit": 9367,
  "▁défaut": 9368,
  "▁esumɔɔ": 9369,
  "▁invite": 9370,
  "▁lasɔmi": 9371,
  "▁parles": 9372,
  "▁rendra": 9373,
  "▁règles": 9374,
  "▁sumana": 9375,
  "▁sɔ̃ɔsi": 9376,
  "▁sɔ̃ɔwa": 9377,
  "▁touche": 9378,
  "dictions": 9379,
  "▁dafalen": 9380,
  "▁girinya": 9381,
  "▁malheur": 9382,
  "▁senumaw": 9383,
  "▁versets": 9384,
  "▁dépasser": 9385,
  "▁qualités": 9386,
  "▁soumises": 9387,
  "▁descendit": 9388,
  "▁dumunifèn": 9389,
  "▁premières": 9390,
  "▁dirigeants": 9391,
  "▁kojugukɛlaw": 9392,
  "▁zeruzalɛmukaw": 9393,
  "fr": 9394,
  "amɔ": 9395,
  "eus": 9396,
  "osa": 9397,
  "anse": 9398,
  "boon": 9399,
  "invo": 9400,
  "minè": 9401,
  "ning": 9402,
  "page": 9403,
  "sier": 9404,
  "siya": 9405,
  "èrèn": 9406,
  "▁blu": 9407,
  "▁dim": 9408,
  "▁kaw": 9409,
  "▁kay": 9410,
  "▁mɑɑ": 9411,
  "▁nyi": 9412,
  "▁pes": 9413,
  "▁éva": 9414,
  "▁ɔri": 9415,
  ":1818": 9416,
  "auras": 9417,
  "banku": 9418,
  "ginan": 9419,
  "illon": 9420,
  "ɲɛnin": 9421,
  "▁1914": 9422,
  "▁bhii": 9423,
  "▁djou": 9424,
  "▁fɛrɛ": 9425,
  "▁land": 9426,
  "▁plat": 9427,
  "▁romp": 9428,
  "▁subs": 9429,
  "aratɛɛ": 9430,
  "entraî": 9431,
  "lamanw": 9432,
  "misɛnw": 9433,
  "ouvrir": 9434,
  "rables": 9435,
  "ɲumanw": 9436,
  "▁aimée": 9437,
  "▁améli": 9438,
  "▁bienv": 9439,
  "▁bêtes": 9440,
  "▁enfer": 9441,
  "▁kakak": 9442,
  "▁korea": 9443,
  "▁lions": 9444,
  "▁mennu": 9445,
  "▁mɛnta": 9446,
  "▁nèèma": 9447,
  "▁sitan": 9448,
  "▁tamin": 9449,
  "▁tigiw": 9450,
  "▁envoie": 9451,
  "▁kunkun": 9452,
  "▁livrer": 9453,
  "▁muɲuna": 9454,
  "▁romain": 9455,
  "▁ɛrɛzɛn": 9456,
  "kuntigiw": 9457,
  "mblement": 9458,
  "▁badencɛ": 9459,
  "▁collabo": 9460,
  "▁duninya": 9461,
  "▁kumasen": 9462,
  "▁meurent": 9463,
  "▁petites": 9464,
  "▁ressens": 9465,
  "▁restait": 9466,
  "▁univers": 9467,
  "▁vivante": 9468,
  "▁ɛsitɛri": 9469,
  "approcher": 9470,
  "opération": 9471,
  "▁actuelle": 9472,
  "▁distribu": 9473,
  "▁implique": 9474,
  "▁persuadé": 9475,
  "▁accomplie": 9476,
  "▁demandons": 9477,
  "▁faribanku": 9478,
  "▁forcément": 9479,
  "▁supporter": 9480,
  "accomplisse": 9481,
  "▁apocalypse": 9482,
  "▁maseduwani": 9483,
  "▁dunuɲaratɛɛ": 9484,
  "',": 9485,
  "lia": 9486,
  "sun": 9487,
  "uri": 9488,
  "▁uk": 9489,
  "▁up": 9490,
  "▁yĩ": 9491,
  "actu": 9492,
  "iner": 9493,
  "kiba": 9494,
  "oeil": 9495,
  "orde": 9496,
  "sisi": 9497,
  "tian": 9498,
  "uter": 9499,
  "ŋolu": 9500,
  "▁bow": 9501,
  "▁dap": 9502,
  "▁jeû": 9503,
  "▁nav": 9504,
  "▁sak": 9505,
  "diens": 9506,
  "lante": 9507,
  "pects": 9508,
  "épous": 9509,
  "▁annu": 9510,
  "▁bris": 9511,
  "▁desu": 9512,
  "▁hona": 9513,
  "▁kere": 9514,
  "▁mori": 9515,
  "▁méta": 9516,
  "▁nyin": 9517,
  "▁repr": 9518,
  "▁sail": 9519,
  "▁séch": 9520,
  "▁tagi": 9521,
  "▁tags": 9522,
  "▁véri": 9523,
  "autant": 9524,
  "éviter": 9525,
  "▁exist": 9526,
  "▁farin": 9527,
  "▁foyih": 9528,
  "▁hòròn": 9529,
  "▁illus": 9530,
  "▁kouma": 9531,
  "▁libra": 9532,
  "▁munna": 9533,
  "▁neemo": 9534,
  "▁reine": 9535,
  "▁sinna": 9536,
  "▁sukun": 9537,
  "▁tɔgɔw": 9538,
  "▁tɔmbu": 9539,
  "▁abroad": 9540,
  "▁ancien": 9541,
  "▁comple": 9542,
  "▁farala": 9543,
  "▁komiji": 9544,
  "▁lyrics": 9545,
  "▁tabali": 9546,
  "▁textes": 9547,
  "objectif": 9548,
  "▁affirme": 9549,
  "▁cidenya": 9550,
  "▁devrais": 9551,
  "▁gnongon": 9552,
  "▁londres": 9553,
  "▁proster": 9554,
  "▁allemand": 9555,
  "▁baptiste": 9556,
  "▁conduits": 9557,
  "▁magistra": 9558,
  "▁pardonné": 9559,
  "▁réaliser": 9560,
  "▁seeginan": 9561,
  "▁voitures": 9562,
  "▁yiridenw": 9563,
  "▁combattre": 9564,
  "▁capharnaüm": 9565,
  "▁fangabaara": 9566,
  "▁litigieuse": 9567,
  "▁connaissait": 9568,
  "▁merveilleux": 9569,
  "▁personnages": 9570,
  "?!": 9571,
  "▁🙂": 9572,
  "juu": 9573,
  "pen": 9574,
  "xɔn": 9575,
  "ɔgo": 9576,
  "▁iv": 9577,
  "amis": 9578,
  "dise": 9579,
  "fier": 9580,
  "gala": 9581,
  "nait": 9582,
  "unny": 9583,
  "▁mac": 9584,
  "▁miw": 9585,
  "▁sex": 9586,
  "estre": 9587,
  "kanni": 9588,
  "quées": 9589,
  "tiers": 9590,
  "vidus": 9591,
  "▁2015": 9592,
  "▁6:23": 9593,
  "▁démé": 9594,
  "▁feen": 9595,
  "▁lajè": 9596,
  "▁mutu": 9597,
  "▁nico": 9598,
  "▁nina": 9599,
  "▁pang": 9600,
  "▁suba": 9601,
  "▁séle": 9602,
  "▁trah": 9603,
  "▁your": 9604,
  "instru": 9605,
  "kolonw": 9606,
  "ressed": 9607,
  "ɛrɛzɛn": 9608,
  "▁bibia": 9609,
  "▁blank": 9610,
  "▁sabía": 9611,
  "▁saran": 9612,
  "▁sympa": 9613,
  "▁tonɲa": 9614,
  "▁yiran": 9615,
  "▁yɔrɔw": 9616,
  "▁cɛtigɛ": 9617,
  "▁empris": 9618,
  "▁faggot": 9619,
  "▁fɔlɔta": 9620,
  "▁ifunny": 9621,
  "▁manqué": 9622,
  "▁marigi": 9623,
  "▁perman": 9624,
  "▁russie": 9625,
  "▁couvrir": 9626,
  "▁fɛfɛɛrɛ": 9627,
  "▁reviens": 9628,
  "▁binaanin": 9629,
  "▁sentiers": 9630,
  "appartient": 9631,
  "▁autorités": 9632,
  "▁inpressed": 9633,
  "▁justement": 9634,
  "▁populaire": 9635,
  "▁perfection": 9636,
  "▁rappellera": 9637,
  "▁disponibles": 9638,
  "▁importantes": 9639,
  "##": 9640,
  "28": 9641,
  "70": 9642,
  "án": 9643,
  "▁ˈ": 9644,
  "aka": 9645,
  "nel": 9646,
  "zɔn": 9647,
  "▁90": 9648,
  "dieu": 9649,
  "mira": 9650,
  "osun": 9651,
  "sias": 9652,
  "érir": 9653,
  "▁afe": 9654,
  "▁air": 9655,
  "▁bés": 9656,
  "▁crè": 9657,
  "▁eko": 9658,
  "▁hmm": 9659,
  "▁lok": 9660,
  "▁tle": 9661,
  "▁unt": 9662,
  "▁anne": 9663,
  "▁cɛkɛ": 9664,
  "▁dèmè": 9665,
  "▁heee": 9666,
  "▁lawa": 9667,
  "▁lika": 9668,
  "▁race": 9669,
  "▁réfu": 9670,
  "envers": 9671,
  "tèrent": 9672,
  "▁bébés": 9673,
  "▁exemp": 9674,
  "▁feras": 9675,
  "▁jugez": 9676,
  "▁parab": 9677,
  "▁voile": 9678,
  "▁betani": 9679,
  "▁cancer": 9680,
  "▁fantas": 9681,
  "▁jambes": 9682,
  "▁jɛnina": 9683,
  "▁leçons": 9684,
  "▁posses": 9685,
  "▁sentez": 9686,
  "iniquité": 9687,
  "▁composé": 9688,
  "▁damanin": 9689,
  "▁douceur": 9690,
  "▁dɔgɔnin": 9691,
  "▁exhorte": 9692,
  "▁jijanin": 9693,
  "▁kanbele": 9694,
  "▁masɔrɔn": 9695,
  "▁précisé": 9696,
  "▁science": 9697,
  "▁troupes": 9698,
  "▁chrétien": 9699,
  "▁prescrit": 9700,
  "▁principe": 9701,
  "▁servante": 9702,
  "▁ɲɛnabɔla": 9703,
  "▁réconcili": 9704,
  "▁apprennent": 9705,
  "▁denmisɛnni": 9706,
  "▁extraordin": 9707,
  "▁kɔlɔsibaga": 9708,
  "▁trouvèrent": 9709,
  ",'": 9710,
  "hɔ": 9711,
  "yn": 9712,
  "elo": 9713,
  "orr": 9714,
  "thé": 9715,
  "tue": 9716,
  "anso": 9717,
  "etat": 9718,
  "ffee": 9719,
  "ocat": 9720,
  "▁19\"": 9721,
  "▁500": 9722,
  "▁ach": 9723,
  "▁doi": 9724,
  "▁elf": 9725,
  "▁gem": 9726,
  "▁hiv": 9727,
  "▁mos": 9728,
  "▁sɔ̄": 9729,
  "effet": 9730,
  "islam": 9731,
  "ɲògòn": 9732,
  "▁amou": 9733,
  "▁cɛɲa": 9734,
  "▁joab": 9735,
  "▁piin": 9736,
  "▁sout": 9737,
  "▁tire": 9738,
  "▁vive": 9739,
  "▁waan": 9740,
  "illons": 9741,
  "kofoni": 9742,
  "▁bɛgɛn": 9743,
  "▁final": 9744,
  "▁gwɛra": 9745,
  "▁konni": 9746,
  "ephraïm": 9747,
  "faction": 9748,
  "veilles": 9749,
  "èvement": 9750,
  "▁bɛgɛnw": 9751,
  "▁confié": 9752,
  "▁entour": 9753,
  "▁grosse": 9754,
  "▁kayifu": 9755,
  "▁plaire": 9756,
  "▁specta": 9757,
  "▁tiɲɛko": 9758,
  "▁tɛliya": 9759,
  "▁vierge": 9760,
  "▁yɛrɛkɛ": 9761,
  "▁apprend": 9762,
  "▁cadeaux": 9763,
  "▁circons": 9764,
  "▁dollars": 9765,
  "▁fugulan": 9766,
  "▁jurumun": 9767,
  "▁kununko": 9768,
  "▁misaali": 9769,
  "▁ordonna": 9770,
  "▁pensons": 9771,
  "▁serpent": 9772,
  "▁soutien": 9773,
  "▁campagne": 9774,
  "▁défendre": 9775,
  "▁hypocrit": 9776,
  "▁tribunal": 9777,
  "▁justifiés": 9778,
  "▁tɔɔrɔjugu": 9779,
  "▁discussion": 9780,
  "▁frankofoni": 9781,
  "▁rencontrer": 9782,
  "▁descendants": 9783,
  "▁généralement": 9784,
  "▁jamanakuntigi": 9785,
  "▁éternellement": 9786,
  "▁thessaloniciens": 9787,
  "27": 9788,
  "_<": 9789,
  "ek": 9790,
  "▁ì": 9791,
  "asa": 9792,
  "cia": 9793,
  "gɔn": 9794,
  "roi": 9795,
  "▁05": 9796,
  "▁07": 9797,
  "▁3,": 9798,
  "oniw": 9799,
  "rika": 9800,
  "▁400": 9801,
  "▁>_<": 9802,
  "▁esa": 9803,
  "▁kau": 9804,
  "▁lié": 9805,
  "▁moy": 9806,
  "▁nne": 9807,
  "siyaw": 9808,
  "xanŋo": 9809,
  "étudi": 9810,
  "ɔgɔwɔ": 9811,
  "▁awas": 9812,
  "▁débu": 9813,
  "▁etes": 9814,
  "▁lour": 9815,
  "▁moti": 9816,
  "▁wita": 9817,
  "▁yeni": 9818,
  "▁1466.": 9819,
  "▁anani": 9820,
  "▁douce": 9821,
  "▁froid": 9822,
  "▁kakan": 9823,
  "▁kunti": 9824,
  "▁manya": 9825,
  "▁parfu": 9826,
  "▁poids": 9827,
  "▁volon": 9828,
  "effectu": 9829,
  "graphie": 9830,
  "ouvrage": 9831,
  "▁bureau": 9832,
  "▁bònsòn": 9833,
  "▁désire": 9834,
  "▁genèse": 9835,
  "▁kumafu": 9836,
  "▁oiseau": 9837,
  "kɔrɔsigi": 9838,
  "tiennent": 9839,
  "▁mɔgɔdaf": 9840,
  "▁plantes": 9841,
  "▁prenant": 9842,
  "▁sortent": 9843,
  "▁amoureux": 9844,
  "▁attendez": 9845,
  "▁barnabas": 9846,
  "▁kanulenw": 9847,
  "▁tiennent": 9848,
  "▁witamini": 9849,
  "▁américain": 9850,
  "▁kasadiman": 9851,
  "▁sigiyɔrɔw": 9852,
  "▁sigiɲɔgɔn": 9853,
  "▁décourager": 9854,
  "▁enseignant": 9855,
  "▁pleinement": 9856,
  "▁religieuses": 9857,
  "▁condamnation": 9858,
  "ld": 9859,
  "yɑ": 9860,
  "ɛr": 9861,
  "▁😉": 9862,
  "oma": 9863,
  "▁83": 9864,
  "▁dh": 9865,
  "▁hâ": 9866,
  "isie": 9867,
  "lɔnw": 9868,
  "orge": 9869,
  "▁1:4": 9870,
  "▁bua": 9871,
  "▁eau": 9872,
  "▁enj": 9873,
  "▁gat": 9874,
  "▁haa": 9875,
  "▁kai": 9876,
  "▁mea": 9877,
  "▁she": 9878,
  "▁ski": 9879,
  "▁xin": 9880,
  "▁yor": 9881,
  "▁ɔɔn": 9882,
  "enses": 9883,
  "ituma": 9884,
  "ouvre": 9885,
  "ustra": 9886,
  "▁deni": 9887,
  "▁madu": 9888,
  "▁manu": 9889,
  "▁tama": 9890,
  "▁tchi": 9891,
  "▁woyo": 9892,
  "▁épre": 9893,
  "▁épée": 9894,
  "sariya": 9895,
  "▁armes": 9896,
  "▁awake": 9897,
  "▁créat": 9898,
  "▁céléb": 9899,
  "▁gaman": 9900,
  "▁guide": 9901,
  "▁klist": 9902,
  "▁kunfɛ": 9903,
  "▁récol": 9904,
  "▁régna": 9905,
  "▁zhezu": 9906,
  "asseoir": 9907,
  "engager": 9908,
  "▁adored": 9909,
  "▁apparu": 9910,
  "▁dabari": 9911,
  "▁denilu": 9912,
  "▁emploi": 9913,
  "▁espèce": 9914,
  "▁fadenw": 9915,
  "▁kakdee": 9916,
  "▁lagamɛ": 9917,
  "▁manase": 9918,
  "▁penses": 9919,
  "▁priait": 9920,
  "▁rendus": 9921,
  "▁sermon": 9922,
  "▁sɔrɔli": 9923,
  "▁vidéos": 9924,
  "▁études": 9925,
  "arrivait": 9926,
  "entrerez": 9927,
  "▁chemins": 9928,
  "▁condole": 9929,
  "▁encoura": 9930,
  "▁fortifi": 9931,
  "▁isireli": 9932,
  "▁rendait": 9933,
  "▁tchaman": 9934,
  "▁vouloir": 9935,
  "▁belebele": 9936,
  "▁espérons": 9937,
  "▁sympathi": 9938,
  "▁duvɛnkɛnɛ": 9939,
  "▁entrèrent": 9940,
  "▁réflexion": 9941,
  "▁événement": 9942,
  "▁kojugukɛla": 9943,
  "▁mɔgɔkɔrɔba": 9944,
  "▁ressources": 9945,
  "▁principales": 9946,
  "▁accomplissez": 9947,
  "▁intelligence": 9948,
  "▁nafolobatigi": 9949,
  "▁international": 9950,
  "-5": 9951,
  "4.": 9952,
  ":77": 9953,
  "lic": 9954,
  "▁4,": 9955,
  "▁4:": 9956,
  "▁68": 9957,
  "▁zɛ": 9958,
  "admi": 9959,
  "cées": 9960,
  "deni": 9961,
  "hous": 9962,
  "jala": 9963,
  "écar": 9964,
  "▁beh": 9965,
  "▁eve": 9966,
  "▁lux": 9967,
  "▁ndi": 9968,
  "▁rab": 9969,
  "▁sto": 9970,
  "itant": 9971,
  "kisan": 9972,
  "stitu": 9973,
  "trait": 9974,
  "▁1:10": 9975,
  "▁conv": 9976,
  "▁dédi": 9977,
  "▁info": 9978,
  "▁lɛsɛ": 9979,
  "▁mach": 9980,
  "▁sien": 9981,
  "▁timi": 9982,
  "▁accès": 9983,
  "▁black": 9984,
  "▁domun": 9985,
  "▁favor": 9986,
  "▁intro": 9987,
  "▁kabin": 9988,
  "▁keden": 9989,
  "▁kenya": 9990,
  "▁konin": 9991,
  "▁lanna": 9992,
  "▁recev": 9993,
  "tements": 9994,
  "▁désobé": 9995,
  "▁kirisi": 9996,
  "▁lɛgɛrɛ": 9997,
  "▁mourra": 9998,
  "▁quator": 9999,
  "▁sommet": 10000,
  "▁tagawa": 10001,
  "identité": 10002,
  "▁conduis": 10003,
  "▁empêche": 10004,
  "▁mangent": 10005,
  "▁aiguille": 10006,
  "▁articles": 10007,
  "▁aveugles": 10008,
  "▁batofɛnw": 10009,
  "▁dogoyɔrɔ": 10010,
  "▁election": 10011,
  "▁provient": 10012,
  "▁possibles": 10013,
  "▁transport": 10014,
  "▁arriveront": 10015,
  "▁découverte": 10016,
  "▁entreprise": 10017,
  "▁kirayakuma": 10018,
  "▁réalisation": 10019,
  "▁sincèrement": 10020,
  "ɔw": 10021,
  "ɛ̄": 10022,
  "---": 10023,
  ";-)": 10024,
  "dar": 10025,
  "tur": 10026,
  "wer": 10027,
  "̀nɔ": 10028,
  "▁73": 10029,
  "▁râ": 10030,
  "▁sm": 10031,
  "▁tô": 10032,
  "amer": 10033,
  "geur": 10034,
  "gnon": 10035,
  "mugu": 10036,
  "muru": 10037,
  "yari": 10038,
  "ɲini": 10039,
  "▁30.": 10040,
  "▁kom": 10041,
  "▁lau": 10042,
  "▁mei": 10043,
  "▁nie": 10044,
  "▁nuŋ": 10045,
  "▁rfi": 10046,
  "▁wal": 10047,
  "estin": 10048,
  "initi": 10049,
  "toire": 10050,
  "▁bwes": 10051,
  "▁nɛni": 10052,
  "animal": 10053,
  "dulité": 10054,
  "effond": 10055,
  "espace": 10056,
  "gwɛlɛn": 10057,
  "jurumu": 10058,
  "maient": 10059,
  "▁bénit": 10060,
  "▁chute": 10061,
  "▁déran": 10062,
  "▁litté": 10063,
  "▁musom": 10064,
  "▁pêche": 10065,
  "▁tiers": 10066,
  "▁tuent": 10067,
  "▁batɛmu": 10068,
  "▁blessé": 10069,
  "▁buruju": 10070,
  "▁caïphe": 10071,
  "▁kalama": 10072,
  "▁objets": 10073,
  "▁phrase": 10074,
  "▁restez": 10075,
  "▁régime": 10076,
  "▁terres": 10077,
  "▁untung": 10078,
  "explique": 10079,
  "▁artiste": 10080,
  "▁attribu": 10081,
  "▁bwisiku": 10082,
  "▁compose": 10083,
  "▁connait": 10084,
  "▁coucher": 10085,
  "▁essayez": 10086,
  "▁konnigɛ": 10087,
  "▁magwɛrɛ": 10088,
  "▁manassé": 10089,
  "▁vieille": 10090,
  "istration": 10091,
  "▁centaine": 10092,
  "▁chambres": 10093,
  "▁détruits": 10094,
  "▁individu": 10095,
  "▁tenaient": 10096,
  "▁imbéciles": 10097,
  "▁jagwɛlɛya": 10098,
  "▁politesse": 10099,
  "▁sortirent": 10100,
  "▁ressuscite": 10101,
  "45": 10102,
  "ig": 10103,
  "▁ע": 10104,
  "apo": 10105,
  "cra": 10106,
  "har": 10107,
  "lub": 10108,
  "mmy": 10109,
  "nou": 10110,
  "taa": 10111,
  "yew": 10112,
  "▁9.": 10113,
  "▁=)": 10114,
  "▁ul": 10115,
  "boli": 10116,
  "espé": 10117,
  "liso": 10118,
  "lòsi": 10119,
  "tons": 10120,
  "tugu": 10121,
  "unuŋ": 10122,
  "▁ahh": 10123,
  "▁bei": 10124,
  "▁clo": 10125,
  "▁lao": 10126,
  "▁mah": 10127,
  "▁ram": 10128,
  "▁sel": 10129,
  "▁sté": 10130,
  "autés": 10131,
  "entes": 10132,
  "ligan": 10133,
  "▁bref": 10134,
  "▁culp": 10135,
  "▁dame": 10136,
  "▁dɔɔ̄": 10137,
  "▁ekun": 10138,
  "▁fôlô": 10139,
  "▁kulo": 10140,
  "▁kèmè": 10141,
  "▁mard": 10142,
  "▁murs": 10143,
  "▁nege": 10144,
  "▁siɲa": 10145,
  "▁tres": 10146,
  "▁tùma": 10147,
  "jamana": 10148,
  "thenti": 10149,
  "▁11:11": 10150,
  "▁agent": 10151,
  "▁allée": 10152,
  "▁châti": 10153,
  "▁débat": 10154,
  "▁films": 10155,
  "▁initi": 10156,
  "▁kooko": 10157,
  "▁kɔ̀nɔ": 10158,
  "▁large": 10159,
  "▁nimis": 10160,
  "▁panne": 10161,
  "▁tirer": 10162,
  "▁ŋunuŋ": 10163,
  "▁diront": 10164,
  "▁figure": 10165,
  "▁gwɛman": 10166,
  "▁jigɛba": 10167,
  "▁kòlòsi": 10168,
  "▁partit": 10169,
  "▁safari": 10170,
  "▁sinsin": 10171,
  "▁tourne": 10172,
  "▁chacune": 10173,
  "▁chaleur": 10174,
  "▁césarée": 10175,
  "▁egilisi": 10176,
  "▁histori": 10177,
  "▁kɔnɔgwɛ": 10178,
  "▁nisɔngɔ": 10179,
  "▁rendant": 10180,
  "▁réjouir": 10181,
  "▁répandu": 10182,
  "expliquer": 10183,
  "▁kɔnɔnako": 10184,
  "▁quartier": 10185,
  "▁remarqué": 10186,
  "▁ezekiyasi": 10187,
  "▁iburahima": 10188,
  "▁mɔgɔtɔɔrɔ": 10189,
  "▁réfléchir": 10190,
  "organisation": 10191,
  "▁communication": 10192,
  "▁personnellement": 10193,
  "ilɛ": 10194,
  "mum": 10195,
  "pir": 10196,
  "wns": 10197,
  "épa": 10198,
  "▁4\"": 10199,
  "cice": 10200,
  "ento": 10201,
  "lage": 10202,
  "like": 10203,
  "osse": 10204,
  "tire": 10205,
  "▁anj": 10206,
  "angle": 10207,
  "céens": 10208,
  "inɛri": 10209,
  "mmène": 10210,
  "vions": 10211,
  "èdent": 10212,
  "édifi": 10213,
  "▁blas": 10214,
  "▁bleu": 10215,
  "▁brit": 10216,
  "▁chou": 10217,
  "▁cors": 10218,
  "▁crit": 10219,
  "▁côte": 10220,
  "▁cɛya": 10221,
  "▁girl": 10222,
  "▁jela": 10223,
  "▁liga": 10224,
  "▁magi": 10225,
  "▁nice": 10226,
  "▁plon": 10227,
  "▁relâ": 10228,
  "▁sabi": 10229,
  "▁sɑ̃ɑ": 10230,
  "randes": 10231,
  "étions": 10232,
  "▁crise": 10233,
  "▁desse": 10234,
  "▁grèce": 10235,
  "▁jɛŋgɛ": 10236,
  "▁loonw": 10237,
  "▁lucas": 10238,
  "▁munaa": 10239,
  "▁quali": 10240,
  "▁sanfè": 10241,
  "▁silan": 10242,
  "▁tɛrɛn": 10243,
  "▁édifi": 10244,
  "adressa": 10245,
  "emparer": 10246,
  "▁excell": 10247,
  "▁gwanna": 10248,
  "▁jarabi": 10249,
  "▁kokura": 10250,
  "▁mienne": 10251,
  "▁touché": 10252,
  "▁tourné": 10253,
  "▁cuisine": 10254,
  "▁dafalan": 10255,
  "▁kasoden": 10256,
  "▁miirira": 10257,
  "▁périsse": 10258,
  "▁regarda": 10259,
  "▁rembour": 10260,
  "▁reposer": 10261,
  "esclavage": 10262,
  "kalandenw": 10263,
  "quisition": 10264,
  "▁abisalɔn": 10265,
  "▁archives": 10266,
  "▁december": 10267,
  "▁faudrait": 10268,
  "▁kɔrɔmuso": 10269,
  "▁makarila": 10270,
  "▁bienheure": 10271,
  "▁gravement": 10272,
  "▁masirinin": 10273,
  "▁propriété": 10274,
  "▁nafolofɛnw": 10275,
  "▁permettent": 10276,
  "▁reviennent": 10277,
  "accouchement": 10278,
  "▁kɔlɔsibagaw": 10279,
  "▁préparation": 10280,
  "▁témoignages": 10281,
  "▁mɔgɔdafaninw": 10282,
  "37": 10283,
  "ין": 10284,
  "ẹ́": 10285,
  "ọk": 10286,
  "dro": 10287,
  "gee": 10288,
  "ice": 10289,
  "ley": 10290,
  "lén": 10291,
  "uts": 10292,
  "▁6,": 10293,
  "▁hô": 10294,
  "▁sk": 10295,
  "alla": 10296,
  "allu": 10297,
  "deur": 10298,
  "gari": 10299,
  "look": 10300,
  "mɔri": 10301,
  "ngan": 10302,
  "rice": 10303,
  "wafa": 10304,
  "yeee": 10305,
  "yuli": 10306,
  "▁fac": 10307,
  "▁ken": 10308,
  "▁kpe": 10309,
  "▁nnɔ": 10310,
  "▁ron": 10311,
  "▁vég": 10312,
  "▁yau": 10313,
  "etait": 10314,
  "hanga": 10315,
  "kurun": 10316,
  "lɛnin": 10317,
  "onnes": 10318,
  "rasiw": 10319,
  "écran": 10320,
  "▁apol": 10321,
  "▁cria": 10322,
  "▁démo": 10323,
  "▁kabo": 10324,
  "▁kado": 10325,
  "▁kame": 10326,
  "▁lent": 10327,
  "▁male": 10328,
  "▁miri": 10329,
  "▁yire": 10330,
  "kɛbaga": 10331,
  "▁broke": 10332,
  "▁catho": 10333,
  "▁dɛndɛ": 10334,
  "▁levez": 10335,
  "▁louis": 10336,
  "▁perte": 10337,
  "▁tradu": 10338,
  "▁utile": 10339,
  "▁évolu": 10340,
  "épisode": 10341,
  "▁naforo": 10342,
  "▁passés": 10343,
  "▁prêché": 10344,
  "▁végéta": 10345,
  "fɛrinama": 10346,
  "▁donnant": 10347,
  "▁femelle": 10348,
  "▁hommage": 10349,
  "▁minnɔgɔ": 10350,
  "▁nourrir": 10351,
  "▁objecti": 10352,
  "▁tableau": 10353,
  "kisandiri": 10354,
  "▁dalakuma": 10355,
  "▁divinité": 10356,
  "▁djamanan": 10357,
  "▁hauteurs": 10358,
  "▁rappelez": 10359,
  "▁sadayeee": 10360,
  "▁souriant": 10361,
  "▁soutenir": 10362,
  "▁suivants": 10363,
  "▁surprise": 10364,
  "▁violence": 10365,
  "intéresser": 10366,
  "▁bangebaga": 10367,
  "▁bienfaits": 10368,
  "▁directeur": 10369,
  "▁découvrir": 10370,
  "▁entendent": 10371,
  "▁entrepris": 10372,
  "▁satisfait": 10373,
  "▁tagamasiɲɛ": 10374,
  "▁yɔrɔlakolon": 10375,
  "2:": 10376,
  "6,": 10377,
  "mɑ": 10378,
  "àa": 10379,
  "daa": 10380,
  "hio": 10381,
  "ino": 10382,
  "mor": 10383,
  "mou": 10384,
  "ted": 10385,
  "èce": 10386,
  "▁bê": 10387,
  "▁ts": 10388,
  "▁tì": 10389,
  "bert": 10390,
  "janw": 10391,
  "mara": 10392,
  "mets": 10393,
  "orta": 10394,
  "zifa": 10395,
  "▁[1]": 10396,
  "▁daw": 10397,
  "▁dow": 10398,
  "▁ika": 10399,
  "▁iné": 10400,
  "▁otu": 10401,
  "▁use": 10402,
  "▁éli": 10403,
  "▁ɲen": 10404,
  "cence": 10405,
  "herbe": 10406,
  "illée": 10407,
  "infir": 10408,
  "quand": 10409,
  "sière": 10410,
  "yɔɔrɔ": 10411,
  "▁biga": 10412,
  "▁bloo": 10413,
  "▁boit": 10414,
  "▁mike": 10415,
  "▁pari": 10416,
  "▁said": 10417,
  "▁stra": 10418,
  "▁surp": 10419,
  "▁wìla": 10420,
  "mɔɔilu": 10421,
  "ronter": 10422,
  "sayuli": 10423,
  "yeelen": 10424,
  "▁1959.": 10425,
  "▁chass": 10426,
  "▁jɛnna": 10427,
  "▁kanun": 10428,
  "▁koowo": 10429,
  "▁lumin": 10430,
  "▁messi": 10431,
  "▁murna": 10432,
  "▁telen": 10433,
  "▁tɔnmɔ": 10434,
  "ditions": 10435,
  "▁ajouta": 10436,
  "▁balawu": 10437,
  "▁kunkan": 10438,
  "▁lutter": 10439,
  "▁matern": 10440,
  "▁saisit": 10441,
  "▁sekɔra": 10442,
  "▁suffis": 10443,
  "▁tumana": 10444,
  "▁wazifa": 10445,
  "écoutent": 10446,
  "▁aspects": 10447,
  "▁baarala": 10448,
  "▁donnait": 10449,
  "▁kèlèbaa": 10450,
  "▁mesures": 10451,
  "▁renonce": 10452,
  "▁simeyɔn": 10453,
  "▁évident": 10454,
  "abondance": 10455,
  "▁balimakɛ": 10456,
  "▁capacité": 10457,
  "▁collecti": 10458,
  "▁dencɛilu": 10459,
  "▁klistfuɛ": 10460,
  "▁longueur": 10461,
  "▁parvenus": 10462,
  "▁secondes": 10463,
  "▁offrandes": 10464,
  "▁tagahanga": 10465,
  "▁égyptiens": 10466,
  "▁gufɛrinama": 10467,
  "▁habitaient": 10468,
  "▁merveilles": 10469,
  "▁spirituels": 10470,
  "▁baarakɛcogo": 10471,
  "▁changements": 10472,
  "▁connaissons": 10473,
  "▁alɛkisandiri": 10474,
  "act": 10475,
  "bor": 10476,
  "dal": 10477,
  "lun": 10478,
  "vnw": 10479,
  "ɛsi": 10480,
  "▁py": 10481,
  "alèm": 10482,
  "bɔnɛ": 10483,
  "enna": 10484,
  "mise": 10485,
  "neuf": 10486,
  "▁hey": 10487,
  "▁hos": 10488,
  "▁hoy": 10489,
  "▁ini": 10490,
  "▁kuu": 10491,
  "▁paa": 10492,
  "▁pee": 10493,
  "▁res": 10494,
  "▁wla": 10495,
  "▁עין": 10496,
  "excus": 10497,
  "lable": 10498,
  "mique": 10499,
  "▁1:17": 10500,
  "▁chɛɛ": 10501,
  "▁fufa": 10502,
  "▁gosi": 10503,
  "▁résu": 10504,
  "▁toma": 10505,
  "▁zeri": 10506,
  "ctures": 10507,
  "images": 10508,
  "équili": 10509,
  "▁acces": 10510,
  "▁boonw": 10511,
  "▁damas": 10512,
  "▁danse": 10513,
  "▁déchi": 10514,
  "▁ezayi": 10515,
  "▁fanva": 10516,
  "▁kanma": 10517,
  "▁lancé": 10518,
  "▁lolow": 10519,
  "▁môgôw": 10520,
  "▁olivu": 10521,
  "▁recue": 10522,
  "▁tuées": 10523,
  "▁yɔɔrɔ": 10524,
  "animaux": 10525,
  "▁banner": 10526,
  "▁bulonɔ": 10527,
  "▁chiens": 10528,
  "▁habitu": 10529,
  "▁lɛtɛrɛ": 10530,
  "▁nuŋgba": 10531,
  "▁sisiba": 10532,
  "appareil": 10533,
  "apporter": 10534,
  "ressions": 10535,
  "▁bigawns": 10536,
  "▁décider": 10537,
  "▁furancɛ": 10538,
  "▁garçons": 10539,
  "▁kɔrɔman": 10540,
  "▁psaumes": 10541,
  "▁souffle": 10542,
  "▁torosun": 10543,
  "influence": 10544,
  "▁enseigné": 10545,
  "▁tɔɔrɔkow": 10546,
  "▁yɛlɛtuma": 10547,
  "▁compliqué": 10548,
  "▁dɔnkilila": 10549,
  "▁phénomène": 10550,
  "▁condoleeza": 10551,
  "▁dɛsɛbagatɔ": 10552,
  "▁kilomètres": 10553,
  "▁kongosogow": 10554,
  "▁possession": 10555,
  "▁commentaires": 10556,
  "▁dusukunnakow": 10557,
  "▁sarakalasebaaw": 10558,
  "49": 10559,
  "nd": 10560,
  "30.": 10561,
  "adi": 10562,
  "cen": 10563,
  "hés": 10564,
  "kou": 10565,
  "mpe": 10566,
  "tee": 10567,
  "ango": 10568,
  "ctes": 10569,
  "erie": 10570,
  "immo": 10571,
  "leke": 10572,
  "osow": 10573,
  "▁amp": 10574,
  "▁nar": 10575,
  "▁old": 10576,
  "▁sha": 10577,
  "▁vih": 10578,
  "▁yir": 10579,
  "aperç": 10580,
  "comme": 10581,
  "enais": 10582,
  "tahun": 10583,
  "tueux": 10584,
  "zaine": 10585,
  "▁3:11": 10586,
  "▁agir": 10587,
  "▁amus": 10588,
  "▁assu": 10589,
  "▁cess": 10590,
  "▁dise": 10591,
  "▁flan": 10592,
  "▁gere": 10593,
  "▁joué": 10594,
  "▁kisa": 10595,
  "▁koon": 10596,
  "▁kèɲè": 10597,
  "▁lisa": 10598,
  "▁mets": 10599,
  "▁minu": 10600,
  "▁papi": 10601,
  "▁rede": 10602,
  "▁refu": 10603,
  "▁soif": 10604,
  "▁tiri": 10605,
  "▁vêtu": 10606,
  "▁wonu": 10607,
  "cevoir": 10608,
  "contre": 10609,
  "quérir": 10610,
  "▁aperç": 10611,
  "▁corru": 10612,
  "▁croyi": 10613,
  "▁deuil": 10614,
  "▁donso": 10615,
  "▁emanu": 10616,
  "▁explo": 10617,
  "▁kaane": 10618,
  "▁kawan": 10619,
  "▁modes": 10620,
  "▁natte": 10621,
  "▁situe": 10622,
  "▁époux": 10623,
  "ditionn": 10624,
  "housias": 10625,
  "matique": 10626,
  "parents": 10627,
  "▁cooper": 10628,
  "▁elizab": 10629,
  "▁feeren": 10630,
  "▁frappé": 10631,
  "▁gomorr": 10632,
  "▁kagala": 10633,
  "▁manana": 10634,
  "▁masɔrɔ": 10635,
  "▁passée": 10636,
  "▁portée": 10637,
  "▁rachel": 10638,
  "▁racine": 10639,
  "▁remise": 10640,
  "▁remont": 10641,
  "▁révèle": 10642,
  "▁virent": 10643,
  "éloigner": 10644,
  "▁ajouter": 10645,
  "▁dilanna": 10646,
  "▁diminin": 10647,
  "▁haminan": 10648,
  "▁kasobon": 10649,
  "▁produis": 10650,
  "▁sigilen": 10651,
  "▁trouvez": 10652,
  "▁assassin": 10653,
  "▁béthanie": 10654,
  "▁carrière": 10655,
  "▁couronne": 10656,
  "▁gentille": 10657,
  "▁habitent": 10658,
  "▁insensés": 10659,
  "▁maridose": 10660,
  "▁totalité": 10661,
  "▁ladilikan": 10662,
  "▁rendaient": 10663,
  "▁fonctionne": 10664,
  "▁production": 10665,
  "▁zerobowamu": 10666,
  "ep": 10667,
  "ón": 10668,
  "ɡe": 10669,
  "enɛ": 10670,
  "kit": 10671,
  "org": 10672,
  "ple": 10673,
  "siɑ": 10674,
  "ɑri": 10675,
  "▁2)": 10676,
  "▁72": 10677,
  "▁kì": 10678,
  "fènw": 10679,
  "fɔɲɔ": 10680,
  "issé": 10681,
  "jeun": 10682,
  "ries": 10683,
  "yini": 10684,
  "▁(20": 10685,
  "▁48.": 10686,
  "▁kei": 10687,
  "▁kut": 10688,
  "▁kɛr": 10689,
  "▁mba": 10690,
  "▁mol": 10691,
  "▁nɡe": 10692,
  "▁opé": 10693,
  "▁oya": 10694,
  "▁sév": 10695,
  "▁tyr": 10696,
  "▁ɲɔn": 10697,
  "hiver": 10698,
  "itent": 10699,
  "proch": 10700,
  "roits": 10701,
  "viers": 10702,
  "▁amie": 10703,
  "▁aras": 10704,
  "▁dess": 10705,
  "▁disi": 10706,
  "▁donw": 10707,
  "▁edɛn": 10708,
  "▁idol": 10709,
  "▁jack": 10710,
  "▁koli": 10711,
  "▁noob": 10712,
  "▁tɔɲɔ": 10713,
  "▁wɑ̃ɑ": 10714,
  "illant": 10715,
  "prêtre": 10716,
  "quatre": 10717,
  "sibles": 10718,
  "▁affec": 10719,
  "▁cellu": 10720,
  "▁conçu": 10721,
  "▁créée": 10722,
  "▁daddy": 10723,
  "▁festi": 10724,
  "▁gwili": 10725,
  "▁march": 10726,
  "▁mélan": 10727,
  "▁proxi": 10728,
  "▁sable": 10729,
  "▁woolo": 10730,
  "▁wèrèw": 10731,
  "appeler": 10732,
  "▁adorer": 10733,
  "▁armées": 10734,
  "▁assemb": 10735,
  "▁bènbaw": 10736,
  "▁cɛnnin": 10737,
  "▁démont": 10738,
  "▁détres": 10739,
  "▁misère": 10740,
  "▁mousso": 10741,
  "▁oeuvre": 10742,
  "▁posent": 10743,
  "▁totale": 10744,
  "rédulité": 10745,
  "▁attendu": 10746,
  "▁château": 10747,
  "▁compara": 10748,
  "▁délivre": 10749,
  "▁gusunɔn": 10750,
  "▁honteux": 10751,
  "▁philoso": 10752,
  "▁portuga": 10753,
  "▁renvoie": 10754,
  "▁secrets": 10755,
  "▁ɲininna": 10756,
  "accomplit": 10757,
  "▁contient": 10758,
  "▁embarras": 10759,
  "▁huitième": 10760,
  "▁jamakulu": 10761,
  "▁nimisara": 10762,
  "▁sɛnɛkɛla": 10763,
  "▁venaient": 10764,
  "enregistre": 10765,
  "▁efficaces": 10766,
  "▁irréproch": 10767,
  "▁lɔnbaliya": 10768,
  "▁collection": 10769,
  "▁faranyɔrɔw": 10770,
  "▁légèrement": 10771,
  "▁magistrats": 10772,
  "▁conséquence": 10773,
  "33": 10774,
  "];": 10775,
  "zz": 10776,
  "éd": 10777,
  ":41": 10778,
  "das": 10779,
  "dɔw": 10780,
  "wal": 10781,
  "émo": 10782,
  "ôts": 10783,
  "ɲin": 10784,
  "▁ep": 10785,
  "▁ib": 10786,
  "dien": 10787,
  "dure": 10788,
  "fana": 10789,
  "fils": 10790,
  "fura": 10791,
  "gwan": 10792,
  "itée": 10793,
  "ouvé": 10794,
  "▁ako": 10795,
  "▁igi": 10796,
  "▁sip": 10797,
  "▁swĩ": 10798,
  "▁tie": 10799,
  "▁xun": 10800,
  "▁yɑ̃": 10801,
  "emmen": 10802,
  "kiraw": 10803,
  "osent": 10804,
  "▁1:11": 10805,
  "▁5:14": 10806,
  "▁assi": 10807,
  "▁beyi": 10808,
  "▁deep": 10809,
  "▁jiri": 10810,
  "▁stat": 10811,
  "▁turu": 10812,
  "▁yawe": 10813,
  "allais": 10814,
  "aspect": 10815,
  "larité": 10816,
  "▁affli": 10817,
  "▁album": 10818,
  "▁baali": 10819,
  "▁bɛɛrɛ": 10820,
  "▁dépar": 10821,
  "▁isaïe": 10822,
  "▁labèn": 10823,
  "▁neige": 10824,
  "▁nusɔn": 10825,
  "▁offer": 10826,
  "▁tâche": 10827,
  "dessous": 10828,
  "rateurs": 10829,
  "▁envisa": 10830,
  "▁europé": 10831,
  "▁fiyɛra": 10832,
  "▁gentil": 10833,
  "▁gɔmɔri": 10834,
  "▁invité": 10835,
  "▁kɛlɛba": 10836,
  "▁masaso": 10837,
  "▁normal": 10838,
  "▁nɛnili": 10839,
  "▁places": 10840,
  "▁réfugi": 10841,
  "▁tougou": 10842,
  "▁abinɛri": 10843,
  "▁arrêter": 10844,
  "▁bonsoir": 10845,
  "▁corsair": 10846,
  "▁dispers": 10847,
  "▁dorment": 10848,
  "▁intelli": 10849,
  "▁observa": 10850,
  "▁projets": 10851,
  "▁simples": 10852,
  "▁suivent": 10853,
  "▁yebaliw": 10854,
  "▁yɛrɛkun": 10855,
  "▁activité": 10856,
  "▁gomorrhe": 10857,
  "▁laissant": 10858,
  "▁mensonge": 10859,
  "▁préparés": 10860,
  "▁saniyara": 10861,
  "▁écoutent": 10862,
  "▁christian": 10863,
  "▁courageux": 10864,
  "▁emanuwɛli": 10865,
  "▁fondation": 10866,
  "▁française": 10867,
  "▁individus": 10868,
  "▁objectifs": 10869,
  "▁présentes": 10870,
  "▁kalanbagaw": 10871,
  "▁telefɔniko": 10872,
  "alimentation": 10873,
  "▁dominations": 10874,
  "accompagnement": 10875,
  "4,": 10876,
  "9:": 10877,
  "amé": 10878,
  "aso": 10879,
  "tic": 10880,
  "▁5,": 10881,
  "▁75": 10882,
  "adop": 10883,
  "anne": 10884,
  "bere": 10885,
  "dits": 10886,
  "iler": 10887,
  "yane": 10888,
  "▁ann": 10889,
  "▁bia": 10890,
  "▁dég": 10891,
  "▁fyɛ": 10892,
  "▁iye": 10893,
  "▁kpo": 10894,
  "▁pay": 10895,
  "▁ŋun": 10896,
  "explo": 10897,
  "inion": 10898,
  "▁1:18": 10899,
  "▁1:27": 10900,
  "▁affi": 10901,
  "▁biɲɛ": 10902,
  "▁blow": 10903,
  "▁djon": 10904,
  "▁enni": 10905,
  "▁king": 10906,
  "▁maux": 10907,
  "▁récu": 10908,
  "▁tamo": 10909,
  "▁tcha": 10910,
  "▁théo": 10911,
  "▁wogo": 10912,
  "avions": 10913,
  "endras": 10914,
  "vaient": 10915,
  "▁benko": 10916,
  "▁cibaa": 10917,
  "▁fleur": 10918,
  "▁josɔn": 10919,
  "▁saali": 10920,
  "▁vendu": 10921,
  "▁yinri": 10922,
  "▁étape": 10923,
  "illesse": 10924,
  "issante": 10925,
  "itaires": 10926,
  "rations": 10927,
  "écoutes": 10928,
  "▁courir": 10929,
  "▁dirait": 10930,
  "▁formes": 10931,
  "▁gwɛnna": 10932,
  "▁humble": 10933,
  "▁kɔɲɔcɛ": 10934,
  "▁navire": 10935,
  "▁regret": 10936,
  "▁réunis": 10937,
  "▁sombre": 10938,
  "▁transg": 10939,
  "▁yirige": 10940,
  "illement": 10941,
  "▁boisson": 10942,
  "▁fournir": 10943,
  "▁jiginna": 10944,
  "▁mandimi": 10945,
  "▁oublier": 10946,
  "▁ouvrage": 10947,
  "▁propiti": 10948,
  "▁rejoint": 10949,
  "▁suicide": 10950,
  "▁espagnol": 10951,
  "▁profiter": 10952,
  "▁sexuelle": 10953,
  "▁bibliques": 10954,
  "▁bwisikumɔ": 10955,
  "▁condamnés": 10956,
  "▁demandant": 10957,
  "▁dernières": 10958,
  "▁partirent": 10959,
  "acquisition": 10960,
  "▁baaraɲuman": 10961,
  "▁mandiminin": 10962,
  "▁yɛrɛboɲala": 10963,
  "▁enseignants": 10964,
  "▁nécessaires": 10965,
  "▁suffisamment": 10966,
  "administration": 10967,
  "▁enseignements": 10968,
  "▁tilenbaliyako": 10969,
  "yy": 10970,
  "̃ɛ": 10971,
  "-18": 10972,
  ":46": 10973,
  "eue": 10974,
  "mus": 10975,
  "nya": 10976,
  "xte": 10977,
  "▁os": 10978,
  "▁wɑ": 10979,
  "assé": 10980,
  "cter": 10981,
  "deen": 10982,
  "hypo": 10983,
  "idio": 10984,
  "jira": 10985,
  "lusi": 10986,
  "léem": 10987,
  "mail": 10988,
  "rasi": 10989,
  "sung": 10990,
  "vées": 10991,
  "▁16-": 10992,
  "▁4:3": 10993,
  "▁ayé": 10994,
  "▁baw": 10995,
  "▁ila": 10996,
  "▁nye": 10997,
  "▁oyi": 10998,
  "▁put": 10999,
  "▁ros": 11000,
  "▁srɛ": 11001,
  ":2323": 11002,
  "arrêt": 11003,
  "insta": 11004,
  "jigin": 11005,
  "kodon": 11006,
  "usent": 11007,
  "▁bouc": 11008,
  "▁dégo": 11009,
  "▁fìla": 11010,
  "▁janu": 11011,
  "▁malé": 11012,
  "▁mɛni": 11013,
  "▁nino": 11014,
  "▁noun": 11015,
  "▁nuan": 11016,
  "▁pili": 11017,
  "▁pɛrɛ": 11018,
  "▁tèmè": 11019,
  "▁wuri": 11020,
  "▁yeee": 11021,
  "▁ɲene": 11022,
  "lusion": 11023,
  "tasuma": 11024,
  "▁alain": 11025,
  "▁banni": 11026,
  "▁bikin": 11027,
  "▁fonde": 11028,
  "▁kumun": 11029,
  "▁lance": 11030,
  "▁leçon": 11031,
  "▁prodi": 11032,
  "▁renom": 11033,
  "▁règle": 11034,
  "▁saddu": 11035,
  "▁sidon": 11036,
  "▁sidɔn": 11037,
  "▁singa": 11038,
  "▁sùrun": 11039,
  "▁tabɛn": 11040,
  "gations": 11041,
  "▁avanta": 11042,
  "▁cayara": 11043,
  "▁classi": 11044,
  "▁danger": 11045,
  "▁kiyama": 11046,
  "▁kuturu": 11047,
  "▁kòròfò": 11048,
  "▁leader": 11049,
  "▁makònò": 11050,
  "▁repose": 11051,
  "▁suppli": 11052,
  "▁église": 11053,
  "▁ɲadenw": 11054,
  "estation": 11055,
  "▁arasɛli": 11056,
  "▁céleste": 11057,
  "▁dantuma": 11058,
  "▁faganin": 11059,
  "▁intérêt": 11060,
  "▁pourras": 11061,
  "▁sanjiba": 11062,
  "▁bethléem": 11063,
  "▁consacré": 11064,
  "▁démarche": 11065,
  "▁fidélité": 11066,
  "▁messages": 11067,
  "▁rappeler": 11068,
  "▁sigarɛti": 11069,
  "▁waatijan": 11070,
  "▁incapable": 11071,
  "▁jerusalèm": 11072,
  "▁possédait": 11073,
  "▁tentation": 11074,
  "▁yahudiyan": 11075,
  "▁éphésiens": 11076,
  "▁étrangère": 11077,
  "▁commettras": 11078,
  "▁considérés": 11079,
  "▁jamanadenw": 11080,
  "▁réputation": 11081,
  "▁sadducéens": 11082,
  "intervention": 11083,
  "▁anniversaire": 11084,
  "bô": 11085,
  "ks": 11086,
  "ww": 11087,
  ",..": 11088,
  "eso": 11089,
  "fon": 11090,
  "îme": 11091,
  "ɔgɛ": 11092,
  "▁$.": 11093,
  "▁86": 11094,
  "▁[3": 11095,
  "▁ec": 11096,
  "▁él": 11097,
  "ands": 11098,
  "céan": 11099,
  "gard": 11100,
  "matɔ": 11101,
  "ords": 11102,
  "yait": 11103,
  "émer": 11104,
  "▁bln": 11105,
  "▁dip": 11106,
  "▁flè": 11107,
  "▁mut": 11108,
  "▁nam": 11109,
  "▁wol": 11110,
  "▁wud": 11111,
  "erɔdi": 11112,
  "mence": 11113,
  "▁1950": 11114,
  "▁3:18": 11115,
  "▁arra": 11116,
  "▁biru": 11117,
  "▁daaw": 11118,
  "▁dafɛ": 11119,
  "▁déco": 11120,
  "▁laka": 11121,
  "▁nɔnɔ": 11122,
  "▁obéi": 11123,
  "▁siin": 11124,
  "▁séré": 11125,
  "▁tɛri": 11126,
  "▁ɛntɛ": 11127,
  "appela": 11128,
  "▁condu": 11129,
  "▁crime": 11130,
  "▁créés": 11131,
  "▁diras": 11132,
  "▁leila": 11133,
  "▁mères": 11134,
  "▁niaan": 11135,
  "▁produ": 11136,
  "▁radio": 11137,
  "▁sites": 11138,
  "▁touma": 11139,
  "▁wooda": 11140,
  "▁yerus": 11141,
  "miiriya": 11142,
  "utilise": 11143,
  "▁banakɔ": 11144,
  "▁courte": 11145,
  "▁débuts": 11146,
  "▁faamaw": 11147,
  "▁fufafu": 11148,
  "▁graves": 11149,
  "▁identi": 11150,
  "▁kunkow": 11151,
  "▁masiri": 11152,
  "▁nuages": 11153,
  "▁pacifi": 11154,
  "▁promet": 11155,
  "▁préser": 11156,
  "▁répète": 11157,
  "▁sayako": 11158,
  "▁suppri": 11159,
  "▁tilefɛ": 11160,
  "▁touman": 11161,
  "observer": 11162,
  "▁absalom": 11163,
  "▁choisir": 11164,
  "▁diction": 11165,
  "▁désagré": 11166,
  "▁faranna": 11167,
  "▁gouttes": 11168,
  "▁moindre": 11169,
  "▁mɛncogo": 11170,
  "▁nombres": 11171,
  "▁tourner": 11172,
  "▁attitude": 11173,
  "▁bayɛlɛma": 11174,
  "▁bâtiment": 11175,
  "▁marchent": 11176,
  "▁médicaux": 11177,
  "▁persécut": 11178,
  "▁prostitu": 11179,
  "▁remarque": 11180,
  "▁respecte": 11181,
  "▁versions": 11182,
  "▁faamubali": 11183,
  "▁maintenir": 11184,
  "▁portugais": 11185,
  "▁proximité": 11186,
  "▁précédent": 11187,
  "▁sélection": 11188,
  "▁balimamusow": 11189,
  "▁quotidienne": 11190,
  "▁batizelikɛla": 11191,
  "▁compréhension": 11192,
  "1:": 11193,
  "55": 11194,
  "ân": 11195,
  ":43": 11196,
  "gea": 11197,
  "gez": 11198,
  "ggu": 11199,
  "idé": 11200,
  "ike": 11201,
  "van": 11202,
  "▁cm": 11203,
  "▁dy": 11204,
  "abil": 11205,
  "assa": 11206,
  "chec": 11207,
  "romp": 11208,
  "umes": 11209,
  "▁anɛ": 11210,
  "▁aɲi": 11211,
  "▁cos": 11212,
  "▁fas": 11213,
  "▁jim": 11214,
  "▁maɲ": 11215,
  "▁seg": 11216,
  "▁teh": 11217,
  "▁vac": 11218,
  "▁wɔn": 11219,
  "▁yea": 11220,
  "alpha": 11221,
  "iques": 11222,
  "osité": 11223,
  "▁100%": 11224,
  "▁acte": 11225,
  "▁alli": 11226,
  "▁bani": 11227,
  "▁cata": 11228,
  "▁copa": 11229,
  "▁dafè": 11230,
  "▁défa": 11231,
  "▁fuir": 11232,
  "▁kimi": 11233,
  "▁luck": 11234,
  "▁madi": 11235,
  "▁nali": 11236,
  "▁nyer": 11237,
  "▁tiré": 11238,
  "▁tuna": 11239,
  "▁woso": 11240,
  "auront": 11241,
  "nafolo": 11242,
  "onnent": 11243,
  "▁copie": 11244,
  "▁desɛn": 11245,
  "▁durer": 11246,
  "▁décon": 11247,
  "▁ecrit": 11248,
  "▁enter": 11249,
  "▁forow": 11250,
  "▁idées": 11251,
  "▁phone": 11252,
  "▁préci": 11253,
  "▁saine": 11254,
  "kɛbagaw": 11255,
  "quaient": 11256,
  "ressait": 11257,
  "▁chaîne": 11258,
  "▁double": 11259,
  "▁désirs": 11260,
  "▁faniso": 11261,
  "▁kalanw": 11262,
  "▁kalila": 11263,
  "▁korent": 11264,
  "▁lakunu": 11265,
  "▁lɔgɔbɔ": 11266,
  "▁prises": 11267,
  "▁refuge": 11268,
  "▁retira": 11269,
  "▁siraba": 11270,
  "▁énorme": 11271,
  "activité": 11272,
  "▁besoins": 11273,
  "▁consola": 11274,
  "▁déroule": 11275,
  "▁hòrònya": 11276,
  "▁january": 11277,
  "▁meurtri": 11278,
  "▁moyenne": 11279,
  "▁surpris": 11280,
  "▁veillez": 11281,
  "attachera": 11282,
  "enfuirent": 11283,
  "oublierai": 11284,
  "ressement": 11285,
  "▁domicile": 11286,
  "▁dugutigi": 11287,
  "▁erection": 11288,
  "▁lumières": 11289,
  "▁miliyari": 11290,
  "▁mépriser": 11291,
  "▁setigiya": 11292,
  "▁sɔngɔgwɛ": 11293,
  "▁tilennen": 11294,
  "▁ɲenematɔ": 11295,
  "▁accueille": 11296,
  "▁souverain": 11297,
  "▁structure": 11298,
  "▁entendirent": 11299,
  "▁tremblement": 11300,
  "▁fadenyabolow": 11301,
  "dh": 11302,
  "kɑ": 11303,
  "▁{": 11304,
  "bru": 11305,
  "dow": 11306,
  "fɔɔ": 11307,
  "gas": 11308,
  "gil": 11309,
  "unt": 11310,
  "vin": 11311,
  "wlɛ": 11312,
  "îte": 11313,
  "ɔgi": 11314,
  "▁ɔ́": 11315,
  "arɔn": 11316,
  "chir": 11317,
  "dasi": 11318,
  "iens": 11319,
  "incu": 11320,
  "inde": 11321,
  "lama": 11322,
  "ompe": 11323,
  "wulu": 11324,
  "▁20\"": 11325,
  "▁33-": 11326,
  "▁beb": 11327,
  "▁gru": 11328,
  "▁nto": 11329,
  "▁pàa": 11330,
  "▁tsu": 11331,
  "▁uka": 11332,
  "▁zen": 11333,
  "exécu": 11334,
  "mɔnin": 11335,
  "▁aɲia": 11336,
  "▁cali": 11337,
  "▁chaî": 11338,
  "▁coût": 11339,
  "▁days": 11340,
  "▁ford": 11341,
  "▁funu": 11342,
  "▁fyew": 11343,
  "▁mexi": 11344,
  "▁mɔna": 11345,
  "▁rira": 11346,
[...]
