<s>
</s>
<pad>
<unk>
▁Ainsi
▁misɛn
▁boudd
▁nizon
▁kadi
▁wagua
▁ach
▁hakèsuma
▁miel
▁directes
din
▁2013
explor
rid
gbèrèya
istante
uine
um
▁am
▁Bart
(
▁Ara
▁Barcelon
▁200
▁yɛlɛmani
▁tombée
tten
▁populaire
▁XVIe
▁afol
▁mousse
▁Ch
mouli
▁fangan
aises
▁contribué
▁Siradi
▁Mariana
▁pierre
▁permettant
a
ropicali
kotoro
▁monbili
vansi
▁(189
ssport
▁Augstus
▁demissein
▁acte
épices
▁2016.
▁reliefs
▁bagan
▁800
annuler
▁séd
▁intérieur
minina
ɔrɔ
▁1839.
▁remplacé
▁florales
ip
▁mitigés
▁feinw
▁sacrif
▁élections
olga
élargir
▁walla
▁manifest
▁glaci
▁samana
▁murutila
▁fai
venzano
▁individ
▁prolonga
ide
chounibè
▁efficaces
▁bhog
▁occasions
▁Alani
kolode
oriz
▁Luxem
nɔɔ
litvi
▁vérité
aménagement
▁médecine
▁sangan
▁all
▁moindre
inelle
▁Ju
▁religions
▁hakilinan
saba
▁téliyali
tiquées
▁libre
▁soutenu
▁démissi
▁quit
dif
▁bars
▁qui
▁comite
tèmi
ôro
▁inauguré
▁Wilds
juguya
icon
▁contrô
actions
▁Tarata
▁el
▁»)
▁une
▁Unies
▁MP
▁Symphony
initiative
cks
▁okôfè
qua
léans
▁expon
▁niche
▁lafignè
▁nâfâ
koumanyé
grade
▁lundi
▁djondjon
less
velôpou
▁dérac
▁semblait
▁ro
▁madimi
élev
▁Ayez
▁Djamana
▁Coûro
▁labɛn
▁vote
▁Simp
▁récupérer
▁atomes
▁Afi
▁bid
▁masaw
▁termes
ASA
▁encourag
can
pouli
▁natarô
▁yèrèla
ôm
▁nimɔrɔ
▁éjiden
▁chiff
▁respect
▁Pâ
▁djaabi
trolèri
lissez
aiba
▁kotôgô
▁roumain
▁patients
vingts
▁vendus
▁mettre
▁Dunde
▁étudier
▁djidala
▁64
▁œufs
▁gô
▁literie
▁réserve
kg
ché
▁kôrôbô
génw
▁Collège
amis
▁juridique
kɔra
▁bafo
êmes
▁lunettes
▁bisigi
▁vieux
▁collision
èse
▁tradition
apprendre
▁péche
▁panoramas
▁messieu
ca
▁Guardi
▁kissèbérika
▁Azerbai
.11
ttp
▁distinctes
▁plasi
▁18
▁Combiné
tigè
ŋ
indisp
▁oya
▁tolini
▁cathol
▁Nairobi
ginal
▁douanier
lots
▁Sinnin
▁anim
uro
49)).
▁sitɛnɛ
▁tonon
▁guér
6-64
▁leri
riantaf
affir
▁contentement
aur
▁djougouman
▁Michele
▁Gn
▁utilisant
▁gratuit
oméos
uc
▁dôgôtôrôya
▁Victoria
▁ciel
dôw
▁nanniw
▁sommes
ɲɔmɔgɔ
▁fret
▁glob
▁djekourou
monô
▁gele
▁récif
▁disparut
ati
▁Gardian
esp
▁prochaine
▁gnô
explosion
▁latins
▁Borne
▁tombeau
▁virusi
▁côtes
ɛnpik
▁Golfibé
how
▁yagamou
ançaient
uros
▁Dow
èrèné
se
▁walassa
▁Anna
▁ponpe
elin
▁dounougnan
rala
▁kanagaçi
sén
mettre
▁grenades
▁ani
raman
▁Necro
▁schém
gboya
5,
▁Ze
▁sisitɛ
▁bèsé
▁légèrement
▁antiques
fla
▁squash
▁kalanso
treet
ole
avière
▁activités
▁wayé
yèr
▁faamuli
▁counon
▁gese
▁1995,
amen
▁montrant
▁douroula
▁ardɛn
▁bieila
▁halo
▁missen
▁Old
▁djamandénw
▁pesaient
▁téléphonique
öngyi
▁mentent
▁gbinnan
▁obama
▁sourafén
▁diplômé
▁réflexion
aínos
▁bonw
iterran
▁pois
▁bisaba
▁crétienw
▁ladamuni
▁kodjou
▁utiles
▁lisse
dr
▁arabou
▁Hydro
dougoukolo
▁mèna
▁Djoussou
▁révélé
okyo
▁tricot
▁kassodenw
▁mama
▁kosebe
▁utilis
▁Iranienw
▁bila
▁dessinée
▁puits
▁emplois
▁antoro
oula
▁skieuses
▁pyramid
mè
médiaire
▁Malar
▁Cetiguè
▁gouverne
sɛn
▁structure
▁madame
arrêter
ksburi
iver
▁définissent
▁gnogonfè
▁0
▁fisaya
▁gbaniw
▁luwanse
▁môgô
ň
olus
▁kôrôssi
▁men
applaud
▁neguèsso
▁gbanni
▁ɛs
lia
sɛl
▁devenu
▁intèr
▁bènkan
▁gali
chnologi
▁sabatila
▁abanni
▁faga
▁porotôn
▁Capi
▁1945
eneral
▁récemment
▁bora
▁heureux
▁carlos
▁anw
▁dugula
▁audi
IRM
▁touteske
▁digé
▁jumelles
▁gbé
▁fôka
djougouw
▁logique
▁décès
lɛn
▁menées
▁indiquant
▁retrouvé
▁nicolas
▁fermés
▁ilaba
curité
▁acceptées
▁suffisent
gagnéla
▁tɛmɛna
▁Niagara
▁laf
▁sangua
▁Sisters
▁NKH
▁pɛrɛn
▁moto
▁conduis
▁âgés
▁miziki
makounouni
▁made
▁tchai
▁unité
▁sogo
▁Arizona
mamô
▁makèyarô
▁yanfan
▁befo
tenu
▁refuse
ombes
▁britannique
phal
▁gamme
▁kounda
tchôgôlô
▁Tamasese
érou
khar
'
▁bonnes
▁modɛl
tilenyôrô
offrent
soft
ouri
▁champignon
▁fédéraux
▁kodinge
utilisent
▁gyros
▁Raymond
réti
▁on
▁Berhane
ystic
hz
ançais
▁quoi
▁Douniya
▁femi
▁dôfè
hony
▁NextGen
▁Abra
▁anbari
erger
▁zozɛ
09:02
trotchè
▁Chinoi
▁Toukônôn
▁yèlèmata
▁sabati
kêla
▁coupe
▁audio
étrier
▁Civilis
daman
band
▁GHz
▁cos
▁considérables
▁loutigui
oile
▁développer
ACTA
▁prêtres
fɔn
▁Ephesi
▁Albert
▁recomm
▁kogodugu
kedaw
▁Sap
▁sêguêssêguêli
angari
vièti
ɲ
0,
▁enneig
▁falaises
▁prolonger
▁Uye
▁Roman
▁kalata
▁docteur
ptor
rede
ytha
▁comité
▁surprend
▁Ethiopi
▁cruciale
▁positions
aben
▁Djaté
▁écriture
▁cella
▁ou
ofi
▁tournée
▁tchogaya
▁Zapate
ɛrɛ
▁wéelé
ɛsto
occ
▁marsi
▁kôdjabi
atemala
▁locaux
▁Lions
pte
▁Kôgôdugu
énlé
époque
▁tyr
ahel
▁présentation
ourde
▁roch
▁Roe
▁aller
▁osc
▁koh
▁Bowy
▁preuve
▁Kôgô
▁chemins
ézuél
▁sogoma
▁médicament
▁boɲɛna
sséka
▁réacteur
▁natu
▁Maria
▁jouant
▁ini
▁marrant
▁savoir
▁1770,
▁batoyôrô
▁instantanée
▁Larry
tecturi
▁One
▁aspect
alo
▁Glassikourou
▁gbele
dent
kland
ôkalo
ssèritchè
▁révolution
▁Hoo
▁revient
▁barakèla
m
▁cravates
▁morgorw
▁troubles
▁dounougna
▁koow
▁affec
pen
▁gnanam
▁N
▁agiles
▁vitesse
▁gneneman
aymond
▁Bowen
chets
sèbèw
vachon
erew
▁épis
hili
▁gazeux
▁Anatol
gnôngô
▁quelles
chnologie
▁Nasion
▁iyé
▁contraints
▁blossoms
▁téréma
▁affair
▁Men
▁toubè
▁lôninaba
ɛre
▁yamay
lles
▁bissiouw
▁responsables
▁CG
lô
mɛ
zôri
▁perspectives
olisant
▁panaméen
▁pres
▁touyén
▁kiimènan
▁genèse
gènes
▁rent
▁köfè
▁gongnon
▁localités
tières
▁sauvegarde
idél
▁donc
▁Seuls
▁patriarches
▁ONU
ambiguïté
▁Davey
▁Neva
▁exige
▁Punja
ovisionné
▁Turiki
téli
▁recevoir
▁siginin
▁pakistanais
▁kɛmɛsaba
gatiwiw
guler
▁blessures
kounbèw
niya
▁Mogo
▁thè
▁ladj
▁chanson
marécages
perony
▁Erkoç
▁aimer
▁yaa
▁soi
mitée
▁assass
▁timi
frivo
▁Christ
olesc
marayôrô
▁navette
▁douniy
▁vraie
fasi
▁Voyager
▁essen
2)."
pini
mbabwé
SUS
▁événements
ub
▁indignés
iomaggi
▁nizn
▁î
vié
▁Gor
ɲɛna
▁regroupe
▁nuclé
▁Brazili
▁kognan
Tchè
▁nina
▁kibaru
▁razzias
▁parcour
▁kèrèni
aci
gnêla
elier
▁makasila
▁prom
▁lakagnan
▁groupes
▁nalomanya
▁hola
▁déni
▁lôli
▁batailles
▁gné
▁ag
ieber
▁ngali
▁gnamata
kôlà
▁yara
▁déçue
▁damin
ritani
▁Dôhou
ère
angés
yèrèkôrô
istère
▁Reid
▁djô
▁Lafasto
▁68
▁lass
▁Kan
▁olivu
urent
travail
▁wagaw
▁torw
ul
▁dispersé
dia
▁livru
▁Zeruza
▁surv
▁téléfoni
▁commentaires
▁suivies
▁blocs
▁Alessand
▁cognac
▁parlons
▁nation
▁tchaman
▁siraou
acts
unité
▁mabô
▁oct
▁Argen
tchogoya
yili
▁Saba
▁Corn
▁Amazoni
Ö
▁assister
▁Nyira
▁Safari
▁sépar
▁aigu
▁me
ureland
sanfiyèw
▁cohérent
abilité
▁Rick
menan
djow
▁tchôkô
▁ola
▁marcher
▁bougôli
▁1970,
▁tounou
▁Education
heliya
év
▁tchegnan
▁alentours
tour
▁aradjo
▁sanglots
▁Gouarani
▁kanh
▁Mapuchi
gni
▁Con
if
ogonôgôya
▁considèrent
▁dépendent
▁faamanw
▁graves
▁tchèni
mosph
▁Hadj
ionner
▁gongon
▁Henry
▁niwôrô
rection
▁maya
▁Mari
igh
▁apportée
▁légère
bres
cheter
▁républi
hamenei
▁possibilités
cads
▁prévention
▁paqui
▁kèféng
▁viser
▁annoncé
▁face
▁fayira
▁sarati
ourg
▁natur
▁ŋ
▁koforla
▁pressé
moussoya
RI
kulu
▁explosé
▁Service
▁sexe
dagascar
èrinèri
péré
trices
▁Olympici
▁siranhya
goya
▁gouverneur
▁Flag
-19
▁oursi
▁hi
▁laguila
otoxine
orum
▁savait
▁gouvernement
▁Des
▁cède
▁ora
▁contenu
▁Sky
▁camions
▁million
▁seerejuguya
▁bangeli
asie
▁Schengen
▁présents
aine
▁suivant
▁démis
part
enny
ille
▁gwili
▁tangali
▁Cree
▁yèrèkèni
▁Head
▁djèfa
dage
zième
▁-32
kèra
▁fôlôfôlô
▁personnalités
inière
mafin
▁Commons
spa
▁â
▁Report
▁blessée
▁maabo
▁pied
▁nɔgɔman
▁djago
rianta
▁sanctuaire
▁Wonders
tiseman
▁pouvaient
▁dounan
hémis
▁maur
▁lointains
yafan
owParade
▁30
▁All
▁sach
▁JAS
▁yéko
▁sit
hiop
▁nenain
▁semelles
ogi
▁traversez
vide
ies
▁fiitini
▁enseigné
▁Fori
▁philippe
▁qualifié
▁farifaga
▁faragwê
anville
tiqui
▁ques
▁tagassi
▁induira
▁sapins
▁environnement
igata
▁observer
▁pri
▁croyait
▁morifa
ğ
ubli
▁féw
▁br
héritier
▁wururu
▁sanba
reuve
▁Alden
▁mobiliba
▁wôyô
▁Shim
▁sèrè
awolo
▁daminnin
lection
▁ouna
▁Erec
Alaska
kor
orgorma
riki
▁gnôgônatè
golais
▁pard
▁domicile
nic
▁kamelen
▁préalable
▁an
▁physique
rƆmi
▁laminila
▁étudiants
▁fromage
Aristote
▁kongo
escal
nel
▁su
▁feyi
kurasege
▁dén
issage
gnongô
▁sula
▁Georges
▁famaya
▁foi
îles
io
▁combin
anneau
onville
▁Angi
roscope
▁kèmèna
mbley
lo
▁voit
Estonie
▁kêlêbolo
▁Wouss
▁aviyɔnso
▁Norvegi
roi
▁sources
▁fuzé
wu
▁fɔ
▁empat
bori
▁Ange
▁bènan
▁téles
▁chap
▁Namanama
gnoli
ysi
môgôyap
rite
ATAM
▁buwa
▁tuguni
guêli
▁deimein
▁wariko
▁viking
▁nôfè
▁Chaco
▁peintes
▁sawoura
loniya
▁majeure
isse
▁Rust
▁yiri
▁Touman
▁sénw
▁tɔnɔ
▁moulo
ipels
▁shu
▁karôgbè
▁répondit
▁jambes
▁Archipèli
▁Irkoutsk
ét
▁régions
▁éventu
▁ladoli
▁Halifa
▁télescopes
▁manière
▁tlala
arab
▁entrés
buruku
▁déw
▁kanpan
▁ran
posée
cident
▁beladj
doumouni
▁saranna
▁taxes
▁stan
landais
▁chercheurs
tings
▁Gridley
▁Boh
▁intrah
▁nôgbèn
▁djidjali
mpson
denb
▁elé
▁crient
mines
ttave
▁adul
▁dôra
▁00
▁patrimoine
▁mankan
ale
▁retrouve
▁alé
▁soigner
▁déclar
engagement
▁Essayez
eid
▁gustave
▁économique
▁alon
▁.
▁bènkama
▁Müsl
▁manko
▁têmê
▁degebaga
▁documents
ntaw
CFTA
lɔ
▁bassi
▁transfrontal
raf
▁yirede
▁Jim
▁mafilê
▁nécessaire
▁kin
sali
▁Ikôrô
▁djek
▁stéréotype
▁douw
▁Living
▁gnanda
êter
▁incul
minano
farada
▁désagréable
▁gnin
▁kayaki
▁kor
peman
▁douleurs
▁samani
▁tɛmɛn
▁gbagban
▁Lagnini
CT
▁jolie
▁ing
onnes
hara
▁vous
ell
▁jama
omp
banazawa
▁alakadjô
▁Samoa
PEP
▁piments
▁komine
▁kiri
▁nafô
orps
▁esthé
portation
élérerait
duw
ceton
▁Jiménez
▁èrè
dè
▁Horr
É
carro
guilè
imahoro
▁verra
écr
ɔn
▁gnanfola
▁Qu
▁manifestations
▁voyais
▁temple
▁bugô
▁parsemés
ette
▁Bishek
vin
▁sèli
▁mouvements
▁poursuit
onnance
armées
ufacturé
▁kira
DR
tchiê
▁kititigè
▁Unis
▁peuplées
▁(100
▁môgôba
▁mininni
▁kabourou
▁Djaga
chn
sso
▁hakanyaw
▁Mogow
▁diayé
▁WIFI
ganli
dogon
▁tirée
▁Smyrna
ininkèta
▁Virginia
hura
minu
ancar
▁diffèrent
Assunpin
▁diât
▁imprimée
espèces
▁inf
▁Jus
▁ôriki
folihou
▁voyons
ayak
▁sexu
▁taxis
illa
▁Twin
rrassiw
▁kasusu
entiellement
risitali
▁soumani
▁Mc
▁water
ols
▁yeux
ɛn
▁(24
▁kogodji
Bretagne
▁incidence
▁mosas
▁rɔ
expansion
ko
▁preuves
▁cɛɛ
ible
▁homm
▁infrastructures
folina
▁quand
urrent
▁Re
atana
▁temporaires
▁dela
▁messages
▁peu
onctu
▁plafond
▁domes
gilisi
▁Verde
▁França
▁dieu
20-1
▁belle
▁dilan
lasgow
▁kêmêsi
▁logofiè
ssouma
▁arike
▁modèle
alcium
oine
▁soufèla
urie
▁racine
lington
▁cailaber
7.
ante
▁corps
▁yörö
United
▁motif
▁dabô
▁têmèna
▁recruter
bdr
DT
▁Daraka
▁Steward
▁bénika
lier
lieue
▁Gibson
▁sɔngɔ
lley
join
dougouw
▁gén
bachiabo
▁tortues
econdes
extrême
▁présidenti
▁dugnugnan
▁rɛsto
▁ɔn
cherchi
▁tibéto
▁Fallou
▁grièvement
iraux
▁capable
▁108
▁veuillez
▁Copern
▁Romani
▁tiɲɛna
▁lanibɛ
▁Polisi
fei
▁were
▁Nôrôbla
écriv
▁kassé
▁Sanskrit
▁ethnic
cuti
▁grave
stemu
▁falén
▁Kountaga
gnè
▁doung
▁Balaw
▁vierge
uruw
▁sérikô
celotw
▁sɔnni
gnafan
duga
▁sitigi
▁makônôtô
hamon
▁dounou
▁léyénon
▁keni
▁komini
urra
tibon
▁geste
dinburgh
▁pharaon
▁Upolu
▁Djida
gnôgô
▁provɛn
▁minuw
ites
▁djôyôrô
iquet
▁égal
▁Leon
▁doumou
▁bey
▁sangolo
tenir
▁kur
▁kèdin
êléounw
▁éc
res
OHA
▁040
▁con
▁sagama
▁baa
▁ekɔ
▁sysitemu
mation
▁réalisation
▁sensib
▁kadogo
video
▁lôniyara
▁urani
▁baarake
▁Brésilien
cénario
▁déndén
▁bakuru
▁Lônko
salem
▁top
umbai
▁yɔrɔw
sko
konsene
▁poursuivi
ineti
▁mun
▁sisitɛmu
▁simɔn
▁biologiques
▁conquistadors
▁ndaléw
▁élev
▁coopération
lec
▁frontière
bagatô
▁deenmisɛ
cons
▁parv
▁caesium
▁WNE
▁textes
froid
shchev
▁Northern
▁reconnus
▁cogn
▁lesquelles
▁marche
▁habituellement
tements
▁influencé
cine
▁Botswan
▁tignèliw
ckey
▁primaires
kafile
▁ur
▁tiyen
▁nettoyer
▁laisser
fone
▁faman
▁Namg
êtes
▁foundeini
▁Bin
▁Bien
▁Shore
lɛri
▁kèlaw
▁kebagaw
▁ali
▁requins
entrer
▁strict
mpro
▁philip
èrin
▁sinan
▁sogn
▁wolon
▁prénom
▁jango
▁Te
▁danila
romp
all
▁zone
▁tombes
▁touché
▁kaso
▁restes
▁Conseil
kouroug
▁Kêlê
ilson
▁planètes
▁kruwa
gatuan
▁clô
▁Pass
▁chaude
andonnée
▁bee
98)
tchoko
▁kesaba
▁marchent
▁archipel
▁cul
▁emplace
▁awɔ
nés
▁ke
▁katchi
▁fèsè
▁Kechagi
Armén
▁subir
yô
▁lalaga
▁sabali
▁Stania
▁kambe
ctérie
▁chama
▁bɔyɔrɔ
▁Blo
oz
tifiée
vu
issait
▁tiya
▁dumunikɛ
▁océan
▁minisry
▁nougou
▁fondoni
▁Tex
▁feirei
▁kêba
▁mortels
hrai
▁cɛkaɲi
▁Asi
djêlén
▁kil
▁voyagi
▁volcanique
▁accepter
nayaala
▁ordina
adresse
▁Centre
▁posséder
▁Hémis
▁yorohura
▁timini
▁dayelela
SWAPO
nnenya
▁mien
onyanyini
rougnan
▁filizöf
▁compren
▁gnininga
▁perdirent
▁stratégique
▁J
▁invités
▁labinni
▁parvenue
▁Eglisi
▁conne
▁angel
muso
▁Chini
▁Rea
gési
▁djéridjourou
▁Vikings
▁wiza
▁calo
asma
tchigèn
=
▁virisi
agn
raptor
▁aire
ômes
vereneman
▁gnènè
urs
▁gnigi
▁karanma
▁connaissances
▁tremble
▁ressemblent
arns
▁makassiw
▁seguè
▁dannan
▁options
▁haute
▁couvre
lakaw
▁gbrè
ablement
alerte
▁Cependant
▁gniniga
▁pere
▁entier
▁gnanfe
▁yɛlɛra
▁devant
Ital
▁trouverez
atent
894–1895
▁vol
opithec
ɔnnibagaw
▁Zagro
▁hɛri
rin
▁lôkôli
alisés
omalie
▁Fôlô
▁œuvre
▁tèfohi
▁lolosèèrè
▁procédure
▁hostile
▁gan
cription
▁Armeni
▁Coûroûn
▁yɔgɔ
▁géologique
▁diab
▁faut
ératif
▁gwɛlɛn
▁nouvelles
▁dél
▁touri
▁gafe
▁centrées
▁paki
bagw
▁djiguira
▁scène
esi
▁labènin
▁animés
▁bulle
réfè
▁Diyan
▁grippe
▁1988.
▁Lola
tenariat
í
▁Smyr
▁durant
▁yaani
▁fagamanw
▁pavo
▁Zoungla
▁sɛ
chte
▁Telsa
▁gauche
▁Sachin
▁alabatoso
expérience
gentina
▁champ
ressé
▁personne
▁Irland
mamôbili
tiendrait
▁Berliner
▁Hesperony
▁(16
▁Icelandi
▁instantan
▁telefɔni
▁kuntan
jah
▁onzairi
▁bɔra
entifi
happan
▁stim
adel
▁lèèri
ossack
▁bébé
▁Ayato
▁gè
▁patrons
gow
garzyns
▁gr
▁enfants
▁bini
▁borora
ènement
▁favorables
ach
▁Geo
▁Emmy
▁tasse
▁vignèti
▁dara
▁déversement
▁rentable
▁section
ertant
▁déjà
Õ
▁Hasting
▁lolodén
▁explos
▁kôgôji
▁concepts
gnéla
érarchi
▁wèètchè
▁David
▁Lamb
minanw
ochydore
▁kinikini
▁cours
wôro
pagni
SAF
▁70
bouoh
▁Rom
▁emplacements
▁Wou
▁barakɛyɔrɔ
▁bizarre
ativité
u
▁reversé
▁tonoliw
mura
▁sônminan
▁déclara
▁spécifiquement
ague
▁Delhi
än
▁Rog
arikou
▁Am
▁marié
gani
▁duniya
▁issus
▁filets
abbé
▁3
▁da
▁nounou
▁Wi
▁reprises
rrô
▁founteni
▁kiriyôn
▁oiseau
▁soula
▁ofani
même
Péters
tafɛnw
yiraw
▁Brezili
laouw
éd
▁magas
▁Madhy
▁Cafe
eneya
▁Wa
▁Deeds
▁Pinti
leville
▁Vo
▁dom
▁kèra
▁Xinhua
▁eux
▁douno
▁part
avie
▁patient
▁Maoris
▁secr
▁révéler
Thrace
ilités
▁ikônon
▁Speciation
Orlando
▁ress
▁affirm
nisation
ouver
▁navigateurs
▁apparu
inf
lara
▁marchés
ic
tôburukalo
▁nân
▁forteresse
cid
ümqi
▁aler
▁uniquement
findô
▁Marcie
▁chia
▁krô
eff
▁aiderait
▁blessé
▁brésil
omas
▁carb
▁fonds
sèmè
▁contaminée
▁mousso
▁carro
▁dépassés
▁djikankoun
▁haiti
▁épaules
▁Coûroû
ulaire
▁kôgôdji
▁wolo
▁gnanabô
▁humm
nèti
▁latimi
▁labènna
oins
llsw
▁Yiriw
▁gnaminin
▁glacier
▁joutes
manyafinw
▁érigé
tèri
tibonite
▁faible
▁Villa
3
▁déniw
▁colonies
▁kebaliya
▁2).
llow
▁affairi
▁nations
▁Juillet
▁kaban
▁1,
▁puissant
▁Quelqu
établissement
▁Poin
ke
▁kassobow
jankongow
ergents
▁Panth
oign
app
▁stat
▁Taj
▁statut
▁fallu
mafê
cia
▁kayira
▁fèguè
périences
▁jala
▁allie
▁mandimini
▁dirɛ
▁chau
appelle
▁trib
ɔrk
▁adéquate
▁Etats
pe
tèrinèti
▁ré
▁culturel
uriser
tah
▁jii
enant
▁électrique
▁révèlent
▁déjeuné
▁yoloyolo
engnongoya
▁service
▁myéssé
▁Devon
▁envoyée
▁remontant
▁Dimi
▁bref
ssi
▁participants
▁déception
veill
▁maranila
Ass
▁avers
autoris
▁-820
▁bouteille
▁conseil
glisi
▁klasi
▁instruc
▁gamin
▁défend
▁Californi
▁situation
oirs
▁diplo
kourakèra
vec
▁halisa
▁Hes
▁Dromae
▁souvent
▁absence
Institut
▁koungna
sèbènninw
▁entamer
yongon
rila
▁Muchanga
▁Kanbriji
▁tôni
▁kuruba
▁finɛtri
▁brusque
▁sortent
▁championnat
ka
▁Gnanan
▁facteurs
▁Caribes
▁filipine
▁éto
▁conférence
herbes
▁oleye
▁filila
atos
cki
▁Shneider
▁dèrènan
ilets
oupes
▁kongon
▁inaperçu
▁dig
▁éducatifs
▁Sir
▁tur
▁éte
encont
▁rendent
▁akow
▁sambè
▁mate
lliti
▁dali
▁gere
▁waliya
▁évoluait
uccino
▁dôna
▁bad
▁accepte
▁spiritu
▁jungle
pant
▁Elicôpi
ogn
▁mandjan
▁Akiri
▁Comores
wou
▁vivaient
▁flàw
dan
▁pra
▁activés
▁sont
▁ouye
▁Gounw
itions
dez
▁jèngèn
▁considéré
asi
onan
Ɔ
▁récents
▁ailleurs
▁farikolo
▁(1418
▁aimeront
▁travaillent
▁Sahel
▁puiss
fila
▁Arias
▁Madam
oug
impanz
▁attachés
▁observ
▁navigables
kivu
▁rev
ainte
▁got
bolibolo
▁Vi
▁atomiki
▁pauvreté
▁konondoh
▁obeinata
né
érieur
ronon
▁plaines
▁chamayé
▁suisse
▁créative
oumala
minnin
▁kounchi
▁sossi
▁mené
▁nombreux
▁rangée
▁148
▁gbelen
sori
xygen
Espagne
oc
▁degrés
▁Toutan
▁intéressant
ïwan
onvénient
▁Fi
araman
▁pêch
▁prètriw
oda
kouatèr
▁tchan
ga
ela
▁anglais
▁bonya
▁tilanni
zones
latigɛ
▁Foroba
▁patinw
▁anciens
▁nonfè
djigai
▁personnes
endo
vɛ
▁missê
▁tà
▁chouans
▁sinc
▁nôtre
retagne
▁annonce
▁kagwêlê
▁coût
▁ɲamɔgɔ
▁djatela
clé
agement
▁Séville
▁froide
▁Maro
añitas
Â
Ish
▁yôrôwh
▁samiya
▁Porter
oul
▁vient
chev
▁kaman
▁construites
▁progressivement
id
▁Bon
▁reservo
ven
linpiki
▁prô
viritiali
▁ɲɛɲɛ
▁yɛlɛ
▁Schuma
bali
▁nne
▁bakoun
Auc
▁quel
▁robert
tèrw
orm
Ohio
▁Penin
▁Angilètèri
▁milit
assi
▁kènèma
brani
▁Chişinău
▁Schneider
siguili
orent
trav
▁tagabolo
▁wi
hosp
▁sér
▁centr
yth
▁nav
pements
ilote
anciens
-76
lesco
ine
▁rayonnement
▁prétendant
ext
▁suspects
▁yèè
▁fudéli
▁précisé
▁archet
▁détendue
▁kotiguiw
G
expressions
album
▁recon
▁datugu
agricul
▁dev
▁Wariko
inette
▁cycles
▁béto
lut
angelos
▁message
rience
segueyoro
▁yôrôwla
▁Lune
▁klan
▁kɔrɔni
▁moteur
▁tornades
▁rang
ier
▁Yu
ipèdes
▁alli
▁Ovechkin
saoura
▁complète
iettes
ah
α
▁ang
ayral
▁Tri
pos
▁bêtis
▁hu
cessi
▁périodi
▁kônnondô
▁nônfè
▁originel
bdrung
▁mouga
▁travailleurs
fori
▁djanw
▁répandu
▁Paolo
▁gwèrèa
tɛz
▁grecques
oudhary
▁rép
▁wuléman
▁morceaux
▁flo
bele
▁portera
▁assureur
▁utiliser
▁rapporté
titu
Bumth
▁luxe
drigo
▁fatigué
▁bônkônô
▁traduction
▁stop
▁agn
▁kɛta
ounibè
▁réputées
▁tcheman
maggi
▁Quas
▁candid
▁dénw
erry
quaient
affichage
kɛɲɛn
▁Pamela
antafyl
▁Athèni
▁moitié
arry
▁envie
▁cache
▁village
▁organisation
▁centrale
NSA
▁tempêtes
▁rôti
rming
▁domaines
▁Dream
▁limaniya
inèti
anime
▁mininla
▁Alemanw
▁oyé
▁sigira
ochy
taranilo
▁tienne
ofan
mis
kɔrɔba
▁maîtris
lê
Indep
▁Jogin
▁fi
▁balɔntan
▁spectac
▁Blogui
▁Joche
BI
▁blessez
▁1830
▁Whi
▁kasara
▁barala
dôwla
▁2009,
onance
lent
▁souviens
▁alatiguè
▁Kamiyon
isw
▁foshi
▁frappe
▁théodore
▁traces
kônonfenw
▁réponses
▁Bè
▁Gama
▁tremb
ovi
ssoro
▁Cushing
▁versions
ituel
ton
▁loup
▁flani
▁piste
▁Djaman
urrection
▁travailler
▁991,
▁panam
mir
▁manque
▁tagamaw
▁félin
▁laman
▁Sandaman
▁Sôgôma
▁désigner
▁fonctionnait
▁GP
▁bebô
▁Haï
▁Karno
▁Sec
▁sojigui
ippol
▁lanilé
massala
▁dervi
ddhis
▁Community
▁franni
▁Episo
zards
▁mèni
▁pomp
kêlaouw
▁sôssôli
▁ranger
▁médaillé
▁roues
▁conçu
▁Sogow
andé
sɛniw
▁argentin
gnagwè
ooms
▁collaboration
▁câ
▁2006.
▁Profe
▁dér
50
▁Kôngo
iot
▁Koh
jan
ancer
érin
▁Slovén
sɔn
zéris
▁kenera
nibè
heliyafan
▁bénni
▁avril
ippolyte
▁circulation
▁théorique
▁branche
chus
▁lor
▁neemanya
▁lankiri
roquerie
▁fanfê
lit
garz
liciteurs
▁causé
▁coupant
acks
tchin
teraient
▁annu
▁kinmin
dium
▁labenni
▁marafé
.76
▁lourdes
▁fleuron
▁Canaan
ere
▁Vichy
▁int
▁autre
▁voyager
▁sékoféw
entu
▁Astro
endront
▁écueil
pement
éloge
kinolo
hommes
▁ikôlà
▁sanfèla
▁dépassé
▁labenka
▁pd
▁at
▁saranda
▁aliman
▁racont
oxy
▁implique
▁nominations
siyon
oquinerie
sèbè
▁Tchièn
mer
▁dip
ruw
▁saan
▁itè
▁santé
appa
▁exemples
▁traite
▁rn
lola
▁royales
▁che
▁Du
telisti
▁tô
▁nuages
▁wolomani
▁neremugu
▁gnogon
▁kosôn
▁montagne
▁limitée
kènèyôrô
frontal
alasi
kour
▁émerger
déw
▁Balasu
ond
▁dɔk
▁djiein
▁adeptes
▁gnôgônye
▁ankan
▁sofaw
▁artik
▁Plit
▁avez
▁dépl
▁nori
ames
trapati
▁ɲanaman
▁Célèbre
eselow
▁ordinateurs
siyete
▁dynamisme
▁restrictions
borifénw
maria
▁New
▁kôkan
jorque
▁sôgoma
ans
▁Hindou
▁tordus
▁compromis
▁japonaise
▁antiquités
▁ɲafɛ
tɔw
▁halakini
▁Eighme
▁Kham
▁gna
▁torn
airé
▁lon
▁Goma
▁wôrô
▁pasé
kunra
▁commencer
ă
▁baase
▁inversés
gongonw
bethae
▁punaises
▁ancien
▁minbena
▁utilisa
as
wood
étras
▁miman
▁perman
▁Alpini
▁bonogon
▁extrémités
▁celili
leke
▁Soro
▁Jago
▁lanib
▁MA
▁lela
rions
▁Montez
▁Wayagi
▁mada
▁cour
▁lev
▁TM
▁GMT
▁barakɛ
▁bataki
hirimèn
▁barrada
▁2010.
▁lisez
émissin
▁chapeaux
▁mélamine
influenza
▁chaîne
▁Vidal
trer
▁National
iciles
▁seront
▁frapper
▁seibei
▁tachetés
▁églises
dre
▁multipar
▁Batow
ptekaw
▁voyageur
▁sèbèla
▁djaa
▁interventions
▁Co
▁diamana
yros
ASPN
▁lemuru
avenir
▁20,
▁bè
engnon
▁desse
▁pérou
▁dalamini
pect
▁rugir
électeur
housie
èche
▁compét
▁myth
OVID
▁Sanju
▁breta
▁7-2.
▁Jeudi
▁Tibe
▁tableti
▁présenté
▁koumaw
▁déter
▁continuer
▁crédi
▁dɔtɔrɔ
▁internet
jours
▁kètchogo
▁dignè
▁écriv
▁offici
▁taye
itié
▁mana
slation
môgô
▁lumine
▁Rhine
▁diâ
ɔrɔn
▁bolola
ssouri
liss
attraction
▁oko
▁soji
roms
▁worodugu
beth
▁marayôrô
▁vidéo
▁filo
ousse
▁zaara
▁oun
▁kitigè
▁Dar
chis
▁Drea
▁perturb
▁fiy
ster
heureux
▁bouo
▁kame
hy
▁loloss
▁kafu
▁survécu
érique
▁caisse
humanité
ros
dust
▁donni
▁quelconque
▁kouruw
▁sogow
fghanistan
▁abat
nelles
▁yèrèma
tas
▁yèna
▁nourriture
ser
ersements
▁Civil
▁surp
▁fitana
▁douanes
▁XIIIe
▁reb
geum
vy
▁UTC
▁Pu
UTC
▁Cons
▁bandes
▁Batoli
▁vɛnsan
festanw
▁significative
▁kokoji
pol
nom
▁djatéy
cheveux
▁tremblements
▁Cana
pri
▁approf
ouines
James
▁kilomètèrè
▁prɛ
▁Djamina
appellent
▁Angilè
actifs
▁ole
épatique
▁doug
▁bina
ban
▁sôbèna
▁transport
▁60,
bains
▁marier
torum
▁chékô
important
▁tran
▁2:11.60
▁disi
â
gɔn
▁préoccu
tis
▁yiriga
ébr
manan
▁Taxi
iapo
lɛru
lopeman
eosa
reek
▁randonn
othé
▁Ekouatèr
tuman
▁1755
mina
radén
▁moyens
▁cinquième
▁bavard
échiffr
▁Sanscrit
gbèw
agatimi
▁égyp
▁domestiques
ɔr
▁summada
▁kassaraw
▁céréales
amp
lique
ouilles
▁XIe
▁repérer
mais
acquérait
surf
▁Maroochydore
briel
kari
▁kapi
▁Comètiw
▁tentative
▁rnde
▁fréquemment
bru
▁kɔrɔ
marins
▁negesso
▁fèga
attr
allées
filê
▁trav
Indi
ril
▁boun
▁Copenhague
▁difficile
▁yirala
djèman
ight
▁sèbèli
mbaw
▁zan
tolo
▁précédente
quel
▁courte
ar
▁6,3
ourt
▁èssipa
▁annette
▁Babyloni
▁djiguila
▁bɛɛ
môgôw
▁Nor
▁Sintra
sichella
gwɛrɛ
▁kolokoun
▁oo
▁bactéries
enicianw
▁gnongô
▁kana
▁désign
▁rossi
rà
yéléma
▁inu
▁lonbagaw
▁parlée
▁moelle
▁apparemment
ac
orisés
tiguigna
▁tenté
▁drame
▁lagafi
▁metriki
▁boré
▁nissodja
▁kényan
▁prix
▁Noosa
heures
▁danfara
Cloud
▁môgôfaga
▁snow
▁30,000.
articles
▁kuru
Iran
▁Cali
▁yiriwa
▁visant
▁tranches
▁yéllèli
yamogo
▁vols
▁accordés
▁djèmèli
▁Kingsway
▁Miditér
balo
▁aversion
▁2012
▁jamakuluw
lɔs
quatrième
▁Tufin
▁paro
lôni
▁XVe
▁lang
▁esansi
ssini
tôla
▁sons
▁illic
▁mɔgɔya
nkèrènnenya
▁wilibali
▁ennuis
▁pey
▁fotata
érences
▁Daily
mafenw
▁arbres
ursus
vilis
▁collec
▁pari
bim
▁booti
▁Chrétienw
▁recommandation
▁baasi
ssèbè
▁ryth
▁aurait
▁Hémisfè
▁objets
archite
assade
▁traditionnelle
▁saga
▁mètres
▁Belg
ecture
▁yɛrɛsɔrɔ
éné
▁technologie
essai
iller
▁bord
▁cacahu
▁confirme
▁Bostonika
▁2:
▁remplace
▁Loes
▁Rassurez
998)
▁bâtiment
▁mogon
▁barils
mieux
▁deou
jalan
▁Dieu
ize
▁possi
▁ol
▁stu
▁sendonni
▁kèkafi
teori
▁Ar
▁Etihad
▁kônôndô
▁déplacer
▁dantiguè
▁acheté
lougou
▁djaaba
▁djisuru
▁Casablanca
▁Pradesh
▁dirigeants
▁gbanzanw
▁sɔgɔsɔgɔ
sen
▁croyances
▁Langari
▁destination
▁32
▁Polyne
▁Pitt
ves
▁francs
▁dekele
▁bhajans
gè
▁Pedrillo
▁loin
▁Mon
▁ninakili
Esp
kras
mptomi
▁Abe
▁coquille
▁cécité
ilh
nan
▁dagolo
▁ravi
▁tehi
▁offre
umth
▁Toutefois
▁kougo
▁kuna
entielles
▁Reading
▁ɛri
▁miya
▁essayait
▁mairi
▁djamanaw
▁aur
aintes
▁décoration
▁agit
▁fermé
▁wolôn
▁Peu
▁régionaux
▁pier
tail
▁Bara
▁tanouli
atoires
verneur
ome
férant
▁Moldo
▁sèrèw
▁Mashhad
▁kelenna
▁sikhs
▁pêchaient
▁diffus
▁Saffir
▁décédés
mèli
▁colombes
▁maintien
▁infectés
▁tériya
▁faits
▁royale
▁daman
andises
▁dèssè
risti
avalanche
garde
▁phage
▁Posoni
▁sauvé
ration
▁sènèkèla
▁kita
▁sanp
▁voyages
▁balo
nier
▁gagne
▁arabe
▁surun
▁voulez
▁Cheers
▁Hawaï
▁Joh
djiguiyôrô
▁écout
▁lakanani
é
▁outil
ervez
▁fourou
mono
▁Toutankhamon
icken
▁Or
▁Ipodi
élie
ín
▁kilé
amba
▁séti
▁soulager
▁LaFasto
▁nomi
▁amɛ
▁Souw
▁sira
▁sigɛna
▁sombres
▁PIB
▁moines
filiw
▁medecins
▁karaté
▁déce
▁assurez
▁chefs
▁Daru
▁kunafôni
dela
udisme
▁dôgôtôrôso
▁pointues
▁voisin
▁qualifiés
penado
▁différences
inau
▁Ayant
▁boissons
eau
▁Livuruw
▁ainsi
▁comportement
▁ner
▁break
korobo
▁Deception
▁Transi
▁Lon
▁soutien
Rocket
▁car
▁née
annan
▁fonctionner
▁NASA
lika
▁avec
▁kirabô
▁Aya
▁H
▁per
erm
▁Kense
▁fôgôfôgô
▁(50
▁virtuelles
▁dim
ém
▁maladie
gai
▁fouhi
▁rapides
▁style
▁Angkor
▁deviennent
▁Tu
masôrô
▁kôkanfé
▁phénomènes
▁Couronne
mana
yaw
▁fédérales
gineers
kana
▁prêts
▁haki
▁Venezuela
▁paraître
ance
▁kountaga
▁Africaine
▁bèguènw
▁Dr
▁tagabolow
▁bô
▁Je
gnoumaniw
▁Truex
djourou
▁mɔndi
sumpink
▁débuts
▁lôgôtchè
▁infr
▁nécessitent
▁économies
▁ordinateri
▁enveloppe
kinda
▁coyagi
▁Cush
▁magnifique
▁yéléwn
▁Mariannes
▁Somalie
tɛ
▁yèlèma
▁comme
▁nunu
9).
▁Ass
▁1884,
▁Argentine
▁doron
▁Laglasé
▁réglement
▁bolira
▁larala
▁baakelen
▁capitaine
gela
▁revoir
mpignon
▁diver
▁nilo
▁medu
▁Slovénie
igs
▁laadaw
▁Missouri
▁réaliser
poli
22,500
▁nɛrɛ
▁navire
▁rau
aín
▁yétaw
avantage
▁éduc
▁1889
aska
▁précédé
ts
guste
▁main
▁ɲagami
▁economi
eter
▁djôti
▁lara
▁paisible
▁neutrons
▁tony
écropole
▁Novembrou
scopeta
fɔrimatiki
▁kumabolo
▁culturels
▁soif
▁Faranci
▁yèlèmani
itts
viseur
▁Mission
▁pieu
▁?...
oculare
▁lakiika
▁tukôrô
▁P
aurais
▁concentré
▁énum
▁sɔɔn
▁tranquillité
▁dibaga
▁exporté
▁tora
▁dévas
▁mousoba
Hawaï
▁rec
iff
▁caill
▁posséd
▁accusé
▁ense
▁nord
▁chevreu
▁1819,
▁kewaliw
agog
▁individuelles
▁studi
namber
▁djôguini
▁ajou
▁géolog
▁kônôyôrô
▁rome
▁acquérir
Amsterdam
gar
ternet
ormez
▁sour
▁pompe
▁Suis
bagaya
▁oming
▁Gy
muni
▁Sateliti
▁intérim
▁Cuba
▁médias
sriyôrô
▁Kenseth
sɛgɛ
▁Jugi
▁djangaro
ssèli
▁armée
▁djiman
▁expositions
▁dôrô
ènes
oite
▁djagnan
▁banbaga
▁Tur
▁biri
iel
▁suprême
▁alah
▁donateur
▁Donc
▁Card
▁Morioriw
HA
▁menacer
▁Fèridén
oritaires
▁socialisation
ginin
▁typh
▁Lastucci
▁fɔlɔ
▁charles
▁transféré
appr
▁itésé
▁éfô
▁véh
▁bato
orég
famille
▁dalila
▁interneti
▁keleen
8,
▁Karn
▁green
août
iculture
▁21
kɔnɔ
algue
▁uriner
▁poursuiv
dinosorow
▁(1000
▁kélé
▁kɛkafi
aéroport
jani
▁artifici
▁visiter
▁quant
▁fusée
▁champs
nongon
▁pinrin
▁têmêlén
▁yeimogo
▁transporté
▁musique
caust
cop
▁gnanfè
▁Xa
▁activé
▁asie
▁nimafen
▁Wikine
▁Bri
filenanw
▁dirigeant
temis
▁tchidén
▁Piquet
▁organis
▁fôgnôn
tiw
▁universite
▁kɔliso
▁oyi
▁œuvres
işinău
umeur
lision
▁possède
▁36
▁magaman
▁Kiri
▁réac
tiago
▁cogoya
▁sinon
▁identité
▁kɔnɔtɔn
▁dogoni
▁(164
▁loh
▁bén
▁compréhensible
▁Cook
▁1995).
▁Yahoo
▁biyé
▁tin
▁mo
▁komité
▁quar
▁sêkêlê
▁roue
▁balné
▁Bretagne
▁De
▁brisent
▁rôssama
▁Fôlôfôlô
▁mers
▁dignèf
▁sɛnɛkɛlaw
▁soupçonné
▁bêlà
▁perd
bili
ture
étais
▁NBA
▁semblent
▁tchèmanw
▁français
▁veillée
ot
ange
▁kêla
▁alo
tutaki
▁Massaba
▁tourisme
▁cartes
ksu
▁Guyhru
▁wouléniw
▁remise
teur
▁garafiti
▁groupou
▁jo
▁grottes
▁francophones
▁dures
▁entrepr
▁gnèguè
▁langues
▁étriers
sin
▁sang
▁jinkula
keira
▁selle
arasv
gyal
fôla
▁commence
▁transforme
▁29,
▁Balasubr
entends
ariw
▁banabaga
▁automatiquement
mikan
▁nankoh
▁via
▁Monter
▁étudient
▁pétrol
▁imeli
▁dédi
▁chance
▁disparition
▁accompagné
▁laderi
▁neiguei
▁Pato
▁préf
▁paiement
▁rène
▁Ola
lana
Rep
▁venir
▁Asie
▁nuclére
▁hou
▁Com
▁libér
▁lônkoya
▁émissions
▁tobi
abulaire
▁décident
remment
▁Musachi
▁kèyôrôla
kéklén
▁Iow
▁Stark
▁préj
lap
▁dèsè
▁Peter
▁1
seur
▁hôtel
▁tountè
▁sorô
▁bessira
▁dévoilé
icacité
vɛn
trel
▁Republic
▁banankisè
▁famu
astronome
urunan
arisation
▁fignènin
ivet
▁bala
▁premières
▁mangeons
▁dila
▁okèla
▁Adekoya
umin
▁kuturuw
▁interromp
▁font
▁Nouvel
▁Inuit
su
▁lève
lima
▁marifa
brer
▁préoccupé
yèlè
▁Floride
▁bretagne
▁makari
▁toronkè
▁pondent
berg
▁Nobel
▁2005,
▁gas
▁sɛbɛn
▁mark
istoires
lanan
ir
▁dɛsɛ
▁malad
uite
▁agrég
▁Purcell
acement
▁tourou
▁oxygen
▁garantir
tourouba
▁peupl
▁bronze
▁indiquent
▁él
▁armén
▁achats
Ni
▁intra
▁Elicô
▁Asumpink
▁iwéléla
▁Seville
▁absent
▁gnakun
▁doninw
▁spécialis
ération
▁sociaux
msen
▁Hurricane
sira
▁yèlèman
▁fârâ
▁Khamenei
empereur
ouverture
ouse
▁sra
▁arrêtée
▁yingon
▁Barada
▁professionnelle
▁ganan
▁gnandon
net
▁térébé
inness
▁gnouma
96,
▁tasuma
miyon
▁trouvait
▁boisson
▁taxées
reya
mapp
▁mansa
rane
▁sonnette
jenkoulou
▁Pam
arrêta
térieures
▁dayèrèni
mininôgô
▁comté
▁bhajan
▁retenir
▁dogohya
▁tafan
▁conquête
▁enterré
▁bulga
umlan
tissent
môgoya
▁dimansi
▁auraient
▁Maui
raison
▁Zi
ini
▁F
▁168
gnon
gène
▁lali
ciété
▁Repubiki
aug
gonli
▁dedans
▁airs
▁pression
▁lobés
▁peinture
pes
kekela
▁coûteux
▁kɛlɛ
▁numé
léw
faralola
onon
▁amou
▁secours
▁480
▁(14
▁employé
aîtront
oramas
▁kasôrô
yasira
▁musaka
▁bébin
▁cuisine
▁benan
▁tap
▁kititigɛ
▁nécessite
▁1:09:02
▁dogô
▁billan
▁mobiliw
tiez
▁samedi
▁Thaï
▁Boti
▁new
▁nan
▁True
▁largeur
▁fɔɲɔn
éré
atis
▁sédjou
▁Yoga
▁kako
▁kôrôta
▁traditionnels
▁soumanni
▁taka
dition
ensus
sèbèkè
▁mer
▁Britaniki
▁touroun
▁chauffée
▁souraw
▁dumun
▁excusé
▁Dj
uir
euts
▁traquent
▁tugura
▁sia
geni
▁dabora
▁déploie
▁aha
▁électeurs
bangou
uisent
charge
▁Hamilton
ampton
▁Neimaya
▁adj
▁anglew
useaux
inilo
nignin
Union
▁extr
lonia
▁korôw
▁lafisali
▁conserv
arme
inform
▁traduire
▁Sabari
▁Wagati
sation
▁cɔ
▁sofaya
ym
▁Sésame
▁sépulture
▁kouo
▁Yomi
▁autrement
dɛ
▁tuber
▁Ala
mérangui
å
▁Égyp
▁peinduru
▁êsco
▁pilotes
ks
▁namibi
landi
▁aud
ques
▁Sin
▁borgo
nario
▁chronique
▁yébali
▁triang
▁kokataga
▁kunba
kei
hne
▁fura
orv
▁rab
bules
▁cruci
▁tow
▁worowla
▁heman
emb
dama
▁troubl
▁coeur
▁liste
view
▁régalent
omali
▁maderi
▁conc
▁politikikɛla
▁minninni
oyez
atiseurs
▁centres
▁implant
hlè
▁Octobru
kata
▁tananin
monaire
▁Gri
ito
▁At
▁sanpi
▁défavor
▁cér
▁lassôrô
▁degu
▁croisière
▁labënya
▁dumu
▁sanfine
▁sèmè
▁fagali
▁turisi
périen
▁tireurs
▁wolola
ait
▁cɛna
gérie
istique
toh
▁miw
▁Badji
image
▁1800.
▁chin
dôla
▁Militèri
▁econ
oguidaw
▁champel
▁sangama
▁Tpper
▁terreur
▁1776
▁METI
▁soneri
▁Seu
▁Solanki
▁blessées
▁manquez
▁obé
other
▁bagaw
olis
tégor
▁développés
yapock
▁Tchi
▁Lyon
éréné
▁sortes
▁dougoubâ
▁anciennes
bôni
nɔ
ucanianhu
▁ensev
▁pɛn
▁provinci
▁spirituel
▁branan
▁Greece
Centre
▁nankè
▁jung
▁bînw
▁murales
ele
▁vitési
▁souris
▁janvier
▁Del
▁para
Parade
ates
mod
ynthèse
▁dirigé
mongoles
▁Koko
▁dommages
▁bagarada
▁débours
riceratop
tillerie
dira
▁cabanes
▁quantités
man
▁Seork
bé
▁Oliver
▁touka
onné
ayées
▁kah
mobili
▁UNESI
pée
▁Ïles
illumination
▁kagwèlèn
bel
▁Ti
urou
▁tumanan
korobaw
▁djateya
▁spectacle
▁ɛnpa
kɛn
▁sororli
ogé
▁gagné
▁djougou
▁appelez
japonaise
▁plasini
▁tubabukan
finsiraw
kèmè
arèrent
▁leçon
▁ɲinikali
▁humour
imb
atmosphère
▁dɛnmisɛn
▁oli
▁koulétô
angladais
▁retourn
▁kari
▁White
▁lonnigbè
▁Inkau
▁Nagasaki
▁karande
▁kunawolo
▁sèmèni
Judaism
▁sɔrɔ
▁dadɔ
somila
▁limo
nikelen
▁ouv
▁lave
▁ɲanama
illet
▁scén
▁Lou
uclé
quash
quimau
▁Mod
▁aient
▁Bombu
▁barika
oles
▁MySp
▁dougounan
dindinla
▁dinosaure
dô
▁tchignè
▁chemin
▁Officiéw
rupts
▁dilanni
55
▁filimou
gie
▁gasi
▁requise
▁Cuddeba
▁sigèn
▁déterminer
▁Star
▁spruce
▁yôrôyé
▁kà
▁Farikoro
aïdjan
▁transporter
▁Byzan
▁disputé
▁décid
▁iran
▁nanko
▁kato
segi
▁sucre
▁douille
▁lônkola
▁wayédiaw
▁nissô
▁Armand
uzz
▁sarra
▁sécher
pport
▁disc
▁Vir
▁tablette
▁mabouoh
rame
09)
▁sisani
▁lakissi
avaient
lière
▁djoguili
Politiqui
oseon
cessite
▁daraka
▁sognanni
▁kɛkafilɛ
ola
mafenmi
lamée
▁Nombre
▁nanyé
▁Issa
khamon
▁doute
▁fasodéng
▁kounawolo
▁sôn
▁gbi
▁dama
▁kouroukan
▁Cornig
▁nèguèdjourou
▁Jiméne
▁fabri
▁fiables
▁faraliya
▁femisse
▁tountei
▁ses
▁miliyôn
lé
▁12,8
fèsèn
▁djanman
▁range
▁préparé
▁Chandraya
▁catholiques
gazi
▁fanfei
▁titulaire
▁critères
▁industrie
▁fanions
ils
▁notamment
▁célèbre
rai
korota
vince
ville
▁scann
▁Vén
▁sébé
▁kêrê
▁question
▁Sigiyɔrɔ
▁bonjou
▁komin
explos
▁sombrer
zu
présent
▁88
▁perform
entown
rie
▁cycads
enregistre
éloi
▁fɔli
▁export
▁rédigé
▁maîtres
▁requin
alofi
▁golog
▁dôrôtôrôso
▁Taizi
▁liaisons
espè
▁nuga
▁yasa
▁nege
ifier
▁Tan
▁mataga
▁birow
▁cock
▁madrid
▁moteurs
▁Musa
▁Espagne
▁parlé
▁éjecté
omolog
tlandi
▁victimiw
▁toukônon
baliw
▁concurrents
▁Haki
turuw
wéléla
▁vég
▁tord
▁robe
▁how
▁adopté
▁limiter
▁nɛ
▁canceri
▁layuru
dern
iye
èguè
▁McM
▁abe
uisement
▁précieux
▁nègui
▁inquié
ume
▁olivie
▁fien
flèlifé
▁bènli
▁songe
4)
▁1861,
▁accouche
▁jɛngɛnin
▁tani
▁toloon
gnèw
▁brébéba
▁july
▁mul
sigidenya
▁Djagaro
▁tire
▁minou
▁yerela
ibson
▁doux
ringich
anjalanka
▁prédomin
ap
balia
▁Gosling
ellington
roy
▁Djikôrô
émocr
▁Ké
▁tonw
▁jogo
▁Kennedy
▁kôlôsi
endés
▁intempéries
kru
badamina
djosso
▁florence
intékélé
▁aimes
ladys
▁simplement
▁koloch
▁ball
miles
▁léger
échantillon
baw
ages
▁tèrrin
▁réserv
▁économie
llis
▁famuya
bl
▁rongeurs
▁suis
▁Sach
–
▁coupé
anz
▁coûte
▁renforçant
▁liv
▁conservateur
lynn
▁photo
▁ladibaga
▁sukolo
kani
uffis
▁revê
accomp
▁voteli
▁kemin
djankaw
▁Forum
▁1810
▁wila
▁faciles
▁tasuman
far
▁larmes
istent
▁théorie
▁privées
galo
ra
flai
▁Herzberg
▁nécess
iant
▁Tanzani
▁devenue
▁Shivaj
gnaganmini
▁souh
▁capturer
▁Bèn
▁dounnanw
▁niyé
▁considér
▁Saras
▁Guaycurú
▁tirant
▁djati
▁gnagamina
▁gounkounw
▁fondamental
▁mura
aens
▁”
▁borikèla
titue
TIR
porino
▁dominicaine
▁logokun
▁dizaines
▁Yôrôdô
▁Cudde
▁Turqui
▁sala
▁arrêter
▁foc
▁teyi
▁témoins
▁aimerais
now
▁comportements
▁Galápagos
▁différence
▁détermin
▁opposition
▁ratifier
éteindre
yɛlɛ
Q
▁pleure
.,
iands
kele
▁Tpp
hae
▁derrière
▁Cris
▁colonels
▁pérésiden
▁étape
Bay
▁touristes
▁Bhog
antan
▁denin
lobe
eng
▁supermar
▁axées
▁dougouba
▁bilayôrô
▁Branca
gne
▁start
▁oridina
▁milliards
▁tracter
▁locomotion
faga
▁scandale
▁toute
▁saman
▁tc
▁sossow
bôla
▁kônôni
▁finhya
▁dixième
▁valeur
▁henri
▁création
▁lôben
isney
andonnés
▁publicité
▁faragbè
▁centimètres
manian
▁6
▁réseaux
▁régulièrement
▁sisi
▁sounôgo
▁ceinture
▁Kôssôbè
▁miseni
▁desser
ink
▁apprentissage
lôgôlô
▁lamôdenw
▁hauteur
▁vendredi
▁quais
gatu
▁contexte
▁octog
univers
▁sentait
affaire
▁luxue
▁motobori
▁cabane
lérose
▁sabaga
▁denmuso
▁donnent
▁amoure
▁cer
gbangan
▁fannani
êts
gnini
▁ato
▁kôrôman
titut
agascar
▁Kuma
ouchtchev
ie
▁permettre
öfè
▁1920.
▁rois
▁antié
kêmê
▁bognan
ablanca
▁magné
▁latangan
▁ɲɔgɔnkan
▁makan
▁entendu
▁bari
ilée
derland
▁domon
lections
▁natif
uruniya
Mexique
sasa
▁saveurs
lesse
▁kôfé
▁Lett
▁togô
▁carbon
▁astronome
▁protestations
▁olouw
neuve
▁brasser
▁Klassi
▁palestin
▁savane
émis
dor
▁saro
▁sananfèn
▁Aali
▁kègnèkan
▁Jerry
uset
▁kôrôtani
▁fééré
quait
agnac
▁Nadal
atélistes
▁2020.
▁Iraqikaw
▁loisirs
▁wori
▁non
▁porogaramu
▁Alli
▁lègè
ş
▁Djenkulu
▁Nii
▁incroyablement
counon
ennedy
▁Australia
al
▁objectifs
jamana
▁guet
sansi
▁Ils
▁Cambo
▁aucun
▁sikhes
▁Tenin
▁aimés
▁feré
▁kènèmaya
tures
▁Entrer
ordentown
agonways
ade
rent
▁dèguèni
▁arabouw
▁Whitefa
tchè
▁sura
▁studios
boni
▁Gninini
▁départ
▁kadogoh
hon
arrondissement
▁chrétiens
▁météo
▁we
▁sumani
hakili
cau
▁débord
aniw
▁Azi
ucar
▁domestique
▁randon
ranin
▁rechar
▁Accomp
▁coulés
amérique
R
▁honte
▁Goldust
homson
▁mourut
▁règles
▁voiture
éland
avez
lu
▁mɛnna
intention
▁aggrav
▁nomin
▁By
▁troupe
▁How
▁bulgarie
mine
bone
col
gnananman
M
Édimbourg
▁iméli
atrième
ormes
▁Hir
▁has
we
orikônô
▁monter
pine
▁manga
▁gbekan
bruk
▁sixième
▁Xin
▁lib
▁nansara
▁maflè
▁mɔgɔ
▁koman
▁gneinbila
▁gnabola
▁akan
▁Recherchi
illac
ufs
bét
▁Pyramide
▁accus
▁lan
▁markof
▁officiel
▁appa
▁sans
▁batow
érations
▁Cru
▁hasard
ilton
▁Machu
gnoliw
tre
ssoumanba
▁familles
▁manifes
▁saraw
Môgô
▁joue
▁kalassi
▁Sariya
ime
giden
▁lisait
▁sénsaba
▁commerciaux
▁fôh
▁mogow
▁actuels
▁yelila
▁philosophe
▁1979,
oride
▁canabisi
▁dogoman
▁trône
ug
▁estime
tukan
▁fiyèn
▁basée
entendez
▁étab
mpou
▁musu
▁Kogo
▁stewart
OV
▁dogoya
▁Tasmania
▁gbeleman
▁Chin
▁lègèsè
▁Irlande
▁populations
▁fèèrèw
▁marines
▁lampe
▁monuments
▁ahé
▁Saanw
▁celle
maine
ux
▁kon
ugulan
levé
▁large
▁perp
mo
▁tutu
▁existe
▁Parki
▁disque
éché
▁fournit
▁semblant
▁Soufe
▁marches
▁sédiment
ololalé
▁ôgôla
▁oreilles
uransi
▁béséka
▁chogoya
lème
▁UNESCO
▁piétinait
400
▁les
▁dragons
renables
▁migré
▁défic
▁du
▁nerveux
▁coalition
▁crist
mma
▁Dreamer
▁Cong
shi
buti
auront
▁Hindi
▁pinces
▁tèyélà
▁Kalandéw
▁gnanw
▁mlanko
instr
▁1957,
▁bag
arr
▁Choudry
▁gliss
testinaux
▁grew
▁juguman
otation
▁officielles
▁borra
yongona
▁Union
▁joints
▁abéna
▁koko
zac
▁konôta
erengeti
▁béntô
▁végét
yap
oiselle
ociety
▁coû
▁confident
nya
▁755.688
thelred
▁partage
▁maître
▁kosɔbɛ
quand
▁résider
JR
▁montent
▁guichet
▁plant
▁gnassing
▁fanguama
impression
▁côssi
▁habitués
▁co
tikalo
▁serikôtô
▁béi
licule
▁cur
umthang
▁djita
▁constitution
ssigui
▁intèrènèti
▁Iowa
lager
hôtel
adley
Église
bra
▁signaux
▁bôçi
▁ponts
▁tamashin
▁Lamini
▁lecture
▁arthur
▁(29
▁tropi
▁cramp
yɛl
phanes
92
lement
▁portées
ouvrir
nê
▁allemande
▁kene
▁Flagst
▁reç
▁typhon
▁Trump
ouet
fiè
muna
▁gnènèman
imagerie
▁ZLECAf
▁kèyôrô
▁rejetée
onser
▁miiliyon
ouba
▁manman
bennes
igeria
▁tôgôla
cessus
▁coqu
for
grou
sionnèli
utation
▁makoya
▁épouse
tian
▁suggèrent
ple
▁tournent
gbènèla
▁jupou
▁Watemata
mbres
▁divinité
▁2017
▁courants
escalade
▁parfois
▁pure
▁chauff
manie
▁moussara
▁plait
neuf
▁dibi
aigle
enain
▁Egy
▁comprenaient
▁baarakèdénw
▁djikôrô
▁collège
▁déclarés
▁Algérie
▁Sc
▁tâ
enegg
▁contin
▁fait
fôli
▁repasser
Antiquité
▁yénô
▁gê
▁sariya
▁fêtes
▁ensuite
▁réiniti
▁koffei
▁entreprizi
▁Eliz
▁intérieure
adressent
gondi
issements
alley
▁Pf
▁gnanfei
▁énergie
▁épisode
▁Alibele
▁romin
▁donner
▁intention
▁rencontrer
ret
▁craign
▁donna
▁bangé
▁fera
▁rarement
▁miri
▁plusieurs
▁kolon
▁trophée
▁soutiennent
▁nɔn
▁commencent
▁camp
lons
▁Vivre
agination
▁drague
▁complètement
▁détachent
appl
djein
▁pat
MIP
▁kérék
▁Equatèri
▁harcè
▁aperçu
▁kèni
▁Sanfe
▁événement
ongotchiê
nanw
▁She
.174
▁temporairement
▁hakètan
ètes
▁tilanè
▁turisiw
▁mouw
▁dantige
▁walma
ique
▁duru
anges
▁entiers
▁farini
▁présentes
atténuer
▁sèrèsèrè
▁premi
▁évident
animan
▁poir
▁cette
e
isant
▁savent
ast
dɛl
▁gl
▁kibaroh
▁judaïsme
oss
▁bonheur
▁Dofani
▁chez
▁komu
telliti
yèlèman
▁repérage
▁att
gan
▁remar
nɛ
▁limite
▁Ade
mmy
▁météorologique
▁Kalansoba
▁insul
▁rigides
▁yirika
ralopi
bew
eremia
manya
entueux
organis
▁dolé
▁gangr
▁maria
▁durée
▁akonnon
▁motèri
▁fonction
▁prêtez
▁kanou
lure
ick
yɛ
▁fani
▁tanga
▁biyétayôrô
ogoya
▁Mouso
▁gnambla
jata
hra
fle
▁lafia
alpinisme
▁extrater
▁administr
piré
onatèmè
▁eugène
▁Ru
▁Javanesi
▁encouragé
▁têmè
▁seberi
▁djona
▁Bibulu
nkèrè
▁dɔw
▁lebe
▁suivit
▁aimée
▁riche
”).
sule
▁conduite
▁drone
▁sentez
▁tchôlôlô
▁jani
ritaniki
▁mig
▁bourge
Université
▁supèri
▁Ehr
▁vill
▁trompe
▁spéci
▁parlementaire
▁Satoru
▁sisitèmou
minanri
▁verte
▁nerv
▁engager
▁130
finale
▁bariyala
▁forces
▁Prote
▁bons
▁rongeur
▁rog
▁bioryth
rist
jala
▁tâche
▁diabé
▁kôkôdji
▁Kohou
▁mynu
▁verbe
besse
▁thai
▁Wade
yte
fè
▁masi
bttropic
arriv
▁provis
ustin
▁it
▁aimé
▁ba
▁refuser
lom
▁oh
ouis
▁muganin
▁sèguèsèguè
▁minimum
▁aliments
▁waatiw
▁Coop
▁prém
ydney
▁Ethelred
lun
▁lettre
▁1976,
▁attirés
pectant
matiki
▁ku
▁Sim
taniumou
tr
▁masama
▁djala
aiti
rini
lever
yer
nkèrenn
▁vivent
▁ɲafɔra
aperç
marines
risb
▁publici
▁Ramp
cié
▁alliages
▁sona
▁exploser
tir
eers
delogo
mun
abus
▁gnôgôndan
▁nogô
front
▁solution
▁Reed
▁ambiti
▁nusɔn
▁Iraqi
▁hiérarchie
nibe
▁crimes
▁befè
uits
▁Tombouctou
▁dunanw
4684,
▁Hang
homme
ita
ôgôma
▁comprennent
▁(140
ampons
▁imbécile
▁faim
▁toron
▁acheter
lige
▁concert
▁horon
▁clôture
▁Kouna
▁Assyrian
▁jijani
▁Hydrogen
▁wagons
▁dirai
▁deniw
onders
▁Ir
▁gwè
▁sigiyoro
▁siifè
▁nave
▁nɛrɛmuguman
▁kanga
▁rest
of
▁colonie
ayaguá
fagala
▁conon
jo
▁renv
aucun
▁irrit
▁brèche
reur
▁Barce
▁Sanji
illez
nw
▁mange
▁ratif
▁franch
OL
vrin
chaient
hɔn
▁15
▁foun
▁chape
Thérèse
▁filakè
polozi
”.
lasegui
▁saranan
aimer
▁ski
▁deguera
▁jukɔrɔ
oldust
rain
idence
▁dugudenw
tɔ
Europe
aminée
▁plum
fola
▁Romain
▁Tɛkinoloji
Indus
▁touw
▁i
▁enlever
ustrie
flèli
▁béfôla
▁fôlanw
ü
▁mademoiselle
▁djèguè
gnongôn
▁Unión
▁imm
ymphony
▁bèkè
▁Capsuli
ovanni
▁murmura
▁bobo
▁Ensuite
▁lèn
▁reti
cino
Il
idley
arg
▁utikalo
▁sympt
▁tèmèra
▁Empire
ble
▁gbaniman
usta
lve
icile
▁lo
▁chianman
▁Cuerden
▁connaiss
▁boulev
urvé
kati
ission
étranger
▁dounigna
itutaki
▁Lamodén
rirez
▁konnonan
▁Mitoro
▁nég
lidénw
▁votéli
▁Deuxième
▁pédestre
▁bèmantchè
illité
pôpou
▁évents
Islande
dhya
▁Comité
▁Siradili
▁travaux
▁lagnini
▁bori
▁ɲana
▁digérer
▁motivation
sèw
▁bâti
▁yôrônikelen
▁cérébraux
▁ɔr
ébriété
▁Tumamina
▁Hospi
▁Vanc
▁layidu
off
▁interp
▁meurtre
élè
▁majus
▁jolile
▁chute
▁yiriwala
édération
▁ofè
▁poitrine
▁accessible
▁imprè
▁oho
sasaurs
imp
▁Bor
▁bana
▁fa
▁simon
▁satisfait
▁gouver
▁Pattavee
▁djonanw
▁raisonnablement
wazaki
▁invoqué
▁dégagent
▁dôw
rana
▁existent
▁possibles
▁concernant
▁soulevés
énw
alenti
▁pierres
▁sipèrin
▁siriwa
▁sanganogon
▁tagama
ervis
▁lakôliso
▁aper
▁dèmènanw
▁Huhne
▁aurais
▁ɔhɔn
lkar
SY
▁résonance
▁yéni
▁barila
▁séparée
▁arrêtez
▁binburu
▁ché
▁barigo
▁hala
▁194
▁offrira
oe
▁mouve
▁Atlanta
▁couple
▁élever
▁daminè
▁Guar
▁veulent
bara
▁pron
Ü
▁Morts
▁annonc
▁importante
mende
N
incendie
▁dɔnkilila
uses
▁massabo
▁Oahu
▁okakan
hée
inagbèlè
▁programme
▁espagnols
intérieur
▁tunbé
and
lew
▁facile
accord
▁fama
organisation
▁lisa
▁kolondow
▁sanji
▁dronn
▁marché
▁Jeffer
wana
▁timbro
▁défi
▁flor
▁passant
▁Airways
▁pôsi
▁Temp
▁kalifa
▁bra
▁rezo
▁sch
▁Ika
archie
▁1772,
oubl
▁nka
▁samarabatiguiw
▁kori
▁Dougoukolo
ublique
▁dabo
▁môbiliw
ézari
▁gnafêlaw
▁pren
▁voulons
▁ɛk
len
▁dépendre
▁haïtien
▁végétales
▁filip
▁caktu
turubaw
▁ladilan
▁Dravid
architecture
▁Sans
▁Saint
▁distingué
ister
gwela
▁minuscule
▁Gyöngyi
▁864
▁tougouli
▁mend
▁Dam
▁Alle
▁degili
honna
▁bilara
▁finale
ophones
eler
▁nonfèko
▁locu
iap
▁Finances
▁figurent
▁djabili
▁tata
▁servi
▁tele
▁baie
1:
sogo
▁ɲamanɔgɔ
illonnent
mandi
comp
▁inév
ssara
▁gberew
▁applic
onde
▁circonstances
dallus
▁bɛgɛn
▁surunya
▁fj
citeurs
aniko
▁300
▁déterminée
▁dɔgɔyara
▁kabouoh
qués
iyalaw
▁jɛ
▁furent
innovation
▁Durant
▁générer
▁piégée
▁révé
▁dont
▁connaissance
▁Dônkili
▁ressemblait
▁intron
▁now
▁inaug
entrai
▁gnakunaya
za
▁toxines
gbekan
▁yôrôla
tagabolo
▁tuberculose
seau
iri
▁englobe
▁sloveni
▁islam
acité
▁Î
ɲanaman
iable
▁Phen
▁kasa
proies
▁kounafli
▁wiliwili
mɛtri
tèguèw
ree
▁bèyé
▁kô
▁accept
teliti
▁cinq
▁Hakili
▁django
▁gbissi
▁7,000
▁reviennent
Oreg
▁bê
▁formés
▁Mary
tɔr
ulu
▁ladoga
▁ale
▁mineures
ASP
▁anni
▁légumes
▁lumière
▁bonbons
kɛto
▁Londres
▁Quatre
▁insultés
▁promener
▁OHA
▁siginan
blos
eloppe
U
▁citoyen
▁dûment
▁honorer
kénléla
▁princip
Afrique
ganin
pressions
lôn
▁uwté
ɛti
▁kôrôsi
▁kassola
▁7
ignement
▁exportations
▁Bou
▁occident
▁sel
unumunu
▁bla
▁Whir
ctique
town
metere
▁ton
▁minkè
exercice
éces
▁mensuel
▁alabato
▁koyéwa
tal
▁change
furu
LECAf
▁hôte
tassion
▁classe
'«
oix
▁Ayatollah
▁Lantagne
▁nanou
▁gouvènè
▁iye
▁Scott
▁sén
▁verg
sident
alous
▁réchauffement
▁kila
▁codifié
▁denmisɛnw
▁cultur
▁Ca
▁licen
▁Sundarban
ilibré
▁shoki
▁aba
▁Patrol
▁saheli
▁célébrés
saint
triers
▁Kafara
▁déguster
▁reliés
▁divisa
▁gnalôni
▁conten
▁Bli
▁ouvrez
▁match
▁adressée
▁forobaya
▁enn
tuma
▁tah
▁woularô
ximité
ɲuman
▁djègongon
▁occupés
▁gwèlèn
▁niveau
▁Spe
▁sina
▁flè
▁°
▁Drukgyal
▁ɲinina
▁tchogohya
$11,000
ouverte
▁tu
▁averti
▁complexe
itéré
▁grimper
▁Trenton
▁débouché
woyoba
▁Pi
▁koula
▁Vel
▁coûteuse
▁djukôrô
▁laben
administration
▁isolé
▁California
▁REM
▁sound
▁2002,
▁presen
▁Tondew
▁tarifs
▁Hangeul
▁ham
▁klantchè
▁Nassar
▁mère
ɛlɛ
gnanagbè
▁troupes
karan
▁semaines
▁proclamé
ythago
▁étroite
▁Panthera
▁oiseaux
▁révis
▁1979
▁soign
▁(56-64
▁centimè
▁borro
▁panier
▁dougouma
ses
▁abènanto
▁dôgôtôrô
▁dugnara
▁suite
▁Gu
▁senfè
▁malade
olu
69-1539).
▁Educ
▁farra
▁souffrait
▁noisettes
▁fignè
▁gansi
▁peut
▁danogobo
labin
▁Vancouver
▁thchama
▁palé
nistr
▁Russiw
▁Gar
▁Tonlé
▁copine
▁sa
achèterai
▁soci
▁laɲini
Equipou
ttropic
wealth
▁ze
usse
burukalo
▁nèzi
▁filana
▁emprein
rés
▁aider
▁roger
▁Déjà
▁raison
▁résister
▁disparaît
▁35°
▁comètes
▁Maswa
▁Sphinx
▁mikônon
▁badjiw
▁Buddhism
ennité
▁multiples
amara
▁mansinnasebenin
▁Jan
▁Ap
▁cuisines
▁Amsterdam
▁siya
ushing
▁(02:
alement
angé
▁bisiguiya
▁Indus
▁lajara
▁Bignin
▁Spr
▁collègues
▁meurt
▁préc
▁kélékèmè
▁amiens
ay
▁endroits
▁héberge
▁nids
▁esti
▁yèrèmali
▁zenerali
yasriyôrô
▁Dounia
quare
▁Kiyoto
▁timila
▁techniques
▁katimi
▁yôrôtôgô
▁Hurri
uré
baliya
▁fiw
▁ASUS
messen
érus
▁latagama
dino
lendenw
▁Dans
▁Bro
phocles
aires
▁pousser
ssen
▁épr
▁lô
▁CafeNet
▁prévoit
▁Angla
▁courir
▁saariya
▁côcô
▁fièri
sini
▁1818
c
▁dougouman
tiles
▁obè
ps
▁univers
▁pollu
oriser
cier
▁téliya
tini
AfCFTA
▁kènè
émission
▁atè
▁Lakkha
▁ahh
ataires
▁Rahu
▁diyanan
éenne
▁Mangan
▁Turquie
▁agir
▁Go
ral
▁sahan
aillard
▁miribali
iend
▁gwanni
événement
▁gniningali
▁chauds
kenogon
▁Nint
▁uka
▁kolasegi
▁Auc
ssôrô
▁enseign
swa
▁propri
▁tournure
▁clu
▁Beij
▁adapter
▁téléphone
▁sougan
feinw
▁tômaséré
▁diananko
▁ɲini
▁Emp
▁tolà
▁Ac
guama
▁calcium
▁Galapagos
▁bagatow
▁Arisitot
▁bâties
▁yèlèmayèlèma
8.
!
ground
▁gɛ
tball
▁avenue
▁keneya
40
ardin
ner
ice
▁duguloni
lefoni
▁aurillac
stoppeurs
bramanian
tibles
ceri
gnôl
ssa
▁conserve
▁distincte
▁Carolyn
▁artiste
▁répond
vesne
éngali
▁reje
▁jamais
kɛbaga
▁dimin
▁majigi
▁Congo
▁adamadé
▁retrouver
▁iyafô
installe
▁attractions
oura
mètrii
▁ayèrè
gboks
▁prɛtri
igées
▁duwagein
▁Isra
▁sôrôkadi
▁(2006
▁goutte
▁sèbèw
▁kɔrɔcɛ
▁Dalhousie
▁népal
▁que
▁ɲanabɔninya
▁dévers
▁spéciation
▁dougouw
▁tèmènikô
▁fosse
onze
▁1973
▁kosônn
itis
▁miria
▁inan
▁États
▁marque
▁recherches
▁Mossack
▁péri
ino
hôte
▁protéini
ouman
▁produits
▁construit
Kriegs
▁zuwe
▁Tibetkaw
▁famouli
▁balaoba
▁affaibl
▁Offi
▁bèman
orydall
▁Balkan
▁semblable
▁aisé
▁fèèçi
▁fambara
▁kunko
endante
▁nron
▁dougaléw
▁O
▁palais
igueur
cquou
▁devenir
▁surtaxe
irus
âge
▁ennemies
▁cɛmancɛ
▁yoro
énat
▁ennemis
▁djamakoulou
bas
▁maxi
antalon
rɛd
▁baseball
▁tient
▁congrè
▁comprenait
▁panna
uranium
▁PBS
▁placés
▁vacc
▁kisèw
▁laolu
▁reakitɔr
▁nikô
▁Fa
▁25
▁vitaux
▁maha
▁Sêbêli
aga
▁sobre
▁panoplie
▁djidi
oinette
▁balontan
gɔ
▁cyc
▁canada
▁gbiriya
ffi
▁jate
ning
▁dire
▁trous
▁vidé
▁limogé
▁graff
▁yanama
▁besse
▁malgré
▁nouv
▁babochet
▁sabananw
▁fournissent
nous
▁mire
gɛra
▁tilénila
yanfan
▁Béen
ongon
géla
luent
▁silenc
▁banc
▁Aust
▁superpr
▁inaperç
▁sôh
isolement
▁flac
eritagi
▁fôla
▁Floyd
ricainw
ikepunye
▁fieri
▁zira
▁Louison
inein
arie
▁tobiri
▁péninsule
▁plumage
▁mini
yp
▁connaissent
▁Sisan
amas
▁Morako
▁mesure
tine
hab
▁show
▁nuit
▁dau
▁ɲinan
▁mangan
▁banga
▁Lit
bilisen
▁comportait
jor
muru
▁wula
jate
alasu
▁saturni
péréla
▁réinté
▁procédé
inté
▁respir
▁chevre
▁baakè
▁nelo
▁diffusion
tchogola
gnogo
▁mlan
existe
▁légionn
▁faando
boro
▁types
▁dohu
▁dôlé
▁arrivées
▁place
▁bèrèbèrè
▁Taga
▁loni
▁curry
▁denbayaw
▁Muso
kurasegesege
▁anonyme
▁Touan
▁bigan
rali
▁Philipp
▁djonf
invent
▁madjigi
▁loge
▁Apollo
péréli
▁Ste
iggour
▁Nôn
▁reine
lises
▁Imag
tier
hémisphère
▁Sneider
▁Yuan
▁siè
▁chocolat
▁tilan
ID
1895
▁frais
gongo
quip
▁dugu
▁Balasubramanian
Ellis
orisme
▁guingamp
▁Indienw
▁mèn
▁minissiri
▁Romu
▁dagua
▁élans
▁kabô
licitée
▁privilèges
pera
▁Jeongeum
▁hostiles
▁majorité
▁dictée
▁sul
▁djabrani
▁chaud
▁débutant
▁mɔr
raël
▁seventh
tueux
▁mufɛn
▁Super
sitèmou
▁partir
2
▁djara
▁Binairi
▁armés
▁alasse
▁Dre
trigue
▁prononc
▁digue
▁rail
av
ambre
▁pass
esprit
▁tinminmi
▁founou
ght
améli
▁bilala
USAF
▁dini
ô
▁revenu
▁sege
▁sitting
▁toumbéfè
▁coin
▁kofféi
bari
primées
▁Duniya
▁gno
tta
▁dèmè
Ürümqi
▁grâce
▁Devonport
▁fakɛ
deman
▁website
▁marco
▁seriko
ado
ski
▁barigon
▁wal
▁sortir
▁certaine
▁signif
▁heure
Dom
▁Lolo
▁sécuriser
▁cass
▁century
onou
▁dugutaga
▁vivante
▁machi
▁Manchester
▁complets
oupe
pèli
▁sébagaya
▁sigasi
risban
▁châtain
▁débou
médi
urb
▁His
▁contr
▁ayêrêta
▁poèmes
▁aviyon
▁pur
▁places
▁saniman
50)
scö
▁net
▁Mbit
atèr
▁Jikru
▁vivre
▁maabiliw
▁fasti
Ouest
én
▁Zuni
thogoya
grés
▁conek
▁colonisation
▁lɔndr
▁3,9
pitèni
▁somb
tchoogo
▁PEC
▁kègnin
▁aménagé
trii
▁lasoro
▁gabriel
▁kourayé
▁jamana
▁kinibolo
▁pa
▁sufè
▁rug
▁jensen
▁tourné
▁contiennent
▁sept
▁survivant
Ég
▁sɛbɛ
▁désire
lorou
▁04
▁yéléman
▁Breta
▁galer
bè
cs
▁abésé
▁kisi
▁Mobili
▁trente
▁destinés
appe
lisser
▁médor
▁mèri
béri
▁exist
▁prodi
▁kôgôjiba
les
abet
▁lamusa
trranean
▁e
▁instance
▁jawuli
antill
▁Juifou
▁fallait
▁vallée
▁françois
▁foie
tarichusi
tougou
▁éyé
▁dernière
▁sôngôn
▁mɔnt
▁simp
▁reconnu
ensionne
▁représentés
▁koulo
▁dje
▁connon
▁promulguée
▁Gnôgô
tendan
▁aw
leterre
▁quarante
▁Natu
▁pénur
▁inscrits
illir
effectue
▁vaccin
3.764,
▁yiya
fôlini
gara
omatiques
▁Fleuve
▁kogni
▁travers
▁battu
▁particuliers
orobatôn
antir
▁primèri
enge
▁istanbul
▁Kumaden
▁djanfa
▁sutura
▁Vision
▁capit
▁constaté
▁pirini
▁néan
▁environn
apprenant
▁Soyouz
expériment
ulation
▁tariku
odie
▁minkɛ
▁coop
orig
▁Pau
dy
inin
.68
▁ɲ
rash
tabulon
koun
▁Mendoza
▁ACM
▁alcool
60
▁critiques
▁Sé
hrum
▁Protein
▁lassé
▁douani
▁abènan
ourd
▁abordés
▁tuerie
▁rous
yên
yila
imoine
▁vanc
▁latin
▁56
▁endémique
teindre
▁faragwè
▁agnoumala
▁mot
▁Plata
bolo
▁Seyan
▁bohoun
▁kolo
▁mandi
▁plis
insule
ulte
ingh
▁farimanfen
amanian
▁sɔkɔra
▁diplomu
▁obéir
ab
▁Tigi
▁aimâ
▁bolow
therel
▁alliés
▁lavé
ettes
▁for
versa
▁engend
▁tonkuya
tout
▁Bumthang
▁connaissons
apport
▁contrainte
▁lafan
▁scores
▁Vénus
▁[...
▁belebele
▁début
▁cinéma
▁sôbèra
▁Ish
▁gnadôman
▁dehou
▁brûlures
èsi
▁référant
▁porte
elipe
▁irez
▁mètri
sèèrè
▁Adamande
▁Han
elow
MA
▁kônnon
▁39
▁inhabit
▁dumunifen
ti
▁sègèsègè
▁dénbaya
▁environs
▁lointain
▁courtois
kountigui
▁accru
▁grenouilles
▁internationales
rosoft
trô
misèniw
▁nansé
facts
kèyôrôw
▁bɔɔ
▁centaines
ôwmba
ditions
▁symptômes
gu
▁Kuruba
idées
▁yèrèwolo
ADT
ronter
▁gbansan
▁dormez
Orland
▁criait
▁lokagni
années
▁ari
▁congré
▁romainw
vire
▁boh
▁kɔrɔsi
▁arikelo
atre
▁1649,
▁diva
▁kôrôw
▁appris
▁Cité
▁kôsségui
CTP
▁répétition
▁1998)
TI
▁kognanw
▁ibé
ct
▁vidalat
▁kèrèfè
vélo
▁safaris
▁tchama
▁Intrigue
ythagore
ohenjo
homéos
▁Fli
▁sentiment
▁cubes
▁longe
▁vél
▁korota
▁directions
▁wur
▁Uthappa
▁invis
▁ciném
▁âg
▁paysages
tisme
▁layi
▁sorassiw
▁kolokisè
▁notation
▁firila
▁oubli
▁barth
1
▁gbanna
▁Liv
bandwidth
▁alɛksi
▁cant
▁kunbɛn
▁saluer
▁Bob
sinniw
▁ac
▁possible
▁surtout
▁jaabiw
pects
▁mason
cu
▁beitah
ik
▁Baltique
▁bèrô
▁djondj
élec
ouganni
irs
▁voisins
▁Thomas
▁Bèè
▁à
▁Cette
▁forts
▁sétiguè
▁Terres
▁cô
▁minu
▁sinua
▁titre
▁donkilila
▁géologiques
igslist
iya
séri
55.688
▁inerne
▁meilleure
aliser
▁dogonin
NS
êla
attaques
▁Pourtant
▁silabaw
▁Séko
▁faussée
▁botaniques
gnin
anedo
▁févrié
▁menace
▁sebeli
▁lum
▁Da
NP
résori
▁fêter
▁sommet
▁guèrè
▁Prix
▁yɛrɛminɛ
▁Emira
▁notes
ingboks
▁compli
yana
▁watimina
▁taxi
▁spect
▁pyramidi
▁Ana
▁chevaux
tieuse
ougna
tré
▁bavari
▁tiguèla
▁Sik
▁mauv
▁tôgnôgô
Reading
go
▁Danfeinw
▁contemp
▁deuil
évaporent
▁ségui
▁kini
▁nuki
▁habitu
▁kadjin
▁Chandray
▁cime
▁prol
▁théor
anche
▁1444
▁Tommy
▁systèmes
▁voyag
▁faisant
▁générique
Tribune
èles
▁jouez
▁achète
acée
▁nintôrôwali
▁lassigui
cɛn
▁lôgôkun
▁keme
▁dagani
▁(150
▁dolari
▁panp
▁gi
échapp
P
▁chaumont
▁spatiale
▁jati
▁magnétique
▁furufara
▁Tropi
▁parler
:09.02
▁suivantes
onnement
▁donné
▁bonbaw
ougouyaba
▁respons
▁5.0
ençons
▁quittent
▁plassi
écot
tohou
▁bôyôrô
▁kôgbèw
ivre
tukawa
▁Sámi
▁david
▁faatou
▁MetroR
▁dignité
ɔrɔfli
alme
yong
allongent
▁rénale
fér
istes
▁près
remiah
zirayèli
▁finiw
▁Medical
▁sena
▁bɛgɛ
érée
▁décennies
▁direction
▁identifié
▁Artic
▁Canal
yalayala
gy
▁békè
▁dɔwɛrɛ
▁masoro
▁jenka
ggurats
▁Liyon
▁yawou
▁risque
▁Ce
▁toum
▁Borse
▁sikhisme
▁sois
▁Stanford
▁Tsunami
issement
tɛr
▁Koré
ɛnɛ
▁Rou
▁collection
ou
▁indien
éhicul
zara
▁woro
▁vidéow
▁chang
▁Toubabou
▁poit
▁Europ
kan
kônon
▁touchés
▁karti
omerang
▁balawu
▁meri
▁tentait
▁fei
▁dollar
▁montré
om
▁Inter
▁sojan
Xe
▁entourée
▁soufri
SW
▁Zachary
ristoff
stro
▁laminiw
aille
▁venait
rainouw
djé
▁teben
reil
▁massaya
▁Kandahar
▁baro
▁geek
pide
tchogo
joindre
▁amant
▁caman
▁yafa
yoto
▁dja
▁yɔn
▁mensong
▁ladon
▁roumaine
cè
deb
&
▁chouhou
aband
▁kamele
▁structures
▁sigɛsi
ortée
▁1965
▁1990,
▁atten
kodjougouya
ergie
▁journal
ake
▁intellig
▁évidence
▁153
▁pèrè
▁Logotchè
abri
ali
▁(9000)
▁yolo
24,
▁tanaman
biki
▁nabé
▁joueur
senkoun
▁kooba
▁Atlantiki
▁préparés
▁relever
sisi
▁fleuve
▁sen
▁tumajuma
▁kêkognan
ologiques
▁lente
▁worifoura
▁progra
diw
▁inst
▁lancé
▁augment
▁mumè
honne
▁fagu
▁foro
iait
▁écl
▁symp
tchêla
illier
▁Luna
orsellino
▁bikonnon
▁kèlè
▁yèrètôgôla
arizienw
▁Fichte
▁Kèwale
▁vingt
maseli
▁jaga
utôt
ooters
▁hakilina
ection
▁Formo
▁Madina
▁gour
è
éque
▁conditions
▁venu
▁salanw
tangali
▁gato
bagan
▁meutes
dara
▁multip
mmada
▁missinn
konomi
▁entoure
▁Zimb
▁kibarohya
▁XDR
▁utôrô
avion
copiste
▁zozɛf
▁tchila
ogow
▁Munumunu
q
▁micr
kou
▁Dioula
iP
▁iyèrè
▁Marta
▁uwmachè
▁economic
6
achète
▁1920,
▁indications
écroulait
▁dévaler
▁ils
treprizi
èdent
tonw
tche
▁anu
▁favoriser
verisi
èg
att
▁Krutchev
Na
▁prospéré
▁yaloyalo
▁standards
▁propriété
▁$
dja
▁gon
▁Sana
▁myri
▁Jarque
▁Bhutha
kɛri
▁cas
▁matôgôli
▁allez
▁dioxide
▁miyè
▁changés
▁chiaman
°
▁bakelen
▁lois
▁bénévolat
▁kɛrɛ
ariat
▁ɲɔgɔnw
▁kônôdon
unia
▁Lôn
finnin
▁imp
▁suspect
▁gboro
▁djein
▁bâches
▁Bardia
▁card
hique
▁Baby
▁Capitals
▁Tasmani
mɔkalo
tik
▁comprend
▁cimetière
▁pourquoi
bɔninya
▁respiration
▁Highway
▁Minan
lɛ
▁Jagoya
?
▁Ne
▁prédécesseurs
jab
▁Wong
▁kôrôlen
tienté
▁oyèrèla
▁(100)
▁kôron
▁kunkelen
▁vendues
▁maa
raigs
mili
▁pont
▁djognan
H
▁lugubre
▁générale
llyon
▁ramener
▁noblesse
▁indigènes
▁645
▁Dakun
▁Wikinew
▁spécialité
▁africain
▁intui
▁83
▁proxy
▁déénh
▁yélén
▁(500
▁Yas
▁Doro
▁tèmini
baaratô
▁noix
▁plumes
pik
▁siraba
▁Zéland
▁meilleurs
▁kouraw
▁gbèya
vèné
aise
atr
▁publiques
▁Aldwych
▁nèmayafènw
sôli
Italie
▁filèféw
▁gesekolo
gueyoro
▁sinɔgɔra
▁fagani
ociraptor
umb
ydall
▁masɔrɔ
▁latonli
▁dâ
▁clarifier
meute
▁soo
▁humides
▁extrêmes
misali
▁Italiyèn
▁Atlantique
▁Woloman
elinek
▁mouwan
monôti
▁tra
▁spori
▁nominés
▁enreg
▁inafo
exicain
02
hɔ
▁sêkê
▁ekɔl
située
IF
▁fiscales
▁wolônfila
▁lever
▁verre
▁desc
▁fôlôla
▁wɔrɔ
▁benni
gnongonw
▁messager
▁banbali
▁campisiw
mbèn
▁frères
▁gnanraman
▁ignore
▁bouteilles
amendement
ouvert
▁succès
entendais
▁Sanfi
▁Pamer
▁toubé
▁fumée
▁puisqu
évé
▁Pendjab
istor
canisme
▁Islands
▁lab
▁handicap
lympi
▁djolibôssira
▁dougnan
▁kuraw
▁mafèlèli
▁coro
rich
stin
kar
▁gymnas
▁seuls
▁refusé
gina
▁Crown
▁signat
kourouw
aillés
▁slov
le
▁cité
▁musée
ssô
▁Berlin
▁croisait
éventu
▁djènsèn
▁lonbè
▁koni
▁Samara
▁nor
▁toutes
▁ktcogolé
zairi
▁placées
▁crampon
arz
▁faite
france
divou
▁éssé
rafal
aurid
yiriga
sogow
▁Hakiliya
annoy
▁tagamara
▁yôngô
▁spectacles
▁voyagez
xico
ougnan
▁bili
èrèw
▁internationale
▁lassèguè
▁Microsoft
▁Kunsèmè
ad
▁kelé
vari
ortuga
▁Yosem
bjankongow
▁érudits
▁Bush
▁lakikaya
▁décision
ɛsi
guè
▁trésor
▁2011,
▁Potro
▁kogniw
▁aimaient
Les
▁rappeler
▁Etherel
gative
▁dè
iPh
▁kalande
▁porteurs
▁tonsigi
▁vastes
▁compréhension
▁tcha
▁fument
▁cap
▁achevés
tée
▁gben
▁fɛ
▁rêver
gas
phalite
▁four
č
obés
phic
▁lamè
▁se
▁nougoula
agées
▁djaw
écrire
▁remonte
tounbè
▁sôgo
▁asse
▁soumis
peuvent
▁biblioth
▁nafaman
▁tagatoh
Angle
ouroun
ame
▁nene
▁folofolo
▁kibaroya
tirstihou
▁yongonna
▁aspects
▁nènèkili
kèya
▁recèlent
▁diɲɛ
▁totow
▁Montchè
▁minugu
▁capital
▁Jugé
arb
ming
▁plu
▁gnanag
▁limité
occu
▁manus
▁déf
▁Kɔnɔninw
forme
▁bagage
▁tilébôla
▁Koun
▁cacao
▁faites
▁siradili
guini
mɛr
acide
▁savoirs
kônonya
écile
▁kissita
▁kôssôbè
pandan
tchaiman
▁tinmini
▁gnanamya
jol
▁We
soumanan
ouvertes
aj
nie
▁possession
▁dji
▁méd
▁france
-1
tigɛ
▁tente
▁aut
émistes
▁galé
▁kotéba
▁instructions
▁dollari
Clou
VD
▁garder
▁dusudiya
lui
▁makura
ifères
çue
▁woloni
endroit
▁minèw
▁boute
▁allemands
▁tab
▁digan
▁altère
koro
▁sanhan
he
▁Baraw
▁ampoulou
▁Payaguá
▁dakè
▁(5
▁Deng
▁Tainos
▁Arctiki
▁ninan
▁soupapes
▁fɛrɛ
▁poro
▁tolonkè
▁fausse
▁pôrôya
moun
▁MRI
sô
▁kènèman
ersey
▁isolés
▁visite
▁feerefɛn
▁Af
▁Urunqui
thnic
▁duvet
homéost
▁1895
▁manganli
▁préscol
▁intr
èma
▁djègnon
▁doi
▁détail
▁Mitt
▁numér
cal
▁kɛcogo
▁piramidi
▁viv
▁sobolila
d
▁Howard
▁Khan
▁neu
▁pis
▁produite
cori
koli
ater
▁samara
▁chaise
▁corona
tagi
▁Voie
▁he
▁démarr
▁wou
droe
▁ouw
▁confiance
igne
iconque
▁finit
▁scol
doza
▁aff
▁nonnonra
▁GPSi
▁bloquer
▁jurons
▁ɲɛnɛman
▁Kôdji
▁électr
môgo
▁blessés
▁cuisinés
▁Sydiney
▁sabanayé
▁Gouv
▁Djanto
wo
▁déroulée
stu
chrétien
▁le
▁kɔrɔta
▁lamin
▁Miniti
▁Atl
▁carré
▁Kurusé
▁tribunal
Bstou
▁devrez
▁ecno
hai
▁Bachman
▁ab
▁Ham
▁accompli
▁ɲɔ
acc
▁féli
▁là
▁ubakè
hamun
▁koundama
▁biduuru
▁gelé
▁rejoindre
▁kêrêkêla
the
▁alè
▁ayéssé
▁kumaden
▁proc
▁échoué
kôli
change
▁extrêmement
▁châ
▁bow
▁Quelques
▁Rugby
▁sanima
▁billets
ass
▁séparément
▁déb
▁faransi
▁jalan
▁danféng
▁attribuées
▁autoris
anama
djinkan
mén
▁bisségui
laboli
▁Care
Open
inéaire
▁djamanara
▁capac
▁Siem
▁ign
▁Schlege
▁Grèsikaw
▁Europe
▁sabanan
▁béni
fôrimatiki
▁U
80
écotourisme
▁bèla
▁échangé
▁Rio
▁yê
▁sɔn
▁guvɛr
▁kèlèdéw
▁gwèrè
riwa
▁devenait
andré
▁Émirats
▁Sira
▁Viet
4
eil
▁degui
▁bôlà
▁kabakoya
▁avancent
▁2005
▁radari
▁Minisri
▁Lituanie
odrig
▁caméra
▁dogoyara
▁356
fina
▁marké
rses
▁changé
▁minnu
▁dguini
▁soft
▁Livre
▁Jaz
▁kokrayé
oisées
▁harmonie
jogo
▁sondage
▁baarakè
▁aiment
lɔn
▁lonbɛ
ber
▁labe
▁kokɛtaw
atham
ismes
▁départements
▁suwandili
WAP
▁nɔ
▁240
▁kônondon
▁chef
▁Mahal
▁sokônôn
ropoli
▁bonbon
▁ber
▁bouteri
exique
▁ja
▁Wagatimi
umacher
▁cabinet
nez
kèla
▁kassigui
ang
▁scand
▁lafin
ɲi
terrir
rongoro
munity
▁ruiné
oy
▁Qatar
dix
▁m
▁battre
bɛn
▁yon
veda
▁sôbêkôrô
▁sonnô
▁inc
akis
tein
▁kogo
nov
▁2009).
▁vérifié
▁pratiquement
fort
▁chansons
djiguisso
enn
▁Krom
▁gnadan
kuru
▁ignonni
▁djege
cessives
▁présidentielles
ax
loni
▁tɛmɛsira
▁masa
▁Madamou
aliforn
▁troisième
▁lôra
▁volcan
▁kassi
▁frappent
uyaw
▁sèbèninô
rons
▁Meille
▁agi
▁blocus
▁dipl
▁proga
ranan
▁plantes
▁kunafoli
rikourouw
ward
▁serpents
ogobo
▁Filoso
▁dern
inews
▁aimèrent
jacente
▁fleury
▁Aleisk
▁kumadenw
▁Kibaruw
▁Sco
einli
ments
▁Dugu
▁kɛla
▁offrit
▁touriste
▁Amazone
▁donn
neur
▁secret
▁logement
Ya
▁Tchaaman
▁mesiye
▁hɛɛre
djo
▁Democ
▁proton
xim
obsté
▁Ke
démafin
▁Sabana
enkulu
▁Mad
mogow
ubr
▁préparer
tron
▁grossiers
▁tunka
▁nuw
▁bɔɔra
kama
ens
▁météor
▁baarafé
veau
▁jou
▁activement
▁géofiltr
▁impos
▁dorotoro
▁comptés
▁shô
écria
▁shumina
▁blog
▁accusés
imal
▁yirigaa
▁pourcent
▁Féré
uisirent
▁kemenan
▁sirra
dérali
▁nami
▁14
tagaba
▁Bul
▁jatiminè
▁pourront
▁rene
T
▁Palme
▁maga
identité
▁bénév
▁fènsèni
odrigo
▁lad
▁360
▁recherche
▁djoriw
age
▁foto
wla
▁pêcha
▁lamaw
▁septième
▁vainqueur
▁gé
▁kulu
öröya
▁Molda
▁mitôgôyé
▁gaudin
▁fondée
surafendi
▁profonds
oivent
▁jeter
▁tas
▁rense
ympiques
▁labi
▁Energi
▁kalan
▁kossôn
▁indiyèn
▁courou
▁1966,
▁Smith
mênê
bes
▁adoptée
▁rivière
oviétique
▁(14,
oïde
▁Tcha
▁signer
▁confront
rontieri
fond
itant
▁collines
▁issigui
sirila
▁wagati
▁Orlando
acie
▁coupée
▁mô
à
▁100
ɔtɔ
▁fourch
▁cau
èreinbô
▁avaient
▁moment
▁oculaires
▁ladégili
gypti
▁keleba
▁fasso
▁tiers
▁fendô
▁dafè
▁Cézari
▁renard
▁représenter
▁kangnin
▁otogoye
▁Maldivou
▁Kaare
▁précédentes
éex
▁énér
dɔ
▁iodini
▁médaillés
iées
▁honn
onnés
▁yèlèmanli
▁gunnw
aimerai
tri
▁balokan
▁apport
sides
denw
udiciable
▁montés
dd
enter
▁djonan
▁regarde
▁stimulé
▁micro
▁ito
▁préfecture
▁kéléyé
▁yèrèko
âmes
▁anri
▁suwan
gbê
▁agr
▁douleur
▁Pol
ital
▁bottes
▁Fede
origé
▁mammifères
▁retourne
▁Oldsmo
uellement
ote
▁loli
▁koung
▁jupes
gala
▁locataires
▁dinosaures
▁Labalo
▁civis
▁sin
compati
▁Gordon
▁adaptées
▁juman
▁estimer
to
▁kartie
▁tonnon
▁impression
▁décéd
▁souligne
ontières
acu
▁dôfara
▁fourn
▁ténasé
çons
égislation
abilités
ression
iorité
zɛ
▁fontaine
▁minɛn
▁mitou
▁konni
▁wolonfi
▁quanti
èque
ten
▁concurrent
renton
▁koutou
▁kèkafilè
▁sélections
chet
ễ
▁Afgh
▁Biguè
▁adresses
velô
iteur
exp
▁lagafia
▁annonces
▁serp
aan
▁commém
▁tɛ
▁175
▁Vietnam
uwen
▁tchien
ugandiya
▁sigilan
▁Ka
▁suggéré
▁Research
▁suffisamment
▁lorsque
▁mese
▁bombou
importance
▁marve
▁Terminus
astre
avocats
▁bâtiments
lar
▁dram
ibre
▁Pennsylvan
▁faniw
▁daka
▁Kouman
▁hindou
▁Naked
▁aye
ymnastics
▁tagana
▁tɔ
cher
▁sisitèmu
▁Lanta
▁tigɛ
juma
onti
gnou
▁donne
éh
▁kônnodô
bato
▁Saturne
▁sainte
▁abord
▁composées
eros
ail
▁Janya
▁kôssan
▁Juifs
▁Nadia
▁disparu
▁stockage
▁lafiri
cin
▁jungles
▁missin
▁Boyanra
▁Virginie
▁conservé
▁dinè
▁Cinq
tala
▁hakan
▁poussé
▁tchilà
▁géantes
▁soignons
▁danfen
▁Olaf
tiguè
éréti
kounou
▁toulon
pelez
▁arch
▁Mister
▁boiti
andez
▁souffler
▁sédatifs
gues
▁wélé
▁provenance
▁kelen
▁vil
▁banban
naire
▁sculpt
▁reform
▁expérience
▁naguasi
▁nɛnɛ
▁korô
lets
▁maraféw
▁emmenez
▁fréque
appar
mar
togo
▁siranya
▁labaara
▁actuellement
▁tobili
▁sebeou
▁ata
ayne
▁tônôn
▁portant
minisimi
▁cerises
▁bikê
▁yôrô
▁peintre
▁obéissez
unan
▁dɛmɛni
▁1450).
▁kɛnɛ
▁midoni
djô
biné
écrivains
isé
mali
quipou
▁yɔrɔni
▁djoukrô
▁tugun
▁réussite
▁viennent
▁toh
▁gnôntchè
adulte
absence
effondre
▁war
▁littér
▁mayli
▁voulait
▁kourounw
Argent
▁fô
thodoxi
quons
▁(2
▁Easter
étoile
▁dispositions
▁pan
▁accueillir
▁sôgôsôgô
boroman
gle
ossaise
▁tachama
▁Aviyon
▁Nich
▁fɛɛrɛ
▁radioph
▁kônônala
▁tɛm
▁leçons
▁cabine
▁mérite
aycurù
tchini
▁servis
▁partent
line
ru
sra
▁Soguo
▁borla
▁double
▁Polyn
▁hɛrɛ
▁minbé
▁kafisa
dilannaw
▁religion
▁escar
▁quatre
▁Austral
osp
▁repos
▁pires
▁cherche
sions
▁kaɲ
▁bisara
▁Harappan
▁finance
▁dibila
▁koumé
gnangbèya
èntèrinèti
erbai
▁gouli
▁obanni
ynchr
▁Jaa
phone
▁be
▁yelemanli
▁bulletin
▁juge
ee
chner
▁Midi
▁Ber
▁Sôn
▁arriv
▁lele
▁danger
▁garage
▁établis
▁années
assurez
▁verti
lerie
▁festivités
▁bèssôrô
▁werew
▁Hoteli
▁pla
▁wayasiw
pou
çait
▁Zeru
▁lanpo
intérêt
anaya
fi
igr
▁GPS
omin
gininw
▁reçus
▁Speedway
▁finetili
▁prunes
endue
i
▁bran
▁Pittman
ershey
ssiraw
sèguèli
▁sègèsègèli
▁kèwalé
▁djo
▁Jabaranin
alistes
▁myé
▁souroun
▁lɔr
ense
▁bôyi
▁Sakis
▁pause
▁tɛnɛ
oxim
▁olougou
lèches
▁faryani
▁ajoutée
▁souffre
xion
usque
▁poteries
likèlaw
andra
ôna
▁élimin
▁pèrèmi
chama
▁afghane
▁Job
ète
▁sauvet
▁pattes
▁sôsô
▁dépassant
ugais
▁foyer
ATA
▁horreurs
▁Taï
▁ladjè
▁coûtant
▁nasoro
▁avo
▁déduit
▁yéra
elty
ufact
▁diff
▁fourchue
ngy
reiman
▁vois
▁Gnongon
▁150
▁minèra
▁buruju
▁compétences
▁kulɛr
▁ouka
▁Tama
▁problè
▁opposée
cro
▁Norvég
bia
▁föl
oa
igent
▁veste
land
emp
▁baki
yali
pha
▁blakei
▁suguya
▁sèrès
tihad
▁Sacks
▁Yele
▁musical
▁débutants
▁1998.
▁is
▁capsule
▁bichégui
▁efforts
▁lekoli
▁alex
▁Zmapp
ageux
▁des
chlor
▁gnadelogo
▁télén
▁2:11.6
wn
▁bisoukou
▁âgé
amik
▁humaine
▁nouveaux
▁touro
▁Alonso
tintinni
▁melamine
▁Ad
ontements
agissant
oques
▁résidence
ayant
▁passe
ravid
limats
▁inex
▁welelila
▁furieux
▁culturelle
▁détecter
▁kara
▁labèni
japon
▁voudrez
▁yɔrɔjan
▁ji
▁passeport
▁Kun
ak
▁creux
▁fitin
anjalan
▁banabagatoh
▁actu
▁réduit
▁médecins
▁régulières
▁respire
▁quitté
▁changement
fenw
ayc
▁craintes
ordonnées
▁frappa
▁domini
abo
ving
▁suivez
aîtr
▁prélevé
âme
▁jadonyoro
▁Otta
hor
orée
▁mineurs
▁arts
▁indonés
ropic
▁tugan
▁fofola
▁bête
▁mitouè
elé
▁dougna
▁Santor
oges
aude
▁japonais
▁stricte
▁Dublin
▁makadi
omé
▁fiyènan
▁Ani
▁tchèyali
▁drɔn
▁kamèè
ape
▁aperçus
crimeur
hun
▁laissant
apour
gnindonda
▁perds
▁gourou
2,3
▁tolon
▁bésé
▁contre
quipe
observation
▁siguiyôrô
▁mabo
fgh
▁(«
▁banna
▁ren
arm
équipement
▁dowuman
▁afin
cep
▁minutes
▁emporte
▁ferez
▁mous
▁proté
rey
▁clim
▁balani
▁dôwère
▁dépass
▁gare
▁recommandé
▁Clau
Mapu
▁landa
aurez
▁électrons
▁Mediterane
ougnôngô
▁gazeuse
▁sɛbɛli
▁Coverci
origine
▁termites
▁dêssê
hisimi
▁indi
▁menti
lè
issant
▁hect
▁isituari
rir
▁2005.
▁ɲinigali
ards
▁djogoha
aitement
▁bôliyé
▁grandes
ău
▁Matchi
▁let
▁déclaré
▁sée
uda
▁10
▁composés
▁Caudia
▁Ban
▁essayaient
erth
lér
▁inqui
▁Fèn
▁râ
▁périodiques
▁compar
▁escarpées
eni
ony
▁gymnastique
▁destinations
rèna
▁ori
▁cloud
▁Film
▁karo
▁effectu
ouc
▁Nicklas
▁cross
entement
▁in
wulu
▁mich
▁soumises
▁formule
cien
ouche
dola
▁okangnan
▁encaisse
empe
▁koba
▁simplif
vou
▁cérémonie
▁Mag
▁djôle
▁000
▁fôli
avoué
olo
▁adamande
▁esquim
▁jacques
▁Xiaop
▁tala
▁pho
▁dgoguida
▁Pureland
olé
stria
alousis
▁dantiguèli
▁balimacɛ
▁sugandi
mènan
heli
élèkission
▁formes
▁enseignants
▁longow
oignez
automatis
▁carre
vier
pua
enh
▁véritables
▁chasseurs
▁ɛ
▁déposer
▁bamousso
▁djidja
pération
▁kuntigiw
▁hyp
inée
▁bissa
▁tombe
▁douze
▁mariages
kék
▁Mac
▁G
barani
▁Yôrô
▁Djabi
ougnongon
▁utilisent
▁ngè
▁lui
▁tabou
▁gbolo
▁Pythag
▁bitere
MZ
▁pratiques
▁djouya
oir
▁faguali
▁Honshu
▁dirige
Kalo
▁tènè
▁dasi
aiisw
eadley
versite
62
séli
ssoun
▁chanteurs
▁jaunes
▁cannes
▁pirat
▁waman
ow
▁pom
oris
▁hélicop
rikin
dwa
▁yéka
▁ebola
cipe
djèla
▁négatif
▁galaxi
▁djôssi
▁Taínos
ibiennes
Argentine
▁Eighmey
▁kulun
▁seoun
aison
▁Gnin
▁val
▁djougoun
indép
aliste
roisé
▁sangaso
occasion
▁document
▁bal
tiguiya
▁asiper
aticien
▁gwèrèni
▁Sur
▁kèta
▁Firansi
oxe
▁Bouffalo
▁mirages
anyé
▁én
▁mâles
ssinger
▁citoyens
zienw
ininin
▁Cologne
▁ter
▁violent
▁lactée
arôme
▁standard
▁2:11:60
▁Parmi
▁surface
▁mougou
ptown
▁ram
▁Fingnini
omatique
▁immédiat
▁débit
▁calaman
▁fossile
Oregon
doni
▁omer
▁Roca
tonli
penterez
yns
▁Pacific
ordonn
fiction
▁2015,
▁Aw
▁dominic
▁bien
▁emprisonné
▁bai
manaya
yr
zɛr
▁foron
▁femmes
▁fénw
mini
▁premiye
yrienne
▁sonma
▁afolà
▁tomb
▁sensiblement
boksi
▁civils
▁barake
▁labô
▁décorés
▁Onion
▁cononon
rois
▁essayant
▁tubabukongowulu
▁agriculture
▁civilis
▁sebaga
▁Tando
illusion
interprétation
▁Aksu
▁sonna
▁dona
sôrosira
ess
▁rock
submarines
▁Eph
▁Baasi
zna
tchèkélé
ussi
immédi
▁associé
▁homin
▁support
▁conirost
ogokan
trons
▁binaani
▁Adaman
▁faisaient
aba
▁Gaz
▁tubà
▁typique
▁hos
▁pomé
▁wɔɔrɔ
▁celilou
▁novembre
▁ce
▁déplac
▁ressemble
urance
▁Gingrich
▁simplicité
eri
▁seguitô
▁buro
▁Bre
▁kafe
▁liée
▁kèrèfèli
▁Uniyon
goli
▁méthodes
▁farakan
rade
▁billet
èlent
▁kachia
Môgôw
▁amical
▁ossi
▁figure
▁djéli
▁allongé
▁cone
ɔg
▁Déclar
▁Mais
▁McCord
▁cha
▁banlieue
▁ondes
sabanan
▁pratic
16
▁Cape
▁Dougn
▁May
penha
gnonni
cifi
rez
▁Resear
▁Erepre
▁iko
lioth
▁mougouki
agne
▁djan
tina
▁normalement
▁1819
▁téliyala
▁gens
endjabi
▁Loliw
inité
▁Bach
▁melanine
▁Selon
▁derinako
▁Chi
▁D
▁wangoli
▁nage
▁bourg
oute
hum
▁danoise
▁effacé
iku
verne
▁Alexan
▁chasse
▁noire
lanyé
▁lema
▁sûr
▁niko
▁dernier
▁Vilnius
▁ligue
▁RCTP
▁17
cientifi
▁talon
▁masé
▁dôrômin
▁barka
oronto
▁fôrô
utsche
▁QVC
▁wii
tho
▁McMur
▁yorô
▁Sirip
maniya
▁jard
▁metri
endeur
▁Opera
Asociaci
▁Golsling
▁rés
▁aveugle
▁adamina
original
▁vôtre
▁Paki
▁profondes
▁system
▁lav
▁ordinairement
▁Apia
▁inspiré
▁nn
▁éteint
▁Yeimogo
org
eneman
▁Zéléni
phin
▁fanga
pti
▁sisite
▁proche
▁247
▁résultat
fê
neau
▁géographiques
▁bertr
▁kénlén
avy
suna
▁Fé
karta
▁inventé
yini
▁Djèguè
▁marthe
▁tigui
▁sha
mogoya
▁kabou
sway
▁victimes
lie
▁kénlé
tographie
▁taboulon
▁avanc
▁th
▁compte
▁éléments
▁kékou
▁bigani
▁puissent
arrivée
-1895),
▁plaine
▁tric
▁rég
▁ont
kéklénya
iér
▁sôni
▁Sheriff
▁ɲasin
▁jabaranin
▁Mantouv
gnongon
llemagne
▁tchira
▁forc
abwe
hôpital
▁môgôhou
▁kofôniw
hepatic
yam
▁couples
Io
▁escarpée
K
▁gorge
▁transmission
▁tenues
kourouni
▁2.
▁Prin
▁ailes
▁anvôlo
▁W
▁pilasi
lim
▁Dillon
▁las
▁tchèmala
▁premiers
▁farisogo
▁voti
▁tilé
▁Dugutaga
ustain
▁aéroport
▁kônôtôn
▁fab
▁tunkadi
▁suivis
xu
▁om
▁his
▁dj
%
fôni
▁fonctionnent
allons
aki
▁souma
ssèri
via
▁l
▁mika
▁salv
ana
▁noto
▁nisɔn
▁pap
▁pani
▁autochtones
inity
wa
▁finalila
▁Krezel
▁somôgoya
▁fariman
▁diyagoya
ucanian
▁yoga
▁demissinhou
▁aviaire
▁Auckland
rys
▁kanso
▁kannon
▁chaya
▁lafar
▁Rogers
▁règne
foni
▁gninmôgôya
▁Fort
▁nécessairement
▁prison
sinw
▁chevesne
▁Jour
▁Squash
▁Pourquoi
▁yorow
▁améric
▁sangoura
▁d
▁segɔn
▁cursus
▁Irani
afond
borila
▁Nansara
alisent
▁bangu
▁dɔgɔcɛ
▁1600
▁1.1.
▁Harvi
▁crucial
▁Taiwan
ninlè
▁kola
▁sojanw
adsides
dokônôn
▁mét
kerque
▁makoundo
▁soun
▁neuf
▁amén
iney
kèrenn
▁Dundee
▁Izaak
lina
▁dɔtɔrɔcɛ
otred
ateur
▁conondo
▁festiv
▁tigiw
bilako
▁goûtez
▁and
üs
▁founoun
▁représ
▁jeiguew
bognasira
▁funérailles
▁tabali
▁ressemb
▁olaa
itoshi
▁adolescents
ption
pées
jourouw
mei
onlé
▁maximale
▁prati
▁Paix
shadiou
▁dois
▁ingén
▁Opér
▁symb
▁sirani
ampoule
▁chaussures
▁musohu
▁mangro
▁anpouli
charest
actif
▁national
▁(3
▁débarqu
▁véhicules
yan
ver
sègè
▁exposition
▁laban
bèti
▁prefe
▁Royau
ffre
amoa
▁aim
après
▁Archi
▁arb
▁Hawaii
▁Poli
▁lônniya
▁my
▁sacs
▁nomme
▁arn
▁Duv
cas
▁mén
ns
▁préserv
▁tondéw
▁phas
taki
▁christi
▁Balbo
▁Harvick
▁lôno
▁miliya
▁Falcone
élensi
▁kow
ér
▁6-6.
▁froid
▁ognongon
▁wêrê
▁pompiers
▁pédagog
▁waato
coup
▁rester
oport
lém
▁supre
▁Vishnu
▁grat
essayer
remer
riture
▁dommage
▁bêjuguye
its
▁sougnan
dugufa
on
▁abs
▁gɛlɛyara
inn
▁podcasts
▁Wifi
onga
▁Bow
▁vendre
▁datent
▁nargu
uive
tile
teli
▁gbeèlèya
▁Springboks
▁Xe
▁yiriw
▁améri
▁football
▁leur
▁saut
ECAf
▁asseyez
▁imposées
▁East
envoler
▁yacht
▁épouses
▁Bich
▁simple
▁(02:30
▁Niigata
▁selli
▁iranienne
pèri
▁trouble
▁cités
▁liber
▁Angk
▁européens
opoul
▁lamanw
▁Seven
anophone
envers
▁Fallujah
▁introduits
▁wagadanw
inw
deini
kôrô
▁nuguw
▁wu
▁proposer
Giza
▁graffitis
▁Mysti
▁privée
▁bri
enses
▁euro
▁obsolètes
▁intent
▁Dece
dé
▁étude
impérialisme
▁corruption
▁amériki
▁chans
▁superf
atant
il
▁éditions
▁dakoun
▁Dugukolo
▁restait
▁nos
▁ana
▁sourafê
▁district
▁sigiyôrô
▁arabes
ieh
▁Tayyip
▁féro
▁gnongnon
andel
batigi
▁construire
▁retard
légué
enne
▁tminan
uiv
▁Béré
▁détecté
▁adap
▁Dibi
irming
lonton
ox
onc
▁gorilles
▁Ski
▁ôyôrô
▁semaine
▁montée
▁milion
▁dévolue
eigue
agnol
ms
▁kal
▁masuman
iliaires
lectr
▁ordinateur
▁Doni
▁Avec
kounna
▁Al
▁votelaw
ambers
▁Internet
▁Yé
ham
▁forte
adors
▁consac
▁exonérés
▁sanfɛ
▁taire
▁asi
▁1959.
▁prote
▁nouvel
▁lɔnnigwɛ
▁lajin
▁gboya
US
tiend
▁extraire
intra
▁pê
▁Zhangji
0
▁bɛr
ɔrɔnan
▁lora
vini
▁devons
▁remplie
zari
gna
armure
▁entière
▁Kolokali
▁madimini
▁charbon
itée
innes
▁roulé
Afiriki
iser
infrey
▁bafè
ongol
▁Sentinel
▁olympi
▁gal
▁gand
▁arasoiri
▁ceci
céan
ei
▁Hanco
▁wɔ
▁naturelles
▁maminèni
rog
▁gosili
▁masse
▁Jakarta
▁Tamasse
▁reconnue
▁lébôla
▁plats
▁baptisée
▁Visa
▁jointe
ouchettes
▁nôgôman
éniciens
▁vivez
▁mah
▁gnèmôgô
▁complément
dimb
▁kalandenw
▁autant
▁Iran
▁vicieuse
▁artis
▁aviôncom
trogé
eue
▁enfance
nafô
espèce
▁était
▁Is
▁transp
▁opération
▁ruiss
▁sami
▁ressources
▁ADNi
▁appels
▁mots
▁Addenb
▁Couchsurf
léch
▁Fara
jɔn
▁savez
▁Ere
▁Sud
▁Six
ttakha
▁songo
échapper
oth
let
▁Halifax
▁cɛjuguni
▁bure
▁actions
éfie
▁origin
▁fév
▁siguignongon
▁film
ssion
▁Bilama
▁commande
▁rampe
hanes
▁nouveauté
tèr
▁formats
cone
▁lieu
▁forestiers
orph
▁civili
▁Osaka
▁gnogokan
▁cɛ
alem
▁léla
▁naturels
▁babaw
▁Curry
▁sun
▁Proc
kɔ
▁but
fr
ides
kagni
▁dépasse
▁tounka
▁scanne
▁contribu
▁zari
▁Geospiza
▁Cos
▁gninnan
▁protég
▁pilan
▁dounya
▁fier
▁Soleil
at
bro
▁apprend
dénba
lam
▁Sovie
eber
▁kabi
▁kisèman
ninka
▁Phonde
▁proph
▁sénatrice
▁basées
▁favorable
▁location
▁Eee
▁coul
écl
▁seule
▁personnel
▁dogonan
▁résidents
▁titane
▁Iliad
▁ladjin
sting
▁bii
olédoque
▁50
▁sport
toujours
▁natôla
teri
yongonman
▁Stan
▁Chambers
▁carburant
▁prés
▁adéqu
▁Ina
▁sent
▁remont
▁chanteur
▁absorbés
agnols
idés
▁chapit
▁eBay
▁souhaitez
▁boyan
▁giri
▁Aussi
▁famakê
▁tâyôrô
▁survivants
▁Copernic
kilassion
otid
F
sent
▁cannib
lustrer
oici
Is
nale
▁meurent
▁sôrôlikè
mets
hyper
ckwood
poth
billon
enti
▁infections
éville
itation
vues
▁assuré
▁télécharg
▁jɔsi
XIe
ompétents
▁contrac
▁mantcha
▁denmi
anti
▁otumana
▁fos
▁publics
▁elvire
▁kunssiri
▁relatée
▁judiciaire
▁korôn
antisme
ael
▁pleuv
amana
▁Greeki
▁archipels
▁préside
▁Espagni
▁sanfignê
OVIDI
▁eût
▁filimoun
▁bani
yoro
▁latege
▁étroits
▁faragnon
▁Kotchama
èrement
▁dɔɔni
umana
▁Ryan
▁gross
▁farafina
▁Lolohou
▁campus
▁réalise
▁Aliman
bôra
▁Stewart
▁Russie
igration
▁tounté
ighmey
▁Masa
▁hô
▁dizairi
▁banba
▁Fich
▁espè
ogle
▁sim
▁autour
▁décisions
ol
▁politiqui
break
▁intér
ires
rine
koula
▁Sosyété
▁misenman
▁Hall
▁wèlè
▁phot
▁portables
▁raf
▁bôlôlô
vèr
mon
▁speech
▁darapo
bum
▁bangi
▁hor
▁kônôna
▁alissa
▁installations
▁Gala
ience
▁dunuya
▁suicides
▁Indes
▁conclure
▁si
ate
▁sapɛl
▁Maryland
▁profitent
▁Esquimau
▁Bali
▁maîtrisé
èrinèman
aient
▁enray
rasé
▁worola
ancement
▁Chac
▁ressembler
ge
▁fein
▁seko
▁expul
▁sama
▁broch
▁Ho
▁Riomaggi
ennylv
▁miwbé
ayatollah
▁crée
▁couran
ɲɔn
ssamaniw
▁tolila
▁krétien
▁tables
▁seriez
▁opérations
▁membres
pent
▁confond
esc
ainis
illant
▁jikɔnɔ
éb
bow
▁dém
▁teli
▁abla
▁amiraux
▁ment
▁lucide
invente
▁djé
▁défectu
▁hungu
▁inondations
▁kɔsɔbɛ
almeiras
▁fusé
ylard
extraire
▁énorme
▁lougou
usement
élégué
▁Polynésie
▁kabaniko
▁Flyer
▁contag
▁tchienli
▁wifi
▁bondé
uet
▁marquant
▁Shri
▁Minisry
▁obstruée
locker
▁Nafa
▁Titan
▁mɔt
▁Nevada
▁Lagla
▁kènikô
▁tamana
minuti
▁woron
airi
tɛmɛ
uisibles
▁croient
zélandaise
ière
▁organisé
▁disposés
parole
▁wayasi
▁FIC
▁yɛlɛla
gnégui
▁tolatan
▁ad
▁dèmèdèmè
▁siga
tigiw
spièn
pock
▁mixer
▁dɔktɛr
▁Ring
▁réservent
▁tiguiya
Apple
▁solisi
▁dérout
▁sclérose
hads
▁kurun
tayôrô
ébron
▁wulibali
cament
▁Yèlèda
'.
▁toulo
▁Tas
ivialité
kis
▁katinmin
▁–
▁incass
oro
▁morceau
▁so
▁gnèrè
oglou
▁position
▁parvient
▁grupu
jourouyé
▁sila
▁str
▁Nouvèli
▁saisies
▁1981,
lez
▁tourissi
▁tannzn
▁effectuer
▁comédiens
▁échapp
▁2
▁pati
▁kouman
▁djiguitô
▁tlon
▁hydoro
dénmisinw
▁retourner
▁Lôni
ches
▁sɛbɛni
▁aperçues
▁imprimé
▁barrière
ent
zéland
ork
–1895
▁examen
▁famba
▁folô
sidan
▁décla
▁économiques
ênka
roumikan
bachia
Irak
▁perfection
▁bois
▁Bom
▁anc
▁climats
▁voler
monkalo
rutin
▁tubabu
▁bouoni
▁grimp
onge
asv
▁journée
▁lônya
▁kounou
ensemble
▁massa
Goldust
yst
▁côte
▁élu
▁Corée
sine
angola
régué
GP
▁sérieuse
semés
pago
▁sanskrit
licité
▁gardée
▁lekonon
▁inutile
endre
▁tununan
▁kôrôbôni
▁jouait
▁maire
▁music
peedway
▁Standing
▁appel
▁faute
▁Jeux
▁Jullet
▁év
▁Giza
kongowulu
▁Yei
▁tig
gudu
▁vendu
▁Ilha
▁puis
guèrènila
▁asiperzi
▁tribus
▁tout
atoire
fohi
Audi
▁walaman
nugu
Autorité
enveloppe
▁benkan
mbridge
actuelle
temps
▁tèmèni
▁ajoute
affich
▁agences
amour
▁sophis
▁saramani
ush
ranci
▁Recep
▁lakôlou
▁narrateur
▁naani
nutr
▁telé
▁Eskimo
▁siradow
▁abandonnée
▁magasin
▁allemand
▁dulan
▁infectées
▁kɔfɛ
aho
bdomad
béfan
fagalan
▁semb
▁nani
▁kakè
▁fiscaux
▁Oubé
▁gongan
▁seneya
▁kiosque
▁auparavant
▁22
▁amie
▁fatɔ
▁origami
▁boyè
▁coupés
▁faci
▁exact
gorie
▁pasaze
▁kofe
ident
agos
fuye
izeh
naya
susc
alisant
Larson
▁lagnaga
▁lesqu
▁araso
▁rentrera
ukra
▁bonsoir
action
▁djatiden
▁dondon
▁Zealand
vision
▁digui
▁tôgômanséri
▁jege
▁responsabilité
▁îles
▁dirigent
▁glasi
▁demande
▁tilémani
▁classé
jibi
▁week
▁gbinlin
▁autonome
▁nôgômani
▁gnintaga
▁devriez
▁Indé
▁diminli
▁romains
▁cɛka
manla
▁2010
▁srankan
rɛt
nant
▁aya
▁bognanan
▁Népal
▁kabö
iés
▁indépendantes
lissement
▁misali
▁yachti
▁Congrès
▁Col
Article
▁Sul
▁Ségui
nels
▁Glory
▁pèlerinage
▁déclencheur
▁Benjamin
kounouna
▁adulte
▁kimmim
▁manifester
autom
▁candi
ronbolila
▁tôrôn
PM
▁bôla
▁cadre
▁occup
daho
win
▁wasa
yè
▁dagali
▁immédiatement
aflè
▁sig
▁siguili
▁experts
▁bouddhisme
▁tôw
laban
▁kibaria
ccordion
▁nô
▁meu
▁kate
▁kami
109)
▁golf
ivez
▁kèmè
roves
▁Sénat
▁repéré
▁tomi
▁bancs
▁Disney
▁élevées
▁Santi
koka
▁kutigi
Arizona
▁nécessiter
▁sognan
▁rachis
osses
▁bêla
von
bwé
seurs
ipel
korognanagbè
▁ow
▁lannaya
▁mes
▁ô
▁kurake
diffusion
▁notre
▁ho
▁bodjanba
▁sauvages
▁manya
▁segui
.0
▁kafôko
▁Farikolo
▁résul
lum
▁côn
yéla
île
yata
▁kumadéng
▁siri
▁elles
▁récomp
▁binani
attent
▁haï
▁1789,
érées
rigon
▁bassins
▁renforts
▁compr
▁abbé
▁messieurs
orch
▁alétè
▁gnèfè
▁nen
▁hun
▁tournè
▁djèlén
▁ɲɔn
▁timides
▁gninan
▁hanami
omor
innens
resp
▁sign
teau
ffir
▁folleville
▁filmer
▁Cou
▁fôra
▁kotou
éch
▁téré
▁Sy
▁nôogon
▁Branson
▁glaciers
▁Wara
▁finou
▁djamanandé
▁Belaru
▁1965,
cadier
▁Tour
ë
suma
keng
▁1930
waii
▁mabili
▁tués
tiers
▁téléphonie
▁Bohr
▁mako
▁interne
▁Mercredi
▁kénlénni
pubiki
▁coron
▁To
lais
oli
▁India
deback
élèvent
▁olympiki
tinnan
▁djinôgô
▁fɛnw
mens
▁rapace
ocht
toun
▁Agéen
▁pénale
▁kalfili
▁Paraguay
▁consent
orniglia
▁revêtent
▁san
mein
▁gɛr
▁refaire
▁bognin
▁cou
▁kapusino
▁Kosagon
▁voyage
mlan
▁guerre
ely
▁crat
▁Photonw
▁dlan
orikônôci
▁sujets
▁gbèlèman
▁traversant
f
ranna
▁fenêtre
hani
▁géants
ampleur
illard
▁acclim
▁bali
-11
▁report
▁détendre
▁faaba
1)
▁froids
▁qualité
angement
ain
▁morgor
▁particulier
▁linge
Gninigali
ummah
▁farani
▁long
▁jabi
▁wuli
dulkar
▁wolofila
ggin
èyèlè
▁militaire
▁marchaient
illé
kléyèri
mbè
yant
▁consiste
▁dimensions
▁manifestation
▁cols
▁Piramidi
▁kɛlɛw
▁sy
▁ité
▁Komen
▁Janvier
▁cru
ensi
des
▁gardées
▁contrôle
▁woronic
▁Kɔrɔfli
▁iléman
▁Sikismou
▁vo
▁situ
nent
gnaw
▁vents
ouns
▁Sverig
▁ayi
▁sourire
▁stephen
▁roma
▁portable
▁mém
ennyl
▁Garan
▁er
fɛn
▁bre
▁Fuji
▁sani
mugu
▁dialec
▁âges
viométrie
▁prématur
yôbô
▁emp
▁Safin
▁fatura
▁Kasso
▁kolɔnniw
▁jak
▁lorou
▁météorites
▁120-160
▁tilara
rafendi
▁vieilliss
▁2:11.
▁anniversaire
ddenbro
▁rempl
▁hanri
cides
mbers
▁dôrôtrô
▁trah
rümqi
▁préféré
▁conduc
▁bôn
SPCA
▁kɔnɔna
ratus
▁efficace
Panama
deni
▁indoukaw
▁commi
▁transpor
babou
▁Gazi
dats
uni
▁règle
▁pluies
▁Ferguson
puis
▁lancement
▁coura
▁réveiller
ôntourouba
▁occupé
▁b
ierre
▁nou
▁rapport
▁répand
▁camom
▁coincés
▁diges
▁voisine
▁pantalon
raîch
▁keh
eor
▁Seenkow
▁jouets
▁minim
▁génétique
▁skitulu
▁gɛrɛsi
kognan
▁Survey
actu
▁nika
▁koye
▁ord
▁korsor
▁Ice
▁kônondoh
▁2001.
▁sigiyɔrɔ
bet
▁délégués
roun
yɔrɔla
▁volume
▁daminana
▁tchiain
▁spécialisés
auv
politiki
▁stratég
▁fanfɛ
mpisiw
▁combattants
▁bogo
▁kôrôlensira
▁prob
aurice
▁tôwu
▁costumes
▁Rudd
▁Die
▁Barceloni
▁pêchait
▁transan
▁chercheur
▁sendonan
▁traités
▁numero
llement
▁Erik
avoc
▁sissè
foron
▁Vautier
ound
ury
▁doctrine
fêlaw
▁cɛɲ
kisébana
▁jôlô
▁djéri
▁enregi
▁commenc
oulafè
uies
▁aérien
▁interrog
▁maintiens
ège
▁kèlèbolo
anqu
▁bas
cade
réné
▁yeelen
▁koulakaw
▁gnansigui
▁déracin
▁rue
ociation
▁marées
êt
diaw
appro
licop
▁action
▁dates
obi
b
▁besson
▁miliyɔn
▁bochi
anb
▁Pl
zek
Honshu
▁crayons
roate
▁Blacks
▁séguini
faya
chés
oulez
▁appelle
▁djarasisi
▁fr
▁arbal
▁yêrêy
▁RSPCA
▁gene
▁Daesh
▁7.
▁ochi
▁ennemi
ksi
aisse
lassion
▁alélo
▁musicien
▁déénhw
sêla
▁obèla
▁mɛnɛ
mité
▁bugu
▁konnon
▁bassiguini
▁fasa
toli
reg
▁pourra
ciéw
jikèmè
cev
▁ominw
▁venue
pérer
▁croyance
ings
▁particulières
▁overs
▁deisse
▁présent
▁marais
▁Bieber
▁gsani
▁takisi
▁théâtre
▁lance
▁associée
▁Kanjar
▁Strabo
▁Latin
▁sateliti
▁classi
▁Ky
▁foonênê
▁ɲiningali
kuma
▁vɛn
▁cria
oblesse
▁vins
sse
▁dalan
▁XVI
lor
▁néla
▁Javane
▁sovièti
yloniens
erbaïdjan
▁après
▁tananw
▁Zea
▁paratali
▁Sou
▁rem
▁julie
urope
▁emprunter
▁founoufounou
▁vécu
▁kenegbe
▁Virgini
iens
anium
▁lɛtri
llman
öcker
exprimer
ilipp
fangan
▁succéd
▁pié
▁adama
▁gnamima
▁al
▁Diamanaw
paré
▁Tifon
▁occasion
▁absolue
rani
illages
psuli
▁Arisi
▁Bank
▁nyé
yôrôla
resse
inscrit
▁élevé
▁précisément
▁Djikourou
▁kôfêlala
▁séjourner
▁Âge
▁entraîne
▁Gizeh
▁walekela
zili
chent
oduisent
▁gwele
dow
▁plas
▁spor
▁mon
▁kalike
▁attendez
▁wobaw
▁ada
.”
aii
▁nimafén
▁traitant
wé
nôbila
▁combinaison
▁anman
▁russe
alif
▁indiqué
inew
▁américaines
attave
▁Borné
▁kissila
▁vion
▁populaires
-19.
ricerato
▁massé
▁Faassi
trôtchè
▁yanni
▁yɛlɛma
▁octobre
▁chien
▁Nazi
▁nela
▁USAF
prim
▁im
▁connaissez
▁écar
▁fagala
▁euros
▁prov
bêrên
▁représente
▁gwènrèn
Rex
▁marchait
▁suw
quent
être
orn
▁tabolola
yoli
▁volont
ourner
tiriw
▁buts
▁horloges
▁térébô
yron
▁quintes
oué
▁konnondon
▁Interne
êlêni
▁Maldo
▁ascension
▁bords
hindouisme
▁Can
▁positivement
▁zi
azone
▁duwa
▁ferme
gôw
kôdji
▁2002
▁exécu
▁adamadén
▁marie
▁fɔr
▁balonw
▁6,
▁mettra
▁ar
▁scanèri
▁royal
▁prétexte
six
uma
iaop
ccor
odernes
▁sougoufè
▁pécu
▁plaide
angerie
▁complex
ghour
▁bèna
▁rotation
▁zooms
▁fanbèfè
▁évèné
▁kélégnin
BP
▁mabɔ
▁afonnon
▁ap
▁Universi
▁maximum
w
conondo
lopitecus
entendre
▁misiri
année
▁marius
▁septembrou
▁bertrand
▁connexion
inson
idélité
▁lequel
▁sokônnon
rique
tant
▁soussou
▁expulser
▁expériences
▁intéri
▁fassa
▁fôlisénw
▁pulv
titude
▁adep
rikinw
heureusement
▁brevet
▁dessous
èguèsso
▁1967.
estue
zabeth
ó
▁Anat
▁peuple
ôtchôkalo
▁insérée
colo
▁Wolo
feuse
▁djikankourouni
▁pèrèntaw
▁taman
▁distr
curi
pendan
▁Dunlap
▁Certains
sabeth
▁Setigui
vet
éditeur
▁sili
▁softball
amm
▁censés
▁enqu
▁octo
▁sèlè
▁riv
▁1885.
▁songoye
▁dôhou
▁benna
otor
▁tumanla
▁offerts
irurg
▁basse
▁débat
▁sab
▁interven
▁gwɛlɛya
▁dynam
▁Reap
▁cɛn
▁navigation
ci
Simp
▁avoc
▁lolow
▁562
▁mangées
dju
▁kèrèkèrè
▁koron
tigiya
▁pièces
▁nantoro
▁gnogonan
▁diyadon
▁Lagèri
▁entourés
apolis
«
▁valu
djôn
▁kissèya
▁kisè
▁Rusten
▁Ira
vre
olles
▁kilan
▁provenant
▁(
▁fréquentés
uscade
.-
▁hostil
kongo
▁roi
▁Feli
▁efficacement
woronfila
▁agissent
▁Javanese
▁Osita
▁Mino
are
▁tagalôn
▁emb
ionné
▁idioti
excéd
ex
▁2016
▁35
▁faaman
▁liés
▁kibarou
▁suma
▁stra
▁gwɛlɛman
▁30,000
matiguêlé
dèmè
ault
▁soyez
gen
▁où
ension
▁délic
orcerons
▁améliorer
▁cach
▁peuples
▁belges
▁kôrôfinw
▁réglementation
▁XVIIIe
enfants
▁dèmèli
▁(1/5
▁Îles
▁important
guin
sme
▁kim
▁djitcheiman
▁actives
▁kɔni
erve
forment
▁toumbéna
ôme
▁Baaw
▁excuse
▁scorp
▁tché
▁sumana
▁matinée
sectes
▁tien
▁altérés
▁kilometere
cle
▁kèmandi
▁bonson
▁jamanan
▁tere
▁algue
▁donkiri
▁souhaitent
▁diaman
▁horiz
▁Eurôpou
▁ph
▁traitements
▁landes
xie
▁labin
▁nanninan
▁Mec
ish
▁entend
ssidanla
▁Odjukôrô
▁étudi
▁gberèya
▁gnamo
tèrè
▁badjou
NES
reton
▁gwêlêni
▁tayé
▁aviyôn
▁molecu
▁en
mani
▁gualasi
▁gingin
▁Jakar
vangelos
anga
▁Reag
▁mondial
▁mos
▁1.
quérants
▁1683,
Si
▁déliv
▁danser
▁kɔrɔsili
▁gun
▁Artifici
adian
▁bomb
▁gwèlèman
▁découvrent
▁kalama
▁kabakoman
ste
▁bour
▁conversation
▁kètoun
▁régulière
ative
▁baradjan
▁relation
▁bits
çais
▁kélénan
▁atteints
▁kulubolo
▁inv
▁soutenus
▁commémoratif
alos
▁djidili
▁Paris
▁yéta
▁gara
▁spatial
▁kônondô
fêla
church
▁propriétés
misè
çaise
▁(9.174
▁vaut
▁fisc
risto
▁jur
Ontario
lombèri
▁reconn
tôkélé
▁kanbôla
moi
▁West
41.3
olomanla
apeurs
▁tchaaya
▁cogokalo
tougouni
▁Conf
▁Headley
aitez
▁Point
▁nâna
▁cad
▁ɲanabɔ
roya
ineapolis
▁capi
oge
▁Ama
ssou
kunbèn
▁-3
veiller
▁lancin
▁jouéw
▁chefou
▁farikoro
ôngôn
▁Cabo
▁hé
▁renf
▁Katr
zani
misɛ
▁façonné
▁Kèmasôrô
▁mayili
▁okan
oignées
gô
▁Marion
▁nimôrô
olive
▁kiya
▁Kabouô
▁Lak
▁Saarin
▁Lay
▁lassi
▁Heck
▁djatéya
▁filèwo
were
▁animal
▁fantan
▁Gbaa
▁hydro
▁Polgni
▁Estonian
▁mishi
▁présidence
ones
▁Tch
▁tchêfali
▁sennan
pendant
sitiriki
▁walima
kuntala
▁vraiment
▁parlement
▁mélangés
▁Démocr
kur
▁Equa
▁confiné
▁lolohou
kouraya
▁Zuluyé
Oiapoque
▁tèrin
kin
▁avoir
▁cèdent
▁dian
▁gnamaw
▁djamdja
évêque
▁sognani
reux
èrènè
▁16,
ynn
▁thaï
talon
▁mary
▁malades
▁Rogaland
tinait
▁miube
▁Feou
▁kônôla
▁boliboli
outa
▁musso
tères
▁kar
▁faisait
Gi
▁aucune
▁bèè
▁oromèniw
▁fâg
▁migr
hannessy
.17
jugu
ingst
▁bisse
tlan
elée
▁Ilia
ssing
▁ade
léyèri
▁Lib
ashi
ssèguè
DG
▁gravier
▁dégé
rière
▁participent
riyala
quou
▁Õ
▁solaire
▁club
odge
▁atmosph
▁déroulé
▁établie
▁logofie
rat
▁grou
▁Mediter
▁tradi
▁wolomali
bêrêma
▁conservateurs
▁Galilée
̋
▁tunmanan
▁Russi
▁fus
▁samian
gorongoro
ables
▁jumana
▁baasikow
▁inclure
aito
sino
▁lôn
y
zini
▁mitôgô
Ap
▁Personne
oussou
▁Baw
▁muni
▁affront
liz
tchi
▁Trac
▁Groenland
échauff
▁voilà
▁fan
kô
▁sexuels
bourg
basenw
▁Daga
▁ajouta
itas
▁organisent
▁Brisb
▁tonku
rɛn
▁cannabis
▁occidan
acifique
arin
guèrèni
▁Votre
afé
▁djeme
▁interdite
▁wé
oppose
▁Téréman
▁Imaginez
▁dɔgɔni
▁CPM
▁sekoyé
▁vapeur
▁Camb
▁Bo
▁eh
▁kôn
▁enregistrer
▁école
▁posé
grasson
▁somôgôya
▁tiigui
▁Tokyo
▁détruite
▁miles
kla
ocket
▁Sant
▁secondes
▁Main
▁dangere
▁dohou
raigslist
▁travaille
▁huit
cot
▁attirer
▁demisseinw
▁ti
onstr
▁avionso
seli
adoréan
▁sourou
▁négoci
ited
jeté
▁serveur
lon
▁invol
mes
ayaman
▁$22,500
aide
▁sociales
économie
▁bangera
▁détenus
▁autorisés
▁djolo
▁fanila
▁Bato
▁Harv
▁kilomè
▁Zimbabwe
▁visiteurs
▁gbou
districts
ouchsurf
▁Iraq
low
aimai
▁subsistance
▁degue
nas
▁demba
▁boomerang
▁copain
pén
▁inférieur
▁4,2
▁intèrinèti
jikônô
entr
sasauru
▁tempér
▁fiyè
▁fleuves
kouna
▁La
ties
▁paralympiques
eru
▁danya
▁catastr
▁Deita
▁bleu
country
▁toga
enser
▁fatchè
▁vand
▁goundo
▁hôrônya
▁récré
▁plante
gn
▁atroc
imé
▁données
▁Veguila
rên
▁remplac
▁stands
▁Fergus
ticli
ponais
▁scientifiki
▁linguis
▁Fred
▁molo
▁dijdjala
accessi
▁sonni
ssôbè
tôgôw
▁envis
▁prolong
▁te
▁excursion
▁Yose
▁aîné
▁extrav
▁atmosphère
tilis
▁Moriori
▁astr
Pét
ead
▁espa
sez
▁faveur
mong
négativou
▁célébr
▁roussi
▁consid
▁niniw
ā
▁es
mmintiya
▁kossô
▁fleuri
▁racines
▁Bucarest
▁réc
▁richesse
▁permettent
atement
▁Dôgô
gap
▁espé
ichella
▁munumunu
▁dentiguè
▁lakali
▁séries
▁lɔni
bɛr
▁tard
kɔrɔbaw
▁ancienne
▁pologne
try
▁Tènè
tabaya
▁réels
▁épuisant
aller
gati
aule
▁manipulation
ssélà
▁Barc
▁négative
▁sanfei
▁rat
▁refusant
▁succède
▁goûté
iles
▁Mersey
▁gnangnini
▁gnou
▁crédit
gbo
▁député
laman
▁nɛnɛkiri
presso
▁fonnon
▁manges
Autrich
▁Halisa
▁droni
wôlônita
▁coal
ocr
▁jamanw
▁testé
ilation
▁rappelle
▁falefenw
▁ɛr
▁tropicale
talla
▁espérer
kalo
▁entraîné
▁artères
barakan
▁websites
▁famoun
▁Saraba
▁déguéré
▁mangé
▁prim
ougan
▁Javanais
▁mogô
▁éme
▁trent
▁fiche
Abu
ig
mètèrèkènè
ssonsiraya
▁nogoya
▁tchèmi
▁araba
▁rejoin
▁porogara
rangongo
▁émeute
ibution
▁sabu
▁dégui
empêchant
▁étais
▁lasse
dougouma
▁Fall
▁kôrôla
oen
tifs
▁binèri
▁kèmèsi
▁Range
▁manquer
élérer
▁inventée
cker
▁Hamil
▁Hamburg
▁amoureux
▁sibangazi
bah
autre
ude
▁périph
▁Trinity
▁combat
▁HJR
▁flènié
▁Séé
▁Oyé
▁Dôtôrôso
▁koronan
▁comptoirs
▁alimentaire
▁demi
▁semences
▁cein
bèè
sych
▁attaqué
dili
▁asynchr
▁bissi
▁dansa
kɔn
▁daro
▁lanyé
▁fôlôw
▁lacé
▁semble
▁terr
▁assurance
▁boules
▁barraw
ichard
ápagos
érable
▁affirmé
▁wéré
▁maltrait
▁emma
▁navy
▁dansi
or
▁baske
▁electr
▁côté
nkuchen
▁remporte
▁tapi
▁beyi
▁King
ouragan
▁trait
▁dépend
▁fél
▁pleins
▁célébrer
▁tchaamn
anie
▁bagages
▁Yarmouth
▁1998
obtenir
aube
▁lukɔnɔ
▁gbèla
immédiat
▁condam
dénw
ɛnw
yéli
oston
▁djakouman
▁défaites
bôkuma
▁us
▁hampsire
▁lalôla
▁nogoyali
indou
▁Cet
▁yàràman
▁presidan
▁Ath
accordent
ouer
▁764
▁catégor
▁akonnoon
eirèfè
▁Cocha
▁Gro
▁affectées
▁mener
ive
ochtones
lulaire
arrê
▁loir
aures
Mongol
▁ojogo
▁yela
▁Slova
▁Angélétèri
▁projeté
▁Ninman
▁organisées
▁vert
▁Gourley
▁Huh
èman
elles
▁développ
toiti
▁peuplé
▁dɔn
acti
FTA
▁siban
▁valise
▁mène
▁1950
▁dugalen
▁flot
gnèn
▁Cadwalder
arou
▁produisent
Karab
▁détourn
▁obstacle
▁Val
▁terrif
▁Trygva
▁italian
▁?
▁klankè
▁choukoya
▁chégui
fe
testin
richi
▁résist
kôrômadèmè
▁mort
▁paup
gné
▁grad
▁doumouni
▁kandè
▁1818.
▁kèwaliya
▁djagboya
you
daga
▁damina
amine
▁mobiles
▁battait
bo
▁pompage
meras
▁gourous
o
lomb
▁par
dio
èlèya
▁tagaba
▁tenir
▁formellement
▁as
gsmarine
▁djegnan
▁Alas
▁»,
orgor
ctimiw
▁appelé
istant
▁mag
▁Danielle
▁mbi
▁Zambien
▁spécial
zz
▁Nyirag
tè
▁chambres
▁kuruli
▁bajiw
onnent
▁collectif
ter
siraw
mogo
iliyon
entif
▁akili
▁sankubèn
▁Antartica
▁dôh
▁labè
▁Touk
informatique
▁heur
▁kassa
chi
▁tôlonton
▁espérance
tense
▁frappé
ave
▁nuirait
▁mouso
▁edi
▁Filipino
▁passeports
▁telia
▁cont
▁sonde
▁renvoie
▁distin
nessy
▁Zeruzalè
▁Mora
▁bissigi
▁confir
▁haut
▁arabu
▁difficulté
oyau
andis
▁chutes
▁Sclé
tinér
▁hors
lée
lle
mɔ
▁conseillé
▁gnananko
▁cancer
lantéli
▁sôngô
▁géotherm
▁veux
▁sortez
▁réside
tendo
▁kɔmi
▁dange
ands
▁meur
▁touman
DA
▁allumé
hraib
▁lasséli
▁celi
▁fransi
▁Pen
▁tina
▁sigɛ
▁conte
▁mule
▁redout
▁kateme
▁djoona
4–1895
inc
▁missikara
▁kéré
▁Mas
oyer
▁Barisa
-191
▁kimmin
▁bayé
▁makoun
▁Greenland
▁fénkoura
écriture
alli
▁faghara
▁kmêsi
▁milimè
▁woteli
ailleurs
▁Paulo
▁nousson
▁Nove
▁watira
▁Grèce
▁nafamafé
▁Dani
▁dynastie
▁fôtalan
▁machines
▁olou
▁1835.
▁repérés
▁forfaits
▁Lun
▁Alph
assemblée
▁éthique
▁Rodrigo
▁ladahani
avocat
imah
ongueur
lani
▁Kèlè
▁zapon
▁hypoth
▁bolifin
▁jina
▁po
susu
▁bru
▁tèmèna
▁périodique
▁Bell
▁balao
▁lawèrè
▁coûté
raïque
erez
▁mortelle
▁myo
▁Zambie
▁suiv
kun
▁liaison
sivité
39,
équitation
chon
sements
▁touchées
▁obtenir
pee
▁Texassi
▁évé
▁bass
écris
▁étage
▁relégué
▁kèlèba
▁naval
▁Daes
woronfi
▁tous
▁tannin
▁donnait
▁prévoient
▁route
▁ladjigi
▁pénales
▁bonnet
ionn
▁dèmin
▁kibari
▁kibaro
tere
▁yach
lanw
lando
étab
▁bretɔn
lément
ouw
odin
▁mens
▁désirs
reifei
▁léon
▁électoral
▁Lee
▁monument
▁Lufthans
induw
▁portes
▁céc
▁ladjigui
icol
lugu
▁réel
bena
▁kagnanla
▁bactérie
▁kama
▁divorce
▁sagas
interrog
▁limitr
▁modèles
▁ordre
anth
▁fanbè
▁profe
▁somôgôw
▁rectang
kola
▁jeunes
▁diyan
▁écrire
▁ambè
zuela
▁pômou
▁dourou
▁reprendre
pér
nistrie
dro
ines
▁sabbatique
▁Japonais
▁rendu
▁Ligurie
▁deni
orydallus
liers
▁chino
▁Francis
▁croyant
list
▁afôra
allinn
jour
ngyi
▁larges
suedi
▁benniw
▁dimi
▁répons
enegger
ont
europe
▁exilé
▁Jamie
▁College
urudju
tôckiw
quie
▁entreprise
▁kôri
▁boston
▁skieur
▁incroyable
ohutukawa
sè
Bush
▁sigibagaw
▁laa
èrein
▁duga
avis
▁Ko
▁équipes
▁tent
▁Gnini
▁Dilok
▁fol
▁efficacité
▁Les
azote
▁deinw
osphère
▁nez
▁sikoulou
▁fuite
▁tchogodi
▁Costello
▁kèreinké
wajamana
▁same
erhane
ification
enfer
▁dessins
▁carte
apagos
▁Indi
kouroun
▁kalafiliw
▁Afghanistan
sitition
▁Olimpi
waati
▁tragique
▁djin
▁vitrés
▁Â
▁DVD
▁mélange
▁Edi
ai
▁nyèsile
▁Yèlèmani
▁indépendamment
▁êtes
▁aimons
▁incidents
▁kaba
▁progr
▁commissaire
▁avent
▁questions
▁cit
▁plane
édrale
▁Santorum
arbre
▁currys
simi
▁aub
▁yirali
▁vivant
yptées
kɔnɔfɛn
oure
▁traditions
▁Xiaoping
érat
▁Ji
cheng
▁Grande
▁comport
▁cafés
▁Erdo
▁Ethiopie
▁São
▁AOL
gir
oprié
▁vér
▁correctement
▁Dôn
turne
▁loups
gers
▁Petersbourg
gnana
▁enjol
mment
▁Brisbane
▁synonyme
▁nei
▁kafô
hn
▁nôrôla
▁fouroula
▁Déc
érésiden
asse
iterranée
▁neuv
▁monarque
▁feri
geria
▁(02
20-160
ssôgôssôgô
▁enfant
▁Schleg
▁constitué
▁crim
soba
xiou
▁est
▁gbèrè
▁plombèri
▁tônou
courakan
▁fitiniti
acués
▁camper
▁bougou
▁lafi
▁keimin
delogolaou
▁Sabou
▁binairi
▁News
▁toun
Antarctique
▁Son
▁rou
▁toug
▁Pintitri
chement
kanto
atterr
▁pendant
▁gnannanman
patic
▁104
▁pill
▁suscep
▁laereya
▁tôgôw
ologne
affecter
▁site
▁séguila
▁flux
▁délé
▁généraux
▁congé
▁champign
▁provo
▁niguê
▁différentes
▁handi
▁kokè
▁warayé
muyani
▁immense
▁poroga
▁yalala
▁Djamanna
▁attent
▁voter
▁Solank
uctions
▁Jeremiah
guilla
tions
▁bruine
▁lɛ
élas
▁Journ
titudes
▁mauvaise
▁torgor
▁mendient
yôrôdow
▁miniti
▁Sha
▁yôrôdôla
▁haramuya
▁précision
autoroute
entraver
pia
imprimée
▁bout
▁sigin
▁Epi
▁croyais
ob
▁sourô
▁Muhammad
▁Mayorki
paniola
uli
▁situé
▁appareil
▁copie
isp
▁dounia
▁classes
chrétiens
▁kissè
yez
tax
uridae
hog
enquête
déjeu
▁tigɛra
▁affiche
▁canaux
▁kohu
▁Mana
▁sârâ
▁Nèguè
▁chaussettes
▁num
ho
▁latéri
segui
▁tilali
▁satel
▁censure
▁clanje
end
▁Shet
▁possèdent
tècussi
▁tɔriw
▁lawili
onso
endurance
▁rapidement
▁Ranger
iez
▁salaire
C
▁var
▁dimanche
▁nianyé
▁koum
ocirap
élé
▁sèguèguè
fefilenanw
issent
ercice
▁béna
ict
▁vente
▁rencontres
▁Tchèque
fôlô
▁Danemark
▁Rouge
▁inaccessi
▁millén
▁travaillé
▁accidenté
▁olékoson
▁intèrnèti
gnagbèlaw
areils
▁franca
▁constitués
▁yan
▁restaurant
charg
▁Princes
▁Brans
orégion
▁feraient
▁wôrôyé
▁lapins
▁diguin
▁Dane
▁fenn
TT
▁taran
▁wuleman
▁absents
▁kenmin
▁Gouèlèw
▁ent
tani
▁Kêlêkê
▁labɔ
▁finètri
église
▁continue
▁bɛna
▁tebenan
▁divine
▁matchs
▁yi
▁môrf
▁Utha
▁Carp
trogéni
▁Train
agriculture
▁cybèri
▁gouniw
▁blesser
▁symbole
▁kili
umthan
▁offres
▁alibi
▁dunandon
▁trains
ther
▁hotel
dyssée
▁dougoudén
▁température
ɛrɛn
▁jadon
kounan
munu
▁mis
▁quinze
▁ladé
▁causer
tinel
▁dominin
▁damaninw
▁2020,
▁dévasta
▁hériss
▁totale
▁resta
siste
▁sarl
▁laiss
▁laloni
arenia
▁distants
▁poète
▁frapp
Pitts
▁wouri
▁Perry
▁1.1
▁lait
▁habitat
▁miriya
▁boda
▁nikan
▁norme
ridge
▁céléb
▁marocain
ergée
▁kagwèlè
▁za
▁tlo
▁UNES
▁pouvoir
▁sosètiw
▁materne
gation
Est
▁charrette
▁livrais
▁précédents
▁impact
uration
▁Gnala
ssékoyira
▁Pa
teske
▁Okèla
▁masuba
▁nignaw
▁gnômini
▁gou
wale
antal
▁koulouwo
▁fessè
▁activité
yêlêla
Bas
▁shibo
▁infectée
▁fôni
▁néglig
▁bouddh
fonyé
▁enlevé
Up
ouret
▁dansigui
orelles
▁Tuttakha
▁okmi
▁développé
▁filèli
▁lourô
fo
▁Va
esearch
▁Min
bli
▁héros
kɔrɔ
▁funteni
▁pinson
▁kounkènè
▁funuf
▁kolonni
▁Avenger
▁vitriw
▁hara
▁sac
▁couvrir
▁Gnamôgô
▁cher
▁Kowloon
▁demand
▁goun
kounabô
▁filiz
entrée
elén
▁Woro
▁Onega
▁kôrôssili
nafolo
obscurité
▁gratif
▁Cami
itt
▁Maroc
offrir
▁quai
▁konondô
▁owaati
▁dotée
▁sanfiye
▁décisive
vidde
▁réfléchir
▁sanguin
andahar
▁Flight
ades
▁koss
▁médecin
jian
▁Puis
baliyala
▁dès
▁précédent
▁ADN
▁nunuw
▁Inka
ovis
▁couvertes
êtez
▁fangante
▁bibliothèque
▁djarati
▁bâ
okda
▁vallées
▁anidô
▁profils
▁nécessit
▁goro
Équateur
trou
ssila
Fi
▁ressortissants
ettre
▁atouman
▁pacifi
folro
▁dɔgɔmuso
▁lamô
▁météorologiques
▁Diego
▁balôntan
▁Kounfan
▁welekou
▁balaw
▁konon
▁photota
▁lami
▁laminini
tata
▁appelée
objets
▁Libre
▁cinqu
▁bogna
oudhar
▁iss
▁gouvèrènè
▁plaît
Ari
▁dég
▁variantes
yongonnan
▁dimanba
wart
▁Néan
cutif
▁Letri
▁Histor
▁sachions
▁kakan
▁Flags
Riomaggi
ão
▁débarque
anagbè
▁Hos
èn
▁rare
▁kolɔn
▁parlait
ustave
▁plaira
▁auteur
▁teh
▁raci
-2.
▁Noweli
▁Norv
▁botoh
ch
▁approxim
▁tê
▁au
levait
▁chimique
llez
▁sôrôdasiya
ogoh
▁fâ
▁distances
▁épaule
▁olu
▁vagues
attentat
▁séc
▁tena
▁obiti
▁dépité
▁alà
▁seibi
▁fôlô
▁Jude
èv
▁siècli
olture
▁ext
▁Alliance
tention
▁sôgô
▁siam
over
▁voir
▁filante
▁Si
▁suscité
cianw
▁djikônôn
▁jèn
▁représent
sulate
han
por
▁Guru
mèri
▁touma
▁éloignées
▁gbèman
▁Allemenw
▁charibon
Bumthang
ounan
▁djoumalo
▁djaabiw
▁Première
▁Audi
Alex
▁djinkoulou
▁démén
▁clos
▁léopards
vé
vélopé
▁Ouïghour
▁censé
▁photographe
▁Naw
près
▁hee
▁gnassôrô
▁phénomène
▁médailles
▁aka
yèli
▁facilité
gre
ruption
éc
▁2022,
elénni
▁anvôlopu
▁sababu
siw
▁seen
▁sache
▁meille
▁supérieurs
▁dounignan
dicule
▁infrarou
gɛnin
orp
▁Taganan
▁nanfolo
▁appuy
▁binaire
▁intéress
▁hotels
▁Met
▁lanaya
▁Jimén
abes
▁ayra
▁fond
▁fossiles
1.5
▁Autra
▁réseau
mper
yne
▁Floy
▁kênê
vèrsion
▁vérifier
ctée
▁tr
▁pirates
▁maɲ
ellent
inata
irait
▁disent
ena
▁personnages
▁créature
yeelen
arquée
siguiliw
▁tche
ontinu
ok
▁Angel
▁vivants
▁Tandis
▁cherchaient
▁lunes
▁aériens
aign
yɛr
yanin
▁kɛra
▁kassôrô
ulijala
▁fisa
▁arabanna
▁méridi
jon
▁kabaw
fewso
▁mammals
▁160
rè
alisme
▁molecumi
▁kalo
▁kenen
▁abi
▁Finyé
▁étonn
▁dio
▁exigence
▁sentiez
▁indigène
▁erraient
hnom
uler
▁cl
▁parodi
▁Sena
▁aki
primes
▁bougô
▁dra
▁un
▁tis
reint
▁glacé
AL
▁miridô
▁ofaga
▁accident
ippe
▁alasséla
nakourouni
▁bougna
cip
▁canal
▁Yanan
▁dani
▁Mangola
▁acha
▁Agen
▁kii
versité
▁frot
bye
▁poursuites
▁allerg
baro
rit
▁vigil
▁nagaçi
igu
▁magn
▁danfew
▁badala
▁djôn
▁satellites
▁Aristoti
▁amina
▁indemne
omètre
▁baptis
NU
▁yananman
▁poussée
▁conse
▁légers
ssili
ographe
▁Coper
▁étudie
▁Ameri
▁miliyari
▁circul
▁vitrine
▁kalifala
olètes
▁djidiali
▁peuvent
▁bataille
▁PE
anis
▁confirmée
▁fouran
aér
▁tension
▁stella
▁ketchogow
▁5-3
▁saaba
sa
▁laqu
▁Daka
▁associ
▁ressusc
▁préférable
▁adultes
ingt
▁bate
▁politiki
▁Marsi
▁aventure
▁présiden
▁capacités
▁rejet
ahne
▁Allahw
▁exerce
▁Apple
▁Romains
▁utilisation
oré
▁africaine
▁Khandelwal
▁toro
▁kaho
tin
▁Kôrô
▁fankele
▁baaraniw
▁Okela
épicentre
▁Misira
▁Konserva
▁bulon
iron
▁tchen
opithecus
▁marchandises
▁yoroni
▁fruits
▁bônmina
▁suscitant
▁exo
astings
▁magaz
uitement
genfaga
▁kononton
▁biye
▁drôtô
▁Olinpiki
am
▁Adam
roven
▁dablaliw
▁orbite
▁baimanw
▁décrite
ɲɔgɔn
kkha
aix
tuari
▁barrage
neapolis
▁échouer
▁seul
beni
ences
▁Gou
osex
onasteriyé
▁condi
kônôn
▁intense
▁nevers
▁béhi
▁Li
▁Minisiri
bai
▁transc
▁Guilacé
▁nov
▁salée
hospit
▁jamakula
▁espér
▁Sheri
dain
gnagbè
augmenter
▁plantations
ules
onserva
olofôlini
maya
shche
oux
▁koréen
asco
▁sɔrɔla
▁mogoya
▁Bu
treize
▁rass
▁Môgôhou
esses
▁Cour
Ins
▁paradoxal
▁labatoya
▁Alliés
▁éveillée
▁Serengeti
gli
▁yinika
▁gnini
▁composante
liquent
bariya
▁acier
▁page
▁monn
Organis
▁tagafèn
▁prépar
▁diplôme
▁Kahne
▁Jui
Arménie
▁niguêkan
ynx
évaluer
▁waraman
assium
kismou
adio
▁Patr
▁nôsé
▁arakaw
▁Vérifiez
usent
▁tôgôssèbè
▁aci
labanw
▁sannira
▁turne
▁dis
▁Chase
▁représentant
▁pourvu
▁eco
▁hivèrifè
Israël
▁2020
▁djuguman
▁ikomi
▁Shoo
timale
▁Mérin
▁drôn
▁pourrait
▁internèti
▁kèbaga
▁Italienw
▁dôlôtôya
issue
▁600
Marie
▁mafiya
▁kalaman
▁yorola
▁naw
▁cray
achym
▁temp
▁Darwin
commun
tch
▁marko
ala
ars
roatie
▁koumanto
ella
▁quitter
▁symbol
▁signan
▁nason
▁mise
dilaw
èli
délôgô
▁déd
▁manyé
▁marki
▁dôkôrô
▁javanais
▁Faraonw
▁Lôgôtchè
▁Gnanagbe
▁illustr
▁cee
▁extravagant
zin
▁1624,
ighme
▁api
▁analog
▁toilettes
école
▁biw
▁QC
dilila
▁minanfe
▁élog
▁tronc
ina
▁such
stan
capitali
kadjô
▁diinan
▁Nous
mɛn
▁matôgô
▁honnête
▁itounka
▁bless
afic
▁Rép
ise
▁korhor
ochamó
▁Sanfè
▁virus
anc
bur
▁kofônibè
▁mu
▁kɔgɔ
▁riait
Oakland
▁Metro
▁djamafê
ésil
▁placement
ungle
▁ami
▁comesti
▁Filip
▁Tomb
▁stand
▁Jamananw
▁tuba
▁neuvième
▁jugu
▁tôgôye
▁mobiliu
eurs
▁passées
gura
ichael
aye
écu
▁kêrên
atives
ALM
▁pɔri
trôsi
▁provoque
kini
▁scandinave
▁jɔyɔrɔ
▁kilasi
kelen
▁pesé
▁scanner
▁replier
▁travaillant
yôrô
▁sougouw
lunkutuni
dougouba
▁don
lus
▁barbes
▁kɛn
och
▁Casey
▁Anta
▁exerçant
▁soufè
gnèliw
ourage
▁Kowlo
yèn
▁lodola
wan
▁Cliff
▁plan
thel
▁chanté
▁clavier
▁Pra
▁va
djini
▁gardé
▁Accordion
▁caca
▁Tchin
▁verrai
▁aimais
ɔna
▁parlementaires
▁Maori
▁Templiers
▁exigeant
ethnique
éducation
▁nonni
▁tôgnon
▁jin
▁phénom
arde
▁cousin
▁ref
▁partager
▁Kouma
▁Whirling
llectu
▁suguru
uites
▁Dougoukoro
▁orages
▁doun
▁lɛri
▁Atilianta
lama
oqué
▁fenètri
▁locuteurs
endent
▁furu
ateurs
massion
Wales
▁misèn
▁intelligente
avirus
▁PA
▁été
sement
▁producteur
aisseur
▁issa
pa
▁considérés
▁Haut
▁jud
▁singuli
kolo
▁mythes
atif
oproc
-96,
▁181
▁Homère
▁bɛra
out
étition
khamun
éra
▁nâ
▁bese
▁stimul
▁Faso
Égyp
▁bor
teauw
issaire
▁naninan
yɔrɔ
tifi
▁barralaw
oiseaux
▁refroidit
ua
▁fagi
Unis
▁donan
▁regr
▁tougoula
▁roman
tarali
rengéti
▁Hong
,000
que
▁tinmin
▁soukarou
▁epi
▁dorô
▁perdue
▁gazôn
▁fliflili
▁Whitehall
▁ignorent
iversité
▁teliman
▁kologolo
▁personnelles
▁dôyé
▁veut
ffalo
adsi
phinx
▁kalanbon
▁promis
▁participé
▁ensemble
▁améli
lantiques
▁bôssili
▁tumbé
fan
▁Sen
▁pav
▁découvert
▁Luno
▁Haiti
▁mourou
stone
▁natation
▁Calle
▁façons
▁facil
▁degré
▁française
▁kalagna
▁piscine
▁tsun
activ
iétés
▁Olugu
nements
ultez
▁Punjab
piteri
▁abenan
▁études
▁courses
▁défin
▁craignait
▁Haw
lɛm
▁Euro
▁Ihé
ays
▁mardi
ieu
▁parc
▁Hiring
aire
opr
alisations
▁Rotorua
▁limit
▁Olympic
annonce
▁déconc
▁kôgôya
▁talonta
aces
▁vit
tissements
ingb
▁Shi
€
▁duré
anthropus
▁hindoues
▁doumoudougouma
amanan
▁limitées
▁1922
▁aimait
gnêdo
mouni
▁téléphones
▁origine
▁diɲɛlatigɛ
▁nove
▁purke
▁Plus
tiple
▁Arba
▁Kodi
▁lajén
▁Bridge
▁satelliti
▁Ewing
▁ventes
alec
▁thèmes
tou
ambition
inan
▁maisons
▁autr
▁déposée
hngan
▁kelaw
▁John
▁fotota
▁scénaristes
▁Dail
djigini
boardin
gata
▁tempête
Arist
▁tenait
▁tex
gment
▁donnez
watiw
▁balon
bei
no
▁wɔrɔnan
binla
▁effets
raib
▁Fernan
▁rôle
▁kamaso
sionnè
▁députéw
▁évidemment
▁continent
aptis
oiseau
▁nordi
▁cyclisme
offre
▁Yasovar
▁Grid
▁gnagbe
▁Duvall
▁oreli
▁hâ
▁adjoint
cé
▁Mukoson
hôkè
▁massif
aniya
▁Tibetan
▁ég
▁aben
▁kôfê
▁sèbèlitchogo
▁empois
son
firiki
▁2,
▁solutions
▁détaillée
grès
▁directe
vech
▁tchêfa
▁sceptique
▁conception
▁Alleman
▁déplacements
exposition
▁croisières
▁temples
▁Policiw
▁Yosemi
▁meleke
ron
▁186
prét
▁Filmou
▁yɛrɛyɛrɛ
lorusse
▁Dilanbaga
ôn
▁principal
▁cependant
▁renifle
thic
▁parvenir
▁relancer
▁cy
▁dabi
▁Zagros
uxloe
waZ
stiki
▁yêrêyêrê
▁Gize
▁bélébélé
▁taaga
▁Slov
amment
orme
▁Tègui
▁sanfin
▁march
lanikaw
létèri
▁dawoula
▁méridionale
gnongonya
▁datougou
▁douane
avènement
▁Israël
andre
lini
▁COVID
▁lonniya
atrium
▁neguè
oquant
▁colonial
▁veu
▁foundeni
▁placé
aillance
▁kela
▁dispon
▁pasélan
quinerie
quin
▁djoukoro
▁rentrer
▁métallique
▁bav
▁dangereuses
mantɛmɛ
erse
▁fix
▁relevés
▁seu
▁kênêma
istrates
▁labla
entielle
adies
▁figne
NED
ur
▁reprit
▁enter
▁sɛgɛra
▁balawou
attend
IH
▁kounanfoni
▁balbuti
àrà
▁Fougan
▁mentir
▁ladjôli
▁expériment
tignèn
koulou
▁réalisées
▁mimin
▁Ga
nonniminan
objectif
▁positi
extGen
▁arrêté
attaque
▁Fer
▁Sani
▁apporte
▁expression
▁faire
fois
▁tôgôma
▁An
▁1,5
▁Namgyel
rès
TA
anthrop
▁sid
▁Yeli
▁vêtements
▁pole
atom
▁cyclone
▁science
▁obscure
▁aviɔn
▁dégât
▁dilanan
▁US
▁biliw
▁tekele
▁supr
▁besançon
,”
▁parti
étudi
oû
azza
▁quarts
▁Gols
▁mille
▁accordée
▁TogiNet
▁évolué
▁budg
▁sensori
kɔnɔn
▁brɛ
▁daminɛ
▁visa
▁sougna
▁frin
▁gnôgô
▁kɛr
▁tôhouw
▁Coungoconon
▁masacɛ
▁sega
ben
▁ann
▁envahir
aréfie
opithè
▁pèseriez
▁sauf
walder
▁méth
▁darike
▁mafara
uvall
petits
ination
▁Vallée
▁sebagaya
▁micros
ath
ovié
tèmou
▁ladina
▁chambre
▁innov
▁Christi
▁Ald
▁korfè
ɛlɛya
▁damaw
ɲininin
▁baju
▁volet
et
▁tarif
▁Duty
▁ros
▁tulon
NE
endelwal
▁églizi
▁répandue
▁nɛrɛmugu
ikep
▁rendues
▁Jege
▁guère
▁kahan
▁siguiyoro
▁tilema
ârâ
▁accep
▁galon
▁gintanba
▁wolonfila
▁Nation
▁étaient
ɲɔngɔn
▁douwawou
▁Saboula
▁katagama
▁tɛrɛn
▁$100
sile
▁konodon
▁Gore
▁Sotigui
▁gouni
hegi
▁maaradugu
▁stéréotypes
▁entourent
▁jours
aum
agé
▁cessent
▁gbin
▁catalan
▁siniman
ari
toinette
▁Voti
bôli
az
primer
▁précis
▁soumettre
▁touminè
▁sug
erque
▁liza
ventu
▁Chine
ynchroni
ozamb
▁sèbènin
▁Rainbow
▁tache
▁remplacer
▁Sl
trine
cessions
▁Ephesus
orb
▁dinmini
▁sennayaala
CAf
▁Jésus
▁gnagban
mos
torales
▁pr
▁voie
▁Westjet
▁dän
▁surugnan
▁vén
ien
▁aident
éf
▁lions
▁mayara
▁prenez
▁seba
▁tchian
▁viend
▁carrière
▁jaune
▁soow
▁demander
activité
▁Djin
▁karila
impôts
vaquie
▁telefoni
▁bisabaw
ristoffer
arrestation
gun
▁norm
▁beye
act
riya
▁Auck
▁Galille
▁Flori
▁ladonyia
Proven
▁kun
ictoria
▁(1644
▁kɔnɔninw
iménez
angr
▁langue
▁gagnéla
▁recherch
alifax
rya
▁Goundo
daya
▁caméras
Haw
▁suivants
▁Kese
▁jagabɔ
▁conscience
▁tentatives
▁varie
▁Alors
▁Farila
▁jamu
▁cann
▁ven
▁piè
trellas
▁yéwu
▁nam
èni
▁eut
way
▁expl
▁apercevoir
lino
▁Faragbgè
▁fignèw
▁délivrés
▁sinaya
W
▁Para
taniu
▁pèse
▁dafani
▁aviôn
▁aviyônso
èr
▁werela
▁respectivement
▁capturé
▁juste
▁bônan
aibl
▁oye
ayat
▁fanfè
▁tèrènè
▁Sundarbans
▁piano
▁Carpenado
sylvan
▁—
▁Djaa
▁tiguèni
chikèlaw
▁djanyan
oroba
▁yèlèla
▁bourou
▁hen
▁ça
▁ssé
▁trouvent
▁béyi
TB
siɔn
asebo
▁gnigni
▁facɛ
ollage
Autr
enj
▁positive
▁normale
gnô
▁ladjèla
ɛni
effondrer
▁formelle
lenw
▁yelemani
▁lôlira
▁Soviétik
BA
▁kôradén
mɔr
afokeng
▁puw
pleins
▁weleli
stice
▁phara
▁illustré
▁envoy
oler
▁Westj
idi
invasion
mpto
▁vertu
enseign
▁cérém
▁Vietna
▁Center
djougou
▁pourvues
▁manquant
manyôrô
▁révision
▁bienjan
▁kitibon
▁octobrou
▁peup
▁Byron
▁cathédrale
▁Manche
▁promouv
▁Roi
▁zéland
▁télévis
ensions
▁cérébr
▁canard
pital
▁delilikan
▁petit
assurance
athlè
iers
▁VTT
▁prononcés
waZulu
▁curan
▁Iw
festan
marchéw
▁mourir
▁Cambodge
▁kônôféng
▁cout
illon
▁éh
▁rouges
xide
achis
▁regarda
▁kônônas
Bi
▁dugukol
▁sétidj
▁dƆlƆ
urer
▁Par
▁dankan
▁éventail
bɔra
▁ôrikidé
▁kono
▁anh
alawan
Intihu
▁rɔs
▁Koulou
▁minoen
cueil
sôgô
▁importance
ôts
▁pauvres
▁nazara
étaires
▁raides
▁1839
asion
chlorure
naw
▁liège
▁reconstruit
prés
▁plaintes
▁djéni
onction
▁reçoit
7,
farni
fre
▁comparer
▁liens
▁directeur
▁fiéréla
▁matches
▁tagaman
mênênininw
▁camion
▁Mecque
▁free
▁sanctions
▁Jeff
▁genre
▁ha
erz
▁technologique
▁logobo
▁Shiv
ayy
▁aidés
▁djouman
labolo
▁distinction
ekaw
hindou
▁héli
nuba
▁dauphin
▁yɛlɛmana
ringi
▁ayerela
▁exemp
ui
▁vos
▁nyamogo
▁dohwere
▁Wé
▁Poh
▁responsable
▁résumé
erala
boli
Sarasvati
▁longueur
ophysique
▁Sosoniw
▁kanu
▁môni
▁exh
burgh
▁graphique
ɔɔrɔ
▁Gos
▁turc
▁seya
▁siko
.)
▁flan
pr
▁répar
ombiné
▁dencɛ
▁respecter
▁examiner
▁tana
▁Estoni
▁spéciales
▁dogole
▁yôrôw
honorer
▁mémoire
▁boon
▁tchili
▁Animal
▁gnalagbè
▁juwên
▁horl
▁classer
▁potentiellement
▁sosiété
▁photographie
s
▁nijuguya
▁yƆrƆmi
pas
▁dan
▁Vene
▁mitè
▁nerveuses
▁AD
▁invisible
▁t
▁Oka
wgolo
▁lafa
▁Shivaji
▁woloba
▁wati
yôrôw
▁nin
▁dabôli
▁victor
ieurs
tassium
▁dou
podi
▁sumaya
▁incendie
▁élè
onirost
▁sédi
dernier
▁maladies
▁chiennes
▁province
▁poids
▁coun
nei
▁proki
flè
▁sw
ki
▁cii
méli
▁wara
ricain
ségui
▁objet
▁sectaire
▁Yama
raî
▁danan
▁nécessité
▁métro
▁Dakabana
▁chère
▁gravir
▁kamana
risi
Eysturoy
▁fangaw
ouroussan
egi
▁slo
▁ohé
gonan
Amazone
sionne
▁Hussar
▁djossa
▁fonctionnaires
▁rétr
initi
▁kôtugu
▁obanan
▁gnonkan
▁Starmer
▁Z
▁siɲɛ
▁répondre
▁tot
▁Deuts
▁débuter
▁bàbla
antaf
tulu
gamuli
▁provin
▁dinan
▁min
aux
kônôni
▁pénétrer
agati
▁problème
ardust
dier
▁Wlad
sebenni
▁bret
frey
éli
▁labato
▁wolossan
vi
▁meda
tiguèw
élo
rimatiki
▁120
▁sogolan
▁Nixon
▁Nikola
▁protection
▁avian
▁Pitts
▁sei
▁damiɛn
▁reliées
dekoya
▁Miyé
▁gɛlɛya
▁Pekin
▁Baato
▁!...
goro
▁Binganli
▁binana
▁Athènes
tres
▁diinanso
rias
Z
▁nommé
▁akuntala
▁katikati
▁River
eli
fen
kula
▁franç
▁yèrèman
▁mara
▁
▁babo
▁baarakeè
▁nègè
▁kɔsɔn
mbu
ouma
▁guépar
▁lônko
▁griffe
▁dongui
▁ikara
ern
▁chré
▁kokètabè
▁gbissili
ompét
ênbêrên
▁radio
▁kèlèkè
▁violé
nation
avier
▁senaboh
▁cultivée
▁transcription
▁flotter
sovar
▁télé
instruire
▁quelqu
vri
ng
▁arborait
augment
▁proportion
inoff
vid
▁tɔgɔw
SWAP
▁Seules
ayr
sébana
▁détec
]
ougoun
▁eau
▁math
ürse
était
wôlôman
▁michi
▁révél
keleman
▁filê
▁relève
▁Global
▁Dougouba
▁Golfu
bagatôw
▁Constan
▁Chatham
aff
▁stabilité
▁logis
télébé
po
astr
Haïti
▁ɛntɛr
ivresse
▁kôrôlé
▁Ethel
▁Banbaga
▁welougou
eiguew
niyara
Utah
▁lalô
▁affectée
▁enseignait
éduc
▁immig
▁Sullivan
▁betu
kara
drillo
▁commune
abord
mie
zô
délôgôlôlaw
ortu
▁meilleures
hentique
▁mirage
▁$1
▁débarr
▁sé
ours
UNESCO
▁biganw
▁refroid
▁Cuomo
▁Mou
▁féréla
▁gbanz
▁géof
▁publication
nènin
▁1976
▁Artici
prit
ū
▁importants
gouv
lahou
▁(149)).
▁contenus
▁caa
▁no
▁aman
▁kônnôn
armée
▁nisondia
▁division
vɛl
▁54
gbèn
▁lamu
▁dogotoro
▁sêguêssê
▁piège
oppe
▁gnanagbè
▁Flotte
▁berline
▁distinc
▁soudaine
▁stimuler
shannessy
▁lafinè
▁pense
tor
bune
▁djatéli
▁Amerikin
▁jaurès
assurer
▁couleur
▁Canyon
phabet
ata
▁Bishkek
anitiques
▁saint
▁labèn
ordi
arade
▁tôrhô
èses
Ka
▁Security
▁Baliya
▁provient
▁loon
▁Klöcker
tɛni
idée
▁lasigui
▁banabolo
▁cr
▁téé
▁bénin
▁parcs
▁articul
guidaw
▁dinminli
▁pouvoirs
▁kam
▁grafiti
drome
▁agbènè
guiniw
APS
enerali
Ant
▁yêlêman
affaires
idente
aldars
▁souffle
▁Formuli
▁attrib
▁judaï
oma
ba
▁mènin
lalom
▁renseigner
▁admis
▁sawla
▁vites
▁rivaux
▁mirep
▁paral
çon
▁nalo
▁Islandi
▁1998).
Oper
▁faamu
▁Ottawa
ingénier
▁creusent
denbro
▁mand
rap
▁Zapon
▁centre
▁descendant
gnoumani
térieur
éventuels
▁similaire
▁ladinain
ancis
▁Tayy
▁Ny
rétien
▁jigin
▁déranger
▁satis
▁scep
iros
▁gb
▁bolo
▁lfitini
lopitec
ériques
▁Chandra
met
▁prends
▁magni
▁djekrou
kolisso
tives
iaire
▁installés
▁korotor
▁Hershey
▁atteindre
▁Association
▁lafoni
▁consœurs
▁matières
▁crav
eremiyé
▁Sanga
nindè
ve
▁Alaban
gw
▁manger
▁Car
▁pouvons
▁grammaire
▁kourou
▁aperç
boh
▁particules
avril
onf
êrêkê
dew
▁emmener
▁fesse
aî
den
▁presenta
▁(10
ganama
teman
▁ɔnhɔn
▁wolofa
▁père
tiropoli
argot
▁Encelade
épargner
▁bougnè
▁vidéos
guay
▁tricératops
onique
▁gnankoro
▁allions
zaridenbaw
énom
▁Pendant
él
▁djikan
▁Caro
fourou
▁lors
gyp
▁hau
édr
entreprise
▁djoli
gnogon
▁Noël
▁déité
▁kanaga
▁imprimante
tefacts
usage
▁local
▁étique
▁hoteli
fs
▁sêti
▁mad
▁djaabili
▁incend
▁mɔbili
▁Joa
▁fli
vati
▁otei
▁Touw
▁dili
▁avons
▁dlani
▁ténakè
▁filtré
▁générations
giw
baroeul
▁faranfasi
▁Ma
▁quartier
▁allé
kek
tenèri
▁gouvèrènèman
isent
secti
▁peur
2,
▁Panama
▁forougnôgôma
▁const
▁mogoni
ukawa
▁Coo
▁accordé
▁évaluer
▁négatifs
inec
osse
▁revendi
▁chiffré
▁nènè
cling
▁nutr
▁Sigi
▁rendiez
▁Nyiragongo
▁indépendants
▁lassegui
▁802.11
ze
▁negative
tigrou
Antarc
▁digi
pan
▁Saroja
▁individu
▁pharaons
▁bèni
èrèni
▁sariyasun
Oh
▁évent
ney
kow
▁kôrôba
▁voté
▁biwolo
▁demain
pori
▁Donkili
▁hér
▁kounbin
ɛt
▁tôn
▁intacte
▁bon
humidité
▁fɔlɔfɔlɔ
▁Br
▁pentes
▁cultiv
▁Woulafè
▁ache
▁Symph
▁djen
▁célé
aventure
▁nile
▁nèguèsso
▁compétitions
titution
▁laminè
▁contact
▁pl
▁communes
▁géograph
▁aimable
hoki
▁Iliw
êtait
▁gardez
▁Trygv
▁civi
▁therese
ourougouy
▁1789
▁établiss
▁Baltici
▁transformation
▁luwi
▁lyon
▁troublante
▁pachym
biw
▁Franci
avi
▁paress
▁Deniw
▁hèri
▁kogodjiba
iciens
▁sanga
▁Oni
▁littérature
▁nôn
▁ime
▁intégrante
▁Bonw
erinako
kafow
onale
ura
atus
▁swi
fô
▁requér
▁chienne
▁dakon
dian
▁of
▁Michael
▁veille
▁sèbèni
ɔrg
iriginia
qui
▁AOLsera
▁viendra
ind
▁moli
▁partagée
loridi
▁School
voir
▁KwaZulu
thansa
und
ools
vers
▁colle
▁waritigi
▁Do
▁Delta
▁envir
▁visible
ganinsira
▁Frontières
sow
▁see
▁Cha
oires
gnèguè
▁tchanma
rzezinski
▁allia
fri
▁touli
▁ple
▁lit
isole
▁révèle
rd
▁flana
osyst
orge
▁nôrô
▁sukaro
▁pasa
ougnôngôw
p
▁djangnan
▁ladili
da
▁lendemain
▁papie
▁fofo
▁cert
▁biségui
5.
baga
▁Atlan
▁fleur
▁dalou
▁choix
▁Christoph
▁sɛr
▁occupe
kataga
angez
▁payer
▁nois
▁tigêla
▁trou
▁sal
▁bzn
▁ziggour
▁brik
de
▁filozofi
kokura
▁jɛni
▁nôfèkow
▁acceptée
▁Trans
▁Sagittaire
ollah
erzber
▁déén
▁choisis
▁kôô
▁kréfè
▁mili
▁voul
kuraw
▁siguiyoroma
▁deven
▁géante
▁kadjigui
▁conquérir
pɔ
yroscope
▁48
▁Wikinews
▁maî
▁amendement
yrie
sɛbɛ
▁scientif
▁nisôkadi
▁telles
▁kula
ondew
▁Authority
état
pédji
bènni
▁manette
▁niayé
▁prolon
▁bin
▁visiteur
▁compagn
▁descente
comandi
▁djôri
▁coussin
▁rencontre
▁chats
▁prév
▁projet
▁Fernando
amanama
étant
▁uwni
▁parents
▁gagner
▁chakras
▁biloru
rati
fouroukou
▁Souvent
▁massiri
habitants
▁Ans
▁degi
▁sirri
▁téléman
▁Mb
▁yàrà
▁teimeini
▁asséché
kura
denhu
écraser
▁missinw
▁follow
30
▁orb
▁connaî
zabethae
▁comporte
▁mais
ajour
▁to
▁noter
▁aime
ray
▁kakôrô
▁Spor
wula
▁successeur
pulveda
▁diplomatiques
yaume
▁comptant
cɛ
[
traw
▁Djila
▁actuelle
ott
▁tissu
▁ɲanamanw
bôssira
iras
▁siran
meni
▁durunan
▁pun
hey
▁poh
oyaient
chetant
▁sɛzi
▁Norman
olomon
oundation
▁ik
▁Fair
iennes
▁nyès
▁fotosi
▁tagalanw
▁Len
▁Pr
▁Belges
térés
alifié
▁gbêlê
▁traumatismes
▁Butte
eorges
▁bl
▁Ja
▁propre
▁fabrique
ological
▁bere
▁yaw
onner
▁koofo
▁horaire
tiɔn
▁nɛni
tia
▁fɔlɔla
▁abus
▁Italie
erosmith
▁jɛn
▁gbe
▁tèmèsira
▁Fond
▁prét
▁00,
▁etc
urray
▁courouka
▁principale
▁kôrôyé
arch
tics
ect
▁réservoir
▁souv
▁pommes
▁fréquents
▁bulala
pt
onnait
▁okôfê
▁fatigant
jords
▁lahaliya
▁juw
▁êtres
▁kulon
▁mafé
▁mibe
▁trentaine
kôliso
▁198
▁thc
▁serv
kuluw
Ishikawa
▁kérédiw
thority
anzanie
▁Guardian
▁gnamôgô
▁habit
▁droit
▁gbinli
ducation
▁Pan
▁fiyêliyé
▁bureau
ways
guein
▁warigbè
▁tcj
ément
lines
▁woror
▁condamné
▁pôtabli
▁festivals
▁contempor
▁délivre
▁occupant
▁découvertes
atteindre
▁è
nigninina
tèrin
eres
▁tombées
ese
▁éclair
▁kissi
▁Nin
ï
cale
▁contrib
eremugu
▁penchent
▁Wladys
ridala
▁logiciel
▁vendez
▁remets
▁microc
▁azerbaïdjan
dari
▁biwôrô
ancien
nius
▁aérop
▁Manc
▁Harbour
▁Homer
▁positif
▁bakele
▁organes
▁2007
▁seli
▁urbaine
▁Medu
▁affaire
▁chargé
Net
▁Canad
▁géofil
versi
▁dunanjigi
▁appellent
▁do
acon
▁Japonnè
▁pen
▁os
▁mesie
▁âme
azaki
▁Velo
▁wassa
▁wéélé
▁;
ois
▁sogoloni
▁excuses
▁clubs
▁Lock
ivière
▁Nasɔrɔ
▁joseph
aïbes
▁barbules
▁Suite
▁uman
▁corp
89
▁fèèrè
duit
▁oridinatairi
yele
▁siennes
épreuve
▁cycadées
▁nasra
▁sinôgô
▁cuivre
tim
cain
▁polo
▁koumanfo
▁lancera
▁Rumelia
ider
▁ibissé
▁docu
▁jue
caisw
▁catholique
▁cat
▁djatéla
oxysme
▁siyako
▁lux
ryland
▁charrie
▁vid
▁girafes
kissê
▁runs
▁vaste
▁jara
▁tlonw
urseurs
▁chab
fén
▁Amériki
▁défaut
roide
▁siècle
▁jargon
kissèw
char
▁milieu
▁daminan
▁datée
burg
▁produira
uste
▁wulafɛ
▁begnini
▁existence
oka
▁tourisi
▁PALM
daro
▁dur
▁bolifèn
▁tagamasi
déli
▁Joch
▁nanw
▁Ameriqui
auche
▁émettent
▁format
apé
▁caraibe
▁créativité
▁rapp
▁1200
▁biwôrôni
▁ouragan
▁nafasôrôsira
▁(313
▁chaudes
▁Mol
▁mangeait
eriez
liminaire
▁kounba
▁coaster
ernazza
▁jets
▁walaliw
▁election
▁Hi
Sa
▁Moyen
▁plaques
▁eff
▁man
occuper
▁lir
tinentes
▁mugu
▁personnelle
▁Rossby
▁nid
kê
▁pourtant
approcher
▁Sèli
▁pleur
rô
aman
▁tuu
▁anguilè
▁spectaculaire
▁montrent
▁lamiri
aciej
chusi
chest
▁dôtrô
▁fraises
gement
▁Naziou
▁wani
alisé
▁saratan
era
▁tougou
▁son
Cord
▁mɔgɔw
▁Hy
▁bisa
▁yal
▁effondre
▁tomon
red
▁cibles
▁uwma
▁onze
▁fau
▁benkola
▁virtuelle
ingénieur
▁jan
ords
▁satisfaire
▁ladjèni
▁Cyanir
▁sable
ssiri
▁utilisés
▁Comme
▁Blake
▁Patos
ace
▁combien
environ
▁soup
▁chanter
atur
▁naturelle
▁pureland
▁bille
▁taganman
oweli
stra
quatre
▁prélevés
▁officielle
▁smith
▁oriental
sovarman
▁soient
▁kataga
▁kélén
alphabet
▁jaman
▁Singa
▁sabbabu
▁jack
éridi
▁soura
▁yenafoh
▁Kèmè
▁refer
▁Imagine
tral
▁lune
▁essansi
▁janfa
▁suèguè
▁navi
▁Massachu
ssama
▁retirés
▁Méde
▁rétro
▁gbaaw
organe
▁surpopul
▁karaya
▁sing
▁tigê
ssansi
tième
▁dugumakolo
▁Albuqu
▁trouvés
▁prières
▁motrices
▁woo
▁koffo
▁neurologique
▁naforo
▁vérif
▁lonya
▁mouna
val
▁dehors
9)
▁Ruud
▁tlan
▁tchiaiw
▁Airwa
▁horonya
▁Australikaw
ss
▁cous
▁Sof
▁surviv
gbèlè
▁kuruliw
▁Malgré
▁acharné
▁-328-
giNet
ultur
▁gw
▁habitants
▁rendre
▁œuv
▁imprim
bola
michel
▁Upp
▁kuman
▁albi
téraux
▁investi
▁répéta
Acad
iah
▁solo
▁caractère
chaman
▁louant
tigue
▁Kalafili
▁absorb
▁katii
▁azi
▁koudayi
▁Koungo
▁atterr
▁pâtisseries
Indom
▁lutte
▁rive
▁retirer
▁nu
▁gnanan
▁Bafokeng
éclair
othies
▁arrivée
fiw
istre
▁protéger
▁Diamana
▁milonni
▁achev
▁viendrai
éan
▁masôrôli
▁rè
▁dayele
▁sélection
▁duel
▁forla
▁é
▁forêts
épidémie
▁disposition
▁walama
▁Trésor
▁Vérif
▁Katrina
ddenbroke
▁maman
▁artistique
▁bénéfiques
▁quasi
guer
▁Soupon
gg
ientôt
▁toussa
ël
▁cab
▁vende
▁Sansc
▁sanka
▁Erie
▁korh
▁Argentini
▁iniyé
▁Keneya
▁armes
▁Quiconque
▁borola
▁ahia
▁Seconde
▁sagona
▁Guyh
essor
▁Ullman
▁fouilles
▁hamante
idémie
▁kôgôdougou
▁Certaines
▁yélè
▁Bololalé
▁requis
▁Roumé
écosyst
oyen
ôgo
tinni
agit
hya
edway
▁Wei
▁tɛmɛni
namanhou
▁sebagaw
icheng
▁Guerres
▁excès
expans
▁arm
▁invasion
▁frontières
équipier
▁capitali
▁chokô
▁Emma
▁industri
▁porogari
gal
▁ve
Î
wili
ov
▁M
▁pankun
▁phal
▁Gree
llsworth
échelle
▁Noire
▁fɔɔ
▁Agé
ssary
▁hurri
▁Fati
▁loyoro
▁mobile
lications
▁vrais
Zélandais
▁dist
▁katcha
▁ex
âne
▁wari
▁Hali
kibagatôw
▁Veerman
▁degun
▁Ross
iikika
▁ɛn
▁malheureusement
▁achetés
▁Constantinople
▁cyanurique
▁seyan
▁pillées
▁linguistiques
CA
▁sran
▁Zhabdrung
▁rejoint
ssoms
▁vengeance
▁affecter
monter
▁tintile
ospi
▁mour
▁bagala
▁coréen
▁kura
▁fénètri
▁Provenzano
▁agrafe
lori
▁Nankun
▁comi
▁Acheter
▁sèche
▁différents
namb
▁traditionnel
▁yèrèmani
▁din
▁charr
▁oyeka
hés
▁fôtchogo
bolow
▁Sh
▁établi
▁croire
▁sèbèlila
antras
icien
▁Olds
niminan
▁Jacob
▁fƆ
naou
pɔr
eline
▁mifenw
▁Azéris
▁fibre
omme
uerto
▁occu
ongo
gner
▁culturelles
▁Coû
Simpson
▁biéngali
▁roses
▁principaux
▁entreprises
vention
▁rêve
▁kèkoyani
▁djani
wélé
▁Mü
▁Capu
sh
kèti
▁kènèyarô
▁Bènniw
▁seguila
réguébo
em
allejon
imm
Uta
ogoni
intermédiaire
▁moas
kereni
attention
▁Saanou
▁kɛcogoya
▁Tarikou
tembre
ommy
▁gnôngôya
nignininaw
prise
▁Soul
▁Picchu
▁Marie
▁uns
▁(15
condi
▁Tutan
▁Greene
▁exig
bson
▁jidara
fɔni
▁slalom
▁laj
▁sûrs
▁parole
▁sanfiw
ssida
▁fèè
▁sangni
gurats
maryland
▁réductions
▁forcer
iggins
▁auquel
▁alf
issante
ishnu
guo
ccordi
uriku
▁accusées
▁Emirates
pitali
gestion
▁Shark
▁Danimarki
▁impli
▁retenu
▁démissionné
▁conséqu
▁locales
randa
▁taga
▁beigan
▁Great
1,000
ions
▁Avant
▁bèn
▁balora
▁pes
▁melan
▁Thaïs
▁Nouve
▁Aitutaki
abatt
genre
▁proposée
▁soud
▁concerne
yl
leil
▁mettr
▁daa
▁Sophocle
▁tɛmɛ
électricité
▁wele
▁tigre
▁chois
▁Kabiri
▁tununa
abl
ulsion
pothèsi
▁Soyez
lka
▁jaté
▁établissements
▁boréales
▁cɛɲuman
▁katala
▁faragwɛ
IB
ld
▁muret
▁sara
▁adress
▁ouvert
organisme
mat
▁sérici
▁jamanaw
▁sango
pov
▁progressi
kounouni
▁ét
itch
▁indiquer
IRTF
▁sèbèra
▁conduit
fourmis
▁Kor
danw
▁lu
ogène
▁189
infection
oks
▁césar
▁minɛbolo
▁Simpson
▁lasa
▁nugura
tanfɛnw
▁kissê
▁kouroufa
héâtre
▁dépla
culture
▁imposer
▁abrupts
olini
tartic
enregistrement
gapour
▁péril
▁cassée
▁tchogoya
Mapp
▁divisée
▁bliz
▁barres
▁noms
▁réci
▁enne
▁fanh
▁bawo
▁excell
ʻ
▁sissitèmi
▁bêmuru
uxlo
▁taw
▁recherchi
▁gboun
tro
▁Sharma
▁sabots
I
▁flèches
▁Koron
attente
éng
édit
▁CCTV
▁yiraliw
▁dafouroukou
▁sou
▁od
▁repose
▁fogon
▁NPWS
▁volonté
▁originaires
nabô
vada
tantin
▁cellu
kh
"""
▁remettre
▁Mélangez
▁fouroumi
▁Nouveau
▁Plitv
telligence
▁retrait
▁bôrô
Austral
agirait
▁Thra
falényôrô
▁saniya
▁interactifs
▁reçu
▁banabagatô
▁coréenne
▁yarô
▁13
cules
▁affa
▁lase
▁caila
▁Dami
lyn
▁pinè
▁raréfie
▁199
igé
▁bôni
uter
kili
▁Suédoise
▁Mu
▁bassigui
▁jigui
▁yè
minidew
▁unique
sɛti
▁locale
▁wɛrɛw
iné
▁dabola
▁gnongonan
toni
▁loonw
ologies
▁prime
▁dinosor
wagati
lès
ord
Flynn
▁vé
;
▁faud
▁Layton
lasirila
ust
▁SUV
sha
▁accue
▁assuransi
▁Assyriye
▁bisi
vous
▁ɔ
▁canyon
▁posti
▁High
▁tempor
aume
erville
▁diina
pulve
▁Allia
▁supplémentaires
oots
▁avant
▁invers
▁restez
▁second
▁Faragbè
ômè
▁ouragans
▁mode
▁curusi
▁ép
▁mugusu
▁gaze
▁définitifs
▁adjateya
▁kounafoni
▁bientôt
▁tchela
▁labannan
yereira
▁charges
▁shariya
▁anglè
▁Shama
▁soins
▁tounbé
oyés
▁féod
imposer
minè
mesenw
▁yoroyoro
..
▁je
▁bèrè
▁protéine
érés
san
tins
ilan
wards
▁achemin
▁Jobs
▁indem
▁iod
ttman
▁cloche
▁Islam
▁momie
leuve
▁agrandi
yaala
▁suman
erait
▁unicell
▁chu
▁(90
▁kônôntôn
▁nèmaya
ninfinyalé
▁Jiwoyoba
▁valen
gènin
▁Ba
▁sup
▁soso
▁domaine
▁odor
fin
▁Rober
▁décédée
▁jatila
▁exotiques
liniki
▁ero
▁Anglèw
▁Ferg
▁délicate
▁sanfignè
tchelor
▁droite
chré
var
▁apprendre
env
▁ramen
archet
gorno
iment
▁ecozone
▁bénan
andes
▁fila
▁éle
▁bilani
tello
▁hiér
▁illég
ladeshi
▁bié
▁té
▁affir
▁ful
install
▁fiè
▁négligés
▁Kèyôrô
▁gla
▁recouv
▁revenus
gra
▁lion
▁voulut
▁chiama
▁pourraient
yigbèrè
▁av
▁latiguè
▁accueilli
yteam
▁blanches
▁réputée
▁Casques
▁C
▁combiné
▁dawou
talo
▁lasiriya
▁Felici
kèta
▁baara
ié
▁farce
▁sablés
arks
▁lamon
▁djoroni
sôsôli
▁riches
pagosse
▁»
▁balan
▁lilibon
O
mèè
▁kélékélé
▁touristique
▁cɛnimuso
▁restaurants
Ou
zon
▁tarata
▁Ngor
Taiba
▁A
lob
▁ticket
▁peint
▁boɲɛ
▁toll
apparaissent
▁cade
▁Séni
▁maximiser
▁koumba
ympique
▁radjosso
▁situait
▁Volga
▁chou
▁Batten
ôrôbla
ômage
▁Bulogi
saka
▁charge
▁cɛw
▁otages
tiguiw
elsa
▁yèlèmali
▁erreur
tèni
sijon
falen
▁kɔrɔmuso
▁bɔnbɔn
sé
▁déguini
▁sarala
économ
▁Irku
▁pacifique
mountournèla
world
minnan
uruma
189
▁détaché
oniw
▁fuyaient
tiye
▁adoptent
▁Nord
▁Faran
cktail
▁abattoirs
▁physi
▁cheveux
ssby
▁gnanangbèw
▁véhicule
▁intégr
orla
émités
▁procès
▁gnantata
▁goshi
▁Lockwood
▁morts
▁1960
Judais
▁souhaite
accorder
ilà
abandon
prem
▁kanka
ddhism
▁taji
èmafénw
obil
▁intérieures
istoire
heur
▁st
:02
▁basés
▁parrain
▁tubabulè
▁douroun
▁kahandè
▁Ovech
▁makantè
▁minuit
credi
alent
amille
▁portée
▁Tumanbè
caro
▁discussion
vise
▁veillez
fiti
▁Sporting
lasika
▁équipé
▁subtiles
lingsha
▁pinrinli
atorze
▁Chhatrap
▁passi
▁préparation
jans
▁jeu
▁civ
▁yereman
inage
saur
▁acid
▁immergée
alle
▁dagnè
▁indép
▁naissance
mètiw
▁gnnongon
▁kouawéré
▁berliner
▁convention
blage
▁asun
éans
▁gniyan
dysse
▁Mozamb
▁kôrô
▁lôla
▁Croc
▁Touma
▁dame
▁reconstr
▁TMZ
▁2004).
▁couvent
▁djougouya
▁tranqu
mulé
▁périp
▁baignade
▁dônkala
liyôrôyé
▁clubu
▁couloir
▁blanche
▁dominifé
quée
homas
gneli
▁doh
▁modernes
▁Geophysi
▁tougna
▁chars
elekan
ication
djou
▁arabalon
▁Harvard
akland
icie
ctimi
▁Show
▁Khamene
▁fourakè
nowbo
inés
▁pil
rées
lobal
▁chirurg
▁dogoh
▁flɛru
▁dem
▁sentir
▁tɛkinoloji
▁balimancɛ
▁franchit
▁Electric
gwɛ
▁Plitvi
▁Pro
urusi
▁kouran
djanyé
▁connues
▁Olympi
▁chr
œuv
volution
daléw
apon
Ie
▁kɔ
▁températures
▁Kecha
▁TDA
oue
▁arrête
kafi
▁pensez
▁James
▁jateya
▁alle
minidjan
▁plein
▁géant
yanra
vian
▁soigneusement
▁lagbè
▁branches
▁gnimi
▁Cli
▁épous
biri
dɛn
▁force
kon
livan
tcho
▁bolokako
▁mii
▁1989,
▁quantité
céladu
▁bonjour
▁grecs
ends
▁rénover
▁homme
lèya
▁kokɛn
▁3,
manchain
alité
▁pon
▁loniya
▁nanson
▁tiré
▁prétend
▁Gorce
▁dimiw
▁Consulate
▁wélélila
▁individus
ueil
▁tika
▁fenkunra
▁durisi
▁78
agréable
▁Erect
tros
anbul
▁mir
▁oérélikè
▁Indu
▁abénan
▁Baragi
éj
▁Bombou
▁offrir
▁dôgô
▁expo
▁intérêts
mintiya
▁djaté
▁impôts
▁baarala
▁Kosa
▁Lônni
ienne
▁faranni
sôrô
▁gnigari
▁matelas
utr
00
okdale
ssoumaya
▁Jupiteri
▁moin
téri
▁tenala
▁labaloli
ruk
▁Indias
brou
160
▁gwa
▁cɔn
ón
+1)
▁Tagaman
▁bil
ssékour
souman
▁Fassa
▁um
▁Tintin
▁Colle
kinology
thogoyala
ovian
▁législ
▁Croate
▁pornographie
mero
▁sɔɔni
▁takoulou
▁jus
▁kôhôkè
▁navale
▁néa
▁djossila
▁Di
banaz
▁mas
▁Ikonomi
▁Espagnol
▁défaite
▁modif
▁fou
udits
▁diyɛn
ommée
▁kouw
rarchi
ash
filɛ
▁Romainw
▁gérer
tege
▁(250)
▁judici
▁sissi
▁Jeong
▁Ouï
▁manuscrits
▁saratigê
▁partagé
fli
▁ibéna
▁sugu
▁formulaire
▁biro
uisant
▁colon
▁Afghan
▁dic
▁lajɛni
▁devint
▁Nonni
▁Août
▁sensen
▁concentrer
deo
▁conducteur
coles
▁cond
▁remplir
▁Arya
▁lalikan
▁étian
▁Téréfè
▁re
▁budget
drais
▁immunisé
▁bése
lônni
leman
▁Company
▁ju
▁mod
▁port
▁plateaux
▁wa
▁humains
▁voire
▁dépos
▁classiques
raham
▁Amé
▁jos
▁béng
."""
▁labôla
▁devait
▁tellement
▁auras
▁gɛni
▁woula
escrime
rilikalo
ilnius
▁sougouya
ili
▁violents
▁dana
▁mangboya
▁brut
icain
▁jigɛ
▁dugutigi
tasèbèw
téritama
yéelénni
▁grip
▁brudju
stitu
ustral
réot
▁karanli
▁Sher
▁Ni
▁articli
kogoman
oies
▁yoroman
▁votre
ralien
▁spécialiste
▁bouora
igsli
andelwal
kèrèlima
▁tentation
▁Musashi
▁Smy
affronter
blan
▁prélè
▁Arab
▁rendez
▁Phant
ongent
▁craindre
maféw
▁Grèki
copteri
▁comb
uiss
itable
▁lettres
▁kanto
ignements
▁sigi
▁Chris
▁régime
▁djira
▁Actrice
setts
▁iyo
bolofara
▁appartement
▁Sweden
éval
tili
▁Zayat
▁kabein
ents
▁tila
eimeisi
▁tianla
▁Barakelaw
▁3,50
Murdo
▁arrêtées
tiss
▁léhé
▁clako
▁mention
▁Kibaro
▁video
▁bédjan
▁diffici
▁dasiri
▁celui
▁XI
▁Plusieurs
minɛ
idal
koundaw
▁nissôdia
▁Hongrie
▁suufê
siyɔn
esperonychus
▁maj
▁ai
▁andré
▁marali
▁féré
▁parcours
alàpagos
▁océans
▁djonaw
▁histoires
êlê
engeti
masi
▁campagni
hori
râ
▁réaction
zɛn
▁mafè
▁Borneo
▁Europou
mu
lls
ellement
▁léguilisi
oids
▁FA
▁electron
▁aér
▁fanbaw
▁latinan
▁Cupu
▁pèlerins
▁Nouvelle
▁Nagorno
▁cosette
erb
court
▁boli
▁saniw
▁soudain
espace
▁Belgique
George
▁renouv
▁fɛti
▁flɛ
▁jusqu
▁kallan
▁espèce
▁Sanfine
cell
▁tigiya
▁maintenir
▁ajouter
▁dayira
unakha
kounbè
▁mélanger
▁Poro
▁révélation
▁Montero
▁sankuru
▁kôrôssila
▁Jo
▁Tout
▁flashi
▁kora
▁djonforo
orçant
oulée
▁feviriye
95,
sunami
▁laka
utilisation
▁fréqu
▁misikara
▁kɛmɛfila
▁tour
abila
▁manager
outh
▁ther
SA
▁môgôya
▁Groen
▁pâtisser
▁lame
▁carrosse
▁Bientôt
II
▁Corps
moc
▁Tupua
▁Marali
seize
▁laminifi
▁Schwarz
talan
▁gnôngôna
▁Judean
▁tch
▁passible
▁chose
▁fleli
pereni
hua
▁gbelin
▁ceux
▁provinces
▁pâturage
▁jen
▁djoubô
▁lanibala
incent
▁supermarchés
▁Boun
▁Mar
lujah
▁Tagan
▁35.
▁valeurs
▁Darwini
ucani
▁corrects
2.11
▁composée
▁Baltiqui
gbèrèla
▁dayèrè
ta
▁!
▁torohn
▁épaisse
▁daga
mirates
▁mi
▁parvenu
▁monsieu
▁indic
▁caché
▁fiman
▁lƆ
▁spécifiques
zofi
nées
▁Air
▁fiyen
▁Bal
▁Sangasô
es
▁Sini
embourg
▁pèler
indre
▁labana
▁log
▁Addenbro
▁lanino
▁ili
▁Égyptiens
▁Sejong
▁fôgnô
▁armées
▁tournois
▁ayêrê
▁Barcelone
▁artistes
▁plage
eremi
▁Filimou
▁kɛmɛ
rost
ça
▁1920
▁Downing
ASUS
USOC
tara
ssikara
▁sozani
▁vaccins
▁réalisé
▁japon
▁Tè
▁tickei
▁assigui
opol
▁accessibles
▁signature
▁barra
omson
▁avertit
▁Thomson
iée
▁resté
RMN
ralifɛn
▁drôle
croy
▁tress
▁93
▁Sangolo
▁développement
▁adop
udd
▁Oya
▁chi
là
▁blessant
festation
▁finalement
ann
▁défavorable
▁sino
casion
▁dos
éde
▁treize
anks
▁comblées
▁banakisè
▁kɔgɔji
▁Bang
▁Vous
▁Kèmèssi
ourag
▁peti
▁consul
guée
▁Baarayôrô
▁afo
miki
▁insecte
▁Guaycurù
▁Canadien
▁diplom
▁munu
oga
ordassi
▁doo
▁may
iiki
▁gnôn
▁libres
dénmis
▁mibimla
▁fɔɲɔ
▁lônina
ènkalo
érie
yalé
▁certainement
▁muyé
inezota
▁tehe
▁lalola
▁mɛna
▁dogo
étéw
▁recrutés
At
▁samala
aseb
▁labatoli
▁coula
▁ssoro
▁secoué
▁tchèla
▁montrait
▁complémentaire
irafes
▁varier
tôrôwali
areil
lunkut
raient
▁mandimi
▁attirent
▁Ye
quateur
▁luwan
▁wololi
▁fixes
▁fö
polonais
▁mér
▁Kenin
▁accès
▁senan
▁South
▁pêche
▁Djiya
amikaz
guinni
lady
gɛrɛ
hall
▁Pfannku
▁sub
▁tenin
▁kɔrɔn
▁s
position
▁chari
rélation
anctu
▁gam
▁Ran
▁garr
stre
▁gama
▁sagon
▁plongée
▁Fasodugu
▁Uni
écri
▁dabéti
▁220
érétièn
▁koungolo
Mapuche
IFA
▁doit
▁organisés
▁Lag
▁paysage
▁rituel
▁Itali
▁biwɔrɔ
▁dénommée
▁korow
▁flott
▁end
▁Viteissi
▁uw
▁Tru
▁repro
bêrê
alités
▁unanime
▁Malèzi
▁aujourd
ramidi
wolo
▁Tôn
76
▁ladaw
▁verrez
▁$5
édemment
▁Pohamba
▁seere
zél
▁ɲɔngɔn
asubr
▁wallassa
▁urisi
▁Kenya
▁Kurura
▁détails
▁Bouw
▁kuruta
yèrèlabila
oit
don
tiquaires
▁éducation
icale
▁soumanya
Sissan
▁gnaman
▁belles
▁nayé
▁1767
ocu
▁cheylard
▁Mars
▁gbinnin
▁shaya
acle
▁jôlôkô
copie
bi
▁illégal
▁cacher
▁pès
▁Herostratus
sieh
îne
▁Tibentan
▁Rome
▁Kolola
bakè
▁6.
▁avionw
▁Javan
▁Lufth
90
▁pôle
▁sèbèkèla
▁lônibê
▁lakènè
iniw
▁heurts
▁atôkélé
▁Tibet
▁Boumeran
arotonga
▁Bérézili
▁gnama
▁sirayan
▁médina
▁tromp
▁turque
cular
▁insectes
hangji
▁Cela
▁fen
étudier
62).
▁Europu
ût
▁segments
▁hockey
▁létala
▁népalà
▁Sêbêlikê
▁religieuse
▁koudigui
▁masaya
fCFTA
▁alugu
▁Elle
width
▁drogues
▁wilili
▁focales
KNP
▁itinti
▁footing
kôn
▁sirana
▁éjec
▁Mara
▁System
engale
▁siguinin
▁lacs
▁étrangers
▁revend
te
del
▁ecoz
▁diminué
kèrè
▁réservé
infos
▁codes
:
ald
▁roturier
▁pauv
lɛt
▁tiogow
élan
baptiste
résident
▁Alimanw
bugu
▁Lônniyaw
▁Sabagaw
éloig
gɛr
▁Drukg
gê
▁dɛ
▁cuir
▁licenci
▁ikaraman
▁mysticisme
▁latigɛ
▁nuits
ôngô
00.948
uss
▁3,7
▁ouvriers
▁emmen
▁écrans
▁mars
rov
▁Autrichi
foh
▁Veu
▁lakalé
▁Safina
▁Gillard
odeur
▁sindji
▁Pays
▁filan
▁1977
▁pègi
▁ɔnɔn
▁IT
▁circons
▁tchogow
▁Articliw
▁hier
▁établit
▁iras
▁korowka
▁soleil
▁touba
▁djuguw
▁signifie
grafeuse
▁kôsôbè
▁Djigi
▁Ident
▁Danub
▁alertes
ifs
▁gagn
▁montagnes
▁facteur
▁gnégui
▁Yira
▁numérotation
▁courbes
▁neutrôn
▁roches
▁Masai
▁bayèlèmali
▁Sikanèri
▁alpine
oats
▁général
dugu
▁généralement
▁buru
éri
yiralanw
▁Djabrani
▁korkan
armante
▁Gymnastics
ɲe
▁casinos
▁valent
▁identif
modén
▁expirent
un
wak
▁29
▁yɔrk
▁mobiri
▁Casp
▁aimeras
▁yera
gɛsɛgɛli
▁sigisigi
ied
▁embr
▁sôna
▁lakôsé
▁alɛ
palà
▁mogohou
▁jeke
▁dourouna
▁domination
▁Marooch
▁lonni
▁pôsiti
▁Ital
ténuer
▁Pakistan
▁trois
▁nomment
▁relig
orphes
▁supérieure
manjikônô
▁doté
shington
▁intéressants
▁Palawan
▁york
▁tansôn
▁Samis
aud
▁Templo
tsk
▁tristement
▁donron
omorphic
▁panne
▁bèladjèni
▁formation
▁sem
écran
▁pêchent
▁Bén
▁alahya
étendent
▁auberge
fon
▁jona
attant
ssoumana
▁hur
▁césium
ront
▁équator
▁république
▁bissimila
▁déguenan
▁tɛmɛyɔrɔ
▁condens
▁superficie
▁Steven
▁Hsien
▁feiw
▁dotorow
▁gnadô
+
▁Caspienne
olvila
▁Lorsqu
▁biè
ssodja
▁Okeira
▁variée
▁ample
▁tibétain
▁York
▁koulouw
▁Portuga
gèri
sene
▁photon
▁gnagnini
▁fèrèsira
alerme
▁duminikɛ
▁marques
anapolis
thèni
kongow
ssira
environnement
▁dessine
.688
▁gnamogo
idim
▁réputé
▁sikh
▁ambé
▁témoign
yèrè
▁Mah
téliti
▁assume
▁yôrômi
▁cira
▁jɔn
▁koffè
▁ode
▁Sagi
▁domuna
okoda
▁touristiques
golofin
▁ladi
avor
▁pɔn
▁diw
ême
▁Felicia
▁compt
▁Ninin
▁lɔra
▁willi
▁minbésé
▁Mancuni
▁Cirque
▁émises
▁340
tchiya
Soyouz
▁djilaman
▁bouotoh
▁VNP
guati
▁mr
ignant
▁Irkutsk
kanèri
▁vues
gativou
fiyèw
▁filanaw
▁bissé
mako
▁précédemment
▁Abésé
▁hamini
▁orageux
isation
▁terminer
▁bamou
anca
déniw
iza
aisi
▁Nikol
▁suu
yirasèbè
▁marine
▁limitrophes
autier
otes
hantom
▁exiguë
▁Bénin
▁Ellis
sigiden
tourou
▁juguw
▁Sebeni
▁toukonnon
▁mâch
TF
▁ubolo
▁cachée
▁gnogonna
▁rues
▁siraw
stoppe
ougn
▁Hummin
▁nis
▁Camp
tiens
▁rentrez
échanger
▁rédi
▁plages
siraya
cheur
toi
▁MetroPlus
▁wɛ
▁sincér
▁Kirisita
t
▁Taïn
▁magnétiki
▁blä
▁San
▁charm
▁V
▁brute
▁Jourd
phi
▁poss
▁kodin
▁Toron
▁arrière
anes
▁saurat
ouka
▁kissei
léments
▁Typique
ohannes
▁Müs
▁soumanle
▁Wari
▁körö
▁essenci
▁1850
▁kilome
▁boutonw
▁transports
amer
▁caf
▁bail
nari
▁doro
▁fari
▁léyé
▁solide
▁gerefe
▁orienter
▁Tianla
▁gbèrèman
▁prochain
▁kélépéyé
gwè
▁koumasén
ogants
▁siguinibè
fghane
▁golo
▁damadaman
kênê
tiguiyaman
▁lenteur
▁Damian
▁fe
damande
kha
▁tracé
rigami
ustralie
▁kounma
▁dumuni
primé
5.688
agné
▁gwan
adorian
▁barisa
▁futur
▁koulèri
▁fisaman
ologique
Ï
▁contri
▁saara
▁quitta
▁gbasi
▁population
▁images
▁takola
▁2,4
▁olympe
▁atomou
zou
▁natural
▁ara
▁Pfann
▁collè
▁kinibolofan
▁tadjein
▁bèbé
Inde
▁akiri
▁famille
▁commission
▁intérêt
▁rugissement
gongon
hou
énormes
lonel
▁2220
urmat
▁lasi
pendansi
▁kaca
▁commencé
▁kossobe
▁vaquant
▁Antartic
USGS
▁lôh
▁brousse
Amérik
▁cana
cinnati
marine
▁kadjan
▁(64
▁gren
▁seguiko
▁adamadenw
▁kaan
▁fuseaux
▁Wilson
ugu
▁kake
▁mine
▁watila
▁alfrɛd
▁accord
isée
▁interd
▁yeremani
▁komite
▁plagiw
▁forra
iennent
▁coffre
▁marquer
▁sorro
endant
ymnastic
▁glissent
▁djogi
▁Chili
▁dites
▁reposait
èlè
kounandéra
▁commandi
▁sê
minikela
▁maralida
▁accéder
ouvel
féngw
atie
▁Aléman
▁ceman
▁nanignan
▁baka
▁cadeau
me
omité
▁saur
▁Pologne
▁Lux
dame
▁disait
▁kanɲi
▁contient
▁f
▁danilo
▁lalɔ
▁smart
▁tèmèla
▁cocktail
▁vesti
tait
▁latigue
aleur
▁sanni
tinmin
▁Peteri
tezuma
▁bouger
▁skier
▁idées
▁Town
▁otalla
▁org
tellig
▁principalement
▁bèguè
▁Après
▁jatemina
ereya
▁Urigon
▁répandre
▁grandit
▁Seor
▁juguya
▁Bla
zen
mɔn
ooch
roja
ane
ganfia
▁fafarni
▁sènèkè
innenst
▁eki
▁tête
▁Dô
▁Armenie
gnanaguè
▁Kôrôsi
▁kahanka
▁bègènw
▁fanhan
uis
acob
danfé
▁griffes
enfanga
▁amendements
uru
▁tanifila
regi
▁Majorque
oke
banin
▁traditionnelles
▁siti
méran
▁1492
ley
▁caktusi
▁vi
▁ɲaman
trait
her
usine
rec
opération
risonné
▁sosiyété
insectes
▁constituées
céla
▁pleine
▁kɔm
primés
▁koffé
▁Yèlè
▁barakaman
balay
▁serons
▁taki
▁Chrétien
cô
ialité
▁bénévoles
▁corpo
▁ore
▁woulé
▁Yamaruyasèbèw
riba
▁môgôbaye
▁dure
▁sanfè
▁Borsell
▁timb
▁effectivement
▁œuvré
▁contrôlé
▁cellules
otox
ù
▁filaburu
▁fra
Ind
▁enr
▁guun
▁kimmi
intér
▁duguman
las
▁tiyɛn
ersé
ha
▁produit
▁loru
africaine
▁Pékin
▁gwansan
▁arché
▁perte
▁nerfs
Un
alestine
▁imb
▁épices
▁air
▁manches
enos
▁ces
adapter
outs
▁désiste
maféngw
▁yékêla
▁chacun
▁écrivit
istance
ed
▁entour
▁2009.
▁Borden
▁urg
▁fangua
liko
appuccino
lɛr
▁rejointe
▁dangereux
▁percev
▁contemporain
▁kèmèfila
exploitation
▁tomati
gö
▁fun
▁koumako
▁kèmèssi
eremiah
élévision
▁couragi
▁dounda
▁den
▁Vie
elen
▁coureur
polu
▁vict
Boots
▁Oce
▁cauc
pwi
▁krapfen
▁bisou
▁karan
▁requ
▁impériale
▁ota
phen
kounandé
▁beh
èti
liques
agon
▁gni
▁tèmni
▁fini
▁avocats
▁sôbèkôrô
▁maturité
▁finish
▁nerve
▁poésie
guilisi
▁congrès
▁grands
▁dianan
urry
eman
▁journaliste
▁Arthur
immobil
▁explorer
bɔ
mond
▁misènman
paravant
▁procéd
▁Worodugu
ey
▁sekoyira
▁guvɛrneman
▁région
▁gratte
wari
▁Soda
Ishik
▁Afghans
▁monsie
▁porcs
▁kèle
▁kunk
▁kaya
▁Darw
▁kasitô
▁indiennes
▁péré
▁surchauff
▁Owaati
ons
taient
▁res
endjab
▁Jose
publi
orité
▁dériv
elos
▁poudres
sichel
linj
▁menaces
▁Gonou
ception
delà
▁fariya
èèri
▁silamin
yèryèrè
frique
be
oot
libagatô
▁rédige
▁kokôrôsi
▁mirepoix
riceratopi
▁ninyɔrɔ
▁musées
▁tenu
▁Fôli
▁Sansk
▁jul
ékin
▁sar
one
892
sté
▁1940,
board
effort
▁francis
istan
▁pelepe
▁papi
▁sunguru
pɛl
▁gnami
▁kegnin
▁estimations
▁et
▁Kala
▁logofi
djonw
gbèrèw
▁chante
▁observé
▁réputation
▁Big
Para
oseph
▁numéro
▁campagnes
▁lahalaya
▁enregistré
▁indépend
▁jaraw
peu
▁wirini
icts
▁baliman
ankar
▁plateau
cété
▁fènsèn
▁Swe
ristoph
urité
atélis
▁arbore
▁canabi
▁Anne
▁signin
▁diabéti
▁iden
▁nilafi
sala
rieli
rairement
▁Gurmat
douyafan
cidents
dougou
▁môgôbaw
▁kêwalé
▁ch
▁Nam
▁djélégué
▁écoulée
▁kagnin
▁1537,
aint
▁béé
roe
▁levée
▁wilen
alors
ix
▁triomph
▁fauteuil
▁kisse
▁yéli
▁kan
immenses
kɔnɔna
▁ru
▁crayonla
▁tômona
ellino
▁Misali
trice
▁diguila
ong
orc
▁rénov
ations
▁tôuw
▁lama
▁gbanli
arc
èter
▁Solan
▁tax
▁mou
diy
▁krap
▁fac
▁parasiti
lève
▁dira
▁essai
▁inférie
▁refus
aques
▁makèya
▁défense
▁scandin
▁ayant
▁Anguilê
▁Papers
▁surchauffe
▁State
bek
urunali
▁kasira
▁gbassi
chare
▁alla
▁Fon
▁identiques
▁janto
▁état
▁méc
▁millé
▁lôyôrô
▁talons
▁noc
▁Près
hufu
ma
▁environnemental
▁perdu
▁Hangi
▁judoka
▁KwaZ
▁pel
▁supplément
▁bombes
pitalier
▁tchogoyaw
bla
▁émise
okuriku
ayez
it
▁Carter
▁mémori
▁loi
▁ɲiniga
ire
República
iv
kônnôn
▁duc
interse
▁aimera
▁sekɔra
▁lakônô
▁joindre
arra
▁Harper
▁battent
hman
tèli
urg
▁mont
▁niveaux
shing
▁fanba
mp
▁Fu
sto
cosi
▁chac
▁Waite
▁béc
▁randonnées
▁drog
▁avi
▁kɔngɔ
▁borifen
▁hôron
▁federal
▁complexes
temata
▁mètiri
ttarius
▁Bellings
▁demanda
▁djon
▁seulement
▁ele
▁réce
uit
▁Adamadén
chael
▁Olé
ources
▁Tɔkelen
▁mouvement
▁moumè
▁abaada
▁Shan
▁“
▁actes
xi
▁177
▁Musahi
cide
▁Goet
▁gnôngô
▁frère
▁blala
▁lakô
▁Tônô
▁yo
si
▁dôrôn
▁Copenh
zano
▁Müslüm
▁youma
omorphes
inet
▁cɛjugu
côssimô
▁Runnels
▁quels
lade
ieux
▁stel
▁meduse
kouyaniw
▁orig
▁faculté
uran
▁trésori
▁planeti
térita
excellence
sɛgɛli
▁ordin
▁gnonni
▁Pour
tangani
utrons
ira
aponie
meurs
ountéliban
▁Deutsche
outes
▁suivante
▁luxueuse
▁kuradow
▁former
▁prononcer
agent
▁garasi
▁Jeline
▁soumara
ion
▁(291.
▁pueblos
▁mafo
enc
djêguê
udi
▁American
▁originaire
▁Shankar
▁rad
iosité
▁gnamogon
▁Shar
▁Doroni
greb
uifs
▁modification
▁gnandji
▁Cin
gant
orman
▁coéquipier
▁oman
ft
▁sisa
▁conseils
▁voies
▁fes
▁(0230
▁Mitchell
risiya
▁tunbè
▁ah
bon
dawolo
oleil
kanique
oient
▁porou
zaak
igurez
▁kamsôrô
▁protons
▁empêché
pansi
▁koulako
▁kôgôdjida
▁nimoro
▁dɔra
▁fas
▁Tolonw
▁électriques
staller
lignant
▁sigiilan
aniques
▁Yèlèmali
lite
than
tinti
agara
▁moussow
TC
ögöw
▁sababouye
▁critiqué
▁difficilement
▁fonnonni
▁tebe
▁faune
▁Shika
▁sogoman
téor
▁apportant
▁diguein
▁sôssô
▁tourist
▁yékomi
▁(14,7
▁sû
nzn
ors
▁oté
▁Aldwy
mit
▁aradar
▁djèmè
▁éléphants
▁tiyatriw
▁montrer
▁emporter
▁normal
▁samali
▁tèdjé
▁zango
▁carotén
▁gar
▁opin
▁achevé
ésie
▁moments
héri
ria
▁Valley
pl
▁entretenu
dee
▁Peninsula
▁compagnons
▁bré
▁président
balima
▁toi
▁woyo
▁exac
▁Utah
nounou
▁ganagbè
▁daminalo
▁cré
▁Saito
utorité
▁rɔn
▁servent
▁tounga
isme
baranin
ougouya
▁cycling
▁Ta
fèla
▁minlikè
ervent
▁miryia
avoir
ouleur
X
▁vitri
▁Dôtôrô
▁Minisi
▁celatige
▁jac
oniya
▁radars
▁fils
▁djamana
▁Americain
▁états
▁[...]
▁Obanaz
▁toul
itage
jacques
▁Bi
misseni
▁professionnels
une
▁tsunamis
▁Grant
▁gnoubaga
▁sɔ
▁rasoir
▁signa
▁djou
▁waati
▁territ
▁gbirig
▁samina
zie
ontologie
▁extérieure
▁kounoug
▁côtés
▁viande
▁allée
ètri
▁profitez
born
▁faisons
▁Inde
▁States
▁pour
▁sovi
▁24
▁(2)
▁mondiale
éricains
▁sp
▁rennes
▁venus
▁approch
▁Koho
▁tanyoro
▁pounds
▁koté
▁personn
▁kônôn
tchiyôrôla
000
abilas
▁Solomon
▁28
goyala
gnein
▁koyaw
▁hakilinata
WS
▁Sénatèri
▁noukala
▁woroduga
▁ly
orcov
Zél
▁fohi
▁ordinaires
▁froi
▁2010,
ontinuum
opes
▁biz
▁saheliyanfan
▁lutteurs
▁yengen
▁étrangère
lif
quatorze
apprentissage
ethe
antis
ist
inisôgô
fghan
▁Kalaalle
▁mani
▁ras
éléni
▁ay
▁bonn
▁comp
eugle
late
▁Tom
arium
▁étions
▁Carib
▁production
▁berbères
ondre
▁Char
bin
▁août
▁filmu
▁bern
▁woromani
▁gnatiguè
au
historien
▁rémun
▁Tayyi
▁Inc
▁dougoula
▁Seali
▁allem
▁dôhu
olocaust
▁côtiers
disitiri
▁djibon
▁kônônton
▁sex
▁Californie
▁Filèkasèbè
employés
siti
▁koumala
▁can
▁augmenté
sani
andais
gbènè
intanba
▁Belgrade
▁COVIDI
ceau
▁achetant
▁kabala
dront
▁ra
onsec
▁nèguèw
▁4
▁billè
▁flèla
▁borila
unisé
▁Ponni
gatuangw
tiv
▁bɛrlɛn
aler
gnogomaw
abia
cium
▁auc
▁demiss
▁ble
▁MDT
▁Mohenjo
▁accepté
▁mitinnan
pins
abre
sinna
▁madimin
▁rap
▁rivalis
▁scien
musaka
▁kanw
▁fascin
▁Oakland
fɔ
▁labara
▁banan
▁Kunawolo
▁fjords
▁siguidaw
▁réélu
▁dafinnin
▁kén
▁suspendu
ête
cie
▁kiti
▁Tchèman
▁Khéops
▁Allen
ters
▁garnison
▁remercie
▁juger
lou
térie
activités
massalakoulou
▁Fôgnon
veillant
▁partie
▁Cellili
-64
▁Maciej
▁mulo
adoption
▁yɔngɔn
▁atom
sijonin
▁image
▁Woroni
▁lasiri
▁jau
octobre
▁machine
▁Gonu
▁sôrôta
▁han
économies
teoriti
▁légiti
▁eaux
▁keine
peti
▁lɔyɔrɔ
béliya
▁Metrè
▁Thrace
▁dege
▁timina
▁félins
ensable
▁célèbres
▁tchema
▁pein
▁prof
▁espèrent
▁republi
▁UNESICO
▁lamissa
garzyn
▁Denbaya
▁tanidè
▁pue
anticorps
▁sagni
▁Court
▁succédés
▁tèrèmè
▁favorise
▁sanw
fa
▁couvertures
▁jida
▁Noto
erts
▁prise
▁Pun
▁amassé
▁Cabiné
»
ford
▁galassi
gɛ
ssê
yèrèyèrè
histoires
atja
▁tolo
▁dormir
▁éche
tec
pandansi
shin
▁Coungo
kouman
▁sachant
▁code
influen
▁djugu
ago
▁sariaw
éditation
▁dabirini
ni
cite
ônè
▁tereni
▁déserts
▁lesebugu
▁couche
uba
yari
irai
ayer
▁Kyoto
koyira
▁Norwé
▁filles
▁Avi
oppos
▁Ariz
ouctou
▁nounoula
munan
▁aminan
ée
tési
cultures
▁empl
moins
▁ennem
fara
▁promul
▁6.34
▁fiyin
▁dansé
▁janko
enreg
▁tɔrɔ
oulait
▁aérosol
▁Kirby
ction
▁Califoroni
▁amis
▁Pago
yi
rikɛn
▁réacteurs
▁moléc
▁moins
▁Koura
▁Cop
ign
▁wouléli
cachon
▁fran
)."
▁Casin
▁Ferrer
▁aritifi
▁obei
taw
▁fans
▁Nations
achat
▁wèrèw
sege
▁créé
routi
▁gnan
tiques
ikings
aycur
▁souhait
▁equa
▁regardez
▁Minw
▁ido
▁denmisɛn
▁gɛlɛ
▁Massach
▁consacré
▁sterling
▁effic
▁posa
▁badji
tario
▁bɛrɛ
aly
▁Za
▁serez
ocula
▁dunia
▁caldeira
▁Jeu
itchell
itude
▁content
▁Kashiwa
llas
▁incroy
▁idioties
sɛ
▁À
▁sanctu
▁juvén
pp
In
▁segnan
▁bles
▁ban
▁fên
▁daw
organiser
▁conv
yorro
▁lanti
bles
aguay
venger
▁djônya
▁latilen
▁boronon
▁kɛto
▁Burudju
▁interdi
▁jikuru
▁remarquer
▁ess
▁sigɛn
▁remonter
▁hydr
Napo
dimi
▁ici
ennies
cope
étrer
ichele
▁fonsègue
▁-
▁Dunkirk
▁mission
▁nagassi
alise
ényan
kaman
▁tém
▁pâques
▁nofe
ssack
▁cailloux
▁introd
tôrô
▁longtemps
▁guèlèya
▁tom
▁Baltic
▁couvert
▁scientifiques
▁type
akar
▁autorisé
bouô
▁tre
▁emblème
▁jufala
ographiques
▁reprod
▁torroya
Nan
▁nogo
ssola
▁copains
laya
▁systemu
▁tox
rassion
▁diocèse
biuyawsi
▁accusations
▁Adamadé
▁treks
▁224
stacle
roch
▁Tamas
▁fédérali
▁koulou
▁interprétations
▁alani
strict
▁familiale
tarani
ɔninw
wal
Oravec
▁foyi
demila
▁Falkland
konnonfin
▁nutrition
▁Kamlan
▁Alaska
▁dingo
▁corigé
▁skis
▁djôssini
opith
▁Rooms
▁pavot
IC
inos
▁Alexi
▁Koubé
lingshaus
main
diabi
▁tononn
▁affichées
▁militèri
cti
▁bôchi
▁gnannaman
▁dɔrɔ
▁engagée
▁ange
melia
▁manip
▁grimpera
▁Pedr
▁baign
▁93%
▁nimissa
baarakè
▁Ki
▁kuran
▁poyi
▁contempler
▁FAA
▁copies
▁Setigiya
▁«
ögö
ich
rianci
▁kuma
ganis
▁faragwɛla
▁togola
▁yôrôbè
bana
▁borofɛnw
▁gwanniha
▁vies
▁mai
▁saf
▁lonnila
▁personnels
▁Dzong
▁peintures
Pétersbourg
ymond
accéder
▁fréquent
▁annulé
boko
▁souffrir
▁simil
tswana
libon
▁Mario
▁Séna
▁Alpha
bina
▁teriya
État
▁répét
▁Coupe
▁marée
▁galasi
▁gbanzan
RTF
▁terminée
▁louer
▁r
▁saw
tivement
▁kok
vingt
▁yêlê
▁dracon
▁Proven
yèrèla
ouill
waliw
dimbourg
▁couramment
uxem
▁subtrop
▁indisp
▁infe
▁programmes
▁mam
▁bernard
▁Ladi
gnêlati
▁consomm
▁plans
èw
0)
tana
kemechi
▁funér
▁dagayɔrɔ
▁(291
▁Ahi
▁diplomou
▁demin
▁depuis
▁croiss
▁garçon
▁mercredi
▁supprimée
▁dieux
▁Taipei
sita
▁tubabou
togoye
▁influ
▁voix
pu
▁Ame
kadi
▁Fèsè
▁prisonniers
▁8
war
veillée
usetts
▁vigueur
▁promesse
▁Ou
ryce
▁vête
ourou
sunción
▁filaw
▁brû
▁2:1
anapolisi
▁sait
▁sôbè
▁sèmètiya
▁Sch
el
▁ga
▁scolaire
▁insu
▁700
vard
▁basiginin
▁nom
▁kèninka
▁évaluant
otherm
▁levé
▁Cuer
▁serait
▁So
▁katoliki
laient
▁miniw
accident
▁parlent
▁fognon
envir
▁humeur
▁pasimɛr
yal
orderez
▁folor
▁Alexeï
▁indienw
▁2:2
guidé
▁Hastings
agence
amé
insp
acquér
ouest
▁Bégénw
kôtô
lder
▁siensi
▁beaucoup
▁asanga
héberge
▁nɛmɔgɔw
▁sabl
antic
▁grosse
orges
▁kitaboun
Nouvelle
▁Faraf
▁okassé
relles
▁contraint
▁adapt
▁Fal
kenti
arani
00.9
iculteurs
▁traiter
-3
▁Djeri
▁Droma
▁dônkili
▁Zapa
tit
▁aliment
▁Tard
▁Douni
j
Pit
▁lôniba
▁île
▁finan
usses
▁didja
▁danse
ondes
▁dowerew
▁courant
▁Orleyan
▁avoka
▁affirment
▁traumatis
af
▁épuis
mousso
▁Gomulka
kèren
els
▁européenne
▁ɲuman
▁muso
▁djate
▁processus
sseur
udes
▁relativement
▁association
▁distinguer
▁dédiée
▁sort
▁valables
irent
▁coco
▁concentr
▁Urun
isolent
▁Manarola
▁pétr
emploi
▁kegneli
▁parent
orde
▁wulu
▁brevis
▁Bere
▁mirila
▁frou
▁yin
▁capteur
▁nationalisée
▁scul
africain
▁lende
▁mizi
tuguèsi
▁Edison
▁ladégi
llem
▁keraotred
▁Lodin
▁komi
guèlèya
▁multipli
tégorie
hiver
▁bɔ
▁substances
▁logici
impôt
▁poils
ouvez
umé
▁apilikatchôn
▁Spri
▁Odyssey
▁tigènin
▁situés
▁struc
▁inculpée
king
mɔgɔw
▁Royaumes
▁brûl
▁Afriki
ingbinla
▁2.8
yere
hotonw
▁particuli
▁FBI
▁Zaridèn
▁Tr
léounw
▁kad
toru
▁Kôgôdji
avance
▁yere
ard
flèlà
▁moi
inézi
agasaki
▁biei
▁désolé
ôli
▁jaraminj
ority
▁yɛn
▁voc
▁essayé
▁importe
▁profondément
▁cons
stem
Australie
▁métrop
Shannessy
▁compréh
▁disponible
▁demisén
▁lôhla
▁réussi
▁Jummah
▁impressi
rou
▁gra
▁spécifique
tiennes
djê
▁apparent
iner
erv
▁écr
ank
éche
▁devinrent
▁demissin
longueur
étape
▁anafa
▁symptomi
▁konondon
▁kayôbô
▁Pale
upport
▁mâchoire
sɛr
▁Agenci
▁Paro
▁kɛlɛla
▁matéri
▁église
▁Barça
▁matin
▁libéraux
ctiki
▁affaires
▁professionne
▁debout
▁absolument
▁gestion
▁somme
▁nunun
suite
▁étoiles
ophes
▁sorties
▁supprimé
adhésion
lemanw
▁loc
▁Expé
▁Ale
▁sinɔgɔ
▁éji
Nanfolo
▁bipèdes
▁fanfèlala
▁cavalerie
▁baigner
▁maka
▁doua
▁Ces
▁évolu
▁avion
▁mɔnbili
▁atta
▁yeleni
▁conn
bétibana
aves
▁Boston
ankhamon
▁victime
▁kɔli
ator
plendeur
▁dôrôgui
▁kerena
écesseurs
▁tôgôfôli
rzezin
▁quotid
▁indépendant
▁sanfi
▁Mass
▁obtenu
▁dôn
▁agressive
▁mangroves
▁McC
gnez
lites
agi
▁SU
▁u
▁tara
▁tônô
▁sêbêkôrô
▁djoro
▁mouiller
▁gala
▁Bhout
▁olugula
▁zouroun
▁relative
gnôgôna
rerie
▁Uptown
▁gweman
▁Voté
▁lade
▁jolo
éci
▁méditation
barohya
fènw
ministr
▁Frank
étend
▁gbema
▁nour
mobiri
tema
▁toutefois
onsègue
▁massala
▁législatif
ouna
▁teme
▁Smyrne
▁akanôgô
▁bes
▁Syri
▁Angné
▁utilise
▁moini
▁peine
▁retrouvée
▁Dun
appelée
▁kalikan
▁songonka
vechkin
▁Tirini
▁véhic
▁teka
toyaient
▁Mont
thern
périence
keilaw
ara
▁Suisse
ckstrom
▁né
▁sorassi
▁partout
olyn
▁éch
-1912
▁Anglaisw
▁sendon
▁fournisse
▁Tours
▁Biguèw
ôt
▁précipitations
▁Nordic
▁naa
▁Pila
implication
▁diam
vala
▁Abé
pibli
▁Gr
avid
ampsh
▁désignés
▁lasinsin
kopoulos
▁Dix
▁confrontés
▁bise
▁wagatimi
quête
▁quasiment
▁séjour
▁résolu
▁beka
omi
kissili
êbê
Yafa
▁sirini
▁laur
▁aimez
▁Johannes
▁vincent
▁dékôrôba
▁binaires
▁Sister
▁Peters
▁Obei
▁Alexiou
▁formée
▁Moldavie
▁histoire
▁môssô
▁Hu
▁arrivé
assemb
jourd
▁dinde
▁foni
▁sougo
▁intuitif
▁tours
▁blessure
-6.
▁Siripor
tient
▁waguati
▁cɛkɔrɔba
▁activ
▁devraient
sons
▁européennes
▁famouya
▁amɛrikɛn
▁ikoun
apers
▁cemanve
▁Royal
▁bangira
▁groupu
▁fati
▁tridim
▁tropical
▁fixe
▁belen
▁duwage
tte
dônan
▁Feere
▁cardi
cri
▁ports
▁largement
leri
▁réalité
▁dépression
▁Eu
▁tâko
Uka
▁Chisinau
▁Americainw
▁gravé
▁progrès
▁fusionn
matise
non
mɛna
▁rusi
▁Constr
site
▁yiriwali
▁yɔrɔwɛrɛ
▁genetiki
assées
udg
▁ɲɛnin
▁adonner
▁matchi
hirimè
▁Hakilito
▁rol
étaire
▁Sè
insi
▁Ali
▁boutiki
la
▁misaliya
▁enf
cles
▁Aucun
▁lagési
ck
yor
pumba
▁photons
▁gnôngôdan
▁OIC
rygva
▁dicté
▁Mo
▁exer
Uni
ins
▁program
▁dam
▁dépassaient
▁Cud
ussettes
▁exprimé
aître
▁Sèmbè
impéri
▁arr
▁Pres
▁Soufè
▁richard
▁dougoudé
▁dôlô
▁filé
▁livre
▁exigent
▁okèra
▁Tchan
▁Peremiyé
▁(1
▁luci
▁filà
aï
▁sols
▁procéder
avent
▁pert
▁karama
▁bateau
▁Sebew
▁Capuzo
▁3000
étaient
▁active
▁midi
uté
▁fabule
00.94
érer
▁mph
▁trouvé
▁urgente
▁yɛrɛma
▁toumbe
▁oyafô
▁papiye
▁réglementations
▁tɔgɔko
bini
▁fouteni
▁mariti
▁Noor
vèn
▁ci
▁éducatives
ouleurs
isol
▁trouv
▁faudra
▁indépendance
▁iman
▁dat
dge
▁fana
▁grap
faw
inconfort
▁tle
▁x
iguïtés
▁applications
▁gnangbè
▁défendu
▁tɛmɛnin
▁kokɛ
cosse
mart
▁transfér
▁cro
▁Beauty
▁diman
▁kosson
▁Kumasen
▁précéd
arola
éens
▁continuent
habite
▁Tay
espresso
▁sol
▁enregistr
▁mɛr
guida
▁Kitabu
▁monnaie
▁iyi
kela
doh
ty
▁demandes
▁conduire
▁disposent
djali
▁signes
▁incarc
▁nafa
▁fitchini
gislation
tieuses
▁État
▁kimi
▁kulé
▁sirada
▁critique
▁sous
▁volent
▁dij
▁noires
▁Hin
▁explications
▁mack
▁controv
yanyini
ristina
▁souhaité
▁dôgôya
▁debaya
▁chapelle
▁bah
anta
▁précip
art
▁Jeongeu
▁ret
▁(200
▁55
▁voyiez
kanfo
▁dulini
kênêya
▁sisikourounw
▁inexact
▁Ng
autres
▁gnéni
▁doulo
▁konô
▁sangui
iction
▁certains
▁nett
▁Cur
usten
hiti
▁gnamatounou
▁subtropicale
▁lamɛ
▁djôô
▁routes
▁yôrômako
djuguya
▁terrains
▁lobei
▁candidat
mont
lafan
▁Mux
▁Misaliya
▁doig
ren
▁ullman
▁namine
▁Puerto
maw
▁siginibe
▁ZMapp
▁iya
▁fonafolina
astruc
extrémité
▁Mondi
guei
▁appareils
▁télévision
▁lôniya
▁REMs
artefacts
▁Oh
▁tro
industrie
▁partiellement
lonbaga
▁public
▁réprimés
kission
▁cultures
▁dayɛlɛ
▁Nouv
car
▁37
▁wayashi
▁influence
▁y
▁387
▁grandement
▁forli
▁jardin
▁Zambi
▁quartiers
▁poissons
édér
cationmin
▁Saan
endement
▁kele
ouvre
koç
sètiw
▁phil
Démissin
ginna
▁Kuruséfo
▁ladèrè
tigi
▁cerfs
inclusion
▁cadres
tement
Ac
▁XV
▁froides
▁chanteuse
enlandi
▁pankurun
▁Gymnas
▁lataga
extérieur
▁audace
▁décis
▁surf
▁déclarez
lasi
▁déclaration
▁Ngawang
▁digues
betha
▁sirakankasara
walé
▁keilei
▁sokônô
ota
▁III
œur
▁couches
▁kɛwalew
▁Fluke
▁dépar
oilé
▁djolibon
▁famuna
▁fusil
ssôgô
▁djam
▁kouda
▁dénni
▁tchera
▁dominé
oriw
vis
▁avérée
▁affectés
pendanci
▁montraient
▁bagabaga
ken
▁solosali
▁sɛkɔ
▁exp
instant
▁spec
▁1940
alog
▁djeni
▁178
▁NSA
▁rouss
▁mail
▁canad
▁fôn
▁positifs
▁ruines
▁ye
▁moine
tabli
aimerais
▁perr
▁flore
▁gwɛlɛ
▁internation
arctiques
▁tourists
▁timinnan
▁gôrô
▁balôn
▁luminosité
ario
chettes
▁mons
▁ahou
▁layôrô
▁répu
kurun
▁waritigui
▁Olympiques
ruya
▁dinosaur
▁dernières
aucune
▁entrait
▁nôrôni
▁pai
▁mur
aider
▁karri
▁nabe
▁kunbaw
▁exon
enfuir
ashington
Ont
ité
▁métiers
v
cre
mith
▁St
▁toxiques
dɔr
▁jagokèyôrô
djata
iapoque
▁feu
ano
▁chev
▁tige
▁trei
aked
▁Boudd
hanto
▁Piratiou
▁sayéla
ɛna
▁autorités
djouw
actitude
▁connais
▁Siminoff
▁pay
▁juive
lis
▁Londiri
▁labôra
ttaire
rouya
▁carr
▁apparition
ulture
ctioni
▁taille
oph
▁Miss
min
▁alimanw
▁problématique
▁difficultés
▁laminan
▁diversion
tché
▁cɛman
▁jette
adapt
▁lanan
▁cre
ando
▁ferroviaire
▁Dja
▁lada
sula
siye
▁remet
rand
tobre
kɛla
ales
▁Zhab
▁Angile
▁Down
lication
âteaux
▁reste
▁kojugu
wang
▁Malte
▁dessus
▁compéti
outchev
▁Y
▁poign
anistan
,
▁1978,
ores
▁Eli
▁wo
▁adolesc
▁Champ
▁clients
SANParks
▁kateimin
▁Macinin
▁fotow
▁tôri
mah
tcheiman
jet
ada
▁barada
▁wangan
araté
érif
▁réalisateur
échange
64
▁gbeniw
▁acceptable
omph
▁peux
gby
ôgôfôgô
▁bakônô
▁tirer
▁Aristo
▁buguyala
▁koulé
▁régionales
▁Ser
▁bonkɔnɔ
▁soir
▁kitabu
▁lâ
▁Déng
▁réex
ectue
tiqu
▁tinminan
▁tèm
atique
▁générales
▁codi
▁Sirena
▁atte
▁coc
ONG
▁américains
▁mafin
▁hit
bimla
▁majeur
▁sangso
▁lafèrèra
▁lugu
▁forlor
▁russi
▁respectueux
▁auberges
ponaisw
dans
▁maminè
▁Stand
lisabeth
▁djoussou
uel
▁quin
▁koudi
lées
ence
▁stocké
olola
▁félicité
▁nouvelle
▁péréfè
▁2000,
▁relie
bananw
▁164
▁mandat
▁attitude
▁kètchogoya
mbre
illée
ssaba
▁oboro
ascension
▁berb
exception
▁Picc
▁diâtâ
▁kènèkan
▁anbé
zaki
▁kamlan
ssy
:11:
▁En
ots
▁trrassiw
▁abesse
▁boko
ciation
▁kikanto
▁Nitendo
▁protéines
▁point
▁effet
enkoulou
▁violentes
▁discours
airie
▁toumbé
▁austr
▁Polo
▁africaines
▁déroger
▁pain
▁sounou
gnongonyaw
▁caval
obstétr
▁Wild
▁oui
▁sorte
houw
▁bengali
▁séri
irer
fou
▁Sa
djoukɛ
▁châteaux
ufth
épicé
▁Ladibaga
fugulan
▁téssé
▁estiv
▁fissa
olat
orth
mouyali
▁bactéri
di
▁fonctionne
ritiali
▁2014
hér
▁sâme
èkitrôsikô
baptis
▁ayira
▁Princesa
fanga
▁citer
entend
▁:
▁souffr
aurès
▁makoyaw
igneur
▁ataga
▁pintiri
▁habitant
▁dégou
own
▁Mexico
▁otéssélà
▁Whistler
▁devenus
▁saa
▁méthanol
▁Ceux
▁Syrie
▁Hek
▁inerneti
▁dîn
▁lourou
▁kɔrɔko
▁compose
épic
▁base
▁Celli
niglia
▁avis
▁Ocean
folo
tation
agissait
honneur
▁utilisé
▁communi
▁aimeraient
▁essay
▁tuant
ranola
▁Hol
aints
olue
▁moustiques
auridae
éléphants
▁durer
▁kelepen
▁bɔni
▁baleman
▁lieux
sarakala
êrêla
▁1.5
▁fon
lumière
▁Faraou
▁Santiago
▁kounan
▁remplies
▁puissante
▁tugu
çonner
▁klancɛ
dien
▁Dounian
▁suffis
▁sèbèlikè
▁1992.
inako
Somali
▁Shari
▁rumeurs
jong
séré
béti
fili
▁yira
▁siginfe
expulsion
ctions
tari
mission
âtre
▁kuntigui
▁jeux
▁prokirè
▁cédé
ye
▁assis
▁tile
▁traverse
▁coup
▁bena
▁ladôn
▁raisonnable
américain
premier
▁naan
▁convers
▁kɔnɔn
▁diuré
▁composants
▁sauter
irap
çonné
ppareil
▁maîtr
▁wèè
umelles
▁dispose
GBP
▁Running
▁môm
▁émission
▁assassiné
▁canadienne
▁Lake
▁barla
▁fort
▁exprès
▁conç
onic
▁baji
▁kourouwo
▁agents
ourir
▁atlas
▁Compan
▁pos
▁miriiya
arbans
▁196
▁dissiper
thera
▁malvers
phants
▁kofɔ
▁espresso
▁Taiz
▁portent
liff
▁Biwôro
cess
▁Ngorong
antième
fôgô
▁dérivé
oung
▁réelle
arer
yslaw
▁sur
▁même
▁Filipini
▁présence
▁gazon
▁poser
▁portrait
▁kafo
▁agressi
lôru
doxi
▁wéléla
alt
mmer
▁noirs
yara
S
iopie
empêcher
▁apilika
incur
ing
▁chaama
▁effray
▁baga
ériale
▁yann
▁cryptées
▁laisse
▁embard
▁hy
ouillés
▁Chinois
iger
▁Nga
onikuluw
▁Montana
▁hang
ffa
▁légalité
▁1979.
oï
engen
üsl
ahl
▁perspec
▁préd
élèbre
▁dabéri
▁ling
▁sinanyan
▁pronon
▁chiffres
▁lasséla
ènè
▁Roma
▁totalement
▁conjoin
bê
▁Casa
▁tchianmi
▁tir
▁Zenerali
▁entre
▁zɔrz
▁kisɛ
usives
ri
ynch
▁odeurs
▁Alemagni
▁placée
▁dèmissin
▁concern
▁fotola
▁gol
▁initi
léman
▁183
▁(19
▁quas
éréales
▁Yaku
▁Tasmanie
▁déclen
▁asidi
▁reculés
▁tumadɔ
▁Jelinek
▁attein
▁filament
▁Yosemiti
▁james
▁hei
ginia
.
photon
▁Sealion
dɔni
instar
▁rɛ
▁communau
▁(9
▁dévelop
▁Luf
▁chila
jar
▁bonna
▁tinminni
admirer
ssium
▁tais
▁jèngè
ckiw
uve
▁Erectu
ackstrom
obsc
▁tei
ésus
▁sari
▁kotiguiya
▁enregistrée
attends
vement
▁fitira
▁posées
▁catalane
▁Lakôliso
▁cen
▁habitez
ssan
reurs
Bst
adwalder
▁kilo
▁italiens
▁pasazé
▁lakolidè
▁atr
▁falenfe
▁dɔnkɛ
▁ADT
▁hana
▁vieille
URS
ú
▁Nintendo
annulation
▁proposé
▁Dub
cularités
▁Autri
▁composition
▁lôni
▁Tara
▁kokow
▁waléya
mère
▁izini
▁total
atiques
▁apporter
aguá
▁Beau
tihua
▁tâches
▁massaou
ève
▁journ
▁thermique
▁Bamuso
▁chariot
▁jabili
delwal
▁djanyaw
▁cariti
▁toumami
▁compétition
▁ketchogo
▁succomb
NSW
▁Tropique
rip
yé
▁Arist
▁tchedo
▁yena
odoxe
onn
esti
▁inves
sie
omm
écutif
▁hakè
▁décembre
▁voud
▁saki
abilasêbê
▁série
▁2011.
▁Riina
▁ayere
▁caaman
buqu
▁rectifier
lvi
▁accomp
▁togo
▁présidentielle
▁Kônonw
▁diili
▁gnouman
stus
▁dà
▁témoin
▁dépenses
zona
▁Me
▁Treton
▁besoins
ratiou
▁classement
taga
▁19
▁salva
▁apprent
▁montréal
▁sorti
▁jamakulu
▁kunbèn
▁tônba
▁appelées
▁maroc
▁éclairs
▁regret
▁dil
bén
▁n
J
▁seg
▁civiles
▁Filipine
chette
▁wôrônan
tera
▁train
siers
▁supérie
oise
sondiya
ll
▁retire
▁baou
▁bange
▁lié
▁mixage
vɛr
ues
kolotolo
agues
Assunpink
ɲɛ
inmin
naliste
djanyénan
onstitution
yɔn
sselika
▁charme
▁1767,
▁Fan
anan
gandiya
ème
▁pistes
▁sourd
▁ethnique
▁reven
▁flètigui
▁usage
▁bruit
utilis
▁financi
▁subs
konnonfé
▁Oldrich
▁adamadéw
▁jamakoun
▁anglèw
ertifi
▁piég
▁tapis
▁até
▁gnagami
fari
▁ɲanɔtɔ
muli
▁nombrou
▁foli
▁keleye
▁Né
▁Laskhar
ains
▁Fuzé
▁familial
▁Th
▁gnongonnan
tional
ene
▁cinémat
▁founteri
▁journées
11,000
accept
▁bawu
▁ɲaga
▁robinet
▁Sarasvat
largir
dire
▁Singapour
▁crevasses
oyal
▁communauté
▁tron
▁labein
▁Red
▁délais
ysturoy
▁brisée
▁nommée
▁vacances
▁lantiyi
fer
internet
▁Tou
télé
▁Tanni
bala
▁ula
▁dispositif
▁la
▁pod
▁clé
dèssè
▁insulaire
▁catal
▁bains
alpin
▁spectre
▁chaises
▁dôtrôssola
▁descendent
▁kônôdô
▁Simpsons
▁gnasini
ignes
atation
kôfè
▁alougou
▁agent
▁far
▁déplace
▁aimâtes
▁pond
▁inter
▁trouve
bahana
▁Gol
▁dix
▁cal
▁2004
▁fôgn
▁yomi
sar
64)
ssériw
▁emploi
▁engendré
▁contenir
▁naz
▁djoumè
▁lôbèni
ama
▁denw
los
accumuler
irag
▁medecin
▁marqué
rankelaw
tchianman
hamene
▁Kabini
édi
▁maurice
▁jamananw
▁modifier
▁lasôrôkadi
▁Bulgarie
▁tôliko
▁nasse
aturne
▁fois
tairi
▁tarikou
▁territoire
▁ladinan
▁olymp
▁liberté
▁lɔnni
audin
dri
▁égaux
▁amour
dah
édoise
eresse
▁faratiman
bɛ
tici
▁plac
aillir
OVI
▁nôôrô
▁4892
▁milliers
▁X
baarafènw
lli
dilection
ce
▁pétition
▁lis
▁dayèrèli
araka
océan
▁délimitée
houdry
ométrie
▁selon
▁gba
▁Na
▁gouv
tiennent
olit
▁Allimagni
èkitrôsi
▁Fools
▁muyun
▁toumné
▁apoloX
▁méconn
▁musomani
ssar
ourley
▁djankata
urrence
▁tèmè
▁signe
ichy
ravec
vie
▁entraîner
▁terres
▁sika
▁sens
niw
▁kôkôrô
erre
▁zones
▁calendrier
▁normes
▁kurunb
erlin
▁ta
▁ɲa
coura
▁Awla
innenstad
▁Buffalo
turu
▁snowbo
minèw
▁voy
lôsi
ozones
▁navig
ouli
▁lakisi
▁4:41.3
▁celles
ticul
lombè
▁fôlani
▁assemb
▁bakiteri
cept
▁crêpes
▁Stearns
▁lettri
▁éclairé
▁Vati
▁aradio
▁wotchè
▁varient
SANP
▁Orchest
▁traî
▁éval
an
▁Nordi
▁fréquentées
gola
▁pas
▁kumakan
▁wosso
▁fɛn
▁dorgor
kolonw
▁propos
▁Baa
▁kaa
▁djalan
lényôrô
oid
▁ekɔli
▁sɛbɛra
▁focale
existence
africains
▁diffusée
▁kilomètres
aycurú
▁dimana
nations
▁demeure
▁Marciej
▁djamaan
ranéen
▁scanneri
▁Trash
▁saba
mechi
▁koulouba
nodô
▁envoyé
▁laada
▁hakèya
▁exc
viétik
▁soli
use
▁makaritɔ
▁rep
▁wonlo
▁uwya
▁canadi
▁Abraham
▁munies
otre
▁bébés
▁tourn
té
▁abôni
▁zak
hent
▁fèn
▁djamdjam
▁kèrèkè
▁tileben
ôle
▁équip
konnon
th
▁rêves
pec
▁béssé
▁sénbôra
▁financement
▁sèbèri
▁chariya
▁voyez
rili
contin
▁féroces
▁londiri
▁tagali
Ïles
▁résultats
▁scrutin
riegs
uél
▁temeni
▁horaires
▁labanan
▁sert
▁lonan
▁relais
▁cyclis
shir
▁paons
▁doli
▁ri
▁médical
▁wotoro
▁aboko
loli
ophane
▁Keme
▁porn
▁démontré
▁antic
coun
▁yama
▁tiguiyé
▁juu
▁Rwanda
oût
▁will
uteur
épuisement
▁Lizini
yani
▁élevés
ationali
▁yala
▁kinda
▁pais
▁char
kitɔr
▁donguirila
▁méditerran
koroni
▁Opéréli
▁toka
▁ɲɔgɔ
▁lorsqu
▁sababoula
▁quintess
▁négué
▁tchin
▁diamètre
▁Dylan
anne
▁tari
▁délogé
▁Rockh
▁Anatoli
archipel
▁Gnami
lant
▁Cam
▁trouvaient
ssouman
▁Dominic
▁porovèn
▁McMurdo
lla
▁Tin
suba
▁déclin
▁Ea
▁saraka
▁kre
mougou
▁chim
observ
gnouan
elle
ôpou
krit
▁printemps
▁boutons
▁ins
▁Dugumè
kirk
▁Dumuni
▁gnaden
▁jurumu
OPEP
▁kêlêkê
▁maana
▁Abei
▁Formule
▁Stars
▁stables
chauff
▁116
▁Malouines
▁Tônba
atal
▁revanche
▁sini
▁Japonaiw
▁korobaw
▁cac
▁App
▁Prem
Académie
ö
sèguè
pusino
▁nisôngôn
▁henry
▁marfa
▁nila
sigibaga
extG
▁acci
▁kamelé
thur
▁salle
▁éner
▁Obeila
▁incap
▁lesseni
▁Fênbêrên
▁formé
▁Ses
▁Phnon
énergie
▁trop
aland
▁kogna
▁poison
▁permit
amaw
▁demena
▁Motor
▁traditionne
▁wan
▁nôgôya
▁kôdji
anger
▁Horrocks
▁cel
▁bell
estueuses
▁sossiyété
▁septe
▁économ
▁vrai
▁Oldsmobi
▁tôto
▁yôro
▁dako
êbêli
▁gninchi
▁dantanfɛnw
▁kano
▁grève
▁sauce
▁accessi
olf
▁tornade
▁1000
▁fuites
▁dunigna
▁djaman
▁dow
ɛru
▁gninili
▁Harappa
▁angi
▁britanniques
▁kɛni
▁tic
▁paix
▁Olympiki
ity
▁Bavière
▁attendre
allée
épicéas
▁services
ttes
▁Massatcè
▁avansi
hérence
▁176
▁noyé
▁guintan
▁connu
▁ouvr
yph
▁gnei
▁fongnon
▁kountiguiw
▁tchieiw
▁Soph
▁sandji
▁métropole
▁sitt
▁lado
▁paraît
▁set
▁gnaminan
▁Garcia
▁libéré
Hawaii
▁lakiti
▁utilisez
▁Manss
quants
upp
▁Bis
Chili
▁supposé
▁Upani
▁tèfohiyé
▁dalil
siri
▁cavalier
▁coungo
pho
▁cɛncɛn
▁Grand
▁Turkish
▁XVIIe
▁romane
V
▁réalisations
▁(1994)
▁djingn
mbla
èri
▁Sandji
▁Dou
▁gêlê
neurs
▁poste
▁Island
▁kom
▁détruit
ries
irainouw
▁nanya
▁Seoun
▁mentionnée
▁sariyabilako
▁complè
:41.3
▁Versace
▁mia
▁fauss
▁serré
▁kolabê
▁pul
▁demen
▁nisongon
▁beséng
doron
▁physiques
▁fitinin
▁pusi
▁vitres
onome
▁devaient
sigui
ouve
konlo
▁anglaisw
▁fonctionnalités
▁Hambourg
▁Nepa
ordial
▁souman
onie
▁kègnè
koumbèn
▁bouton
Zélande
▁Tous
▁situe
ênê
ôlô
▁tounbi
▁vitrées
argu
otte
ON
▁Comp
▁pɔnpe
▁Antar
▁minnin
▁begnogon
▁restaur
▁globale
▁pris
ant
▁inform
moothies
▁podcas
▁dokotoro
▁tougouni
▁2007.
▁Champion
éremment
lory
lal
▁barokè
tés
mafén
▁chaaman
▁basses
▁amandes
bassi
▁-820-).
▁labaarala
▁cherre
▁septembre
▁General
▁pécuchet
▁foo
cela
aul
▁djatéra
▁écrasé
UNES
▁faralén
influ
▁tôma
▁Pennylv
agant
▁gouvernements
▁rotur
tchogow
▁prendre
ystur
oyens
▁remer
▁terebali
▁kasé
▁Alexandri
▁gnana
▁gninin
iquement
aïd
▁surplomb
▁kôségui
▁Bari
▁constitu
tilen
▁direc
▁Mumbai
▁kado
▁ladinein
▁parallè
▁australiens
wôlô
▁sûre
▁retiré
▁binanni
▁exigu
▁dino
▁miyé
chin
▁athlètes
▁or
éloign
▁esp
▁québec
air
▁damimin
▁gnanama
▁kokèta
bal
pèrin
dami
appelles
obilistes
tique
iw
▁découv
pierre
▁préal
▁tigè
▁colabè
ophysi
▁kunutaw
▁donant
▁respec
▁gnina
▁cupu
▁kamangou
▁tiguiw
▁kamounou
▁pori
▁Bibu
ACMA
▁Siraban
▁fê
▁fölö
▁loniyara
mèsira
▁zni
▁mifin
▁sora
▁fortement
▁pɔ
▁descendu
goudou
▁prog
▁Formosa
▁kilara
▁rapidité
▁Banabaga
▁tɔgɔ
▁zaburu
▁Mini
yélà
hydr
▁ass
▁Baba
▁hêrêla
▁djatéyà
▁bilingue
▁nankɔ
bons
▁mortes
▁cop
▁Jonny
▁o
▁yaourt
▁Amérik
Pittsburgh
▁anbéssé
▁tar
▁Bloch
▁Ed
▁drô
aite
ône
omaggi
▁crème
gbe
▁dakunla
▁privilég
Nu
gou
▁ainé
▁wéléni
▁Brésil
▁sigɛni
▁madam
▁16
▁inconvénient
ypique
▁faumuya
▁faa
étéo
sfore
▁minis
eckiw
form
djateya
aisons
▁désert
tinople
▁dougoukoro
▁http
▁contrace
.1
▁croûte
▁flèni
▁filizö
▁djèkourou
▁miss
▁différemment
▁saisons
▁arriver
▁djèbè
▁akônôn
▁688
▁ordonnance
▁fara
géré
▁téréla
▁habite
▁dogon
kénlé
▁julôn
▁cue
Armée
gelos
▁Le
▁fille
PWS
▁nɔnɔ
▁Livingst
gon
▁lɔgɔkun
outils
▁kere
▁(2,3
▁yalake
tice
▁Cézarièni
▁Schumacher
▁john
▁tomber
▁djuguya
▁Wemble
quentin
▁pensée
erbivores
guant
▁lonna
▁construction
▁surmonter
▁Binayôrô
▁Liggins
▁tonnie
▁Kèrè
▁Fern
yaga
▁humaines
▁dew
▁combaw
▁CowParade
▁Hotel
▁lohla
èmes
pona
▁militia
enw
▁not
▁pakistan
▁olé
so
▁vive
▁layiriwa
▁dankissè
hakera
▁magaya
▁couvrant
▁méthode
▁boroman
poloX
▁déj
exas
▁nahi
▁Octo
▁Barakè
▁Washington
▁Médecins
▁nataw
▁wale
▁sec
▁falen
▁kawa
denwara
▁Rain
▁changements
▁coh
▁source
▁battue
hilipp
▁perception
▁attribu
▁décorer
▁tando
▁Libye
icolage
kôrôma
▁propose
▁Saarinen
▁zapone
▁récu
▁Tchannan
akistan
▁kasse
▁kanan
▁biyéw
agers
sus
▁Bra
▁anôgô
▁lassin
▁nronni
üm
▁gnongon
Auckland
▁adoption
yanèguèsso
▁tsunami
▁Fili
▁yataga
▁enc
ition
▁sigini
▁microscope
▁grotte
▁pensait
alanche
phère
▁Malheureusement
▁coinc
▁millions
ahar
▁réfléchissant
▁-8
lieu
▁Massatchè
▁émer
▁sabari
sseni
▁jɔrɔ
▁makê
▁ladjèle
chéw
masiɲɛ
▁forçant
▁pisi
▁sauvés
▁moteri
excell
▁korotani
▁pau
▁sôbê
▁éné
▁Atlantiqui
mɔgɔ
▁Acteur
▁satellite
dalini
▁abrit
ɔnɔninw
▁rangs
▁enregistre
▁surpr
▁envoie
▁kios
▁kaw
ology
▁ɲɛ
▁kosô
▁Reagan
▁koubé
▁Norve
lotte
▁privil
▁ɲin
sieli
▁subi
39).
▁Wayagiw
▁capitale
oumani
minan
▁nè
▁nonnon
▁missêni
▁fén
▁héji
▁Carol
▁philos
▁fefle
▁tesse
tez
▁relié
▁apporté
tone
ighur
▁ɲafɛmɔgɔ
▁Nazaraw
▁tericɛ
yaman
▁Presque
▁yɛrɛman
▁Herost
▁législation
interromp
▁sosso
▁demissinw
▁Leur
▁produire
ase
▁carbone
▁record
▁visu
▁résulte
▁por
▁tagara
inisôgôma
▁Stardust
▁koungsô
▁Tilé
aiman
▁bɛ
▁pillait
▁texte
colas
adj
▁4:41.30,
dyssey
▁capacité
▁dôhuw
zan
▁arrêt
votre
elop
iş
▁rr
▁djangalo
mpe
▁there
▁tilenan
actère
▁ɲanamaya
▁septent
cience
magnanman
▁protest
▁djèngèn
▁T
▁unités
▁gnamakun
azawa
ajouter
▁devrais
B
ures
thema
▁lasourou
innov
▁deuxième
▁recourir
mi
mbé
▁Har
▁posi
▁ninw
▁Fitina
alliances
▁yɛrɛkɛ
▁dépasser
▁Islande
▁ouest
▁sisitè
senw
▁vont
▁lomina
kyteam
▁2008,
▁tlé
▁parties
metri
▁lɔn
▁op
kosson
▁kalansoba
▁div
▁Hamlin
▁susc
▁fosfore
▁manœuv
mpsi
▁businèsi
▁bèrèkè
▁nantis
oléon
▁zɔr
▁taux
onwealth
aris
▁dés
▁croy
ssomili
▁Farafina
▁labilali
▁1995
▁démisèniw
▁lun
hine
▁kɔnɔntɔn
uire
conque
▁lônla
▁gnôgôtè
▁yaabu
▁civilisation
▁entières
”,
L
▁résolution
lala
ectu
mand
▁comment
▁janya
▁canadien
Pierre
AA
▁Initi
▁filimu
▁djumlan
▁officier
▁lahou
ôgôla
▁logoba
▁Laskar
▁Faransè
arcè
▁vis
iffr
empê
mznahou
▁Sla
▁tagayoro
▁tilen
▁conséquent
impos
▁sirabada
▁pourrez
mayala
▁prétendu
veillé
▁minanw
▁Qing
▁chauffeur
▁kambelle
▁nɔfɛ
atome
▁acérées
’«
▁brûlant
▁autoriser
▁egli
cieli
illons
▁pisito
▁adjumlan
▁propres
▁massatche
ɛ
ackstr
lande
lamine
andi
éanie
▁vas
▁kakê
▁tiléni
▁uyèrèla
biliw
▁dent
▁fotolabô
▁nônyara
▁Jud
▁chhappan
sou
▁tinrin
▁mairie
▁faan
▁pauline
èrent
$
▁dougoubaw
▁Rotor
▁teniez
/
▁diagnos
▁essipa
▁maintenant
▁kouna
crit
▁gnabila
ike
▁mondiaux
unada
thi
▁worobaga
▁koo
lusion
▁thé
▁banquets
▁Lo
▁marala
espagnol
▁skiw
▁Quant
teissi
▁nafolodo
▁tôgosèbè
▁République
▁fintchin
▁gnanadje
tali
psu
▁tôrô
▁miyato
▁ger
▁étiez
▁brun
▁hakiri
▁ladinali
▁compos
▁illégale
bert
▁rythme
▁sk
▁gbèssila
▁ligne
▁hôrônw
▁dents
▁nim
rra
▁sap
▁tourne
▁colber
▁ounce
agerie
▁ssala
▁kasô
▁boo
▁kolossi
▁exper
▁lumineux
▁WNED
▁kurunin
▁pensent
▁kei
yɛn
▁sortie
▁tɔw
▁tes
pɛr
nô
▁Aleis
ia
▁ajouté
▁Grè
mark
▁sodén
▁indépendante
▁djouba
dinatèri
▁kumana
▁veiller
▁kôrondô
▁dia
▁ambe
▁instr
▁bot
oucht
onald
autor
▁tete
▁gban
▁waajibi
▁gnôô
▁divers
▁tabac
quadron
▁Katirina
▁idéales
▁dinmin
▁yêrêfaga
▁wagakélé
▁lamɛn
Assun
▁progamou
égui
▁déplacée
fol
▁fournir
▁berlin
▁MAC
▁nafama
ises
▁Bina
mbê
▁lien
▁raids
▁sav
ɛr
▁édition
▁policier
illade
timafia
▁Trois
▁sababuya
▁fédér
Bremer
dron
▁zoom
dth
▁carrés
▁zelande
▁flà
▁intimid
▁Djonan
▁fondamentaux
▁nama
éloigne
▁trombes
Internet
▁conséquences
us
▁bafokeng
▁miliyon
orthographe
▁tarikura
▁Gre
▁changez
▁Cap
▁ikanto
▁yanna
▁médiéval
▁Tôgôsèbè
▁(240)
▁optiki
▁lasôrô
▁majigini
exploit
▁forma
quer
▁nazis
isk
▁yigui
▁lamini
heim
▁gnaraman
kissèyara
▁Astroge
énétiki
▁sô
▁center
▁Man
▁itali
zota
▁môr
sec
▁mieux
stri
actualité
▁infinité
▁nankofèn
risbane
▁parventu
Oyapock
inti
▁lourds
▁publique
▁cia
lankan
▁financière
▁controversé
▁commercial
lète
▁pétrole
▁métier
▁vienne
▁cohér
nes
▁R
▁cerveau
▁anvô
▁vik
beral
▁souwan
lèri
9:02
▁kalakala
▁yoloyo
▁magakan
▁original
▁épreuve
▁colline
okarot
▁verrait
▁330
▁weele
▁blo
angji
▁117
▁campa
▁marc
▁dôno
eBay
▁sanoufin
onoseki
▁ferai
5-96,
▁dooke
vonport
▁faibl
▁kɔnɔ
abriel
mahôrônya
elon
▁collab
cci
émité
urun
▁wartigui
▁sossiété
▁jam
▁red
mois
▁Glen
maga
▁incluent
euf
▁oro
▁fil
lad
▁étud
tiwiw
▁Equateur
▁Frequent
enland
▁persane
ographie
olitaine
▁bètagala
sebugu
côssimôti
Djenkoulou
levés
ys
▁nali
sanga
▁postes
▁biwolonfila
▁ɲimi
▁inquiétée
▁Sveri
aonic
▁»).
▁fraise
▁sabou
tière
▁Metrop
▁télénni
▁sougandili
▁nasson
▁complet
tifier
22,5
▁Aristote
▁cycad
▁sigê
ading
▁fènsè
agoon
▁alcoolisées
iritu
▁palmier
▁Moll
dollari
▁deb
eneur
▁mesures
▁misa
▁durɔn
▁menée
▁venge
▁buruyèri
▁sitôt
▁différ
▁Four
▁romaine
▁djèn
sinèsi
▁attraction
▁Sá
▁Neuf
▁Djamakuru
▁II
▁collabor
▁équatorien
▁Minou
▁animaux
▁routière
▁Soviétique
▁atteignent
omer
▁dessera
ulveda
cogoya
tabagw
▁dragonli
▁excellente
▁téna
▁biais
périment
▁atterrissage
▁Tcheckiw
rhô
aie
kaw
▁Binn
▁kitabou
▁wotchèw
▁corn
▁labé
utukawa
▁prie
▁Ceci
▁signè
▁djonnibe
▁%
▁renfort
▁baanan
▁bleus
Dire
▁proximité
acées
mafen
bilités
▁griè
▁scan
▁makônôni
▁kati
▁raisons
▁contina
▁outre
yɛlɛma
▁spécif
▁Iwa
▁tchanman
alth
▁QV
▁redev
▁amé
▁tchèw
dji
▁nucléaire
▁crois
▁fenw
ougnè
▁camé
▁nison
tikiw
▁Vénézuéliens
▁lakika
ã
▁soit
▁particulière
gnonkan
▁tali
▁Été
▁tchinguè
▁samahi
▁appelés
tei
éz
▁acquis
▁négoce
▁maniement
attendait
sion
▁humain
éjà
ryg
▁recharge
leyèri
▁déjeu
▁votisa
▁dort
▁Serv
▁filara
▁gnakôrô
atteind
▁Alex
▁Az
▁nanfin
▁waribla
sil
h
▁informatique
▁parven
▁yongô
▁fabriqué
atta
onasteri
tenus
ounds
▁venez
▁Cochamó
▁espèces
▁tcho
▁sɔnna
▁affecté
anarchie
ghara
▁kôrôçi
rusi
▁kôgô
▁lônigwè
accompagne
▁tôhou
▁blaani
▁prévu
▁biworo
▁réd
▁Nichol
▁Deux
▁seize
▁mati
ougounin
▁Belgiki
▁lassigiden
▁Ontario
▁aménage
ball
élève
▁chiens
inău
▁douni
dem
cerato
luminés
▁plaisir
▁kala
▁doni
▁réservations
tu
▁kèmèssarada
▁Eléments
▁annuel
▁délivrer
▁étranger
▁Gounkoun
▁1939,
▁kablahou
▁danbe
▁olékama
ñ
▁pyramides
▁Ri
erzbergi
ninfin
ortuguèw
▁dɛn
▁Banki
Trat
▁Égypte
▁Java
▁Zap
▁participer
▁Ash
▁tumbésé
▁Mill
▁Muxloe
▁clakoyaw
▁joona
uns
▁déng
▁délices
▁Barca
lomi
▁bakêmê
▁prononciation
sipa
▁diagne
▁téri
▁nourrir
orr
ite
erres
▁plat
▁the
▁kayak
ssaman
▁Afghanes
▁lekon
▁Io
gistiki
▁variété
▁sièc
▁solu
lamé
iss
ortugais
▁mogo
anman
▁dale
huit
Penny
▁appren
ial
primée
▁auber
▁déc
▁dôgôman
▁constater
▁regarder
▁kountigui
▁incid
▁gnafèla
▁café
▁conservées
mas
▁communication
▁lôdawlé
▁europ
▁obligés
▁emboute
▁diplomatique
▁arabalo
gwèlè
▁dakun
▁cuisiner
▁kounah
▁marcof
finsira
▁Méditerranée
▁201
▁sensibles
▁suffit
plutôt
▁yaro
▁sobè
▁fonni
▁bouôra
▁pêchions
▁battant
ré
▁entrav
▁reim
▁supér
skimo
▁lutter
▁mba
▁lasigi
▁Merci
▁pens
aroja
Natal
▁presqu
ical
▁prend
▁aviyonso
▁unions
▁Robin
▁expé
▁saria
▁Sientifi
▁dôrôtôrô
ción
ganmini
▁réalis
woyo
ika
sebenin
▁ancêtres
▁cyber
▁gîte
▁vul
▁bɔr
ativement
▁farila
▁lassela
gali
▁mimobiri
aillé
▁nasigi
▁péjoratif
▁Fairban
lation
▁rassemb
▁antoine
▁accueill
Ovechkin
▁sœurs
▁lotèli
lén
misɛn
tagama
▁yélikè
▁fam
▁mirent
A
▁».
ende
▁détaill
ropi
▁lézards
▁ma
▁Bernard
▁chic
sliya
▁Mayotte
▁gnanamaya
OC
▁tèssé
▁siranna
▁bit
▁Fere
▁merci
▁Méfiez
tignin
▁nisson
▁mɔn
▁kurukara
attants
▁décerné
▁Druk
▁fili
▁kabako
▁hôtes
▁alien
▁gosi
▁Birming
▁Central
▁My
▁facilement
usen
▁timbres
▁allons
▁noon
missin
oca
▁douce
aime
▁fôlasenw
▁197
teurs
kaipi
inien
Istanbul
itre
▁Gyongyi
▁feront
▁(105
▁passions
▁pɔrti
▁Massa
▁milliyon
▁wèèrèw
▁épau
▁préférés
▁Hancock
▁adaptés
▁dispos
étés
▁lè
ags
maréc
anw
▁lɔ
▁enseignement
afe
aulo
▁binbariya
▁For
▁sankolo
minoff
▁mimbé
▁filè
sur
▁bolofara
ituée
▁bɔn
▁Arabes
▁ubé
▁djiguini
▁Gna
▁Raonic
ètiriw
▁sɔgɔ
▁prin
▁Fil
▁liquide
▁médicaments
▁Et
dore
▁célébrité
▁segondi
▁sogw
▁digis
ponèw
tham
▁gninigali
accompagnait
gwêlê
î
▁ocelots
run
▁haminan
évolution
agu
▁brise
effond
▁cm
áp
teaux
heuri
atidjan
▁Antarctiki
affec
▁kônôdôn
▁étroit
issinger
ò
▁Ow
inilé
▁Siraba
polis
▁cycle
▁Kow
rire
▁creusé
élections
ort
▁londres
▁ordonner
entre
rchi
▁qu
▁pêcher
▁gothique
▁mix
is
GS
orts
▁Soviet
▁incite
tanin
▁garçons
ê
▁Yo
djabi
gnanagbe
in
▁gnala
▁walé
▁môbilibori
entral
nu
▁sté
éfiez
▁kosso
▁jumɛ
ignent
▁enrégité
ôkô
▁siguinan
▁dréguébo
▁signé
inrent
▁doyé
▁allant
diyenw
▁Howe
▁basé
exc
▁Fatima
▁'
▁kuw
▁tuteur
fɔlɔ
▁afô
▁Enfin
physi
▁Tinninlo
▁magan
eam
inya
▁karatiw
▁sagoya
ja
▁signifiant
▁Holborn
penden
▁laquelle
dessus
sôbè
arrière
▁coch
▁environ
▁323
uberlus
bein
▁derniers
▁inconnu
▁nèguè
tèmètèrè
▁Vasco
▁gnamogow
_
arité
▁hakekela
▁ubu
▁kerefe
▁tèyo
any
nibagaw
▁Mapu
ADN
kèlaw
▁Dutch
▁leurs
▁abadan
▁sommets
▁guverni
aillon
bou
▁(35
▁raconte
▁sentiers
horl
▁Ph
▁limoges
gnègnin
▁djigui
rousa
▁Déclaration
▁mains
▁teliya
▁fanani
par
énérali
▁Bran
▁ratifié
▁yana
édoque
mburg
encé
aw
▁Ephés
ënya
itriw
▁experte
▁gnoumanw
enya
▁susp
▁ten
▁seraient
▁croyez
▁drap
ges
▁Karachi
▁britann
veur
▁ministre
20
mouya
oie
▁ikka
▁surpris
▁tiɲɛ
▁tchôgô
améliore
anglad
▁kanman
▁akèlè
▁mogochi
doronfin
▁précipit
▁Damadian
▁ruine
▁évoluer
▁baraketa
▁livuru
enue
▁biseegi
djugu
▁wiri
▁beauté
nold
▁monne
▁déé
▁viendront
▁kogohdji
▁magamaga
▁Colonel
▁droits
▁planches
gro
ds
▁gnaga
▁jatigiya
▁reconstruction
▁sôrôdaw
djala
orter
sistemou
zberg
▁univerisi
▁dôtôrô
érence
▁choisie
▁mondi
▁France
▁biworon
▁esprit
arot
▁multimédi
▁photograph
▁cellule
▁limitant
▁forougn
jigi
▁pasipor
▁feen
▁kɛmɛjata
▁9
▁Punakha
▁Iceland
hausen
▁yens
▁bagnafan
▁endommagées
port
▁marabolo
uff
▁tilancɛ
térielles
▁cartiw
▁pesée
térieurs
▁tanoulidjala
▁italiyèn
orcovado
▁lolo
▁opérationnel
▁Pyram
▁tend
▁makow
▁Duni
Arté
▁144
thermiki
terelles
▁vue
▁dina
tèmè
▁monde
jean
▁Su
▁gounan
oron
▁tiendront
▁woyola
▁kalô
▁bolonoo
▁ɔrleyan
▁narr
▁djèniw
▁Alexe
▁yorro
▁objec
mée
▁Bright
diman
urbanisme
▁disposi
▁siguikolode
▁Ayé
▁vérit
nommé
xpé
Allemagne
umani
▁stabil
▁kaladenw
mai
▁koson
▁konoton
▁date
▁traverser
▁montage
▁tagasi
sun
entinelle
▁ningazi
▁Zha
▁fatiguée
▁bro
▁dɔnkili
▁laseli
▁sourafan
▁farala
▁siifèli
▁suppos
espion
▁réduire
▁akonno
▁prê
fongnonni
▁Santo
sababou
▁Garande
èrènémanw
▁tamaki
▁vin
▁sôrôli
▁ital
▁orth
▁Amster
▁réag
ominic
▁Pankuru
Juda
▁survol
ouvelle
▁ibessé
▁relier
ranché
▁patron
▁kisseiya
shirt
▁élec
▁agric
ente
▁sus
gés
▁février
▁comptez
▁quelle
▁attentes
▁sor
▁omɛr
▁lat
ograp
▁ue
golali
▁sôliw
▁chinoise
▁diya
▁duguba
magne
itaire
▁tombé
▁vidde
▁met
▁Nou
τ
▁cheval
▁Dôgôtôrô
lowki
▁vir
▁seera
bà
cor
▁yésé
▁Jochem
69-15
eries
▁baarada
▁ladianan
ippoly
▁kakei
▁bruits
▁toumba
▁profes
▁wèrè
▁Ürümqi
ènrèn
▁1995-96,
▁marara
▁Generali
ives
llec
▁prier
alerie
opolamine
▁structur
▁Kèmèsiw
▁tchê
09.02
▁lou
▁Intihua
▁puisse
▁ACMA
▁mystic
▁sérieux
▁yini
hnu
▁téléphon
▁cyclique
▁gasp
▁proch
cies
▁Masubako
konon
▁kéle
▁17,
▁kolokari
▁Walt
▁falenfin
9.
▁kulɛri
▁Yogua
▁façonner
kènè
▁kanpagni
▁itinéraires
▁kêlê
▁bisaaba
▁Lônikèlaw
tilopes
▁kossèbè
▁wɛlɛ
▁finka
▁dagabali
zi
▁television
▁besén
▁enkèti
▁volley
▁souff
tô
▁Se
▁dérive
▁2013.
eur
▁dr
ardi
▁Xavier
anté
▁aurez
▁reçues
celui
▁boloka
ilé
kalan
lames
▁Mounan
istiques
▁korong
▁déroule
▁pH
ani
iarches
kouyani
▁gɛlɛn
▁rené
oxal
▁Espagnols
▁kogoh
▁foronko
▁entendre
Égypte
pit
▁dunugnan
▁378
▁kérétch
▁nanfèn
▁bilo
▁kounouw
▁divisant
mann
▁Khé
▁indé
▁Sagit
▁senpa
▁séisme
▁référence
abattage
▁compréhensi
▁Dougouni
▁fut
▁mang
▁alliance
▁plaisance
▁attr
▁stupide
▁Mike
▁invent
anch
▁World
▁Bôwmba
kèyôrô
▁1759,
▁sôrô
œurs
▁sites
▁boɲɛn
▁gring
▁retrouv
▁josé
▁Str
▁Brit
igui
▁tanan
oyé
▁gnadenlôgôlô
▁Vau
amani
▁Espa
▁blagues
▁farwo
dasi
▁sodiomou
▁entravé
▁donda
▁canapé
▁zéro
▁pipel
ntario
▁sereya
▁ges
bèla
anila
▁tolonw
▁ameriki
▁nɔɔ
sexuelles
▁Bhoutan
importe
▁tchoga
▁ferm
▁Hito
▁litiri
▁probables
▁prirent
anglais
donésie
troscopie
▁politique
▁(3980
lassikourou
oque
▁justif
▁horizons
▁Charly
▁Bostoni
▁apparten
1,
komi
quide
▁tuma
▁sougou
▁initiés
▁papier
gueriez
fert
▁kosôbè
▁hyd
idé
▁flananyé
▁tal
▁É
pi
▁ako
▁ralenti
gana
dén
resser
▁fede
▁gazi
bèn
téliban
▁réagi
▁gbangan
▁indou
▁surint
▁Zimbabwé
▁Mobiri
▁souffrances
olon
▁yereyere
▁Goethe
▁pousse
▁Chicken
▁ouvrir
bmarines
▁Jong
▁kalendé
aît
▁Versailles
▁sachez
▁opér
kouw
mometri
▁Stadi
▁voient
turi
garo
guru
empirer
▁Nick
aurida
▁compagni
▁différent
▁wali
▁kôgôidji
alisation
▁reser
▁autorisation
▁œil
tanya
migrasson
wuli
▁menac
zariden
gnanagbèya
▁fum
▁surveillance
▁Dinga
▁pal
▁fle
ustr
▁denmisenw
emplacement
▁clair
ajou
chè
▁emmagas
▁jajani
▁élèves
▁audible
▁cautions
▁précieuse
▁office
bérika
▁cong
▁flèli
▁kuruka
▁aux
▁seules
urmoussow
▁Müslü
▁écouter
▁dit
▁kolôni
illum
▁Chacun
▁jeanne
▁Ishina
▁visitez
▁ministère
▁bombe
tura
genieurs
▁murasɔgɔ
▁stylo
▁croissante
▁tilani
guê
mzna
yôro
kai
▁puisque
▁vidal
gili
▁djagaro
▁vaisseau
avement
▁keilin
▁Din
▁bà
▁devient
▁vers
ingue
▁barikaman
▁expertise
îtes
▁yoloyolobaga
▁repas
caments
oyaume
▁Bobek
interdire
▁sacr
▁tant
merie
▁typiques
▁Park
▁No
▁de
tus
viétikiw
éberge
▁réunis
airement
quarium
ych
▁sèches
▁immédi
)
▁Wulibali
tila
abil
▁tuni
▁juges
▁abritait
▁seri
tɛri
▁Armenienw
gnindon
ç
▁bananbolo
▁ampou
xy
▁colonis
▁érodés
▁aminnan
oci
▁nii
▁hal
▁1889,
39
▁wagatila
▁débordée
pore
▁ADD
▁trouver
▁môrfini
atiquement
gɛri
▁voyageurs
nè
▁officiers
▁gnongo
deira
élétèri
▁aimerez
▁sommeil
▁deissei
▁Swedi
▁aimeriez
▁sew
▁soviétique
▁surbalay
sinau
▁kôdjila
▁exemple
liyé
▁nicol
▁gardes
pir
▁sanan
pagos
▁inspe
▁djila
▁Bana
▁djatiminin
lensi
▁inscrit
▁maara
ɔ
Arawak
riers
▁variées
▁vɛr
▁Sami
élevage
▁sienne
mble
▁jigi
façons
▁anga
ament
▁py
▁Mus
appareil
▁rév
▁tandan
▁balles
▁sonne
8)
▁kabon
exécu
itifs
▁sôrôniw
monoseki
▁chrys
▁Klocker
llswor
▁batoli
▁paris
▁wadjibi
▁prévus
▁toyi
▁jaati
▁changer
▁filɛ
cy
▁rɛn
çi
▁photographes
▁décor
▁Shetland
▁Wil
▁devez
Eskimo
▁dissi
▁banki
moderne
ntiya
▁cause
▁ati
▁tchégui
onsèg
ticles
▁thème
▁1994,
▁vivement
ragées
onas
▁aidé
née
▁porojé
▁louis
hatrapati
▁risques
▁sigida
▁cɛni
▁Romney
▁universelle
gami
▁doouw
▁observations
▁nominées
rince
▁empêcher
▁premier
▁FI
▁Ree
▁As
▁sigu
Repú
ɔl
ujah
▁saya
▁Sirèna
▁Erectus
▁semelle
▁pouvait
▁datugun
▁dans
▁kanma
atterrir
▁pours
▁milyon
▁guver
altitude
RS
▁paire
chloridi
▁reconnaissent
alh
▁baiss
▁coupable
▁petits
ashhad
orti
▁kachaya
appan
▁towma
▁tôô
▁invité
ung
gate
orcer
uction
▁jamala
▁gbèlèya
▁cama
quez
▁olɛnpik
▁dôkônon
▁hèrèsôrô
orro
▁NPD
▁assainis
▁pointe
diomou
▁voulais
▁préfér
▁oc
wôlôni
▁térébéya
▁excellent
blic
▁Republi
▁Voi
▁403
▁déverse
▁Nadiya
▁250
▁sana
▁scellée
▁écoles
▁46
dékoulou
estre
kinololo
▁faranra
erson
▁téléph
▁rythmes
▁Couch
mpink
djan
▁Alon
onychus
▁maji
11
▁kayé
▁howe
bul
bada
▁Joaquim
▁Botswana
rik
▁Louis
▁fine
onni
▁polisiw
▁correc
▁gɛrɛfɛ
▁dju
▁bèssé
▁Cr
enir
guili
tn
▁lasagoli
kurasɛgɛ
▁Dis
▁morphine
▁Auguste
▁mora
▁Cover
▁soro
IIIe
▁fournie
riti
▁génér
fèsè
▁dumini
moussow
yété
▁laurence
▁itéssé
▁fissures
Alexandre
édé
▁gwiliman
▁sensi
▁griff
▁suit
▁Lolow
▁douniya
appeler
▁atéré
amanaw
▁Kourou
nankoyé
▁beech
▁mentionn
▁montant
▁Paleont
▁berg
▁nyè
▁sûrement
arson
▁Lôgôkun
▁concernées
▁infecter
erman
▁kɔnɔni
▁cli
▁lizini
ium
▁confortable
tues
▁alele
▁,
▁Suède
▁gos
▁ɲinin
▁expressions
kaf
▁diplô
▁kôson
▁siguira
ger
▁austral
▁utilisées
▁financer
▁kèrèkèla
▁fènw
▁Singh
▁ster
kôrôya
▁jatigiw
mira
▁pe
tiya
▁digne
orateurs
▁pensées
3.76
▁garde
▁entièrement
oïsme
▁accidents
ètre
rɛ
22
▁bule
▁hérité
▁Jakari
▁toumana
meisi
▁law
▁Hebiron
▁friands
▁kèla
▁appr
▁1963,
▁%.
▁binan
▁concent
▁breton
▁kɔnɔnikɛ
abe
▁déguinan
Zulu
▁rares
èle
ryani
▁genat
infir
▁commerce
gnol
▁kôkôn
▁Lastu
▁cristaux
▁tounbei
▁dakala
▁semi
▁porozé
▁yinrin
▁Johndroe
umer
eorge
▁épreuves
▁rebond
▁hamantee
▁disiki
▁chat
▁Ari
▁Bl
▁habitée
▁fiéré
ieuse
▁kɔn
▁anta
▁del
▁télévi
▁ob
▁dus
peech
▁maintenu
▁impliqués
▁société
▁daminala
▁doho
▁planification
▁Elles
▁philosophiques
▁système
▁cɛkaɲ
êque
alisée
▁djamnan
▁tendance
odi
▁pays
▁dôla
yete
ilok
▁volé
▁mouches
▁kankan
▁causes
delogolaw
▁kunnafoni
▁chaleur
▁olugu
scar
inst
▁sisikou
▁crayon
▁crise
crayon
▁fanan
▁80
▁lakaw
tt
▁réun
▁seguira
▁jago
▁angilɛ
▁kôtougouni
▁anne
▁essayez
▁milan
▁Asia
sara
▁Depuis
quoi
koyé
▁cible
▁ibi
▁nouman
mala
rump
▁historique
uzzo
▁Djago
▁prot
▁Lord
▁passport
ougani
▁royaume
▁kof
▁nanan
▁c
sinsin
ɔni
▁plaisent
▁kê
▁Guy
▁Djate
erci
▁admirer
blica
▁denbaya
damanden
▁Penn
▁Carolina
▁contac
▁Farikonlo
▁Surtout
ɲan
▁amérique
alhousie
ode
mberew
▁quotidienne
économiser
▁lonko
▁kèrè
▁yen
ngw
nigli
▁George
▁balɔn
▁fenêtres
▁datuguni
lasg
▁Transni
▁Heb
▁ken
▁gramm
terr
▁Môgô
▁chercher
▁négligence
▁Il
▁Yiri
▁30,
▁27
▁Au
▁commerci
▁parf
▁tchegnouman
antique
▁proposition
▁surpl
▁kêmê
▁Bisi
éti
▁kokeniw
changa
rafourou
▁Passons
▁passent
guson
wanda
rieliye
▁favor
▁sentent
magni
▁tribun
▁dumanyé
▁campement
▁lagnina
▁ika
▁myriade
chen
▁Fahman
urcell
▁brave
▁mm
▁autoproc
▁duniyara
▁misè
minô
▁tagafan
▁remède
▁timinina
▁195
▁stade
▁dégâts
▁noir
▁tagadju
▁Pic
▁farafi
▁Whist
▁nakoun
▁lonibaga
usion
rive
▁genoux
▁dortoro
▁Zelandi
▁agiw
▁survie
▁Ecu
▁Bissi
▁mathema
gban
▁karaan
▁kassoro
▁siradag
▁Loong
apatero
▁sugubèla
▁mangent
▁ura
▁éfôlà
▁Casinow
▁kunu
tɔn
je
anç
rot
▁Pryce
▁parois
▁monse
▁terrestre
duuru
▁imprime
ert
▁toumanan
▁canadiens
▁marqua
▁parlez
four
▁kewali
▁sebeni
▁Vernazza
▁excusez
adoré
▁törö
▁Galilleo
▁juillet
▁évalu
▁naga
ersi
osa
arné
scöpou
▁termine
▁époux
▁djolifén
▁poussin
▁(9000
fé
pargner
▁tchogo
▁kacha
▁lafasa
▁amankè
▁fréquente
monau
▁kônon
▁wolonfilanan
▁ôla
osem
▁panni
▁pilote
iste
sri
quist
▁uni
▁chaisi
▁kénléyé
intégr
Y
▁impré
▁minuti
djougouya
▁equatèri
▁actif
▁Gilla
▁kuntigi
delo
▁mondes
ls
▁ngon
thio
échal
▁colonne
roquer
asto
▁h
▁lôgô
▁yôrôdjan
lata
▁obligatoire
▁permet
arai
▁USOC
▁farawo
▁mari
▁In
▁lonbei
▁conviction
▁161
▁ciiw
▁Ro
kiri
▁Fari
ethnie
▁paque
rose
▁MS
▁sôrrô
allit
▁pele
information
▁mobili
▁mél
▁rose
▁boulevard
bourouw
▁neutrô
▁Bori
kèdékoulou
▁hêtres
igner
▁équipés
êpes
sible
▁dantchè
▁oromèni
▁tén
▁identi
▁bakè
▁police
story
▁siguignon
▁okotè
▁économiquement
Ar
ogonya
▁akola
▁ge
CTV
▁Lila
gva
▁matériel
▁Mant
▁élé
▁Maldi
▁Ameriki
conon
▁faux
▁duguden
▁bouô
▁PDG
▁oromè
▁Satéli
▁court
▁siyɛn
ymna
▁invitation
▁différen
▁dimina
zerbaïdjan
▁australien
ué
▁welé
▁couché
▁kodjougou
ïque
▁Califor
ellée
▁tandoli
diney
▁organisée
▁Littér
résor
aïti
▁possibilité
tchiaiman
▁Guthrum
▁dèguè
fani
▁Écosse
laki
liyôrô
▁Scénario
▁VI
▁segue
▁Mal
tucci
▁manifestants
boda
etili
▁pén
▁signal
▁Fonseca
bour
▁siguini
influence
▁kounkoya
▁Djamanya
▁Prince
▁dév
▁trafic
▁ki
▁profiter
▁luc
▁trott
istr
gent
▁yelema
▁retr
▁récupéré
yen
guining
▁fla
cture
▁extra
▁japonèw
▁senti
agons
▁Atili
▁kote
▁bh
er
manfé
habit
▁kohoula
horizon
▁assez
▁caya
▁fit
▁wilila
assister
▁actuel
ottes
▁fényé
▁lèsogo
▁Zapônè
midi
▁kalandéw
▁bî
avey
bentan
▁Autre
▁pluie
BS
ologiste
▁quête
sèn
▁dédiées
mérik
▁cents
▁2008.
1.3
▁Thrasher
ɛl
▁bognôrô
▁guèlè
uluyé
▁ladinin
▁contacts
▁gn
▁nugu
▁sistemu
uthrum
▁espace
▁togoh
▁Virgin
▁S
▁yélé
oncé
émique
▁baraka
▁kabo
tchegi
▁techn
oûte
▁liliw
▁Street
▁détaillées
▁touches
obile
Hisp
▁gnaladje
▁djamanan
▁wagakele
▁fè
ieusement
▁Zachar
▁Gnanfê
▁subst
▁geo
▁sembler
▁milimé
▁Fo
▁naît
▁poin
▁Hsieh
wawou
▁vitre
▁défaillance
▁maci
▁pleinement
▁festival
▁sanpèrèw
▁omibé
inger
konondon
dha
▁kobè
▁réunion
▁jaabi
▁gɛn
▁remis
▁attrait
▁emportez
▁yaga
▁escarpements
pteri
▁tobilikè
▁provoquant
entes
▁founene
▁Ya
ici
▁agré
▁culmine
▁djounior
▁voici
▁eli
▁organismes
nninw
▁Wembley
▁novan
▁fototala
tantinople
déng
▁licences
▁mori
rse
▁Djagaroba
unrunin
ube
▁conservation
▁kelena
▁walebaw
▁djouni
ométr
▁lonanw
▁bateaux
▁rém
▁fêrê
▁côgôya
kanani
▁baisser
arrest
itent
▁ouvrirez
▁len
▁nâtô
informations
▁fièvre
▁1980
▁tangala
▁wagon
▁1969
arrond
▁soutenir
ilés
▁tubes
gine
▁simuler
▁clavié
▁labouô
▁atteint
▁directement
▁Jegehu
▁sauvage
▁heures
▁interprét
avan
URSS
▁Blogou
▁by
▁désigne
ième
orté
ambou
▁Assiri
▁passé
▁basi
ocie
lescope
allemand
assaient
▁tumadɔw
▁wonlofila
▁layiri
▁Stadium
▁pendent
aisie
▁siyôrô
yagaro
▁Amérikiw
▁international
▁plupart
kénlénin
▁dron
▁Donhke
inal
▁goû
▁vite
hésitez
▁fadj
▁célè
▁courantes
▁masouba
▁Hira
▁Aviôn
▁presse
uctive
▁limites
▁voitures
▁kéléna
▁walasa
▁aminés
▁USA
▁semblables
by
▁plutôt
▁Skaipi
▁mandiminan
▁monsieur
ype
▁pyr
▁katôgôla
▁rentre
enry
▁Djansigui
▁2207
▁américain
▁Même
▁kamberew
▁diyabèti
mena
▁Une
ahoo
▁Danius
▁réponse
▁siège
limin
▁soutient
▁Lundi
Badya
▁Jack
▁tan
▁Nova
ophone
djiguili
▁kunsèmè
▁romain
lopi
▁ouverts
veillance
▁innovant
▁40
yèw
fɔr
ieuses
borow
▁borifén
ustible
▁maïs
,...
▁espoir
Plus
▁central
▁Kongo
▁décl
▁Gal
▁kititiguè
▁nationaux
dindin
▁saabou
▁Bartol
▁tla
▁kèlèkèli
▁mômbili
kélénaman
11:
fɛ
▁minorité
▁Pattave
▁madem
▁chacune
Luna
demiki
▁jalatigi
▁Loesch
ocratie
▁fèsèfèsè
▁Squa
▁placi
▁visites
unnels
ducteur
▁Giant
▁ne
▁nɔgɔya
▁Loire
▁crampons
gh
idité
▁moun
▁Sordassi
Idaho
▁provoqué
gèn
sségui
ood
▁regrette
çant
oration
▁bela
▁2.4
kisè
eauty
ii
▁jɔ
▁sébaga
ymnasti
▁timide
▁bikɔnɔntɔn
▁radioactive
▁patins
▁touyé
▁Tai
ances
▁lôru
▁tilanda
cour
▁omiriya
▁fores
▁biterela
▁empê
▁recto
▁barikam
▁sigila
▁projets
▁fonctionn
▁yéla
▁sanou
▁pé
▁pɛr
ston
veillés
▁phras
▁fiti
▁subit
▁voulaient
▁Env
awa
▁Finland
tances
▁asiatique
koutsk
▁cens
▁auteurs
zo
▁bouoh
▁dèrè
▁filanayé
▁counou
▁katèmè
▁mettant
tôya
▁mut
▁kèwali
▁Piccolo
▁dugalenw
vèrènèri
rer
20.
▁tunu
continent
ue
▁corresp
▁Turusi
▁Troy
▁minani
mousoumou
▁enragé
▁Wik
▁située
illo
▁glisser
▁dôgômuso
š
avec
rafalgar
neman
itu
▁sir
▁Nik
▁hom
▁Jamana
▁City
▁Ouya
inigali
▁Touandô
aya
▁dérog
▁pelot
▁organisme
▁maje
▁consôli
gré
▁côtières
81)
▁minala
icité
▁expliquer
sson
▁minɛ
▁creusée
68
▁Thrash
▁phase
▁sections
▁prép
▁glissant
▁Leslie
▁ajuste
▁photos
yrne
▁affich
▁commis
ku
▁séparés
▁sigui
▁trans
▁féng
▁kamélé
tég
▁Vegas
liw
▁dépi
▁borife
enz
▁nehman
▁chereya
▁silamaya
▁fitanayé
▁tulu
ila
▁kokodugu
▁dinozôri
▁Celles
▁infrastruc
dam
▁kungo
▁Guyane
bilité
▁nissôdja
▁agriculteurs
▁diagnô
▁télécomm
chelor
unlap
),
▁voudrait
▁vern
▁référ
▁fri
andray
▁alu
armonie
▁Zuwen
opéra
▁kosobe
▁miwomi
▁kohou
▁sariyada
▁sènèla
▁yaala
histoire
▁jouer
▁votéla
lise
▁Dunugnan
kɛra
riz
▁Ecosi
yèri
▁géné
auteur
▁entrent
▁Môgômi
▁nisô
aure
habiller
▁negue
▁Sege
ondres
▁nèguèkan
▁Musée
▁nationale
▁kafi
▁noyau
▁Dèyèlè
ancock
national
▁paléont
CO
mb
▁kilomètiri
▁[
▁IXe
▁récit
▁Rock
▁gnôgôn
▁kilometri
▁ɲɛna
aptisée
vez
▁bougo
wi
▁procure
lira
manw
▁fall
▁djalaki
▁Backstrom
▁konnondô
kabèn
▁Baara
agré
▁oka
▁z
▁Bandi
▁Kir
gnanman
▁brébé
▁Guaraní
oll
▁terre
venu
▁Cert
tel
▁Felix
▁sil
▁Étant
▁ko
▁wéléli
urant
ava
▁wulen
▁Province
ieur
baya
▁inde
ompe
▁tôm
iga
▁Makis
▁Airlines
yongyi
▁présidente
▁touch
▁vu
kètchogola
lôgô
▁Conce
▁ninandi
rukg
mahôrô
intil
uves
▁few
▁Web
▁abatt
ez
▁raciaux
▁mitôgôye
▁wolofla
quant
▁oyo
▁gnèguain
▁envah
▁Quinze
▁dollars
▁époques
▁Iwas
▁Quand
▁nocturne
▁cogodji
ograph
syl
▁Allemands
ôlôlô
mô
▁assurer
ètres
▁lamien
oup
▁journalistes
▁Ehrens
cogolé
▁oba
▁forment
manséri
▁Nôgôtôya
87
taff
▁dessert
▁Elizabeth
▁approche
▁onhon
▁Sougou
▁cɛɲumani
▁Joaqui
▁kagni
▁porter
▁géo
▁Iraqkaw
orl
▁atterrir
▁sekoriya
isées
▁métalliques
▁sow
▁score
▁cyberc
▁baltici
rrin
▁plaint
▁comporter
▁djudu
▁abattue
avais
imogo
auc
▁vogu
yôn
ya
kélé
".
▁grosses
▁bergers
▁signalés
atifs
▁gninguin
anning
▁maxime
▁mariée
▁séngui
▁neurobi
▁Baarakun
▁Erectusi
▁angile
▁Jusqu
tran
▁The
urop
flili
▁pouces
marki
▁Anatolia
dj
▁karilow
mpsire
▁koura
akitɔr
afrique
▁djoonan
uy
▁dougalen
▁Ethiopia
▁zen
▁esc
▁Italiens
garie
▁entraî
▁interdit
▁Guaran
▁boloci
▁mabor
▁kourama
▁pouvez
▁ver
▁gaariw
▁soroba
agique
rian
ène
▁Britann
▁Who
▁timiniw
erge
▁filɛru
▁Angui
▁fola
▁diyaw
▁temin
fèn
▁lanfan
▁mess
sey
▁kolakali
▁tchayara
itinér
▁stations
▁bele
menw
▁env
▁envoyer
▁gnènègbè
▁yelen
atar
oplie
▁60
▁farman
▁kossôbè
▁histor
▁trinmin
▁estim
▁Sarasva
tiki
▁compris
▁lunaire
684,
▁koungo
▁tests
zn
▁Falls
▁aspiré
▁Harapan
sénw
▁descend
luli
phine
▁seegi
mpi
ayé
▁bussi
aper
▁longues
▁songô
▁hés
▁Aujourd
▁Guin
matiseriw
▁yele
▁ladje
▁faciliter
ople
tion
▁blogues
▁couleri
bèni
▁monseigneur
▁Allemand
spi
koson
objet
▁tèka
▁sosow
▁kasi
sif
▁ablala
▁vitiri
▁tôt
▁uya
▁tchiein
▁Gate
▁hectares
▁cho
▁kouma
▁optique
▁maariw
crite
▁sufɛ
abs
▁restauré
▁34
▁Parti
culose
▁soundogo
▁capte
lɔk
▁morte
▁furen
fénw
▁Afrique
accès
▁canyoning
▁Faragb
▁djamama
▁revenant
▁Sep
EP
▁katakata
▁Ence
▁bissaba
▁klala
▁Asso
▁djamananw
▁agen
▁Rob
▁firent
▁fournira
moto
▁Jam
lyer
▁Toute
▁menant
▁pellicule
gnagwèlaw
▁auprès
▁lôdaw
ut
oule
▁yɛrɛ
▁foonènè
▁domou
▁construits
iraf
▁miiriya
▁tourner
ixon
▁datant
▁Corniglia
sônômè
sier
▁Baseball
▁Stone
▁filayan
lovaquie
▁otè
▁promenade
▁luttes
▁demessen
▁reims
▁hangi
▁Inafô
▁kôrôbôli
▁offi
oking
ipp
riye
aigu
adhés
▁Esipa
tiquité
▁minuscules
▁Stofan
îte
▁Australi
▁koundaw
▁flotte
▁Supli
▁bosse
▁Es
oh
ümq
▁mɛtri
chariya
▁germinales
▁bafla
▁VIH
▁Tchèli
▁composé
▁folow
velopeman
▁koro
Angola
▁Conn
ontin
▁procurer
▁éviter
▁Sôgômada
▁Gürses
▁attaque
▁fagan
▁53
ios
ares
▁Ot
▁mat
▁poche
▁certain
▁niman
▁salu
▁gbè
▁Mili
ribune
gandi
▁ɲɔgɔnye
▁lakaléli
▁Zari
▁sèbèfura
▁Er
CEP
▁meubles
▁kile
antaine
▁kidia
▁blanc
▁ed
cinn
cension
▁turu
▁5
▁fitini
▁guichets
men
▁ladoni
soci
▁counan
▁Sédiman
▁colonel
▁wagakei
▁kumasen
ergure
▁ère
▁tarô
rezel
x
▁apple
▁jol
▁joli
▁lokei
▁poignée
▁têmin
▁kitab
▁90
▁quatorze
▁Norvè
▁résoudre
▁nantes
frivole
▁Agents
▁kobaw
▁lancer
▁Jazz
orte
▁rapide
2,8
▁dôrôpén
ers
▁I
▁aviyɔn
▁espagnôl
cins
▁téli
▁manège
▁Lôgô
ory
ziw
▁collectiv
tumes
▁maltr
ymp
ophis
adap
▁falenniw
▁ingéré
▁sèsènanw
▁léop
▁publi
▁Éth
▁concept
ona
▁sélectionner
▁arc
0230
▁villages
▁succombé
▁dusu
▁zo
▁paraly
ution
sti
▁fer
yolo
▁leyé
ervi
▁gre
user
yiri
Tratado
▁nata
▁cubains
▁koré
▁lalagani
▁nânâ
▁diyana
▁dôlôh
tcè
▁kogow
pal
sôn
▁Minanba
▁mahngan
▁policiers
aught
▁Comment
uée
▁kéléléyé
èdes
rosimit
▁dessen
amb
▁kalaw
hei
ONU
▁bâtie
▁angl
▁Fairmont
▁nouveau
▁dign
èrènéman
Zoung
▁Zapatero
▁vulg
▁elle
▁connaître
ocèse
yn
▁hong
ute
▁adamadew
▁dérogation
abeth
▁misi
▁Musoka
▁2017,
▁divisées
▁accidan
▁Zarid
▁constante
▁VIIIe
▁Istanbul
kikoun
▁sɔgɔmada
éles
▁german
ingamp
▁wéréla
▁ofla
▁bayèlè
▁saisi
▁réf
▁émis
koura
▁rô
▁sooboli
▁Fleet
▁pɛ
▁tétras
▁tchogô
laf
▁captur
énor
fghanes
▁miki
agr
▁pouv
▁mar
▁kɔsɔ
▁kèko
▁Africa
▁baden
▁enfreint
▁scientifique
▁jeudi
▁appartenant
▁multila
▁naturellement
équip
468
▁profonde
▁essaie
▁pleut
▁tiens
▁tôgôyé
▁séla
▁kamassôrô
▁déclare
▁sacré
▁hab
▁pasi
▁minougou
zé
inerie
▁Guinness
▁banques
gari
▁Katimi
▁djogo
▁demisinw
▁boouw
intillant
▁ubi
▁affirme
yo
▁labor
▁mantras
lin
▁logiciels
▁myu
▁djiw
▁instable
enfant
▁wɛrɛ
▁ilabain
▁roller
adonnait
▁djor
▁islandais
▁tor
▁néo
▁dondo
▁Pri
▁bases
▁Pôle
▁gnannan
▁off
▁oéré
▁destin
▁doigts
▁conser
arque
▁Fonse
▁rê
yram
▁niw
▁kôrôfô
pestres
kuri
▁excursions
▁rempli
unu
▁réactions
▁tlanni
▁mondaine
▁Kétchogo
iman
▁affran
▁nôgôyala
▁aériennes
▁dortoror
ugi
edish
impact
bie
▁Byzantin
▁voudrais
▁(1981)
▁12
▁revenir
ulseurs
uthority
▁môbili
golo
▁réunir
▁faandoye
▁Cruelty
▁dun
▁temena
légation
labôla
▁Sasebo
administr
▁ahiyé
▁viable
▁inquiétude
▁kaburuw
▁Velas
uk
taxe
▁envoyant
▁aali
▁koréyèn
▁nôgon
lem
harles
ttri
▁banakisèdon
▁sombre
▁basket
finna
▁kogoman
jènsèw
Rail
g
▁Tamaki
▁beaux
arché
▁balcons
▁skieurs
▁Kar
eu
ec
▁Prade
▁Chambre
rais
od
ailles
▁âge
ôbilisen
▁complètent
égénw
onogobo
udici
vén
unuya
▁esipa
▁Belly
likè
▁sasa
▁Miller
hority
araibe
ouvalos
▁accords
▁étudiant
▁gbela
▁diliye
Vitriw
tex
ssèni
osyété
▁torh
▁waya
▁pire
▁spru
▁pot
▁kêra
▁Cont
▁mè
▁yoromi
▁Inu
▁grêle
▁nanni
ature
▁sugg
▁Fel
ulaires
▁attention
▁pâle
iversaire
▁fé
▁behi
▁chamanw
▁Minoan
▁hélicoptères
▁routine
nn
mati
▁conquist
▁foloma
mbuktu
gbèrè
▁mariage
▁absolus
comm
▁basfon
ness
yoliu
▁Tuma
érive
oxys
adapte
▁larra
▁mises
▁Fasa
▁bisigiya
▁koroyoro
▁Asfaw
saliya
inspec
▁Toronto
ougou
rami
▁Charles
sɔrɔ
▁djouma
▁walifaso
▁gboutrou
▁Masatchè
▁bloc
▁lay
▁Sk
bre
▁recul
▁prêtre
alis
▁deng
▁Duguba
▁enré
▁métaux
▁Caraibu
péenne
▁philippin
▁estu
▁Anglè
kôrôni
▁itinér
▁mile
ión
▁Norvège
▁Mystic
decin
▁stable
énan
hammad
▁prétex
▁km
▁gnègèn
▁toile
▁djiguiya
uin
▁Glynn
▁sohow
▁tili
▁silence
▁pillage
▁termin
▁yɔrɔla
aporent
5),
▁présenter
▁disposer
▁sèliw
▁iyéré
▁gboman
▁Sol
▁gafefura
▁kuruw
Arctique
▁sela
▁aimerait
shal
▁biens
rans
▁réservoirs
▁mémoriser
▁ethn
▁caucus
▁dîner
▁boumérangui
z
▁rapproche
▁québ
stitution
cogo
▁Kund
▁ɲafɔ
▁équilibre
▁Calcium
▁quelque
▁endroit
▁pou
zaine
oud
▁kali
▁maloyala
▁confirmé
▁kotogui
▁bha
▁Giovian
▁yɔrɔ
kôrôw
▁foura
▁Sofia
indi
▁tacogo
▁cuites
▁biwolon
▁fosses
▁kognagnini
▁réagir
▁Komi
laganfia
stoni
▁tcheiman
▁lɔgɔ
▁minè
▁Masaya
▁caro
▁yanfè
▁tounbè
éder
équilibre
▁grav
▁autom
▁suru
oudre
▁xi
▁gaugi
▁biéli
▁antiqu
▁Sanae
▁gard
azzi
▁tchaya
hailandi
1.
▁fascinante
▁tournoi
▁konh
▁observateurs
ɔpu
▁Yasov
unrun
▁idi
ɲɛn
necté
▁ak
▁Bolonia
onw
térieure
▁vila
lgar
warz
▁kera
lanje
▁kanda
▁pac
▁kliniki
▁cavrois
▁yelibori
pin
▁Bichkek
▁viens
erie
rèfè
▁internationaux
marali
▁barakani
▁dami
▁Alessan
auff
▁pouvant
boîtes
▁avantage
▁gnèfenw
▁yeleman
▁couv
sili
▁cam
00.
▁alima
cool
▁Mold
▁sinsin
opérat
▁Groening
▁Tallinn
▁djigan
▁Journal
▁Ordina
FTIR
▁lent
▁centi
frican
▁supérieur
▁prônant
▁sita
▁dƆ
▁vision
zoni
onte
naman
▁peau
▁mamm
▁bèra
▁Zach
▁bola
itaires
▁nouve
latige
▁russes
puté
▁ɲinana
▁Démissin
▁podium
▁kèlèpé
ézuéliens
os
▁passez
▁gɔ
▁lim
▁Fè
▁Gurus
awéré
usée
▁scandaleux
▁maig
▁enrégi
▁inclus
urricane
▁sh
▁w
▁rapports
▁maréchal
▁soutiens
▁poud
êle
omo
emanya
▁ferrov
▁panli
▁enquêtait
▁kɔlɔn
▁dôleyé
▁ladjenba
lenanw
▁nyinin
moa
dou
▁di
lomiko
bourou
▁woronfila
▁tagan
cevoir
intéress
▁miennes
▁kafé
arasvati
▁doc
▁durent
ssimô
▁lawali
▁comprendre
▁reli
▁péd
▁combats
soro
▁danbé
igue
▁dôgôyala
▁dƆl
ollant
▁décidé
▁djanto
▁Hispaniola
vité
▁sokôn
lonkow
▁concentration
mê
û
ulkar
▁Australie
gbè
▁sababouyé
▁MySpace
lecu
▁duur
▁bznkani
▁choses
tère
▁Indien
ilde
timi
▁têmêna
lan
▁répète
▁sɔbɛ
dassi
▁organisations
ébraïque
▁bec
▁sisɛ
▁pila
▁deli
▁dimila
apu
traire
▁bônnan
lettes
▁beto
▁Arnold
▁douman
▁Fr
▁quimper
▁kônô
▁Gurumat
▁proposent
▁nɔgɔ
omb
équ
61,
endance
aissance
Boats
▁dol
therland
▁piɛr
▁Wh
▁saboula
alini
▁Doumini
opher
▁pratiquent
▁cabo
oronic
▁yèrèyèrè
▁télimani
neaux
ounou
▁bolon
Vert
▁Djaabili
▁lassoro
▁kafissa
▁décrit
▁chant
▁Nigata
▁boisé
▁sais
ssénw
▁hébergement
▁Toulon
▁sebè
anticip
▁albɛr
djuruw
▁huss
der
▁Black
▁Assy
▁passagers
▁occidentale
▁sanyele
tisser
▁campagne
▁maralila
▁alliagi
▁madimila
tur
gs
▁particu
▁Arly
▁trac
lau
▁Veuillez
van
▁Phnom
▁ouvrant
nomades
olokali
▁lônni
▁safari
argots
▁murs
▁barkela
...
ssieu
▁principe
▁202
▁Bouddha
mou
▁consist
onfort
▁littoral
▁gwɛn
▁fale
▁Allem
celade
secte
▁provoquer
ucteur
▁sɛnɛ
chel
▁joie
kèmèchi
▁gouvérénéman
▁faudrait
▁européen
Uppsala
tchôn
ñitas
▁stôckiw
▁souple
▁telle
▁kabakourou
liquer
▁Pensez
▁poussi
▁diversif
▁kalansira
▁tolaci
gènw
▁bisséka
▁attaquer
▁Bel
▁Niue
▁sensation
fine
▁seigneur
▁Scot
▁Finlande
▁hɛr
▁tracas
▁Bôn
▁connaît
sentie
▁Guyhrum
▁feou
▁boutiques
▁souveraineté
ɔnɔ
▁sangoro
▁demandé
▁ir
▁dû
18
extr
turage
tɛn
▁bou
▁intrinsèque
▁aviai
gnèti
èbre
▁Bab
sséla
▁Faites
ahul
djèni
▁koronya
viet
▁yɛ
▁pots
▁visent
▁professeur
quérir
kubèn
▁damani
▁gnanman
▁Ayéssé
▁Floridi
chy
▁gɛɛni
inɛ
ké
▁incendies
▁entrées
gnanlabôla
▁ladjen
▁resse
invention
▁hyb
▁Mi
▁hôô
▁Sanfignè
▁pouss
huile
biuyaw
▁import
▁toits
▁lanin
ET
▁Keselow
▁Révolution
lient
▁fermeture
▁javan
▁occi
▁prunier
▁neur
▁espagnol
▁aa
▁distribution
▁désormais
tɛl
▁donkililala
▁Judée
utaki
▁curieux
Obanazawa
▁kuludo
▁augmenter
ollo
birilon
▁prises
▁fôkabèn
SP
▁bis
▁Aucune
▁bar
▁cu
hrace
▁pollution
▁ténor
▁Bat
▁limités
▁multi
▁dyn
▁Kh
▁ounssi
▁surfaces
▁lakolo
▁capturés
▁fl
▁toujours
▁Sigiyôrô
mosphère
▁diamanaw
ronti
▁tian
▁besan
▁faratili
lila
▁reviens
minales
lénfenw
ospiza
temp
▁considérait
▁Bar
▁3.5
trabo
▁ayé
▁historiques
▁dép
erostr
▁kiriso
inosité
▁segɔnd
bolifen
▁victoires
▁emprun
▁signific
▁byzan
▁concerts
▁normales
saya
▁scènes
91,
▁depi
▁durisiri
▁millier
▁bibelots
▁Jii
▁idée
▁tiguèli
kêyôrôw
▁ninin
aguars
▁envahi
▁IRM
▁aura
▁jet
èèrè
▁Baarakê
Hz
ébri
▁seew
aminer
triw
ionnats
▁représentants
▁repér
▁468
▁attend
karo
èrèmè
▁Chhatr
amaki
élu
foli
▁clar
drid
▁kenekan
▁neigé
toliki
▁chèvres
▁doudou
▁pêchera
▁Autres
▁Zuluyékalo
▁lumineuse
▁poyiw
▁certes
▁Trésori
▁ris
▁wôlô
lantique
guerite
▁séliyôrô
yon
▁gronde
▁bér
▁B
▁Vatican
▁kèmin
roise
▁(31
▁saisonn
étude
▁articles
êlêla
▁prop
▁Irak
êlêkênani
gilikè
▁Born
▁borolayé
▁Sébéri
▁yorora
▁sèbèsèbè
▁Vers
▁réfléch
▁arrivera
▁comprends
▁insupport
PW
▁soror
▁k
▁écart
lotw
ith
sebe
▁Keimeisi
hindi
▁Kier
▁securité
▁Phondey
▁client
▁misenw
▁Katja
▁ACTA
▁étoile
▁ladjèn
▁jini
oin
▁kamasôrô
▁Vaccin
minli
veri
▁intéret
▁dinos
▁Doh
▁flanan
▁Aka
E
dar
co
▁aquarium
▁yafô
▁gravité
tchèman
▁dôrôpé
▁cœur
auw
▁criti
ore
daw
▁volées
▁tchienni
▁Don
▁Ge
pon
▁nécessaires
▁empoisonnement
fonnon
▁790
▁nimi
damou
inspecteur
▁réussir
teind
̋Proven
▁alleman
ypes
▁tèmènin
▁restée
▁dugukolo
▁kab
▁bélébéléba
▁polluer
awang
Orléans
yia
ń
▁gnéguili
▁"
▁sêbê
▁wè
▁motiv
gnuman
▁disciplin
▁Trygvass
▁capsu
avant
▁créées
tékélé
▁Ging
▁échecs
▁infec
▁cybè
gue
▁commer
▁partagent
rier
cke
▁console
▁Beijing
▁sports
mba
tiqué
onto
▁Haïti
▁lanimi
▁conserver
chu
étudiants
erne
urdo
▁passion
mounw
69-1
▁dess
dilan
▁ceris
▁permanente
▁Hooke
▁djoula
▁massive
▁sentier
▁gbere
▁inévitable
▁soigne
▁opinions
iguïté
▁yoror
▁aille
▁Sogo
▁Kundalini
▁ubɛn
▁djabi
argent
▁dabila
▁tôgômaw
▁Schlegel
▁Tileku
ninigali
tic
▁famili
▁yèlèmana
ɔkelen
agisse
autorité
gua
culaire
iPhone
tôn
▁foule
ein
▁stoppées
▁séé
▁obtenue
▁cayala
aget
▁gnanagwè
▁prévue
▁tiogo
▁minan
▁mettent
▁kouloub
▁square
▁vou
▁Sanfignèw
▁contemplation
▁envoyées
▁sôrôla
▁Golfi
▁Ang
▁Dji
béyafan
unye
▁mounou
▁méditerranéenne
ortés
igny
▁cri
veilles
▁stric
▁ca
juru
Kalan
élite
▁alpin
▁funa
mêmes
Organisation
▁défini
▁victoire
▁fondé
ibouill
▁nafamafɛn
▁tifè
éris
reli
▁tanni
kissè
▁(1)
▁quinzaine
gée
▁lébé
▁cockt
▁botrel
▁estuaires
-1912)
▁akèla
kourou
▁stock
▁labén
▁bus
▁lablalew
▁candidats
▁1830.
▁performances
▁peru
▁Booking
▁œ
▁bi
utiliser
scope
▁rot
ops
erlus
▁loint
▁jardins
ialisme
tori
▁Rece
bayaw
▁Djikan
▁yɛlɛman
▁syst
▁heurté
▁stratégie
gnèguèyé
▁lassoumaya
▁sognaniw
sc
▁chiya
llah
▁adresse
espre
▁Sikhs
oyager
▁funu
▁duman
gr
oo
▁mathém
▁drogue
tige
▁lôgôla
jac
▁labain
▁impri
▁quelques
▁cohérence
▁forcé
▁minougu
▁bilorou
▁créée
▁supp
▁Katir
▁six
▁gninmogow
suru
▁koroni
▁bloguer
ous
▁tuman
▁libéral
▁donkili
▁Pre
▁Im
▁Khufu
▁bras
▁tchia
▁malheur
urr
▁1861
ɔgɔn
mbur
waliman
ouz
enus
▁plais
tissement
ington
èvres
▁therm
▁binkan
▁faso
entez
kè
▁Origami
▁ultérieure
avons
▁Cen
▁sty
▁vien
ên
▁roca
▁Aless
▁Angilétèri
Écosse
gger
▁franci
▁lourde
empire
▁djouk
▁gbiliman
▁hangis
▁foroba
sexu
erg
▁fitiniw
▁déli
▁tagayôrô
▁2.2
õ
▁décida
ftball
qu
▁dî
▁malheureux
hu
▁tiguè
érénéman
▁1993
▁ant
exist
bots
▁kabakuru
▁serra
tuka
▁cosmonau
bô
adelph
ient
▁pin
▁Francisco
▁Jazi
▁liquides
▁kolɔ
ylon
yira
▁chances
▁gui
▁lablala
▁bib
▁génération
▁latanganin
aindre
enseignants
▁chartres
▁nisogow
▁Sport
ès
geti
ssitarali
quim
Charles
tirira
▁carti
▁jɛnsɛn
▁nombreuses
▁goût
odr
▁dirigeait
turer
▁terminé
▁Émir
djoukôrô
werela
êrêmafê
▁Chino
▁câble
▁jakumani
rup
▁yèrè
leyan
▁obe
▁mascul
onne
▁FIF
enlève
▁namara
▁fepereni
▁sɔkɔ
até
▁Minis
▁retraite
▁siècles
▁sabatini
▁iboro
▁boyi
▁Form
tif
▁Newt
odes
oroni
har
▁Modern
▁folikê
▁serpent
▁peines
ower
▁hakili
cha
▁nanla
matiguê
▁fonctions
dasiya
▁fôlôn
▁boul
▁Veguilla
▁cônou
▁saison
ff
▁appréci
diyalankan
arlo
uw
▁sangué
▁nôyôrô
int
▁labôli
vèrènè
▁assisté
tifici
▁lanc
▁disant
tèriw
▁féri
ersonne
iendra
▁demandez
ég
rak
▁Oli
rôgbè
▁sôgônin
▁parad
entiel
seben
gèni
horloge
Amérique
▁publiées
▁fèka
▁too
▁exerci
▁langage
▁ingeni
▁kecogoya
likan
▁dioxyde
▁elec
iti
▁yanan
▁fiss
▁cogoyasi
▁redirigé
▁duni
▁1988,
▁rouge
iendrai
▁nana
▁escarpé
▁technologies
mbi
▁urnes
kɛɲɛnin
itos
▁Sulli
▁26
▁omni
▁sériyôrô
▁distance
▁foroto
rö
▁démarré
▁Christch
▁Moldovi
▁ait
▁refermer
▁chinois
▁tulo
▁vent
tts
▁jour
▁électron
▁oyôrô
▁seka
ruyasèbèw
èce
▁ronge
▁Bornéo
▁mârâ
▁gayral
▁catégories
songôw
▁fere
▁intégrés
▁compter
▁boroma
antes
▁bôra
▁pér
▁recru
▁minute
▁adamaden
▁devoir
quet
▁signale
stani
voyant
▁enquêter
▁lala
▁cycl
▁portions
▁môgôw
▁Rocki
▁boire
acheter
▁Kô
▁sènè
▁bɛɛn
▁labôyô
élangez
▁barakè
▁buff
pied
▁médi
▁Wide
elone
ogon
▁makognan
amén
▁nôgô
▁étudié
▁Moas
routchev
▁graveur
surtout
acif
karou
▁proven
▁fifa
▁mɛn
ervice
▁Krie
▁nigɛ
vey
▁lalà
▁6,5
▁cuisin
D
féw
▁Aug
féng
▁fête
achu
barakela
sɔ
▁kènidè
▁gilan
▁recommand
▁musow
▁proies
▁labinli
makèya
chia
▁syndrome
▁département
▁Siensi
9
▁indienne
ation
andonn
▁version
iop
Ansa
▁sep
▁besoin
Indon
onseca
▁woulini
▁kalandénw
▁kalanden
ancarlo
▁musicaux
azzias
▁ladow
otswan
▁Nu
gétique
▁asuransi
lah
enan
▁rede
▁blani
waliya
▁abordées
▁tchinni
rafe
▁2002)."
▁kumanden
▁échange
oyouz
envoyer
▁Poroduc
odor
▁denn
vant
▁scanners
orer
▁gallons
▁périple
▁soumaya
▁toni
▁kôsôn
▁gansan
▁kɛlɛkɛ
▁Micro
▁grattant
▁répondu
appel
▁golfou
▁lagɛri
▁modéré
▁Tolon
▁attendant
▁briser
impératif
▁amino
▁Oa
▁fɔra
▁constr
▁Riom
▁Slalom
▁kounfalen
▁v
▁Surve
▁kôgôi
▁veuve
tées
▁kunna
nt
▁teimin
▁laha
▁charabia
▁kounafoli
▁gnon
▁mumèn
▁okognan
▁lic
▁omin
▁prem
▁Kru
▁Team
▁ladji
▁Tlé
ggins
▁senaya
érusalem
▁bôli
ynska
▁1500.
lassi
▁bande
▁sɛn
▁kônôton
▁rugby
▁commerces
▁cela
▁watii
▁djamanw
▁naf
acé
▁NAS
▁essentiel
ganvia
▁miracle
és
▁ministè
▁Radio
mêsi
▁exigences
diri
▁Stanley
▁cerisier
imprim
▁nombres
kala
9-1
père
ôni
▁brûler
équipe
▁restent
▁heureuse
▁daminin
ras
▁suff
▁dougoukolo
▁baraw
▁feuilles
▁dé
▁Hurrican
kro
▁cost
lags
▁Fernande
ulia
▁nordique
▁Joseon
▁ɲan
▁algues
▁pyramide
▁kokan
▁Aires
▁choc
▁étr
▁neutre
inidiw
▁cés
▁tridimensionne
▁obètè
▁delila
▁transform
ress
▁lani
▁galo
▁Ferry
lexibles
▁toumbi
▁organi
▁ɲɛgɛn
où
▁demisse
▁Canada
vèrifè
▁lafiya
▁nager
▁Hèèrè
▁Hebi
▁vikings
kosiri
djigi
▁Royaume
endulkar
mila
▁gèlè
chants
intan
seball
▁propr
▁pu
▁kogudu
▁Rahul
Read
▁calv
▁déplaçait
lei
▁Taïwan
est
▁tassouma
ouv
omère
▁drôgi
▁hèrè
▁neige
▁molécules
▁Masalabolo
na
▁sablonne
▁il
Khamun
▁koto
▁nafolodilan
▁vingtaine
uwe
▁Open
▁obsc
▁gnènabô
témou
Domingue
ités
▁dissipée
▁pépé
▁mor
▁régner
bit
pre
▁consta
▁sirila
▁test
▁fémin
▁turcs
▁tableau
▁mortalité
▁anti
bagato
echagi
neider
▁Afoug
▁têmênan
▁kloklo
▁Santa
▁coutumes
▁hurlent
▁finw
▁pré
9,
▁kôrôtala
▁lasegi
stonie
▁Fin
▁nyèsi
▁douyé
▁Tax
▁Egilisi
▁craint
actér
▁horti
▁Cambridge
▁bouddah
▁poroj
léon
▁oni
ouvent
▁sc
laires
▁Djamanan
résil
chestri
▁sci
▁Nege
▁péréfèc
▁Pâques
▁Helier
▁Américains
▁consulat
▁décharge
▁gbèrèw
gèrè
muya
▁lentilles
▁ill
▁1980,
▁lako
midjan
▁doussou
▁kasoro
▁vale
▁bond
▁bunada
liya
▁Bowyer
▁kêmênani
löcker
▁deen
▁réparties
▁duuru
kasara
▁kodjugu
▁fambaw
▁zana
▁Kè
▁Texas
▁kli
▁bilasira
▁kassara
▁dôbô
éric
▁concevoir
▁doivent
▁rendue
▁rude
▁850
hen
▁kokôrô
esper
▁Gnagali
leur
▁gwèlè
activer
▁banaw
▁toumbara
mobile
reints
▁yirikaw
▁Kalan
▁lucides
▁écou
▁Nôgô
▁Pe
Upolu
▁reg
▁Murray
▁banikô
▁eibi
▁soupir
▁porc
▁tou
▁gu
▁Dan
ripen
▁6.3
▁1956,
▁darsi
▁tchaam
▁rur
lèrent
▁commun
mad
trrane
▁Liby
▁séj
▁2011
▁styli
▁Norvege
ospace
▁batolikè
▁aviônc
hiri
▁bɔsi
uman
▁officiellement
▁sababuye
ôrowla
▁pers
▁capteurs
▁Shopping
▁deme
▁Wall
▁semblerait
nement
▁Crète
▁atti
▁Judo
▁bagara
▁Manila
▁der
▁Bishe
▁avions
oun
ayon
▁feere
▁gbèren
▁iba
AP
analyse
illette
▁traité
▁Ephe
audience
buquer
▁Jagr
▁PC
7
▁clignant
▁rel
fia
cific
,0
▁Charlotte
atoru
▁gnagali
ker
▁dîners
▁prenaient
▁rapporte
▁tchètiguè
▁maoriw
▁mansinw
▁lankolo
zak
▁dégué
eds
▁laamou
▁trés
hane
▁foh
bu
bila
▁Persi
torua
▁kélen
▁obs
fagayôrô
▁woulouw
▁atagani
ganisan
▁darinako
enseur
▁réitéré
▁dégu
kéléman
▁constituent
▁park
▁sabb
▁difficul
▁gnè
▁Mombai
vrié
▁bolibaga
▁polisi
▁pieds
▁licence
▁gari
▁bugɔ
notamment
▁camping
▁Gazian
▁bognon
▁lut
▁revenait
▁patho
▁basketi
quis
▁jeunesse
▁kolé
oitiers
lans
▁juru
▁ouvertes
▁ladilikan
▁sociétés
down
utilisateur
truée
jectif
▁Sanskri
▁djidjoukôrô
▁incitant
fiya
▁confort
▁instru
orait
▁Nicholas
olution
▁boud
▁seereya
▁fonctionnement
▁causée
▁francais
▁tribu
▁téléviseur
ants
▁attrap
▁ikele
hébergement
▁Jaabi
▁Julle
ambourg
▁birichi
▁polonais
▁kɛ
▁foliw
▁dê
▁muniti
bd
▁kèè
ockey
gnènin
▁intemp
▁échaf
pression
korotasse
timaf
▁bolora
▁XVII
gnés
ool
▁Gardi
lexion
limitées
▁mougani
▁capables
▁neutres
▁occidentaux
▁Kruasi
kolon
▁Madhya
▁gbiliya
▁traîner
dje
▁écrit
▁exhalent
▁kong
▁Bologne
▁duguma
uruni
▁kalankɛ
▁échantill
vent
égard
épal
▁fem
▁valable
▁réservés
▁famou
▁fɔn
▁aboneri
▁fasodén
ologi
▁gbili
▁Hers
▁guunn
▁Midité
▁kèreinkè
per
▁jurunali
▁Meduziw
▁allemandes
oom
approche
akha
▁sépare
▁kérétchen
▁Oneworld
▁ima
▁cesse
▁Chhappan
▁gobele
▁riz
▁nanzara
tino
▁soin
49)
pente
tnam
▁Shooters
9.02
▁Môgôw
▁pourrons
▁portugais
▁1960,
égouts
onnant
▁race
▁dégus
▁kasséka
▁parki
vè
▁weleku
▁bôdjou
▁obligé
▁navires
ées
onny
▁abé
▁saramaya
▁tchè
▁bac
▁kofôlikè
▁guider
▁olivet
lectric
0).
▁autorise
▁af
▁He
▁Science
▁sago
iao
▁extrême
▁Nikolak
uri
▁pô
kônônmôgôw
▁yèlèmanla
▁Méd
▁Kuru
▁Roberts
▁torohya
▁daabo
▁1977,
uminera
▁diyanye
▁Romantis
▁involont
▁vais
habitu
▁échappé
ssu
my
▁ours
▁Kabasenw
▁Hébron
▁afoora
▁cogodi
▁sorobanin
▁obscur
cel
▁universel
crime
tcogolé
▁stéréot
▁nagua
▁australe
▁kule
▁yé
▁lac
▁ave
▁déterminisme
guêssê
urine
elot
▁annon
▁bisigui
▁Pérou
▁bodjan
▁rai
▁courante
▁rentrés
oindre
gwan
iè
▁maniér
▁NDP
▁Olébé
anches
▁moumèw
▁fo
vil
▁vivons
amin
aphore
▁stanley
▁sanfê
eneti
études
▁Ghraib
thèse
▁planète
ambie
▁autor
▁nimero
vla
▁kègna
▁dégâ
mail
▁femme
▁devront
laska
▁soldats
▁Aussitrali
veurs
▁nimankan
▁Petros
otages
▁Sikh
▁muy
▁teri
▁wagatiw
▁Crouti
▁bénikô
ôrô
▁gninina
▁pajikèmè
mna
▁Rese
▁points
▁okô
kɛnɛ
▁Genus
▁tombent
▁Monasteri
▁bôçila
▁appar
▁foss
▁secrétaire
▁tchei
entissage
▁bɛrna
asser
▁cloué
▁Kong
▁Gaziante
anité
▁laval
▁condè
▁glassikourou
Ilha
raser
imposant
▁matchiow
gueinra
▁braka
ssèniw
▁cent
êrê
▁sodjan
expérimentation
▁Gates
▁bachi
▁nann
▁américaine
▁homosex
ershe
iques
▁parce
ph
▁waliman
▁Shyam
▁yorroh
▁tuer
aturges
▁wis
ératures
habitude
▁mibè
▁inhabitu
▁réserver
▁Wayne
▁fônikô
mouso
quise
▁kalamou
▁michel
▁kafara
illy
atomies
▁marawla
endez
▁continu
▁djigiya
▁tun
▁susɛti
▁hunhun
▁form
▁tisane
itrei
▁Blanche
ampe
arn
urri
▁comparaison
8
▁convient
▁locom
▁valide
▁Fognon
▁reprend
▁blogue
▁sapeurs
▁minin
aggi
▁Partizan
Rai
cul
▁yél
nutrition
ichel
▁juin
▁mɛ
▁mé
▁acides
:09:02
ernes
▁pâ
▁gnôngôn
▁Située
▁bolila
▁wolona
▁Irakou
ea
▁modifiée
▁initiale
▁pɔr
ifique
▁diyara
▁agenciw
▁ekonomi
erminus
▁abon
ernité
sôrôsira
▁Barake
dicoles
▁Zé
lait
▁filɛni
▁germes
▁Olasa
▁Angola
▁Mer
hoo
▁collecte
▁dénou
▁tagua
mênênin
ssabati
▁papa
▁kimin
▁minisiri
sôrrô
▁films
écou
▁ser
▁Bay
onlo
▁lourd
▁Tchè
▁interrogées
▁cola
êtres
▁queue
▁FIFA
disi
▁chôkô
▁sorasiw
▁culture
▁mônè
▁scientifi
▁rétablir
▁folon
▁pous
rictions
▁Domini
▁mach
▁Kotri
aut
▁joginna
▁Bakôrôni
▁lônikèla
▁sekɔ
▁duguko
▁akisidanw
illi
▁djanya
▁Ethereld
ose
▁Fe
▁devenant
▁chantait
trepri
▁janiya
▁madi
koy
riez
▁hôrô
▁retourné
▁proches
▁Bachmann
olitiqui
aac
▁fanw
rette
▁sababouya
ora
▁rendant
kɔnɔntɔn
▁jésus
▁kôgôdugu
▁Tile
▁dévélopé
örö
▁apportez
▁plong
▁olo
▁fina
▁italien
▁ɲɛnɛ
▁lucien
ières
▁lɔgɔra
▁popul
▁kititèguè
▁idé
▁pesti
▁amb
▁tels
▁prenons
▁dawolo
▁korron
▁Las
absolu
meiras
▁croissance
▁lɔnniya
igurie
▁Cuddeback
▁Musow
▁rétréc
▁karamogo
▁smartphone
été
inex
▁insister
djè
▁blâ
▁sonli
▁disponibles
▁parfaitement
▁Chh
kokoura
▁faran
▁Cir
ôrôya
▁douan
▁temporaire
▁millyon
▁chères
loya
illiss
irini
àpagos
▁endemiki
▁bichu
arre
vila
tang
kélémanya
nôn
ats
ylan
DN
▁mus
▁kare
▁suivie
sigi
▁wolvi
▁mézin
▁beke
adal
▁bélé
▁Brother
trop
▁Iwata
▁écrits
▁XXe
▁Notre
▁promen
▁Estonie
pani
bélé
▁kunan
▁néanmoins
iguï
intr
▁alimafo
▁otukan
—
▁identifiés
qualifié
galila
▁1610
▁802
▁basigi
▁quatrième
▁belge
▁08.
▁borognon
▁téléfone
▁annoncée
▁Alibi
▁pratiquant
yanir
▁radical
ressi
ôgôsèbè
jec
uv
▁Kanbri
▁fagaro
▁a
▁kokara
▁faraw
▁Dilokrit
▁vaches
▁siégui
▁Craigs
▁ladona
tèrènèti
▁yarayara
▁chômage
▁Tuman
▁typ
▁élevée
▁probablement
▁kêrênkê
arcia
du
▁lar
▁Hekla
gén
rupu
▁temenila
léma
▁protocole
limit
▁fonfon
▁présente
▁kômi
▁glace
▁walissa
▁NP
▁lassinan
▁dohni
▁installé
▁Huhni
tan
▁traversée
▁Deni
dieux
▁Toukn
▁400
▁Laponie
ssiw
▁tchaama
▁grand
ɛs
▁patin
▁patience
hrop
▁argent
jona
gbèya
▁fourmis
▁kofô
▁kalen
linan
▁1480,
▁MyS
υ
kèrèfè
▁réduves
▁option
▁rats
uil
▁chaman
▁Scottur
ud
ingin
lic
▁Jérusalem
llo
rein
▁kilomètri
▁phoques
oire
ydore
▁hiver
enjo
oits
itan
▁kisêla
▁panneaux
▁pendjabi
annes
▁Ferr
▁pol
▁quotidien
▁directs
▁bé
▁segesege
▁hakangnan
▁grimpe
▁dounando
▁suffisante
gniniga
▁laminiya
▁lèri
▁temps
cule
tha
▁chimiques
va
temple
intersection
▁aminanko
▁potier
▁gris
▁lakoli
▁oblig
▁tim
ɲini
▁keila
▁profond
▁crit
▁bissigui
▁libérées
▁Galasie
▁obligations
▁(1000-1
▁nommer
▁tulonw
▁gnangami
▁cérémonies
Oc
▁yôrôlô
aill
ting
▁christianisme
▁teroun
▁simples
▁mangrovi
▁mobil
▁Namgyal
▁Law
ɛlɛn
lolow
gninnan
▁koun
▁musoman
arist
assé
▁bureaux
leet
▁kornon
▁abrite
▁djateminan
▁turin
▁Adama
▁surnommé
▁dimini
article
gui
▁signalé
▁entraînement
▁Aux
▁Kôsôbè
▁kɔr
▁grec
▁Italiyen
▁sonnan
▁wisa
rê
▁dessin
cimen
▁péj
▁réalisés
▁paul
tôgôla
deux
zanti
▁duniabei
▁welee
vernement
tikèti
▁low
▁Français
jourou
▁Tulonw
▁château
▁Aldw
▁(40
oratif
orchestre
▁töröla
tcha
▁émet
▁colons
▁sanfèkaran
▁bèi
fait
amikazes
▁bloqué
ureur
▁disp
▁originale
▁prun
▁Batosso
▁Quel
hekhar
▁Danela
▁Kings
ksbu
▁sanyɛlɛma
▁infecté
enton
ivores
vèri
veil
▁Po
▁missigui
▁fanfan
kɔrɔta
fura
iement
tar
ami
once
diya
▁dogôman
▁dir
revention
▁tri
▁nabila
law
ssin
mara
Artémis
kolossili
’
▁L
▁darô
▁maxim
▁barakɛla
▁yanfe
▁corossi
▁suffira
▁plai
anur
▁Orgarz
▁doublage
▁moyenne
▁Roberto
usé
rètriw
▁una
ourougoula
▁Diinan
Hindou
▁Éthiopie
▁eu
▁miti
▁ila
ulé
▁Nigeria
▁lire
▁lɔnko
ETI
kônôtô
▁Yèlèman
▁apparence
▁renif
kti
▁bènbè
▁débuté
lokrit
nga
▁pales
▁dôle
Océanie
▁pro
▁Seen
onvén
▁atmosphériques
onshu
agée
▁Uppsala
▁exécutif
▁ɲɔngɔ
▁Zagreb
▁rouillée
▁hakililata
▁chegi
kut
▁ina
▁panneau
bâ
terrestre
▁AC
▁gbo
delogola
▁centim
▁Toumambê
▁devrait
ɲɔl
▁respecté
obel
roit
▁baw
▁permis
▁diverses
▁Westmin
▁conflits
▁kounoung
▁lalira
rim
marin
mbrou
▁Gnan
▁djigê
bri
ry
tchogoyala
oft
▁dɛmɛ
▁Chaque
▁feuille
▁gnênê
▁contrats
▁gberè
▁Oyapock
▁trad
rontonga
émie
▁bo
▁reportages
▁sine
▁Premier
▁rig
▁exposées
Fasto
▁Amerikinw
▁Ehrenstr
▁évide
▁pacte
▁nap
ortiss
icane
ocham
galadjan
▁tortue
▁1100
▁lerou
asses
▁toli
lev
ortion
▁kourouni
oliw
▁toulou
▁impliqué
▁abada
n
gɛn
▁cet
▁guerres
▁Kashi
tonga
able
▁Nepalè
▁sauve
ep
▁première
6,
▁kêlahou
▁kélaouw
bɔn
▁forfait
▁mayè
rawak
▁kofè
sséri
▁j
darban
▁Google
▁Chia
An
▁siranin
irostr
▁kènèya
▁Tank
▁constat
empl
▁sarakan
▁doumini
minèni
▁cyd
▁shegi
daine
kenogonyaw
▁...
▁fal
▁calend
▁Kirchner
uguèw
▁E
▁conflit
▁Mori
▁Japonai
▁Angeli
aiser
▁cf
▁sɔsɔ
ssidan
▁Filè
▁yani
▁beni
▁Rossi
▁poursuite
AS
heure
▁Capuzzo
▁flacons
▁masculin
▁ste
▁guunw
lèzi
bagaw
▁issu
aspect
▁supplémentaire
mmals
▁remport
▁suédoise
uomo
▁soulig
▁jarabi
▁jean
▁congola
▁ec
erzberg
li
▁villa
▁orléans
▁madogon
▁tournèw
st
▁aérienne
retour
esium
▁jalaki
agas
▁mutations
▁cuirass
▁dôgôtôrôsso
The
▁kogodougou
ure
▁nun
▁constituée
▁Allah
teni
▁dôron
▁gbannan
▁ern
▁occas
ł
rupteur
▁gnanagbe
ɛtri
up
▁Felipe
filirô
▁blalà
difié
▁kemi
▁rivières
▁cassé
nin
walima
braham
▁sɛbɛnin
▁kasôrôow
▁entrecoup
▁bamuso
sifiés
▁thomas
▁anglaise
ices
▁Muskoka
▁Caraïbes
▁kèèla
▁dakabana
▁montre
accueil
▁tchiaman
yagi
▁tabolo
ule
appartement
ager
tihu
kali
▁abena
rem
▁hommage
indépendance
▁sciences
▁kilom
▁endomm
▁sosiyete
▁envers
▁tranyé
▁tchogola
urgence
buquerque
▁délivré
▁com
▁barr
▁ɲɛfɛ
▁vancouver
▁Biro
▁poursuivre
▁très
▁Kapitèni
▁sariyassoun
ran
▁social
▁wôrowla
aites
lég
dala
▁attendu
▁scori
▁Cancer
▁sibiri
tôgô
enseignement
▁boulangerie
▁nɔrɔ
▁federali
▁Weise
▁jon
▁Faransi
imaya
incurve
ces
▁kaburuso
▁plus
▁ohéssé
uivre
▁Lors
pays
▁enneigée
▁benioka
▁bêjugu
▁kofê
▁condition
▁amateurs
▁plaire
▁Donguili
ly
▁Soyou
▁foon
▁terisira
pati
▁Amir
▁villes
ling
ethn
▁problèmes
▁effec
▁érod
▁dioxy
uira
▁traction
Islam
▁vom
▁équ
quées
▁mansinna
batiguiw
▁fôgnon
▁Square
ceaux
▁Versa
▁pacif
més
▁Sund
▁kph
chard
ourisme
cté
▁lynx
tècu
▁Leona
▁Dilan
bor
kèni
rom
ceptions
▁23
▁gnoumanna
▁courage
▁titres
riyaw
▁devrions
▁balima
▁bonne
▁aimions
▁masôrô
▁koyé
▁tômôna
▁hakilila
▁mɔgɔsi
▁Sâmes
ergi
gnan
▁oto
▁Dz
▁4,
▁Muxlo
▁bèssira
outi
À
▁fuir
▁méde
aïcain
▁Japon
▁article
▁join
▁kiun
▁permettrait
nani
▁segi
onies
▁satéliti
▁arrivent
▁jeune
▁bibi
▁néé
▁lalo
▁maï
▁fertil
▁maraude
fendi
▁cath
▁graines
▁mougan
▁gɛri
▁épidémie
aque
ɲɔ
▁lanibé
▁Entre
▁Appr
tén
ordon
▁course
▁barow
▁dévotion
▁tit
ède
▁kurakura
telly
▁djigi
▁foronto
▁panel
▁rétab
▁remarqu
▁Beresili
▁ND
l
▁viol
▁Claudia
olborn
▁bel
▁gnanaye
▁damana
▁djidaw
▁situent
gnêdoda
▁prenant
▁connue
buru
▁informations
▁koutourou
▁erre
▁impasse
▁forme
▁timbre
▁Tup
▁contraire
▁laminɛ
▁Ishinawa
▁dora
ro
▁Wakati
accompagn
“
▁kélépén
▁idjigui
▁gbèrèya
▁station
ahu
▁évitez
▁telefon
▁guépards
▁modes
▁incorp
▁ɲi
▁Green
noi
écules
tienne
▁mic
▁monothé
▁sè
▁vise
guila
▁mineur
▁kélélé
sifie
ugnan
▁gwɛni
dɔn
▁rapprocher
▁croisillons
▁dougout
▁présentent
▁lamôni
▁nomade
▁Gnôgônatè
▁vain
▁salan
▁étendue
akou
wmba
▁djatimin
▁permettra
▁gnênêguê
cientifiw
▁frag
armouth
▁pénétr
▁kadôgô
▁sera
histor
▁2002).
▁Ambé
▁bɛrnar
▁habada
▁fânga
▁grecque
▁okonnon
▁African
▁tordu
▁vèèri
▁Perse
▁gnoumaw
ɲak
▁kôkôna
▁azôti
▁frank
iège
▁Fédération
huitième
déj
▁inutiles
rygv
▁fitinou
▁présumé
▁Cas
▁lagn
▁préfère
▁konronlafan
▁ray
▁minus
▁Binnens
estres
▁gninmin
▁dar
active
mm
▁mira
▁télescope
▁Tɛ
▁liées
▁ville
▁Julia
ssipa
4-1895),
▁Horrock
▁acc
▁WIF
▁potentiel
▁sortant
▁bolahou
▁Copenha
ombragées
ovision
▁massoro
▁logolo
▁Tournoi
œ
▁enfin
▁11
▁retour
▁lésions
94)
▁nôgondan
miba
▁facture
▁transpar
kanw
▁folissen
▁studio
▁bénéf
▁mâ
écart
▁Tagama
▁kègnein
ourn
▁dusukun
ji
▁prima
▁étrang
▁lasé
▁jɛkulu
▁cub
our
▁douga
▁klok
▁Kôn
▁virtuels
Apollo
▁nâf
"
▁sariyas
ymnas
▁sexuel
▁aires
▁rédaction
▁milimètri
tɔrɔ
▁Lealofi
▁5,0
▁phrase
▁fɔlade
▁djè
▁primates
▁fègè
▁Doun
indiff
asculaire
ckei
ôtre
▁manif
fes
▁Hanov
foura
étr
▁tagasén
anamakaw
▁réveil
▁Paleon
tchôgô
▁Monte
sfo
curity
▁bénie
ssarada
▁bom
▁layiré
▁tôho
arianw
▁boni
▁petite
▁nettoyés
▁tiɲɛn
▁difficiles
▁bavaria
rica
▁mugan
▁Zagr
▁bôlô
▁télescop
▁jɛnkulu
▁pièce
gnouman
▁kôrôni
▁nikôrô
▁dala
çaient
écrop
▁cor
ripsion
▁djemeli
▁Straw
▁bilôru
Or
▁marquis
▁cyanur
yirangongo
▁Yélikè
garamou
[...]
