<unk>	0
<s>	0
</s>	0
▁k	-0
▁n	-1
an	-2
▁y	-3
▁b	-4
▁m	-5
▁ka	-6
▁t	-7
▁a	-8
▁s	-9
▁l	-10
▁ye	-11
▁d	-12
in	-13
▁f	-14
▁be	-15
▁ko	-16
un	-17
▁la	-18
ra	-19
▁ma	-20
en	-21
ɔn	-22
la	-23
▁w	-24
ma	-25
▁i	-26
▁ni	-27
▁o	-28
li	-29
ga	-30
▁na	-31
▁kɛ	-32
ri	-33
▁j	-34
▁ne	-35
▁min	-36
ɔg	-37
ɛn	-38
▁an	-39
ya	-40
aa	-41
ba	-42
▁kan	-43
ɔr	-44
ɔgɔ	-45
na	-46
▁sa	-47
▁aw	-48
▁c	-49
ɔrɔ	-50
on	-51
▁u	-52
▁ɲ	-53
ti	-54
▁lo	-55
▁fɔ	-56
gi	-57
▁si	-58
▁ba	-59
▁se	-60
ɛɛ	-61
▁tun	-62
man	-63
ug	-64
▁ta	-65
▁1	-66
ka	-67
le	-68
▁di	-69
▁bɛɛ	-70
..	-71
sa	-72
si	-73
ugu	-74
ana	-75
lo	-76
▁mɔgɔ	-77
▁h	-78
rɛ	-79
▁wa	-80
▁ala	-81
▁fɛ	-82
uma	-83
▁yo	-84
ko	-85
ɛrɛ	-86
▁to	-87
▁le	-88
▁ti	-89
▁e	-90
go	-91
▁da	-92
▁nin	-93
▁bena	-94
▁"	-95
▁2	-96
so	-97
▁dɔ	-98
▁fa	-99
len	-100
▁kɔn	-101
▁bi	-102
▁ya	-103
▁te	-104
▁tɛ	-105
▁ke	-106
▁ki	-107
lɛ	-108
ru	-109
▁koo	-110
ta	-111
."	-112
lu	-113
▁fi	-114
▁ani	-115
▁g	-116
▁p	-117
▁ha	-118
mu	-119
den	-120
▁de	-121
▁kɔ	-122
▁kɔnɔ	-123
da	-124
▁taga	-125
ki	-126
yi	-127
tigi	-128
zu	-129
▁den	-130
▁bari	-131
▁kelen	-132
▁ja	-133
bi	-134
oo	-135
▁bɔ	-136
▁mu	-137
▁3	-138
ogo	-139
▁man	-140
lan	-141
▁mi	-142
▁sɔrɔ	-143
cɛ	-144
▁lɔn	-145
▁mun	-146
▁fana	-147
▁du	-148
▁yɛrɛ	-149
aw	-150
▁kun	-151
▁wo	-152
▁bo	-153
ɲɛ	-154
▁masa	-155
▁minw	-156
▁san	-157
re	-158
▁yi	-159
fa	-160
uman	-161
▁kuma	-162
▁-	-163
▁ji	-164
su	-165
▁kos	-166
▁baa	-167
▁don	-168
mɛ	-169
ni	-170
▁dugu	-171
▁ten	-172
kɛ	-173
mi	-174
anna	-175
▁yen	-176
ro	-177
bu	-178
▁su	-179
...	-180
ɔgɔn	-181
▁4	-182
▁ɲin	-183
▁tuma	-184
baga	-185
▁cogo	-186
▁kana	-187
ran	-188
di	-189
▁ale	-190
▁ku	-191
▁nga	-192
▁ɲa	-193
lɔ	-194
▁yezu	-195
▁baara	-196
bɛ	-197
▁z	-198
▁kɔrɔ	-199
denw	-200
▁fo	-201
▁kɛra	-202
▁tugu	-203
ne	-204
se	-205
to	-206
▁cɛ	-207
▁nka	-208
min	-209
▁ban	-210
▁kanu	-211
mɔgɔ	-212
▁kalan	-213
▁yɔrɔ	-214
▁sara	-215
ɛlɛ	-216
▁muso	-217
▁wanna	-218
uru	-219
▁mɛn	-220
▁fan	-221
▁olu	-222
nin	-223
wa	-224
riya	-225
▁ci	-226
▁tu	-227
▁no	-228
▁tɔ	-229
▁dɛ	-230
▁saan	-231
yɛ	-232
lima	-233
▁ɲɔgɔn	-234
kolo	-235
òn	-236
kili	-237
lon	-238
▁wɛrɛ	-239
▁gw	-240
▁5	-241
▁saba	-242
▁loon	-243
▁faa	-244
▁mɔgɔw	-245
te	-246
gɛ	-247
▁nun	-248
ye	-249
▁fɔlɔ	-250
san	-251
mana	-252
ɛna	-253
▁so	-254
uni	-255
ge	-256
▁sira	-257
yɔrɔ	-258
▁6	-259
wu	-260
▁taa	-261
▁tena	-262
▁jaa	-263
fɛ	-264
▁fɛɛn	-265
▁fɔɔ	-266
▁barika	-267
▁waa	-268
▁li	-269
▁?	-270
▁bè	-271
ini	-272
▁tan	-273
▁jigi	-274
?"	-275
▁ɲinin	-276
ji	-277
▁wi	-278
muso	-279
▁deen	-280
aaman	-281
▁matigi	-282
sira	-283
▁ga	-284
▁tile	-285
▁bon	-286
▁caaman	-287
▁tɔgɔ	-288
▁kama	-289
kan	-290
▁kri	-291
▁kè	-292
ɔrɔn	-293
▁mii	-294
▁sigi	-295
▁do	-296
▁daa	-297
yɛli	-298
tɔ	-299
be	-300
mɛn	-301
▁kala	-302
▁dencɛ	-303
▁jamana	-304
òg	-305
▁hakili	-306
ɔbɛ	-307
▁lab	-308
▁nunu	-309
▁dɔw	-310
▁kosɔn	-311
▁jan	-312
zi	-313
▁tigi	-314
ani	-315
ku	-316
▁8	-317
▁we	-318
ɔni	-319
▁tɛmɛ	-320
▁10	-321
▁fila	-322
za	-323
▁ju	-324
▁ben	-325
▁yira	-326
▁jaabi	-327
▁foyi	-328
▁ra	-329
▁yan	-330
jugu	-331
ɲa	-332
▁fò	-333
▁7	-334
fu	-335
▁9	-336
▁.	-337
de	-338
▁faga	-339
bo	-340
▁20	-341
▁bolo	-342
▁sen	-343
▁filɛ	-344
sɔn	-345
▁soo	-346
▁sisan	-347
▁nii	-348
▁masacɛ	-349
ve	-350
▁sɔn	-351
▁bu	-352
▁mara	-353
▁jama	-354
▁_	-355
òr	-356
▁siran	-357
sta	-358
▁see	-359
▁sɔ	-360
▁dan	-361
▁wu	-362
fe	-363
bagaw	-364
▁cɛɛ	-365
▁diɲɛ	-366
sirayɛli	-367
▁(	-368
dama	-369
kun	-370
▁kɛlɛ	-371
▁kosɔbɛ	-372
▁mo	-373
▁dusu	-374
▁minɛ	-375
yara	-376
▁ɲininga	-377
▁sin	-378
▁bɛ	-379
òrò	-380
▁yesu	-381
▁lɔ	-382
tan	-383
▁waga	-384
muni	-385
▁isirayɛli	-386
▁19	-387
▁krista	-388
▁me	-389
▁bila	-390
ke	-391
▁bɔra	-392
èn	-393
▁sɛ	-394
bali	-395
mɔgɔw	-396
▁taama	-397
▁kuntigi	-398
ògò	-399
▁dɛmɛ	-400
▁fara	-401
▁damin	-402
▁masaya	-403
▁nana	-404
pi	-405
▁kisi	-406
ja	-407
fɛn	-408
fi	-409
▁sariya	-410
▁masaba	-411
▁ze	-412
kaw	-413
:1	-414
▁adama	-415
▁x	-416
▁je	-417
▁balima	-418
▁dumuni	-419
▁ɲi	-420
▁tiɲɛ	-421
gu	-422
▁walima	-423
▁nan	-424
▁jugu	-425
ha	-426
▁tagara	-427
wɛ	-428
▁ɲɛ	-429
anin	-430
▁fari	-431
▁ho	-432
▁zu	-433
▁yala	-434
▁wagati	-435
▁in	-436
▁miiri	-437
▁ɲini	-438
▁15	-439
lila	-440
▁kɔni	-441
run	-442
▁13	-443
▁cɛma	-444
▁v	-445
▁too	-446
▁ɲana	-447
▁ayi	-448
fo	-449
▁'	-450
▁yɛlɛ	-451
▁lon	-452
▁nisɔn	-453
▁dɔɔni	-454
kɔrɔ	-455
ɔɔ	-456
yo	-457
▁12	-458
diya	-459
▁jɔn	-460
ho	-461
▁dugukolo	-462
▁hali	-463
▁pe	-464
▁kaba	-465
▁18	-466
▁jɛn	-467
▁wolo	-468
▁tɔɔrɔ	-469
▁sera	-470
st	-471
nu	-472
▁fu	-473
▁sankolo	-474
▁11	-475
▁wele	-476
▁ca	-477
▁bii	-478
ina	-479
▁saa	-480
▁fe	-481
▁nu	-482
▁sun	-483
hi	-484
▁waati	-485
▁saraka	-486
▁14	-487
tu	-488
▁yafa	-489
inin	-490
me	-491
▁fisa	-492
nɛ	-493
▁en	-494
▁saga	-495
▁kalo	-496
▁wɛrɛw	-497
▁bato	-498
ar	-499
sɛn	-500
▁17	-501
mo	-502
▁mògò	-503
laki	-504
:2	-505
▁suu	-506
▁dun	-507
bɔ	-508
ɲuman	-509
▁teri	-510
▁kaan	-511
pe	-512
▁daminɛ	-513
▁kojugu	-514
liw	-515
nan	-516
▁nisɔndiya	-517
▁say	-518
kari	-519
▁siya	-520
▁jo	-521
▁laj	-522
lisa	-523
▁ele	-524
èr	-525
!"	-526
do	-527
▁kab	-528
ɲɛn	-529
▁laga	-530
▁kiba	-531
▁16	-532
va	-533
sɛ	-534
bɛn	-535
▁kalandenw	-536
▁yɛ	-537
▁dama	-538
▁tè	-539
▁bana	-540
mun	-541
wuda	-542
ugun	-543
ch	-544
fɔ	-545
▁fili	-546
lɛmu	-547
▁furu	-548
▁!	-549
▁go	-550
ɲɔgɔn	-551
▁dafa	-552
kɛla	-553
zalɛmu	-554
bari	-555
ruzalɛmu	-556
ɔgɔma	-557
ze	-558
▁senuman	-559
▁fɔra	-560
▁walisa	-561
▁lu	-562
▁janko	-563
▁zeruzalɛmu	-564
wi	-565
▁pi	-566
▁22	-567
▁dɔrɔn	-568
baa	-569
▁yu	-570
èrè	-571
....	-572
gwɛ	-573
du	-574
piti	-575
▁labɛn	-576
▁seen	-577
▁kɛnɛ	-578
▁bɔn	-579
▁24	-580
▁denmi	-581
▁boɲa	-582
▁nɔgɔ	-583
▁mana	-584
▁...	-585
▁kabako	-586
00	-587
kɔ	-588
nga	-589
▁wari	-590
▁21	-591
▁co	-592
▁r	-593
▁tora	-594
▁ɲɛna	-595
▁isirayɛlidenw	-596
▁,	-597
▁un	-598
▁laban	-599
▁kaso	-600
▁gwɛlɛ	-601
jan	-602
▁daali	-603
▁bara	-604
ala	-605
▁sɔgɔma	-606
▁dɔgɔ	-607
▁tugun	-608
▁dawuda	-609
▁jumɛn	-610
▁koow	-611
▁joo	-612
▁love	-613
ban	-614
▁musa	-615
▁pa	-616
▁anw	-617
▁nafa	-618
gɛn	-619
▁ɲaa	-620
▁can	-621
▁diyara	-622
▁po	-623
▁mako	-624
▁ri	-625
▁ezi	-626
▁faamu	-627
▁dòn	-628
inw	-629
▁saya	-630
▁‹	-631
maya	-632
▁fè	-633
▁kabini	-634
cogo	-635
▁25	-636
sita	-637
▁ɲuman	-638
tigɛ	-639
▁zan	-640
ce	-641
baw	-642
▁kp	-643
gɔ	-644
▁ɔ	-645
▁kibaru	-646
▁23	-647
▁lagaw	-648
▁ezipiti	-649
ɛnɛ	-650
▁segi	-651
▁kon	-652
he	-653
▁he	-654
▁bèè	-655
▁sababu	-656
masa	-657
▁kunna	-658
.›	-659
▁deli	-660
.'	-661
kè	-662
▁sabu	-663
▁deenw	-664
▁lajɛn	-665
▁kira	-666
▁denmuso	-667
folo	-668
mɔ	-669
▁ny	-670
▁dè	-671
▁makari	-672
▁kow	-673
▁sii	-674
lase	-675
▁juman	-676
▁dɔn	-677
▁denw	-678
▁facɛ	-679
▁jii	-680
▁sago	-681
▁denmisɛn	-682
yezu	-683
▁hɛrɛ	-684
▁fanga	-685
▁ŋ	-686
▁kunun	-687
▁kiti	-688
segi	-689
▁tiɲɛn	-690
▁al	-691
▁cɛn	-692
▁loo	-693
▁kɛmɛ	-694
▁ge	-695
▁faan	-696
ck	-697
▁yaa	-698
▁re	-699
▁wɔ	-700
▁kuun	-701
bolo	-702
▁tilen	-703
hun	-704
▁gi	-705
▁bibu	-706
.†	-707
▁wala	-708
▁balimaw	-709
▁aga	-710
▁kulu	-711
▁hai	-712
▁kasi	-713
tuma	-714
rɛn	-715
bato	-716
▁kɔsegi	-717
wo	-718
▁kara	-719
▁tigɛ	-720
▁adamaden	-721
▁vi	-722
▁bibulu	-723
▁mɛlɛ	-724
▁yee	-725
▁ak	-726
▁kanuya	-727
▁26	-728
▁mɛlɛkɛ	-729
▁nafolo	-730
▁krisita	-731
▁aba	-732
▁diya	-733
▁minkɛ	-734
▁mɛ	-735
▁hakɛ	-736
▁bɛn	-737
▁wasa	-738
hova	-739
▁wili	-740
anw	-741
▁joona	-742
ilu	-743
▁donna	-744
▁ai	-745
▁28	-746
▁ago	-747
▁mɔ	-748
▁ah	-749
manw	-750
▁minnu	-751
▁how	-752
ùn	-753
ògòn	-754
▁fani	-755
▁sarakalase	-756
▁tɔɔ	-757
don	-758
ble	-759
bra	-760
▁kita	-761
lè	-762
▁kat	-763
▁ɲɛnamaya	-764
▁yɛn	-765
▁jehova	-766
▁nɛ	-767
▁kɔmɔgɔw	-768
ɲè	-769
▁abada	-770
▁wolon	-771
▁fɛn	-772
batoso	-773
rin	-774
sen	-775
▁mari	-776
08	-777
kuma	-778
▁juru	-779
▁muru	-780
rô	-781
ugan	-782
▁sɛbɛ	-783
▁alabatoso	-784
▁kaa	-785
buru	-786
umana	-787
▁bamuso	-788
lɔsi	-789
▁tɔw	-790
oni	-791
niya	-792
tigiw	-793
mani	-794
▁gu	-795
▁ɲògòn	-796
▁*	-797
▁nɔ	-798
wifu	-799
olu	-800
we	-801
▁mɛnni	-802
▁nɛn	-803
▁kɛɲɛ	-804
▁yiri	-805
kd	-806
▁waasa	-807
▁yé	-808
▁jija	-809
▁tila	-810
▁lara	-811
ju	-812
ayi	-813
mm	-814
▁siɲɛ	-815
▁ɲaga	-816
▁sir	-817
kdc	-818
▁akkdc	-819
▁malo	-820
▁wuli	-821
tɛ	-822
tigiya	-823
▁kitabu	-824
▁sini	-825
▁kam	-826
▁halaki	-827
suma	-828
▁kosòn	-829
▁ɔrɔ	-830
kin	-831
▁kar	-832
▁kɛwa	-833
▁yèrè	-834
ɛbɛ	-835
mini	-836
▁teli	-837
▁kosɛbɛ	-838
:3	-839
je	-840
▁bata	-841
tion	-842
▁lafi	-843
▁kɔlɔsi	-844
▁ɔrɔmu	-845
ôrô	-846
▁duni	-847
▁ɛ	-848
▁jalaki	-849
▁adamadenw	-850
▁bati	-851
ci	-852
▁diman	-853
pa	-854
▁29	-855
lanan	-856
▁again	-857
▁kò	-858
ginin	-859
tin	-860
wula	-861
▁27	-862
▁sòrò	-863
▁pani	-864
▁tanu	-865
▁fura	-866
ɔɔn	-867
ou	-868
kolon	-869
▁kelenpe	-870
▁kà	-871
kow	-872
▁komi	-873
sigi	-874
▁dariya	-875
▁201	-876
▁bali	-877
bagatɔ	-878
▁gwɛlɛya	-879
▁faran	-880
▁30	-881
▁zuwifu	-882
ale	-883
bili	-884
▁ladi	-885
▁à	-886
▁lɔnniya	-887
ent	-888
yima	-889
▁tulo	-890
▁cè	-891
▁bò	-892
▁joli	-893
sin	-894
▁ibra	-895
bila	-896
fɛnw	-897
▁kumana	-898
▁kura	-899
▁jati	-900
!!	-901
▁38	-902
vi	-903
▁bible	-904
lɔn	-905
▁tilan	-906
▁dò	-907
gin	-908
▁kak	-909
▁foro	-910
▁mugan	-911
yan	-912
▁dara	-913
▁ar	-914
tiyo	-915
▁tɛna	-916
sufu	-917
▁siginin	-918
sogo	-919
▁gwan	-920
▁sere	-921
▁maloya	-922
▁nɔɔ	-923
▁ɲiningali	-924
kɛlaw	-925
▁ayiwa	-926
▁banbali	-927
dɛ	-928
▁zo	-929
▁ibrayima	-930
nen	-931
▁rɔ	-932
hu	-933
kulu	-934
▁sigiyɔrɔ	-935
▁wan	-936
▁dogo	-937
▁haa	-938
▁luka	-939
arch	-940
dugu	-941
▁wee	-942
▁search	-943
▁31	-944
▁nɛɛ	-945
▁ɲè	-946
▁back	-947
▁lamɛn	-948
ry	-949
▁33	-950
▁lan	-951
taw	-952
▁naani	-953
gô	-954
▁nɔgɔn	-955
tɔn	-956
▁kongo	-957
▁34	-958
▁40	-959
▁ve	-960
▁muɲ	-961
▁wun	-962
▁wolonwula	-963
▁mɔgɔba	-964
▁dumu	-965
▁yɛlɛma	-966
yɛri	-967
▁awa	-968
gara	-969
▁sama	-970
▁gwɛrɛ	-971
ll	-972
▁kin	-973
▁sani	-974
▁juguw	-975
▁xa	-976
▁kɔfɛ	-977
ɔli	-978
▁boo	-979
masaba	-980
▁for	-981
ɛɛrɛ	-982
▁boli	-983
▁mobili	-984
▁alabatosoba	-985
tun	-986
mɛna	-987
fan	-988
loo	-989
▁za	-990
▁tasuma	-991
mma	-992
▁ɲanagwɛ	-993
▁sufɛ	-994
fuɛ	-995
▁yusufu	-996
gan	-997
law	-998
▁duuru	-999
▁dɔnkili	-1000
▁mùn	-1001
▁fantan	-1002
foni	-1003
▁tɔn	-1004
▁comm	-1005
▁kalanden	-1006
▁32	-1007
gon	-1008
▁eso	-1009
▁kali	-1010
▁mini	-1011
▁ima	-1012
▁lɔgɔ	-1013
tɔrɔ	-1014
▁bɔyɔrɔ	-1015
ònò	-1016
▁ama	-1017
uguni	-1018
▁tò	-1019
▁kunbɛn	-1020
▁koɲuman	-1021
▁haali	-1022
kali	-1023
xi	-1024
,"	-1025
▁bɛna	-1026
▁dali	-1027
▁siri	-1028
▁zuda	-1029
ɔrɔnin	-1030
po	-1031
▁dimi	-1032
sun	-1033
▁gwɛ	-1034
▁juguya	-1035
▁ɲakɔrɔ	-1036
:4	-1037
▁ǹ	-1038
▁danna	-1039
ôgô	-1040
siw	-1041
▁alu	-1042
▁kurun	-1043
▁gb	-1044
▁sarakalasebagaw	-1045
▁comment	-1046
▁tɛmɛn	-1047
▁tilennin	-1048
jibi	-1049
lenw	-1050
▁ali	-1051
mina	-1052
▁sɔɔ	-1053
▁tele	-1054
▁matiyo	-1055
▁sɛbɛn	-1056
▁35	-1057
manɛ	-1058
▁bele	-1059
▁batize	-1060
▁tɛmɛna	-1061
▁musow	-1062
▁seere	-1063
▁is	-1064
▁lɛ	-1065
▁kari	-1066
▁muɲu	-1067
▁sifa	-1068
▁suma	-1069
ren	-1070
tiɲɛ	-1071
▁nɔgɔnin	-1072
▁janto	-1073
▁tɛmanɛ	-1074
▁nama	-1075
jigi	-1076
▁anu	-1077
▁filanan	-1078
ɲɔ	-1079
▁din	-1080
▁domma	-1081
kuru	-1082
kuba	-1083
▁mas	-1084
▁men	-1085
▁mɔɔ	-1086
▁and	-1087
ine	-1088
ool	-1089
▁am	-1090
▁bɛɛn	-1091
▁fee	-1092
us	-1093
▁fewu	-1094
▁yin	-1095
▁ò	-1096
▁kònò	-1097
▁lun	-1098
▁fran	-1099
▁nya	-1100
▁lanin	-1101
▁denmisɛnw	-1102
▁banna	-1103
▁eli	-1104
▁kɛwaliw	-1105
▁suman	-1106
▁̀	-1107
▁dɛsɛ	-1108
▁mbe	-1109
▁seko	-1110
▁delila	-1111
▁pu	-1112
▁tin	-1113
▁jɛ	-1114
dayi	-1115
▁piyɛri	-1116
▁wilila	-1117
▁dɔgɔtɔrɔ	-1118
▁teriw	-1119
ir	-1120
▁gɛrɛ	-1121
▁dibi	-1122
▁miiriya	-1123
dɔ	-1124
▁bé	-1125
▁siga	-1126
▁aa	-1127
▁new	-1128
ôn	-1129
▁=	-1130
▁pɛ	-1131
▁gafe	-1132
000	-1133
▁image	-1134
▁sanji	-1135
▁kini	-1136
▁farisogo	-1137
sara	-1138
▁kɔnɔn	-1139
tana	-1140
▁jurumu	-1141
rɔ	-1142
▁kudayi	-1143
▁nalo	-1144
▁baaraden	-1145
▁jɛni	-1146
▁tag	-1147
▁hakilitigiya	-1148
▁ol	-1149
▁soon	-1150
▁kanbe	-1151
▁wajibi	-1152
▁kɛla	-1153
▁latigɛ	-1154
▁hi	-1155
yɔn	-1156
▁sɔ̃	-1157
una	-1158
▁yanni	-1159
ss	-1160
yu	-1161
▁wɔɔrɔ	-1162
▁kanubaga	-1163
▁nih	-1164
kɔrɔbaw	-1165
▁ch	-1166
kasi	-1167
▁lagi	-1168
▁sinɔgɔ	-1169
▁labɛnnin	-1170
lé	-1171
▁halibi	-1172
▁sanu	-1173
▁mògòw	-1174
▁ɲan	-1175
▁kiri	-1176
▁katuguni	-1177
▁pan	-1178
▁senu	-1179
▁alla	-1180
▁wula	-1181
▁kinibolo	-1182
▁kunnafoni	-1183
▁ɲanaman	-1184
▁ɔrɔmukaw	-1185
▁yoo	-1186
▁layi	-1187
▁kuntigiw	-1188
▁50	-1189
▁sy	-1190
hana	-1191
▁daga	-1192
20	-1193
▁fun	-1194
koo	-1195
▁han	-1196
▁yakuba	-1197
guru	-1198
▁fɛti	-1199
cɛn	-1200
▁45	-1201
▁suuw	-1202
mèn	-1203
vɛn	-1204
waa	-1205
▁sad	-1206
no	-1207
▁buru	-1208
▁if	-1209
jo	-1210
▁dilan	-1211
hɔn	-1212
▁42	-1213
▁ao	-1214
▁ru	-1215
▁tòòrò	-1216
lennin	-1217
as	-1218
siran	-1219
▁kɔngɔ	-1220
▁zuwifuw	-1221
▁kòrò	-1222
▁bange	-1223
▁bonya	-1224
bana	-1225
ayiwa	-1226
▁kolo	-1227
▁gɛrɛfɛ	-1228
▁gwɛn	-1229
▁gbɛ	-1230
▁tum	-1231
▁yeelen	-1232
▁yɔrɔnin	-1233
▁sé	-1234
▁vo	-1235
▁jira	-1236
▁37	-1237
▁may	-1238
▁nee	-1239
▁isi	-1240
sɔ	-1241
▁kɛnɛya	-1242
wɔ	-1243
▁siyaw	-1244
▁dusukasi	-1245
wan	-1246
▁kaka	-1247
han	-1248
ron	-1249
▁bla	-1250
ee	-1251
??	-1252
baya	-1253
▁dja	-1254
▁surun	-1255
▁pɛrɛn	-1256
▁ɲininka	-1257
ly	-1258
▁39	-1259
▁pɔli	-1260
▁somɔgɔw	-1261
▁bee	-1262
manin	-1263
▁boon	-1264
▁duvɛn	-1265
▁lakali	-1266
▁waaju	-1267
lin	-1268
bagaya	-1269
baliya	-1270
bè	-1271
▁sogo	-1272
▁denkè	-1273
▁lad	-1274
▁kunu	-1275
▁lamini	-1276
pu	-1277
▁abi	-1278
fanin	-1279
▁ciden	-1280
▁duniya	-1281
▁kpa	-1282
▁teliya	-1283
gɛrɛ	-1284
▁sran	-1285
▁[	-1286
▁bolila	-1287
kura	-1288
▁woo	-1289
▁kabi	-1290
▁mili	-1291
.1	-1292
▁..	-1293
kɛnɛ	-1294
siɲɛ	-1295
▁sunguru	-1296
▁sɔnna	-1297
▁sebagaya	-1298
▁ɲamɔgɔ	-1299
▁dusukun	-1300
▁as	-1301
fɔlɔ	-1302
▁fin	-1303
▁aoû	-1304
▁gali	-1305
baliw	-1306
▁sigɛn	-1307
▁dabila	-1308
▁tagama	-1309
▁aww	-1310
▁sanni	-1311
▁ro	-1312
▁kuru	-1313
▁nà	-1314
▁emi	-1315
kɔn	-1316
th	-1317
gui	-1318
▁yes	-1319
▁yòrò	-1320
▁segira	-1321
▁arɔn	-1322
juguw	-1323
ree	-1324
▁miniti	-1325
▁ɲinina	-1326
▁sè	-1327
▁karamɔgɔ	-1328
▁ɲɛfɔ	-1329
▁siranna	-1330
▁^	-1331
:11	-1332
▁mɔgɔɲɔgɔn	-1333
▁been	-1334
▁year	-1335
▁faaw	-1336
tilennin	-1337
yɔ	-1338
:27	-1339
▁jɔɔn	-1340
▁hɔrɔn	-1341
▁ladili	-1342
▁ari	-1343
▁daan	-1344
xan	-1345
▁yii	-1346
▁sanfɛ	-1347
siri	-1348
▁cidenw	-1349
▁mɛlɛkɛw	-1350
▁hami	-1351
inɛ	-1352
▁tilenninya	-1353
▁maa	-1354
miɛn	-1355
▁goo	-1356
▁duman	-1357
yɔrɔw	-1358
▁fɔlɔfɔlɔ	-1359
▁like	-1360
▁seegi	-1361
▁jigira	-1362
▁sugu	-1363
▁36	-1364
▁maga	-1365
▁jumɛnw	-1366
dan	-1367
▁kere	-1368
▁safe	-1369
▁wɛ	-1370
▁sɔrɔla	-1371
▁oh	-1372
ŋɛlɛ	-1373
▁mali	-1374
▁yɛnŋɛlɛ	-1375
fè	-1376
uro	-1377
fari	-1378
▁sɔbɛ	-1379
▁47	-1380
▁eh	-1381
▁baro	-1382
̀n	-1383
▁fantanw	-1384
▁cu	-1385
▁siranya	-1386
▁ton	-1387
▁biri	-1388
▁nigɛ	-1389
▁fɛtiw	-1390
ii	-1391
kɔli	-1392
▁diɲè	-1393
▁>	-1394
▁farati	-1395
▁ɔn	-1396
matigi	-1397
▁saban	-1398
yé	-1399
use	-1400
▁woro	-1401
▁warigwɛ	-1402
▁kw	-1403
▁lol	-1404
▁ɲɛɛ	-1405
baara	-1406
▁juga	-1407
▁sinji	-1408
ca	-1409
▁60	-1410
ene	-1411
▁lɔra	-1412
▁duniɲa	-1413
▁41	-1414
▁kɔgɔ	-1415
▁mɛɛn	-1416
masacɛ	-1417
▁fla	-1418
▁yèrèw	-1419
waati	-1420
▁tanga	-1421
▁kɔrɔta	-1422
▁mariki	-1423
▁ɲamɔgɔw	-1424
▁dira	-1425
▁olugu	-1426
▁gwɛrɛla	-1427
▁au	-1428
▁es	-1429
qu	-1430
▁isra	-1431
▁solo	-1432
▁begɛn	-1433
▁lafiɲɛ	-1434
▁kununna	-1435
ugou	-1436
▁kid	-1437
▁pye	-1438
ah	-1439
biri	-1440
▁kumaw	-1441
▁lee	-1442
sisan	-1443
▁bɔsi	-1444
▁yahu	-1445
▁kaburu	-1446
èlè	-1447
▁yeo	-1448
▁zoo	-1449
▁cool	-1450
▁layidu	-1451
bagatɔw	-1452
▁kɛlɛdenw	-1453
yen	-1454
▁kabakuru	-1455
lɛn	-1456
▁yaala	-1457
tiri	-1458
▁try	-1459
▁sabanan	-1460
gè	-1461
mè	-1462
tugu	-1463
▁har	-1464
▁ɲafɛ	-1465
▁kanubagaw	-1466
▁syn	-1467
▁kaam	-1468
▁yeli	-1469
▁far	-1470
▁mɛnna	-1471
cɛɛ	-1472
iya	-1473
▁ab	-1474
▁kèra	-1475
ska	-1476
▁ɲanmiɛn	-1477
▁duba	-1478
▁sari	-1479
rg	-1480
yɛrɛ	-1481
▁nata	-1482
▁tugunni	-1483
▁taamasiɲɛ	-1484
▁af	-1485
▁bad	-1486
▁ohun	-1487
▁denbaya	-1488
▁kii	-1489
ènw	-1490
saba	-1491
ction	-1492
▁balo	-1493
▁sutana	-1494
▁bar	-1495
tɔw	-1496
▁kɔniya	-1497
ger	-1498
▁daminè	-1499
▁kanbelen	-1500
▁law	-1501
gw	-1502
▁ara	-1503
▁el	-1504
▁mɔn	-1505
▁son	-1506
▁lɔnin	-1507
▁fiɲɛn	-1508
▁kibaro	-1509
▁mariya	-1510
▁dafanin	-1511
▁ń	-1512
ena	-1513
▁jigin	-1514
▁kɑ	-1515
▁niin	-1516
▁fanan	-1517
tro	-1518
ligi	-1519
▁naan	-1520
▁samari	-1521
▁tch	-1522
▁tii	-1523
▁majigi	-1524
▁you	-1525
▁sigira	-1526
▁jɛnkulu	-1527
▁kɔsegira	-1528
ing	-1529
▁49	-1530
▁fô	-1531
▁diin	-1532
▁maana	-1533
▁sanin	-1534
▁kɔnɔna	-1535
lò	-1536
▁bɑ	-1537
▁dô	-1538
tama	-1539
▁baden	-1540
▁kumakan	-1541
▁lakɔli	-1542
▁wolomanin	-1543
▁dije	-1544
▁kerecɛn	-1545
raw	-1546
▁day	-1547
▁dannaya	-1548
▁mɔgɔtilennin	-1549
▁leo	-1550
▁filè	-1551
▁jumanw	-1552
▁muruti	-1553
▁nba	-1554
▁kafe	-1555
zila	-1556
▁bataki	-1557
▁farikolo	-1558
bun	-1559
▁ɲinɛ	-1560
▁galile	-1561
▁70	-1562
▁48	-1563
▁free	-1564
▁46	-1565
▁nzila	-1566
▁zi	-1567
hali	-1568
fara	-1569
▁dabi	-1570
dɛn	-1571
▁good	-1572
▁waajuli	-1573
es	-1574
mɔn	-1575
▁baji	-1576
▁kale	-1577
bon	-1578
yanin	-1579
▁lana	-1580
">	-1581
▁="	-1582
umanbolo	-1583
ter	-1584
▁maan	-1585
▁mila	-1586
▁tere	-1587
ɲɔgɔnw	-1588
▁kongokolon	-1589
▁doo	-1590
▁lonan	-1591
▁murujan	-1592
▁tɛmɛnin	-1593
:5	-1594
▁(2	-1595
▁jaabili	-1596
▁bhi	-1597
▁lah	-1598
▁9:27	-1599
foro	-1600
▁mèn	-1601
▁setigi	-1602
▁naloman	-1603
▁ʻ	-1604
euse	-1605
▁lookin	-1606
▁miiska	-1607
bee	-1608
▁nak	-1609
minin	-1610
▁galon	-1611
▁nɛɛma	-1612
jɔn	-1613
▁nk	-1614
▁nili	-1615
▁0	-1616
too	-1617
▁blo	-1618
▁con	-1619
▁last	-1620
▁yera	-1621
kara	-1622
xt	-1623
▁ŋa	-1624
▁yigi	-1625
▁miiran	-1626
ili	-1627
▁age	-1628
▁kɔrɔbɔ	-1629
▁mɔ̀	-1630
yana	-1631
▁aka	-1632
▁bɔnɛ	-1633
▁taba	-1634
fee	-1635
sɔbɛ	-1636
asy	-1637
▁faso	-1638
▁soow	-1639
▁delili	-1640
▁sɛgɛrɛ	-1641
▁kɔrɔtan	-1642
mb	-1643
how	-1644
▁ninnu	-1645
toro	-1646
▁bug	-1647
▁mon	-1648
▁size	-1649
▁kɛcogo	-1650
▁easy	-1651
?›	-1652
dafɛ	-1653
▁iru	-1654
▁jun	-1655
ds	-1656
ul	-1657
uya	-1658
▁yeah	-1659
▁religi	-1660
▁200	-1661
▁aye	-1662
▁kɔɔ	-1663
▁fuun	-1664
▁kasa	-1665
▁kɔrɔtanin	-1666
non	-1667
▁tau	-1668
▁niyɔrɔ	-1669
▁ek	-1670
xɔ	-1671
▁laa	-1672
▁naa	-1673
tɔnin	-1674
▁ɲèna	-1675
▁yirali	-1676
▁kɔrɔtɔnin	-1677
▁dj	-1678
▁oo	-1679
jama	-1680
▁44	-1681
▁luu	-1682
▁biin	-1683
▁lala	-1684
▁sarakalasebaga	-1685
▁it	-1686
adama	-1687
▁kwla	-1688
▁kalifa	-1689
▁ɲumanya	-1690
saan	-1691
▁kya	-1692
▁zoova	-1693
▁mariyamu	-1694
▁lati	-1695
▁banne	-1696
▁kalansen	-1697
▁lajɛnnin	-1698
faga	-1699
mògò	-1700
▁bala	-1701
▁foroba	-1702
▁barikaman	-1703
co	-1704
▁2"	-1705
▁pen	-1706
▁taw	-1707
▁daminɛtuma	-1708
yɛn	-1709
▁ain	-1710
▁veo	-1711
▁tuun	-1712
▁yeri	-1713
riki	-1714
▁nɔɔrɔ	-1715
ad	-1716
▁naga	-1717
▁tala	-1718
unu	-1719
▁noon	-1720
▁jugak	-1721
▁kojuguba	-1722
yasi	-1723
▁tunu	-1724
▁sunɔgɔ	-1725
▁yɛɛ	-1726
▁tɛrɛ	-1727
▁duguw	-1728
▁nahana	-1729
▁namatama	-1730
ɲi	-1731
▁kabakoyara	-1732
ɑ̃	-1733
ara	-1734
bugu	-1735
▁kunbiri	-1736
▁sọ	-1737
▁000	-1738
kohun	-1739
▁bina	-1740
▁kɔrɔcɛ	-1741
▁ohunkohun	-1742
lle	-1743
numanbolo	-1744
▁tha	-1745
▁bolola	-1746
dy	-1747
:17	-1748
▁kɛnɛyara	-1749
er	-1750
ten	-1751
lati	-1752
ziɲɛ	-1753
▁caya	-1754
▁kanaan	-1755
▁mankan	-1756
▁yɛrɛyɛrɛ	-1757
jana	-1758
▁fèn	-1759
▁isa	-1760
▁pro	-1761
▁lade	-1762
▁lajɛ	-1763
▁karan	-1764
).	-1765
50	-1766
boo	-1767
5.	-1768
ré	-1769
▁wow	-1770
▁on	-1771
▁gon	-1772
▁tol	-1773
▁sooo	-1774
▁mɔgɔbaba	-1775
maw	-1776
minɛ	-1777
wabu	-1778
▁boy	-1779
▁sɔ̃ɔ	-1780
▁post	-1781
▁looru	-1782
sankolo	-1783
▁cii	-1784
▁kɔnna	-1785
▁yɛlɛla	-1786
▁ɲɛnabɔ	-1787
▁kititigɛ	-1788
▁efɛ	-1789
▁àyi	-1790
▁bugu	-1791
▁donda	-1792
▁dɔgɔcɛ	-1793
▁wolola	-1794
▁yahutu	-1795
▁tilennen	-1796
xa	-1797
ssi	-1798
ganin	-1799
▁next	-1800
▁kiraw	-1801
▁bin	-1802
▁jin	-1803
▁kua	-1804
kaba	-1805
sage	-1806
▁yari	-1807
▁nɔgɔya	-1808
▁gun	-1809
▁ɲafan	-1810
▁saniya	-1811
:10	-1812
▁hago	-1813
▁hɛɛrɛ	-1814
▁baba	-1815
▁kogo	-1816
▁tiɲè	-1817
▁cɛman	-1818
▁tunun	-1819
▁kiraya	-1820
:6	-1821
▁ɡ	-1822
ted	-1823
▁ké	-1824
▁lagu	-1825
▁kolon	-1826
▁balimamuso	-1827
rɛti	-1828
tala	-1829
▁fɛ̀	-1830
▁môgô	-1831
▁france	-1832
▁mɔgɔkɔrɔbaw	-1833
▁&	-1834
▁ô	-1835
ged	-1836
▁tèna	-1837
▁wara	-1838
▁moo	-1839
▁diinan	-1840
▁kasira	-1841
el	-1842
wɑ	-1843
ŋo	-1844
▁jukɔrɔ	-1845
▁nde	-1846
▁tou	-1847
▁tiga	-1848
▁caman	-1849
▁taara	-1850
▁denmis	-1851
▁pɛrɛnna	-1852
ct	-1853
ɔbu	-1854
▁--	-1855
manan	-1856
▁suru	-1857
▁sɔli	-1858
▁tulu	-1859
▁yere	-1860
dili	-1861
▁bugɔ	-1862
▁sanga	-1863
ɲɔgɔnya	-1864
▁fagara	-1865
▁seerew	-1866
▁arijana	-1867
▁sariyaw	-1868
bara	-1869
▁tra	-1870
.....	-1871
▁kɛlɛkɛ	-1872
▁ɲagali	-1873
ben	-1874
▁ad	-1875
▁jɔ	-1876
▁ng	-1877
baaw	-1878
▁koba	-1879
▁gusun	-1880
▁ce	-1881
▁kind	-1882
▁datugu	-1883
▁43	-1884
▁bà	-1885
▁mì	-1886
liya	-1887
▁big	-1888
tò	-1889
bar	-1890
▁nyo	-1891
▁sɛnɛ	-1892
▁kunma	-1893
▁kàlan	-1894
▁lɔgɔkun	-1895
isirayɛli	-1896
▁baarakɛla	-1897
▁/	-1898
▁lase	-1899
▁ɲagami	-1900
is	-1901
kɔnɔ	-1902
▁baasi	-1903
▁efɛzi	-1904
saya	-1905
▁book	-1906
▁jula	-1907
▁mama	-1908
▁images	-1909
▁cɛkɔrɔbaw	-1910
▁hakilitigi	-1911
gili	-1912
▁wolobagaw	-1913
▁hala	-1914
▁jara	-1915
▁levi	-1916
▁otro	-1917
▁dii	-1918
▁week	-1919
▁yôrô	-1920
▁minan	-1921
▁nò	-1922
▁donko	-1923
▁duguma	-1924
▁danbaga	-1925
vu	-1926
fen	-1927
▁fen	-1928
▁lolo	-1929
▁kɔrɔn	-1930
▁dencɛw	-1931
▁or	-1932
uli	-1933
▁bro	-1934
▁sai	-1935
▁tagar	-1936
▁misi	-1937
▁must	-1938
▁yɛle	-1939
▁zude	-1940
▁cogoya	-1941
▁kɔlɔsikaw	-1942
▁masòrò	-1943
▁daalili	-1944
roo	-1945
sɛbɛ	-1946
▁ham	-1947
▁ole	-1948
▁sab	-1949
▁kele	-1950
▁toun	-1951
nè	-1952
ton	-1953
baan	-1954
irly	-1955
▁ver	-1956
▁hinɛ	-1957
▁jɛrɛ	-1958
▁lama	-1959
▁gonna	-1960
▁masaw	-1961
▁sairly	-1962
ɔru	-1963
▁th	-1964
▁18-	-1965
▁eze	-1966
▁hoo	-1967
▁jigɛ	-1968
▁kora	-1969
▁nɛnɛ	-1970
▁kasih	-1971
▁katugu	-1972
▁woloma	-1973
cha	-1974
▁juma	-1975
▁dɛmɛbaga	-1976
:18	-1977
▁wɛ̃	-1978
▁feere	-1979
▁minni	-1980
▁weele	-1981
▁ef	-1982
▁amo	-1983
▁mar	-1984
yaka	-1985
▁fit	-1986
▁fɔta	-1987
▁zona	-1988
▁tèmèn	-1989
▁hɔrɔnya	-1990
bia	-1991
now	-1992
tanw	-1993
▁lam	-1994
▁dege	-1995
can	-1996
▁gan	-1997
▁ladon	-1998
▁lɔyɔrɔ	-1999
pan	-2000
juru	-2001
lɔni	-2002
kalan	-2003
saraka	-2004
sigilan	-2005
▁solomani	-2006
▁ii	-2007
dɔmu	-2008
▁babi	-2009
▁kami	-2010
▁faniw	-2011
▁tilannin	-2012
▁mɔgɔjuguw	-2013
▁nafolotigi	-2014
leh	-2015
zan	-2016
▁fini	-2017
wn	-2018
riw	-2019
wɛli	-2020
▁cira	-2021
▁ɲiningaliw	-2022
▁duu	-2023
▁cibaga	-2024
▁mis	-2025
▁ndɛ	-2026
▁malɔ	-2027
▁lemɛn	-2028
▁bɛnnin	-2029
▁tagged	-2030
▁religieuse	-2031
▁nta	-2032
▁dani	-2033
▁nimi	-2034
▁gwansan	-2035
fin	-2036
▁bir	-2037
▁kule	-2038
▁naxan	-2039
▁dì	-2040
▁qu	-2041
▁koko	-2042
▁vote	-2043
▁baarakɛlaw	-2044
cu	-2045
runin	-2046
▁cɛɛw	-2047
▁lanaya	-2048
▁awak	-2049
▁kowa	-2050
▁kakala	-2051
▁kɔmɔgɔ	-2052
▁dagamun	-2053
ɛri	-2054
▁pon	-2055
▁folo	-2056
▁toro	-2057
kɔrɔba	-2058
▁1:2	-2059
▁juu	-2060
▁jina	-2061
▁nkan	-2062
▁banned	-2063
▁%	-2064
chi	-2065
▁wà	-2066
misɛn	-2067
ɔnhɔn	-2068
▁dakun	-2069
▁ɲumanw	-2070
▁faransi	-2071
gle	-2072
sse	-2073
▁begɛnw	-2074
▁kuntigiya	-2075
▁masasigilan	-2076
lew	-2077
tte	-2078
▁xɔn	-2079
▁main	-2080
▁tɔɔw	-2081
▁sabati	-2082
ele	-2083
yila	-2084
▁kɛrɛ	-2085
▁dibaga	-2086
▁kisili	-2087
yɛlɛ	-2088
▁now	-2089
▁kiya	-2090
dawuda	-2091
eni	-2092
yaw	-2093
▁gba	-2094
▁fali	-2095
▁gbɛlɛ	-2096
▁woman	-2097
▁kunmabɔ	-2098
al	-2099
ŋga	-2100
▁ina	-2101
▁nɔrɔ	-2102
▁fɛɛrɛ	-2103
▁lamèn	-2104
▁kabakow	-2105
:7	-2106
zari	-2107
ziɲɛw	-2108
ɔrɔnan	-2109
▁dɔgɔya	-2110
▁isiyaka	-2111
▁yɔrɔjan	-2112
ɛl	-2113
wili	-2114
▁ŋga	-2115
▁telef	-2116
▁dugusa	-2117
rs	-2118
àn	-2119
▁%%	-2120
▁gari	-2121
▁know	-2122
▁tara	-2123
▁tògò	-2124
▁surunyana	-2125
▁nùn	-2126
▁dunu	-2127
▁kòni	-2128
▁yara	-2129
▁mɔgɔfaga	-2130
▁nw	-2131
▁mean	-2132
▁fɔtaw	-2133
▁dimina	-2134
▁batofɛn	-2135
rt	-2136
ɑɑ	-2137
kisi	-2138
▁asi	-2139
mɔɔ	-2140
▁yɔn	-2141
▁zaki	-2142
▁sungu	-2143
▁sankaba	-2144
▁lemɛniya	-2145
▁lere	-2146
▁korɛn	-2147
▁batise	-2148
▁mɔgɔbabaw	-2149
▁sòn	-2150
▁jate	-2151
▁laaa	-2152
▁siraw	-2153
▁filɛli	-2154
▁té	-2155
▁hun	-2156
▁sɛgɛ	-2157
▁vide	-2158
▁nuhun	-2159
▁terikɛ	-2160
▁baarakɛ	-2161
▁kowagara	-2162
sarakalase	-2163
kɛlɛ	-2164
▁fòlò	-2165
▁mina	-2166
▁nyogon	-2167
▁tugura	-2168
▁wɔɔrɔnan	-2169
▁banabagatɔ	-2170
ɲɛna	-2171
▁dee	-2172
▁dji	-2173
▁fɔɲɔ	-2174
▁seli	-2175
▁ezeki	-2176
ɑ̃ɑ	-2177
▁wì	-2178
▁xo	-2179
fani	-2180
▁fɔn	-2181
▁sɛn	-2182
▁tɔnɔ	-2183
▁jɔɔnw	-2184
▁babilɔni	-2185
▁fanibugu	-2186
yin	-2187
zɛn	-2188
kalo	-2189
mote	-2190
▁fɔla	-2191
▁tana	-2192
▁lonanw	-2193
▁tumabee	-2194
▁yahutuw	-2195
▁nyogonfe	-2196
zo	-2197
mba	-2198
▁kia	-2199
▁ɛrɛ	-2200
▁bɔna	-2201
▁minè	-2202
▁jaman	-2203
▁badenw	-2204
▁minɛna	-2205
▁korɛnti	-2206
▁dɔgɔtɔrɔso	-2207
▁$	-2208
▁jè	-2209
▁com	-2210
▁kôn	-2211
▁saw	-2212
▁sisen	-2213
▁seereya	-2214
▁@	-2215
-20	-2216
▁gɔ	-2217
kira	-2218
▁2012	-2219
▁mogo	-2220
▁nahi	-2221
▁tiin	-2222
▁mandi	-2223
▁damani	-2224
▁ɲinɛna	-2225
▁fiɲɛntɔw	-2226
▁nalomanw	-2227
:13	-2228
one	-2229
▁cha	-2230
▁kafo	-2231
▁tɔɲɔgɔn	-2232
▁dugusagwɛ	-2233
▁hu	-2234
▁nte	-2235
▁soy	-2236
▁domi	-2237
kojugu	-2238
▁kɛnin	-2239
karamɔgɔ	-2240
▁kabakoya	-2241
:8	-2242
▁ee	-2243
▁yū	-2244
▁flɛ	-2245
▁ɛɛn	-2246
▁degi	-2247
▁fiyɛ	-2248
▁sila	-2249
▁timote	-2250
▁ɲɔ	-2251
kiri	-2252
ugug	-2253
▁kpɛ	-2254
▁baru	-2255
▁yama	-2256
▁faama	-2257
▁taamana	-2258
▁denmusow	-2259
▁kirisita	-2260
.19	-2261
▁1-	-2262
taga	-2263
▁nge	-2264
▁lain	-2265
▁lɔti	-2266
▁masi	-2267
▁suka	-2268
▁that	-2269
▁birin	-2270
▁jinaw	-2271
bèn	-2272
▁naanin	-2273
▁fagayɔrɔ	-2274
:)	-2275
▁buguri	-2276
▁laaaan	-2277
▁terima	-2278
awo	-2279
̀wɔ	-2280
▁6.	-2281
▁leh	-2282
▁000)	-2283
▁susu	-2284
▁ɔ̀wɔ	-2285
▁sabar	-2286
▁tuman	-2287
▁jigiya	-2288
▁junman	-2289
▁worodugu	-2290
▁hare	-2291
▁nani	-2292
▁sɔrɔn	-2293
▁tú	-2294
saga	-2295
òròn	-2296
▁tak	-2297
laman	-2298
▁gusunɔ	-2299
trg	-2300
kana	-2301
▁kaf	-2302
sɔbɛw	-2303
▁kɔɲɔ	-2304
▁mise	-2305
▁bɔnnin	-2306
▁bɔnsɔn	-2307
▁julakan	-2308
▁balimacɛ	-2309
▁kakalaya	-2310
én	-2311
▁̈	-2312
▁of	-2313
loon	-2314
▁bɛnna	-2315
▁landa	-2316
▁(28	-2317
▁koe	-2318
▁ɲafɔ	-2319
xu	-2320
!!!	-2321
fɛr	-2322
gwe	-2323
-20)	-2324
▁nyɔ	-2325
▁girɛ	-2326
▁kilɛ	-2327
▁ngan	-2328
▁wèrè	-2329
bɑ	-2330
ny	-2331
ɲan	-2332
▁51	-2333
musa	-2334
▁paul	-2335
▁siara	-2336
▁#	-2337
▁at	-2338
▁bô	-2339
▁kili	-2340
kanuya	-2341
zarɛti	-2342
.19-20)	-2343
▁wotoro	-2344
▁(28.19-20)	-2345
bɛrɛ	-2346
▁bèn	-2347
▁dɔɔn	-2348
▁amata	-2349
▁noonoo	-2350
:14	-2351
:16	-2352
▁kô	-2353
remi	-2354
wali	-2355
▁blog	-2356
▁jago	-2357
▁pewu	-2358
▁furakɛ	-2359
▁sayuli	-2360
▁tigitigi	-2361
▁alo	-2362
▁bun	-2363
▁sirana	-2364
▁bl	-2365
tinya	-2366
▁ayei	-2367
▁fala	-2368
▁popo	-2369
▁sɔlida	-2370
ninw	-2371
renw	-2372
tara	-2373
▁won	-2374
▁gafew	-2375
▁loved	-2376
▁yɛlɛmana	-2377
▁dagamunin	-2378
ver	-2379
boɲa	-2380
fila	-2381
musow	-2382
▁aawo	-2383
▁effe	-2384
▁nobar	-2385
▁tununa	-2386
▁intinya	-2387
▁siaramɔ	-2388
▁tulogwe	-2389
▁é	-2390
▁mà	-2391
▁dòw	-2392
kumaw	-2393
▁here	-2394
▁filipu	-2395
▁labaan	-2396
vo	-2397
bɔn	-2398
mos	-2399
▁baga	-2400
▁ɔnhɔn	-2401
▁effect	-2402
ía	-2403
ved	-2404
minw	-2405
▁isira	-2406
▁suruta	-2407
▁wulila	-2408
▁daminɛna	-2409
bò	-2410
▁bha	-2411
▁kɛsu	-2412
▁bɔnin	-2413
▁ladegi	-2414
▁kantigi	-2415
▁jù	-2416
▁mɛɛ	-2417
▁suun	-2418
ininka	-2419
▁eburu	-2420
▁litiri	-2421
▁kelenna	-2422
▁kisibaga	-2423
bele	-2424
rali	-2425
yimu	-2426
▁uso	-2427
▁yèlè	-2428
▁dadon	-2429
▁israɛl	-2430
▁lalaga	-2431
▁sapiti	-2432
▁comments	-2433
▁tulogwerenw	-2434
▁kĩ	-2435
rila	-2436
▁ame	-2437
▁par	-2438
▁site	-2439
▁sɔtɔ	-2440
▁kanin	-2441
▁ninsɔn	-2442
nn	-2443
rɑ	-2444
red	-2445
▁34-	-2446
▁ooo	-2447
▁sebaa	-2448
▁dunuɲa	-2449
▁namara	-2450
▁batizera	-2451
▁mɔgɔjugu	-2452
▁naaninan	-2453
▁forobayɔrɔw	-2454
▁farisogobana	-2455
lt	-2456
▁chɛ	-2457
▁iko	-2458
▁nɔn	-2459
▁sibo	-2460
▁dougou	-2461
▁girɛki	-2462
▁isirayila	-2463
èl	-2464
urou	-2465
▁2017	-2466
▁mala	-2467
▁ɲanabɔ	-2468
▁alatala	-2469
▁faranfa	-2470
▁sebaaya	-2471
▁daniyɛli	-2472
▁efɛzikaw	-2473
▁fangatigi	-2474
ong	-2475
▁2-	-2476
▁lé	-2477
▁kah	-2478
▁wie	-2479
▁sɔngɔ	-2480
▁farisi	-2481
▁sabali	-2482
▁sapitiri	-2483
▁korɛntikaw	-2484
▁kititigɛlaw	-2485
:49	-2486
▁dɛn	-2487
▁nyɛ	-2488
rancɛ	-2489
▁kɛli	-2490
▁soro	-2491
▁yoro	-2492
▁nalon	-2493
▁filisiw	-2494
uu	-2495
▁·	-2496
xin	-2497
▁ev	-2498
basi	-2499
▁jòn	-2500
▁life	-2501
▁sisi	-2502
▁ɲɔɔn	-2503
▁feelin	-2504
▁jɛnsɛn	-2505
▁sunguruw	-2506
▁taamacogo	-2507
▁sungurunin	-2508
bé	-2509
▁¿	-2510
dɔn	-2511
▁dɔ̀n	-2512
maniya	-2513
▁firiya	-2514
▁muruku	-2515
▁dadonkumaw	-2516
mp	-2517
kala	-2518
tiɲè	-2519
▁aje	-2520
▁need	-2521
▁ɲinan	-2522
▁dadili	-2523
▁natuma	-2524
▁miliyɔn	-2525
fɛɛn	-2526
▁win	-2527
▁tradu	-2528
adamaden	-2529
▁kuntigiba	-2530
faw	-2531
joy	-2532
tah	-2533
▁dù	-2534
▁ado	-2535
▁ere	-2536
▁basa	-2537
▁saalo	-2538
▁kɔrɔsi	-2539
▁mɛɛnna	-2540
ang	-2541
tch	-2542
rusa	-2543
tani	-2544
▁mak	-2545
▁sèbèn	-2546
▁cikura	-2547
▁kɔgɔji	-2548
▁sɔrɔko	-2549
▁wajibiya	-2550
-1	-2551
dio	-2552
rɔdi	-2553
wara	-2554
▁poro	-2555
▁samu	-2556
▁tobi	-2557
▁yisa	-2558
▁enjoy	-2559
▁years	-2560
▁damina	-2561
▁diiman	-2562
sé	-2563
▁pun	-2564
▁maza	-2565
▁nayi	-2566
ugunin	-2567
▁verse	-2568
▁woilu	-2569
▁ntalen	-2570
▁mɔgɔɲuman	-2571
--	-2572
yiri	-2573
▁aint	-2574
▁foli	-2575
minanw	-2576
▁ɲinibagaw	-2577
:23	-2578
rai	-2579
rika	-2580
▁dam	-2581
▁ile	-2582
aniya	-2583
▁bama	-2584
▁hakɛw	-2585
▁tɔɔrɔla	-2586
sarakalasebagaw	-2587
gun	-2588
lɛkɛ	-2589
▁wusu	-2590
mɛlɛkɛ	-2591
wulanan	-2592
▁salenw	-2593
▁tilennenya	-2594
▁wolonwulanan	-2595
lun	-2596
sto	-2597
▁yg	-2598
tali	-2599
zuda	-2600
▁cik	-2601
▁yɛ̃	-2602
yanni	-2603
▁afuɛ	-2604
▁alij	-2605
▁dùgu	-2606
▁sôrô	-2607
▁tryina	-2608
▁wulafɛ	-2609
▁sarakabɔ	-2610
nw	-2611
▁tuu	-2612
▁mboo	-2613
▁siko	-2614
somɔgɔ	-2615
▁jasin	-2616
▁kuluw	-2617
▁lɔnko	-2618
▁mùnna	-2619
▁makoya	-2620
▁muntah	-2621
▁susuli	-2622
▁halakili	-2623
▁kalandensomɔgɔ	-2624
kri	-2625
▁sì	-2626
lɛki	-2627
▁pol	-2628
▁the	-2629
▁kélé	-2630
▁penda	-2631
▁karaba	-2632
▁dumuniba	-2633
▁karamògò	-2634
ber	-2635
▁sh	-2636
mori	-2637
▁non	-2638
▁duga	-2639
▁gayi	-2640
▁says	-2641
▁zezi	-2642
▁zɔbu	-2643
▁jùmɛn	-2644
▁lazari	-2645
▁boɲafɛn	-2646
▁(1	-2647
▁sà	-2648
enen	-2649
gali	-2650
▁ana	-2651
▁ɲɛsin	-2652
▁banana	-2653
▁dafara	-2654
▁manamana	-2655
rc	-2656
▁7.	-2657
▁jò	-2658
yaan	-2659
minan	-2660
ɛlɛya	-2661
▁fisaya	-2662
▁alijɛnɛ	-2663
▁ɲasiran	-2664
▁murutili	-2665
▁kelennama	-2666
son	-2667
èbè	-2668
▁suf	-2669
▁gèlè	-2670
▁simɔn	-2671
▁yirala	-2672
▁lakolon	-2673
▁limaniya	-2674
▁jalakibali	-2675
ts	-2676
zɛ	-2677
:19	-2678
:20	-2679
far	-2680
gra	-2681
nii	-2682
ting	-2683
▁aza	-2684
▁bira	-2685
▁kanw	-2686
▁poli	-2687
▁wafa	-2688
▁fariya	-2689
▁dumunifɛn	-2690
▁<	-2691
bou	-2692
▁56	-2693
▁st	-2694
▁bere	-2695
▁sina	-2696
▁sɔgɔ	-2697
ugugwɛ	-2698
▁baliw	-2699
▁dingɛ	-2700
▁nazarɛti	-2701
▁sɔgɔmada	-2702
▁+	-2703
▁bib	-2704
▁gwa	-2705
▁joow	-2706
▁cɛnni	-2707
▁domuni	-2708
▁filila	-2709
▁kɔgɔdugu	-2710
▁traduction	-2711
▁dɛsɛbagatɔw	-2712
rn	-2713
dee	-2714
▁bam	-2715
▁ble	-2716
▁dah	-2717
▁tee	-2718
▁bloo	-2719
▁seenw	-2720
▁fagali	-2721
▁gwɛnin	-2722
▁sɛbɛnna	-2723
▁karamɔgɔw	-2724
au	-2725
▁ou	-2726
▁ask	-2727
gonin	-2728
▁lady	-2729
▁pero	-2730
▁tuba	-2731
▁fitin	-2732
▁jɔnya	-2733
▁sugan	-2734
▁zeremi	-2735
▁kɔrɔtalen	-2736
▁fangatigiw	-2737
▁ik	-2738
tile	-2739
ɲana	-2740
gɛnin	-2741
▁kaga	-2742
▁fɔlɔw	-2743
▁yuhana	-2744
▁kalanso	-2745
▁taayɔrɔ	-2746
▁wusulan	-2747
gba	-2748
hoo	-2749
▁nn	-2750
kiki	-2751
siga	-2752
▁all	-2753
▁bus	-2754
▁gar	-2755
▁ken	-2756
▁dece	-2757
▁long	-2758
▁fanin	-2759
▁gbɛrɛ	-2760
▁karoo	-2761
▁saved	-2762
▁nimisa	-2763
▁misiran	-2764
▁kɛmɛkulu	-2765
ld	-2766
▁gɛ	-2767
kogo	-2768
▁sar	-2769
▁....	-2770
▁fast	-2771
▁fata	-2772
▁danga	-2773
▁dunya	-2774
▁girin	-2775
▁kpuro	-2776
▁bisaba	-2777
▁finman	-2778
▁hanbun	-2779
▁yɛrɛboɲa	-2780
enu	-2781
▁nɑ	-2782
▁nou	-2783
denya	-2784
▁bare	-2785
▁inbe	-2786
▁bɛgɛn	-2787
▁kɛrɛn	-2788
kuntigi	-2789
▁ngalon	-2790
▁murukuw	-2791
▁kerecɛnw	-2792
▁sinɔgɔra	-2793
45.	-2794
▁kou	-2795
ɔrɔgɔ	-2796
▁yaga	-2797
▁kolɔn	-2798
▁sijan	-2799
▁fitinɛ	-2800
▁layɔrɔ	-2801
▁nilifɛn	-2802
té	-2803
ali	-2804
bɛɛ	-2805
▁kis	-2806
▁ɲimi	-2807
▁18-45.	-2808
▁kɔrɔla	-2809
▁kɛwali	-2810
▁kɛwalew	-2811
▁kunmabɔsara	-2812
13	-2813
rea	-2814
▁ow	-2815
▁yɔ	-2816
hima	-2817
▁agak	-2818
kunbɛn	-2819
▁makin	-2820
▁month	-2821
jɛ	-2822
sh	-2823
lor	-2824
rou	-2825
ugo	-2826
▁ag	-2827
sɔli	-2828
▁kag	-2829
▁kɛn	-2830
▁lalɔ	-2831
▁lani	-2832
▁toke	-2833
▁wana	-2834
▁butun	-2835
▁kɛlɛden	-2836
▁miirila	-2837
▁gwɛlɛyaw	-2838
:15	-2839
src	-2840
▁55	-2841
▁um	-2842
yala	-2843
▁8:2	-2844
▁kle	-2845
▁sta	-2846
▁ɛsi	-2847
▁cèma	-2848
▁mase	-2849
▁sabe	-2850
▁kibaa	-2851
diyanin	-2852
▁danfɛn	-2853
▁lajɛnw	-2854
▁jaabiliw	-2855
▁bololafɛnw	-2856
23	-2857
ssé	-2858
▁od	-2859
likɛ	-2860
tɛri	-2861
▁bawo	-2862
▁dògò	-2863
▁show	-2864
▁togo	-2865
▁nyɔgɔn	-2866
▁bamanan	-2867
▁makinwa	-2868
▁nafoloba	-2869
▁terisɔbɛw	-2870
▁sarakabɔyɔrɔ	-2871
▁mɔgɔtilenninw	-2872
:9	-2873
pic	-2874
tri	-2875
gana	-2876
sɛgɛ	-2877
wisi	-2878
runan	-2879
▁maka	-2880
garamu	-2881
▁kinin	-2882
▁cɛfari	-2883
day	-2884
per	-2885
▁195	-2886
▁fuu	-2887
▁kɛɛ	-2888
▁kilo	-2889
▁maro	-2890
▁batoso	-2891
▁badenma	-2892
▁denmisèn	-2893
1.	-2894
ink	-2895
▁52	-2896
▁doni	-2897
▁kènè	-2898
▁zuru	-2899
▁woron	-2900
▁tintin	-2901
▁fiɲɛntɔ	-2902
▁kɔnɔntɔn	-2903
▁tilenbaliya	-2904
11	-2905
ìn	-2906
iri	-2907
bura	-2908
▁198	-2909
▁fag	-2910
ɔgɔmɛ	-2911
▁koun	-2912
▁kèlè	-2913
▁lata	-2914
▁yɛgɛ	-2915
▁sarah	-2916
▁nagasi	-2917
▁zurudɛn	-2918
▁fariziɲɛw	-2919
ɲɔgɔnkanuya	-2920
▁banabagatɔw	-2921
fèn	-2922
gue	-2923
ɔri	-2924
mari	-2925
▁foo	-2926
▁hin	-2927
▁2004	-2928
▁moon	-2929
ɔrɔnya	-2930
▁dɔgɔn	-2931
▁lasigi	-2932
▁jumalon	-2933
▁sagaden	-2934
▁tagaman	-2935
ugugwɛdafɛ	-2936
▁faranfasi	-2937
▁miligaramu	-2938
▁fé	-2939
▁2013	-2940
▁mata	-2941
▁nian	-2942
▁tchè	-2943
▁maria	-2944
▁yinni	-2945
▁gban	-2946
▁lang	-2947
krista	-2948
▁talon	-2949
▁topic	-2950
▁misira	-2951
▁tubabu	-2952
▁lafiɲɛlon	-2953
39	-2954
tio	-2955
yee	-2956
▁bas	-2957
▁kpɑ	-2958
▁koni	-2959
▁naxa	-2960
▁asiri	-2961
▁diina	-2962
▁fòlen	-2963
▁nankɔ	-2964
▁latigè	-2965
▁nyuman	-2966
▁daganin	-2967
▁setigiw	-2968
▁sɛgɛsɛgɛ	-2969
isirayɛlidenw	-2970
tini	-2971
▁than	-2972
▁talen	-2973
▁minanw	-2974
▁nowɛli	-2975
▁baaradenw	-2976
isi	-2977
▁4-	-2978
muna	-2979
yusi	-2980
zuwe	-2981
▁noo	-2982
kinin	-2983
▁amun	-2984
▁bobo	-2985
▁buka	-2986
▁13:11	-2987
▁efara	-2988
▁yalor	-2989
▁fransi	-2990
▁masakè	-2991
▁yamaan	-2992
▁fagakun	-2993
▁teliman	-2994
il	-2995
ful	-2996
row	-2997
baba	-2998
gban	-2999
yôrô	-3000
▁bri	-3001
▁kas	-3002
▁lko	-3003
▁tòw	-3004
▁yar	-3005
▁aloo	-3006
▁bori	-3007
▁tɛma	-3008
▁jakuma	-3009
▁months	-3010
▁saamori	-3011
▁senumanw	-3012
▁wasabali	-3013
▁bamanankan	-3014
▁las	-3015
▁lat	-3016
▁kôrô	-3017
▁finita	-3018
▁lkoinw	-3019
▁jɔnmuso	-3020
▁yòrònin	-3021
▁tɛmɛnnen	-3022
▁jɛnɲɔgɔnya	-3023
21	-3024
▁q	-3025
lly	-3026
ɔgwɛ	-3027
▁ada	-3028
▁dɔɔ	-3029
▁kayi	-3030
▁koyi	-3031
▁mere	-3032
▁sela	-3033
▁kɔnin	-3034
▁sabia	-3035
▁dɔɔnin	-3036
▁gèlèya	-3037
▁kisira	-3038
▁mowabu	-3039
▁tigɛra	-3040
▁sagajigi	-3041
▁kumaɲɔgɔnya	-3042
▁kɛlɛkɛminanw	-3043
faa	-3044
▁53	-3045
bɛli	-3046
▁tru	-3047
▁tùn	-3048
▁yon	-3049
▁dɔrɔ	-3050
▁para	-3051
▁sèbè	-3052
▁kosèbè	-3053
▁longer	-3054
lô	-3055
▁•	-3056
bie	-3057
guè	-3058
mbu	-3059
▁ami	-3060
▁dia	-3061
▁eza	-3062
▁gen	-3063
kelen	-3064
▁lamɔ	-3065
▁edɔmu	-3066
▁dajuru	-3067
▁djamana	-3068
▁kanulen	-3069
▁teliyara	-3070
▁ɲènamaya	-3071
rum	-3072
▁pè	-3073
tekɔ	-3074
▁few	-3075
▁que	-3076
▁anin	-3077
▁dala	-3078
▁labɔ	-3079
▁labila	-3080
▁sɔgɔmadafɛ	-3081
am	-3082
▁“	-3083
▁bòn	-3084
▁edi	-3085
tɔɔrɔ	-3086
▁gbɔn	-3087
▁kaun	-3088
▁kila	-3089
zuwifu	-3090
▁biblu	-3091
▁kɛyɔrɔ	-3092
et	-3093
rè	-3094
/50	-3095
̀rɔ	-3096
▁<3	-3097
/50.	-3098
▁cɛ̀	-3099
▁mat	-3100
diyan	-3101
▁batɛ	-3102
▁bɔgɔ	-3103
▁hèrè	-3104
▁labi	-3105
▁odds	-3106
▁beyen	-3107
▁50/50.	-3108
▁dating	-3109
▁saninw	-3110
▁kowagarazu	-3111
▁gn	-3112
▁sù	-3113
kèla	-3114
▁bwe	-3115
▁gbe	-3116
▁1959	-3117
▁bɔni	-3118
▁jogo	-3119
▁sala	-3120
▁vɛri	-3121
ugulan	-3122
▁leele	-3123
▁weeks	-3124
▁muɲuli	-3125
▁wagatiw	-3126
▁cɛkɔrɔba	-3127
ria	-3128
sia	-3129
ung	-3130
hara	-3131
inya	-3132
▁bai	-3133
▁anti	-3134
▁jaaw	-3135
▁meri	-3136
▁pari	-3137
▁tcha	-3138
▁ɲɛyi	-3139
yɛlɛma	-3140
▁vɛrise	-3141
▁kibaari	-3142
▁duurunan	-3143
▁telefɔni	-3144
▁denmisènw	-3145
▁mɔgɔfagala	-3146
14	-3147
_.	-3148
kh	-3149
ua	-3150
daw	-3151
ɔna	-3152
▁lì	-3153
▁sw	-3154
body	-3155
gwan	-3156
kite	-3157
▁dum	-3158
▁bɛrɛ	-3159
▁fair	-3160
▁jala	-3161
▁jang	-3162
▁jera	-3163
▁kofɔ	-3164
▁koro	-3165
▁tigè	-3166
▁tôgô	-3167
▁bwisi	-3168
▁zonasi	-3169
▁lonanya	-3170
:37	-3171
bii	-3172
kɛn	-3173
▁58	-3174
daga	-3175
▁._.	-3176
▁kod	-3177
janin	-3178
▁kizu	-3179
▁sɔsɔ	-3180
▁sebari	-3181
▁tericɛ	-3182
▁tuguni	-3183
▁farafin	-3184
▁nyininka	-3185
▁furuɲɔgɔn	-3186
aan	-3187
yon	-3188
▁57	-3189
▁tà	-3190
▁cor	-3191
▁gna	-3192
▁kor	-3193
▁ngɔ	-3194
toolu	-3195
▁hate	-3196
▁janfa	-3197
▁maraw	-3198
▁dayɛlɛ	-3199
▁bangebagaw	-3200
'.	-3201
xo	-3202
eli	-3203
low	-3204
tes	-3205
ìla	-3206
ɔrɛ	-3207
▁wù	-3208
ssed	-3209
sɛli	-3210
▁kli	-3211
▁lai	-3212
▁sti	-3213
▁best	-3214
▁kablo	-3215
▁tando	-3216
▁fanŋga	-3217
▁mɔgɔbalu	-3218
▁ɲagamina	-3219
▁fix	-3220
▁hii	-3221
▁fòra	-3222
▁gnan	-3223
▁logo	-3224
▁natɔ	-3225
▁wale	-3226
▁yoli	-3227
▁aloof	-3228
kitemba	-3229
▁israèl	-3230
▁kolati	-3231
▁lafiya	-3232
▁miseli	-3233
▁mɔɔilu	-3234
▁kotoolu	-3235
▁samuyɛli	-3236
▁sekitemba	-3237
ŋɔ	-3238
:24	-3239
:25	-3240
▁59	-3241
daan	-3242
hone	-3243
▁nye	-3244
▁look	-3245
diyara	-3246
▁bolow	-3247
▁bɛɛri	-3248
▁lafili	-3249
▁senuma	-3250
▁juguman	-3251
▁jurumuw	-3252
▁54	-3253
▁yɑ	-3254
dala	-3255
kunu	-3256
▁bua	-3257
▁sam	-3258
▁fiye	-3259
▁fɔxɔ	-3260
▁sɔng	-3261
nongon	-3262
▁gofɛr	-3263
▁kuman	-3264
▁sagaw	-3265
▁dugumɔgɔw	-3266
▁kongosogo	-3267
22	-3268
5:	-3269
din	-3270
rna	-3271
▁nè	-3272
raid	-3273
▁afi	-3274
▁kpĩ	-3275
▁kui	-3276
▁low	-3277
▁famo	-3278
▁hero	-3279
▁tɔɔn	-3280
▁fanta	-3281
inabasi	-3282
▁afraid	-3283
▁dennin	-3284
▁hadama	-3285
▁sabemos	-3286
▁dusukunna	-3287
▁barikamanw	-3288
▁69	-3289
▁ɛn	-3290
▁chi	-3291
▁pre	-3292
▁diko	-3293
▁gwen	-3294
▁hehe	-3295
▁karo	-3296
▁kɛta	-3297
▁titi	-3298
bariya	-3299
▁6.000	-3300
▁benna	-3301
▁swali	-3302
biesage	-3303
▁kasadi	-3304
▁single	-3305
▁kabirin	-3306
▁zonatan	-3307
▁kantigiya	-3308
▁ɲagaminin	-3309
▁mboobiesage	-3310
lie	-3311
ushi	-3312
▁cap	-3313
▁one	-3314
▁shi	-3315
▁domu	-3316
▁kena	-3317
▁mɔni	-3318
▁ruti	-3319
▁tran	-3320
hɔrɔnya	-3321
ɲasiran	-3322
▁jamanaw	-3323
▁labanna	-3324
▁kizuushi	-3325
▁ɲɛyirali	-3326
ŋɛ	-3327
kab	-3328
nge	-3329
taa	-3330
tɛɛ	-3331
▁dr	-3332
bowa	-3333
loni	-3334
unan	-3335
womi	-3336
▁jon	-3337
kèlaw	-3338
tiona	-3339
▁jusu	-3340
▁lage	-3341
foroko	-3342
gɛninw	-3343
▁fɛɛnw	-3344
▁video	-3345
▁eburuw	-3346
▁teriya	-3347
▁kabakoma	-3348
▁tununinw	-3349
▁latigɛnin	-3350
dugugwɛdafɛ	-3351
▁up	-3352
giri	-3353
heli	-3354
yɔti	-3355
▁700	-3356
▁mai	-3357
▁xan	-3358
▁bòra	-3359
▁liban	-3360
▁nyana	-3361
▁edited	-3362
▁kɔrɔfɔ	-3363
▁ezipitikaw	-3364
?'	-3365
pɛ	-3366
uh	-3367
masu	-3368
pama	-3369
usso	-3370
▁!!!	-3371
▁bàa	-3372
▁eye	-3373
▁get	-3374
gramu	-3375
ininw	-3376
kurun	-3377
▁bann	-3378
▁draw	-3379
▁jiba	-3380
▁mɔru	-3381
▁sako	-3382
▁soɲa	-3383
mannin	-3384
▁dungu	-3385
▁ibura	-3386
▁jɔncɛ	-3387
▁mɔ̀gɔ	-3388
▁daraka	-3389
▁zozuwe	-3390
▁ezekiel	-3391
▁tileben	-3392
▁fantanya	-3393
▁halakira	-3394
10	-3395
gb	-3396
▁ù	-3397
jii	-3398
▁tv	-3399
gwen	-3400
tika	-3401
tɛli	-3402
▁top	-3403
▁gèrè	-3404
▁sawa	-3405
dafanin	-3406
▁nafama	-3407
▁welela	-3408
▁gbasaya	-3409
▁ladiliw	-3410
▁mansaya	-3411
denyabolo	-3412
▁porogramu	-3413
!›	-3414
εε	-3415
:33	-3416
▁eka	-3417
▁esu	-3418
▁lal	-3419
▁nos	-3420
▁zhe	-3421
xanŋo	-3422
▁mute	-3423
▁tutu	-3424
▁fiyewu	-3425
▁jamaba	-3426
▁mannin	-3427
▁sinayi	-3428
▁sɔtɔma	-3429
▁ŋaniya	-3430
adamadenw	-3431
▁gwengwen	-3432
▁sigasiga	-3433
sòn	-3434
▁2=	-3435
▁uf	-3436
▁azi	-3437
▁coo	-3438
▁djo	-3439
▁kee	-3440
▁lar	-3441
▁pɔr	-3442
▁kaɲi	-3443
▁2005:	-3444
▁umpama	-3445
▁nalonma	-3446
▁kibaruya	-3447
▁farafinna	-3448
▁galontigɛ	-3449
▁fadenyabolo	-3450
by	-3451
ŋa	-3452
koe	-3453
lee	-3454
▁fà	-3455
▁ligi	-3456
▁time	-3457
misɛnw	-3458
▁comme	-3459
▁daman	-3460
▁egili	-3461
▁thank	-3462
▁tanuli	-3463
▁ɲɔgɔmɛ	-3464
▁birancɛ	-3465
▁minnifɛn	-3466
▁sinikɛnɛ	-3467
▁alaɲasiran	-3468
rr	-3469
doo	-3470
soo	-3471
ɛni	-3472
▁kh	-3473
▁má	-3474
line	-3475
risi	-3476
▁lɛɛ	-3477
laban	-3478
▁dili	-3479
▁sann	-3480
▁yeuh	-3481
▁ɲada	-3482
▁diyan	-3483
▁dòròn	-3484
▁fixes	-3485
▁maman	-3486
▁batoli	-3487
▁duguba	-3488
▁filipi	-3489
▁yafara	-3490
▁yanfan	-3491
▁faamuya	-3492
▁masacɛw	-3493
▁dusukunw	-3494
▁folofolo	-3495
▁adamadenya	-3496
fò	-3497
pre	-3498
▁ay	-3499
▁kê	-3500
▁103	-3501
▁ase	-3502
▁2014	-3503
▁boro	-3504
kisili	-3505
tekɔti	-3506
ziyasi	-3507
▁alako	-3508
▁findi	-3509
▁jigitɔ	-3510
▁kɔkɛnɛ	-3511
▁kɔɲɔya	-3512
▁lahara	-3513
▁dugunin	-3514
▁lasigiden	-3515
▁woronwula	-3516
▁barikatanw	-3517
▁nazarɛtika	-3518
▁karamɔgɔdenw	-3519
ary	-3520
dea	-3521
gen	-3522
▁lô	-3523
dali	-3524
sɔtɔ	-3525
tɛrɛ	-3526
▁ena	-3527
▁kie	-3528
▁nìn	-3529
ssage	-3530
▁bian	-3531
▁jɛgɛ	-3532
▁yuun	-3533
mankan	-3534
▁chine	-3535
▁nataw	-3536
▁betɛli	-3537
▁dɛsɛra	-3538
▁yaraga	-3539
kariyɔti	-3540
▁amasɔtɔ	-3541
▁jiginni	-3542
pantekɔti	-3543
▁kasodenw	-3544
▁israɛldenw	-3545
▁「	-3546
:30	-3547
▁et	-3548
hɛrɛ	-3549
▁18;	-3550
▁dao	-3551
▁yeh	-3552
▁bile	-3553
▁gɔɔn	-3554
fitini	-3555
kɔrɔta	-3556
kɛyɔrɔ	-3557
▁banan	-3558
▁boleh	-3559
▁inter	-3560
▁lɔnni	-3561
▁tɔɔrɔw	-3562
▁fɛntigi	-3563
▁dubadenw	-3564
▁farisiènw	-3565
▁firiyamuso	-3566
sie	-3567
ɛli	-3568
fili	-3569
muru	-3570
sito	-3571
▁klo	-3572
lenya	-3573
▁bada	-3574
▁lasɔ	-3575
▁sika	-3576
▁xili	-3577
bowamu	-3578
▁kwlaa	-3579
▁kɔnɔw	-3580
▁lenen	-3581
▁yafali	-3582
robowamu	-3583
▁dogonin	-3584
▁labɛnna	-3585
▁message	-3586
▁tumajan	-3587
lɔnbariya	-3588
▁jalakiyɔrɔ	-3589
24	-3590
30	-3591
rk	-3592
sè	-3593
:44	-3594
ked	-3595
▁65	-3596
djan	-3597
▁ikɔ	-3598
▁kal	-3599
▁lay	-3600
▁mio	-3601
▁aman	-3602
▁baka	-3603
▁face	-3604
▁banba	-3605
▁cɛnna	-3606
▁erɔdi	-3607
▁tolon	-3608
▁nobody	-3609
▁saheli	-3610
▁sarakaw	-3611
▁sirikaw	-3612
▁hamijuguw	-3613
▁makoyafɛn	-3614
▁isikariyɔti	-3615
▁siralɔnbariya	-3616
▁hakilitigiyako	-3617
men	-3618
ssa	-3619
xun	-3620
ŋgo	-3621
▁cin	-3622
▁kai	-3623
▁lin	-3624
▁blan	-3625
▁dari	-3626
▁fɔli	-3627
▁moto	-3628
▁nugu	-3629
▁ɲuma	-3630
▁kelly	-3631
▁ninja	-3632
▁think	-3633
▁miriya	-3634
▁ɲagamini	-3635
▁dògòmannin	-3636
▁sigiɲɔgɔnw	-3637
▁jen	-3638
▁lak	-3639
rinin	-3640
zamɛn	-3641
▁boyd	-3642
▁munu	-3643
▁sume	-3644
▁wulu	-3645
▁yili	-3646
ɲasigi	-3647
▁alive	-3648
▁bukak	-3649
▁bulon	-3650
▁sɔnni	-3651
▁sɛgɛn	-3652
▁jijara	-3653
▁diyanye	-3654
▁sugandi	-3655
▁gofɛrɛnɛ	-3656
▁kɛnɛkɛnɛ	-3657
▁kanbelenw	-3658
▁sɔlidasiw	-3659
▁siniɲasigi	-3660
15	-3661
18	-3662
fô	-3663
:12	-3664
ɛnu	-3665
▁66	-3666
▁ky	-3667
▁va	-3668
▁kàra	-3669
▁lalo	-3670
▁papa	-3671
▁kunko	-3672
▁kunti	-3673
▁tugur	-3674
▁yɛrɛw	-3675
▁nalomanya	-3676
▁ɲɔgɔnkunbɛn	-3677
;)	-3678
gt	-3679
iw	-3680
mɑ	-3681
dun	-3682
fun	-3683
ser	-3684
tta	-3685
kisɛ	-3686
yɔsi	-3687
▁dal	-3688
▁hou	-3689
▁mom	-3690
inama	-3691
▁alon	-3692
▁fare	-3693
▁gnin	-3694
▁mugu	-3695
▁falen	-3696
▁selen	-3697
▁goyara	-3698
▁kɔrɔkɛ	-3699
▁sigama	-3700
▁ɲɛsinna	-3701
▁kabakuruw	-3702
▁ih	-3703
foyi	-3704
reli	-3705
▁ata	-3706
▁aya	-3707
▁eni	-3708
▁fɛɛ	-3709
▁iya	-3710
▁join	-3711
▁mago	-3712
▁tani	-3713
▁tesa	-3714
▁yiiko	-3715
▁baraka	-3716
▁konnon	-3717
▁kɔrɔgɔ	-3718
▁wariko	-3719
▁ameriki	-3720
▁barokun	-3721
▁gnongon	-3722
▁sanbɛrɛ	-3723
▁sɛnɛkɛlaw	-3724
hou	-3725
▁8-	-3726
diri	-3727
lɔgɔ	-3728
wiin	-3729
▁kit	-3730
▁sea	-3731
▁bulu	-3732
▁dila	-3733
▁gila	-3734
▁sana	-3735
▁fitini	-3736
▁sanngɛ	-3737
▁sɔsɔli	-3738
▁tagatɔ	-3739
▁yèlèma	-3740
▁zowabu	-3741
▁kɔnɔfɛnw	-3742
▁lafiɲɛna	-3743
▁murutira	-3744
▁efarayimu	-3745
▁ɲininkali	-3746
▁kolatigɛninw	-3747
▁ñ	-3748
der	-3749
gga	-3750
see	-3751
▁mù	-3752
ɔrɔm	-3753
▁aaj	-3754
▁not	-3755
▁yuu	-3756
meyɔn	-3757
minnu	-3758
▁jaan	-3759
▁jɔrɔ	-3760
▁kɛlen	-3761
▁niman	-3762
▁nòòrò	-3763
bɛɛtigi	-3764
▁dabari	-3765
▁flanan	-3766
▁nawomi	-3767
▁kojuguw	-3768
▁balimakè	-3769
▁dafaninw	-3770
▁ɲanamanw	-3771
▁isirayɛliden	-3772
25	-3773
ft	-3774
dji	-3775
olo	-3776
tɔɔ	-3777
▁!!	-3778
▁bâ	-3779
nata	-3780
▁24"	-3781
fɛɛrɛ	-3782
tanga	-3783
▁djan	-3784
▁file	-3785
▁kisɛ	-3786
▁nini	-3787
▁rafi	-3788
▁uflɛ	-3789
▁want	-3790
▁konon	-3791
▁punta	-3792
▁jerusa	-3793
▁lɔnnin	-3794
▁tinxin	-3795
▁wiwiin	-3796
▁kitabuw	-3797
èrèn	-3798
▁sim	-3799
▁afri	-3800
▁nako	-3801
▁nala	-3802
▁sɔɔn	-3803
▁tili	-3804
dumuni	-3805
kabini	-3806
▁banta	-3807
▁benin	-3808
▁dɛmɛn	-3809
▁kɔndɔ	-3810
gilikan	-3811
▁bilara	-3812
▁ninnge	-3813
▁sranan	-3814
▁yalaka	-3815
▁latigèra	-3816
▁angilikan	-3817
ŋgɛ	-3818
▁dé	-3819
▁tù	-3820
deya	-3821
rien	-3822
yabi	-3823
▁nen	-3824
▁test	-3825
▁bwese	-3826
▁danni	-3827
▁mɛnilu	-3828
▁dinkira	-3829
▁kunkɔrɔta	-3830
▁barinabasi	-3831
it	-3832
joo	-3833
ɲɔn	-3834
liki	-3835
▁bal	-3836
▁gak	-3837
gwɛrɛ	-3838
tongo	-3839
▁basi	-3840
▁kiss	-3841
▁kunn	-3842
▁luti	-3843
▁wali	-3844
▁wuri	-3845
▁birth	-3846
▁gundo	-3847
▁minɛn	-3848
olution	-3849
▁dondaw	-3850
▁ladege	-3851
▁videwo	-3852
▁yɛlɛtɔ	-3853
▁kisibaa	-3854
▁sangaso	-3855
▁kɔrɔbɔli	-3856
▁kabaforoko	-3857
▁hakilitigiw	-3858
▁sranantongo	-3859
▁nisɔndiyanin	-3860
!'	-3861
)?	-3862
res	-3863
siyɔn	-3864
▁deci	-3865
▁gala	-3866
▁kako	-3867
▁mɔnɛ	-3868
piyɛri	-3869
▁abisa	-3870
▁dimin	-3871
▁salon	-3872
▁sigui	-3873
▁yiriw	-3874
tigɛkan	-3875
▁kɛnɛma	-3876
▁labato	-3877
▁sodɔmu	-3878
▁fariman	-3879
▁telefon	-3880
▁yɛlɛmani	-3881
▁alemankan	-3882
▁evolution	-3883
▁pɔrtigɛkan	-3884
ed	-3885
ur	-3886
àa	-3887
ila	-3888
ken	-3889
▁mɑ	-3890
▁ok	-3891
▁xd	-3892
▁xɔ	-3893
▁ate	-3894
▁aur	-3895
▁cèw	-3896
▁hen	-3897
babaw	-3898
▁baby	-3899
▁bɔbɔ	-3900
▁datu	-3901
▁fama	-3902
▁hana	-3903
▁lɔli	-3904
▁sali	-3905
▁senw	-3906
lamanw	-3907
likɛla	-3908
▁kɔ̀rɔ	-3909
▁youtu	-3910
▁faamuna	-3911
▁tesaloni	-3912
▁karamògòw	-3913
,,	-3914
hs	-3915
̃ɔ	-3916
▁ɓ	-3917
-000	-3918
aali	-3919
nɔgɔ	-3920
pero	-3921
zira	-3922
▁aku	-3923
▁oli	-3924
▁roo	-3925
fɛnnɛ	-3926
▁idea	-3927
▁list	-3928
▁tɔrɔ	-3929
kɔrɔnin	-3930
▁batoko	-3931
▁kɔrɔtɔ	-3932
▁tchogo	-3933
▁cɛɲuman	-3934
▁fariyara	-3935
▁sagonata	-3936
▁samarikaw	-3937
▁tintinnin	-3938
▁laminikogo	-3939
▁ninsɔndiya	-3940
ow	-3941
ɛr	-3942
:28	-3943
golu	-3944
▁10"	-3945
▁dak	-3946
▁kum	-3947
▁let	-3948
▁nna	-3949
▁pla	-3950
▁gana	-3951
▁laxi	-3952
▁sili	-3953
▁tchi	-3954
▁sanda	-3955
▁sɔbɛw	-3956
denninw	-3957
▁jaatika	-3958
▁birthday	-3959
▁dɔnkiliw	-3960
▁ɲamɔgɔya	-3961
um	-3962
:22	-3963
tee	-3964
▁ea	-3965
▁pɔ	-3966
gnan	-3967
siya	-3968
stan	-3969
▁mɔg	-3970
▁ona	-3971
▁paa	-3972
▁kene	-3973
▁kɛtɔ	-3974
▁rich	-3975
▁tomo	-3976
▁yɛtɛ	-3977
▁zira	-3978
▁akala	-3979
▁kanun	-3980
▁kunba	-3981
▁boɲana	-3982
▁ikomin	-3983
▁lasɔmi	-3984
▁marifa	-3985
zirayɛli	-3986
▁lakɔlifa	-3987
dé	-3988
ud	-3989
awu	-3990
▁ap	-3991
▁yàn	-3992
kɔrɔw	-3993
▁bɛti	-3994
▁tɔnu	-3995
▁yiru	-3996
dennin	-3997
▁dunun	-3998
▁kooba	-3999
▁kungo	-4000
▁london	-4001
▁sendon	-4002
▁isireli	-4003
▁lalofuɛ	-4004
▁sigɛnna	-4005
▁antiyɔsi	-4006
▁wolonfila	-4007
":	-4008
"?	-4009
66	-4010
:'	-4011
mii	-4012
ders	-4013
kiba	-4014
tist	-4015
▁18"	-4016
▁ahi	-4017
▁por	-4018
▁ser	-4019
▁duzu	-4020
▁kiye	-4021
▁wùlu	-4022
besaba	-4023
▁gotta	-4024
▁kanne	-4025
▁kimasu	-4026
▁fɔɲɔbana	-4027
▁bololafɛn	-4028
▁filipikaw	-4029
:38	-4030
▁yó	-4031
dɛli	-4032
manu	-4033
ngue	-4034
tand	-4035
▁24-	-4036
▁cre	-4037
▁pya	-4038
▁ste	-4039
▁1939	-4040
▁batu	-4041
▁muxu	-4042
▁sain	-4043
▁unto	-4044
yakuba	-4045
▁ladki	-4046
▁barima	-4047
▁unders	-4048
▁cɛfariw	-4049
▁kobabaw	-4050
▁kɛwaati	-4051
▁nafaman	-4052
▁mamadenw	-4053
▁sɔlidasi	-4054
▁ɲagaliba	-4055
▁izirayɛli	-4056
▁saniyanin	-4057
__	-4058
cs	-4059
des	-4060
sso	-4061
▁1,	-4062
▁6-	-4063
▁by	-4064
▁bag	-4065
▁bat	-4066
▁dɛɛ	-4067
ginan	-4068
▁atun	-4069
▁kata	-4070
▁lest	-4071
▁nòfè	-4072
▁wehe	-4073
tional	-4074
▁ainun	-4075
▁kolow	-4076
▁miira	-4077
gwɛlɛya	-4078
▁jatira	-4079
▁litigi	-4080
▁saying	-4081
▁bɛnzamɛn	-4082
▁dɔgɔmuso	-4083
▁kuluyɔrɔ	-4084
▁tɔɲɔgɔnw	-4085
▁badenmailu	-4086
uw	-4087
▁›	-4088
▁→	-4089
daa	-4090
duw	-4091
▁us	-4092
▁wè	-4093
dise	-4094
mbro	-4095
ɲini	-4096
▁199	-4097
▁50.	-4098
▁bis	-4099
▁eko	-4100
▁jɔɔ	-4101
▁lòn	-4102
▁sɔm	-4103
feere	-4104
lanin	-4105
▁buku	-4106
▁diye	-4107
▁soba	-4108
▁turu	-4109
▁daari	-4110
▁lasun	-4111
▁ngɔ̀n	-4112
▁bamako	-4113
▁jɔrɔkɔ	-4114
▁laxira	-4115
▁girɛkiw	-4116
▁kunsigi	-4117
▁misiden	-4118
fariziɲɛw	-4119
▁understand	-4120
▁xɛ	-4121
:49.	-4122
kɔra	-4123
mber	-4124
waga	-4125
ɲuma	-4126
▁esa	-4127
▁eti	-4128
▁sis	-4129
▁suw	-4130
▁tij	-4131
▁uni	-4132
▁jabi	-4133
▁kuwo	-4134
▁neni	-4135
▁sada	-4136
▁tɛgɛ	-4137
▁2:49.	-4138
▁kouma	-4139
▁kônôn	-4140
▁masih	-4141
▁dɔgɔma	-4142
▁kookoo	-4143
▁labɛnw	-4144
▁pilati	-4145
▁tilara	-4146
▁ɲɔgɔnye	-4147
▁batisera	-4148
▁dafabaliw	-4149
▁kɔ̀rɔmuso	-4150
▁sebagayabɛɛtigi	-4151
▁|	-4152
▁1"	-4153
▁ly	-4154
▁xe	-4155
dina	-4156
lubi	-4157
mogɔ	-4158
sisi	-4159
tung	-4160
zawu	-4161
▁fai	-4162
▁gèn	-4163
▁haw	-4164
▁hon	-4165
▁keh	-4166
▁kɔ̃	-4167
▁les	-4168
:1313	-4169
limaw	-4170
▁came	-4171
▁hoti	-4172
▁jèya	-4173
▁kadi	-4174
▁kèla	-4175
▁mati	-4176
▁tinɛ	-4177
gwɛlɛn	-4178
▁bɛmaw	-4179
▁eligi	-4180
▁galen	-4181
▁nyini	-4182
▁famous	-4183
▁pasito	-4184
▁sewara	-4185
▁soɲali	-4186
▁yulubi	-4187
▁yɔrɔla	-4188
▁yɛlema	-4189
▁ɛrɛzɛn	-4190
▁deliliw	-4191
▁jɛnitaw	-4192
▁wotorow	-4193
▁dònbaliw	-4194
▁kàramogɔ	-4195
tɔnkuntigi	-4196
▁gofɛrɛnɛman	-4197
oz	-4198
van	-4199
èma	-4200
̀rɛ	-4201
zɔbu	-4202
▁196	-4203
▁afa	-4204
▁ahh	-4205
▁kap	-4206
▁run	-4207
▁usa	-4208
ltool	-4209
tions	-4210
▁2020	-4211
▁bɔnɔ	-4212
▁dula	-4213
▁fosi	-4214
▁fuck	-4215
▁kodo	-4216
▁lawa	-4217
▁mùso	-4218
▁ɲrun	-4219
duwani	-4220
yusufu	-4221
▁14:17	-4222
▁mafee	-4223
▁minkè	-4224
▁wunɛn	-4225
zuwifuw	-4226
▁dunuya	-4227
▁sayang	-4228
▁tabali	-4229
▁abidjan	-4230
▁kalanna	-4231
▁decembro	-4232
▁tooltool	-4233
▁kàlandenw	-4234
tè	-4235
enw	-4236
got	-4237
sar	-4238
sow	-4239
▁8"	-4240
▁ue	-4241
▁fil	-4242
▁liɛ	-4243
▁mad	-4244
▁nyi	-4245
▁sec	-4246
▁aate	-4247
▁abro	-4248
▁bayo	-4249
▁kado	-4250
▁nyin	-4251
▁cikgu	-4252
▁denkɛ	-4253
▁elize	-4254
▁kɛtaw	-4255
▁esumɔɔ	-4256
▁sumana	-4257
▁sɔ̃ɔsi	-4258
▁sɔ̃ɔwa	-4259
▁girinya	-4260
▁senumaw	-4261
▁dumunifèn	-4262
▁kojugukɛlaw	-4263
▁zeruzalɛmukaw	-4264
eh	-4265
:35	-4266
:77	-4267
gal	-4268
ire	-4269
kon	-4270
rom	-4271
ɔgo	-4272
▁mr	-4273
boon	-4274
dose	-4275
minè	-4276
▁100	-4277
▁avi	-4278
▁bye	-4279
▁mɑɑ	-4280
▁ɔri	-4281
:1818	-4282
banku	-4283
ratɛɛ	-4284
ɲɛnin	-4285
▁bang	-4286
▁bhii	-4287
▁fɛrɛ	-4288
▁hari	-4289
▁tagi	-4290
ɲumanw	-4291
▁kakak	-4292
▁korea	-4293
▁mennu	-4294
▁mɛnta	-4295
▁nèèma	-4296
▁sabía	-4297
▁tigiw	-4298
▁kunkun	-4299
▁muɲuna	-4300
kuntigiw	-4301
▁badencɛ	-4302
▁duninya	-4303
▁kumasen	-4304
▁ɛsitɛri	-4305
▁faribanku	-4306
▁maseduwani	-4307
▁dunuɲaratɛɛ	-4308
35	-4309
hɔ	-4310
kes	-4311
vie	-4312
xɔn	-4313
▁62	-4314
▁yĩ	-4315
tiki	-4316
ŋolu	-4317
▁12-	-4318
▁fon	-4319
▁kur	-4320
▁desu	-4321
▁dina	-4322
▁feen	-4323
▁bless	-4324
▁blood	-4325
▁foyih	-4326
▁hòròn	-4327
▁munna	-4328
▁neemo	-4329
▁sinna	-4330
▁sitan	-4331
▁sukun	-4332
▁tamin	-4333
▁tɔgɔw	-4334
▁tɔmbu	-4335
▁abroad	-4336
▁farala	-4337
▁komiji	-4338
▁barikan	-4339
▁cidenya	-4340
▁dafalen	-4341
▁donkili	-4342
▁seeginan	-4343
▁yiridenw	-4344
▁fangabaara	-4345
ai	-4346
▁🙂	-4347
???	-4348
ple	-4349
▁tw	-4350
unny	-4351
▁alé	-4352
▁ang	-4353
▁dil	-4354
▁mor	-4355
▁pri	-4356
kanni	-4357
▁bale	-4358
▁feel	-4359
▁heee	-4360
▁hona	-4361
▁lajè	-4362
▁mele	-4363
▁seri	-4364
▁tari	-4365
kolonw	-4366
ɛrɛzɛn	-4367
▁bibia	-4368
▁blank	-4369
▁farin	-4370
▁inpre	-4371
▁tonɲa	-4372
▁yiran	-4373
▁yɔrɔw	-4374
▁cɛtigɛ	-4375
▁faggot	-4376
▁fɔlɔta	-4377
▁ifunny	-4378
▁israel	-4379
▁marigi	-4380
▁fɛfɛɛrɛ	-4381
▁binaanin	-4382
▁inpressed	-4383
▁litigieuse	-4384
17	-4385
▁ˈ	-4386
gɔn	-4387
ulo	-4388
zɔn	-4389
▁2.	-4390
mugu	-4391
▁but	-4392
▁gir	-4393
▁kau	-4394
▁miw	-4395
▁nah	-4396
▁1987	-4397
▁cɛkɛ	-4398
▁digi	-4399
▁dèmè	-4400
▁kèmè	-4401
▁lika	-4402
▁pang	-4403
▁read	-4404
▁waan	-4405
▁betani	-4406
▁jɛnina	-4407
▁damanin	-4408
▁dɔgɔnin	-4409
▁jijanin	-4410
▁masɔrɔn	-4411
▁ɲɛnabɔla	-4412
▁denmisɛnni	-4413
▁kɔlɔsibaga	-4414
enɛ	-4415
gee	-4416
tiw	-4417
tɛn	-4418
vnw	-4419
▁sɑ	-4420
book	-4421
▁gem	-4422
▁kei	-4423
▁sɔ̄	-4424
siyaw	-4425
ɲògòn	-4426
▁bani	-4427
▁cɛɲa	-4428
▁madu	-4429
▁piin	-4430
hakili	-4431
kofoni	-4432
sariya	-4433
▁gwɛra	-4434
▁konni	-4435
▁libra	-4436
▁bɛgɛnw	-4437
▁kayifu	-4438
▁missin	-4439
▁tiɲɛko	-4440
▁tɛliya	-4441
▁yɛrɛkɛ	-4442
▁fugulan	-4443
▁jurumun	-4444
▁kununko	-4445
▁tɔɔrɔjugu	-4446
▁frankofoni	-4447
##	-4448
,'	-4449
_<	-4450
án	-4451
▁ì	-4452
dia	-4453
era	-4454
rɔn	-4455
siɑ	-4456
boli	-4457
lɔnw	-4458
▁10-	-4459
▁>_<	-4460
▁ade	-4461
▁afe	-4462
▁lag	-4463
▁mea	-4464
▁nne	-4465
▁sou	-4466
▁tle	-4467
sible	-4468
▁kulo	-4469
▁kuna	-4470
▁same	-4471
▁wita	-4472
▁yeni	-4473
▁domun	-4474
▁kakan	-4475
▁manya	-4476
▁nanti	-4477
▁bònsòn	-4478
▁kirisi	-4479
▁kumafu	-4480
kɔrɔsigi	-4481
▁misaali	-4482
▁kanulenw	-4483
▁witamini	-4484
▁kasadiman	-4485
▁ladilikan	-4486
▁sigiyɔrɔw	-4487
▁sigiɲɔgɔn	-4488
▁mɔgɔdafanin	-4489
cm	-4490
ty	-4491
yɑ	-4492
▁😉	-4493
66.	-4494
▁3.	-4495
▁7-	-4496
ffee	-4497
gari	-4498
ngan	-4499
oniw	-4500
yari	-4501
▁190	-4502
▁ita	-4503
▁ndi	-4504
▁ɔɔn	-4505
▁1:20	-4506
▁beso	-4507
▁mera	-4508
▁suba	-4509
▁woyo	-4510
▁1466.	-4511
▁awake	-4512
▁gaman	-4513
▁klist	-4514
▁kunfɛ	-4515
▁nouve	-4516
▁zhezu	-4517
▁adored	-4518
▁denilu	-4519
▁fadenw	-4520
▁feeren	-4521
▁kakdee	-4522
▁lagamɛ	-4523
▁manase	-4524
▁sɔrɔli	-4525
▁tchaman	-4526
▁duvɛnkɛnɛ	-4527
▁kojugukɛla	-4528
▁mɔgɔkɔrɔba	-4529
▁nafolobatigi	-4530
gn	-4531
nd	-4532
:00	-4533
bin	-4534
cia	-4535
jɛn	-4536
rge	-4537
▁zɛ	-4538
deni	-4539
gala	-4540
like	-4541
▁asa	-4542
▁car	-4543
▁dap	-4544
▁nul	-4545
▁tri	-4546
tanya	-4547
▁bird	-4548
▁kabo	-4549
▁mani	-4550
▁nege	-4551
▁nɛni	-4552
▁kabin	-4553
▁keden	-4554
▁konin	-4555
▁lanna	-4556
▁lɛgɛrɛ	-4557
▁tagawa	-4558
▁batofɛnw	-4559
▁belebele	-4560
▁dogoyɔrɔ	-4561
▁election	-4562
▁kirayakuma	-4563
gs	-4564
gbɛ	-4565
̀nɔ	-4566
▁az	-4567
▁bh	-4568
mɔri	-4569
▁dad	-4570
▁ini	-4571
▁kaw	-4572
▁nuŋ	-4573
▁pat	-4574
▁xin	-4575
bramu	-4576
ligan	-4577
▁awas	-4578
▁desi	-4579
▁lɛsɛ	-4580
▁your	-4581
jurumu	-4582
▁batɛmu	-4583
▁untung	-4584
▁2012...	-4585
▁bwisiku	-4586
▁konnigɛ	-4587
▁magwɛrɛ	-4588
▁facebook	-4589
▁jagwɛlɛya	-4590
hɛ	-4591
▁~	-4592
▁ע	-4593
les	-4594
nzɛ	-4595
tɛr	-4596
yew	-4597
ɔro	-4598
▁64	-4599
▁tô	-4600
diot	-4601
lòsi	-4602
rics	-4603
sari	-4604
unuŋ	-4605
▁19"	-4606
▁ans	-4607
▁bow	-4608
▁bre	-4609
▁gat	-4610
▁jer	-4611
▁kpe	-4612
▁2018	-4613
▁dɔɔ̄	-4614
▁ekun	-4615
▁fôlô	-4616
▁mira	-4617
▁mori	-4618
▁siɲa	-4619
▁tùma	-4620
jamana	-4621
▁biisi	-4622
▁idiot	-4623
▁kɔ̀nɔ	-4624
▁ŋunuŋ	-4625
dɔnkili	-4626
▁buruju	-4627
▁gwɛman	-4628
▁jigɛba	-4629
▁kalama	-4630
▁kòlòsi	-4631
▁sinsin	-4632
▁egilisi	-4633
▁kɔnɔgwɛ	-4634
▁nisɔngɔ	-4635
▁djamanan	-4636
▁kɔnɔnako	-4637
▁ezekiyasi	-4638
▁iburahima	-4639
▁mɔgɔtɔɔrɔ	-4640
37	-4641
ɛ̄	-4642
▁:	-4643
:26	-4644
kpa	-4645
sii	-4646
▁3-	-4647
▁rô	-4648
wafa	-4649
yeee	-4650
▁del	-4651
▁hmm	-4652
▁nto	-4653
▁sap	-4654
inɛri	-4655
▁cɛya	-4656
▁kame	-4657
▁pila	-4658
▁sabi	-4659
▁sɑ̃ɑ	-4660
▁tuna	-4661
▁broke	-4662
▁jɛŋgɛ	-4663
▁loonw	-4664
▁munaa	-4665
▁sanfè	-4666
▁silan	-4667
▁gwanna	-4668
▁jarabi	-4669
▁kokura	-4670
▁dafalan	-4671
▁kasoden	-4672
▁miirira	-4673
kalandenw	-4674
▁abisalɔn	-4675
▁december	-4676
▁kɔrɔmuso	-4677
▁makarila	-4678
▁masirinin	-4679
▁nafolofɛnw	-4680
▁kɔlɔsibagaw	-4681
▁mɔgɔdafaninw	-4682
ין	-4683
ẹ́	-4684
ọk	-4685
ema	-4686
mon	-4687
▁5-	-4688
▁yè	-4689
jala	-4690
tɔya	-4691
▁16.	-4692
▁1:6	-4693
▁beh	-4694
▁bei	-4695
▁hiv	-4696
▁mil	-4697
▁nnɔ	-4698
▁otu	-4699
▁tal	-4700
lɛnin	-4701
rasiw	-4702
▁girl	-4703
▁gosi	-4704
▁info	-4705
▁tɔni	-4706
▁yire	-4707
▁1905.	-4708
▁dɛndɛ	-4709
▁olivu	-4710
▁tɛrɛn	-4711
lɛkisan	-4712
▁naforo	-4713
▁safari	-4714
fɛrinama	-4715
▁minnɔgɔ	-4716
▁dalakuma	-4717
▁sadayeee	-4718
▁bangebaga	-4719
lɛkisandiri	-4720
▁tagamasiɲɛ	-4721
▁yɔrɔlakolon	-4722
mn	-4723
gar	-4724
ker	-4725
▁4"	-4726
▁tì	-4727
..."	-4728
cili	-4729
sayu	-4730
zifa	-4731
▁bia	-4732
▁elf	-4733
▁rfi	-4734
▁yau	-4735
▁ɲen	-4736
hanga	-4737
yɔɔrɔ	-4738
▁cuba	-4739
▁fine	-4740
▁jela	-4741
▁jiri	-4742
▁miri	-4743
▁tags	-4744
▁wìla	-4745
mɔɔilu	-4746
sayuli	-4747
tɔburu	-4748
yeelen	-4749
▁jɛnna	-4750
▁koowo	-4751
▁murna	-4752
▁natte	-4753
▁tɔnmɔ	-4754
▁balawu	-4755
▁heburu	-4756
▁kunkan	-4757
▁sekɔra	-4758
▁touman	-4759
▁wazifa	-4760
▁baarala	-4761
▁kèlèbaa	-4762
▁simeyɔn	-4763
▁balimakɛ	-4764
▁dencɛilu	-4765
▁klistfuɛ	-4766
▁tagahanga	-4767
▁gufɛrinama	-4768
▁baarakɛcogo	-4769
▁alɛkisandiri	-4770
lèm	-4771
med	-4772
sti	-4773
wns	-4774
▁rd	-4775
bɔnɛ	-4776
fènw	-4777
yini	-4778
▁hel	-4779
▁hoy	-4780
▁los	-4781
▁עין	-4782
:1111	-4783
dolee	-4784
gawns	-4785
▁chɛɛ	-4786
▁fufa	-4787
▁gaye	-4788
▁koon	-4789
▁liga	-4790
▁teen	-4791
▁tiri	-4792
▁zeri	-4793
▁boonw	-4794
▁donso	-4795
▁ezayi	-4796
▁fanva	-4797
▁kanma	-4798
▁kawan	-4799
▁lolow	-4800
▁môgôw	-4801
▁yɔɔrɔ	-4802
doleeza	-4803
▁bulonɔ	-4804
▁lɛtɛrɛ	-4805
▁mousso	-4806
▁nuŋgba	-4807
▁sisiba	-4808
▁tumana	-4809
▁bigawns	-4810
▁furancɛ	-4811
▁kɔrɔman	-4812
▁torosun	-4813
▁tɔɔrɔkow	-4814
▁yɛlɛtuma	-4815
▁dɔnkilila	-4816
▁condoleeza	-4817
▁dɛsɛbagatɔ	-4818
▁kongosogow	-4819
▁dusukunnakow	-4820
▁sarakalasebaaw	-4821
19	-4822
ns	-4823
xe	-4824
ɡe	-4825
---	-4826
:21	-4827
yoo	-4828
▁là	-4829
dimi	-4830
lama	-4831
look	-4832
sian	-4833
▁aan	-4834
▁ayé	-4835
▁bit	-4836
▁gaa	-4837
▁mei	-4838
▁olo	-4839
▁pee	-4840
▁wla	-4841
▁ɲɔn	-4842
linin	-4843
tahun	-4844
tigui	-4845
▁gere	-4846
▁kèɲè	-4847
▁nina	-4848
▁wonu	-4849
▁emanu	-4850
▁kaane	-4851
▁banner	-4852
▁kagala	-4853
▁manana	-4854
▁masɔrɔ	-4855
▁dilanna	-4856
▁diminin	-4857
▁haminan	-4858
▁kasobon	-4859
▁sigilen	-4860
▁maridose	-4861
▁zerobowamu	-4862
26	-4863
bô	-4864
kɑ	-4865
her	-4866
▁kì	-4867
▁my	-4868
▁uk	-4869
▁xi	-4870
fɔɲɔ	-4871
koli	-4872
rasi	-4873
unou	-4874
▁(20	-4875
▁ika	-4876
▁mal	-4877
▁nor	-4878
▁nɡe	-4879
▁old	-4880
▁per	-4881
▁sie	-4882
▁sèg	-4883
▁tug	-4884
▁vol	-4885
▁donw	-4886
▁edɛn	-4887
▁haki	-4888
▁kisa	-4889
▁koli	-4890
▁male	-4891
▁tɔɲɔ	-4892
▁wɑ̃ɑ	-4893
▁corsa	-4894
▁gwili	-4895
▁kenya	-4896
▁muxun	-4897
▁woolo	-4898
▁wèrèw	-4899
▁bènbaw	-4900
▁cooper	-4901
▁cɛnnin	-4902
▁gusunɔn	-4903
▁ɲininna	-4904
▁jamakulu	-4905
▁nimisara	-4906
▁sɛnɛkɛla	-4907
▁lɔnbaliya	-4908
▁faranyɔrɔw	-4909
',	-4910
.-	-4911
:55	-4912
dɔw	-4913
ggu	-4914
que	-4915
▁1.	-4916
fana	-4917
fura	-4918
ning	-4919
turu	-4920
wuli	-4921
▁1:8	-4922
▁ako	-4923
▁apo	-4924
▁fii	-4925
▁igi	-4926
▁ila	-4927
▁kpo	-4928
▁kuu	-4929
▁kɛr	-4930
▁lok	-4931
▁oya	-4932
▁sip	-4933
▁swĩ	-4934
▁xun	-4935
▁yɑ̃	-4936
:1010	-4937
kiraw	-4938
suman	-4939
ɔnilu	-4940
▁beyi	-4941
▁masu	-4942
▁nɔnɔ	-4943
▁tama	-4944
▁tamo	-4945
▁yawe	-4946
▁bɛɛrɛ	-4947
▁daddy	-4948
▁kikoe	-4949
▁labèn	-4950
▁nusɔn	-4951
▁sango	-4952
▁fiyɛra	-4953
▁gɔmɔri	-4954
▁hakiri	-4955
▁kɛlɛba	-4956
▁nɛnili	-4957
▁abinɛri	-4958
▁corsair	-4959
▁mandimi	-4960
▁yebaliw	-4961
▁yɛrɛkun	-4962
▁saniyara	-4963
▁emanuwɛli	-4964
▁kalanbagaw	-4965
▁telefɔniko	-4966
.:	-4967
dô	-4968
rus	-4969
▁mm	-4970
▁xu	-4971
▁aki	-4972
▁ati	-4973
▁dow	-4974
▁fyɛ	-4975
▁kay	-4976
▁nim	-4977
▁tie	-4978
▁web	-4979
▁ŋun	-4980
:1414	-4981
jigin	-4982
▁biɲɛ	-4983
▁blow	-4984
▁djon	-4985
▁enni	-4986
▁lone	-4987
▁tɛri	-4988
▁wogo	-4989
▁11:11	-4990
▁baali	-4991
▁benko	-4992
▁cibaa	-4993
▁josɔn	-4994
▁kaari	-4995
▁paris	-4996
▁saali	-4997
▁yinri	-4998
▁gwɛnna	-4999
▁kɔɲɔcɛ	-5000
▁yirige	-5001
▁jiginna	-5002
▁bwisikumɔ	-5003
▁baaraɲuman	-5004
▁mandiminin	-5005
▁yɛrɛboɲala	-5006
▁tilenbaliyako	-5007
48	-5008
̃ɛ	-5009
:29	-5010
ike	-5011
tor	-5012
▁98	-5013
▁wɑ	-5014
bere	-5015
janw	-5016
matɔ	-5017
sare	-5018
▁bil	-5019
▁iye	-5020
▁khe	-5021
▁oyi	-5022
▁srɛ	-5023
:2323	-5024
▁deep	-5025
▁fìla	-5026
▁janu	-5027
▁kahi	-5028
▁mɛni	-5029
▁pɛrɛ	-5030
▁tèmè	-5031
▁ɲene	-5032
tasuma	-5033
▁ameri	-5034
▁bikin	-5035
▁sidɔn	-5036
▁sùrun	-5037
▁tabɛn	-5038
likɛlaw	-5039
▁cayara	-5040
▁kiyama	-5041
▁kuturu	-5042
▁kòròfò	-5043
▁makònò	-5044
▁masaso	-5045
▁ɲadenw	-5046
▁arasɛli	-5047
▁dantuma	-5048
▁faganin	-5049
▁sanjiba	-5050
▁sigarɛti	-5051
▁waatijan	-5052
▁jerusalèm	-5053
▁yahudiyan	-5054
▁jamanadenw	-5055
hee	-5056
saa	-5057
sua	-5058
tra	-5059
ɔgɛ	-5060
deen	-5061
rine	-5062
tigè	-5063
ture	-5064
▁anɛ	-5065
▁baw	-5066
▁bln	-5067
▁dus	-5068
▁sch	-5069
▁wud	-5070
▁zen	-5071
erɔdi	-5072
kodon	-5073
▁biru	-5074
▁dafɛ	-5075
▁late	-5076
▁manu	-5077
▁nali	-5078
▁said	-5079
▁siin	-5080
▁toma	-5081
▁niaan	-5082
▁saran	-5083
▁touma	-5084
▁wooda	-5085
miiriya	-5086
ɔgwɛlɛn	-5087
▁banakɔ	-5088
▁faamaw	-5089
▁fufafu	-5090
▁kunkow	-5091
▁masiri	-5092
▁sayako	-5093
▁tilefɛ	-5094
▁yerusa	-5095
▁faranna	-5096
▁mɛncogo	-5097
▁bayɛlɛma	-5098
▁faamubali	-5099
▁balimamusow	-5100
▁batizelikɛla	-5101
ezi	-5102
fɔɔ	-5103
ɔgi	-5104
▁4.	-5105
▁wé	-5106
fisi	-5107
jira	-5108
▁17.	-5109
▁aɲi	-5110
▁daw	-5111
▁lor	-5112
▁maɲ	-5113
▁teh	-5114
▁use	-5115
▁vie	-5116
▁wɔn	-5117
▁yea	-5118
▁3:16	-5119
▁dafè	-5120
▁kati	-5121
▁luck	-5122
▁nyer	-5123
▁tony	-5124
▁woso	-5125
nafolo	-5126
▁desɛn	-5127
▁forow	-5128
▁itali	-5129
matɔmɔn	-5130
▁faniso	-5131
▁kalanw	-5132
▁kalila	-5133
▁lakunu	-5134
▁lɔgɔbɔ	-5135
▁siraba	-5136
▁hòrònya	-5137
▁january	-5138
▁dugutigi	-5139
▁erection	-5140
▁miliyari	-5141
▁setigiya	-5142
▁kowagarase	-5143
▁sɔngɔgwɛlɛn	-5144
▁ɲenematɔmɔn	-5145
▁fadenyabolow	-5146
-)	-5147
xɛ	-5148
adi	-5149
che	-5150
ede	-5151
kaa	-5152
lam	-5153
mou	-5154
noo	-5155
ste	-5156
woo	-5157
▁em	-5158
▁ɔ́	-5159
arɔn	-5160
boro	-5161
dasi	-5162
duse	-5163
lige	-5164
mali	-5165
sɛsi	-5166
wari	-5167
wulu	-5168
▁20"	-5169
▁beb	-5170
▁bet	-5171
▁gra	-5172
▁gyi	-5173
▁ido	-5174
▁naw	-5175
▁pàa	-5176
▁uka	-5177
phone	-5178
pɛrɛn	-5179
tinin	-5180
▁aɲia	-5181
▁funu	-5182
▁fyew	-5183
▁give	-5184
▁kimi	-5185
▁kowo	-5186
▁mɔna	-5187
▁nino	-5188
▁nuan	-5189
▁rira	-5190
▁saye	-5191
▁siɲè	-5192
▁yona	-5193
▁yɛɛn	-5194
farinw	-5195
▁bòlen	-5196
▁cikan	-5197
▁ezawu	-5198
▁makan	-5199
▁phone	-5200
▁sabau	-5201
▁sɛnrɛ	-5202
▁11:11.	-5203
▁diyana	-5204
▁kilila	-5205
▁kènèya	-5206
▁mirila	-5207
▁silasi	-5208
▁timina	-5209
▁yaadon	-5210
▁balimak	-5211
▁diyanin	-5212
▁dɔgɔkun	-5213
▁nations	-5214
▁cɛfarinw	-5215
▁jurumukow	-5216
▁firiyamusow	-5217
▁tesalonikaw	-5218
▁ɲenematɔmɔnin	-5219
hh	-5220
ng	-5221
,..	-5222
bru	-5223
ere	-5224
kpo	-5225
▁nt	-5226
▁ɡɑ	-5227
guus	-5228
rini	-5229
sɛri	-5230
▁33-	-5231
▁awo	-5232
▁blu	-5233
▁dôw	-5234
▁flu	-5235
▁kuɑ	-5236
▁mba	-5237
ozɔri	-5238
segin	-5239
▁2019	-5240
▁daaw	-5241
▁days	-5242
▁dedo	-5243
▁disi	-5244
▁hace	-5245
▁hear	-5246
▁itan	-5247
▁kuat	-5248
▁loko	-5249
▁makè	-5250
▁numu	-5251
▁nɛgɛ	-5252
▁timi	-5253
▁tina	-5254
tiyopi	-5255
▁leila	-5256
▁sifaw	-5257
▁yɔrɔn	-5258
bukodon	-5259
▁bɔlɔnw	-5260
▁djaman	-5261
▁ɲɛminɛ	-5262
▁afiriki	-5263
▁dimilon	-5264
▁kalanba	-5265
▁sariɲan	-5266
▁volguus	-5267
▁yiranni	-5268
▁religion	-5269
▁yɛrɛminɛ	-5270
▁isirelibɑ	-5271
▁librarika	-5272
▁barikatigi	-5273
▁sariyasɛbɛ	-5274
bukodonozɔri	-5275
▁nusɔndiyara	-5276
fs	-5277
gh	-5278
nɔ	-5279
ón	-5280
:32	-5281
hon	-5282
juu	-5283
tak	-5284
tar	-5285
tis	-5286
▁flo	-5287
▁thi	-5288
▁tsu	-5289
lailu	-5290
▁3:11	-5291
▁andi	-5292
▁bɔrɔ	-5293
▁cɛɛn	-5294
▁even	-5295
▁gara	-5296
▁gbɛn	-5297
▁lado	-5298
▁sida	-5299
▁sisé	-5300
▁supe	-5301
▁zayi	-5302
▁ɲɔti	-5303
kɔnɔna	-5304
▁allah	-5305
▁kanto	-5306
▁karne	-5307
▁kiero	-5308
▁kônon	-5309
▁mogow	-5310
▁nuked	-5311
▁sanam	-5312
▁super	-5313
▁yikes	-5314
aniyasi	-5315
▁furucɛ	-5316
▁furula	-5317
▁kunndɛ	-5318
▁latuma	-5319
▁wantin	-5320
▁mamaden	-5321
▁musoman	-5322
▁kanaankaw	-5323
▁tilennenw	-5324
▁alabatosow	-5325
▁kantigimanw	-5326
27	-5327
vr	-5328
▁ɑ	-5329
?›,	-5330
mmy	-5331
wlɛ	-5332
ŋge	-5333
ŋgɔ	-5334
▁im	-5335
▁jô	-5336
▁mp	-5337
▁tɑ	-5338
bɛti	-5339
jara	-5340
land	-5341
rina	-5342
sɔrɔ	-5343
tira	-5344
▁8:1	-5345
▁adu	-5346
▁bak	-5347
▁gbo	-5348
▁tia	-5349
▁uru	-5350
▁òlu	-5351
galen	-5352
▁fula	-5353
▁kape	-5354
▁kela	-5355
▁kyun	-5356
▁lamu	-5357
▁menu	-5358
▁musi	-5359
▁tool	-5360
▁yele	-5361
lakɔli	-5362
▁archi	-5363
▁bezan	-5364
ezipiti	-5365
▁baliku	-5366
▁banget	-5367
▁damasi	-5368
▁dɛmɛna	-5369
▁gomina	-5370
▁kabila	-5371
▁kantan	-5372
▁kulera	-5373
▁sotigi	-5374
tanayɛli	-5375
▁dununya	-5376
▁kasikan	-5377
▁siniman	-5378
▁ibrahima	-5379
▁jamanjan	-5380
▁labanlon	-5381
▁tagasaga	-5382
▁tiɲɛkuma	-5383
▁girɛkikan	-5384
▁maɲininka	-5385
▁tɔɔrɔbagaw	-5386
28	-5387
:0	-5388
oh	-5389
̃.	-5390
gaw	-5391
get	-5392
tie	-5393
wer	-5394
zar	-5395
̀gɔ	-5396
▁."	-5397
▁67	-5398
▁dɑ	-5399
▁16-	-5400
▁197	-5401
▁3:1	-5402
▁ehe	-5403
▁gal	-5404
▁nam	-5405
▁nom	-5406
▁ome	-5407
kɔngɔ	-5408
▁bisa	-5409
▁deme	-5410
▁donn	-5411
▁kaye	-5412
▁land	-5413
▁mike	-5414
▁nice	-5415
▁tiwo	-5416
▁tumɛ	-5417
▁tura	-5418
▁ŋaan	-5419
wotoro	-5420
▁abɛli	-5421
▁aimed	-5422
▁alone	-5423
▁biala	-5424
▁forum	-5425
▁jujɔn	-5426
▁kɛɛrɛ	-5427
▁mbele	-5428
▁sayin	-5429
▁yinnɛ	-5430
▁bakari	-5431
▁baraga	-5432
▁dagara	-5433
▁gɛlɛya	-5434
▁kèlenw	-5435
▁naaman	-5436
▁ninivu	-5437
▁sìrila	-5438
▁nankɔtu	-5439
▁sumansi	-5440
▁videwow	-5441
▁kɛlɛbolo	-5442
▁lannakow	-5443
▁tɔɔrɔnin	-5444
▁musobaara	-5445
▁dilanbagaw	-5446
▁hadamadenw	-5447
▁yahudiyanuna	-5448
.)	-5449
ela	-5450
goo	-5451
kar	-5452
tik	-5453
fiɲɛ	-5454
huna	-5455
lani	-5456
leme	-5457
mbre	-5458
misi	-5459
solo	-5460
teru	-5461
▁dat	-5462
▁dgo	-5463
▁jôé	-5464
▁nje	-5465
▁tor	-5466
▁yay	-5467
dɛndɛ	-5468
▁asan	-5469
▁deni	-5470
▁hayi	-5471
▁lila	-5472
▁more	-5473
▁muɛ̄	-5474
▁pony	-5475
▁porn	-5476
▁sisɛ	-5477
▁tali	-5478
▁yabi	-5479
▁ŋɔni	-5480
kibaru	-5481
lamɔgɔ	-5482
▁black	-5483
▁bride	-5484
▁derge	-5485
▁fyɛwu	-5486
▁gbeen	-5487
▁kayɛn	-5488
▁ŋgban	-5489
▁amoniw	-5490
▁chaman	-5491
▁dogora	-5492
▁gengen	-5493
▁marita	-5494
▁masakɛ	-5495
▁tariki	-5496
▁yɛtɛɛn	-5497
national	-5498
▁madiyan	-5499
▁patɔrɔn	-5500
▁polisiw	-5501
▁sɔrasiw	-5502
▁karikari	-5503
▁sanukuru	-5504
▁dergetara	-5505
▁koɲumankɛ	-5506
▁dimikojugu	-5507
▁kunnafoniw	-5508
▁international	-5509
16	-5510
pt	-5511
abi	-5512
cnu	-5513
eno	-5514
ɛɛ̄	-5515
▁??	-5516
▁râ	-5517
kama	-5518
kule	-5519
liwɛ	-5520
▁3.1	-5521
▁kom	-5522
▁lau	-5523
▁net	-5524
▁wuu	-5525
▁yir	-5526
duguw	-5527
▁adam	-5528
▁bibi	-5529
▁cute	-5530
▁févr	-5531
▁kani	-5532
▁kɔse	-5533
▁lele	-5534
▁nɔni	-5535
▁suan	-5536
▁tian	-5537
likise	-5538
▁17.30	-5539
▁frien	-5540
▁gbana	-5541
▁histo	-5542
▁kanan	-5543
▁koura	-5544
▁kumun	-5545
▁lanen	-5546
▁mased	-5547
▁socha	-5548
▁tryin	-5549
▁amoriw	-5550
▁cɛmanw	-5551
▁franse	-5552
▁yibɛrɛ	-5553
▁batɛmun	-5554
▁dumukun	-5555
▁faɲuman	-5556
▁nouveau	-5557
▁cɛɲumanba	-5558
▁faamuyali	-5559
▁manyadali	-5560
▁sodɔmukaw	-5561
▁dakɔrɔsigi	-5562
▁kɔlɔsilikɛ	-5563
▁kɔnɔnakuma	-5564
▁tigilamɔgɔ	-5565
▁yɛrɛyɛrɛla	-5566
dj	-5567
of	-5568
▁;	-5569
com	-5570
lem	-5571
ret	-5572
unw	-5573
vle	-5574
▁sò	-5575
▁él	-5576
▁ɲé	-5577
▁dou	-5578
▁gru	-5579
▁jal	-5580
▁jue	-5581
▁stu	-5582
▁tɛn	-5583
▁tɛ̃	-5584
▁wal	-5585
▁ɲɔ̀	-5586
irili	-5587
niman	-5588
▁amoo	-5589
▁baat	-5590
▁bɔns	-5591
▁dɔxɔ	-5592
▁kare	-5593
▁kpɛn	-5594
▁lili	-5595
▁sogi	-5596
▁ɲama	-5597
wagati	-5598
▁akabu	-5599
▁benba	-5600
▁fluwa	-5601
▁kanna	-5602
▁kogow	-5603
▁kɛlon	-5604
▁lagwɛ	-5605
▁mains	-5606
▁movie	-5607
▁omega	-5608
▁taatɔ	-5609
▁terew	-5610
▁truii	-5611
▁weenɛ	-5612
▁zurun	-5613
▁barila	-5614
▁bigger	-5615
▁ingana	-5616
▁mɔgɛnu	-5617
▁walasa	-5618
▁ɲasuma	-5619
▁awirili	-5620
▁morning	-5621
▁yelifɛn	-5622
▁farahuna	-5623
▁furakɛla	-5624
▁kɛlɛbaga	-5625
▁makɔnɔna	-5626
▁mɛlikise	-5627
▁saninman	-5628
▁ananiyasi	-5629
▁bɔnsɔnilu	-5630
▁kolɔnbaga	-5631
▁sankolola	-5632
▁taamasiɲɛw	-5633
?:	-5634
yn	-5635
bow	-5636
lut	-5637
nɛn	-5638
ves	-5639
ɲin	-5640
̀lɔ	-5641
fere	-5642
kusi	-5643
sayi	-5644
tɛmɛ	-5645
yɛni	-5646
▁48.	-5647
▁gno	-5648
▁gud	-5649
▁jim	-5650
▁koi	-5651
▁lea	-5652
▁mou	-5653
▁ran	-5654
▁red	-5655
▁sak	-5656
nenya	-5657
▁creo	-5658
▁cɛra	-5659
▁djou	-5660
▁ford	-5661
▁holy	-5662
▁hone	-5663
▁kônô	-5664
▁lame	-5665
▁luma	-5666
▁maso	-5667
▁mein	-5668
▁nawa	-5669
deyawu	-5670
ration	-5671
▁alifa	-5672
▁bantu	-5673
▁béssé	-5674
▁bɔ̀rɛ	-5675
▁danbe	-5676
▁kuraw	-5677
▁misiw	-5678
▁sudan	-5679
▁trans	-5680
▁vecnu	-5681
▁ɲaari	-5682
balimaw	-5683
fugulan	-5684
▁aniaan	-5685
▁bamakɔ	-5686
▁barish	-5687
▁lyrics	-5688
▁school	-5689
▁sitanè	-5690
▁sɔgɔwɔ	-5691
▁tarika	-5692
▁ɲènama	-5693
kalanden	-5694
▁kamyabi	-5695
▁kòsegin	-5696
▁nanbara	-5697
▁batiseli	-5698
▁boɲafɛnw	-5699
▁dɔgɔninw	-5700
▁fitininw	-5701
▁kalatara	-5702
▁subayɛli	-5703
▁yɛdeyawu	-5704
▁zoziyasi	-5705
▁ŋunuŋunu	-5706
33	-5707
48,	-5708
diw	-5709
foo	-5710
guu	-5711
iyo	-5712
rug	-5713
yii	-5714
▁(?	-5715
▁bã	-5716
▁ey	-5717
▁ig	-5718
▁̀.	-5719
dɛki	-5720
ftes	-5721
lala	-5722
lɛrɛ	-5723
mple	-5724
para	-5725
unin	-5726
▁1.1	-5727
▁11.	-5728
▁beg	-5729
▁cry	-5730
▁dua	-5731
▁kir	-5732
▁kɔɛ	-5733
▁mod	-5734
▁oyé	-5735
▁sow	-5736
▁tte	-5737
anman	-5738
sanin	-5739
ɛnɛti	-5740
▁boko	-5741
▁bɛma	-5742
▁daji	-5743
▁goya	-5744
▁keli	-5745
▁noob	-5746
▁tang	-5747
▁tipu	-5748
▁toko	-5749
▁tolo	-5750
▁usfs	-5751
▁yeee	-5752
ftesho	-5753
mininw	-5754
▁1948,	-5755
▁conon	-5756
▁daram	-5757
▁eliza	-5758
▁geren	-5759
▁jumèn	-5760
▁kɔsie	-5761
▁risen	-5762
▁russi	-5763
▁telen	-5764
▁africa	-5765
▁bɔnɛna	-5766
▁kourou	-5767
▁kɔnɔni	-5768
▁kɔseyi	-5769
▁landaw	-5770
▁parena	-5771
▁sarayi	-5772
▁ɲɔgɔnw	-5773
▁miirili	-5774
▁farimanw	-5775
▁kalangwɛ	-5776
▁kɛlɛyɔrɔ	-5777
▁ladiliba	-5778
▁tɛmɛsira	-5779
▁yiriwara	-5780
▁olivuyiri	-5781
▁sugandili	-5782
▁karanbagaw	-5783
▁koloftesho	-5784
▁kunkanbaara	-5785
▁kɔrɔtalenba	-5786
▁nisɔndiyara	-5787
ek	-5788
▁í	-5789
222	-5790
:66	-5791
bre	-5792
ins	-5793
maa	-5794
mbi	-5795
nay	-5796
nya	-5797
▁sb	-5798
▁ɲe	-5799
!!!!	-5800
fati	-5801
lean	-5802
pɔli	-5803
tinw	-5804
▁750	-5805
▁are	-5806
▁cɛw	-5807
▁doa	-5808
▁dén	-5809
▁fir	-5810
▁kud	-5811
▁myé	-5812
▁nuu	-5813
▁pii	-5814
▁pin	-5815
▁sex	-5816
▁tro	-5817
:2424	-5818
kunna	-5819
tilan	-5820
umari	-5821
▁afew	-5822
▁bisi	-5823
▁busk	-5824
▁famu	-5825
▁foto	-5826
▁from	-5827
▁kabô	-5828
▁keta	-5829
▁kids	-5830
▁klun	-5831
▁loki	-5832
▁lɛrɛ	-5833
▁mami	-5834
▁nwon	-5835
▁sail	-5836
▁sege	-5837
▁upon	-5838
kɛbaga	-5839
sɔgɔma	-5840
yɔrɔko	-5841
zowabu	-5842
▁alert	-5843
▁belle	-5844
▁denma	-5845
▁dontɔ	-5846
▁falan	-5847
▁fanba	-5848
▁fanka	-5849
▁kalaw	-5850
▁kikoo	-5851
▁lagey	-5852
▁price	-5853
▁tufan	-5854
▁basnay	-5855
▁cɛncɛn	-5856
▁fɔcogo	-5857
▁hategi	-5858
▁sabari	-5859
▁decides	-5860
▁munumun	-5861
▁sɔngɔrɔ	-5862
▁miiriyaw	-5863
▁musomanw	-5864
▁pɛrɛnkan	-5865
▁dusuɲuman	-5866
▁dɔmiiriya	-5867
▁mɛlikisedɛki	-5868
!」	-5869
40	-5870
rd	-5871
tô	-5872
ww	-5873
bli	-5874
gua	-5875
hah	-5876
kia	-5877
lah	-5878
net	-5879
tòw	-5880
▁dí	-5881
degi	-5882
gibu	-5883
goya	-5884
kami	-5885
lehɛ	-5886
mero	-5887
ŋana	-5888
▁ahe	-5889
▁efe	-5890
▁ego	-5891
▁gos	-5892
▁hey	-5893
▁hot	-5894
▁ifi	-5895
▁iki	-5896
▁lèn	-5897
▁nai	-5898
▁piy	-5899
▁poo	-5900
▁qui	-5901
▁sàm	-5902
:2525	-5903
kenin	-5904
kpoyi	-5905
▁1950	-5906
▁2021	-5907
▁bene	-5908
▁bɔri	-5909
▁cɛɲɛ	-5910
▁dekh	-5911
▁fiki	-5912
▁kahe	-5913
▁lada	-5914
▁miin	-5915
▁subi	-5916
▁swĩi	-5917
▁tuyo	-5918
▁yeya	-5919
▁ɲɔrɔ	-5920
goninw	-5921
kannin	-5922
yɔrɔba	-5923
▁kaali	-5924
▁kirin	-5925
▁kɛnɛn	-5926
▁nyɔɔn	-5927
▁nyɛmɛ	-5928
▁nyɛrɛ	-5929
▁reali	-5930
▁segin	-5931
▁today	-5932
▁tulon	-5933
▁better	-5934
▁bisigi	-5935
▁fɔbali	-5936
▁jinatɔ	-5937
▁jɛhova	-5938
▁kilisi	-5939
▁saduse	-5940
▁yigiya	-5941
▁fisaman	-5942
▁denɲɛnin	-5943
▁kurumari	-5944
▁malidenw	-5945
▁mariyama	-5946
▁samarika	-5947
▁bolokinin	-5948
▁dannabaaw	-5949
▁fankannin	-5950
▁gɔmɔrikaw	-5951
▁mɔgɔsɔbɛw	-5952
▁sumalenya	-5953
▁baarakèlaw	-5954
▁kininkinin	-5955
▁yinnɛkpoyi	-5956
▁nafolotigiw	-5957
karamɔgɔɲuman	-5958
?!	-5959
kô	-5960
:36	-5961
▁!"	-5962
▁bm	-5963
▁ed	-5964
▁iz	-5965
▁ɲo	-5966
bòli	-5967
hoto	-5968
ibra	-5969
kisu	-5970
kòrò	-5971
ople	-5972
samu	-5973
wanè	-5974
▁15-	-5975
▁aso	-5976
▁aun	-5977
▁dik	-5978
▁diy	-5979
▁ice	-5980
▁oka	-5981
▁tem	-5982
▁yad	-5983
▁awlo	-5984
▁busy	-5985
▁dada	-5986
▁done	-5987
▁dulu	-5988
▁fafe	-5989
▁fòli	-5990
▁hain	-5991
▁kafa	-5992
▁kato	-5993
▁kèrè	-5994
▁mato	-5995
▁mayi	-5996
▁mixi	-5997
▁nenu	-5998
▁nfen	-5999
▁sami	-6000
▁sick	-6001
▁téré	-6002
▁yafe	-6003
▁yĩsi	-6004
walima	-6005
▁natan	-6006
▁ntola	-6007
▁numan	-6008
▁puede	-6009
▁seliw	-6010
▁wɛɛrɛ	-6011
lɔnniya	-6012
▁baaraw	-6013
▁datumo	-6014
▁galiba	-6015
▁jatigɛ	-6016
▁kewali	-6017
▁laɲini	-6018
▁magara	-6019
▁nyinin	-6020
▁realii	-6021
▁somɔgɔ	-6022
▁tagala	-6023
▁tigiya	-6024
▁walaka	-6025
ibrayima	-6026
▁etiyopi	-6027
▁fagalon	-6028
▁gbɛlɛya	-6029
▁kalanfa	-6030
▁kungolo	-6031
▁wilinin	-6032
▁danganin	-6033
▁gerennen	-6034
▁jatiminɛ	-6035
▁sukununi	-6036
▁masedwanè	-6037
▁tagafɛnnɛ	-6038
▁telephone	-6039
▁tɔgɔɲuman	-6040
sarakalasebaga	-6041
▁dɔnkililabagaw	-6042
34	-6043
jè	-6044
nɑ	-6045
▁➜	-6046
wɛn	-6047
xra	-6048
▁^^	-6049
bala	-6050
bɛka	-6051
diti	-6052
rata	-6053
sɛnɛ	-6054
▁kwn	-6055
▁ola	-6056
▁ɔwɔ	-6057
anamu	-6058
leman	-6059
▁2:19	-6060
▁buli	-6061
▁elle	-6062
▁fɔɔn	-6063
▁help	-6064
▁jɔnw	-6065
▁kaau	-6066
▁kase	-6067
▁lahi	-6068
▁odio	-6069
▁rain	-6070
gayɛli	-6071
tigiba	-6072
▁24:44	-6073
▁dugug	-6074
▁fɔlon	-6075
▁lɔnna	-6076
▁yenin	-6077
▁dagamu	-6078
▁dugaan	-6079
▁kariba	-6080
▁lilato	-6081
▁makɔnɔ	-6082
▁nyɔɔnɛ	-6083
▁pikiri	-6084
▁piyɔni	-6085
▁sinema	-6086
▁sissan	-6087
▁tiɲɛna	-6088
▁zeriko	-6089
▁ɲejira	-6090
dugukolo	-6091
kikikiki	-6092
▁findixi	-6093
▁history	-6094
▁kanngan	-6095
▁listing	-6096
▁lènburu	-6097
▁wololon	-6098
▁benkanni	-6099
▁hakɛkɛla	-6100
▁kalansow	-6101
▁labènnen	-6102
▁jagokɛlaw	-6103
▁ladibagaw	-6104
▁yɔrɔnyini	-6105
▁karamɔgɔkɛ	-6106
▁nabukodonozɔri	-6107
"*	-6108
ama	-6109
hen	-6110
jal	-6111
mal	-6112
mis	-6113
pon	-6114
vɛr	-6115
▁(7	-6116
▁+5	-6117
▁68	-6118
▁bũ	-6119
▁jw	-6120
dani	-6121
deli	-6122
fice	-6123
mɔsi	-6124
tchè	-6125
zani	-6126
▁che	-6127
▁jee	-6128
▁kok	-6129
▁nbu	-6130
▁nda	-6131
cogow	-6132
tendi	-6133
▁dudo	-6134
▁dôgô	-6135
▁ever	-6136
▁gaza	-6137
▁joke	-6138
▁kera	-6139
▁kono	-6140
▁kore	-6141
▁kuku	-6142
▁kĩru	-6143
▁laka	-6144
▁mate	-6145
▁mɛya	-6146
▁sɔnɔ	-6147
▁taan	-6148
▁tima	-6149
▁wôrô	-6150
latigɛ	-6151
pilati	-6152
tchogo	-6153
zafati	-6154
▁balik	-6155
▁benan	-6156
▁bondo	-6157
▁eleza	-6158
▁fèèrè	-6159
▁gbɔgɔ	-6160
▁kafar	-6161
▁kasɔn	-6162
▁kilin	-6163
▁nanya	-6164
▁neemi	-6165
▁probe	-6166
▁ɲanin	-6167
▁bènnen	-6168
▁cogodi	-6169
▁commen	-6170
▁jɛnita	-6171
▁keliya	-6172
▁kouman	-6173
▁kɛndɛn	-6174
▁sègèrè	-6175
▁tobiya	-6176
▁zakari	-6177
▁ɲɛnajɛ	-6178
mination	-6179
▁demisɛn	-6180
▁dugugbɛ	-6181
▁entendi	-6182
▁faamaya	-6183
▁helpful	-6184
▁tintinw	-6185
▁barikisu	-6186
▁bilayɔrɔ	-6187
▁dagamuna	-6188
▁furakɛli	-6189
▁halakiko	-6190
▁jalakira	-6191
▁kisibaya	-6192
▁datugulan	-6193
▁elizabɛti	-6194
▁janfamɔgɔ	-6195
▁kabakoman	-6196
▁kodogonin	-6197
▁kongowulu	-6198
▁labilanin	-6199
▁lɛsɛbagaw	-6200
▁mɔgɔkɔrɔw	-6201
▁kafaranamu	-6202
▁kolɔnbagaw	-6203
▁kɛrɛnnenya	-6204
▁tagamacogo	-6205
▁tilantilan	-6206
mɔgɔtilennin	-6207
▁dakɔrɔsigiw	-6208
▁dusukasifani	-6209
▁galontigɛlaw	-6210
-5	-6211
49	-6212
ie	-6213
:46	-6214
bih	-6215
ciw	-6216
fɔm	-6217
gni	-6218
iin	-6219
ènè	-6220
▁(3	-6221
▁91	-6222
▁lā	-6223
▁mw	-6224
▁ns	-6225
▁uu	-6226
biji	-6227
kaso	-6228
zona	-6229
▁15.	-6230
▁agu	-6231
▁doc	-6232
▁jwo	-6233
▁jye	-6234
▁lɛn	-6235
▁sig	-6236
▁sto	-6237
filen	-6238
mukan	-6239
teriw	-6240
▁còrò	-6241
▁dako	-6242
▁jana	-6243
▁keyi	-6244
▁kɔɔw	-6245
▁leya	-6246
▁romè	-6247
▁sabo	-6248
▁toli	-6249
▁tooo	-6250
▁town	-6251
lehɛmu	-6252
ruggle	-6253
tigɛla	-6254
▁13:49	-6255
▁agent	-6256
▁denba	-6257
▁faliw	-6258
▁gnana	-6259
▁kpoyi	-6260
▁kɔrɔw	-6261
▁labla	-6262
▁massa	-6263
▁photo	-6264
▁tiile	-6265
▁wunna	-6266
▁kɔrɔba	-6267
▁nimero	-6268
▁tobili	-6269
▁bangera	-6270
▁còrònin	-6271
▁erebɛka	-6272
▁galaadi	-6273
▁kanbele	-6274
▁sɔmburu	-6275
▁fɛnɲuman	-6276
▁kantigiw	-6277
▁kumacogo	-6278
▁sigidala	-6279
▁struggle	-6280
feereyɔɔrɔ	-6281
▁dɔgɔtɔrɔw	-6282
▁nimanfɛnw	-6283
▁numanbolo	-6284
▁baarakɛmuso	-6285
▁galontigɛla	-6286
▁lemɛniyamɔɔilu	-6287
os	-6288
ên	-6289
;-)	-6290
jam	-6291
shi	-6292
tii	-6293
yak	-6294
▁8.	-6295
▁80	-6296
▁dh	-6297
▁fẹ	-6298
fite	-6299
maan	-6300
rrrg	-6301
sila	-6302
▁17-	-6303
▁enɔ	-6304
▁gin	-6305
▁kad	-6306
▁nwu	-6307
▁shɔ	-6308
▁sɑɑ	-6309
▁yao	-6310
berto	-6311
febru	-6312
gbala	-6313
kansi	-6314
kɛrɛn	-6315
lenna	-6316
senin	-6317
▁bold	-6318
▁buat	-6319
▁bɔtɔ	-6320
▁choo	-6321
▁duru	-6322
▁días	-6323
▁flan	-6324
▁gati	-6325
▁hoon	-6326
▁jaɲa	-6327
▁kile	-6328
▁lako	-6329
▁nabi	-6330
▁nuho	-6331
▁nvle	-6332
▁tɔ̃ɔ	-6333
▁wɔrɔ	-6334
enenli	-6335
hanama	-6336
▁.....	-6337
▁annzɛ	-6338
▁fandi	-6339
▁filan	-6340
▁gnini	-6341
▁kitna	-6342
▁music	-6343
▁pixra	-6344
▁since	-6345
▁arrrrg	-6346
▁batora	-6347
▁farali	-6348
▁hamina	-6349
▁kpɛkun	-6350
▁kurunw	-6351
▁nbuuru	-6352
▁nɔgɔra	-6353
▁people	-6354
▁zetoro	-6355
february	-6356
ɲɛnamaya	-6357
▁duurumɔ	-6358
▁kalanni	-6359
▁mowabuw	-6360
▁sariyan	-6361
▁dayɛlɛla	-6362
▁fariziɲɛ	-6363
▁gosligan	-6364
▁jahanama	-6365
▁juguyara	-6366
▁kènèyara	-6367
▁murutigi	-6368
▁tigaforo	-6369
▁sanulaman	-6370
▁sanyɛlɛma	-6371
▁bɛtilehɛmu	-6372
▁dugugbɛkan	-6373
▁miiriɲuman	-6374
▁kilisienenli	-6375
at	-6376
sò	-6377
tà	-6378
-18	-6379
:31	-6380
gne	-6381
gus	-6382
pas	-6383
tle	-6384
tum	-6385
▁5.	-6386
▁ij	-6387
:77"	-6388
lina	-6389
nnnn	-6390
rani	-6391
zare	-6392
āina	-6393
▁aru	-6394
▁bui	-6395
▁bèe	-6396
▁dàn	-6397
▁gnè	-6398
▁lii	-6399
▁mìn	-6400
▁mɔɛ	-6401
▁sat	-6402
▁sui	-6403
▁sàn	-6404
▁tow	-6405
▁ven	-6406
cture	-6407
janko	-6408
mògòw	-6409
▁1914	-6410
▁baih	-6411
▁doke	-6412
▁dɔlɔ	-6413
▁kafu	-6414
▁koma	-6415
▁laju	-6416
▁mabɔ	-6417
▁mine	-6418
▁naru	-6419
▁riga	-6420
▁sɔnn	-6421
▁wodi	-6422
▁wɔgɔ	-6423
batala	-6424
dɛlifi	-6425
inliwɛ	-6426
office	-6427
▁3:77"	-6428
▁afiɛn	-6429
▁amadu	-6430
▁clean	-6431
▁danka	-6432
▁dinin	-6433
▁kagni	-6434
▁kaman	-6435
▁ladka	-6436
▁laten	-6437
▁mammy	-6438
▁niyen	-6439
▁ofisi	-6440
▁siyɔn	-6441
▁sɔɔni	-6442
▁xinla	-6443
▁yennu	-6444
kulekan	-6445
▁abramu	-6446
▁caffee	-6447
▁doctor	-6448
▁foroko	-6449
▁kannin	-6450
▁kissed	-6451
▁lawaji	-6452
▁satuma	-6453
▁simple	-6454
▁sorona	-6455
▁sɛbɛxi	-6456
▁tougou	-6457
sɛrisɛsi	-6458
▁alberto	-6459
▁azariya	-6460
▁baarako	-6461
▁cɛmancɛ	-6462
▁dentist	-6463
▁jifilen	-6464
▁rainbow	-6465
▁sababou	-6466
▁denmisen	-6467
▁jabibiji	-6468
▁nilifɛnw	-6469
▁piyɔniye	-6470
▁solofere	-6471
▁zurunali	-6472
▁gilasenin	-6473
▁labancogo	-6474
▁lɔnnikɛla	-6475
▁filadɛlifi	-6476
▁laminijama	-6477
▁sumangbala	-6478
▁tɔgɔtigiba	-6479
▁siranbagatɔw	-6480
▁kafefeereyɔɔrɔ	-6481
ak	-6482
ms	-6483
yy	-6484
ún	-6485
ṣe	-6486
ẹẹ	-6487
:34	-6488
bèè	-6489
gna	-6490
kle	-6491
mer	-6492
uan	-6493
win	-6494
zin	-6495
▁08	-6496
▁hɔ	-6497
%...	-6498
jiri	-6499
lanw	-6500
mara	-6501
rida	-6502
tein	-6503
wasi	-6504
▁19-	-6505
▁afɛ	-6506
▁bhu	-6507
▁cun	-6508
▁ema	-6509
▁kén	-6510
▁kɛ̄	-6511
▁len	-6512
▁lẹẹ	-6513
▁zin	-6514
fenin	-6515
lumun	-6516
peror	-6517
rther	-6518
simɔn	-6519
▁1:27	-6520
▁6:23	-6521
▁bura	-6522
▁down	-6523
▁dumb	-6524
▁dèsè	-6525
▁dɔkɔ	-6526
▁fool	-6527
▁jean	-6528
▁jooo	-6529
▁just	-6530
▁kelé	-6531
▁kokɛ	-6532
▁koto	-6533
▁kôgô	-6534
▁kɛko	-6535
▁lɛri	-6536
▁muga	-6537
▁nece	-6538
▁sòsò	-6539
▁wang	-6540
▁yoya	-6541
kɔlɔsi	-6542
melɛki	-6543
▁akayi	-6544
▁baroo	-6545
▁fɔnin	-6546
▁kabla	-6547
▁kajal	-6548
▁kɔlɔn	-6549
▁lekin	-6550
▁tomow	-6551
▁xɛmɛn	-6552
▁50%...	-6553
▁alainw	-6554
▁djonan	-6555
▁dɔtɔrɔ	-6556
▁ekobee	-6557
▁filipe	-6558
▁filɛko	-6559
▁furusa	-6560
▁hayiti	-6561
▁latina	-6562
▁makobe	-6563
▁mantan	-6564
▁sezare	-6565
▁tamari	-6566
▁tolong	-6567
▁tɛmɛtɔ	-6568
▁weeken	-6569
▁ɲanako	-6570
▁ɲèminè	-6571
tiyokusi	-6572
▁banabaa	-6573
▁blogger	-6574
▁emperor	-6575
▁filenya	-6576
▁further	-6577
▁fèèrèbò	-6578
▁normali	-6579
kuntigiya	-6580
▁archives	-6581
▁lẹẹkansi	-6582
▁miiriliw	-6583
▁tɛmɛtɛmɛ	-6584
▁welelike	-6585
natanayɛli	-6586
▁balimacɛw	-6587
▁kabakurun	-6588
▁sagadɛndɛ	-6589
▁surunyara	-6590
▁tijinliwɛ	-6591
▁diɲɛlatigɛ	-6592
▁fiɲɛntɔman	-6593
▁kɛrɛnkɛrɛn	-6594
▁senumanŋolu	-6595
54	-6596
jh	-6597
blo	-6598
bol	-6599
eki	-6600
eru	-6601
gbo	-6602
igi	-6603
zaa	-6604
èni	-6605
▁72	-6606
▁aj	-6607
▁sí	-6608
alam	-6609
doba	-6610
gele	-6611
inwe	-6612
lema	-6613
mako	-6614
seen	-6615
senu	-6616
ticu	-6617
yali	-6618
▁17"	-6619
▁41"	-6620
▁47%	-6621
▁bru	-6622
▁bàn	-6623
▁ebu	-6624
▁gbɔ	-6625
▁joy	-6626
▁kih	-6627
▁koy	-6628
▁kre	-6629
▁kɔr	-6630
▁liv	-6631
▁lou	-6632
▁nyè	-6633
▁ope	-6634
▁ske	-6635
▁sum	-6636
▁val	-6637
▁yam	-6638
▁ɔku	-6639
borow	-6640
cause	-6641
talon	-6642
▁1968	-6643
▁baar	-6644
▁body	-6645
▁bɛri	-6646
▁crea	-6647
▁dont	-6648
▁foni	-6649
▁jɔ̀n	-6650
▁kpan	-6651
▁laki	-6652
▁lawo	-6653
▁lean	-6654
▁lwan	-6655
▁make	-6656
▁mile	-6657
▁mɛgɛ	-6658
▁nara	-6659
▁nàli	-6660
▁sene	-6661
▁star	-6662
▁tlon	-6663
▁télé	-6664
▁wuda	-6665
▁ɲɛci	-6666
dankan	-6667
deyawo	-6668
▁1991.	-6669
▁ahead	-6670
▁bònya	-6671
▁bɔnna	-6672
▁kaloo	-6673
▁lorou	-6674
▁proud	-6675
▁soron	-6676
▁tahun	-6677
▁tungu	-6678
▁ŋunan	-6679
fununan	-6680
▁balamu	-6681
▁barkin	-6682
▁koosiɑ	-6683
▁marisi	-6684
▁neticu	-6685
▁ordina	-6686
▁pɛrɛsi	-6687
▁sacogo	-6688
▁sɔ̃ɔmɔ	-6689
▁tuntun	-6690
▁wasaya	-6691
▁wunnin	-6692
▁cɛnkuma	-6693
▁faamuli	-6694
▁fiyɛkan	-6695
▁khesari	-6696
▁kɛnɛnma	-6697
▁tilancɛ	-6698
▁yɛlɛnin	-6699
▁sedeyawo	-6700
tasɛrisɛsi	-6701
tɔburukalo	-6702
▁hɔrɔnmuso	-6703
▁jɛnibaliw	-6704
▁sumantigi	-6705
kojugukɛlaw	-6706
▁allabatala	-6707
▁nomination	-6708
▁sigiyɔrɔman	-6709
tɔnkuntigidankan	-6710
0.	-6711
1,	-6712
];	-6713
dam	-6714
ono	-6715
tau	-6716
ura	-6717
▁(4	-6718
▁bì	-6719
▁hɛ	-6720
▁ɲì	-6721
dusu	-6722
fina	-6723
fòlò	-6724
isra	-6725
maga	-6726
nɛri	-6727
tɔni	-6728
wiye	-6729
▁27-	-6730
▁aho	-6731
▁guo	-6732
▁ira	-6733
▁ize	-6734
▁lel	-6735
▁meh	-6736
▁mma	-6737
▁mul	-6738
▁tur	-6739
▁uwu	-6740
banaw	-6741
dasiw	-6742
dingɛ	-6743
yɔngɔ	-6744
▁421.	-6745
▁8:17	-6746
▁aung	-6747
▁beta	-6748
▁dang	-6749
▁fasa	-6750
▁fɛnw	-6751
▁gran	-6752
▁idol	-6753
▁iken	-6754
▁jòni	-6755
▁kaci	-6756
▁kamp	-6757
▁lisa	-6758
▁muna	-6759
▁nabɔ	-6760
▁pele	-6761
▁slut	-6762
▁tiya	-6763
▁true	-6764
▁xɔrɔ	-6765
▁yint	-6766
bolila	-6767
yanfan	-6768
▁jigɛw	-6769
▁kaata	-6770
▁kafɔɔ	-6771
▁kalau	-6772
▁kinda	-6773
▁kojuu	-6774
▁mango	-6775
▁marie	-6776
▁nigga	-6777
▁nkanu	-6778
▁salam	-6779
▁sɔɔru	-6780
▁tilew	-6781
▁timan	-6782
▁wanns	-6783
▁yinwe	-6784
▁cèkòrò	-6785
▁dalili	-6786
▁donlon	-6787
▁faanin	-6788
▁fagako	-6789
▁kanŋga	-6790
▁kumala	-6791
▁lawuli	-6792
▁listen	-6793
▁lɔgɔma	-6794
▁nanwlɛ	-6795
▁secret	-6796
▁silisi	-6797
▁tenang	-6798
▁yɛlɛko	-6799
▁ɲagwan	-6800
▁aladali	-6801
▁because	-6802
▁bengali	-6803
▁donyɔrɔ	-6804
▁fikiran	-6805
▁friends	-6806
▁kolonma	-6807
▁kununli	-6808
▁kɔnɔman	-6809
▁lajɛnba	-6810
▁zanwiye	-6811
▁dibijugu	-6812
▁eburukan	-6813
▁fòlòfòlò	-6814
▁internet	-6815
▁kalantaw	-6816
▁kɔsegitɔ	-6817
▁paradise	-6818
▁sèbènnen	-6819
▁haminanko	-6820
▁tagaborow	-6821
▁tasumaman	-6822
▁yɔrɔɲuman	-6823
▁lafiɲɛyɔrɔ	-6824
▁marifakɛlɛ	-6825
▁kɛlɛkɛwotoro	-6826
▁aritasɛrisɛsi	-6827
▁mɔgɔtɔɔrɔkuma	-6828
▁ɔkutɔburukalo	-6829
▁jamanakuntigiya	-6830
mê	-6831
”.	-6832
ced	-6833
cho	-6834
gnè	-6835
iii	-6836
ino	-6837
led	-6838
ley	-6839
lum	-6840
qué	-6841
tal	-6842
wee	-6843
èce	-6844
▁3"	-6845
▁bt	-6846
ahah	-6847
hɔɔn	-6848
liba	-6849
rimɔ	-6850
rusi	-6851
waan	-6852
ɲaga	-6853
▁28-	-6854
▁akɛ	-6855
▁buy	-6856
▁bũu	-6857
▁kot	-6858
▁oro	-6859
▁ren	-6860
▁tho	-6861
:1616	-6862
enten	-6863
yɔgɔn	-6864
▁boni	-6865
▁fami	-6866
▁fiɲɛ	-6867
▁gɔro	-6868
▁hani	-6869
▁impo	-6870
▁laye	-6871
▁muda	-6872
▁sans	-6873
▁todo	-6874
▁toho	-6875
▁tuen	-6876
▁tɛtɛ	-6877
▁zene	-6878
▁arajo	-6879
▁datum	-6880
▁gigun	-6881
▁janin	-6882
▁kaɲan	-6883
▁loner	-6884
▁mansa	-6885
▁puisi	-6886
▁saint	-6887
▁sufuɛ	-6888
▁yoman	-6889
baanciw	-6890
bèètigi	-6891
zonatan	-6892
▁biisit	-6893
▁dɔɔ̄nu	-6894
▁jatera	-6895
▁kafila	-6896
▁koɲuma	-6897
▁maraka	-6898
▁niièce	-6899
▁yĩsiru	-6900
▁ɲɔtiɲɔ	-6901
▁ɲɛfɔli	-6902
hɔɔnnnnn	-6903
▁alasira	-6904
▁betanga	-6905
▁dànkari	-6906
▁dònniya	-6907
▁furulon	-6908
▁kelenya	-6909
karamɔgɔw	-6910
▁duration	-6911
▁kaamyabi	-6912
▁kɔsegiko	-6913
▁mɔgɔsɔbɛ	-6914
▁sinamuso	-6915
▁sɛbɛnnin	-6916
▁tɔnitɔni	-6917
▁imposible	-6918
▁melekenin	-6919
▁bànbaanciw	-6920
▁hakilijigi	-6921
▁tilenbaliw	-6922
▁yerusaleme	-6923
▁hakiritigiw	-6924
▁namaramɔgɔw	-6925
▁kɛlɛkuntigiw	-6926
▁lagwɛlikɛlaw	-6927
▁sebaayabèètigi	-6928
cè	-6929
fw	-6930
sk	-6931
sy	-6932
▁✓	-6933
:41	-6934
har	-6935
pen	-6936
ula	-6937
ɔrɑ	-6938
▁iṣ	-6939
▁sô	-6940
▁ɲu	-6941
dɛna	-6942
roba	-6943
seba	-6944
zɛri	-6945
▁(2)	-6946
▁30.	-6947
▁4:3	-6948
▁aap	-6949
▁aja	-6950
▁duw	-6951
▁ese	-6952
▁gaw	-6953
▁ibi	-6954
▁kao	-6955
▁kha	-6956
▁klɔ	-6957
▁klɛ	-6958
▁mɑn	-6959
▁nán	-6960
▁who	-6961
▁yèn	-6962
:3737	-6963
buruw	-6964
ɔgosi	-6965
▁2015	-6966
▁baje	-6967
▁fàso	-6968
▁gben	-6969
▁kake	-6970
▁koso	-6971
▁kôfè	-6972
▁kɔma	-6973
▁left	-6974
▁melo	-6975
▁mɛrɛ	-6976
▁samj	-6977
▁seni	-6978
▁sike	-6979
▁tera	-6980
▁tlan	-6981
▁waka	-6982
▁were	-6983
wajibi	-6984
▁doron	-6985
▁furaw	-6986
▁kakoo	-6987
▁laada	-6988
▁masuk	-6989
▁rokun	-6990
▁siini	-6991
▁tsuma	-6992
▁wango	-6993
▁ɛntɛr	-6994
sunguru	-6995
ɔrɔninw	-6996
▁1:2020	-6997
▁baibol	-6998
▁benlon	-6999
▁dibiba	-7000
▁gèrèla	-7001
▁kesian	-7002
▁matiyu	-7003
▁sumanw	-7004
▁sɔgosi	-7005
▁tantun	-7006
▁ɲènabò	-7007
solomani	-7008
▁bweseru	-7009
▁danfara	-7010
▁desizɔn	-7011
▁gbansan	-7012
▁kaburuw	-7013
▁kɔsieyo	-7014
▁telesar	-7015
▁waajibi	-7016
▁yinwege	-7017
entengolu	-7018
▁eligiera	-7019
▁lakɔliso	-7020
▁malobali	-7021
▁nintɔɔrɔ	-7022
▁zayirisi	-7023
▁demisɛnnin	-7024
▁faranfaran	-7025
▁gengenjiri	-7026
▁kanbelenya	-7027
▁mɔgɔɲumanw	-7028
▁dumunibabaw	-7029
▁korentengolu	-7030
7.	-7031
gé	-7032
ké	-7033
mò	-7034
ɣu	-7035
ṣi	-7036
ㄨㄣ	-7037
###	-7038
232	-7039
bla	-7040
iru	-7041
las	-7042
ooo	-7043
ous	-7044
tho	-7045
tou	-7046
von	-7047
zun	-7048
▁01	-7049
▁?"	-7050
▁bw	-7051
▁gò	-7052
▁mè	-7053
▁sk	-7054
▁ur	-7055
ento	-7056
filɛ	-7057
kaan	-7058
mira	-7059
nalo	-7060
sinw	-7061
stus	-7062
tura	-7063
ṣiṣe	-7064
▁air	-7065
▁amy	-7066
▁asu	-7067
▁bra	-7068
▁ero	-7069
▁iṣẹ	-7070
▁jua	-7071
▁knw	-7072
▁kyo	-7073
▁ler	-7074
▁leu	-7075
▁mee	-7076
▁mer	-7077
▁nxu	-7078
▁uri	-7079
▁way	-7080
▁yɔɔ	-7081
dilan	-7082
kunun	-7083
stine	-7084
yaala	-7085
ɔgoya	-7086
▁####	-7087
▁alam	-7088
▁anni	-7089
▁bela	-7090
▁betu	-7091
▁boom	-7092
▁daka	-7093
▁dalo	-7094
▁dinɛ	-7095
▁doun	-7096
▁duit	-7097
▁dɛrɛ	-7098
▁fenw	-7099
▁gili	-7100
▁king	-7101
▁kurɔ	-7102
▁kusu	-7103
▁kɔlɔ	-7104
▁lamp	-7105
▁lamɛ	-7106
▁madi	-7107
▁minu	-7108
▁mmla	-7109
▁nɛrɛ	-7110
▁panp	-7111
▁sìra	-7112
▁yang	-7113
▁yaya	-7114
kitani	-7115
tininw	-7116
ɲògònw	-7117
▁banke	-7118
▁heart	-7119
▁malam	-7120
▁matan	-7121
▁pèrèn	-7122
▁ɲasin	-7123
kixanŋo	-7124
ɲanagwɛ	-7125
▁kapala	-7126
▁konyaw	-7127
▁safelo	-7128
▁sagala	-7129
▁sesare	-7130
▁tannan	-7131
▁african	-7132
▁apolɔsi	-7133
▁danfɛnw	-7134
▁dubaden	-7135
▁samusɔn	-7136
▁waliman	-7137
▁lamasaba	-7138
▁lamɔcogo	-7139
▁masadugu	-7140
▁basiginin	-7141
▁hakɛkɛlaw	-7142
▁israɛlden	-7143
▁latenxanŋo	-7144
▁lɔnnikɛlaw	-7145
▁tinxinyaan	-7146
▁gerekixanŋo	-7147
▁heburuxanŋo	-7148
▁lamasabakitani	-7149
▁kɔlɔsilikɛbagaw	-7150
].	-7151
eu	-7152
▁ㄊ	-7153
-19	-7154
:43	-7155
aga	-7156
cas	-7157
hos	-7158
nee	-7159
▁09	-7160
▁lè	-7161
bede	-7162
diɲɛ	-7163
dɛmɛ	-7164
fasa	-7165
hero	-7166
kɛrɛ	-7167
makɔ	-7168
nini	-7169
puma	-7170
▁14"	-7171
▁25"	-7172
▁28"	-7173
▁abu	-7174
▁aro	-7175
▁hye	-7176
▁ito	-7177
▁kho	-7178
▁khu	-7179
▁mcm	-7180
▁nse	-7181
▁org	-7182
▁suā	-7183
▁uno	-7184
▁ㄊㄨㄣ	-7185
:1717	-7186
baasi	-7187
sɔnun	-7188
sɛnin	-7189
▁20..	-7190
▁3:18	-7191
▁afin	-7192
▁bòsi	-7193
▁gaba	-7194
▁indi	-7195
▁kidi	-7196
▁klan	-7197
▁kudh	-7198
▁kètò	-7199
▁lajî	-7200
▁moxo	-7201
▁saza	-7202
▁yewe	-7203
▁yɔgɔ	-7204
juguya	-7205
namaya	-7206
▁2021,	-7207
▁3:1-5	-7208
▁bagus	-7209
▁drawn	-7210
▁guvɛr	-7211
▁hunde	-7212
▁misɛn	-7213
▁nikan	-7214
▁safar	-7215
▁senfɛ	-7216
▁sogow	-7217
▁sɔnɔn	-7218
▁urata	-7219
tigɛlaw	-7220
▁barakɛ	-7221
▁espero	-7222
▁jɛnnin	-7223
▁kɛrɛfɛ	-7224
▁lokiyo	-7225
▁yiriwa	-7226
lɔnbaliw	-7227
▁jiɲuman	-7228
▁jɛmukan	-7229
▁karanna	-7230
▁lecture	-7231
▁tuguniâ	-7232
▁yiriden	-7233
▁denbayaw	-7234
▁dusudiya	-7235
▁kumajugu	-7236
▁kunnacɛn	-7237
▁panpanna	-7238
▁tagamana	-7239
▁jɛnsɛnnin	-7240
▁denmisɛnya	-7241
▁sunɔgɔbaliya	-7242
▁jamanakuntigi	-7243
29	-7244
bw	-7245
hn	-7246
lf	-7247
ue	-7248
ɲò	-7249
▁̇	-7250
alu	-7251
ima	-7252
way	-7253
yuu	-7254
ŋgi	-7255
▁'.	-7256
▁61	-7257
▁sã	-7258
2...	-7259
aaka	-7260
fɛri	-7261
gɛlɛ	-7262
pale	-7263
sado	-7264
sɛti	-7265
tɔgɔ	-7266
wazi	-7267
▁11"	-7268
▁1:4	-7269
▁51"	-7270
▁anj	-7271
▁any	-7272
▁ato	-7273
▁bli	-7274
▁dul	-7275
▁fra	-7276
▁gre	-7277
▁hao	-7278
▁hee	-7279
▁hom	-7280
▁iri	-7281
▁jis	-7282
▁nke	-7283
▁nzu	-7284
▁tla	-7285
▁una	-7286
▁van	-7287
▁yew	-7288
▁zai	-7289
:1515	-7290
mdaan	-7291
sanni	-7292
▁agoy	-7293
▁fans	-7294
▁isia	-7295
▁jran	-7296
▁kafi	-7297
▁kaha	-7298
▁kiin	-7299
▁lɔxɔ	-7300
▁mìgi	-7301
▁news	-7302
▁niɔn	-7303
▁njee	-7304
▁poto	-7305
▁puse	-7306
▁sayi	-7307
▁sìgi	-7308
▁tien	-7309
▁unbe	-7310
▁vida	-7311
▁zizi	-7312
▁òkan	-7313
dirasi	-7314
ɔgɔnin	-7315
▁amiga	-7316
▁daloa	-7317
▁edoba	-7318
▁franç	-7319
▁gbèrè	-7320
▁hindu	-7321
▁kahan	-7322
▁kalen	-7323
▁kirgi	-7324
▁lebih	-7325
▁maari	-7326
▁moins	-7327
▁nyɛla	-7328
▁pongo	-7329
▁saadi	-7330
▁secon	-7331
▁sibon	-7332
▁singa	-7333
▁sinni	-7334
▁tagad	-7335
▁yahoo	-7336
▁yalan	-7337
naloman	-7338
▁asɔnun	-7339
▁bàmakɔ	-7340
▁cɛsiri	-7341
▁dajala	-7342
▁dundun	-7343
▁fununa	-7344
▁kalata	-7345
▁lakari	-7346
▁ngɔ̀lɔ	-7347
▁numuya	-7348
▁siratu	-7349
kɛbaliya	-7350
▁daalila	-7351
▁iburama	-7352
▁kalaman	-7353
▁kasinin	-7354
▁ninjago	-7355
▁sɔnnzɔn	-7356
▁wuleman	-7357
▁bagabaga	-7358
▁bɔgɔdaga	-7359
▁daalikan	-7360
▁dankaden	-7361
▁dugumɔgɔ	-7362
▁dɛmɛdɛmɛ	-7363
▁maloyako	-7364
▁musomani	-7365
▁nimanfɛn	-7366
▁baaramuso	-7367
▁cèkòròbaw	-7368
▁dafɛduguw	-7369
▁siraɲuman	-7370
▁telesarse	-7371
▁kɛlɛkɛyɔrɔ	-7372
▁yaalayaala	-7373
▁bibulukalan	-7374
▁domunkɛbaliya	-7375
ik	-7376
lê	-7377
ël	-7378
▁â	-7379
!,"	-7380
.'*	-7381
bel	-7382
ham	-7383
kɛ̄	-7384
lẹ́	-7385
nun	-7386
oon	-7387
rar	-7388
tre	-7389
ọkò	-7390
▁bî	-7391
▁nì	-7392
:30-	-7393
bian	-7394
gger	-7395
kanw	-7396
mane	-7397
oman	-7398
rant	-7399
tòmò	-7400
wolo	-7401
ọkẹ́	-7402
▁11-	-7403
▁1:5	-7404
▁21"	-7405
▁bed	-7406
▁blɛ	-7407
▁buu	-7408
▁dai	-7409
▁dau	-7410
▁flè	-7411
▁gay	-7412
▁ger	-7413
▁gòf	-7414
▁ire	-7415
▁kɑm	-7416
▁lôn	-7417
▁mah	-7418
▁mmu	-7419
▁noh	-7420
▁seo	-7421
▁sla	-7422
▁soe	-7423
▁yun	-7424
▁zab	-7425
▁ọkò	-7426
walew	-7427
▁2016	-7428
▁aran	-7429
▁gɛri	-7430
▁holo	-7431
▁khun	-7432
▁kite	-7433
▁kona	-7434
▁kong	-7435
▁kumi	-7436
▁lɔko	-7437
▁makɔ	-7438
▁mika	-7439
▁ngba	-7440
▁saul	-7441
▁twun	-7442
▁tɔgɛ	-7443
▁tɔɔ̄	-7444
▁vidé	-7445
▁wiin	-7446
▁ɲina	-7447
israël	-7448
yazari	-7449
▁15:20	-7450
▁anita	-7451
▁anugu	-7452
▁arabu	-7453
▁baaro	-7454
▁badaa	-7455
▁burun	-7456
▁degun	-7457
▁doniw	-7458
▁doocɛ	-7459
▁kiika	-7460
▁kleli	-7461
▁kunfɔ	-7462
▁kɔɔri	-7463
▁peter	-7464
▁sɔ̀rɔ	-7465
▁xɔlɔn	-7466
èrènèrè	-7467
ọkẹ́lẹ́	-7468
▁artist	-7469
▁baloyi	-7470
▁baraji	-7471
▁barokɛ	-7472
▁bayɛlɛ	-7473
▁dabaya	-7474
▁halagi	-7475
▁joyful	-7476
▁kɛlɛla	-7477
▁lokuma	-7478
▁lonely	-7479
▁nkaaka	-7480
▁tɔgɔla	-7481
▁zebede	-7482
▁zoroba	-7483
fɔɲɔbana	-7484
▁adamadi	-7485
▁ciraden	-7486
▁cɛmanin	-7487
▁dɛndɛna	-7488
▁florida	-7489
▁kurunba	-7490
▁lamɛnna	-7491
▁missing	-7492
▁nyagari	-7493
▁sigilan	-7494
▁ɲèsiran	-7495
palestine	-7496
▁dɔ̀nkili	-7497
▁kòròbòli	-7498
▁kɔnɔbara	-7499
▁lawodise	-7500
▁mugucili	-7501
▁ninakili	-7502
▁terimanw	-7503
▁tiyatiri	-7504
▁wolotuma	-7505
▁abigayɛli	-7506
▁ayọkẹ́lẹ́	-7507
▁gòfèrènèrè	-7508
▁kongowuluw	-7509
▁sɔnnzɔnfuɛ	-7510
▁zenezarɛti	-7511
▁zorobabɛli	-7512
▁ɛntɛrɛnɛti	-7513
▁kunfɔɲɔgɔnw	-7514
▁sankolotigi	-7515
▁ninsɔndiyanin	-7516
▁sagadɛndɛbagaw	-7517
&#	-7518
,›	-7519
2,	-7520
;"	-7521
ño	-7522
ży	-7523
חת	-7524
▁ת	-7525
ami	-7526
cri	-7527
ebe	-7528
gbe	-7529
gbɔ	-7530
gia	-7531
lou	-7532
yèn	-7533
ziw	-7534
̃ru	-7535
▁nā	-7536
▁og	-7537
bɔra	-7538
dibi	-7539
iyam	-7540
kjan	-7541
kɔgɔ	-7542
mɛnɛ	-7543
ndan	-7544
nice	-7545
ouen	-7546
sanu	-7547
siti	-7548
teko	-7549
teya	-7550
tiba	-7551
tuen	-7552
umaw	-7553
▁15"	-7554
▁="6	-7555
▁des	-7556
▁ebe	-7557
▁lao	-7558
▁oto	-7559
▁sua	-7560
▁yɔ̃	-7561
▁ɓɛɛ	-7562
▁תחת	-7563
boliw	-7564
ciden	-7565
lieva	-7566
mancɛ	-7567
nisɔn	-7568
raɛli	-7569
tunin	-7570
ŋgban	-7571
▁atin	-7572
▁broo	-7573
▁burɔ	-7574
▁dark	-7575
▁drży	-7576
▁gaya	-7577
▁gitu	-7578
▁golo	-7579
▁itiw	-7580
▁jack	-7581
▁jumɛ	-7582
▁kebɛ	-7583
▁konɔ	-7584
▁lali	-7585
▁looo	-7586
▁lɛɛw	-7587
▁mian	-7588
▁mènè	-7589
▁nôgô	-7590
▁nɔfɛ	-7591
▁nɔma	-7592
▁real	-7593
▁suke	-7594
▁taun	-7595
▁zang	-7596
▁zese	-7597
▁ɲrɛn	-7598
▁ɲɛrɛ	-7599
buyɔrɔ	-7600
liyati	-7601
mariya	-7602
▁2....	-7603
▁azuma	-7604
▁bagaw	-7605
▁bhool	-7606
▁bũuwɑ	-7607
▁denin	-7608
▁devon	-7609
▁hazar	-7610
▁jaraw	-7611
▁kaala	-7612
▁kanga	-7613
▁kuyaw	-7614
▁lɛnpo	-7615
▁masen	-7616
▁multi	-7617
▁nuhan	-7618
▁nyuan	-7619
▁saaba	-7620
▁sanka	-7621
▁sulen	-7622
▁title	-7623
▁vidéo	-7624
▁abijan	-7625
▁abkjan	-7626
▁afriki	-7627
▁bowazi	-7628
▁cɛkɔrɔ	-7629
▁dɔgɔkɛ	-7630
▁ekɛɛrɛ	-7631
▁filige	-7632
▁flancɛ	-7633
▁meleke	-7634
▁mougan	-7635
▁sinnin	-7636
▁tiɲɛni	-7637
▁tumara	-7638
lievable	-7639
▁agustus	-7640
▁bambara	-7641
▁dugulen	-7642
▁izraɛli	-7643
▁kafenin	-7644
▁sanmuru	-7645
▁dariyusi	-7646
▁jɛnsɛnna	-7647
▁kookoosu	-7648
▁lamɛntaw	-7649
▁tchaaman	-7650
▁wolomani	-7651
▁ɲènatòmò	-7652
▁bɛnbaliya	-7653
▁gwanniman	-7654
▁kookoowoo	-7655
▁makaritɔw	-7656
▁mɔgɔkolon	-7657
▁nyanamini	-7658
▁ɛsidirasi	-7659
▁dabayatigi	-7660
▁kɔrɔbayara	-7661
▁babilɔnikaw	-7662
▁jalakibagaw	-7663
▁kanbelentuma	-7664
▁unbelievable	-7665
▁kɛrɛnkɛrɛnnin	-7666
2:	-7667
:-	-7668
fé	-7669
mé	-7670
న్	-7671
awa	-7672
dén	-7673
fɔn	-7674
jin	-7675
ket	-7676
luu	-7677
mie	-7678
muw	-7679
pun	-7680
wow	-7681
wɑɑ	-7682
ŋɔn	-7683
ɔre	-7684
▁63	-7685
▁9-	-7686
▁90	-7687
▁km	-7688
▁ln	-7689
▁né	-7690
▁uh	-7691
dila	-7692
fenw	-7693
môgô	-7694
ryku	-7695
teli	-7696
▁300	-7697
▁57"	-7698
▁ebo	-7699
▁lot	-7700
▁owò	-7701
▁ski	-7702
▁spi	-7703
▁sty	-7704
▁sus	-7705
▁wor	-7706
▁yaw	-7707
▁zha	-7708
deyɔn	-7709
kɛfɛn	-7710
sungu	-7711
ugnan	-7712
yiriw	-7713
▁'...	-7714
▁3.14	-7715
▁bleh	-7716
▁chan	-7717
▁fere	-7718
▁firi	-7719
▁geru	-7720
▁jaga	-7721
▁kamu	-7722
▁knee	-7723
▁kyaw	-7724
▁link	-7725
▁mann	-7726
▁mela	-7727
▁ning	-7728
▁niɛn	-7729
▁paga	-7730
▁pana	-7731
▁pepe	-7732
▁pier	-7733
▁satɔ	-7734
▁siki	-7735
▁sɔmi	-7736
▁tako	-7737
▁tons	-7738
▁wien	-7739
▁yina	-7740
▁yomi	-7741
▁ɲoŋo	-7742
......	-7743
minɛna	-7744
talita	-7745
zabɛli	-7746
▁16:46	-7747
▁alogo	-7748
▁amɔsi	-7749
▁anjam	-7750
▁atali	-7751
▁bènna	-7752
▁cɛnlɛ	-7753
▁goman	-7754
▁kaanw	-7755
▁kaban	-7756
▁kebɛk	-7757
▁kekle	-7758
▁lucas	-7759
▁sabre	-7760
▁saŋga	-7761
▁suici	-7762
▁tuntu	-7763
▁bɔnɔna	-7764
▁hamiko	-7765
▁kanamɔ	-7766
▁kununa	-7767
▁kɛbaga	-7768
▁labɔla	-7769
▁milili	-7770
▁nkalon	-7771
▁nununw	-7772
▁pilate	-7773
▁rasɛli	-7774
▁saints	-7775
▁sukaro	-7776
▁zuditi	-7777
▁zɛfite	-7778
minɛbaga	-7779
▁diinanw	-7780
▁fasokan	-7781
▁hakilin	-7782
▁kumaden	-7783
▁makolon	-7784
▁ɲinikan	-7785
▁ɲrɛnnɛn	-7786
kunbɛnnan	-7787
▁balimake	-7788
▁banajugu	-7789
▁bananenw	-7790
▁faantanw	-7791
▁funubali	-7792
▁kiritigè	-7793
▁kukuryku	-7794
▁politiki	-7795
▁sigicogo	-7796
▁xɔrɔyaan	-7797
sungurunin	-7798
▁datugunin	-7799
▁eleyazari	-7800
▁kininbolo	-7801
▁ɲanamanya	-7802
▁lamɛnbagaw	-7803
yɛrɛminɛbaga	-7804
▁kɔniyabagaw	-7805
▁masafugulan	-7806
▁denmisɛnninw	-7807
▁ɲasiranbagaw	-7808
▁farikoloɲanagwɛ	-7809
0;	-7810
::	-7811
ao	-7812
dd	-7813
ia	-7814
if	-7815
ks	-7816
pp	-7817
xx	-7818
▁¡	-7819
▁ç	-7820
:99	-7821
bɔɔ	-7822
nie	-7823
org	-7824
say	-7825
▁#1	-7826
▁il	-7827
▁ir	-7828
▁jé	-7829
▁sī	-7830
bɛɛn	-7831
gosi	-7832
leke	-7833
mere	-7834
ramu	-7835
runi	-7836
tari	-7837
tise	-7838
yane	-7839
yani	-7840
yesu	-7841
▁080	-7842
▁2"*	-7843
▁egi	-7844
▁eyh	-7845
▁jɔ̀	-7846
▁koj	-7847
▁kol	-7848
▁mau	-7849
▁ngo	-7850
▁sac	-7851
▁til	-7852
▁ɲɛn	-7853
bsage	-7854
▁8:29	-7855
▁anan	-7856
▁ciiw	-7857
▁doko	-7858
▁espa	-7859
▁gasi	-7860
▁inge	-7861
▁jaka	-7862
▁kasu	-7863
▁keya	-7864
▁kiko	-7865
▁kɔmɔ	-7866
▁mìla	-7867
▁niko	-7868
▁pada	-7869
▁paki	-7870
▁part	-7871
▁piɛɛ	-7872
▁sake	-7873
▁sinɑ	-7874
▁teyi	-7875
▁unbo	-7876
▁yaan	-7877
lation	-7878
maninw	-7879
marita	-7880
reyɛli	-7881
rienta	-7882
tagara	-7883
yɛricɛ	-7884
ɲagami	-7885
ɲɔgɔmɛ	-7886
▁17-18	-7887
▁aalam	-7888
▁adult	-7889
▁alain	-7890
▁baana	-7891
▁blogs	-7892
▁bobow	-7893
▁cɛnin	-7894
▁desan	-7895
▁dulon	-7896
▁fansi	-7897
▁karna	-7898
▁kɔɲɔn	-7899
▁lamin	-7900
▁lonni	-7901
▁lucky	-7902
▁meeno	-7903
▁minta	-7904
▁resto	-7905
▁swana	-7906
▁teeru	-7907
▁tongo	-7908
▁yelen	-7909
siranya	-7910
▁banyak	-7911
▁basali	-7912
▁djigui	-7913
▁dugawu	-7914
▁enikan	-7915
▁kabana	-7916
▁kɔrɔya	-7917
▁kɔsɔbɛ	-7918
▁lajɛrɛ	-7919
▁modɛli	-7920
▁nabali	-7921
▁polisi	-7922
▁sɛbɛra	-7923
▁tagana	-7924
▁tiɲèni	-7925
▁tɛgɛrɛ	-7926
▁ɲɛmɔgɔ	-7927
▁080....	-7928
▁dònkili	-7929
▁kɔngɔtɔ	-7930
▁lajigin	-7931
▁magazɛn	-7932
▁nankama	-7933
▁orienta	-7934
▁siyaman	-7935
▁tuntube	-7936
▁asirikaw	-7937
▁eligible	-7938
▁goliyati	-7939
▁jalakili	-7940
▁kanbelew	-7941
▁katoliki	-7942
▁kɔgɔjiba	-7943
▁munumunu	-7944
▁nɛrɛmugu	-7945
▁ordinary	-7946
▁parapara	-7947
▁tayɛricɛ	-7948
▁tɛmɛninw	-7949
▁zezabɛli	-7950
▁ɲɛminɛna	-7951
▁banabaatò	-7952
▁kɔɲɔnmuso	-7953
▁mboobsage	-7954
▁jigibagatɔ	-7955
▁zizireyɛli	-7956
▁mɔgɔfagalaw	-7957
▁religieuses	-7958
▁nigɛkunbɛnnan	-7959
▁sigiɲɔgɔnmanw	-7960
),	-7961
ŋe	-7962
†.	-7963
."]	-7964
:40	-7965
azu	-7966
fer	-7967
fiw	-7968
fɛɛ	-7969
hat	-7970
moo	-7971
som	-7972
ŋgu	-7973
▁(:	-7974
▁9"	-7975
▁ôn	-7976
amun	-7977
ason	-7978
bout	-7979
ille	-7980
kafo	-7981
mang	-7982
post	-7983
rang	-7984
rinɛ	-7985
rɛna	-7986
wien	-7987
ɛɛgɛ	-7988
▁18+	-7989
▁dek	-7990
▁duk	-7991
▁ekɔ	-7992
▁eta	-7993
▁evi	-7994
▁gou	-7995
▁guy	-7996
▁jɛ̀	-7997
▁kaɲ	-7998
▁kul	-7999
▁laf	-8000
▁lei	-8001
▁mac	-8002
▁maj	-8003
▁maŋ	-8004
▁moi	-8005
▁muu	-8006
▁shu	-8007
▁tèn	-8008
▁www	-8009
▁yah	-8010
▁zee	-8011
▁zui	-8012
:2020	-8013
banin	-8014
bario	-8015
faamu	-8016
maloo	-8017
munin	-8018
nuhun	-8019
ranin	-8020
▁100%	-8021
▁1:24	-8022
▁aban	-8023
▁ande	-8024
▁anim	-8025
▁band	-8026
▁bese	-8027
▁blom	-8028
▁dabe	-8029
▁dana	-8030
▁davi	-8031
▁duma	-8032
▁fada	-8033
▁fanw	-8034
▁fatɔ	-8035
▁giin	-8036
▁gira	-8037
▁juli	-8038
▁jyɛn	-8039
▁kapa	-8040
▁kaze	-8041
▁modo	-8042
▁niyi	-8043
▁plan	-8044
▁pɔlu	-8045
▁sebe	-8046
▁suki	-8047
▁tata	-8048
▁wati	-8049
▁ɲaji	-8050
kèlaba	-8051
lotigi	-8052
▁3:11"	-8053
▁akili	-8054
▁dinxe	-8055
▁koong	-8056
▁mudan	-8057
▁salen	-8058
▁silen	-8059
▁simlu	-8060
▁style	-8061
▁suunu	-8062
▁sònna	-8063
▁tenbi	-8064
▁tiguè	-8065
▁yasua	-8066
reniyam	-8067
▁baarak	-8068
▁coffee	-8069
▁darabɔ	-8070
▁insaan	-8071
▁jɔnjɔn	-8072
▁kemana	-8073
▁kosson	-8074
▁lathos	-8075
▁makoɲa	-8076
▁nombre	-8077
▁tunŋgo	-8078
▁weleli	-8079
▁wiengu	-8080
▁wurira	-8081
lɔnbagaw	-8082
▁djougou	-8083
▁doomuso	-8084
▁fitinin	-8085
▁fufafuw	-8086
▁gɛrisɔn	-8087
▁jiginin	-8088
▁kamilan	-8089
▁kulekan	-8090
▁lakunun	-8091
▁minɛnna	-8092
▁nkateko	-8093
▁perrine	-8094
▁sɔngɔra	-8095
▁unbosom	-8096
▁yinriwɛ	-8097
▁ŋgbanga	-8098
▁galileka	-8099
▁latagara	-8100
▁loobario	-8101
▁magamaga	-8102
▁sabatira	-8103
▁sabremos	-8104
▁sankabaw	-8105
▁bangebaaw	-8106
▁gèlèyalen	-8107
▁musokolon	-8108
▁yiritunin	-8109
▁antiyokusi	-8110
▁guvɛrinama	-8111
▁izraɛlifuɛ	-8112
▁kodogoninw	-8113
▁nafalotigi	-8114
▁ɲinikanliw	-8115
▁kapereniyam	-8116
▁gwengwenlɔgɔ	-8117
▁jurumukèlaba	-8118
▁dusukasidɔnkili	-8119
38	-8120
ey	-8121
fê	-8122
lm	-8123
rê	-8124
rì	-8125
▁©	-8126
3">	-8127
are	-8128
ati	-8129
dja	-8130
dut	-8131
fia	-8132
gor	-8133
kou	-8134
rne	-8135
tam	-8136
tel	-8137
zen	-8138
zoo	-8139
zɛ͂	-8140
òni	-8141
ɲɛw	-8142
▁=)	-8143
▁dà	-8144
▁ŋg	-8145
▁ŋu	-8146
▁ɛɛ	-8147
dɔrɔ	-8148
gani	-8149
gɛri	-8150
llow	-8151
luka	-8152
runa	-8153
tagi	-8154
tɛna	-8155
ulou	-8156
xɔni	-8157
ôngô	-8158
▁13-	-8159
▁130	-8160
▁16"	-8161
▁20.	-8162
▁40-	-8163
▁9:5	-8164
▁abé	-8165
▁bou	-8166
▁bum	-8167
▁chu	-8168
▁dje	-8169
▁fén	-8170
▁ipa	-8171
▁jax	-8172
▁kpu	-8173
▁maw	-8174
▁nas	-8175
▁pos	-8176
▁pra	-8177
▁shɛ	-8178
▁spe	-8179
▁sɛ̀	-8180
▁toy	-8181
▁tɛ̄	-8182
▁usi	-8183
lɔnin	-8184
lɛkiw	-8185
ussou	-8186
yuman	-8187
ɔgɛnu	-8188
ɛtiri	-8189
▁akun	-8190
▁alaa	-8191
▁alah	-8192
▁amor	-8193
▁anzi	-8194
▁asiɛ	-8195
▁baju	-8196
▁bula	-8197
▁bɔxɔ	-8198
▁daje	-8199
▁deke	-8200
▁demo	-8201
▁fènw	-8202
▁gɔni	-8203
▁haha	-8204
▁jida	-8205
▁juda	-8206
▁jɔni	-8207
▁komo	-8208
▁kori	-8209
▁kosa	-8210
▁kota	-8211
▁kògò	-8212
▁kòɲò	-8213
▁kɔɔn	-8214
▁live	-8215
▁mano	-8216
▁mban	-8217
▁meng	-8218
▁nose	-8219
▁nyɔɔ	-8220
▁oooo	-8221
▁reyo	-8222
▁saca	-8223
▁skin	-8224
▁suzi	-8225
▁sɔni	-8226
▁this	-8227
▁tuli	-8228
▁tuên	-8229
▁tɛɛn	-8230
▁wole	-8231
▁yɔni	-8232
jamaba	-8233
kakala	-8234
kɔrɔsi	-8235
sayida	-8236
▁avion	-8237
▁enɔki	-8238
▁esawu	-8239
▁feene	-8240
▁kalam	-8241
▁masak	-8242
▁naanɛ	-8243
▁needa	-8244
▁queen	-8245
▁saara	-8246
▁sanla	-8247
▁sonna	-8248
▁torow	-8249
▁wanta	-8250
▁4:1313	-8251
▁anyway	-8252
▁barako	-8253
▁binyen	-8254
▁dɔɔ̄na	-8255
▁edɔmuw	-8256
▁fɔɲɔba	-8257
▁jigila	-8258
▁jɛkulu	-8259
▁kankan	-8260
▁koniya	-8261
▁kosobɛ	-8262
▁lɔcogo	-8263
▁makiri	-8264
▁meniru	-8265
▁nounou	-8266
▁nɔgoya	-8267
▁tufano	-8268
▁united	-8269
dusukasi	-8270
lakɔliso	-8271
sɔlidasi	-8272
tiriyusi	-8273
▁cɛnsaga	-8274
▁diminya	-8275
▁gwiliya	-8276
▁kampung	-8277
▁magazɛ͂	-8278
▁nɔgɔman	-8279
▁probaba	-8280
▁yiifari	-8281
▁bolokoli	-8282
▁dumuniko	-8283
▁giligali	-8284
▁mankanba	-8285
▁mɔgɔmuru	-8286
▁national	-8287
▁restobar	-8288
▁sensible	-8289
▁wolobali	-8290
▁zozafati	-8291
▁dɔnkɛyɔrɔ	-8292
▁faamadugu	-8293
▁hakilitan	-8294
▁jerusalem	-8295
▁kɔrɔcɛilu	-8296
▁kɔsegilon	-8297
▁yɛrɛtanga	-8298
▁ɲiningana	-8299
▁denmisènya	-8300
▁naforotigi	-8301
▁ɲɔtiɲɔtira	-8302
▁denmisɛnniw	-8303
▁siradenninw	-8304
▁balimakolonw	-8305
▁tilantilanna	-8306
gk	-8307
lẹ	-8308
ưn	-8309
ನ್	-8310
212	-8311
fla	-8312
gas	-8313
koa	-8314
lla	-8315
pou	-8316
ral	-8317
tuu	-8318
ulu	-8319
ɑmɑ	-8320
▁>>	-8321
▁ae	-8322
▁dĩ	-8323
▁qe	-8324
▁tö	-8325
alth	-8326
dadi	-8327
delu	-8328
dine	-8329
kiko	-8330
koro	-8331
levi	-8332
lled	-8333
lɔla	-8334
ment	-8335
mila	-8336
muri	-8337
oooo	-8338
stfu	-8339
èlèn	-8340
▁(10	-8341
▁[13	-8342
▁amɛ	-8343
▁bah	-8344
▁ber	-8345
▁btw	-8346
▁bud	-8347
▁bwa	-8348
▁bɔk	-8349
▁doh	-8350
▁fie	-8351
▁gla	-8352
▁ige	-8353
▁int	-8354
▁iun	-8355
▁kaj	-8356
▁kpi	-8357
▁maz	-8358
▁mit	-8359
▁mɛm	-8360
▁nfo	-8361
▁niw	-8362
▁niŋ	-8363
▁owo	-8364
▁thr	-8365
▁wlɛ	-8366
▁wèe	-8367
▁wɔ̃	-8368
efara	-8369
lẹyin	-8370
ssary	-8371
tilen	-8372
unggu	-8373
▁10:6	-8374
▁3:10	-8375
▁andɛ	-8376
▁anka	-8377
▁arin	-8378
▁aten	-8379
▁bhoo	-8380
▁bilo	-8381
▁bong	-8382
▁bɔla	-8383
▁char	-8384
▁colo	-8385
▁curu	-8386
▁durɔ	-8387
▁dôrô	-8388
▁gbɛr	-8389
▁ihcm	-8390
▁kaɲa	-8391
▁keni	-8392
▁kɛzi	-8393
▁park	-8394
▁roof	-8395
▁sath	-8396
▁song	-8397
▁toum	-8398
▁tous	-8399
▁trou	-8400
▁wɔri	-8401
▁yalɛ	-8402
▁yuda	-8403
▁ɲaha	-8404
abramu	-8405
baraga	-8406
diyadi	-8407
mafara	-8408
tetiba	-8409
▁2020,	-8410
▁adres	-8411
▁andut	-8412
▁anime	-8413
▁biran	-8414
▁bonba	-8415
▁bɔxɔn	-8416
▁djama	-8417
▁dusug	-8418
▁fooli	-8419
▁fàkan	-8420
▁hamid	-8421
▁jalan	-8422
▁jɛman	-8423
▁kahin	-8424
▁kamiw	-8425
▁kanka	-8426
▁kasoo	-8427
▁kɔnkɔ	-8428
▁labaa	-8429
▁makun	-8430
▁monya	-8431
▁mɛɛri	-8432
▁nahin	-8433
▁nɔnsi	-8434
▁nɔnɔn	-8435
▁pierè	-8436
▁puŋgo	-8437
▁sègin	-8438
▁tigui	-8439
▁tiine	-8440
▁tijen	-8441
▁tumoo	-8442
▁urban	-8443
▁welen	-8444
▁xaran	-8445
▁yiisa	-8446
▁ɲɛgɛn	-8447
simeyɔn	-8448
▁bepuma	-8449
▁guyane	-8450
▁kamana	-8451
▁keyità	-8452
▁kristo	-8453
▁kuluba	-8454
▁mangan	-8455
▁nafènw	-8456
▁sandji	-8457
▁semana	-8458
▁sereya	-8459
▁sigida	-8460
▁sougou	-8461
▁sɛbɛli	-8462
▁zestfu	-8463
▁ɲɛrɛna	-8464
mariyamu	-8465
▁28:1818	-8466
▁bwesenu	-8467
▁danyɔrɔ	-8468
▁donsoya	-8469
▁efarati	-8470
▁falatɔw	-8471
▁gɔrobun	-8472
▁laakari	-8473
▁leilaye	-8474
▁naxanye	-8475
▁seconds	-8476
▁tilanna	-8477
▁tɛmɛnɛn	-8478
▁weekend	-8479
▁ɲènamaw	-8480
efarayimu	-8481
nisɔndiya	-8482
▁atilẹyin	-8483
▁fagalenw	-8484
▁farisièn	-8485
▁jurusara	-8486
▁jyɛnkɛlɛ	-8487
▁kanuninw	-8488
▁menunggu	-8489
▁musokɔnɔ	-8490
▁nɔgɔyara	-8491
▁sanpɛrɛn	-8492
▁terimuso	-8493
▁wuladafɛ	-8494
▁yahudiya	-8495
ezipitikaw	-8496
▁kagbaraga	-8497
▁necessary	-8498
▁waleɲuman	-8499
▁salibagatɔ	-8500
▁sɛgɛsɛgɛli	-8501
▁mandimininw	-8502
▁mɔgɔtɔɔrɔla	-8503
▁zanwiyekalo	-8504
▁dusukasikuma	-8505
▁alaɲasiranbaga	-8506
▁izirayɛlimɔgɔw	-8507
1-	-8508
55	-8509
8.	-8510
im	-8511
kê	-8512
là	-8513
▁😂	-8514
1">	-8515
2..	-8516
cik	-8517
cin	-8518
eee	-8519
for	-8520
gbè	-8521
gii	-8522
lua	-8523
rie	-8524
sid	-8525
uri	-8526
vuɛ	-8527
yɛɛ	-8528
ïke	-8529
ƴan	-8530
▁03	-8531
▁9.	-8532
▁bê	-8533
▁eb	-8534
▁rm	-8535
▁ña	-8536
dari	-8537
dege	-8538
duga	-8539
dɛsi	-8540
fmon	-8541
gben	-8542
geli	-8543
giya	-8544
joow	-8545
kôrô	-8546
lamɛ	-8547
lugu	-8548
mata	-8549
pore	-8550
sala	-8551
sion	-8552
teni	-8553
wala	-8554
yira	-8555
yiye	-8556
zain	-8557
ʃyɛn	-8558
▁14-	-8559
▁22"	-8560
▁8:5	-8561
▁así	-8562
▁bɔɔ	-8563
▁caa	-8564
▁dok	-8565
▁ear	-8566
▁gam	-8567
▁hum	-8568
▁mmi	-8569
▁myo	-8570
▁nua	-8571
▁nza	-8572
▁pai	-8573
▁ref	-8574
▁sgt	-8575
▁smi	-8576
▁wus	-8577
▁zun	-8578
:2727	-8579
badan	-8580
joona	-8581
ɑ̃ɑru	-8582
▁1:18	-8583
▁44"*	-8584
▁alba	-8585
▁bayi	-8586
▁bɔko	-8587
▁gawo	-8588
▁gɛlɛ	-8589
▁hawa	-8590
▁itsu	-8591
▁jinè	-8592
▁kalu	-8593
▁kang	-8594
▁kate	-8595
▁kuli	-8596
▁leme	-8597
▁leye	-8598
▁limi	-8599
▁nyan	-8600
▁nɔmu	-8601
▁pɛtɛ	-8602
▁raso	-8603
▁rumu	-8604
▁sing	-8605
▁toba	-8606
▁voto	-8607
▁zewu	-8608
▁zhao	-8609
▁ɲiin	-8610
delupe	-8611
fmonin	-8612
giripa	-8613
mɛtiri	-8614
pirini	-8615
tiɲèni	-8616
▁alema	-8617
▁alisa	-8618
▁balɔn	-8619
▁barra	-8620
▁bɔɲɛn	-8621
▁bɛrum	-8622
▁dangu	-8623
▁douno	-8624
▁faïke	-8625
▁ganha	-8626
▁gbili	-8627
▁hindi	-8628
▁jeene	-8629
▁kaƴan	-8630
▁kénlé	-8631
▁lonna	-8632
▁maanɛ	-8633
▁manga	-8634
▁miles	-8635
▁nayin	-8636
▁nfobi	-8637
▁nɔɔni	-8638
▁oyigi	-8639
▁panna	-8640
▁samma	-8641
▁sufrì	-8642
▁watch	-8643
▁yɛ̀rɛ	-8644
kɛyɔrɔw	-8645
teintum	-8646
ɲamɔgɔw	-8647
▁barisa	-8648
▁bonbon	-8649
▁dunman	-8650
▁fangan	-8651
▁kahani	-8652
▁kòròta	-8653
▁kɛwale	-8654
▁laadaw	-8655
▁lamhoo	-8656
▁malala	-8657
▁masiya	-8658
▁nɔnkɔn	-8659
▁sapnoo	-8660
▁ɲinini	-8661
daniyɛli	-8662
forotigi	-8663
▁famille	-8664
▁jurumuk	-8665
▁sumunin	-8666
▁talfoni	-8667
▁tuganin	-8668
▁tɔɔrɔba	-8669
mɔgɔjuguw	-8670
▁adressiw	-8671
▁balimaya	-8672
▁dugutaga	-8673
▁egilisiw	-8674
▁gbengben	-8675
▁gwɛlɛman	-8676
▁kalifara	-8677
▁kojugukɛ	-8678
▁kɔrɔsiri	-8679
▁kɛnɛyako	-8680
▁lamagara	-8681
▁latigɛra	-8682
▁masamuso	-8683
▁tɛ̄maloo	-8684
▁ɲasinnin	-8685
kakalamuso	-8686
▁asipirini	-8687
▁balimakèw	-8688
▁dùgumɔgɔw	-8689
▁ezipitika	-8690
▁gwadelupe	-8691
▁kongomisi	-8692
▁singapore	-8693
▁tɔnmɔkɔrɔ	-8694
▁kakalamuso	-8695
▁kititigɛla	-8696
▁laminimini	-8697
▁kunnafmonin	-8698
▁kunnatiɲèni	-8699
▁marifakɛlɛw	-8700
▁traductions	-8701
▁siranyakojugu	-8702
**	-8703
.!	-8704
0)	-8705
3)	-8706
32	-8707
36	-8708
gl	-8709
kp	-8710
sɑ	-8711
ߟߐ	-8712
▁←	-8713
3..	-8714
:39	-8715
aka	-8716
bah	-8717
béé	-8718
cti	-8719
dad	-8720
dar	-8721
ero	-8722
jer	-8723
laa	-8724
mpe	-8725
mɛɛ	-8726
rik	-8727
sɔɔ	-8728
vun	-8729
▁7"	-8730
▁87	-8731
▁gm	-8732
▁hl	-8733
▁kr	-8734
▁kí	-8735
▁lw	-8736
▁mô	-8737
▁rɑ	-8738
▁tn	-8739
:38]	-8740
bati	-8741
bisa	-8742
djou	-8743
dɛɛ̄	-8744
jòni	-8745
minu	-8746
nunu	-8747
reru	-8748
rupt	-8749
sini	-8750
volɛ	-8751
ziti	-8752
▁-20	-8753
▁1:7	-8754
▁2-3	-8755
▁40,	-8756
▁8.1	-8757
▁adi	-8758
▁bbw	-8759
▁dic	-8760
▁día	-8761
▁eke	-8762
▁gas	-8763
▁gbi	-8764
▁igo	-8765
▁kae	-8766
▁lgu	-8767
▁loe	-8768
▁loj	-8769
▁mɔŋ	-8770
▁oce	-8771
▁pud	-8772
▁siɛ	-8773
▁som	-8774
▁tié	-8775
▁tom	-8776
▁wat	-8777
▁yum	-8778
▁zer	-8779
baali	-8780
duuru	-8781
forow	-8782
linya	-8783
ngban	-8784
sonin	-8785
waasa	-8786
▁0002	-8787
▁1:15	-8788
▁1:17	-8789
▁6:10	-8790
▁abis	-8791
▁agya	-8792
▁amik	-8793
▁beni	-8794
▁biki	-8795
▁bugò	-8796
▁burɑ	-8797
▁bàro	-8798
▁bìla	-8799
▁bɛnn	-8800
▁ciin	-8801
▁dear	-8802
▁faxa	-8803
▁flow	-8804
▁hada	-8805
▁jian	-8806
▁jɛnɛ	-8807
▁kick	-8808
▁kiki	-8809
▁kɔji	-8810
▁kɛkɛ	-8811
▁lôni	-8812
▁mbaa	-8813
▁mwɛɛ	-8814
▁nima	-8815
▁nsii	-8816
▁nuku	-8817
▁over	-8818
▁paso	-8819
▁poan	-8820
▁polo	-8821
▁situ	-8822
▁stew	-8823
▁suna	-8824
▁swaa	-8825
▁tafô	-8826
▁taon	-8827
▁then	-8828
▁toxo	-8829
▁wasi	-8830
▁wolu	-8831
▁wura	-8832
▁ɲaɲa	-8833
olorun	-8834
sutana	-8835
▁2013:	-8836
▁adgee	-8837
▁azafu	-8838
▁baawu	-8839
▁broda	-8840
▁bukan	-8841
▁cifiw	-8842
▁djate	-8843
▁dondo	-8844
▁goyar	-8845
▁inafô	-8846
▁jɔnun	-8847
▁kiiti	-8848
▁linba	-8849
▁maxan	-8850
▁mokow	-8851
▁money	-8852
▁nandi	-8853
▁ozain	-8854
▁paran	-8855
▁plain	-8856
▁satan	-8857
▁sigin	-8858
▁stran	-8859
▁sīdee	-8860
▁tagat	-8861
▁tonyɛ	-8862
▁yaasa	-8863
▁yɑ̃nu	-8864
:43:38]	-8865
kumakan	-8866
kɛlɛden	-8867
lenninw	-8868
tionary	-8869
▁bannin	-8870
▁dhyaan	-8871
▁dɔgɔda	-8872
▁eburɔn	-8873
▁fɔrɔgɔ	-8874
▁gansan	-8875
▁health	-8876
▁kodiya	-8877
▁kuruwa	-8878
▁kècogo	-8879
▁kògòji	-8880
▁lagɛri	-8881
▁manusi	-8882
▁nɔrɔla	-8883
▁pilige	-8884
▁sagola	-8885
▁sayɔrɔ	-8886
▁sunman	-8887
▁sòròli	-8888
▁tɛrɛti	-8889
▁zɛtise	-8890
▁ɲɛnako	-8891
▁belinya	-8892
▁burukun	-8893
▁corrupt	-8894
▁cɛnbali	-8895
▁findima	-8896
▁kalooli	-8897
▁laadili	-8898
▁lesbian	-8899
▁lɔbaara	-8900
▁minɛnin	-8901
▁nsiirin	-8902
▁sirilen	-8903
▁suicide	-8904
▁sèbènna	-8905
▁sɛbɛnni	-8906
kulekanba	-8907
▁2012....	-8908
▁bilasira	-8909
▁hooligan	-8910
▁latigɛta	-8911
▁lecturer	-8912
▁marayɔrɔ	-8913
▁mayitama	-8914
▁sigituma	-8915
▁tiɲɛtigi	-8916
kannikɛlaw	-8917
▁dimininba	-8918
▁ezekiyɛli	-8919
▁kaninteya	-8920
▁lakɔliden	-8921
▁misirakaw	-8922
▁[13:43:38]	-8923
▁hakilisigi	-8924
▁hakilitanw	-8925
▁siranyafɛn	-8926
▁zɛtisemane	-8927
▁hakiliɲagami	-8928
▁sarakalasebaara	-8929
.*	-8930
.,	-8931
em	-8932
ih	-8933
lá	-8934
sô	-8935
¡¡	-8936
▁]	-8937
▁👀	-8938
ahh	-8939
ais	-8940
biɛ	-8941
bor	-8942
cua	-8943
dei	-8944
fri	-8945
kiw	-8946
kko	-8947
los	-8948
ope	-8949
sam	-8950
yɔɔ	-8951
▁ac	-8952
▁cm	-8953
▁jà	-8954
▁lg	-8955
▁np	-8956
▁sä	-8957
▁yↄ	-8958
aaad	-8959
bawo	-8960
bonw	-8961
bɔgɔ	-8962
duni	-8963
gièn	-8964
ilio	-8965
ingo	-8966
joob	-8967
masi	-8968
novo	-8969
rɛbu	-8970
wale	-8971
wele	-8972
wete	-8973
▁19*	-8974
▁27"	-8975
▁abm	-8976
▁afu	-8977
▁aha	-8978
▁año	-8979
▁did	-8980
▁ene	-8981
▁fle	-8982
▁gea	-8983
▁him	-8984
▁hua	-8985
▁kún	-8986
▁lik	-8987
▁mbɛ	-8988
▁omo	-8989
▁peh	-8990
▁yuv	-8991
▁zaw	-8992
1-222	-8993
:1212	-8994
:2828	-8995
inɛyi	-8996
kunŋo	-8997
▁1:10	-8998
▁1:37	-8999
▁5:14	-9000
▁banu	-9001
▁bete	-9002
▁bola	-9003
▁cema	-9004
▁dare	-9005
▁dayɛ	-9006
▁enki	-9007
▁gbɛɛ	-9008
▁hito	-9009
▁katu	-9010
▁kirɔ	-9011
▁kɛni	-9012
▁lawn	-9013
▁lela	-9014
▁maxi	-9015
▁meno	-9016
▁miya	-9017
▁mogô	-9018
▁nglo	-9019
▁niyo	-9020
▁nògò	-9021
▁nɲɔn	-9022
▁pere	-9023
▁seru	-9024
▁snoo	-9025
▁sosi	-9026
▁toon	-9027
▁tɛka	-9028
▁yaha	-9029
▁yani	-9030
aaadto	-9031
beleba	-9032
beriya	-9033
dougou	-9034
filipu	-9035
lafiɲɛ	-9036
sinŋge	-9037
▁01:00	-9038
▁amaro	-9039
▁baaba	-9040
▁bunny	-9041
▁datte	-9042
▁diara	-9043
▁djaté	-9044
▁dougo	-9045
▁durun	-9046
▁enjer	-9047
▁eviik	-9048
▁furan	-9049
▁grute	-9050
▁inten	-9051
▁isaka	-9052
▁karte	-9053
▁khwin	-9054
▁kɔsia	-9055
▁milli	-9056
▁sabou	-9057
▁sanko	-9058
▁sinxa	-9059
▁ségui	-9060
▁tryna	-9061
▁yeele	-9062
ciation	-9063
danboli	-9064
▁barred	-9065
▁damadɔ	-9066
▁domini	-9067
▁egilɔn	-9068
▁forget	-9069
▁fɔbaga	-9070
▁gabiri	-9071
▁kajoob	-9072
▁kojvun	-9073
▁lasiri	-9074
▁lesley	-9075
▁mafiɲɛ	-9076
▁marala	-9077
▁nɛgɛso	-9078
▁sitanɛ	-9079
▁suguru	-9080
▁viziti	-9081
▁yɛrɛma	-9082
▁ɲumaya	-9083
mɔgɔjugu	-9084
sabatigi	-9085
saramina	-9086
▁221-222	-9087
▁bukakke	-9088
▁bòɲògòn	-9089
▁duukolo	-9090
▁fantasy	-9091
▁hankili	-9092
▁klanman	-9093
▁korgièn	-9094
▁senegal	-9095
▁ɲɔgɔnna	-9096
▁demisɛnw	-9097
▁français	-9098
▁fɛntigiw	-9099
▁galibada	-9100
▁gwiliman	-9101
▁kikokiko	-9102
▁mazlumun	-9103
▁musodenw	-9104
▁nikanɔri	-9105
▁oktɔburu	-9106
▁uuaaadto	-9107
▁yatagara	-9108
▁ɲènasisi	-9109
▁baarajugu	-9110
▁jurumutòw	-9111
▁jusukunŋo	-9112
▁kpanngban	-9113
▁sagokɛlaw	-9114
▁tarikikow	-9115
▁belebeleba	-9116
▁dictionary	-9117
▁kuntilenna	-9118
▁ladegebaga	-9119
▁sariɲanxin	-9120
▁taamaɲɔgɔn	-9121
▁alalɔnbaliw	-9122
▁lɔnniyakuma	-9123
▁mɛlɛkɛɲuman	-9124
▁ninsaramina	-9125
benkannikɛlaw	-9126
▁jalasabatigi	-9127
▁kabakomayɔrɔ	-9128
▁mɔgɔfagadugu	-9129
▁kɛlɛkɛwotorow	-9130
▁olivuyirikulu	-9131
-8	-9132
_*	-9133
kò	-9134
lↄ	-9135
ot	-9136
pl	-9137
tv	-9138
ɡi	-9139
ɲo	-9140
:88	-9141
bri	-9142
doh	-9143
eti	-9144
fed	-9145
isa	-9146
kpi	-9147
lek	-9148
rro	-9149
ski	-9150
uld	-9151
èri	-9152
ɛsi	-9153
▁,"	-9154
▁1:	-9155
▁cɔ	-9156
▁mé	-9157
▁nd	-9158
▁ul	-9159
aman	-9160
dabu	-9161
dunu	-9162
lege	-9163
ling	-9164
lonw	-9165
poli	-9166
sani	-9167
sɔgɔ	-9168
wɔri	-9169
xoya	-9170
yisi	-9171
zarè	-9172
▁1:0	-9173
▁22-	-9174
▁230	-9175
▁34"	-9176
▁=3)	-9177
▁aah	-9178
▁aci	-9179
▁alɛ	-9180
▁ank	-9181
▁boh	-9182
▁bɑɑ	-9183
▁bɔr	-9184
▁egb	-9185
▁fik	-9186
▁fre	-9187
▁god	-9188
▁gɛ̀	-9189
▁ilo	-9190
▁kel	-9191
▁más	-9192
▁nla	-9193
▁nol	-9194
▁rut	-9195
▁sia	-9196
▁tim	-9197
▁tre	-9198
▁yer	-9199
▁ɛfi	-9200
▁ɛsu	-9201
▁̈la	-9202
:1919	-9203
baatɔ	-9204
basan	-9205
biyaw	-9206
gbɔgɔ	-9207
tɛɛni	-9208
vious	-9209
zanid	-9210
▁1974	-9211
▁1:13	-9212
▁2:10	-9213
▁akan	-9214
▁anta	-9215
▁bona	-9216
▁bôra	-9217
▁bɑkɑ	-9218
▁crew	-9219
▁dabɔ	-9220
▁dato	-9221
▁dead	-9222
▁duda	-9223
▁fɔko	-9224
▁hakè	-9225
▁hele	-9226
▁hola	-9227
▁jiya	-9228
▁jònw	-9229
▁kaar	-9230
▁kier	-9231
▁kike	-9232
▁kofe	-9233
▁kofi	-9234
▁kosã	-9235
▁kuŋo	-9236
▁kɑwɑ	-9237
▁lile	-9238
▁lily	-9239
▁loan	-9240
▁mizi	-9241
▁mɔmɔ	-9242
▁nogo	-9243
▁piya	-9244
▁pron	-9245
▁ques	-9246
▁raha	-9247
▁rose	-9248
▁saaw	-9249
▁sale	-9250
▁sata	-9251
▁soma	-9252
▁some	-9253
▁suit	-9254
▁sɔmɔ	-9255
▁vinɛ	-9256
▁waxa	-9257
▁yong	-9258
datugu	-9259
lɛgɛrɛ	-9260
urukko	-9261
ɲoxoya	-9262
▁13054	-9263
▁alice	-9264
▁asoko	-9265
▁atɛni	-9266
▁bugun	-9267
▁bɔɔrɔ	-9268
▁djugu	-9269
▁eagle	-9270
▁fanla	-9271
▁fiman	-9272
▁gbɛtɛ	-9273
▁hours	-9274
▁josow	-9275
▁karti	-9276
▁klɛli	-9277
▁kosan	-9278
▁kulun	-9279
▁loota	-9280
▁manan	-9281
▁mande	-9282
▁needs	-9283
▁ntelu	-9284
▁older	-9285
▁sange	-9286
▁sigir	-9287
▁sɔɔra	-9288
▁sɛnbɛ	-9289
▁tiɲan	-9290
▁tonge	-9291
▁tɔnun	-9292
▁xanma	-9293
▁xɔnna	-9294
▁yiŋgɔ	-9295
▁zuifu	-9296
jiginin	-9297
▁action	-9298
▁bankoo	-9299
▁bognan	-9300
▁bonico	-9301
▁dabali	-9302
▁deepin	-9303
▁dɛmɛli	-9304
▁falatɔ	-9305
▁filiko	-9306
▁hommie	-9307
▁jateli	-9308
▁jimini	-9309
▁jɔyɔrɔ	-9310
▁kamili	-9311
▁kisiko	-9312
▁kɛtuma	-9313
▁lojban	-9314
▁makali	-9315
▁maminɛ	-9316
▁misipa	-9317
▁moriya	-9318
▁nyinan	-9319
▁nyɛgɛn	-9320
▁samara	-9321
▁sarati	-9322
▁sutara	-9323
▁takami	-9324
▁tigɛko	-9325
▁ɛsukoa	-9326
gwangwan	-9327
karamògò	-9328
▁awovolɛ	-9329
▁binaani	-9330
▁dafalon	-9331
▁durunya	-9332
▁faliden	-9333
▁girinna	-9334
▁gnouman	-9335
▁intento	-9336
▁kàlanso	-9337
▁ladkiyo	-9338
▁latɛɛni	-9339
▁snoofed	-9340
▁sotigiw	-9341
▁tàbiyaw	-9342
kololailu	-9343
lafiɲɛlon	-9344
miralailu	-9345
▁barabasi	-9346
▁denninya	-9347
▁diɲɛjugu	-9348
▁dunanman	-9349
▁jagofɛnw	-9350
▁jurumukã	-9351
▁jurumutɔ	-9352
▁kewalilu	-9353
▁kolokolo	-9354
▁kuntigin	-9355
▁nyanaman	-9356
▁previous	-9357
▁sɛbɛnkun	-9358
▁vinɛgiri	-9359
▁yɔgɔrimɔ	-9360
▁ŋunankan	-9361
belebeleba	-9362
▁denmidenw	-9363
▁desanburu	-9364
▁halakilon	-9365
▁josɔnsogo	-9366
▁misiranka	-9367
▁sapurukko	-9368
▁haminankow	-9369
▁kafuɲoxoya	-9370
▁kikokikona	-9371
▁kɔnɔnafɛnw	-9372
▁lagɛrikɛla	-9373
▁marisikalo	-9374
▁talontalon	-9375
▁awirilikalo	-9376
▁dugugwɛdafɛ	-9377
▁translation	-9378
▁demetiriyusi	-9379
▁nafolotigiya	-9380
▁sigɛnbagatɔw	-9381
▁denmakololailu	-9382
▁denmamiralailu	-9383
▁banabagatɔlaman	-9384
"!	-9385
65	-9386
dí	-9387
ei	-9388
hy	-9389
kn	-9390
pé	-9391
▁ɗ	-9392
"1.	-9393
aww	-9394
con	-9395
hia	-9396
jaa	-9397
kɔɔ	-9398
mbɛ	-9399
mui	-9400
niw	-9401
qui	-9402
sai	-9403
sim	-9404
sio	-9405
vil	-9406
▁&&	-9407
▁3?	-9408
▁83	-9409
▁97	-9410
▁bá	-9411
▁eu	-9412
▁lá	-9413
▁sn	-9414
▁tâ	-9415
▁ua	-9416
▁yì	-9417
,...	-9418
baly	-9419
biŋe	-9420
fira	-9421
fiyɛ	-9422
ller	-9423
ring	-9424
rodi	-9425
sran	-9426
ster	-9427
teri	-9428
tôrô	-9429
tɔro	-9430
yazi	-9431
zeki	-9432
▁-.-	-9433
▁10.	-9434
▁4-5	-9435
▁400	-9436
▁^_*	-9437
▁afɔ	-9438
▁cou	-9439
▁dar	-9440
▁djè	-9441
▁fri	-9442
▁gɔɔ	-9443
▁kɛ̃	-9444
▁loa	-9445
▁nsa	-9446
▁nsi	-9447
▁omi	-9448
▁oni	-9449
▁ont	-9450
▁she	-9451
▁tɛɛ	-9452
▁var	-9453
▁zir	-9454
▁ziī	-9455
▁ŋɔn	-9456
...!"	-9457
:3838	-9458
bdaan	-9459
hiiri	-9460
kanbe	-9461
kuruw	-9462
ngbɛn	-9463
roolu	-9464
tungo	-9465
▁1-0.	-9466
▁1935	-9467
▁1:49	-9468
▁2:13	-9469
▁aiye	-9470
▁anda	-9471
▁atye	-9472
▁beli	-9473
▁bili	-9474
▁bɔku	-9475
▁bɔɲɛ	-9476
▁daba	-9477
▁data	-9478
▁dena	-9479
▁denn	-9480
▁edoo	-9481
▁fail	-9482
▁fren	-9483
▁jong	-9484
▁keme	-9485
▁klik	-9486
▁lale	-9487
▁lari	-9488
▁lass	-9489
▁made	-9490
▁mane	-9491
▁mang	-9492
▁medi	-9493
▁mita	-9494
▁nasa	-9495
▁nɛɛn	-9496
▁pala	-9497
▁plak	-9498
▁saka	-9499
▁segu	-9500
▁sena	-9501
▁sora	-9502
▁srɛ́	-9503
▁sura	-9504
▁wuro	-9505
▁wuuu	-9506
▁yita	-9507
▁ɲiiw	-9508
▁ɲɛfɛ	-9509
amiina	-9510
biŋeyo	-9511
cuatro	-9512
ingoma	-9513
jougou	-9514
kourou	-9515
tɔrocɛ	-9516
yɔgɔnw	-9517
ɲamɔgɔ	-9518
▁10:24	-9519
▁adɑmɑ	-9520
▁baari	-9521
▁bener	-9522
▁biinw	-9523
▁could	-9524
▁couli	-9525
▁djati	-9526
▁dunan	-9527
▁dònni	-9528
▁dɛɛro	-9529
▁egblↄ	-9530
▁fabor	-9531
▁fɔlen	-9532
▁hamin	-9533
▁jaŋgo	-9534
▁jisra	-9535
▁kakne	-9536
▁kanda	-9537
▁kanou	-9538
▁kasso	-9539
▁kegun	-9540
▁kiiri	-9541
▁klama	-9542
▁knoww	-9543
▁kouna	-9544
▁muumɛ	-9545
▁nakun	-9546
▁ocean	-9547
▁siman	-9548
▁sɔɔrɑ	-9549
▁sɔ̃na	-9550
▁tango	-9551
▁turun	-9552
▁tutun	-9553
▁whole	-9554
▁wulen	-9555
▁xuiin	-9556
igitugu	-9557
mɛlɛkɛw	-9558
▁billie	-9559
▁boloko	-9560
▁bonnie	-9561
▁bɔtuma	-9562
▁daaman	-9563
▁denfaw	-9564
▁duguti	-9565
▁etièni	-9566
▁gbɔɔrɔ	-9567
▁giingɔ	-9568
▁kotogo	-9569
▁kuntii	-9570
▁lakura	-9571
▁lokaso	-9572
▁loveee	-9573
▁maroya	-9574
▁memang	-9575
▁mintak	-9576
▁morikɛ	-9577
▁sailin	-9578
▁sumuso	-9579
▁sɔmiɲɛ	-9580
▁sɛbɛri	-9581
▁ttungo	-9582
▁yirata	-9583
▁yongon	-9584
▁yoyada	-9585
baaraden	-9586
taradunu	-9587
▁alemaɲi	-9588
▁bezanid	-9589
▁bondori	-9590
▁desired	-9591
▁habadan	-9592
▁jamanan	-9593
▁jɔrɔkɔw	-9594
▁kokɛtaw	-9595
▁kpɑ̃ɑru	-9596
▁kɔrɔilu	-9597
▁laadala	-9598
▁lajɛnko	-9599
▁mbakɔgɔ	-9600
▁sɔrɔnna	-9601
▁wahiiri	-9602
▁wasanin	-9603
▁yiigeli	-9604
▁amalɛkiw	-9605
▁dususuma	-9606
▁jɔnmusow	-9607
▁kelennan	-9608
▁kulujanw	-9609
▁kɔrɔbɔra	-9610
▁lahilala	-9611
▁minisiri	-9612
▁mɔgɔwolo	-9613
▁saniyali	-9614
▁sungurun	-9615
▁sɔnbagaw	-9616
▁welewele	-9617
▁wubiŋeyo	-9618
▁yirakala	-9619
▁yonmdaan	-9620
barinabasi	-9621
zeruzalɛmu	-9622
▁bakɔrɔnin	-9623
▁coulibaly	-9624
▁dayɛlɛnin	-9625
▁kpɛnngbɛn	-9626
▁kɔnɔnakow	-9627
▁lɛnpominɛ	-9628
▁saduseènw	-9629
▁sinsinnen	-9630
▁tangabaga	-9631
▁cɛnnikɛfɛn	-9632
▁cɛtigɛfani	-9633
▁dabaritigi	-9634
▁dɔkɔtɔrocɛ	-9635
▁karikarila	-9636
▁ladilikuma	-9637
▁lanabaliya	-9638
▁tulogwɛlɛn	-9639
▁ɲininkaliw	-9640
isirayɛliden	-9641
▁baataradunu	-9642
▁jalakibaliw	-9643
▁nanbaramɔgɔ	-9644
▁sigɛnbagatɔ	-9645
▁sìrakɔrɔnin	-9646
▁tolonkɛyɔrɔ	-9647
▁sɔngɔgwɛlɛnw	-9648
▁ɲɔgɔndanboli	-9649
▁kerecɛnɲɔgɔnw	-9650
▁nisɔndiyapɛrɛn	-9651
44	-9652
cy	-9653
dò	-9654
iz	-9655
ñi	-9656
▁è	-9657
75.	-9658
aso	-9659
ata	-9660
bui	-9661
bye	-9662
clo	-9663
dum	-9664
gli	-9665
gwa	-9666
naa	-9667
pti	-9668
ram	-9669
sèn	-9670
unt	-9671
▁!'	-9672
▁.;	-9673
▁bg	-9674
35).	-9675
anni	-9676
dent	-9677
enai	-9678
golo	-9679
hala	-9680
rian	-9681
rɛni	-9682
sabu	-9683
sèbè	-9684
tact	-9685
tobi	-9686
tɔɔn	-9687
waka	-9688
yanw	-9689
yawu	-9690
zayi	-9691
ɔgon	-9692
ɲɔɔn	-9693
▁(4)	-9694
▁(?)	-9695
▁25-	-9696
▁365	-9697
▁450	-9698
▁500	-9699
▁="8	-9700
▁aag	-9701
▁abe	-9702
▁amé	-9703
▁ane	-9704
▁biw	-9705
▁boe	-9706
▁cue	-9707
▁elo	-9708
▁faw	-9709
▁fru	-9710
▁hɔn	-9711
▁ike	-9712
▁jam	-9713
▁klu	-9714
▁kpɔ	-9715
▁nnɛ	-9716
▁oye	-9717
▁sub	-9718
▁sèn	-9719
▁uuu	-9720
▁yak	-9721
▁ŋan	-9722
:3333	-9723
asiri	-9724
denfa	-9725
ezawu	-9726
gboya	-9727
zenin	-9728
▁1989	-9729
▁19:5	-9730
▁8:28	-9731
▁aayi	-9732
▁adun	-9733
▁angi	-9734
▁arti	-9735
▁buba	-9736
▁bèna	-9737
▁cana	-9738
▁dona	-9739
▁dɔ̃ɔ	-9740
▁fofo	-9741
▁gadi	-9742
▁hell	-9743
▁jeni	-9744
▁john	-9745
▁jude	-9746
▁kaku	-9747
▁kano	-9748
▁keso	-9749
▁kpɛ̃	-9750
▁kwlá	-9751
▁kɛɛn	-9752
▁maki	-9753
▁mule	-9754
▁mɛdi	-9755
▁nakɔ	-9756
▁niye	-9757
▁nàna	-9758
▁pasa	-9759
▁satu	-9760
▁silo	-9761
▁sofe	-9762
▁taaw	-9763
▁toto	-9764
▁tuku	-9765
▁waso	-9766
▁weel	-9767
▁worɔ	-9768
▁wɛ̃ɛ	-9769
▁xɔri	-9770
▁ŋgɔɔ	-9771
▁ɛntɛ	-9772
▁ɡɑri	-9773
▁ɲigi	-9774
kɛniya	-9775
lieved	-9776
ssigui	-9777
ugouni	-9778
zakari	-9779
▁1,75.	-9780
▁1:30-	-9781
▁ajtun	-9782
▁akoto	-9783
▁aliya	-9784
▁balen	-9785
▁balon	-9786
▁baron	-9787
▁bhala	-9788
▁deema	-9789
▁douni	-9790
▁dugaw	-9791
▁ebola	-9792
▁fanfè	-9793
▁fuloo	-9794
▁gunma	-9795
▁gɛlɛn	-9796
▁jende	-9797
▁kamar	-9798
▁koren	-9799
▁kunwɔ	-9800
▁livru	-9801
▁manji	-9802
▁monde	-9803
▁nanta	-9804
▁nisòn	-9805
▁otona	-9806
▁segui	-9807
▁setan	-9808
▁sudon	-9809
▁sɔgon	-9810
▁taman	-9811
▁tanya	-9812
▁tɔrɔn	-9813
▁wuloo	-9814
▁zaluu	-9815
▁ɲayen	-9816
▁batuma	-9817
▁birila	-9818
▁bittoo	-9819
▁defina	-9820
▁deleke	-9821
▁gratis	-9822
▁halisa	-9823
▁kaname	-9824
▁kilita	-9825
▁kirisa	-9826
▁kowobu	-9827
▁labanw	-9828
▁lamaga	-9829
▁melayu	-9830
▁pepewu	-9831
▁suulun	-9832
▁sɛnbɛn	-9833
▁talaga	-9834
▁talenw	-9835
▁wakati	-9836
fariziɲɛ	-9837
samuyɛli	-9838
▁19:2424	-9839
▁ananiya	-9840
▁baarakè	-9841
▁banbana	-9842
▁contact	-9843
▁danguma	-9844
▁denwolo	-9845
▁furunin	-9846
▁gwannin	-9847
▁kafeela	-9848
▁kajanin	-9849
▁kamalen	-9850
▁kedenna	-9851
▁kolofen	-9852
▁kulokan	-9853
▁kèwalew	-9854
▁kɔnɔnin	-9855
▁labaari	-9856
▁mansinw	-9857
▁nafolow	-9858
▁nayinmɛ	-9859
▁nyɛrɛla	-9860
▁spilled	-9861
▁surunya	-9862
▁waajulo	-9863
▁waajura	-9864
▁wagabɔn	-9865
▁wolokun	-9866
▁bangebaw	-9867
▁believed	-9868
▁bɛriseba	-9869
▁caamanba	-9870
▁jurumutò	-9871
▁jɛnkuluw	-9872
▁kalokura	-9873
▁kitiyɔrɔ	-9874
▁miriyama	-9875
▁nilifènw	-9876
▁warimako	-9877
▁wolomana	-9878
▁ɲanamaya	-9879
▁1:30-35).	-9880
▁batizenin	-9881
▁denmisenw	-9882
▁fagabagaw	-9883
▁galilekaw	-9884
▁hɔrɔnyali	-9885
▁jamanajan	-9886
▁nisòndiya	-9887
▁bolomafara	-9888
▁defination	-9889
▁farikoloya	-9890
▁gabiriyɛli	-9891
▁kɛrɛkɛniya	-9892
▁makoyafɛnw	-9893
▁sisansisan	-9894
▁baarakɛyɔrɔ	-9895
▁balikukalan	-9896
▁kolatigɛnin	-9897
▁kininkininma	-9898
▁talontalonna	-9899
▁dusukunnasiri	-9900
▁ngalontigɛlaw	-9901
▁tilenninyakow	-9902
▁tilenbaliyakow	-9903
▁dingɛbelebeleba	-9904
.7	-9905
06	-9906
46	-9907
],	-9908
dè	-9909
fp	-9910
ph	-9911
▁‐	-9912
.""	-9913
and	-9914
blu	-9915
ded	-9916
kôn	-9917
lar	-9918
lɔɔ	-9919
mes	-9920
naw	-9921
old	-9922
ras	-9923
raz	-9924
rry	-9925
tha	-9926
òlu	-9927
▁71	-9928
▁qi	-9929
▁sc	-9930
▁ɡo	-9931
bena	-9932
dara	-9933
dena	-9934
flɛn	-9935
fɔla	-9936
fɔɔn	-9937
gina	-9938
hhee	-9939
huhu	-9940
kɔru	-9941
mino	-9942
nked	-9943
renu	-9944
tɛgɛ	-9945
uari	-9946
wɛrɛ	-9947
yepe	-9948
yɔmu	-9949
ɲadi	-9950
̀nna	-9951
▁30-	-9952
▁add	-9953
▁cla	-9954
▁cɛɲ	-9955
▁dit	-9956
▁epi	-9957
▁gbu	-9958
▁gbī	-9959
▁gee	-9960
▁gni	-9961
▁itu	-9962
▁kaŋ	-9963
▁kɛw	-9964
▁med	-9965
▁ngu	-9966
▁nko	-9967
▁ori	-9968
▁rio	-9969
▁sye	-9970
▁tio	-9971
▁wii	-9972
▁xɛɛ	-9973
▁zar	-9974
▁ɲun	-9975
▁ɲìi	-9976
▁̈nu	-9977
awuni	-9978
dooos	-9979
funun	-9980
giere	-9981
guini	-9982
senai	-9983
waaju	-9984
weenu	-9985
ŋgɔlɔ	-9986
▁10:4	-9987
▁1:55	-9988
▁aiki	-9989
▁ambɔ	-9990
▁anua	-9991
▁aust	-9992
▁bank	-9993
▁beau	-9994
▁bien	-9995
▁biwo	-9996
▁bota	-9997
▁bulo	-9998
▁cɛni	-9999
▁espe	-10000
▁hina	-10001
▁hobo	-10002
▁jɛɛn	-10003
▁maaf	-10004
▁magi	-10005
▁megl	-10006
▁milo	-10007
▁miyé	-10008
▁mujh	-10009
▁mɔgɛ	-10010
▁niyɔ	-10011
▁nyun	-10012
▁pula	-10013
▁sayo	-10014
▁sede	-10015
▁sulɛ	-10016
▁sàra	-10017
▁séré	-10018
▁toga	-10019
▁toki	-10020
▁unna	-10021
▁wase	-10022
▁wélé	-10023
▁yaad	-10024
▁yawa	-10025
▁yeeu	-10026
▁yuru	-10027
▁zozɛ	-10028
aninnu	-10029
dugaan	-10030
rinɛti	-10031
tekɔte	-10032
▁2019,	-10033
▁araba	-10034
▁arara	-10035
▁awlɛn	-10036
▁bhula	-10037
▁biibi	-10038
▁buuru	-10039
▁dalan	-10040
▁denmu	-10041
▁digir	-10042
▁diinɛ	-10043
▁dusuw	-10044
▁ekeyn	-10045
▁filen	-10046
▁ikoni	-10047
▁jahan	-10048
▁jèlen	-10049
▁kajɛn	-10050
▁label	-10051
▁latas	-10052
▁lepas	-10053
▁lonba	-10054
▁mosiw	-10055
▁moulo	-10056
▁saman	-10057
▁seene	-10058
▁start	-10059
▁tchin	-10060
▁tɔɔrɛ	-10061
▁uwien	-10062
▁yiŋgi	-10063
▁yɛɛra	-10064
minnɔgɔ	-10065
▁andere	-10066
▁bagara	-10067
▁batana	-10068
▁bewafa	-10069
▁burodi	-10070
▁cantik	-10071
▁dawula	-10072
▁fagata	-10073
▁firila	-10074
▁fourou	-10075
▁fòlenw	-10076
▁israil	-10077
▁jijali	-10078
▁jɔrɔgɔ	-10079
▁kadugo	-10080
▁kofɔra	-10081
▁kunbèn	-10082
▁kunman	-10083
▁kunsin	-10084
▁kòkari	-10085
▁maxidi	-10086
▁mininw	-10087
▁muxune	-10088
▁nadine	-10089
▁nfenna	-10090
▁ntanya	-10091
▁online	-10092
▁sesɔrɔ	-10093
▁sibiri	-10094
▁sipyii	-10095
▁sisɛmu	-10096
▁tigèra	-10097
▁tɔkɔru	-10098
▁waliba	-10099
kabakuru	-10100
▁baawure	-10101
▁bananin	-10102
▁daminan	-10103
▁dɛsɛnin	-10104
▁emayusi	-10105
▁fagataw	-10106
▁kangari	-10107
▁mananin	-10108
▁manjito	-10109
▁naawuni	-10110
▁silifen	-10111
▁sirinin	-10112
▁sonyali	-10113
▁todooos	-10114
▁trouver	-10115
▁yanuari	-10116
▁yinniwa	-10117
sogomisɛn	-10118
▁balɔntan	-10119
▁faankɔnɔ	-10120
▁farisicɛ	-10121
▁fɔɔnfɔɔn	-10122
▁hɔɔrɔnya	-10123
▁jamanolu	-10124
▁jɛnɲɔgɔn	-10125
▁kasobonw	-10126
▁kofidugu	-10127
▁lajɛnbaw	-10128
▁lɔgɔsiri	-10129
▁ntolatan	-10130
▁weeweenu	-10131
▁cɛdenninw	-10132
▁erodiyadi	-10133
▁fɛnfitini	-10134
▁kitabuenu	-10135
▁minaninnu	-10136
▁nyènamaya	-10137
▁tigitigiw	-10138
waajulikɛla	-10139
▁dounougnan	-10140
▁kasadimanw	-10141
▁nkalontigè	-10142
▁tɔɔrɔwaati	-10143
▁yɔrɔdatugu	-10144
▁yɛrɛmajigi	-10145
▁dabaribanaw	-10146
▁dugudenninw	-10147
▁kɛlɛdenŋana	-10148
▁siginyɔgɔnw	-10149
▁taamaɲɔgɔnw	-10150
▁ɲasiranbaga	-10151
▁sunguruɲuman	-10152
▁siranyayɔrɔba	-10153
▁faankɔnɔtasuma	-10154
▁mɔgɔmurutininw	-10155
12	-10156
2.	-10157
bs	-10158
kw	-10159
lw	-10160
yè	-10161
òd	-10162
́n	-10163
▁ö	-10164
!!;	-10165
..;	-10166
7">	-10167
ast	-10168
bɛr	-10169
dap	-10170
fén	-10171
gno	-10172
ksi	-10173
mar	-10174
mbe	-10175
mpi	-10176
sco	-10177
ven	-10178
via	-10179
vla	-10180
wun	-10181
êrê	-10182
ɲaa	-10183
▁(5	-10184
▁06	-10185
▁81	-10186
▁kn	-10187
▁lò	-10188
▁pm	-10189
▁pì	-10190
▁ìn	-10191
?!!;	-10192
aaba	-10193
buli	-10194
gnon	-10195
koun	-10196
lɔra	-10197
mand	-10198
mɛli	-10199
niin	-10200
nost	-10201
sali	-10202
soba	-10203
stow	-10204
sôrô	-10205
teen	-10206
tɛlɛ	-10207
yoro	-10208
yèrè	-10209
▁111	-10210
▁12"	-10211
▁14.	-10212
▁180	-10213
▁25.	-10214
▁58-	-10215
▁600	-10216
▁adv	-10217
▁agi	-10218
▁arg	-10219
▁atu	-10220
▁ayu	-10221
▁bae	-10222
▁blk	-10223
▁bor	-10224
▁dju	-10225
▁eba	-10226
▁eee	-10227
▁fur	-10228
▁gia	-10229
▁gɛn	-10230
▁ibe	-10231
▁kàn	-10232
▁kùn	-10233
▁mik	-10234
▁nag	-10235
▁nti	-10236
▁nòd	-10237
▁nɔɛ	-10238
▁pad	-10239
▁sbb	-10240
▁sha	-10241
▁sya	-10242
▁sɛɛ	-10243
▁toh	-10244
▁tôn	-10245
▁wam	-10246
!!!;)	-10247
:3535	-10248
banba	-10249
biliw	-10250
ezayi	-10251
faniw	-10252
image	-10253
kɔnɔn	-10254
lɛmun	-10255
masaw	-10256
masen	-10257
surun	-10258
tandi	-10259
tinue	-10260
ugbɔɔ	-10261
zoova	-10262
▁1:29	-10263
▁1:88	-10264
▁6:18	-10265
▁="10	-10266
▁abra	-10267
▁acih	-10268
▁anak	-10269
▁anum	-10270
▁baca	-10271
▁baso	-10272
▁blik	-10273
▁ciko	-10274
▁cɛba	-10275
▁deri	-10276
▁djin	-10277
▁dɛbɛ	-10278
▁esta	-10279
▁fact	-10280
▁fifa	-10281
▁fɔrɔ	-10282
▁gbee	-10283
▁guru	-10284
▁gusu	-10285
▁hela	-10286
▁hota	-10287
▁igno	-10288
▁jamu	-10289
▁jona	-10290
▁keba	-10291
▁labò	-10292
▁lasã	-10293
▁lima	-10294
▁malu	-10295
▁natò	-10296
▁noho	-10297
▁pegi	-10298
▁pɔrɔ	-10299
▁rock	-10300
▁sage	-10301
▁sega	-10302
▁sent	-10303
▁sewa	-10304
▁sige	-10305
▁snow	-10306
▁swɑɑ	-10307
▁sàgo	-10308
▁tewu	-10309
▁tilé	-10310
▁tsee	-10311
▁wuna	-10312
▁wunɛ	-10313
▁yian	-10314
▁yoru	-10315
bangga	-10316
gilizi	-10317
matiyo	-10318
zozuwe	-10319
▁10:10	-10320
▁abang	-10321
▁blunt	-10322
▁calle	-10323
▁cikin	-10324
▁cubao	-10325
▁dagaw	-10326
▁denfa	-10327
▁diine	-10328
▁elifa	-10329
▁elisa	-10330
▁fagan	-10331
▁firin	-10332
▁fɔɔnɔ	-10333
▁ganji	-10334
▁gongo	-10335
▁italy	-10336
▁kafɛɛ	-10337
▁kalaa	-10338
▁katòd	-10339
▁kiini	-10340
▁kitty	-10341
▁koora	-10342
▁mboro	-10343
▁metro	-10344
▁minit	-10345
▁nyaan	-10346
▁nāulu	-10347
▁pinlɛ	-10348
▁puuni	-10349
▁sabes	-10350
▁sabtu	-10351
▁sanna	-10352
▁story	-10353
▁sugar	-10354
▁tanbi	-10355
▁times	-10356
▁trump	-10357
▁tunmb	-10358
▁ujala	-10359
▁wanan	-10360
▁wuluw	-10361
▁yaara	-10362
dinŋolu	-10363
▁1:1111	-10364
▁3:1313	-10365
▁bestow	-10366
▁birama	-10367
▁bolitɔ	-10368
▁boɲako	-10369
▁bɛɛnkɛ	-10370
▁cɛɲiya	-10371
▁dafali	-10372
▁erefaw	-10373
▁kanyan	-10374
▁karila	-10375
▁katimi	-10376
▁kilomè	-10377
▁komini	-10378
▁kosebe	-10379
▁koulou	-10380
▁kunnin	-10381
▁laseli	-10382
▁layiri	-10383
▁loloba	-10384
▁makabe	-10385
▁minggu	-10386
▁rutrum	-10387
▁saliya	-10388
▁saraga	-10389
▁sennin	-10390
▁sɛdiri	-10391
▁urubɛn	-10392
▁zowasi	-10393
▁ɲɔngɔn	-10394
▁albatro	-10395
▁bilanin	-10396
▁bolofen	-10397
▁donsocɛ	-10398
▁ehehhee	-10399
▁falenna	-10400
▁faragwɛ	-10401
▁fɛnjugu	-10402
▁gbɔgɔwɔ	-10403
▁handuni	-10404
▁kalankɛ	-10405
▁kanunin	-10406
▁korente	-10407
▁kumaloo	-10408
▁majigin	-10409
▁musonin	-10410
▁nafamaw	-10411
▁nosnost	-10412
▁nɛɛmaba	-10413
▁pensare	-10414
▁reading	-10415
▁timinin	-10416
▁akunndan	-10417
▁batosoba	-10418
▁benbailu	-10419
▁bɛnadadi	-10420
▁continue	-10421
▁dangaden	-10422
▁fenɛtiri	-10423
▁gbɛnbere	-10424
▁gwatigiw	-10425
▁gèlèyara	-10426
▁ignorant	-10427
▁jigisɔbɛ	-10428
▁jigitugu	-10429
▁kaselege	-10430
▁katugala	-10431
▁kɔnɔninw	-10432
▁lakuraya	-10433
▁lɔgɔfiyɛ	-10434
▁lɛbuyɔrɔ	-10435
▁madiyanw	-10436
▁mafiɲɛya	-10437
▁yibɛrɛbɑ	-10438
▁ɲanasisi	-10439
nafolotigi	-10440
▁bugurigwɛ	-10441
▁deepinsid	-10442
▁farankanw	-10443
▁ikoniyɔmu	-10444
▁jamakuluw	-10445
▁kanunlenw	-10446
▁murutinin	-10447
▁pentekɔte	-10448
▁superhero	-10449
▁tilenbali	-10450
▁tɔɔrɔninw	-10451
▁ɲanagwɛba	-10452
▁ɲèminèbaa	-10453
▁buurufunun	-10454
▁gwɛrɛgwɛrɛ	-10455
▁tigɛgwɛlɛn	-10456
▁timinadiya	-10457
▁ɛntɛrinɛti	-10458
▁burufununan	-10459
▁fangatigiya	-10460
▁kɔnɔntɔnnan	-10461
▁laadalabato	-10462
▁nisɔndiyaba	-10463
▁yɛrɛminɛlaw	-10464
▁ɲɔgɔnkanuya	-10465
▁kititigɛyɔrɔ	-10466
45	-10467
70	-10468
96	-10469
gê	-10470
ut	-10471
ɣi	-10472
▁á	-10473
▁ş	-10474
alo	-10475
bip	-10476
bro	-10477
ill	-10478
ism	-10479
kɛw	-10480
mɛr	-10481
nka	-10482
obi	-10483
oma	-10484
reh	-10485
sir	-10486
ssè	-10487
try	-10488
tuɛ	-10489
wae	-10490
àri	-10491
éré	-10492
▁02	-10493
▁6"	-10494
▁6,	-10495
▁?!	-10496
▁aā	-10497
▁ep	-10498
▁er	-10499
▁fê	-10500
▁hd	-10501
▁iǹ	-10502
▁ré	-10503
▁sp	-10504
▁uw	-10505
▁ŋɔ	-10506
▁ɡɔ	-10507
aker	-10508
burg	-10509
busi	-10510
cant	-10511
cian	-10512
cute	-10513
doni	-10514
dɛsɛ	-10515
fuku	-10516
gaua	-10517
kela	-10518
kele	-10519
kɛɲɛ	-10520
lòkò	-10521
ptee	-10522
sere	-10523
soyi	-10524
tele	-10525
tien	-10526
toma	-10527
tèri	-10528
verb	-10529
yaga	-10530
ɑɑbɑ	-10531
ɛɛŋɛ	-10532
▁1:3	-10533
▁21-	-10534
▁23-	-10535
▁250	-10536
▁31"	-10537
▁4:4	-10538
▁arɛ	-10539
▁buñ	-10540
▁die	-10541
▁djô	-10542
▁dɛm	-10543
▁est	-10544
▁fal	-10545
▁gɔ̃	-10546
▁iba	-10547
▁nja	-10548
▁ohh	-10549
▁phe	-10550
▁raa	-10551
▁ros	-10552
▁sas	-10553
▁sid	-10554
▁syg	-10555
▁tax	-10556
▁tiɑ	-10557
▁tɛ̀	-10558
▁why	-10559
▁wɛɛ	-10560
▁ɓɔɔ	-10561
:2626	-10562
dalaw	-10563
illet	-10564
kabin	-10565
naire	-10566
senta	-10567
tiguè	-10568
yinkɛ	-10569
▁3...	-10570
▁4:66	-10571
▁akii	-10572
▁akpa	-10573
▁asen	-10574
▁asso	-10575
▁ayyy	-10576
▁biba	-10577
▁bésé	-10578
▁dijo	-10579
▁dong	-10580
▁déni	-10581
▁feli	-10582
▁film	-10583
▁fusi	-10584
▁fɛlɛ	-10585
▁gɔri	-10586
▁hine	-10587
▁hɛnɛ	-10588
▁hɛra	-10589
▁jese	-10590
▁july	-10591
▁jùru	-10592
▁kade	-10593
▁kaji	-10594
▁kici	-10595
▁koya	-10596
▁kudu	-10597
▁kuye	-10598
▁kèli	-10599
▁lakɔ	-10600
▁lona	-10601
▁lɔɔn	-10602
▁mail	-10603
▁mese	-10604
▁mind	-10605
▁muju	-10606
▁mwan	-10607
▁nate	-10608
▁naxɛ	-10609
▁ngue	-10610
▁paan	-10611
▁saco	-10612
▁sasa	-10613
▁sens	-10614
▁sian	-10615
▁soli	-10616
▁sudi	-10617
▁sɛrɛ	-10618
▁thai	-10619
▁tiap	-10620
▁till	-10621
▁tola	-10622
▁tori	-10623
▁tìle	-10624
▁tɔri	-10625
▁tɛnɛ	-10626
▁wann	-10627
▁wuyi	-10628
▁yaci	-10629
▁yado	-10630
▁yɛnu	-10631
bosɛti	-10632
▁about	-10633
▁akisi	-10634
▁angle	-10635
▁barna	-10636
▁bonbo	-10637
▁boozi	-10638
▁buloo	-10639
▁bɔ̀gɔ	-10640
▁cogow	-10641
▁cɛnko	-10642
▁deemɑ	-10643
▁deeni	-10644
▁esoti	-10645
▁fanfɛ	-10646
▁kaisi	-10647
▁kalii	-10648
▁kanko	-10649
▁kanla	-10650
▁koonw	-10651
▁lamai	-10652
▁latan	-10653
▁latin	-10654
▁lìlan	-10655
▁majnu	-10656
▁meble	-10657
▁naman	-10658
▁nunuw	-10659
▁omuri	-10660
▁sakta	-10661
▁sannu	-10662
▁sikow	-10663
▁tuubi	-10664
▁tɛmui	-10665
▁yesoo	-10666
▁yitɔn	-10667
▁yɑ̃ku	-10668
▁yɔngɔ	-10669
▁ɲaxan	-10670
▁ɲaxin	-10671
anikɛla	-10672
koɲuman	-10673
lilailu	-10674
samusɔn	-10675
ɲumailu	-10676
▁9:2323	-10677
▁bakàri	-10678
▁binani	-10679
▁biriki	-10680
▁blessm	-10681
▁boloci	-10682
▁dajugu	-10683
▁decidí	-10684
▁faniko	-10685
▁fiyɛwu	-10686
▁fɔlikɛ	-10687
▁gamanw	-10688
▁janvuɛ	-10689
▁jɛ̀nna	-10690
▁kanada	-10691
▁kristi	-10692
▁kuntan	-10693
▁kururu	-10694
▁kàlanw	-10695
▁kòɲòcè	-10696
▁lafies	-10697
▁lafiɲè	-10698
▁lantaw	-10699
▁ligama	-10700
▁posted	-10701
▁sangan	-10702
▁siento	-10703
▁tchama	-10704
▁tinmin	-10705
▁tɔgɔba	-10706
▁walahi	-10707
▁wulada	-10708
▁ɲɛbɔra	-10709
▁ɲɛnama	-10710
▁agiripa	-10711
▁alakira	-10712
▁baronin	-10713
▁bònsònw	-10714
▁dibagaw	-10715
▁etiyɛni	-10716
▁funteni	-10717
▁garadiw	-10718
▁gyihova	-10719
▁jibaatɔ	-10720
▁kagbɔgɔ	-10721
▁kanaanw	-10722
▁kaningi	-10723
▁koyinkɛ	-10724
▁kulujan	-10725
▁labanko	-10726
▁layirin	-10727
▁musakaw	-10728
▁mɔgɔfin	-10729
▁romèkaw	-10730
▁sagolon	-10731
▁sanbara	-10732
▁speaker	-10733
▁yɛlɛman	-10734
▁ɔrɔmuka	-10735
ɛrɛzɛnsun	-10736
▁batocogo	-10737
▁cɛdennin	-10738
▁gbanflɛn	-10739
▁jamanako	-10740
▁kasadila	-10741
▁kisilenw	-10742
▁kɔrɔsili	-10743
▁lafilila	-10744
▁presenta	-10745
▁tigɛtigɛ	-10746
▁tougouni	-10747
▁tɔgɔjugu	-10748
▁baaradege	-10749
▁bolibagaw	-10750
▁faragwɛla	-10751
▁gwɛlɛyara	-10752
▁kolɔnbali	-10753
▁kuntigine	-10754
▁mujuugbɔɔ	-10755
▁nisɔngoya	-10756
▁orobowamu	-10757
▁sòròdasiw	-10758
▁tilenyɔrɔ	-10759
faamubaliya	-10760
▁bolomisɛnw	-10761
▁delilikɛla	-10762
▁furakɛcogo	-10763
▁kibaaroolu	-10764
▁tesalonike	-10765
▁association	-10766
▁fɔrɔgɔfɛnnɛ	-10767
▁gɛrɛfɛmusow	-10768
▁karamɔgɔden	-10769
▁benkannikɛla	-10770
▁gofɛrɛnɛmanw	-10771
▁halakilikèla	-10772
▁kowagaraseru	-10773
▁soronanikɛla	-10774
▁warigwɛlaman	-10775
▁xarandinŋolu	-10776
▁kewaliɲumailu	-10777
▁kititigɛbagaw	-10778
▁kowagarasenai	-10779
▁kɔlɔsilikɛlaw	-10780
▁kowagarasemasu	-10781
▁mɔgɔwolomaninw	-10782
▁kowagarasemasen	-10783
:.	-10784
bê	-10785
cé	-10786
ln	-10787
né	-10788
uk	-10789
ım	-10790
ன்	-10791
ియ	-10792
▁―	-10793
▁※	-10794
▁😀	-10795
,,,	-10796
del	-10797
kee	-10798
kok	-10799
kyɛ	-10800
mbé	-10801
pau	-10802
vin	-10803
▁(8	-10804
▁94	-10805
▁99	-10806
▁fã	-10807
▁gê	-10808
▁ie	-10809
▁lj	-10810
▁nô	-10811
▁rɛ	-10812
▁yí	-10813
▁ɓa	-10814
...>	-10815
230;	-10816
bone	-10817
bɛdi	-10818
cien	-10819
date	-10820
gila	-10821
guna	-10822
kata	-10823
kere	-10824
lɔnm	-10825
mogo	-10826
paan	-10827
sson	-10828
yòrò	-10829
zese	-10830
▁23"	-10831
▁2:2	-10832
▁aas	-10833
▁api	-10834
▁bay	-10835
▁blà	-10836
▁cri	-10837
▁dey	-10838
▁fab	-10839
▁fli	-10840
▁glu	-10841
▁gum	-10842
▁gwe	-10843
▁ijẹ	-10844
▁làa	-10845
▁mbɔ	-10846
▁mug	-10847
▁mut	-10848
▁oba	-10849
▁set	-10850
▁sɔŋ	-10851
▁yie	-10852
▁yim	-10853
▁ɔli	-10854
▁ɲòn	-10855
fitri	-10856
jɛŋgɛ	-10857
lajɛn	-10858
lenba	-10859
menna	-10860
sɔngɔ	-10861
ununa	-10862
wanna	-10863
xuman	-10864
ɲɛɛgɛ	-10865
▁22:2	-10866
▁5:10	-10867
▁anga	-10868
▁anna	-10869
▁bhar	-10870
▁blue	-10871
▁bèrè	-10872
▁cari	-10873
▁daun	-10874
▁dini	-10875
▁divo	-10876
▁dook	-10877
▁dôni	-10878
▁ekpo	-10879
▁falɛ	-10880
▁fola	-10881
▁fɔlɛ	-10882
▁gafa	-10883
▁gang	-10884
▁gian	-10885
▁gigi	-10886
▁giya	-10887
▁hafu	-10888
▁jesu	-10889
▁jɔgɔ	-10890
▁katɔ	-10891
▁khud	-10892
▁kiau	-10893
▁kola	-10894
▁kopi	-10895
▁kumɛ	-10896
▁kuya	-10897
▁kɔnɛ	-10898
▁kɛ̃ɛ	-10899
▁lear	-10900
▁lega	-10901
▁lono	-10902
▁maha	-10903
▁mide	-10904
▁miss	-10905
▁nari	-10906
▁naso	-10907
▁pyew	-10908
▁seee	-10909
▁simi	-10910
▁slow	-10911
▁subo	-10912
▁sunɔ	-10913
▁surɔ	-10914
▁sègè	-10915
▁sɑri	-10916
▁tche	-10917
▁tubi	-10918
▁tɔke	-10919
▁tɛli	-10920
▁wuru	-10921
▁yoon	-10922
▁zala	-10923
▁ɲani	-10924
▁ɲuŋɔ	-10925
barika	-10926
gierek	-10927
siyasi	-10928
ɲɛninw	-10929
▁100%.	-10930
▁1962,	-10931
▁agara	-10932
▁arima	-10933
▁birds	-10934
▁biɲɛw	-10935
▁brooo	-10936
▁cɛnya	-10937
▁dɛɛre	-10938
▁faman	-10939
▁famou	-10940
▁fiige	-10941
▁funŋɔ	-10942
▁fɑɑbɑ	-10943
▁fɛɛlɛ	-10944
▁hantu	-10945
▁helin	-10946
▁japan	-10947
▁jenni	-10948
▁kamoo	-10949
▁kanya	-10950
▁karri	-10951
▁karun	-10952
▁kiyoo	-10953
▁maala	-10954
▁merci	-10955
▁mesie	-10956
▁minɛm	-10957
▁mlɔnm	-10958
▁naale	-10959
▁nanan	-10960
▁neevu	-10961
▁nkili	-10962
▁nzuɛn	-10963
▁nɔɔbu	-10964
▁nɔ̀gɔ	-10965
▁palos	-10966
▁roman	-10967
▁saanw	-10968
▁senna	-10969
▁souma	-10970
▁suuru	-10971
▁sègèn	-10972
▁sɔgɔn	-10973
▁talua	-10974
▁taran	-10975
▁yiire	-10976
▁yuuro	-10977
▁yɛnri	-10978
etiyɛni	-10979
iyaminu	-10980
obiyusi	-10981
▁3:2323	-10982
▁4:3232	-10983
▁alonso	-10984
▁answer	-10985
▁bɛtɛlɛ	-10986
▁dibila	-10987
▁dingɛw	-10988
▁galati	-10989
▁gwɛrɛl	-10990
▁gɛ̀lɛn	-10991
▁ikampe	-10992
▁jàmana	-10993
▁jòlòkò	-10994
▁jɛrɛgi	-10995
▁kabiye	-10996
▁kagaua	-10997
▁karisa	-10998
▁kiraan	-10999
▁kiribi	-11000
▁kisɛya	-11001
▁lafasa	-11002
▁lagara	-11003
▁lamara	-11004
▁lawili	-11005
▁maiden	-11006
▁merika	-11007
▁munzun	-11008
▁nagara	-11009
▁russie	-11010
▁segila	-11011
▁sikaso	-11012
▁suanlɛ	-11013
▁sumani	-11014
▁sɔ̃ɔwɑ	-11015
▁toumbi	-11016
▁tɛtɛtɛ	-11017
▁tɛ̀mɛn	-11018
▁update	-11019
▁walikɛ	-11020
▁yebisa	-11021
xumanism	-11022
▁agabusi	-11023
▁bisaaba	-11024
▁bonlɔla	-11025
▁bonyali	-11026
▁bulonda	-11027
▁bɔɲɔgɔn	-11028
▁colored	-11029
▁dangatɔ	-11030
▁gbanzan	-11031
▁ijẹrisi	-11032
▁ladikun	-11033
▁lajɛnna	-11034
▁mangoro	-11035
▁masenyi	-11036
▁maxandi	-11037
▁ntagara	-11038
▁proverb	-11039
▁sacaria	-11040
▁sɔsɔliw	-11041
▁temenna	-11042
▁yinrigi	-11043
▁yoofuku	-11044
▁zedeyɔn	-11045
▁ɲaɲuman	-11046
▁ɲòngiri	-11047
dilanbaga	-11048
▁denmasaw	-11049
▁fasodenw	-11050
▁furumuso	-11051
▁hakilila	-11052
▁jinatigi	-11053
▁kafokulu	-11054
▁kalanfaw	-11055
▁kanubaaw	-11056
▁kasinŋge	-11057
▁kɔgɔjida	-11058
▁kɔɲɔmuso	-11059
▁legilizi	-11060
▁mlɔnmlɔn	-11061
▁nɛnɛjugu	-11062
▁sirajugu	-11063
▁sɔnnifɛn	-11064
▁thankful	-11065
salabagatɔ	-11066
▁abimelɛki	-11067
▁baarakèla	-11068
▁barnabasi	-11069
▁bwisikunu	-11070
▁dougouman	-11071
▁dɛndɛbaga	-11072
▁heburukan	-11073
▁jaabibaga	-11074
▁kɛlɛɲɔgɔn	-11075
▁lemɛninya	-11076
▁ziralaman	-11077
▁ɲɛsiranya	-11078
▁bɛniyaminu	-11079
▁jɛkuluwɛrɛ	-11080
▁makaritigi	-11081
▁minigierek	-11082
▁namaramɔgɔ	-11083
▁sigiɲògònw	-11084
▁siratigɛla	-11085
▁tilayɔrɔba	-11086
▁ŋunuŋununa	-11087
▁ɲɔgɔnlajɛn	-11088
▁atenobiyusi	-11089
▁barikatigiw	-11090
▁bololabaara	-11091
▁bololakolon	-11092
▁barikantanya	-11093
▁lɛnpominɛlaw	-11094
▁sɔnnikɛyɔrɔw	-11095
▁ɲanagwɛwaati	-11096
▁transxumanism	-11097
▁kalankaramɔgɔw	-11098
!:	-11099
)!	-11100
-3	-11101
73	-11102
bk	-11103
dɑ	-11104
ew	-11105
kö	-11106
tt	-11107
ŋŋ	-11108
̀,	-11109
ου	-11110
ಿಯ	-11111
▁£	-11112
▁😛	-11113
&#8	-11114
-.!	-11115
600	-11116
:47	-11117
das	-11118
dit	-11119
dou	-11120
fil	-11121
fon	-11122
kur	-11123
lgi	-11124
lia	-11125
lii	-11126
lil	-11127
mim	-11128
mɛi	-11129
put	-11130
tto	-11131
uge	-11132
vam	-11133
zab	-11134
▁"?	-11135
▁ei	-11136
▁kg	-11137
▁kî	-11138
▁nm	-11139
▁vu	-11140
,000	-11141
49">	-11142
ania	-11143
beka	-11144
beya	-11145
bile	-11146
bina	-11147
ción	-11148
gbɛn	-11149
goni	-11150
kees	-11151
lako	-11152
mati	-11153
seri	-11154
site	-11155
suku	-11156
tusi	-11157
xtra	-11158
yili	-11159
ɲiŋɛ	-11160
ియన్	-11161
▁---	-11162
▁12*	-11163
▁120	-11164
▁23!	-11165
▁[00	-11166
▁___	-11167
▁adj	-11168
▁alɔ	-11169
▁awn	-11170
▁ayo	-11171
▁boi	-11172
▁bol	-11173
▁cam	-11174
▁cra	-11175
▁diɲ	-11176
▁dya	-11177
▁eun	-11178
▁fud	-11179
▁gri	-11180
▁jèn	-11181
▁kòn	-11182
▁lia	-11183
▁lyo	-11184
▁mam	-11185
▁met	-11186
▁ngi	-11187
▁osu	-11188
▁rea	-11189
▁ron	-11190
▁rto	-11191
▁sah	-11192
▁sur	-11193
▁tot	-11194
▁uyo	-11195
▁wou	-11196
▁wɔl	-11197
▁zep	-11198
▁ɡoo	-11199
:3030	-11200
badaa	-11201
elize	-11202
faran	-11203
hemen	-11204
saanu	-11205
sidan	-11206
sifuɛ	-11207
taama	-11208
tiɲɛn	-11209
̄dɛɛ̄	-11210
▁!-.!	-11211
▁(70)	-11212
▁..."	-11213
▁19:1	-11214
▁4273	-11215
▁7:25	-11216
▁8:11	-11217
▁aaye	-11218
▁ahin	-11219
▁alle	-11220
▁anya	-11221
▁baki	-11222
▁baye	-11223
▁benn	-11224
▁bles	-11225
▁bɔnu	-11226
▁dans	-11227
▁dilɛ	-11228
▁dimɔ	-11229
▁ebip	-11230
▁fɛfɛ	-11231
▁gaan	-11232
▁gene	-11233
▁grow	-11234
▁home	-11235
▁iran	-11236
▁jawa	-11237
▁joon	-11238
▁jɔɔw	-11239
▁kaih	-11240
▁kaki	-11241
▁kamo	-11242
▁kapɛ	-11243
▁kaɲɛ	-11244
▁kéré	-11245
▁luna	-11246
▁mahu	-11247
▁mand	-11248
▁mexi	-11249
▁moku	-11250
▁mɛyɑ	-11251
▁ninw	-11252
▁nuru	-11253
▁nɔɔn	-11254
▁page	-11255
▁puan	-11256
▁saxi	-11257
▁self	-11258
▁sugo	-11259
▁sukɔ	-11260
▁sula	-11261
▁toyi	-11262
▁tvam	-11263
▁ugon	-11264
▁vidi	-11265
▁wiki	-11266
▁wila	-11267
▁wiya	-11268
▁xidi	-11269
▁yada	-11270
▁yorô	-11271
▁zara	-11272
▁çeki	-11273
fariya	-11274
fɔɲɔba	-11275
kesian	-11276
lamɛya	-11277
moriya	-11278
▁10:37	-11279
▁28:19	-11280
▁6:18.	-11281
▁ajalɛ	-11282
▁andre	-11283
▁aruna	-11284
▁audio	-11285
▁balan	-11286
▁bandu	-11287
▁beeni	-11288
▁besse	-11289
▁blugi	-11290
▁caron	-11291
▁cɛbaw	-11292
▁dalen	-11293
▁entry	-11294
▁extra	-11295
▁filiw	-11296
▁intan	-11297
▁jiran	-11298
▁kaarh	-11299
▁kanba	-11300
▁kanus	-11301
▁keree	-11302
▁koron	-11303
▁koyan	-11304
▁kɔ̃so	-11305
▁kɛlɛw	-11306
▁laadi	-11307
▁ladòn	-11308
▁laman	-11309
▁lover	-11310
▁nahan	-11311
▁nkala	-11312
▁nɔɔru	-11313
▁pette	-11314
▁proba	-11315
▁savia	-11316
▁sonko	-11317
▁sɛ̀nɛ	-11318
▁teens	-11319
▁world	-11320
▁yesun	-11321
▁ɲangi	-11322
&#8230;	-11323
filisiw	-11324
fitrión	-11325
isiyaka	-11326
▁="49">	-11327
▁afɔtuɛ	-11328
▁antifa	-11329
▁baganw	-11330
▁balaki	-11331
▁basigi	-11332
▁bloods	-11333
▁dourou	-11334
▁dɔwɛrɛ	-11335
▁eacute	-11336
▁falama	-11337
▁famiɛn	-11338
▁farasi	-11339
▁filɛra	-11340
▁foroca	-11341
▁furuko	-11342
▁kamari	-11343
▁kanama	-11344
▁kapere	-11345
▁kasoon	-11346
▁kelima	-11347
▁klikli	-11348
▁kurɔbu	-11349
▁kusɛnɛ	-11350
▁kɔnɔma	-11351
▁lakoli	-11352
▁magoɲè	-11353
▁nakisi	-11354
▁nation	-11355
▁nigiri	-11356
▁nôgôya	-11357
▁nɛnina	-11358
▁ponana	-11359
▁saabui	-11360
▁sagoon	-11361
▁serikɔ	-11362
▁songon	-11363
▁sɔnnin	-11364
▁thanks	-11365
▁tseegh	-11366
▁velugu	-11367
▁verdad	-11368
▁wagafe	-11369
▁walama	-11370
▁ɲidaan	-11371
▁ɲɛfɔra	-11372
▁ɲɛnata	-11373
kanbelen	-11374
lemayisi	-11375
▁adoptee	-11376
▁akiiloo	-11377
▁akpasua	-11378
▁bissaba	-11379
▁britani	-11380
▁bɔwaati	-11381
▁cɛnbaga	-11382
▁djourou	-11383
▁fabrics	-11384
▁fanngan	-11385
▁goodbye	-11386
▁kajɛŋgɛ	-11387
▁kirinna	-11388
▁kokolon	-11389
▁kɔnɔtɔn	-11390
▁namaraw	-11391
▁nilifèn	-11392
▁nimafen	-11393
▁nolumaw	-11394
▁orhemen	-11395
▁pensaba	-11396
▁pèrènna	-11397
▁sayangg	-11398
▁sekolah	-11399
▁soronji	-11400
▁station	-11401
▁sukɔrɔw	-11402
▁tiyɔngɔ	-11403
▁tugunin	-11404
▁vɛrisew	-11405
▁banbanin	-11406
▁batolikɛ	-11407
▁bonyafɛn	-11408
▁bɛrɛbɛrɛ	-11409
▁dakamana	-11410
▁dogoninw	-11411
▁dɔtɔrɔya	-11412
▁furaburu	-11413
▁gɛrɛgɛrɛ	-11414
▁kanutigi	-11415
▁karimɛli	-11416
▁kàramɔgɔ	-11417
▁kɔrɔsigi	-11418
▁labɛnlon	-11419
▁masacɛba	-11420
▁minɛtuma	-11421
▁niyɔriki	-11422
▁nɛnɛkiri	-11423
▁sagadenw	-11424
▁sidabana	-11425
▁surafana	-11426
▁sìlamɛya	-11427
boroyanfan	-11428
hakilitigi	-11429
sɔgɔmadafɛ	-11430
takɔrɔsigi	-11431
▁anfitrión	-11432
▁biranmuso	-11433
▁bɔgɔdagaw	-11434
▁commenced	-11435
▁denɲɛninw	-11436
▁dɔgɔmusow	-11437
▁jalakinin	-11438
▁kamanagan	-11439
▁kirgistan	-11440
▁kongotaga	-11441
▁kɛlɛbagaw	-11442
▁labɛnbaga	-11443
▁lɔnniyafu	-11444
▁masirifɛn	-11445
▁miirijugu	-11446
▁musoɲuman	-11447
▁saduseɲɛw	-11448
▁sudonyɔrɔ	-11449
▁sugandixi	-11450
▁tilanyɔrɔ	-11451
▁tɛmɛsiraw	-11452
▁ɛrɛzɛnsun	-11453
▁ɲamɔgɔden	-11454
ɛrɛzɛnforow	-11455
▁balenmancɛ	-11456
▁dougoukolo	-11457
▁forobayɔrɔ	-11458
▁jinatɔkɔrɔ	-11459
▁kotilennin	-11460
▁kurunbabaw	-11461
▁munumununa	-11462
▁mɔgɔɲɔgɔnw	-11463
▁pettesaanu	-11464
▁hakilintanw	-11465
▁kojugukèlaw	-11466
▁kunmabɔbaga	-11467
▁kuntigimuso	-11468
▁kɛlɛkuntigi	-11469
▁gwɛrɛgwɛrɛko	-11470
▁potolemayisi	-11471
▁sigiyɔrɔsoba	-11472
▁tilenninyako	-11473
▁timinadiyanin	-11474
▁zuwifusunguru	-11475
▁ɲumanlɔnbagaw	-11476
2)	-11477
ez	-11478
jɔ	-11479
lv	-11480
or	-11481
pɔ	-11482
zɔ	-11483
ɲe	-11484
▁🐟	-11485
▁🥚	-11486
."*	-11487
9">	-11488
:04	-11489
aba	-11490
abu	-11491
cuu	-11492
dah	-11493
efa	-11494
gis	-11495
let	-11496
mua	-11497
nrn	-11498
ppy	-11499
sak	-11500
sit	-11501
tty	-11502
yes	-11503
yiɛ	-11504
zil	-11505
▁75	-11506
▁85	-11507
▁86	-11508
▁95	-11509
▁eg	-11510
▁ph	-11511
▁sm	-11512
▁ww	-11513
▁🥚.	-11514
...]	-11515
..:)	-11516
binu	-11517
daar	-11518
dɛmu	-11519
faan	-11520
firi	-11521
foli	-11522
giba	-11523
hile	-11524
inan	-11525
inba	-11526
kiya	-11527
kutu	-11528
modi	-11529
muan	-11530
rist	-11531
sana	-11532
sili	-11533
sima	-11534
sing	-11535
sɔsi	-11536
tage	-11537
tina	-11538
tiya	-11539
tted	-11540
wana	-11541
yere	-11542
▁(24	-11543
▁2.1	-11544
▁38-	-11545
▁49"	-11546
▁="4	-11547
▁ass	-11548
▁bie	-11549
▁blh	-11550
▁bul	-11551
▁bur	-11552
▁cag	-11553
▁cho	-11554
▁daf	-11555
▁das	-11556
▁dei	-11557
▁det	-11558
▁dim	-11559
▁dut	-11560
▁eki	-11561
▁gbè	-11562
▁grè	-11563
▁gua	-11564
▁hah	-11565
▁ing	-11566
▁jàn	-11567
▁ker	-11568
▁kra	-11569
▁ney	-11570
▁nib	-11571
▁nyã	-11572
▁ore	-11573
▁out	-11574
▁pua	-11575
▁rap	-11576
▁sao	-11577
▁sud	-11578
▁swe	-11579
▁vii	-11580
▁vow	-11581
▁wad	-11582
▁wen	-11583
▁yia	-11584
▁yra	-11585
:2121	-11586
altho	-11587
kongo	-11588
kuman	-11589
ladon	-11590
leele	-11591
mbele	-11592
minɛn	-11593
mpkin	-11594
seere	-11595
sigui	-11596
tenir	-11597
ɲaren	-11598
▁3:04	-11599
▁8:24	-11600
▁8:26	-11601
▁alan	-11602
▁albu	-11603
▁ange	-11604
▁awek	-11605
▁bhai	-11606
▁bolɛ	-11607
▁buay	-11608
▁bɛsɛ	-11609
▁call	-11610
▁cama	-11611
▁cian	-11612
▁como	-11613
▁demi	-11614
▁dian	-11615
▁drug	-11616
▁dɑ̃ɑ	-11617
▁dɔni	-11618
▁esto	-11619
▁fima	-11620
▁fite	-11621
▁fɛma	-11622
▁gata	-11623
▁gbin	-11624
▁gets	-11625
▁gobi	-11626
▁haan	-11627
▁holi	-11628
▁ikan	-11629
▁jeli	-11630
▁jɔrɛ	-11631
▁kèta	-11632
▁kìla	-11633
▁leru	-11634
▁lode	-11635
▁lodi	-11636
▁loni	-11637
▁mafɔ	-11638
▁meet	-11639
▁mood	-11640
▁nene	-11641
▁nige	-11642
▁nnɛn	-11643
▁nsfw	-11644
▁poti	-11645
▁raba	-11646
▁sagt	-11647
▁saki	-11648
▁seba	-11649
▁sexy	-11650
▁side	-11651
▁sigo	-11652
▁siti	-11653
▁soko	-11654
▁sule	-11655
▁sɛti	-11656
▁taso	-11657
▁tumu	-11658
▁tàan	-11659
▁wuya	-11660
▁xono	-11661
▁yolɛ	-11662
▁yooo	-11663
▁yìri	-11664
▁zabu	-11665
▁zero	-11666
▁ɲɛɛn	-11667
efakyɛ	-11668
fɛrine	-11669
kabako	-11670
mɛnɛmɛ	-11671
nawomi	-11672
pilige	-11673
tioned	-11674
▁2011,	-11675
▁anuan	-11676
▁bikia	-11677
▁built	-11678
▁busan	-11679
▁coraz	-11680
▁corre	-11681
▁efkan	-11682
▁eliya	-11683
▁enugu	-11684
▁essay	-11685
▁fango	-11686
▁filip	-11687
▁gasnu	-11688
▁gbele	-11689
▁green	-11690
▁gèlèn	-11691
▁jaldi	-11692
▁jelek	-11693
▁jogin	-11694
▁jɛngɛ	-11695
▁kamal	-11696
▁kanyi	-11697
▁katoo	-11698
▁kiran	-11699
▁kissi	-11700
▁konna	-11701
▁kɔɛɛn	-11702
▁kɔ̃su	-11703
▁learn	-11704
▁leman	-11705
▁lesin	-11706
▁loolu	-11707
▁majii	-11708
▁mbɔɔn	-11709
▁nanni	-11710
▁ninin	-11711
▁ninvu	-11712
▁oorun	-11713
▁pulak	-11714
▁ragbɛ	-11715
▁roses	-11716
▁saari	-11717
▁sbnrn	-11718
▁seewo	-11719
▁simòn	-11720
▁solar	-11721
▁sɔndi	-11722
▁sɛbɛw	-11723
▁tagai	-11724
▁tanin	-11725
▁tanto	-11726
▁teren	-11727
▁wanso	-11728
▁yôrôw	-11729
▁yɛnlɛ	-11730
▁ɲinɛn	-11731
▁balawo	-11732
▁burama	-11733
▁busgui	-11734
▁dandan	-11735
▁davidi	-11736
▁djoumè	-11737
▁dònbaa	-11738
▁fatɔya	-11739
▁filèli	-11740
▁gerumɔ	-11741
▁geyazi	-11742
▁jɔncɛw	-11743
▁jɛjugu	-11744
▁kalako	-11745
▁kitiko	-11746
▁koonoo	-11747
▁kpuron	-11748
▁kuluwo	-11749
▁ladies	-11750
▁miskin	-11751
▁mɛnnin	-11752
▁nebati	-11753
▁nunfuɛ	-11754
▁pretty	-11755
▁reason	-11756
▁sadegi	-11757
▁sigila	-11758
▁sikora	-11759
▁sokɔnɔ	-11760
▁suguya	-11761
▁sìgira	-11762
▁triing	-11763
▁wɛrɛku	-11764
▁yɛtagi	-11765
▁zozɛfu	-11766
bɛnzamɛn	-11767
waatijan	-11768
▁aaminin	-11769
▁bamusow	-11770
▁cagdaar	-11771
▁dajuruw	-11772
▁daminin	-11773
▁diction	-11774
▁dugugwɛ	-11775
▁dundunw	-11776
▁dɛ̄dɛɛ̄	-11777
▁fanigwɛ	-11778
▁gomanye	-11779
▁halimaw	-11780
▁kakalaw	-11781
▁kamakun	-11782
▁kiitiyo	-11783
▁kikoete	-11784
▁kititɛɛ	-11785
▁kulunba	-11786
▁kɛlɛkow	-11787
▁lamɛnni	-11788
▁manaman	-11789
▁million	-11790
▁musoilu	-11791
▁pumpkin	-11792
▁russian	-11793
▁tchèman	-11794
▁trotted	-11795
▁tèmènna	-11796
▁tɛmɛnen	-11797
▁yankees	-11798
▁çekiyon	-11799
▁ɲiɲaren	-11800
▁baaraban	-11801
▁bangelen	-11802
▁betuwɛli	-11803
▁cogokɔrɔ	-11804
▁gofɛrɛna	-11805
▁hɛrɛtigi	-11806
▁jakariya	-11807
▁kɔlɔsili	-11808
▁kɔnɔkisɛ	-11809
▁kɔrinɛyi	-11810
▁kɛnɛyaso	-11811
▁labɛnbaa	-11812
▁ladibaga	-11813
▁nagasira	-11814
▁nigɛjugu	-11815
▁nɛmɛnɛmɛ	-11816
▁sigibaga	-11817
▁sogojugu	-11818
▁strangor	-11819
▁sɔrɔsira	-11820
▁telennin	-11821
▁thailand	-11822
▁tiɲɛfɔla	-11823
▁tɛ̀mɛnen	-11824
▁walikɛɛn	-11825
▁yonbdaan	-11826
▁barikatan	-11827
▁bɔnefakyɛ	-11828
▁dilancogo	-11829
▁dingɛjugu	-11830
▁donkilila	-11831
▁dugumisɛn	-11832
▁julakolon	-11833
▁jɛnɲɔgɔnw	-11834
▁kalancogo	-11835
▁kalanjugu	-11836
▁kodjougou	-11837
▁kumakolon	-11838
▁kumancogo	-11839
▁nafolofɛn	-11840
▁siyamɔgɔw	-11841
▁sumangosi	-11842
▁sumantigɛ	-11843
▁bɛtisayida	-11844
▁denmusoilu	-11845
▁dugudennin	-11846
▁dugutigiya	-11847
▁dusukasiko	-11848
▁jinamoriya	-11849
▁kabakomanw	-11850
▁sedesiyasi	-11851
▁ɛrɛzɛnforo	-11852
hakilitigiya	-11853
▁bangekɔlɔsi	-11854
▁barokɛcogow	-11855
▁begɛnmisɛnw	-11856
▁dictionnaire	-11857
▁filɛlikɛyɔrɔ	-11858
▁tilegwangwan	-11859
▁zeruzalɛmuka	-11860
▁kunkanbaaraba	-11861
▁nkalontigèlaw	-11862
▁weleweledalaw	-11863
▁kabakurulamanw	-11864
▁nalomanyabaara	-11865
▁timinadiyaninw	-11866
99	-11867
vɛ	-11868
ŋu	-11869
▁č	-11870
▁†	-11871
242	-11872
39;	-11873
:1,	-11874
bbe	-11875
bei	-11876
car	-11877
cee	-11878
ces	-11879
fei	-11880
gai	-11881
hya	-11882
iyɔ	-11883
jit	-11884
lai	-11885
lod	-11886
lén	-11887
mps	-11888
ouw	-11889
pii	-11890
sal	-11891
sat	-11892
the	-11893
tuk	-11894
vas	-11895
yaa	-11896
yie	-11897
zma	-11898
òro	-11899
▁+1	-11900
▁1!	-11901
▁77	-11902
▁ná	-11903
▁ní	-11904
▁oi	-11905
▁rk	-11906
▁ty	-11907
▁tê	-11908
▁ud	-11909
▁wá	-11910
anya	-11911
babi	-11912
best	-11913
bont	-11914
buni	-11915
bɛɛ̄	-11916
fulu	-11917
galo	-11918
ginu	-11919
hehe	-11920
hele	-11921
hɛɛn	-11922
koon	-11923
loyo	-11924
maka	-11925
mbun	-11926
mɔgɛ	-11927
nada	-11928
njin	-11929
pada	-11930
peja	-11931
rami	-11932
rced	-11933
ricɛ	-11934
room	-11935
ruya	-11936
rɛsi	-11937
sika	-11938
sègè	-11939
tang	-11940
tong	-11941
tuba	-11942
tuna	-11943
turn	-11944
xine	-11945
yimi	-11946
ɛngɛ	-11947
▁(3)	-11948
▁2.5	-11949
▁20-	-11950
▁30"	-11951
▁3:2	-11952
▁4-6	-11953
▁69'	-11954
▁="9	-11955
▁agk	-11956
▁bau	-11957
▁bgt	-11958
▁bot	-11959
▁dab	-11960
▁egw	-11961
▁eku	-11962
▁ela	-11963
▁fad	-11964
▁feu	-11965
▁foh	-11966
▁fɔr	-11967
▁fɔɛ	-11968
▁gne	-11969
▁gol	-11970
▁ill	-11971
▁kaā	-11972
▁kof	-11973
▁kɛ̀	-11974
▁lye	-11975
▁lɔɔ	-11976
▁màn	-11977
▁naf	-11978
▁nbe	-11979
▁nir	-11980
▁nɲɛ	-11981
▁pet	-11982
▁pyi	-11983
▁ram	-11984
▁rɑɑ	-11985
▁sau	-11986
▁tgk	-11987
▁tta	-11988
▁une	-11989
▁yey	-11990
▁ŋmɔ	-11991
▁ɛvu	-11992
akabu	-11993
coooo	-11994
donda	-11995
ganan	-11996
liyɔn	-11997
mamɔɔ	-11998
minen	-11999
tenin	-12000
tiful	-12001
tiriw	-12002
tower	-12003
▁0:00	-12004
▁122:	-12005
▁1976	-12006
▁1985	-12007
▁8:22	-12008
▁____	-12009
▁aliɛ	-12010
▁annɛ	-12011
▁babe	-12012
▁baja	-12013
▁beka	-12014
▁blin	-12015
▁boor	-12016
▁buna	-12017
▁béna	-12018
▁bôla	-12019
▁dera	-12020
▁digo	-12021
▁dyan	-12022
▁enya	-12023
▁fori	-12024
▁forn	-12025
▁gabu	-12026
▁gift	-12027
▁gree	-12028
▁gɔgi	-12029
▁hong	-12030
▁htar	-12031
▁inte	-12032
▁iron	-12033
▁juro	-12034
▁kafô	-12035
▁kage	-12036
▁kakè	-12037
▁kalɛ	-12038
▁kito	-12039
▁kwun	-12040
▁kèni	-12041
▁laks	-12042
▁legs	-12043
▁lidi	-12044
▁liya	-12045
▁lɔni	-12046
▁maal	-12047
▁maya	-12048
▁mens	-12049
▁nsan	-12050
▁nyɔn	-12051
▁pili	-12052
▁piyo	-12053
▁pyar	-12054
▁seem	-12055
▁seka	-12056
▁soku	-12057
▁stal	-12058
▁sɛri	-12059
▁text	-12060
▁tggu	-12061
▁thin	-12062
▁thug	-12063
▁tika	-12064
▁tuka	-12065
▁tökö	-12066
▁vody	-12067
▁wiga	-12068
▁yinɑ	-12069
▁yugu	-12070
▁zoom	-12071
precia	-12072
seyiri	-12073
tiguiw	-12074
▁10:28	-12075
▁19:23	-12076
▁2018:	-12077
▁22:12	-12078
▁="3">	-12079
▁abiir	-12080
▁aniga	-12081
▁badoo	-12082
▁banda	-12083
▁baril	-12084
▁barin	-12085
▁bibig	-12086
▁bilen	-12087
▁bènba	-12088
▁caama	-12089
▁carti	-12090
▁ciraw	-12091
▁dakow	-12092
▁diyar	-12093
▁djoli	-12094
▁donba	-12095
▁dɔ̀lɔ	-12096
▁ebɛɛ̄	-12097
▁efira	-12098
▁fanmo	-12099
▁fizaa	-12100
▁glɛki	-12101
▁gwɛya	-12102
▁hanma	-12103
▁haría	-12104
▁juruw	-12105
▁kamba	-12106
▁kumfa	-12107
▁kywae	-12108
▁lalla	-12109
▁larki	-12110
▁mante	-12111
▁mbege	-12112
▁model	-12113
▁mouse	-12114
▁quiet	-12115
▁sagar	-12116
▁saxan	-12117
▁seben	-12118
▁seeri	-12119
▁shuun	-12120
▁syste	-12121
▁taunu	-12122
▁tilin	-12123
▁yaari	-12124
▁yɔnlɔ	-12125
▁ɲataa	-12126
fitinin	-12127
zalɛmun	-12128
▁5:1414	-12129
▁angilɛ	-12130
▁ankahi	-12131
▁arabuw	-12132
▁arinɔn	-12133
▁awlobo	-12134
▁deedee	-12135
▁demuso	-12136
▁dèmèni	-12137
▁filana	-12138
▁filɛri	-12139
▁finnin	-12140
▁gibeya	-12141
▁girɛsi	-12142
▁jigiko	-12143
▁jirali	-12144
▁kalige	-12145
▁karina	-12146
▁killer	-12147
▁kɛnɛba	-12148
▁lajɛba	-12149
▁lakisi	-12150
▁manden	-12151
▁menyan	-12152
▁môbili	-12153
▁mɔwisi	-12154
▁mɛrɛgɛ	-12155
▁ninugu	-12156
▁nògòya	-12157
▁pooche	-12158
▁puanım	-12159
▁rafara	-12160
▁rebeka	-12161
▁risila	-12162
▁sanbon	-12163
▁sariru	-12164
▁seento	-12165
▁setana	-12166
▁sirada	-12167
▁siyɔrɔ	-12168
▁souman	-12169
▁taamaw	-12170
▁tantan	-12171
▁tisaga	-12172
▁tɔrɔfɛ	-12173
▁tɛmɛni	-12174
▁walrus	-12175
▁wuswaa	-12176
▁ɲaɲiŋɛ	-12177
farisogo	-12178
nimanfɛn	-12179
zozafati	-12180
▁bangkok	-12181
▁barigon	-12182
▁cinnjin	-12183
▁etiyusi	-12184
▁fasoden	-12185
▁fununan	-12186
▁galiyɔn	-12187
▁gɛlɛyaw	-12188
▁hinanni	-12189
▁juillet	-12190
▁kirisin	-12191
▁kolonɲɛ	-12192
▁lafiyɛn	-12193
▁lasiran	-12194
▁lovedto	-12195
▁maliden	-12196
▁mentira	-12197
▁minɛlon	-12198
▁ninvuɣu	-12199
▁nyinina	-12200
▁taamash	-12201
▁tagayee	-12202
▁waxatin	-12203
▁woloden	-12204
▁yaalala	-12205
▁yamanan	-12206
gɛnbagatɔ	-12207
▁apoliyɔn	-12208
▁asensado	-12209
▁britania	-12210
▁divorced	-12211
▁dubatigi	-12212
▁dugusajè	-12213
▁dɔkɔtɔrɔ	-12214
▁hakilina	-12215
▁juulumun	-12216
▁kaburuda	-12217
▁kisiliko	-12218
▁kɛrɛkɛrɛ	-12219
▁labatoli	-12220
▁lodebari	-12221
▁minɛcogo	-12222
▁mɔgɔsaba	-12223
▁nɔrɔcogo	-12224
▁salaminè	-12225
▁samariya	-12226
▁sitefana	-12227
▁sègèsègè	-12228
▁sɔrɔbali	-12229
▁sɛbɛninw	-12230
▁tantunma	-12231
▁tununnen	-12232
▁yeelenba	-12233
▁ɲamɔgɔba	-12234
zerobowamu	-12235
▁beautiful	-12236
▁bɔɲɔgɔnko	-12237
▁denbayaan	-12238
▁enjergara	-12239
▁jigitigiw	-12240
▁kalendenw	-12241
▁kikoeteru	-12242
▁kumaɲuman	-12243
▁latigɛkow	-12244
▁mexicoooo	-12245
▁sumankisɛ	-12246
▁yɛlɛmanna	-12247
▁bòɲògònkow	-12248
▁dabaribana	-12249
▁kabakurunw	-12250
▁lasigidenw	-12251
▁barikantanw	-12252
▁dusukunnako	-12253
▁fɛlɛlilailu	-12254
▁karamɔgɔlɔɔ	-12255
▁kɛwalijuguw	-12256
▁numanyanfan	-12257
▁nɛrɛmuguman	-12258
▁sɛbɛnnikɛla	-12259
▁zerizalɛmun	-12260
▁siratilennin	-12261
▁jatigɛkulekan	-12262
▁lemɛninyamɔɔilu	-12263
!)	-12264
-!	-12265
.;	-12266
5)	-12267
9:	-12268
cɔ	-12269
ol	-12270
pr	-12271
ps	-12272
ña	-12273
ικ	-12274
ית	-12275
યન	-12276
கா	-12277
▁€	-12278
▁♫	-12279
▁✔	-12280
131	-12281
anu	-12282
cer	-12283
deh	-12284
dgi	-12285
dra	-12286
dri	-12287
eso	-12288
fir	-12289
ges	-12290
gèn	-12291
haa	-12292
irɑ	-12293
jen	-12294
jun	-12295
kam	-12296
mel	-12297
nam	-12298
suf	-12299
sɛr	-12300
tek	-12301
tfw	-12302
uŋɔ	-12303
was	-12304
éné	-12305
▁2,	-12306
▁3‹	-12307
▁5"	-12308
▁bï	-12309
▁hy	-12310
▁mí	-12311
▁mò	-12312
▁nz	-12313
▁sĩ	-12314
▁tb	-12315
▁tc	-12316
▁tp	-12317
▁ut	-12318
-19.	-12319
.000	-12320
????	-12321
blok	-12322
ciɛn	-12323
dòmè	-12324
fini	-12325
foor	-12326
geba	-12327
gɛli	-12328
humu	-12329
iner	-12330
kimu	-12331
kiru	-12332
less	-12333
lone	-12334
long	-12335
mela	-12336
phan	-12337
ribu	-12338
roni	-12339
suuw	-12340
sɔla	-12341
tutu	-12342
vati	-12343
xolu	-12344
ɣisi	-12345
ಿಯನ್	-12346
▁(7)	-12347
▁4:8	-12348
▁5:1	-12349
▁8:3	-12350
▁="5	-12351
▁ann	-12352
▁awu	-12353
▁awé	-12354
▁bao	-12355
▁dĩɑ	-12356
▁gad	-12357
▁gha	-12358
▁hui	-12359
▁hve	-12360
▁ion	-12361
▁job	-12362
▁jul	-12363
▁jur	-12364
▁jyo	-12365
▁keu	-12366
▁kik	-12367
▁kim	-12368
▁kyu	-12369
▁leb	-12370
▁led	-12371
▁lir	-12372
▁luk	-12373
▁mag	-12374
▁mao	-12375
▁mol	-12376
▁mua	-12377
▁ngɛ	-12378
▁nia	-12379
▁nie	-12380
▁nmn	-12381
▁num	-12382
▁nòn	-12383
▁obi	-12384
▁pod	-12385
▁pɛn	-12386
▁rin	-12387
▁roy	-12388
▁sal	-12389
▁sav	-12390
▁sew	-12391
▁sma	-12392
▁tar	-12393
▁taā	-12394
▁tua	-12395
▁ume	-12396
▁wùu	-12397
▁yel	-12398
..???	-12399
alous	-12400
ankaw	-12401
burao	-12402
ggert	-12403
imene	-12404
inilu	-12405
lilwe	-12406
masɔn	-12407
penda	-12408
saalo	-12409
ssion	-12410
uroun	-12411
yôrôw	-12412
̀gɔma	-12413
▁13:5	-12414
▁1937	-12415
▁1964	-12416
▁1991	-12417
▁1:12	-12418
▁5:41	-12419
▁alex	-12420
▁asta	-12421
▁baap	-12422
▁bane	-12423
▁bini	-12424
▁bore	-12425
▁boys	-12426
▁bèti	-12427
▁bôni	-12428
▁bɔke	-12429
▁caro	-12430
▁dadi	-12431
▁deta	-12432
▁dewa	-12433
▁didi	-12434
▁dola	-12435
▁dolu	-12436
▁dàba	-12437
▁eyin	-12438
▁fôla	-12439
▁hera	-12440
▁itte	-12441
▁jiha	-12442
▁kaho	-12443
▁karu	-12444
▁kavi	-12445
▁kool	-12446
▁koŋɔ	-12447
▁kpee	-12448
▁kɔkɔ	-12449
▁laba	-12450
▁libi	-12451
▁ligɛ	-12452
▁liye	-12453
▁liñi	-12454
▁loyi	-12455
▁macu	-12456
▁mafi	-12457
▁matɔ	-12458
▁miru	-12459
▁mmua	-12460
▁muse	-12461
▁ngun	-12462
▁nibi	-12463
▁nson	-12464
▁nɔru	-12465
▁nɛma	-12466
▁nɛɛ̄	-12467
▁okan	-12468
▁papi	-12469
▁pona	-12470
▁rene	-12471
▁salu	-12472
▁shee	-12473
▁sisa	-12474
▁sofa	-12475
▁sorô	-12476
▁sunn	-12477
▁taki	-12478
▁tapi	-12479
▁tire	-12480
▁tsɔɔ	-12481
▁tuko	-12482
▁turo	-12483
▁tɛɛ̄	-12484
▁uzma	-12485
▁xoto	-12486
▁yilɛ	-12487
▁yège	-12488
▁zayn	-12489
▁zope	-12490
▁ɗazu	-12491
▁ɲɔxɔ	-12492
akwara	-12493
djigui	-12494
kɛninw	-12495
maniye	-12496
mayaan	-12497
missin	-12498
tayimu	-12499
▁14:16	-12500
▁19:17	-12501
▁2015!	-12502
▁3.600	-12503
▁abiya	-12504
▁akazi	-12505
▁bango	-12506
▁beeko	-12507
▁brode	-12508
▁brodi	-12509
▁daaju	-12510
▁fanha	-12511
▁faraw	-12512
▁fariz	-12513
▁fiyen	-12514
▁fyɛrɛ	-12515
▁garan	-12516
▁grupu	-12517
▁hahha	-12518
▁hecho	-12519
▁irina	-12520
▁islam	-12521
▁jaagi	-12522
▁jango	-12523
▁karim	-12524
▁kisss	-12525
▁kèlen	-12526
▁lasii	-12527
▁likin	-12528
▁loser	-12529
▁mmusu	-12530
▁mutce	-12531
▁mùgan	-12532
▁nison	-12533
▁npogo	-12534
▁nɔɔri	-12535
▁parti	-12536
▁sakpa	-12537
▁sanfe	-12538
▁sinnd	-12539
▁sirvo	-12540
▁sofia	-12541
▁syila	-12542
▁sɛrɛn	-12543
▁tagae	-12544
▁tunbè	-12545
▁tunga	-12546
▁tàata	-12547
▁tɔɔnw	-12548
▁uruti	-12549
▁viiii	-12550
▁wazan	-12551
▁wɔrɔn	-12552
▁wɛ̃re	-12553
▁yeeri	-12554
▁yomɛn	-12555
▁zurna	-12556
▁ŋgase	-12557
bolilaw	-12558
lɔgɔkun	-12559
masamaw	-12560
ɲanmiɛn	-12561
▁adoroo	-12562
▁amiina	-12563
▁amunɔn	-12564
▁anukun	-12565
▁badila	-12566
▁bariya	-12567
▁bhooot	-12568
▁buruku	-12569
▁bɔlenw	-12570
▁daftar	-12571
▁djidja	-12572
▁doodoo	-12573
▁dògòya	-12574
▁fɔninw	-12575
▁gnôngô	-12576
▁greece	-12577
▁julayi	-12578
▁kalian	-12579
▁kalili	-12580
▁keyita	-12581
▁kimaan	-12582
▁kumata	-12583
▁kɔlɔnw	-12584
▁kɔnɔnɔ	-12585
▁labhon	-12586
▁lamɔko	-12587
▁lamɔɛn	-12588
▁lɔbaga	-12589
▁maklum	-12590
▁maleya	-12591
▁mamacɛ	-12592
▁manman	-12593
▁mufasa	-12594
▁naruto	-12595
▁natɛgɛ	-12596
▁nawala	-12597
▁nijugu	-12598
▁numukɛ	-12599
▁pilasi	-12600
▁sereyɛ	-12601
▁sigini	-12602
▁sirusi	-12603
▁sodòmè	-12604
▁summer	-12605
▁sèbèli	-12606
▁sòsòli	-12607
▁sɔŋsim	-12608
▁taxala	-12609
▁tokola	-12610
▁tugana	-12611
▁tumodi	-12612
▁tunuma	-12613
▁tɛmana	-12614
▁woletɔ	-12615
▁yafako	-12616
▁yafari	-12617
▁yitala	-12618
asirikaw	-12619
rinahumu	-12620
▁14:1717	-12621
▁aniguna	-12622
▁asafura	-12623
▁baburao	-12624
▁baleman	-12625
▁blingee	-12626
▁chisɔsi	-12627
▁cɛnniba	-12628
▁denmusi	-12629
▁faantan	-12630
▁farigan	-12631
▁gabaŋɔn	-12632
▁granted	-12633
▁jugunin	-12634
▁kaninba	-12635
▁kirinni	-12636
▁kɔsegir	-12637
▁lɔyɔrɔw	-12638
▁manfoor	-12639
▁pasaran	-12640
▁pɛrɛsiw	-12641
▁saranna	-12642
▁sbnrnya	-12643
▁sɔ̀gɔma	-12644
▁taalikɛ	-12645
▁tubabuw	-12646
▁tununna	-12647
▁youtube	-12648
▁yèlèman	-12649
preciated	-12650
▁australi	-12651
▁balabugu	-12652
▁bisimila	-12653
▁blaggert	-12654
▁bɔnsɔnna	-12655
▁bɔɲɔgɔnw	-12656
▁cɛfariya	-12657
▁cɛɲumani	-12658
▁daaliliw	-12659
▁daripada	-12660
▁dibidibi	-12661
▁dàbakala	-12662
▁fantancɛ	-12663
▁farafina	-12664
▁farifaga	-12665
▁jamanaɲɛ	-12666
▁lakalita	-12667
▁lɔnbagaw	-12668
▁mantenir	-12669
▁saniyako	-12670
▁tagabolo	-12671
▁wikipeja	-12672
▁wolofila	-12673
▁wɛrɛkunu	-12674
▁albatross	-12675
▁ananpenda	-12676
▁batobagaw	-12677
▁denfitini	-12678
▁dilanbaga	-12679
▁dususaalo	-12680
▁fɔrɔmasɔn	-12681
▁kalelilwe	-12682
▁kannafani	-12683
▁kunmabɔra	-12684
▁kòseginna	-12685
▁lonanmuso	-12686
▁nigɛlaman	-12687
▁saanankaw	-12688
▁siimayaan	-12689
▁sɛrɛnbaga	-12690
▁tubabukan	-12691
▁denbatigiw	-12692
▁feereyɔɔrɔ	-12693
▁isirayilaa	-12694
▁murutininw	-12695
▁sanulamanw	-12696
▁sunguruman	-12697
▁taamashyèn	-12698
▁tiɲɛtigiya	-12699
▁ɲagamininw	-12700
▁appreciated	-12701
▁dibilamɔgɔw	-12702
▁makolontɔya	-12703
▁ɲagalilenba	-12704
▁dusukasiyɔrɔ	-12705
▁kapɛrinahumu	-12706
▁kunkɔrɔtafɛn	-12707
▁nyanamanyara	-12708
▁baarakɛɲɔgɔnw	-12709
▁bamusofitinin	-12710
'"	-12711
':	-12712
'?	-12713
.4	-12714
.]	-12715
41	-12716
87	-12717
?.	-12718
ab	-12719
hè	-12720
ok	-12721
vv	-12722
αν	-12723
ಸ್	-12724
▁š	-12725
▁■	-12726
▁🤣	-12727
06]	-12728
1,.	-12729
aku	-12730
ate	-12731
dal	-12732
die	-12733
gti	-12734
iti	-12735
jon	-12736
kei	-12737
kio	-12738
kti	-12739
lli	-12740
luw	-12741
mot	-12742
nnn	-12743
por	-12744
rog	-12745
tsu	-12746
vre	-12747
wur	-12748
yam	-12749
yum	-12750
èti	-12751
િયન	-12752
▁"-	-12753
▁("	-12754
▁+2	-12755
▁//	-12756
▁7:	-12757
▁bn	-12758
▁bó	-12759
▁jt	-12760
▁kã	-12761
▁mg	-12762
▁mh	-12763
▁ml	-12764
▁nâ	-12765
▁pd	-12766
▁ps	-12767
▁tt	-12768
▁ví	-12769
▁wô	-12770
▁zɔ	-12771
▁ˈˈ	-12772
:57.	-12773
aati	-12774
aniɛ	-12775
bulu	-12776
bɔhɔ	-12777
cɛnw	-12778
feek	-12779
fɛlɛ	-12780
fɛti	-12781
gene	-12782
hama	-12783
hanu	-12784
jina	-12785
kini	-12786
kuna	-12787
lena	-12788
life	-12789
lire	-12790
lonɛ	-12791
mage	-12792
mbri	-12793
miii	-12794
mine	-12795
mɔkɔ	-12796
ndra	-12797
nenw	-12798
oogo	-12799
rayi	-12800
riba	-12801
ruru	-12802
tɔla	-12803
viye	-12804
walo	-12805
yigi	-12806
yime	-12807
yugu	-12808
yuma	-12809
égui	-12810
▁1.9	-12811
▁12.	-12812
▁121	-12813
▁1:1	-12814
▁2:5	-12815
▁4.1	-12816
▁6:5	-12817
▁8:4	-12818
▁:-!	-12819
▁???	-12820
▁apa	-12821
▁bik	-12822
▁biɛ	-12823
▁bue	-12824
▁clo	-12825
▁cut	-12826
▁dos	-12827
▁dra	-12828
▁dɔr	-12829
▁gaj	-12830
▁gwo	-12831
▁her	-12832
▁his	-12833
▁ili	-12834
▁imi	-12835
▁jit	-12836
▁lax	-12837
▁lil	-12838
▁mid	-12839
▁miī	-12840
▁mus	-12841
▁màa	-12842
▁mɔk	-12843
▁nni	-12844
▁nuv	-12845
▁oun	-12846
▁pas	-12847
▁pur	-12848
▁pɔn	-12849
▁sei	-12850
▁siā	-12851
▁sưn	-12852
▁tai	-12853
▁tam	-12854
▁tos	-12855
▁uma	-12856
▁umu	-12857
▁ved	-12858
▁vos	-12859
▁wum	-12860
▁yip	-12861
▁ŋma	-12862
▁ɲèw	-12863
-1965	-12864
abisa	-12865
bɔɔrɔ	-12866
clock	-12867
cuumɔ	-12868
daanɔ	-12869
danla	-12870
edɔmu	-12871
eligi	-12872
lakow	-12873
lolon	-12874
mbala	-12875
mment	-12876
mɛnni	-12877
siyɛn	-12878
tanba	-12879
tigɛw	-12880
ɔgwɛn	-12881
▁1:09	-12882
▁1:11	-12883
▁1:28	-12884
▁2010	-12885
▁20:7	-12886
▁2:28	-12887
▁6,.,	-12888
▁6:16	-12889
▁81,.	-12890
▁8:25	-12891
▁abam	-12892
▁afee	-12893
▁amɔn	-12894
▁ansi	-12895
▁bace	-12896
▁beti	-12897
▁bibɑ	-12898
▁biko	-12899
▁biti	-12900
▁butu	-12901
▁butɔ	-12902
▁bélé	-12903
▁bɛta	-12904
▁cook	-12905
▁danx	-12906
▁dejo	-12907
▁duku	-12908
▁fann	-12909
▁frem	-12910
▁fuza	-12911
▁fòro	-12912
▁gouv	-12913
▁haze	-12914
▁hooo	-12915
▁hoyi	-12916
▁imot	-12917
▁junu	-12918
▁kaal	-12919
▁kaje	-12920
▁kaww	-12921
▁kiga	-12922
▁labô	-12923
▁latɔ	-12924
▁luxi	-12925
▁lìgi	-12926
▁lòle	-12927
▁lɛgɛ	-12928
▁mada	-12929
▁mena	-12930
▁migi	-12931
▁miir	-12932
▁minj	-12933
▁mura	-12934
▁mɛnɛ	-12935
▁naam	-12936
▁noun	-12937
▁nuun	-12938
▁peen	-12939
▁peri	-12940
▁pina	-12941
▁pɛ̃ɛ	-12942
▁rook	-12943
▁saso	-12944
▁sawu	-12945
▁seal	-12946
▁seme	-12947
▁sikɛ	-12948
▁soci	-12949
▁somo	-12950
▁sɛla	-12951
▁tabu	-12952
▁teha	-12953
▁teme	-12954
▁tete	-12955
▁tite	-12956
▁tune	-12957
▁tɑbu	-12958
▁tɛlɛ	-12959
▁whoo	-12960
▁wugu	-12961
▁wɑrɑ	-12962
▁yana	-12963
▁yaoi	-12964
▁yeko	-12965
▁yeru	-12966
▁yiga	-12967
▁yiyi	-12968
▁youn	-12969
▁zege	-12970
▁ñing	-12971
amoniw	-12972
cidenw	-12973
lininw	-12974
masɔla	-12975
situsi	-12976
wakaru	-12977
yinŋge	-12978
▁10:20	-12979
▁adoro	-12980
▁album	-12981
▁alima	-12982
▁aning	-12983
▁aniɛn	-12984
▁anufɔ	-12985
▁arafa	-12986
▁asɛri	-12987
▁baleh	-12988
▁banki	-12989
▁banni	-12990
▁belgi	-12991
▁bɔkua	-12992
▁bɔkun	-12993
▁china	-12994
▁coast	-12995
▁colle	-12996
▁criis	-12997
▁djica	-12998
▁dukia	-12999
▁dunia	-13000
▁dɔndɔ	-13001
▁faaba	-13002
▁gaari	-13003
▁ganba	-13004
▁ganna	-13005
▁gayee	-13006
▁gbara	-13007
▁gbogo	-13008
▁grèki	-13009
▁james	-13010
▁jibun	-13011
▁kamii	-13012
▁kansa	-13013
▁karta	-13014
▁kassi	-13015
▁kikun	-13016
▁klolɛ	-13017
▁kulon	-13018
▁kuncɛ	-13019
▁kélén	-13020
▁ladjè	-13021
▁likaw	-13022
▁louis	-13023
▁lɛtri	-13024
▁magar	-13025
▁magni	-13026
▁matic	-13027
▁mibiɛ	-13028
▁minji	-13029
▁minna	-13030
▁mɛdiw	-13031
▁mɛnnɑ	-13032
▁mɛɛna	-13033
▁nadia	-13034
▁nèguè	-13035
▁nɔɔba	-13036
▁nɔɔwɑ	-13037
▁sanba	-13038
▁seewa	-13039
▁senun	-13040
▁sides	-13041
▁smile	-13042
▁taako	-13043
▁teele	-13044
▁turaw	-13045
▁uriya	-13046
▁varry	-13047
▁yinmɛ	-13048
▁yiren	-13049
▁yĩiyɔ	-13050
▁zuwɛn	-13051
:57.06]	-13052
arabuni	-13053
doncogo	-13054
ɛsitɛri	-13055
▁3:11).	-13056
▁animal	-13057
▁barakè	-13058
▁barasu	-13059
▁bayesa	-13060
▁budget	-13061
▁canada	-13062
▁damage	-13063
▁dekhna	-13064
▁djouma	-13065
▁espere	-13066
▁farani	-13067
▁farawo	-13068
▁filisi	-13069
▁fyɔngɔ	-13070
▁hikari	-13071
▁iimiii	-13072
▁jaabiw	-13073
▁janjan	-13074
▁jeblok	-13075
▁juguye	-13076
▁kaafɛɛ	-13077
▁kakɔna	-13078
▁karafe	-13079
▁kasôrô	-13080
▁keleen	-13081
▁kelixi	-13082
▁kiriya	-13083
▁kitira	-13084
▁korila	-13085
▁kumino	-13086
▁kuyeie	-13087
▁lakana	-13088
▁lakɛrɛ	-13089
▁malaga	-13090
▁malika	-13091
▁market	-13092
▁master	-13093
▁matɔxɔ	-13094
▁mingaw	-13095
▁mosoyi	-13096
▁motiyo	-13097
▁mounou	-13098
▁mwɛɛru	-13099
▁ndanla	-13100
▁nitigi	-13101
▁niyòrò	-13102
▁nɔaniɛ	-13103
▁olorun	-13104
▁samjne	-13105
▁sirika	-13106
▁siriki	-13107
▁sogɛli	-13108
▁sorasi	-13109
▁sowari	-13110
▁tchien	-13111
▁toumbé	-13112
▁tulɔra	-13113
▁tungan	-13114
▁tɔgɛnu	-13115
▁yamana	-13116
▁yarada	-13117
▁yinnin	-13118
▁zurnal	-13119
abisalɔn	-13120
beriyadi	-13121
jigininw	-13122
kunnaden	-13123
sɔrɔbali	-13124
▁barista	-13125
▁bonbosi	-13126
▁daniɛli	-13127
▁doussou	-13128
▁faratiw	-13129
▁fataman	-13130
▁fontana	-13131
▁gwatigi	-13132
▁jirinin	-13133
▁jolidaw	-13134
▁josɔnko	-13135
▁kajɛnmɛ	-13136
▁kolonjo	-13137
▁kunkolo	-13138
▁kununni	-13139
▁kɛɲɛnin	-13140
▁lagnini	-13141
▁lajɛlen	-13142
▁lannaya	-13143
▁latanga	-13144
▁lɔsɔngɔ	-13145
▁lɛsɛnin	-13146
▁lɛtɛrɛw	-13147
▁mankutu	-13148
▁mannzin	-13149
▁marifaw	-13150
▁mɔntɔrɔ	-13151
▁mɔɔɲɔɔn	-13152
▁nanfenw	-13153
▁nɔgɔyak	-13154
▁oziyasi	-13155
▁sanfɛla	-13156
▁saratiw	-13157
▁serubɛn	-13158
▁sicuumɔ	-13159
▁telenet	-13160
▁trainer	-13161
▁tɔɔrɔko	-13162
▁waajuri	-13163
▁welenin	-13164
▁wulenna	-13165
▁yitandi	-13166
▁zabulɔn	-13167
▁zayirus	-13168
▁ɲɛnagwɛ	-13169
▁̈namaya	-13170
alabatoso	-13171
kunnafoni	-13172
musoɲuman	-13173
▁anuannzɛ	-13174
▁baarakɛn	-13175
▁basitigi	-13176
▁boliboli	-13177
▁bulayiye	-13178
▁doninilu	-13179
▁dugubaba	-13180
▁dònkiliw	-13181
▁fiɲɛnnin	-13182
▁gwansanw	-13183
▁jagokɛla	-13184
▁jɛnɛtuba	-13185
▁kaankaan	-13186
▁karansow	-13187
▁kasalema	-13188
▁komokili	-13189
▁kunbɛnni	-13190
▁lakalila	-13191
▁lakolifa	-13192
▁lanibala	-13193
▁loorunan	-13194
▁magidala	-13195
▁mɔgɔfari	-13196
▁mɔnikɛla	-13197
▁pakistan	-13198
▁polisicɛ	-13199
▁simirini	-13200
▁sofericɛ	-13201
▁sulemani	-13202
▁sɔgɔsɔgɔ	-13203
▁yarilire	-13204
▁yuguyugu	-13205
▁ɲanagwɛw	-13206
▁1964-1965	-13207
▁bonyatɔgɔ	-13208
▁danxaniya	-13209
▁faamakuma	-13210
▁fariyakow	-13211
▁farizhɛɛn	-13212
▁isireliba	-13213
▁kalanyɔrɔ	-13214
▁kanmaniye	-13215
▁karriyime	-13216
▁kunkankow	-13217
▁lamininin	-13218
▁nafamanba	-13219
▁olofɛrine	-13220
▁sunguruni	-13221
▁tehatiriw	-13222
▁waajibiya	-13223
▁woronyimi	-13224
▁[00:57.06]	-13225
▁collection	-13226
▁dibidibiko	-13227
▁gongokolon	-13228
▁halakiyɔrɔ	-13229
▁kongololon	-13230
▁kɔrɔsibaga	-13231
▁lesinmbele	-13232
▁maminɛmuso	-13233
▁natanayɛli	-13234
▁tiberiyadi	-13235
▁yatagarasu	-13236
salabagatɔya	-13237
▁densɔrɔbali	-13238
▁gofɛrɛnaman	-13239
▁musokɔnɔmaw	-13240
▁mɔgɔɲumanya	-13241
▁nigɛfugulan	-13242
▁siranbagatɔ	-13243
▁batiselikèla	-13244
▁kurunbolilaw	-13245
▁kɛlɛdenŋanaw	-13246
▁kɔlɔsilikɛbaga	-13247
▁mɔgɔsabalininw	-13248
▁ninsaraminabaga	-13249
-2	-13250
.”	-13251
ht	-13252
ɛw	-13253
ߊ߫	-13254
ߎߡ	-13255
ߎ߲	-13256
ߑߙ	-13257
߯ߞ	-13258
য়	-13259
ర్	-13260
▁ʋ	-13261
▁ߕ	-13262
▁ߝ	-13263
▁ߟ	-13264
▁😔	-13265
-11	-13266
..?	-13267
2">	-13268
8">	-13269
aau	-13270
amu	-13271
ase	-13272
cle	-13273
dim	-13274
dow	-13275
ell	-13276
ese	-13277
ete	-13278
ght	-13279
gow	-13280
kir	-13281
kte	-13282
mli	-13283
nba	-13284
nde	-13285
ner	-13286
pla	-13287
pta	-13288
rki	-13289
rɛt	-13290
sas	-13291
sôn	-13292
sɛl	-13293
yei	-13294
ère	-13295
ߎߡߔ	-13296
ߎ߲߫	-13297
ߟߐ߫	-13298
▁(6	-13299
▁2!	-13300
▁3:	-13301
▁73	-13302
▁78	-13303
▁av	-13304
▁ex	-13305
▁lm	-13306
▁os	-13307
▁ot	-13308
▁rt	-13309
▁tî	-13310
▁vw	-13311
▁wn	-13312
▁ߟߐ	-13313
..??	-13314
20">	-13315
bini	-13316
deed	-13317
deer	-13318
dria	-13319
duba	-13320
ermê	-13321
fano	-13322
fiye	-13323
furu	-13324
fusi	-13325
girɛ	-13326
hiye	-13327
jing	-13328
kuya	-13329
lana	-13330
lili	-13331
mboo	-13332
mena	-13333
moga	-13334
mɛni	-13335
pani	-13336
qman	-13337
raka	-13338
ranu	-13339
riye	-13340
rned	-13341
rona	-13342
ruba	-13343
sidi	-13344
vɛni	-13345
èrin	-13346
▁#20	-13347
▁21.	-13348
▁2:8	-13349
▁325	-13350
▁363	-13351
▁39-	-13352
▁3:5	-13353
▁40.	-13354
▁586	-13355
▁7:4	-13356
▁abɔ	-13357
▁ahí	-13358
▁amu	-13359
▁art	-13360
▁asn	-13361
▁ast	-13362
▁bhe	-13363
▁bié	-13364
▁cee	-13365
▁cen	-13366
▁dôn	-13367
▁ean	-13368
▁enu	-13369
▁fat	-13370
▁fea	-13371
▁gui	-13372
▁hal	-13373
▁hla	-13374
▁hèr	-13375
▁iro	-13376
▁iyé	-13377
▁kru	-13378
▁kĩa	-13379
▁kɔ̀	-13380
▁lie	-13381
▁lom	-13382
▁mbi	-13383
▁miɛ	-13384
▁mur	-13385
▁mío	-13386
▁môn	-13387
▁nao	-13388
▁nyé	-13389
▁nôn	-13390
▁nɑɑ	-13391
▁oko	-13392
▁ora	-13393
▁pal	-13394
▁rte	-13395
▁soi	-13396
▁suɑ	-13397
▁tse	-13398
▁tsɔ	-13399
▁ulu	-13400
▁vas	-13401
▁wah	-13402
▁yíe	-13403
▁zuo	-13404
▁ߕߑߙ	-13405
▁ߟߊ߫	-13406
:2929	-13407
:3232	-13408
baden	-13409
fiɲɛn	-13410
gbɔmɔ	-13411
langa	-13412
ninɲa	-13413
wisɔn	-13414
ɛnɛzi	-13415
߯ߞߎ߲߫	-13416
▁11:6	-13417
▁13:2	-13418
▁1870	-13419
▁1:31	-13420
▁24:4	-13421
▁28.7	-13422
▁3:17	-13423
▁47"*	-13424
▁5:11	-13425
▁5:20	-13426
▁6:17	-13427
▁8:21	-13428
▁ajan	-13429
▁akɔɔ	-13430
▁ambe	-13431
▁asse	-13432
▁bate	-13433
▁boku	-13434
▁bole	-13435
▁boma	-13436
▁bora	-13437
▁bule	-13438
▁chew	-13439
▁chun	-13440
▁cost	-13441
▁cɛla	-13442
▁diet	-13443
▁dieu	-13444
▁djaa	-13445
▁dòrò	-13446
▁enfp	-13447
▁euro	-13448
▁fore	-13449
▁fufu	-13450
▁féyi	-13451
▁geda	-13452
▁giri	-13453
▁gnon	-13454
▁guun	-13455
▁gɔsa	-13456
▁halo	-13457
▁hice	-13458
▁hoga	-13459
▁igen	-13460
▁ihen	-13461
▁jaba	-13462
▁jene	-13463
▁jiyo	-13464
▁kaya	-13465
▁kenw	-13466
▁kiwi	-13467
▁kofè	-13468
▁kosé	-13469
▁kuan	-13470
▁kulɛ	-13471
▁kumu	-13472
▁kêmê	-13473
▁kɛnu	-13474
▁kɛtɛ	-13475
▁laan	-13476
▁laaz	-13477
▁lafa	-13478
▁lago	-13479
▁lepe	-13480
▁lisi	-13481
▁luda	-13482
▁lugu	-13483
▁luli	-13484
▁miis	-13485
▁mizu	-13486
▁moko	-13487
▁mono	-13488
▁mumɛ	-13489
▁màdu	-13490
▁mèlè	-13491
▁mìnɛ	-13492
▁naka	-13493
▁naŋa	-13494
▁ndɛɛ	-13495
▁noor	-13496
▁nɛre	-13497
▁poyi	-13498
▁pues	-13499
▁pɛri	-13500
▁sach	-13501
▁salo	-13502
▁sape	-13503
▁sele	-13504
▁sigɛ	-13505
▁siɛn	-13506
▁solu	-13507
▁soto	-13508
▁suxu	-13509
▁sɛni	-13510
▁teru	-13511
▁tihs	-13512
▁tore	-13513
▁tɔmɔ	-13514
▁wawɛ	-13515
▁xanu	-13516
▁yaar	-13517
▁yaju	-13518
▁yege	-13519
▁yiye	-13520
▁zebu	-13521
▁ɡɑ̃ɑ	-13522
▁ߝߟߐ߫	-13523
cation	-13524
cɛnbaa	-13525
dibiba	-13526
lakɛrɛ	-13527
lanigɛ	-13528
lazari	-13529
qmanmi	-13530
raoogo	-13531
siside	-13532
wɛlɛya	-13533
yezɛri	-13534
▁1.900	-13535
▁11:28	-13536
▁2.520	-13537
▁[...]	-13538
▁along	-13539
▁amina	-13540
▁amooo	-13541
▁anata	-13542
▁aramu	-13543
▁baate	-13544
▁bagɔɔ	-13545
▁banaw	-13546
▁banco	-13547
▁barok	-13548
▁belen	-13549
▁benar	-13550
▁bikiɑ	-13551
▁blame	-13552
▁bonda	-13553
▁bruce	-13554
▁daani	-13555
▁dannu	-13556
▁denyɛ	-13557
▁diire	-13558
▁doilu	-13559
▁donni	-13560
▁dunna	-13561
▁durom	-13562
▁farka	-13563
▁flɛri	-13564
▁gates	-13565
▁gbɛnɛ	-13566
▁gnôgô	-13567
▁haiti	-13568
▁happy	-13569
▁horro	-13570
▁iyeii	-13571
▁janta	-13572
▁jɛnri	-13573
▁kaajo	-13574
▁kaale	-13575
▁kaise	-13576
▁kalah	-13577
▁kitiw	-13578
▁kunnu	-13579
▁kɔ̃sa	-13580
▁lagik	-13581
▁lassé	-13582
▁libre	-13583
▁loves	-13584
▁lugar	-13585
▁lɛsɛn	-13586
▁mangɛ	-13587
▁mende	-13588
▁minuw	-13589
▁munda	-13590
▁mɔŋdi	-13591
▁rahab	-13592
▁raogo	-13593
▁retun	-13594
▁sanun	-13595
▁segir	-13596
▁senke	-13597
▁singe	-13598
▁sɔɔrɔ	-13599
▁taāŋa	-13600
▁temps	-13601
▁usage	-13602
▁voted	-13603
▁wulod	-13604
▁yusuf	-13605
▁şermê	-13606
▁ɲaden	-13607
gnongon	-13608
kɛbagaw	-13609
talsolo	-13610
yalaban	-13611
ɔgɔninw	-13612
▁="20">	-13613
▁adrɛsi	-13614
▁afrika	-13615
▁awhile	-13616
▁balema	-13617
▁barada	-13618
▁batman	-13619
▁bennin	-13620
▁bowtie	-13621
▁boɲali	-13622
▁buñɔbu	-13623
▁denmin	-13624
▁dumini	-13625
▁duruki	-13626
▁fanyen	-13627
▁filita	-13628
▁franci	-13629
▁friend	-13630
▁fɔlɔla	-13631
▁fɛɛrɛw	-13632
▁gaandi	-13633
▁gafado	-13634
▁gbanna	-13635
▁gbɛman	-13636
▁heroin	-13637
▁jeremi	-13638
▁jɔlɔgɔ	-13639
▁kabaga	-13640
▁kafari	-13641
▁kahilu	-13642
▁kalami	-13643
▁kamera	-13644
▁karibi	-13645
▁keleya	-13646
▁kieran	-13647
▁kiiero	-13648
▁kilomɛ	-13649
▁kitana	-13650
▁kologo	-13651
▁kotoba	-13652
▁kulowe	-13653
▁kònòna	-13654
▁kòròla	-13655
▁kɔmɔko	-13656
▁kɛninw	-13657
▁ladiya	-13658
▁lagosi	-13659
▁lataga	-13660
▁longto	-13661
▁lɔgɔfɛ	-13662
▁macana	-13663
▁makeda	-13664
▁marina	-13665
▁misɛli	-13666
▁mɛtɛrɛ	-13667
▁nakoma	-13668
▁namori	-13669
▁nawɔri	-13670
▁nokiba	-13671
▁panama	-13672
▁saguru	-13673
▁siisii	-13674
▁sirila	-13675
▁siātam	-13676
▁susuma	-13677
▁sérélu	-13678
▁sɔndia	-13679
▁tannin	-13680
▁tarata	-13681
▁tigiri	-13682
▁unless	-13683
▁warned	-13684
▁wɑ̃ɑru	-13685
▁yacili	-13686
▁yahuwa	-13687
▁zoramu	-13688
▁ɲɛtugu	-13689
▁ɲɛyɛlɛ	-13690
▁ߕߑߙߎߡߔ	-13691
babilɔni	-13692
fibosɛti	-13693
kɔnɔntɔn	-13694
sigibaga	-13695
▁22:3838	-13696
▁amériki	-13697
▁biwolon	-13698
▁chariya	-13699
▁corazón	-13700
▁diminna	-13701
▁doncogo	-13702
▁dɛnkɛlɛ	-13703
▁jagboya	-13704
▁karanso	-13705
▁kiiriwe	-13706
▁kitabun	-13707
▁kitilon	-13708
▁limitan	-13709
▁naannnn	-13710
▁nyamɔgɔ	-13711
▁nɛɛmako	-13712
▁ragbɛla	-13713
▁siradaw	-13714
▁sirilon	-13715
▁systems	-13716
▁tabɛnnɛ	-13717
▁tawfeek	-13718
▁tigɛlon	-13719
▁tutunan	-13720
▁tɔgɔcɛn	-13721
▁urufusi	-13722
▁wolonin	-13723
▁wunmiɛn	-13724
▁yaamari	-13725
▁yerebah	-13726
▁younger	-13727
▁ɲɛgɛnni	-13728
▁ߟߐ߯ߞߎ߲߫	-13729
dɔnkilila	-13730
lakɔliden	-13731
▁bankebaa	-13732
▁batiyaan	-13733
▁bɛtavɛni	-13734
▁dɔgɔyara	-13735
▁gintanba	-13736
▁golokami	-13737
▁kangaroo	-13738
▁kibaroya	-13739
▁kitibaga	-13740
▁kofitini	-13741
▁kunkurun	-13742
▁lakɔliko	-13743
▁lasɔmini	-13744
▁maloyara	-13745
▁murutiri	-13746
▁mùsotigi	-13747
▁nakɔrɔsi	-13748
▁nbalimaw	-13749
▁potifari	-13750
▁sabatili	-13751
▁seriseri	-13752
▁sunɔgɔra	-13753
▁sɔrɔcogo	-13754
▁tilemana	-13755
▁tugbɔɔrɔ	-13756
▁tuludaga	-13757
▁yelifɛnw	-13758
▁yiracogo	-13759
▁yoyakimu	-13760
▁yɛyinŋge	-13761
▁19:17-19.	-13762
▁cogoɲuman	-13763
▁daajuloon	-13764
▁dugubabaw	-13765
▁dɛsɛyɔrɔw	-13766
▁fanibuguw	-13767
▁jurumutɔw	-13768
▁kititɛɛla	-13769
▁lasiritɔw	-13770
▁ninivukaw	-13771
▁ntolatanw	-13772
▁sanfɔɲɔba	-13773
▁sigibagaw	-13774
▁taamabaaw	-13775
▁telewisɔn	-13776
ɛrɛzɛnjanin	-13777
▁adamadiine	-13778
▁bikɔnɔntɔn	-13779
▁brutalsolo	-13780
▁dugutilama	-13781
▁dɔkɔtɔrɔcɛ	-13782
▁filankuruw	-13783
▁furusasɛbɛ	-13784
▁gwengwenna	-13785
▁isirelibɑn	-13786
▁jalakibaga	-13787
▁kagauagaua	-13788
▁kunnacɛnni	-13789
▁kɛlɛtigɛla	-13790
▁ladegebaaw	-13791
▁latanganin	-13792
▁loyiqmanmi	-13793
▁masirifɛnw	-13794
▁rafarafara	-13795
▁samarikacɛ	-13796
▁tagasiside	-13797
▁tilinninɲa	-13798
▁tiyatirika	-13799
lakɔlimɛtiri	-13800
▁baaragwɛlɛn	-13801
▁dusugwɛlɛya	-13802
▁fililatilen	-13803
▁kɛlɛkɛminan	-13804
▁kɛwaliɲuman	-13805
▁nɛnɛkirilon	-13806
▁tagamasiyɛn	-13807
▁waajulikɛla	-13808
▁wololabanaw	-13809
▁ɲamɔgɔbabaw	-13810
▁ɲɔgɔnyeyɔrɔ	-13811
▁kititigɛbaga	-13812
▁lakɔlimɛtiri	-13813
▁ntolatankulu	-13814
▁senkelenninw	-13815
▁baarakuntigiw	-13816
▁baarakɛnyɔgɔn	-13817
▁jamanaɲɛmɔgɔw	-13818
▁kabakuruɲuman	-13819
▁nisɔndiyakalo	-13820
▁alaɲasiranbali	-13821
▁sebaayabɛɛtigi	-13822
31	-13823
47	-13824
dɩ	-13825
gò	-13826
jt	-13827
kt	-13828
sī	-13829
uâ	-13830
òo	-13831
üm	-13832
ün	-13833
ņu	-13834
šu	-13835
ಕ್	-13836
ურ	-13837
›,	-13838
▁{	-13839
▁ʃ	-13840
▁ச	-13841
▁ಮ	-13842
▁ಸ	-13843
▁อ	-13844
-14	-13845
adu	-13846
chu	-13847
cɛw	-13848
dor	-13849
gam	-13850
hèm	-13851
jig	-13852
jou	-13853
kel	-13854
kha	-13855
kna	-13856
ler	-13857
liɛ	-13858
mil	-13859
oun	-13860
ris	-13861
sus	-13862
tai	-13863
tit	-13864
tma	-13865
tôn	-13866
uwe	-13867
vui	-13868
zir	-13869
ικά	-13870
▁(;	-13871
▁04	-13872
▁2:	-13873
▁bɩ	-13874
▁cy	-13875
▁cô	-13876
▁ft	-13877
▁jy	-13878
▁kl	-13879
▁ká	-13880
▁mc	-13881
▁md	-13882
▁op	-13883
▁pé	-13884
▁rh	-13885
▁sû	-13886
▁tr	-13887
▁tí	-13888
▁tǒ	-13889
▁ɡu	-13890
32).	-13891
aala	-13892
aara	-13893
alla	-13894
baro	-13895
chee	-13896
dira	-13897
dula	-13898
fala	-13899
gbɔn	-13900
ggia	-13901
jiji	-13902
jɔɔn	-13903
kanu	-13904
kuki	-13905
kélé	-13906
laga	-13907
llun	-13908
luwɔ	-13909
mail	-13910
musu	-13911
mɔti	-13912
naum	-13913
pasi	-13914
pɔrɔ	-13915
sama	-13916
seru	-13917
sinu	-13918
stau	-13919
sôbè	-13920
ugba	-13921
ussa	-13922
very	-13923
viga	-13924
xuma	-13925
yudi	-13926
ònin	-13927
ɛɛlɛ	-13928
▁119	-13929
▁13"	-13930
▁1:9	-13931
▁2:1	-13932
▁32"	-13933
▁35-	-13934
▁37-	-13935
▁3:3	-13936
▁44"	-13937
▁6:2	-13938
▁bab	-13939
▁baj	-13940
▁bez	-13941
▁bid	-13942
▁buɛ	-13943
▁dir	-13944
▁dom	-13945
▁dub	-13946
▁efu	-13947
▁fak	-13948
▁fou	-13949
▁iii	-13950
▁ikh	-13951
▁jas	-13952
▁jek	-13953
▁joe	-13954
▁kue	-13955
▁kuw	-13956
▁kɔm	-13957
▁lbs	-13958
▁lga	-13959
▁lit	-13960
▁loh	-13961
▁mwa	-13962
▁nei	-13963
▁nok	-13964
▁nui	-13965
▁obé	-13966
▁oil	-13967
▁oly	-13968
▁oso	-13969
▁pio	-13970
▁res	-13971
▁roj	-13972
▁sky	-13973
▁sok	-13974
▁sri	-13975
▁sro	-13976
▁swɛ	-13977
▁tay	-13978
▁tea	-13979
▁tiŋ	-13980
▁tob	-13981
▁war	-13982
▁waɛ	-13983
▁yai	-13984
▁yei	-13985
▁yek	-13986
▁yep	-13987
▁£11	-13988
▁ɔgi	-13989
▁ɛli	-13990
▁ɛri	-13991
:3131	-13992
:3434	-13993
:4040	-13994
bolow	-13995
bɛnna	-13996
deenw	-13997
dencɛ	-13998
filan	-13999
furaw	-14000
guage	-14001
gwɛlɛ	-14002
gɔnna	-14003
juuya	-14004
kanna	-14005
landi	-14006
lèhèm	-14007
maari	-14008
phant	-14009
piire	-14010
rkina	-14011
siraw	-14012
taana	-14013
tones	-14014
unten	-14015
yɛlɛn	-14016
yɛnin	-14017
ŋinba	-14018
▁1:23	-14019
▁2...	-14020
▁4:18	-14021
▁4:33	-14022
▁adon	-14023
▁away	-14024
▁baan	-14025
▁babu	-14026
▁bhaa	-14027
▁boɲɛ	-14028
▁bute	-14029
▁cent	-14030
▁cuti	-14031
▁dayi	-14032
▁deba	-14033
▁denj	-14034
▁dere	-14035
▁djen	-14036
▁dobu	-14037
▁douw	-14038
▁dron	-14039
▁drɔn	-14040
▁dôyé	-14041
▁dɔra	-14042
▁dɛna	-14043
▁eman	-14044
▁esca	-14045
▁eyɔɔ	-14046
▁feet	-14047
▁fefe	-14048
▁fohi	-14049
▁fulo	-14050
▁gale	-14051
▁galo	-14052
▁gato	-14053
▁geet	-14054
▁hati	-14055
▁hold	-14056
▁hope	-14057
▁hosi	-14058
▁hèrò	-14059
▁inde	-14060
▁jaja	-14061
▁kant	-14062
▁kete	-14063
▁kêlê	-14064
▁lamò	-14065
▁laso	-14066
▁leke	-14067
▁loaa	-14068
▁loka	-14069
▁loke	-14070
▁léyé	-14071
▁lôgô	-14072
▁lɔhɔ	-14073
▁mabò	-14074
▁mawu	-14075
▁meru	-14076
▁mulo	-14077
▁musu	-14078
▁mɛna	-14079
▁mɛro	-14080
▁naba	-14081
▁naku	-14082
▁naze	-14083
▁nine	-14084
▁nzal	-14085
▁nɔra	-14086
▁oran	-14087
▁piri	-14088
▁pori	-14089
▁prov	-14090
▁rapu	-14091
▁ruka	-14092
▁sadi	-14093
▁sadɔ	-14094
▁sang	-14095
▁sare	-14096
▁sati	-14097
▁slam	-14098
▁somi	-14099
▁stag	-14100
▁sugi	-14101
▁suis	-14102
▁suku	-14103
▁sôgô	-14104
▁sɛkɔ	-14105
▁tank	-14106
▁task	-14107
▁tikɛ	-14108
▁tolu	-14109
▁tona	-14110
▁tong	-14111
▁tung	-14112
▁ture	-14113
▁tuuw	-14114
▁ummi	-14115
▁vgti	-14116
▁wama	-14117
▁wanl	-14118
▁will	-14119
▁wiri	-14120
▁wɔru	-14121
▁xddd	-14122
▁yawu	-14123
▁yiko	-14124
▁yipi	-14125
▁yowa	-14126
▁yume	-14127
▁yunu	-14128
aaumma	-14129
cembre	-14130
damasi	-14131
denmis	-14132
edɔmuw	-14133
ganisa	-14134
jukɔrɔ	-14135
kalasi	-14136
keribu	-14137
kisiki	-14138
kunnan	-14139
lazarè	-14140
marigi	-14141
ramidi	-14142
sɔdiya	-14143
uggalo	-14144
ussouf	-14145
zeremi	-14146
èrnaum	-14147
▁1.000	-14148
▁1.1.4	-14149
▁1988.	-14150
▁ageru	-14151
▁ampun	-14152
▁aseki	-14153
▁berew	-14154
▁bisyo	-14155
▁buena	-14156
▁buran	-14157
▁buruw	-14158
▁conte	-14159
▁doona	-14160
▁durum	-14161
▁dɔŋgu	-14162
▁famba	-14163
▁fiiko	-14164
▁finti	-14165
▁foliw	-14166
▁fools	-14167
▁gbèlè	-14168
▁gɔ̃ru	-14169
▁helal	-14170
▁honto	-14171
▁iyepe	-14172
▁japon	-14173
▁jinèw	-14174
▁jivan	-14175
▁jokin	-14176
▁kafea	-14177
▁kahun	-14178
▁kalma	-14179
▁kaāna	-14180
▁kilan	-14181
▁kisee	-14182
▁kisne	-14183
▁koilu	-14184
▁koosu	-14185
▁kpali	-14186
▁kpara	-14187
▁kpaun	-14188
▁kuali	-14189
▁kòsso	-14190
▁laara	-14191
▁lanka	-14192
▁lawak	-14193
▁liike	-14194
▁looma	-14195
▁lukes	-14196
▁madon	-14197
▁minin	-14198
▁moche	-14199
▁motow	-14200
▁musoo	-14201
▁muɲun	-14202
▁mɔɲɔn	-14203
▁nyɔnɛ	-14204
▁nɔrɔn	-14205
▁nɔɔbɑ	-14206
▁nɔɔmɔ	-14207
▁profe	-14208
▁quien	-14209
▁russe	-14210
▁saria	-14211
▁seeee	-14212
▁sieli	-14213
▁sielɛ	-14214
▁sinma	-14215
▁sizes	-14216
▁soonw	-14217
▁sorry	-14218
▁stupi	-14219
▁sɔmbu	-14220
▁tagih	-14221
▁tanni	-14222
▁tatoo	-14223
▁tatte	-14224
▁tinya	-14225
▁tried	-14226
▁tudun	-14227
▁turki	-14228
▁tɔnwu	-14229
▁unico	-14230
▁vidio	-14231
▁waraw	-14232
▁yataa	-14233
▁zerok	-14234
▁zifaw	-14235
▁ŋgele	-14236
▁ŋmɔbe	-14237
▁ɲaami	-14238
comment	-14239
fiɲɛntɔ	-14240
galista	-14241
girɛkiw	-14242
ŋgbanwa	-14243
▁1:5555	-14244
▁banban	-14245
▁baniye	-14246
▁barake	-14247
▁bereta	-14248
▁bitini	-14249
▁bugòli	-14250
▁burayi	-14251
▁cuttin	-14252
▁cɛdenw	-14253
▁dancin	-14254
▁dankan	-14255
▁dechee	-14256
▁diablo	-14257
▁dunanw	-14258
▁dòònin	-14259
▁dɛnkɛn	-14260
▁ekurɔn	-14261
▁entien	-14262
▁foruba	-14263
▁gbanan	-14264
▁gundow	-14265
▁hinaba	-14266
▁horror	-14267
▁hɔɔrɔn	-14268
▁jatigi	-14269
▁jatɔya	-14270
▁jeneba	-14271
▁jirala	-14272
▁kacili	-14273
▁kalati	-14274
▁kannzɛ	-14275
▁kieroo	-14276
▁kineki	-14277
▁kpafuɛ	-14278
▁kèrèfè	-14279
▁manowa	-14280
▁martɛn	-14281
▁mbanla	-14282
▁mifano	-14283
▁milika	-14284
▁misiri	-14285
▁mituna	-14286
▁mèlèkè	-14287
▁mɔbili	-14288
▁nature	-14289
▁naviga	-14290
▁ndɛvui	-14291
▁nenina	-14292
▁nigger	-14293
▁niyeto	-14294
▁nunman	-14295
▁peters	-14296
▁rezeki	-14297
▁sacker	-14298
▁samedi	-14299
▁samiɲa	-14300
▁season	-14301
▁sibora	-14302
▁siesie	-14303
▁sofɛri	-14304
▁sàriya	-14305
▁sèbèma	-14306
▁taanin	-14307
▁tereke	-14308
▁tibont	-14309
▁tifaga	-14310
▁tigɛta	-14311
▁tiyepe	-14312
▁tomasi	-14313
▁tunggu	-14314
▁wahala	-14315
denɲɛnin	-14316
eligible	-14317
kerecɛnw	-14318
▁19:1010	-14319
▁alayiye	-14320
▁assetou	-14321
▁baaraba	-14322
▁bancian	-14323
▁bedroom	-14324
▁beijing	-14325
▁biloolu	-14326
▁binkɛnɛ	-14327
▁bonyana	-14328
▁burkina	-14329
▁command	-14330
▁dibilon	-14331
▁dibiman	-14332
▁dònbali	-14333
▁ekalasi	-14334
▁facɛman	-14335
▁fitiniw	-14336
▁fitinɛw	-14337
▁galanga	-14338
▁gbiliyɛ	-14339
▁jatinin	-14340
▁jealous	-14341
▁jijaliw	-14342
▁joginda	-14343
▁jurumaw	-14344
▁kalanan	-14345
▁koŋgban	-14346
▁kpɛɛngɛ	-14347
▁kôgôdji	-14348
▁lakikaw	-14349
▁laminin	-14350
▁lepeele	-14351
▁mɔ̀gɔya	-14352
▁mɛgbɔgɔ	-14353
▁ngunmin	-14354
▁pondria	-14355
▁sheeran	-14356
▁stalkin	-14357
▁tourist	-14358
▁uriyawu	-14359
▁wunluwɔ	-14360
▁ɲogɔnna	-14361
aaummaled	-14362
abigayɛli	-14363
duurutigi	-14364
filankuru	-14365
kabakurun	-14366
taamasiɲɛ	-14367
▁babilonɛ	-14368
▁balimela	-14369
▁belgique	-14370
▁biaŋinba	-14371
▁bilasila	-14372
▁cɛnimuso	-14373
▁dafitini	-14374
▁damakɛɲɛ	-14375
▁dannabaa	-14376
▁elephant	-14377
▁felikisi	-14378
▁filiyɔrɔ	-14379
▁gafebonw	-14380
▁handunia	-14381
▁jolidɛsɛ	-14382
▁jukunnan	-14383
▁jɛniyɔrɔ	-14384
▁jɛnsɛnni	-14385
▁kaburutu	-14386
▁kanuyako	-14387
▁kokolonw	-14388
▁kɔlɔsira	-14389
▁kɔniyako	-14390
▁language	-14391
▁lanibara	-14392
▁lelɛgɛrɛ	-14393
▁marabaga	-14394
▁mɛkisiki	-14395
▁namarako	-14396
▁nɔgɔninw	-14397
▁sagakulu	-14398
▁somebody	-14399
▁telefoni	-14400
▁xanunten	-14401
▁youssouf	-14402
▁zootones	-14403
▁ɲɛnamanw	-14404
▁bètilèhèm	-14405
▁cɛnnikɛla	-14406
▁dennyɛnin	-14407
▁denyɛrɛni	-14408
▁faamamuso	-14409
▁faaninbon	-14410
▁fagawaati	-14411
▁filankafo	-14412
▁furumusow	-14413
▁gafefeere	-14414
▁haminakow	-14415
▁kapèrnaum	-14416
▁kunmabòli	-14417
▁lɛɛbuyɔrɔ	-14418
▁masataana	-14419
▁naŋgbanwa	-14420
▁nigɛjuguw	-14421
▁npogotigi	-14422
▁peresidan	-14423
▁sekɔrɔnin	-14424
▁sinndɛɛrɛ	-14425
▁struggled	-14426
▁sɔrɔdasiw	-14427
▁wagatijan	-14428
▁yahudiyaw	-14429
▁ɲagaminen	-14430
▁ɲasiranya	-14431
▁ɲɛnatigɛw	-14432
ganisasiyɔn	-14433
▁denkɔrɔbaw	-14434
▁dumunifɛnw	-14435
▁etiyopikaw	-14436
▁faamuyalen	-14437
▁frugalista	-14438
▁jamanjanba	-14439
▁kolonkalan	-14440
▁kɔsegituma	-14441
▁latigɛninw	-14442
▁malobaliya	-14443
▁senakeribu	-14444
▁siranyakow	-14445
▁tesaloniki	-14446
▁wasabaliya	-14447
▁watchtower	-14448
▁yirilamanw	-14449
▁abidjansigi	-14450
▁aoaaummaled	-14451
▁jamanjanbaw	-14452
▁kalifayɔrɔw	-14453
▁kulujanjanw	-14454
▁lawodisekaw	-14455
▁murutibagaw	-14456
▁nisɔngoyako	-14457
▁tulomasamaw	-14458
▁dununyalaban	-14459
▁kerecɛnɲɔgɔn	-14460
▁jaladuurutigi	-14461
▁sarakabɔyɔrɔw	-14462
▁warigwɛlamanw	-14463
▁ɲanamanyakura	-14464
▁yɛrɛtangacogow	-14465
.+	-14466
62	-14467
84	-14468
<3	-14469
?」	-14470
dî	-14471
id	-14472
kg	-14473
nt	-14474
oi	-14475
rã	-14476
vn	-14477
xh	-14478
ರ್	-14479
ร์	-14480
▁×	-14481
▁ɖ	-14482
▁ẖ	-14483
▁ẹ	-14484
▁😦	-14485
-15	-14486
-26	-14487
.›"	-14488
:-:	-14489
bas	-14490
cam	-14491
dak	-14492
eer	-14493
gat	-14494
gué	-14495
hin	-14496
iiv	-14497
keh	-14498
kus	-14499
kyi	-14500
kùn	-14501
lés	-14502
mas	-14503
nau	-14504
oom	-14505
ore	-14506
pop	-14507
pri	-14508
pɔn	-14509
sha	-14510
sor	-14511
sou	-14512
sty	-14513
tic	-14514
und	-14515
vao	-14516
war	-14517
yde	-14518
yer	-14519
yɛr	-14520
zèn	-14521
élé	-14522
šin	-14523
ɛnm	-14524
ური	-14525
▁aŋ	-14526
▁bf	-14527
▁bz	-14528
▁gy	-14529
▁mn	-14530
▁mv	-14531
▁nc	-14532
▁nù	-14533
▁nɩ	-14534
▁om	-14535
▁sê	-14536
▁ŋɛ	-14537
▁ɔr	-14538
▁ɛr	-14539
▁ɡe	-14540
-10;	-14541
aliw	-14542
amɔn	-14543
bada	-14544
balu	-14545
dafi	-14546
fɛrɛ	-14547
gido	-14548
gnin	-14549
guon	-14550
gɔrɔ	-14551
gɛni	-14552
hari	-14553
hɛmu	-14554
jigɛ	-14555
jolo	-14556
kadi	-14557
kisè	-14558
kiyo	-14559
lanu	-14560
lasi	-14561
linw	-14562
moro	-14563
mɛri	-14564
ness	-14565
star	-14566
stre	-14567
suba	-14568
tabu	-14569
tifi	-14570
tuku	-14571
tèrè	-14572
woof	-14573
xini	-14574
yahu	-14575
ying	-14576
yété	-14577
zara	-14578
ziye	-14579
čina	-14580
▁$12	-14581
▁(1)	-14582
▁(18	-14583
▁15*	-14584
▁360	-14585
▁4:2	-14586
▁5:5	-14587
▁5:7	-14588
▁7:5	-14589
▁="7	-14590
▁ath	-14591
▁awi	-14592
▁bea	-14593
▁brɛ	-14594
▁bta	-14595
▁cus	-14596
▁cɛf	-14597
▁deh	-14598
▁duɑ	-14599
▁dɔk	-14600
▁fer	-14601
▁geo	-14602
▁gln	-14603
▁gɔn	-14604
▁had	-14605
▁ibk	-14606
▁ibé	-14607
▁ink	-14608
▁ivi	-14609
▁jud	-14610
▁jum	-14611
▁jva	-14612
▁ley	-14613
▁mia	-14614
▁mli	-14615
▁mot	-14616
▁mtv	-14617
▁nax	-14618
▁neh	-14619
▁obe	-14620
▁oke	-14621
▁oki	-14622
▁pes	-14623
▁rem	-14624
▁sco	-14625
▁sep	-14626
▁sho	-14627
▁sol	-14628
▁soɛ	-14629
▁sôn	-14630
▁ted	-14631
▁ter	-14632
▁tes	-14633
▁tok	-14634
▁tsi	-14635
▁tôw	-14636
▁uba	-14637
▁vau	-14638
▁wei	-14639
▁xen	-14640
▁xoo	-14641
▁xxx	-14642
▁yag	-14643
▁yet	-14644
▁yɑɑ	-14645
▁zma	-14646
▁ŋuu	-14647
▁ŋɔɔ	-14648
▁šro	-14649
▁ɛnt	-14650
▁ɛst	-14651
▁ɡbi	-14652
▁ẖoz	-14653
&#39;	-14654
asobi	-14655
ation	-14656
cript	-14657
diroo	-14658
ezeki	-14659
fanga	-14660
galow	-14661
gedɔn	-14662
gnini	-14663
janai	-14664
loola	-14665
ngali	-14666
pɛɛŋɛ	-14667
rrent	-14668
rɛnin	-14669
sitas	-14670
sitaw	-14671
sɛkan	-14672
tures	-14673
yonbe	-14674
▁..??	-14675
▁1.20	-14676
▁1200	-14677
▁1:16	-14678
▁2006	-14679
▁2:25	-14680
▁335)	-14681
▁3:35	-14682
▁4:00	-14683
▁4:20	-14684
▁5:99	-14685
▁7:41	-14686
▁8:14	-14687
▁="11	-14688
▁ahhh	-14689
▁alou	-14690
▁anis	-14691
▁baha	-14692
▁basu	-14693
▁bend	-14694
▁bhee	-14695
▁bhul	-14696
▁bogi	-14697
▁boop	-14698
▁bɛli	-14699
▁capi	-14700
▁dake	-14701
▁diii	-14702
▁dikh	-14703
▁dima	-14704
▁doon	-14705
▁dulò	-14706
▁dɛɛn	-14707
▁ebre	-14708
▁ekpɛ	-14709
▁fain	-14710
▁fatu	-14711
▁fele	-14712
▁geek	-14713
▁goun	-14714
▁guud	-14715
▁gɔra	-14716
▁hama	-14717
▁helo	-14718
▁hopu	-14719
▁hɔrɔ	-14720
▁ilon	-14721
▁ivan	-14722
▁jaye	-14723
▁jita	-14724
▁jomɔ	-14725
▁joob	-14726
▁kapi	-14727
▁kula	-14728
▁kyon	-14729
▁kɛle	-14730
▁labe	-14731
▁lemu	-14732
▁masɔ	-14733
▁mire	-14734
▁miti	-14735
▁modɛ	-14736
▁muku	-14737
▁nato	-14738
▁nije	-14739
▁niya	-14740
▁nkun	-14741
▁nomb	-14742
▁nude	-14743
▁nzue	-14744
▁olou	-14745
▁rabe	-14746
▁roma	-14747
▁sahi	-14748
▁sekɔ	-14749
▁sona	-14750
▁soɲɛ	-14751
▁suɛn	-14752
▁swɛɛ	-14753
▁sènè	-14754
▁sɔbe	-14755
▁sɛsɛ	-14756
▁taka	-14757
▁tasa	-14758
▁team	-14759
▁tewo	-14760
▁ther	-14761
▁tige	-14762
▁tilo	-14763
▁torɑ	-14764
▁used	-14765
▁welé	-14766
▁wemu	-14767
▁what	-14768
▁when	-14769
▁wiru	-14770
▁woof	-14771
▁wure	-14772
▁wɔ̃ɔ	-14773
▁yetɔ	-14774
▁yevi	-14775
▁yiin	-14776
▁yini	-14777
▁yuan	-14778
▁yude	-14779
▁yugi	-14780
▁ŋami	-14781
▁ɡere	-14782
▁ɲèbò	-14783
▁ɲɔgɔ	-14784
balaki	-14785
batoli	-14786
bitigi	-14787
guwɛli	-14788
karata	-14789
ladimi	-14790
lɛhɛmu	-14791
mdaanɔ	-14792
mɔgɛnu	-14793
tation	-14794
tobiya	-14795
wulisi	-14796
yinika	-14797
zebuli	-14798
ɲɛnajɛ	-14799
▁10:30	-14800
▁10:34	-14801
▁22:32	-14802
▁22:35	-14803
▁25:1,	-14804
▁8-10;	-14805
▁amani	-14806
▁apple	-14807
▁ayika	-14808
▁bagan	-14809
▁bagee	-14810
▁baris	-14811
▁bayii	-14812
▁beiiv	-14813
▁bgtau	-14814
▁bibun	-14815
▁bilar	-14816
▁birdy	-14817
▁boliw	-14818
▁boyan	-14819
▁bulan	-14820
▁bɛsɛn	-14821
▁ciyèn	-14822
▁clown	-14823
▁coger	-14824
▁cryin	-14825
▁cɛnwɛ	-14826
▁djigi	-14827
▁efese	-14828
▁eyudi	-14829
▁fantà	-14830
▁fanyi	-14831
▁fatɔw	-14832
▁given	-14833
▁heheh	-14834
▁hello	-14835
▁hotel	-14836
▁indon	-14837
▁kaafi	-14838
▁kadow	-14839
▁kalje	-14840
▁kanpa	-14841
▁kapye	-14842
▁karao	-14843
▁kissè	-14844
▁konaa	-14845
▁koore	-14846
▁kpele	-14847
▁kplan	-14848
▁kòròn	-14849
▁kɔɔlɔ	-14850
▁laben	-14851
▁ladɛn	-14852
▁lanzu	-14853
▁lapau	-14854
▁lokwa	-14855
▁maale	-14856
▁mikan	-14857
▁milan	-14858
▁mɔgɔn	-14859
▁mɔ̀kɛ	-14860
▁mɛɛra	-14861
▁nafan	-14862
▁nagoo	-14863
▁nekaa	-14864
▁nibii	-14865
▁ninmu	-14866
▁nkama	-14867
▁nosal	-14868
▁nyaga	-14869
▁nònsi	-14870
▁oluwa	-14871
▁onhon	-14872
▁orɛbu	-14873
▁pehli	-14874
▁piile	-14875
▁rafan	-14876
▁rezèn	-14877
▁saiko	-14878
▁scene	-14879
▁sedap	-14880
▁sidon	-14881
▁sweet	-14882
▁tagal	-14883
▁tanla	-14884
▁thena	-14885
▁tinbi	-14886
▁usayi	-14887
▁wandi	-14888
▁wanla	-14889
▁wɔllɔ	-14890
▁xɔtɔn	-14891
▁xɛɛxi	-14892
▁yaama	-14893
▁yadon	-14894
▁yakpa	-14895
▁yengi	-14896
▁yetaw	-14897
▁yɛndu	-14898
▁zdani	-14899
zedeyɔn	-14900
▁1:1818	-14901
▁1:2424	-14902
▁21:30-	-14903
▁5:2525	-14904
▁adaman	-14905
▁asuwan	-14906
▁bandit	-14907
▁bandun	-14908
▁baraki	-14909
▁barisi	-14910
▁bondow	-14911
▁bootan	-14912
▁bɔsira	-14913
▁bɔxɔni	-14914
▁dekiru	-14915
▁denkun	-14916
▁domuna	-14917
▁dudenw	-14918
▁dɔrɔgi	-14919
▁espaɲi	-14920
▁failed	-14921
▁fenisi	-14922
▁fuckin	-14923
▁fungɔn	-14924
▁fururu	-14925
▁fɛfɛri	-14926
▁gbèrèw	-14927
▁granny	-14928
▁gwɛlɛn	-14929
▁honest	-14930
▁hèròde	-14931
▁hɔrɔnw	-14932
▁ikhlas	-14933
▁indian	-14934
▁iyonbe	-14935
▁jagoya	-14936
▁jènsèn	-14937
▁kalide	-14938
▁karega	-14939
▁kavita	-14940
▁kounou	-14941
▁kpakpa	-14942
▁krecɛn	-14943
▁kônôna	-14944
▁lamɛki	-14945
▁layega	-14946
▁levite	-14947
▁lidigɛ	-14948
▁lonacɛ	-14949
▁lɔxɔni	-14950
▁lɛkulu	-14951
▁maanaw	-14952
▁medias	-14953
▁megido	-14954
▁mennin	-14955
▁munuɲa	-14956
▁mutɔla	-14957
▁mɔgɔma	-14958
▁nabɔti	-14959
▁nazarè	-14960
▁ngbaha	-14961
▁niggas	-14962
▁nimisi	-14963
▁nogoya	-14964
▁nouvel	-14965
▁nshele	-14966
▁nyɛsin	-14967
▁restau	-14968
▁sadɔki	-14969
▁sengal	-14970
▁silent	-14971
▁stupid	-14972
▁suzani	-14973
▁sɑ̃ɑwɑ	-14974
▁sɔkɔra	-14975
▁tabaga	-14976
▁tamanw	-14977
▁tigaua	-14978
▁tirani	-14979
▁tumhen	-14980
▁tuuboo	-14981
▁tɔmbun	-14982
▁tɛmɛta	-14983
▁tɛntɛn	-14984
▁woloba	-14985
▁woloko	-14986
▁worora	-14987
▁wunman	-14988
▁wɔkura	-14989
▁yalali	-14990
▁yellow	-14991
▁yitama	-14992
▁yôrôla	-14993
▁zamana	-14994
▁ɲagoya	-14995
▁ɲanama	-14996
▁ɲasigi	-14997
▁ɲataga	-14998
▁ɲɛtaga	-14999
▁ẖozina	-15000
denmisèn	-15001
hɛrɛtigi	-15002
▁10:4242	-15003
▁azayɛli	-15004
▁basanin	-15005
▁bilorou	-15006
▁buteliw	-15007
▁charlie	-15008
▁chiaman	-15009
▁cɛngɛlɛ	-15010
▁dagalen	-15011
▁doumini	-15012
▁dubalen	-15013
▁dɔwfaga	-15014
▁dɛmɛnba	-15015
▁dɛnaxan	-15016
▁egilizi	-15017
▁elifazi	-15018
▁fagaliw	-15019
▁famouya	-15020
▁gbegele	-15021
▁gnamôgô	-15022
▁isakari	-15023
▁jagwɛlɛ	-15024
▁jònmuso	-15025
▁kamelen	-15026
▁kikoeru	-15027
▁kojuuya	-15028
▁kokɔrɔw	-15029
▁kookari	-15030
▁kunngba	-15031
▁likawlɛ	-15032
▁lɔwaati	-15033
▁maranin	-15034
▁muɲunin	-15035
▁mɔ̀muso	-15036
▁nantili	-15037
▁niannin	-15038
▁ntalenw	-15039
▁nɔɔwɑwɑ	-15040
▁pensado	-15041
▁senunŋo	-15042
▁sinambu	-15043
▁student	-15044
▁sìgilan	-15045
▁takdeer	-15046
▁telenni	-15047
▁tilebin	-15048
▁tirikaw	-15049
▁togodaw	-15050
▁trannin	-15051
▁unicorn	-15052
▁wulilen	-15053
▁wunmuan	-15054
▁yonguon	-15055
▁yɔnlɔgɔ	-15056
▁šroloyo	-15057
▁ɲɔgɔmɛw	-15058
▁backbone	-15059
▁batizeri	-15060
▁datougou	-15061
▁dimiyɔrɔ	-15062
▁djamanaw	-15063
▁dôgôtôrô	-15064
▁jaatenin	-15065
▁jogokura	-15066
▁jurukisɛ	-15067
▁klisifuɛ	-15068
▁konnigɛw	-15069
▁kunbɛnna	-15070
▁kèbaliya	-15071
▁kètchogo	-15072
▁kɔnɔmaya	-15073
▁kɔnɔnasu	-15074
▁kɛnɛyɔrɔ	-15075
▁lɛsɛcogo	-15076
▁lɛsɛninw	-15077
▁misimuso	-15078
▁moxobalu	-15079
▁mugumugu	-15080
▁nafabali	-15081
▁nafoloko	-15082
▁nanyuman	-15083
▁nisɔdiya	-15084
▁pornstar	-15085
▁sagagbɛn	-15086
▁saracogo	-15087
▁sofɛricɛ	-15088
▁solution	-15089
▁sɛrisɛsi	-15090
▁tchogoya	-15091
▁tigɛyɔrɔ	-15092
▁torowasi	-15093
▁tudunmɔɔ	-15094
▁tunmbyee	-15095
▁weleninw	-15096
▁yomdaanɔ	-15097
▁ɛntɛnɛti	-15098
▁ɲagalila	-15099
▁ɲanamini	-15100
antiyokusi	-15101
naforotigi	-15102
ɛrɛzɛnsunw	-15103
▁araguwɛli	-15104
▁dannamògò	-15105
▁dudaloola	-15106
▁dɛndɛbere	-15107
▁efirayimu	-15108
▁eliyezɛri	-15109
▁gajuggalo	-15110
▁kariɲɛɛgɛ	-15111
▁kuntigolu	-15112
▁kuruyɔrɔw	-15113
▁labanyɔrɔ	-15114
▁lajiginni	-15115
▁lajɛnsɛbɛ	-15116
▁latigɛtaw	-15117
▁manyinika	-15118
▁miiricogo	-15119
▁nɔɔrugiba	-15120
▁samedilon	-15121
▁sintigiya	-15122
▁sèbènnenw	-15123
▁sɔnnifara	-15124
▁	-15125
a	-15126
n	-15127
i	-15128
e	-15129
k	-15130
o	-15131
l	-15132
u	-15133
m	-15134
ɔ	-15135
ɛ	-15136
b	-15137
y	-15138
s	-15139
t	-15140
r	-15141
g	-15142
w	-15143
.	-15144
d	-15145
,	-15146
f	-15147
'	-15148
j	-15149
c	-15150
ɲ	-15151
h	-15152
"	-15153
1	-15154
?	-15155
è	-15156
:	-15157
z	-15158
2	-15159
ò	-15160
p	-15161
3	-15162
0	-15163
-	-15164
4	-15165
!	-15166
5	-15167
8	-15168
v	-15169
6	-15170
9	-15171
7	-15172
é	-15173
ô	-15174
x	-15175
ɑ	-15176
à	-15177
ŋ	-15178
_	-15179
)	-15180
(	-15181
ε	-15182
̀	-15183
ù	-15184
;	-15185
›	-15186
̃	-15187
ì	-15188
‹	-15189
*	-15190
†	-15191
>	-15192
ʻ	-15193
=	-15194
ǹ	-15195
q	-15196
í	-15197
%	-15198
/	-15199
ê	-15200
^	-15201
̄	-15202
ĩ	-15203
[	-15204
û	-15205
ʼ	-15206
á	-15207
]	-15208
ā	-15209
ɡ	-15210
ọ	-15211
ń	-15212
â	-15213
#	-15214
&	-15215
ẹ	-15216
ú	-15217
ã	-15218
$	-15219
<	-15220
ū	-15221
ñ	-15222
+	-15223
́	-15224
@	-15225
ó	-15226
~	-15227
î	-15228
̈	-15229
¿	-15230
ī	-15231
·	-15232
μ	-15233
ö	-15234
ὲ	-15235
ͻ	-15236
•	-15237
“	-15238
”	-15239
ṣ	-15240
ɩ	-15241
י	-15242
ɓ	-15243
「	-15244
ɣ	-15245
」	-15246
ˈ	-15247
್	-15248
ç	-15249
ō	-15250
ת	-15251
→	-15252
|	-15253
్	-15254
ï	-15255
ↄ	-15256
🙂	-15257
š	-15258
¡	-15259
😉	-15260
ן	-15261
ע	-15262
ë	-15263
ʋ	-15264
ä	-15265
்	-15266
€	-15267
ü	-15268
ũ	-15269
ι	-15270
ి	-15271
ಿ	-15272
า	-15273
া	-15274
ி	-15275
ı	-15276
ɗ	-15277
ન	-15278
િ	-15279
ʃ	-15280
న	-15281
č	-15282
➜	-15283
α	-15284
̇	-15285
😂	-15286
ν	-15287
ư	-15288
ನ	-15289
ா	-15290
ߟ	-15291
߫	-15292
ા	-15293
ি	-15294
્	-15295
ర	-15296
น	-15297
ż	-15298
ο	-15299
อ	-15300
✓	-15301
ㄣ	-15302
க	-15303
ㄨ	-15304
©	-15305
ㄊ	-15306
κ	-15307
ా	-15308
ח	-15309
ಾ	-15310
ಸ	-15311
ร	-15312
͂	-15313
લ	-15314
ิ	-15315
ɨ	-15316
ά	-15317
ன	-15318
ಯ	-15319
‐	-15320
เ	-15321
্	-15322
ર	-15323
ƴ	-15324
ი	-15325
ş	-15326
ə	-15327
య	-15328
ล	-15329
ߎ	-15330
ߐ	-15331
ે	-15332
ப	-15333
ಕ	-15334
ರ	-15335
บ	-15336
ี	-15337
←	-15338
ક	-15339
ꞌ	-15340
👀	-15341
ু	-15342
ม	-15343
―	-15344
τ	-15345
ો	-15346
క	-15347
ೋ	-15348
️	-15349
ಂ	-15350
ಮ	-15351
બ	-15352
ೆ	-15353
ต	-15354
์	-15355
ა	-15356
😀	-15357
ন	-15358
ল	-15359
ય	-15360
א	-15361
ગ	-15362
ர	-15363
స	-15364
ă	-15365
ו	-15366
র	-15367
ુ	-15368
ம	-15369
మ	-15370
ో	-15371
ก	-15372
โ	-15373
※	-15374
■	-15375
£	-15376
υ	-15377
ી	-15378
ச	-15379
ಲ	-15380
ซ	-15381
😛	-15382
¬	-15383
ē	-15384
ǒ	-15385
ǝ	-15386
ɖ	-15387
મ	-15388
ய	-15389
ಟ	-15390
უ	-15391
🐟	-15392
🥚	-15393
γ	-15394
λ	-15395
σ	-15396
ম	-15397
સ	-15398
ட	-15399
ல	-15400
ల	-15401
ด	-15402
🤣	-15403
{	-15404
ņ	-15405
ρ	-15406
ה	-15407
ব	-15408
ோ	-15409
బ	-15410
ే	-15411
ნ	-15412
რ	-15413
ẁ	-15414
♫	-15415
✔	-15416
}	-15417
̱	-15418
য	-15419
ு	-15420
ಗ	-15421
ಪ	-15422
ว	-15423
ู	-15424
😔	-15425
ø	-15426
ʒ	-15427
θ	-15428
ר	-15429
ߊ	-15430
ߑ	-15431
ߔ	-15432
ߕ	-15433
ߙ	-15434
ߝ	-15435
ߞ	-15436
ߡ	-15437
߯	-15438
߲	-15439
গ	-15440
়	-15441
શ	-15442
ు	-15443
ಡ	-15444
ช	-15445
ป	-15446
ย	-15447
ส	-15448
ั	-15449
̌	-15450
ে	-15451
ெ	-15452
ẖ	-15453
♥	-15454
😅	-15455
×	-15456
õ	-15457
˥	-15458
̂	-15459
ק	-15460
ক	-15461
ઇ	-15462
ટ	-15463
ವ	-15464
ು	-15465
ุ	-15466
ᴐ	-15467
😈	-15468
😦	-15469
ų	-15470
ž	-15471
ʔ	-15472
ζ	-15473
χ	-15474
ל	-15475
ં	-15476
ડ	-15477
అ	-15478
జ	-15479
ೀ	-15480
’	-15481
∙	-15482
β	-15483
ό	-15484
ট	-15485
প	-15486
স	-15487
ো	-15488
આ	-15489
ઝ	-15490
વ	-15491
ங	-15492
డ	-15493
ಅ	-15494
ಚ	-15495
ಬ	-15496
ኪ	-15497
ያ	-15498
ዬ	-15499
ṭ	-15500
⠀	-15501
ċ	-15502
π	-15503
ט	-15504
נ	-15505
ই	-15506
জ	-15507
પ	-15508
வ	-15509
ூ	-15510
ం	-15511
గ	-15512
ట	-15513
ప	-15514
వ	-15515
ె	-15516
แ	-15517
ლ	-15518
❤	-15519
👍	-15520
😬	-15521
🦇	-15522
°	-15523
ý	-15524
ŝ	-15525
ί	-15526
מ	-15527
ও	-15528
ત	-15529
த	-15530
ே	-15531
ಷ	-15532
ท	-15533
ไ	-15534
ῖ	-15535
‡	-15536
─	-15537
ć	-15538
ǎ	-15539
ɳ	-15540
ס	-15541
અ	-15542
જ	-15543
ૂ	-15544
ஜ	-15545
ಹ	-15546
ค	-15547
ง	-15548
ტ	-15549
ṃ	-15550
●	-15551
⚫	-15552
😥	-15553
đ	-15554
ğ	-15555
ħ	-15556
ț	-15557
ɥ	-15558
ʊ	-15559
ː	-15560
έ	-15561
ύ	-15562
ա	-15563
ג	-15564
פ	-15565
ঙ	-15566
শ	-15567
হ	-15568
ஹ	-15569
ష	-15570
ీ	-15571
ూ	-15572
ೊ	-15573
ေ	-15574
ᴉ	-15575
ẽ	-15576
♬	-15577
、	-15578
🤤	-15579
ð	-15580
œ	-15581
ơ	-15582
ǀ	-15583
η	-15584
φ	-15585
আ	-15586
ড	-15587
ত	-15588
દ	-15589
ஷ	-15590
చ	-15591
త	-15592
హ	-15593
ಶ	-15594
ೈ	-15595
ฮ	-15596
დ	-15597
ე	-15598
►	-15599
✨	-15600
〜	-15601
🎁	-15602
😍	-15603
🦋	-15604
ɯ	-15605
ˇ	-15606
̰	-15607
̳	-15608
ב	-15609
ד	-15610
উ	-15611
চ	-15612
দ	-15613
ী	-15614
ઉ	-15615
ચ	-15616
இ	-15617
ஸ	-15618
ఖ	-15619
ఫ	-15620
ಧ	-15621
ಳ	-15622
ೇ	-15623
ณ	-15624
ฟ	-15625
[...]
