<unk>	0
<s>	0
</s>	0
▁k	-0
an	-1
▁b	-2
▁t	-3
▁n	-4
la	-5
▁d	-6
ou	-7
▁y	-8
▁ka	-9
▁m	-10
▁s	-11
in	-12
▁f	-13
▁a	-14
on	-15
ra	-16
▁la	-17
▁ni	-18
li	-19
man	-20
▁l	-21
ri	-22
ga	-23
▁w	-24
▁ko	-25
▁ye	-26
▁o	-27
en	-28
ya	-29
ani	-30
ma	-31
▁bi	-32
▁g	-33
gu	-34
rô	-35
ch	-36
▁ba	-37
▁ta	-38
ba	-39
▁dj	-40
ti	-41
ss	-42
ôrô	-43
▁be	-44
▁mi	-45
ro	-46
lo	-47
go	-48
▁kè	-49
un	-50
▁wa	-51
▁si	-52
ni	-53
▁ani	-54
▁yé	-55
▁na	-56
aman	-57
▁ma	-58
gô	-59
▁min	-60
le	-61
▁kan	-62
ogo	-63
ôgô	-64
▁gn	-65
si	-66
oun	-67
ôn	-68
▁i	-69
▁j	-70
▁A	-71
▁sa	-72
▁c	-73
▁bo	-74
lé	-75
▁tch	-76
oug	-77
▁ke	-78
▁bé	-79
▁san	-80
ɔn	-81
ka	-82
▁ya	-83
▁le	-84
▁lo	-85
▁fi	-86
▁bè	-87
oro	-88
▁fa	-89
gui	-90
ini	-91
▁se	-92
mi	-93
rè	-94
lan	-95
ki	-96
ta	-97
▁S	-98
yé	-99
▁ti	-100
ougou	-101
▁p	-102
▁da	-103
ɛn	-104
ana	-105
gn	-106
ugu	-107
bè	-108
▁do	-109
▁di	-110
er	-111
ko	-112
ɔr	-113
gi	-114
▁dô	-115
▁yi	-116
▁sira	-117
min	-118
▁ra	-119
▁an	-120
ur	-121
▁h	-122
▁M	-123
▁K	-124
▁nin	-125
ɔrɔ	-126
▁kɛ	-127
▁tun	-128
lè	-129
▁fo	-130
▁tou	-131
▁man	-132
rou	-133
èrè	-134
di	-135
ɔg	-136
dj	-137
▁D	-138
bi	-139
▁taga	-140
▁fan	-141
▁fô	-142
▁N	-143
élé	-144
fè	-145
ɔgɔ	-146
re	-147
▁nan	-148
kè	-149
▁kou	-150
▁yôrô	-151
▁te	-152
da	-153
▁kon	-154
▁waga	-155
mè	-156
len	-157
na	-158
sa	-159
ina	-160
▁ɲ	-161
olo	-162
▁T	-163
ssi	-164
te	-165
to	-166
ɛr	-167
▁B	-168
gon	-169
▁bara	-170
▁kôn	-171
▁môgô	-172
kan	-173
amana	-174
▁ki	-175
so	-176
▁O	-177
▁tan	-178
ara	-179
▁ch	-180
yi	-181
ran	-182
▁fila	-183
én	-184
▁C	-185
▁dja	-186
▁de	-187
be	-188
uma	-189
▁fè	-190
▁toun	-191
▁saba	-192
uru	-193
▁to	-194
vi	-195
lon	-196
▁(	-197
▁kélé	-198
▁F	-199
fi	-200
ye	-201
▁so	-202
▁dougou	-203
▁bô	-204
▁dji	-205
me	-206
non	-207
bé	-208
▁kô	-209
▁sé	-210
gan	-211
▁G	-212
▁P	-213
▁I	-214
▁mogo	-215
hi	-216
nan	-217
▁lon	-218
▁lé	-219
ongon	-220
▁sôrô	-221
ar	-222
tch	-223
▁kelen	-224
▁yoro	-225
▁mu	-226
or	-227
ourou	-228
▁dɔ	-229
▁té	-230
ssé	-231
▁fɛ	-232
▁tè	-233
▁wagati	-234
riya	-235
▁bɛ	-236
yôrô	-237
lɛ	-238
▁kab	-239
ré	-240
▁ha	-241
▁koun	-242
▁sè	-243
▁“	-244
▁H	-245
▁don	-246
lô	-247
▁dugu	-248
▁kôrô	-249
ɛrɛ	-250
▁ban	-251
guè	-252
▁wali	-253
té	-254
fa	-255
▁ja	-256
▁ne	-257
▁kalan	-258
▁gnan	-259
uman	-260
▁fara	-261
▁bolo	-262
baga	-263
ssa	-264
▁L	-265
dji	-266
ke	-267
ban	-268
▁yèrè	-269
▁djamana	-270
▁Ni	-271
▁kun	-272
▁J	-273
▁yira	-274
▁mɔgɔ	-275
▁den	-276
do	-277
se	-278
sso	-279
▁fɔ	-280
▁tôgô	-281
lu	-282
bou	-283
▁aw	-284
gnan	-285
wa	-286
ru	-287
▁kɔn	-288
de	-289
tè	-290
▁gna	-291
fe	-292
▁tchè	-293
mu	-294
▁dan	-295
▁e	-296
ere	-297
unu	-298
mou	-299
oli	-300
st	-301
sé	-302
èlè	-303
▁u	-304
mɛ	-305
▁lô	-306
kili	-307
▁djaman	-308
▁konnon	-309
▁kele	-310
▁du	-311
fô	-312
▁R	-313
▁kônôn	-314
oni	-315
mini	-316
▁damin	-317
ge	-318
ouman	-319
ji	-320
▁Ka	-321
▁baga	-322
nè	-323
sè	-324
bili	-325
▁ga	-326
▁sèbè	-327
▁ji	-328
▁gnongon	-329
▁mo	-330
▁yɔrɔ	-331
▁W	-332
den	-333
▁ca	-334
▁sigui	-335
pi	-336
▁fana	-337
ci	-338
law	-339
ne	-340
▁wo	-341
hou	-342
▁ou	-343
▁tchogo	-344
▁E	-345
▁fe	-346
kɛ	-347
▁li	-348
▁mou	-349
▁San	-350
▁kɔ	-351
▁dou	-352
▁kèla	-353
▁tu	-354
▁bila	-355
lou	-356
▁kèmè	-357
san	-358
▁cɛ	-359
▁ben	-360
▁fen	-361
bô	-362
sse	-363
ron	-364
ili	-365
▁soro	-366
ha	-367
▁bina	-368
▁tcha	-369
▁konon	-370
▁tchaman	-371
▁Dj	-372
▁ku	-373
▁kɔnɔ	-374
▁nga	-375
▁1	-376
▁bɔ	-377
onon	-378
▁hou	-379
ati	-380
▁Ma	-381
▁ow	-382
▁sɔrɔ	-383
ku	-384
▁kuma	-385
▁gbè	-386
▁walima	-387
bu	-388
▁tɛ	-389
▁yan	-390
▁bori	-391
bo	-392
zi	-393
▁sara	-394
kou	-395
tigui	-396
▁sigi	-397
▁su	-398
▁miw	-399
▁tchi	-400
kolo	-401
ɛlɛ	-402
▁we	-403
▁djan	-404
qu	-405
▁ro	-406
▁sou	-407
▁v	-408
tri	-409
▁mara	-410
▁togo	-411
▁minan	-412
tan	-413
inw	-414
▁touman	-415
bɛ	-416
dô	-417
▁bon	-418
▁fla	-419
▁yèlè	-420
fɛ	-421
ow	-422
bolo	-423
▁fôlô	-424
sira	-425
▁ale	-426
▁kê	-427
inan	-428
▁ala	-429
▁yɛrɛ	-430
is	-431
▁pa	-432
▁son	-433
gɛ	-434
▁dôw	-435
▁kèlè	-436
yan	-437
▁bana	-438
▁môgôw	-439
▁kow	-440
▁fin	-441
▁yiri	-442
▁Y	-443
▁djon	-444
ama	-445
riki	-446
▁kèra	-447
ing	-448
▁gw	-449
fila	-450
▁kônon	-451
▁tô	-452
▁chi	-453
▁boro	-454
▁kata	-455
▁djamanan	-456
▁chaman	-457
ine	-458
uni	-459
▁tugu	-460
ali	-461
▁ɲa	-462
gni	-463
▁tari	-464
▁fari	-465
▁yo	-466
▁tagama	-467
▁An	-468
dan	-469
eni	-470
▁muso	-471
èn	-472
ala	-473
▁jamana	-474
▁mun	-475
▁wari	-476
al	-477
mani	-478
▁myé	-479
▁koro	-480
▁là	-481
▁cogo	-482
▁kɛra	-483
▁béssé	-484
▁nou	-485
ounou	-486
▁bin	-487
▁fɛn	-488
▁wolo	-489
▁sanfè	-490
▁kourou	-491
▁U	-492
▁oyé	-493
▁nunu	-494
▁mogow	-495
dé	-496
▁sogo	-497
▁baara	-498
▁laban	-499
bali	-500
▁bla	-501
▁kaɲ	-502
kô	-503
sson	-504
▁conon	-505
).	-506
ce	-507
tô	-508
ari	-509
▁Si	-510
▁vi	-511
▁woro	-512
▁kana	-513
00	-514
▁V	-515
▁bèè	-516
▁tuma	-517
ene	-518
▁wôrô	-519
▁in	-520
▁kabô	-521
▁sariya	-522
▁Sa	-523
▁aka	-524
▁.	-525
fan	-526
▁boli	-527
▁kɔrɔ	-528
▁koura	-529
▁sababou	-530
▁aya	-531
inin	-532
▁kalo	-533
▁sugu	-534
pu	-535
▁hakili	-536
th	-537
▁gu	-538
▁jan	-539
▁nana	-540
tchogo	-541
▁?	-542
▁tougou	-543
ai	-544
aw	-545
▁dow	-546
▁mako	-547
▁toum	-548
sôrô	-549
▁tɔgɔ	-550
oh	-551
ter	-552
▁ayé	-553
▁ina	-554
▁non	-555
▁fanga	-556
pa	-557
ve	-558
▁kèrè	-559
lle	-560
tini	-561
yara	-562
su	-563
▁bei	-564
▁mugan	-565
▁djonan	-566
▁waliman	-567
▁kônô	-568
gè	-569
om	-570
▁z	-571
ssè	-572
▁dé	-573
▁lorou	-574
▁sisan	-575
▁r	-576
éré	-577
▁bu	-578
▁téré	-579
▁bari	-580
kun	-581
▁mini	-582
▁2	-583
▁Z	-584
gbè	-585
ori	-586
▁sɛ	-587
inmin	-588
▁yɛlɛ	-589
▁avi	-590
▁nani	-591
▁tèmè	-592
▁wili	-593
▁gnini	-594
▁yere	-595
▁wala	-596
▁rô	-597
kôrô	-598
▁lab	-599
ôgôya	-600
”.	-601
son	-602
koun	-603
cɛ	-604
▁doun	-605
ol	-606
baw	-607
lli	-608
tchè	-609
▁pi	-610
▁kuru	-611
▁tara	-612
▁kouma	-613
▁mobili	-614
land	-615
▁kilo	-616
▁kôfè	-617
don	-618
▁gnè	-619
▁komi	-620
▁minw	-621
lɔ	-622
▁ahi	-623
▁kei	-624
▁kôgô	-625
▁gbèrè	-626
gw	-627
chi	-628
▁bâ	-629
taga	-630
▁ali	-631
▁mine	-632
ton	-633
rali	-634
▁mina	-635
▁Ch	-636
▁La	-637
▁Mi	-638
▁oya	-639
▁caman	-640
ca	-641
tiki	-642
▁alé	-643
▁kouman	-644
▁dè	-645
▁naf	-646
bagaw	-647
▁foyi	-648
▁wele	-649
amanan	-650
aga	-651
enw	-652
▁baa	-653
▁wèrè	-654
▁me	-655
▁ayi	-656
▁gnana	-657
▁nè	-658
kourou	-659
gnè	-660
▁In	-661
▁Ja	-662
tion	-663
▁Môgô	-664
▁mɔgɔw	-665
▁touma	-666
pe	-667
ɛl	-668
gna	-669
hu	-670
ona	-671
èri	-672
lasi	-673
ɔgɔn	-674
▁tɛmɛ	-675
là	-676
▁sig	-677
▁bena	-678
▁télé	-679
▁lɔn	-680
▁timi	-681
muso	-682
▁miriya	-683
he	-684
▁Ba	-685
▁Ro	-686
▁lôn	-687
▁bali	-688
▁gnin	-689
▁kadi	-690
▁kama	-691
▁kaɲi	-692
▁miri	-693
▁tchaaman	-694
el	-695
▁lani	-696
kê	-697
ɛna	-698
ssan	-699
▁bou	-700
ougan	-701
▁nafa	-702
▁wolon	-703
▁fitini	-704
mé	-705
tu	-706
dén	-707
gnon	-708
tali	-709
▁filè	-710
▁hali	-711
▁tiguè	-712
▁sô	-713
▁munu	-714
▁kosson	-715
▁mousso	-716
ino	-717
kôn	-718
▁Ca	-719
énlé	-720
▁Ame	-721
▁kala	-722
▁tche	-723
▁naani	-724
lê	-725
rê	-726
nin	-727
ouma	-728
▁ton	-729
▁massa	-730
saba	-731
▁dia	-732
▁dɔw	-733
yaw	-734
yon	-735
ɛnɛ	-736
gali	-737
ôngô	-738
▁fén	-739
▁bato	-740
▁lôni	-741
▁djate	-742
egi	-743
▁kiba	-744
▁ɲɔgɔn	-745
fo	-746
▁flè	-747
▁mar	-748
▁sama	-749
▁djigui	-750
fin	-751
iri	-752
▁19	-753
yèrè	-754
gnini	-755
▁beyi	-756
▁kolo	-757
▁sani	-758
dougou	-759
▁tuman	-760
co	-761
▁ju	-762
▁wé	-763
kulu	-764
tigi	-765
▁ɲan	-766
▁dôgô	-767
ho	-768
our	-769
▁al	-770
▁cha	-771
▁dôrô	-772
▁kaba	-773
▁kura	-774
▁djougou	-775
du	-776
qui	-777
rin	-778
yɔrɔ	-779
▁kénlé	-780
▁ségui	-781
▁tigui	-782
▁mougan	-783
ck	-784
fé	-785
bila	-786
manw	-787
▁kɛmɛ	-788
▁djama	-789
kon	-790
▁dɛ	-791
maya	-792
▁biw	-793
▁olu	-794
▁sen	-795
▁kabo	-796
▁damina	-797
yo	-798
za	-799
kaw	-800
mba	-801
▁gb	-802
▁vo	-803
kèla	-804
liya	-805
▁ara	-806
▁oka	-807
tiguè	-808
▁tigi	-809
▁wati	-810
ougnan	-811
▁sougou	-812
kɔ	-813
mê	-814
▁fani	-815
▁waati	-816
mb	-817
ɲɛ	-818
▁Au	-819
▁Ko	-820
▁baw	-821
▁dén	-822
▁fon	-823
▁kela	-824
ssigui	-825
ly	-826
us	-827
niw	-828
▁bɛɛ	-829
▁filɛ	-830
▁yala	-831
▁dilan	-832
▁lonni	-833
▁sandji	-834
..	-835
▁,	-836
ong	-837
ouw	-838
djan	-839
kalo	-840
mina	-841
▁bagaw	-842
▁milli	-843
fê	-844
que	-845
▁Bi	-846
▁Ne	-847
▁Pa	-848
dama	-849
▁bii	-850
▁doh	-851
▁diya	-852
▁ladj	-853
▁leye	-854
▁djaté	-855
▁bognan	-856
▁wu	-857
▁faga	-858
▁kogo	-859
▁kènè	-860
▁daman	-861
aba	-862
ouv	-863
▁gban	-864
▁minè	-865
▁poli	-866
▁tile	-867
▁kakan	-868
sɔ	-869
tèri	-870
▁famou	-871
▁inafô	-872
▁karan	-873
▁tuguni	-874
mp	-875
liw	-876
▁mɛ	-877
koro	-878
lanan	-879
▁fili	-880
▁sɛbɛ	-881
▁gnouman	-882
ry	-883
▁mô	-884
foni	-885
sèbè	-886
▁lan	-887
▁ola	-888
minan	-889
▁kanu	-890
▁sabou	-891
▁nafolo	-892
sô	-893
gua	-894
▁en	-895
môgô	-896
▁Ali	-897
▁djè	-898
▁sɔn	-899
sigui	-900
▁sebe	-901
▁sera	-902
▁avion	-903
▁fanba	-904
▁miniti	-905
os	-906
rra	-907
▁mè	-908
oura	-909
tôrô	-910
▁pro	-911
▁fɔlɔ	-912
▁siran	-913
▁râ	-914
ogoya	-915
▁kiti	-916
▁tele	-917
ei	-918
jan	-919
pou	-920
una	-921
▁Ar	-922
▁lɔ	-923
▁ɲɛ	-924
▁Kan	-925
guini	-926
▁fenw	-927
▁keme	-928
▁fanan	-929
▁kɔnɔn	-930
ria	-931
▁nu	-932
kiri	-933
▁jama	-934
▁kara	-935
koulou	-936
po	-937
▁é	-938
han	-939
bele	-940
▁fran	-941
▁tala	-942
▁wɛrɛ	-943
▁wolonfila	-944
ein	-945
fén	-946
tɔn	-947
dugu	-948
▁Hali	-949
▁balo	-950
▁bésé	-951
▁demi	-952
▁djou	-953
▁juma	-954
▁minu	-955
▁miyé	-956
▁tere	-957
▁adama	-958
▁fanfè	-959
▁kouna	-960
▁segui	-961
▁tinmin	-962
▁dounougnan	-963
sen	-964
▁fu	-965
▁re	-966
jugu	-967
niya	-968
teli	-969
yira	-970
▁wou	-971
▁foro	-972
▁tani	-973
▁koulou	-974
ir	-975
daw	-976
êrê	-977
yala	-978
ssaba	-979
▁yele	-980
mo	-981
gen	-982
gne	-983
men	-984
▁Al	-985
oron	-986
▁kagni	-987
▁kabini	-988
▁kilomè	-989
▁sissan	-990
▁Ameriki	-991
▁daminan	-992
sɛ	-993
rik	-994
▁fé	-995
▁lu	-996
mɔgɔ	-997
risi	-998
▁anw	-999
▁nne	-1000
▁pan	-1001
▁folo	-1002
▁djati	-1003
djougou	-1004
et	-1005
dja	-1006
sie	-1007
biri	-1008
lala	-1009
▁dat	-1010
▁jii	-1011
▁dogo	-1012
▁koni	-1013
▁wélé	-1014
▁yara	-1015
▁banan	-1016
▁lamini	-1017
▁yèlèma	-1018
va	-1019
pon	-1020
denw	-1021
rani	-1022
roun	-1023
▁iya	-1024
lassi	-1025
▁bèrè	-1026
▁bɔra	-1027
▁djin	-1028
▁kɛlɛ	-1029
djigui	-1030
▁seegi	-1031
▁Dougou	-1032
▁donkili	-1033
▁ɲanaman	-1034
dia	-1035
les	-1036
wan	-1037
▁no	-1038
▁wi	-1039
timi	-1040
tiri	-1041
anman	-1042
▁jati	-1043
▁lala	-1044
▁minɛ	-1045
▁tchin	-1046
ris	-1047
sin	-1048
tin	-1049
ɔni	-1050
▁ci	-1051
▁po	-1052
muni	-1053
sigi	-1054
ssou	-1055
stan	-1056
wali	-1057
▁car	-1058
▁deni	-1059
▁dèmè	-1060
▁dôni	-1061
▁sini	-1062
▁nanni	-1063
▁nounou	-1064
pp	-1065
fɛn	-1066
lin	-1067
lén	-1068
mon	-1069
▁Na	-1070
▁So	-1071
dina	-1072
ogon	-1073
yoro	-1074
▁Dji	-1075
▁Nga	-1076
▁aye	-1077
▁dje	-1078
▁kor	-1079
▁sin	-1080
▁Mogo	-1081
▁kèni	-1082
tiguiw	-1083
▁bisaba	-1084
▁nôgôya	-1085
▁dougouman	-1086
bara	-1087
boli	-1088
siri	-1089
▁bôra	-1090
▁tougouni	-1091
dè	-1092
rɛ	-1093
bon	-1094
fen	-1095
▁jo	-1096
fara	-1097
mana	-1098
sara	-1099
ssin	-1100
▁djô	-1101
ation	-1102
▁bele	-1103
▁doni	-1104
▁jugu	-1105
▁kakè	-1106
▁kola	-1107
▁tilé	-1108
gɔ	-1109
anw	-1110
bei	-1111
fèn	-1112
hya	-1113
ver	-1114
▁Se	-1115
▁bê	-1116
likè	-1117
tôgô	-1118
égui	-1119
▁djo	-1120
▁gni	-1121
▁ido	-1122
agati	-1123
▁dɔgɔ	-1124
▁besse	-1125
▁duuru	-1126
▁yôrôw	-1127
gnongon	-1128
▁domini	-1129
▁daminin	-1130
▁million	-1131
▁Djamanan	-1132
um	-1133
▁ten	-1134
▁bilo	-1135
▁kelé	-1136
▁kuman	-1137
▁sanga	-1138
▁barakɛ	-1139
il	-1140
ohn	-1141
▁ce	-1142
▁uw	-1143
golo	-1144
lila	-1145
▁boh	-1146
▁fèn	-1147
▁bôla	-1148
▁-	-1149
bèn	-1150
cha	-1151
ort	-1152
▁Ti	-1153
▁co	-1154
gnin	-1155
tèrè	-1156
▁New	-1157
▁Nor	-1158
▁Uni	-1159
▁kof	-1160
▁mon	-1161
▁Fran	-1162
▁béna	-1163
▁bôni	-1164
▁foto	-1165
▁fôla	-1166
▁kêmê	-1167
▁kɔfɛ	-1168
▁masa	-1169
▁teri	-1170
▁yomi	-1171
▁faran	-1172
▁inter	-1173
▁Wagati	-1174
▁kibaro	-1175
▁songon	-1176
ze	-1177
gue	-1178
mpi	-1179
▁sɔ	-1180
kati	-1181
▁dɔn	-1182
▁ele	-1183
▁foo	-1184
▁jaa	-1185
▁dama	-1186
▁kɔsɔ	-1187
▁juman	-1188
▁dourou	-1189
▁sababu	-1190
▁djourou	-1191
▁dugukolo	-1192
hé	-1193
ts	-1194
tɛ	-1195
bli	-1196
▁je	-1197
▁nô	-1198
▁ɲana	-1199
▁fangan	-1200
▁bissaba	-1201
▁3	-1202
fei	-1203
mbé	-1204
tra	-1205
▁20	-1206
▁Di	-1207
▁Fa	-1208
▁Ha	-1209
▁Pi	-1210
▁fê	-1211
▁ol	-1212
faga	-1213
rami	-1214
▁Ale	-1215
▁Amé	-1216
▁abé	-1217
▁foh	-1218
▁tôn	-1219
kèlaw	-1220
yôrôw	-1221
▁Aust	-1222
▁Fara	-1223
▁gouv	-1224
▁kafô	-1225
▁mili	-1226
▁nina	-1227
▁sisi	-1228
▁teli	-1229
▁kélén	-1230
▁tunbè	-1231
▁foroba	-1232
▁gnôngô	-1233
▁môbili	-1234
spa	-1235
sɛn	-1236
yen	-1237
▁ɲi	-1238
lani	-1239
▁for	-1240
▁taa	-1241
▁daga	-1242
▁sanni	-1243
▁souman	-1244
djou	-1245
tchi	-1246
umani	-1247
▁jigi	-1248
▁segi	-1249
▁kasso	-1250
▁tagara	-1251
▁tchama	-1252
▁dougoukolo	-1253
ja	-1254
ben	-1255
low	-1256
lôn	-1257
lɔn	-1258
per	-1259
ɔnɔ	-1260
▁Co	-1261
▁Re	-1262
▁Ta	-1263
▁Wa	-1264
▁go	-1265
kura	-1266
kélé	-1267
sion	-1268
toro	-1269
▁Tch	-1270
▁sén	-1271
ssôrô	-1272
▁fama	-1273
▁guun	-1274
▁joli	-1275
▁labô	-1276
▁lafi	-1277
▁lara	-1278
▁Itali	-1279
▁famba	-1280
▁bagara	-1281
▁siraba	-1282
▁toumbé	-1283
▁filanan	-1284
▁yèlèman	-1285
▁Australi	-1286
din	-1287
kow	-1288
ssô	-1289
tre	-1290
êlê	-1291
▁ho	-1292
urun	-1293
▁par	-1294
▁kaban	-1295
▁kongo	-1296
▁ladjè	-1297
▁dumuni	-1298
▁fourou	-1299
▁walasa	-1300
▁kodjougou	-1301
cé	-1302
ll	-1303
sh	-1304
▁ô	-1305
rie	-1306
zan	-1307
bana	-1308
dili	-1309
gani	-1310
kuru	-1311
▁dun	-1312
▁sɛn	-1313
▁bélé	-1314
▁dusu	-1315
▁siya	-1316
▁bigan	-1317
▁mandi	-1318
▁yongon	-1319
.”	-1320
bê	-1321
tɔ	-1322
xi	-1323
yè	-1324
bla	-1325
dio	-1326
fon	-1327
sôn	-1328
tar	-1329
tou	-1330
tôn	-1331
▁Af	-1332
foli	-1333
▁Gre	-1334
▁dôn	-1335
▁lou	-1336
▁nôn	-1337
▁tas	-1338
▁tôw	-1339
▁John	-1340
▁dafè	-1341
▁dôyé	-1342
▁dɛmɛ	-1343
▁hakè	-1344
▁maga	-1345
▁tina	-1346
▁dakun	-1347
▁kaman	-1348
▁nèguè	-1349
▁binani	-1350
▁kasôrô	-1351
▁katimi	-1352
▁nafama	-1353
▁tagaman	-1354
▁tchèman	-1355
▁ar	-1356
▁or	-1357
▁ru	-1358
▁bow	-1359
▁karo	-1360
▁kene	-1361
▁loni	-1362
▁sabu	-1363
▁saya	-1364
▁kɔsɔbɛ	-1365
▁mankan	-1366
▁tagabolo	-1367
sɔn	-1368
▁tɔ	-1369
rupu	-1370
▁wal	-1371
▁deen	-1372
▁dola	-1373
▁famu	-1374
▁kera	-1375
▁laba	-1376
▁sosi	-1377
▁fiman	-1378
▁grupu	-1379
▁latan	-1380
▁sanji	-1381
▁tchien	-1382
▁wakati	-1383
▁chariya	-1384
fu	-1385
fɔ	-1386
▁8	-1387
dou	-1388
gbe	-1389
gɛn	-1390
kei	-1391
kin	-1392
shi	-1393
tel	-1394
▁Ru	-1395
▁Su	-1396
▁Za	-1397
fina	-1398
kèrè	-1399
loni	-1400
mogo	-1401
teri	-1402
▁Dja	-1403
▁bié	-1404
▁gbe	-1405
▁koo	-1406
kelen	-1407
lympi	-1408
▁fere	-1409
▁fohi	-1410
▁goun	-1411
▁kere	-1412
▁kofe	-1413
▁lela	-1414
▁logo	-1415
▁léyé	-1416
▁nôgô	-1417
▁poro	-1418
▁teyi	-1419
konnon	-1420
ramidi	-1421
▁Japon	-1422
▁Massa	-1423
▁douni	-1424
▁gnôgô	-1425
▁tulon	-1426
▁Touman	-1427
▁barisa	-1428
▁gbèrèw	-1429
▁kojugu	-1430
▁yôrôla	-1431
▁Amériki	-1432
▁bilorou	-1433
▁chiaman	-1434
▁diamana	-1435
▁jamanan	-1436
▁lagnini	-1437
bɔ	-1438
es	-1439
sti	-1440
yɛn	-1441
buru	-1442
▁ame	-1443
▁fle	-1444
▁jɛn	-1445
▁duni	-1446
▁déni	-1447
▁faso	-1448
▁fisa	-1449
▁jigɛ	-1450
▁nɔgɔ	-1451
▁farati	-1452
gé	-1453
pé	-1454
▁ɛ	-1455
gɔn	-1456
pen	-1457
siw	-1458
▁con	-1459
▁cou	-1460
ssion	-1461
▁dimi	-1462
▁kɛnɛ	-1463
▁lolo	-1464
▁chama	-1465
▁jango	-1466
▁sèbèli	-1467
▁ɲamɔgɔ	-1468
gh	-1469
ty	-1470
▁"	-1471
ber	-1472
can	-1473
doh	-1474
gra	-1475
van	-1476
yɔn	-1477
été	-1478
▁Li	-1479
▁Mu	-1480
▁Vi	-1481
▁ké	-1482
baya	-1483
kisè	-1484
minè	-1485
soro	-1486
yété	-1487
▁bre	-1488
▁bɛn	-1489
▁sôn	-1490
▁toh	-1491
leman	-1492
▁Cana	-1493
▁Indi	-1494
▁caro	-1495
▁seko	-1496
▁tama	-1497
▁toro	-1498
▁woyo	-1499
▁benan	-1500
▁gbèlè	-1501
▁lassé	-1502
▁lonan	-1503
▁saaba	-1504
▁sanfe	-1505
▁barakè	-1506
▁kaburu	-1507
▁kôgôji	-1508
▁Djamana	-1509
▁kôrôssi	-1510
▁yèrèman	-1511
uw	-1512
bini	-1513
yani	-1514
ɔɔrɔ	-1515
▁ibi	-1516
▁liv	-1517
▁mɔn	-1518
▁oni	-1519
▁waa	-1520
ɛlɛya	-1521
▁basi	-1522
▁dara	-1523
▁kari	-1524
▁kunu	-1525
▁suma	-1526
▁wara	-1527
▁nanan	-1528
▁belebele	-1529
wo	-1530
uro	-1531
▁né	-1532
▁tê	-1533
▁ɔn	-1534
cogo	-1535
deni	-1536
sali	-1537
▁bèn	-1538
▁ski	-1539
▁tuba	-1540
▁ɲafɛ	-1541
▁balon	-1542
▁djago	-1543
▁kanan	-1544
▁souma	-1545
▁gnanan	-1546
▁kètchogo	-1547
▁wolofila	-1548
”,	-1549
▁:	-1550
eri	-1551
gor	-1552
ley	-1553
mar	-1554
▁Da	-1555
▁Ju	-1556
▁Mo	-1557
▁Sé	-1558
▁lè	-1559
▁pe	-1560
enya	-1561
fenw	-1562
kônô	-1563
kɔrɔ	-1564
mali	-1565
port	-1566
rein	-1567
tlan	-1568
▁197	-1569
▁201	-1570
▁Ang	-1571
▁Man	-1572
▁Par	-1573
▁Sou	-1574
▁Tur	-1575
▁din	-1576
▁few	-1577
▁flà	-1578
▁gan	-1579
▁kar	-1580
▁law	-1581
▁obé	-1582
▁ole	-1583
▁uya	-1584
ssoro	-1585
▁behi	-1586
▁deli	-1587
▁douw	-1588
▁gnon	-1589
▁kêla	-1590
▁kêlê	-1591
▁lalô	-1592
▁lèri	-1593
▁sôbè	-1594
▁teme	-1595
▁waya	-1596
▁yêrê	-1597
▁bènan	-1598
▁falen	-1599
▁gbere	-1600
▁sèguè	-1601
▁tilan	-1602
▁tolon	-1603
▁barake	-1604
▁kataga	-1605
▁kinmin	-1606
▁kounan	-1607
▁kèmèsi	-1608
▁kèrèfè	-1609
▁nogoya	-1610
▁tchèma	-1611
▁timini	-1612
▁doumini	-1613
▁interne	-1614
▁kôgôdji	-1615
▁kônondô	-1616
▁olougou	-1617
▁tchanman	-1618
▁djougouya	-1619
▁kilomètri	-1620
▁siguiyôrô	-1621
▁gnongonnan	-1622
no	-1623
ph	-1624
vo	-1625
ɲi	-1626
ard	-1627
fla	-1628
▁gi	-1629
▁un	-1630
rica	-1631
▁com	-1632
▁daw	-1633
▁lad	-1634
▁tow	-1635
▁capi	-1636
▁duru	-1637
▁gwan	-1638
▁sɔgɔ	-1639
▁djoli	-1640
▁joona	-1641
▁kissè	-1642
▁koula	-1643
▁tchogoya	-1644
by	-1645
gê	-1646
gin	-1647
las	-1648
tɛr	-1649
uri	-1650
éné	-1651
▁hi	-1652
bala	-1653
kara	-1654
kele	-1655
lini	-1656
▁dor	-1657
▁fei	-1658
▁jɔn	-1659
▁nim	-1660
▁nun	-1661
▁furu	-1662
▁kɔni	-1663
▁sôgô	-1664
▁wɔrɔ	-1665
▁dogon	-1666
▁saman	-1667
▁siraw	-1668
▁tanga	-1669
▁tanni	-1670
▁dôgôya	-1671
▁tagala	-1672
▁datougou	-1673
20	-1674
dɔ	-1675
ld	-1676
▁4	-1677
▁5	-1678
bin	-1679
dow	-1680
eli	-1681
flè	-1682
gné	-1683
gnô	-1684
guê	-1685
taw	-1686
vla	-1687
yôn	-1688
▁Bo	-1689
▁De	-1690
▁Ge	-1691
▁Go	-1692
▁Is	-1693
▁Me	-1694
▁Ra	-1695
▁Tu	-1696
▁Yo	-1697
▁on	-1698
▁tâ	-1699
▁yè	-1700
bour	-1701
dénw	-1702
enti	-1703
tala	-1704
▁Avi	-1705
▁Bel	-1706
▁Mar	-1707
▁Tai	-1708
▁iyé	-1709
▁maa	-1710
▁omi	-1711
▁pre	-1712
▁see	-1713
▁tei	-1714
gnana	-1715
landi	-1716
▁Fili	-1717
▁Koun	-1718
▁Mini	-1719
▁Taga	-1720
▁bôli	-1721
▁coun	-1722
▁dron	-1723
▁dôla	-1724
▁elec	-1725
▁foli	-1726
▁gɛrɛ	-1727
▁kofô	-1728
▁kèko	-1729
▁mari	-1730
▁tola	-1731
▁tora	-1732
▁tésé	-1733
▁were	-1734
▁Atlan	-1735
▁djogo	-1736
▁sigɛn	-1737
▁sogow	-1738
▁tumbé	-1739
▁walma	-1740
gnouman	-1741
tiguiya	-1742
▁Olympi	-1743
▁galasi	-1744
▁hakiri	-1745
▁hakèya	-1746
▁lougou	-1747
▁samara	-1748
▁famouya	-1749
▁môgôhou	-1750
▁djamanaw	-1751
▁dôgôtôrô	-1752
▁jamakulu	-1753
mô	-1754
nn	-1755
...	-1756
chu	-1757
for	-1758
int	-1759
▁za	-1760
kadi	-1761
kola	-1762
mara	-1763
uran	-1764
yagi	-1765
▁bar	-1766
▁fil	-1767
▁mɛn	-1768
▁shi	-1769
▁taw	-1770
▁djen	-1771
▁laka	-1772
▁laki	-1773
▁seri	-1774
▁sènè	-1775
▁tigɛ	-1776
▁kolon	-1777
▁ɲuman	-1778
▁barika	-1779
▁nafaman	-1780
▁farafina	-1781
▁gnanaman	-1782
ea	-1783
tt	-1784
gou	-1785
ham	-1786
tow	-1787
èti	-1788
▁lɛ	-1789
▁mɔ	-1790
meni	-1791
moun	-1792
mugu	-1793
ster	-1794
ther	-1795
▁aba	-1796
▁abe	-1797
▁ama	-1798
▁bor	-1799
▁fou	-1800
▁ibé	-1801
▁soo	-1802
daman	-1803
ougna	-1804
▁djaa	-1805
▁jago	-1806
▁kofè	-1807
▁mogô	-1808
▁tigè	-1809
▁kanou	-1810
▁minou	-1811
▁yelen	-1812
▁daminè	-1813
▁sangan	-1814
▁tubabu	-1815
▁hakilila	-1816
000	-1817
cke	-1818
deo	-1819
gwè	-1820
sco	-1821
tal	-1822
tiw	-1823
wla	-1824
▁18	-1825
▁Fi	-1826
▁Lo	-1827
▁Ou	-1828
▁ah	-1829
▁sê	-1830
hili	-1831
kɛla	-1832
nèti	-1833
ongo	-1834
rain	-1835
rini	-1836
sôbè	-1837
tcha	-1838
tèmè	-1839
▁Ayé	-1840
▁Tou	-1841
▁ana	-1842
▁ato	-1843
▁beh	-1844
▁bom	-1845
▁kaw	-1846
▁pho	-1847
▁ssé	-1848
▁ɲɔn	-1849
baara	-1850
guili	-1851
kissè	-1852
kônôn	-1853
minin	-1854
siden	-1855
versi	-1856
▁Char	-1857
▁Sira	-1858
▁Tchè	-1859
▁bisa	-1860
▁boun	-1861
▁bèla	-1862
▁denw	-1863
▁foun	-1864
▁kisè	-1865
▁loru	-1866
▁lôgô	-1867
▁mien	-1868
▁oman	-1869
▁tlan	-1870
▁ɲini	-1871
kèyôrô	-1872
▁Green	-1873
▁barra	-1874
▁bénan	-1875
▁dulan	-1876
▁foura	-1877
▁gnein	-1878
▁kacha	-1879
▁kahan	-1880
▁kôsôn	-1881
▁labèn	-1882
▁minin	-1883
▁moulo	-1884
▁sôngô	-1885
▁téssé	-1886
▁woron	-1887
▁wɔɔrɔ	-1888
▁yaala	-1889
▁yoror	-1890
▁Kabini	-1891
▁duguba	-1892
▁filèli	-1893
▁fonnon	-1894
▁gninin	-1895
▁kagnan	-1896
▁koffei	-1897
▁kounou	-1898
▁kônnon	-1899
▁kɔnɔna	-1900
▁mabili	-1901
▁tabali	-1902
▁gnamôgô	-1903
▁kalanso	-1904
▁siguini	-1905
▁toumana	-1906
▁kamasôrô	-1907
▁politiki	-1908
ff	-1909
iw	-1910
ena	-1911
ɛni	-1912
diya	-1913
gami	-1914
gili	-1915
ɔrɔn	-1916
▁cɛɲ	-1917
▁daa	-1918
▁kam	-1919
▁mii	-1920
▁sow	-1921
▁tɛm	-1922
▁zan	-1923
▁facɛ	-1924
▁fèrè	-1925
▁kame	-1926
▁lako	-1927
▁tiɲɛ	-1928
▁yani	-1929
▁chari	-1930
▁diara	-1931
▁dɔɔni	-1932
▁jaman	-1933
▁laman	-1934
▁pilasi	-1935
▁!	-1936
aya	-1937
bɛn	-1938
ele	-1939
ire	-1940
ste	-1941
▁nâ	-1942
araw	-1943
gini	-1944
toli	-1945
▁biè	-1946
▁djé	-1947
▁faa	-1948
▁gla	-1949
▁kin	-1950
▁mas	-1951
▁ori	-1952
sidan	-1953
ssiri	-1954
▁faan	-1955
▁mana	-1956
▁sora	-1957
▁séri	-1958
▁wulu	-1959
bolila	-1960
▁akili	-1961
▁demin	-1962
▁denmi	-1963
▁diman	-1964
▁labin	-1965
▁livru	-1966
▁barala	-1967
▁caaman	-1968
▁dabila	-1969
▁daminɛ	-1970
▁toumbi	-1971
▁ameriki	-1972
ng	-1973
nu	-1974
ux	-1975
çi	-1976
ɲa	-1977
bur	-1978
déw	-1979
isw	-1980
tei	-1981
ôlô	-1982
▁Aw	-1983
▁Bu	-1984
▁Do	-1985
▁Fo	-1986
▁Gi	-1987
▁Gu	-1988
▁Ho	-1989
▁Je	-1990
▁Ki	-1991
▁No	-1992
▁af	-1993
▁fö	-1994
▁mâ	-1995
▁nɔ	-1996
▁ɛn	-1997
fani	-1998
féng	-1999
ille	-2000
kela	-2001
koya	-2002
kɔnɔ	-2003
oula	-2004
sogo	-2005
▁Dan	-2006
▁Ola	-2007
▁Sch	-2008
▁Sin	-2009
▁bal	-2010
▁bôn	-2011
▁dew	-2012
▁han	-2013
▁ibe	-2014
▁kad	-2015
▁laa	-2016
▁ouw	-2017
▁oye	-2018
▁sii	-2019
ginin	-2020
kônon	-2021
mbrou	-2022
ssôbè	-2023
èrènè	-2024
▁Alle	-2025
▁Dugu	-2026
▁Hong	-2027
▁Kôgô	-2028
▁Masa	-2029
▁bèna	-2030
▁dila	-2031
▁dino	-2032
▁féré	-2033
▁kula	-2034
▁lada	-2035
▁lama	-2036
▁lebe	-2037
▁lébé	-2038
▁léla	-2039
▁miss	-2040
▁mlan	-2041
▁mule	-2042
▁nege	-2043
▁nugu	-2044
▁nènè	-2045
▁nɛrɛ	-2046
▁sigu	-2047
▁yorô	-2048
▁yélé	-2049
bagatô	-2050
kinolo	-2051
▁Môgôw	-2052
▁Russi	-2053
▁djugu	-2054
▁dôhou	-2055
▁filan	-2056
▁keira	-2057
▁koron	-2058
▁kunna	-2059
▁kôkan	-2060
▁laben	-2061
▁musow	-2062
▁photo	-2063
▁soror	-2064
▁tunbé	-2065
▁wèrèw	-2066
▁Canada	-2067
▁Franci	-2068
▁donron	-2069
▁douman	-2070
▁fanani	-2071
▁gnogon	-2072
▁kèlèkè	-2073
▁lalaga	-2074
▁lataga	-2075
▁lôyôrô	-2076
▁sɔgɔma	-2077
▁tchiai	-2078
▁tounbè	-2079
▁yirala	-2080
▁yiriwa	-2081
▁bisigui	-2082
▁cononon	-2083
▁duguman	-2084
▁jamanaw	-2085
▁tarikou	-2086
▁sosiyété	-2087
▁Greenland	-2088
▁gnongondan	-2089
▁worodougou	-2090
ger	-2091
hon	-2092
ral	-2093
tɛn	-2094
▁va	-2095
▁zi	-2096
aris	-2097
gara	-2098
kɔra	-2099
lina	-2100
orge	-2101
yèlè	-2102
▁bid	-2103
▁bɔn	-2104
▁ika	-2105
▁sud	-2106
▁dari	-2107
▁kali	-2108
▁kuna	-2109
▁kɔgɔ	-2110
▁lase	-2111
▁madi	-2112
▁sami	-2113
▁wale	-2114
▁donni	-2115
▁kɔrɔsi	-2116
▁suguya	-2117
▁teliya	-2118
▁voyagi	-2119
▁binaani	-2120
▁bisaaba	-2121
▁dɔnkili	-2122
▁siginin	-2123
em	-2124
ju	-2125
né	-2126
wu	-2127
ɛt	-2128
cto	-2129
dam	-2130
dro	-2131
few	-2132
hɔn	-2133
ney	-2134
pan	-2135
rit	-2136
vil	-2137
goya	-2138
olon	-2139
tigè	-2140
tigɛ	-2141
wale	-2142
ɛlɛn	-2143
▁alu	-2144
▁cra	-2145
▁cɛn	-2146
awolo	-2147
publi	-2148
ssira	-2149
▁bisi	-2150
▁cɛma	-2151
▁espa	-2152
▁nogo	-2153
▁olou	-2154
mousso	-2155
▁badji	-2156
▁bassi	-2157
▁bissé	-2158
▁carti	-2159
▁djara	-2160
▁gnama	-2161
▁kanka	-2162
▁korow	-2163
▁bamuso	-2164
▁baraka	-2165
▁biwôrô	-2166
▁gnouma	-2167
▁fariman	-2168
▁kɔnɔtɔn	-2169
▁demissin	-2170
▁nɛrɛmugu	-2171
▁telefoni	-2172
.1	-2173
02	-2174
60	-2175
cu	-2176
nw	-2177
râ	-2178
▁'	-2179
▁9	-2180
▁X	-2181
bɛr	-2182
gué	-2183
gèn	-2184
ksi	-2185
mes	-2186
onw	-2187
ras	-2188
trô	-2189
ush	-2190
ènè	-2191
ɲan	-2192
ɲɛn	-2193
▁Du	-2194
▁Ga	-2195
▁Kè	-2196
▁Kô	-2197
▁Or	-2198
▁Pe	-2199
▁Ph	-2200
▁pɔ	-2201
bélé	-2202
cher	-2203
dèmè	-2204
etro	-2205
folo	-2206
kafi	-2207
kala	-2208
kènè	-2209
lôgô	-2210
mero	-2211
ound	-2212
téli	-2213
▁200	-2214
▁Ahi	-2215
▁Air	-2216
▁Ara	-2217
▁Ber	-2218
▁Cen	-2219
▁Cha	-2220
▁Kow	-2221
▁Lou	-2222
▁Mon	-2223
▁Sun	-2224
▁ang	-2225
▁gba	-2226
▁jen	-2227
▁kaa	-2228
▁loh	-2229
▁pré	-2230
▁ubé	-2231
▁uni	-2232
guilè	-2233
pagni	-2234
ssola	-2235
ségui	-2236
tiqui	-2237
▁Bana	-2238
▁Bara	-2239
▁Dani	-2240
▁Espa	-2241
▁Euro	-2242
▁Kong	-2243
▁Kuru	-2244
▁Paki	-2245
▁Star	-2246
▁Yiri	-2247
▁Yèlè	-2248
▁Yôrô	-2249
▁beto	-2250
▁bise	-2251
▁bola	-2252
▁dala	-2253
▁dani	-2254
▁djèn	-2255
▁dona	-2256
▁fola	-2257
▁fura	-2258
▁indi	-2259
▁juru	-2260
▁kabi	-2261
▁kaɲɛ	-2262
▁kini	-2263
▁kiri	-2264
▁koyé	-2265
▁kêrê	-2266
▁laga	-2267
▁mouw	-2268
▁ouka	-2269
▁papi	-2270
▁poyi	-2271
▁séla	-2272
▁sôni	-2273
▁téri	-2274
entifi	-2275
nongon	-2276
teliti	-2277
vision	-2278
▁Belgi	-2279
▁Djama	-2280
▁Kalan	-2281
▁akiri	-2282
▁bouoh	-2283
▁dignè	-2284
▁dunan	-2285
▁dôrôn	-2286
▁fanfɛ	-2287
▁kasse	-2288
▁kemin	-2289
▁kègnè	-2290
▁labɛn	-2291
▁lasse	-2292
▁lonko	-2293
▁manko	-2294
▁nunuw	-2295
▁temin	-2296
▁yorow	-2297
▁Indien	-2298
▁Sariya	-2299
▁Turqui	-2300
▁bourou	-2301
▁dakoun	-2302
▁datugu	-2303
▁dogoni	-2304
▁dolari	-2305
▁doumou	-2306
▁dounia	-2307
▁dumini	-2308
▁gnôgôn	-2309
▁kerefe	-2310
▁kilome	-2311
▁kognan	-2312
▁mounou	-2313
▁ordina	-2314
▁sabati	-2315
▁sigini	-2316
▁sonnan	-2317
▁sôrôla	-2318
▁tasuma	-2319
▁tèmèni	-2320
▁wayasi	-2321
▁baarakè	-2322
▁boroman	-2323
▁gbèlèya	-2324
▁kouroun	-2325
▁bélébélé	-2326
▁daminana	-2327
▁dugutaga	-2328
▁gnanagbe	-2329
▁konondoh	-2330
▁kuntigui	-2331
▁wagatimi	-2332
▁yiriwali	-2333
▁yèlèmali	-2334
▁sababoula	-2335
lassikourou	-2336
▁kôgôdougou	-2337
tr	-2338
we	-2339
zo	-2340
dal	-2341
djo	-2342
lɛn	-2343
qua	-2344
tro	-2345
tur	-2346
▁as	-2347
gati	-2348
gola	-2349
munu	-2350
rila	-2351
▁akè	-2352
▁and	-2353
▁jon	-2354
▁pla	-2355
▁tin	-2356
▁yen	-2357
▁ɲɛn	-2358
banan	-2359
bourg	-2360
▁beka	-2361
▁bora	-2362
▁fôra	-2363
▁fɛnw	-2364
▁jala	-2365
▁ladi	-2366
▁lali	-2367
▁lɔgɔ	-2368
▁malo	-2369
▁sans	-2370
▁sega	-2371
▁tôrô	-2372
▁yama	-2373
ricain	-2374
▁djala	-2375
▁gnaga	-2376
▁radio	-2377
▁sanfɛ	-2378
▁farala	-2379
▁kɛcogo	-2380
▁polisi	-2381
▁kumakan	-2382
▁mandimi	-2383
▁kɔnɔntɔn	-2384
ok	-2385
zu	-2386
che	-2387
dar	-2388
dri	-2389
ers	-2390
eru	-2391
gli	-2392
gwɛ	-2393
kɔn	-2394
lla	-2395
mbè	-2396
mer	-2397
mɔn	-2398
pte	-2399
tèr	-2400
vɛr	-2401
▁oh	-2402
▁th	-2403
anan	-2404
bôla	-2405
erry	-2406
ling	-2407
poli	-2408
rans	-2409
tari	-2410
▁abi	-2411
▁bɛr	-2412
▁cen	-2413
▁oko	-2414
▁saa	-2415
▁sar	-2416
kagni	-2417
kalan	-2418
konon	-2419
ssèbè	-2420
▁aman	-2421
▁bugɔ	-2422
▁cama	-2423
▁dina	-2424
▁doyé	-2425
▁fɔra	-2426
▁jumɛ	-2427
▁kanw	-2428
▁kora	-2429
▁kèli	-2430
▁moun	-2431
▁okan	-2432
▁pori	-2433
▁seka	-2434
▁tolo	-2435
▁yeli	-2436
cogoya	-2437
▁banki	-2438
▁djigi	-2439
▁douga	-2440
▁fagan	-2441
▁iyèrè	-2442
▁koson	-2443
▁mesie	-2444
▁aviyon	-2445
▁balima	-2446
▁djoumè	-2447
▁gɛrɛfɛ	-2448
▁marifa	-2449
▁nɔgɔya	-2450
▁tɛmɛni	-2451
▁walama	-2452
▁yorola	-2453
▁ɲɔngɔn	-2454
▁baliman	-2455
▁danfara	-2456
▁faransi	-2457
▁latanga	-2458
▁cɛɲumani	-2459
▁yɛlɛmani	-2460
ks	-2461
nê	-2462
nô	-2463
rö	-2464
ul	-2465
yô	-2466
zé	-2467
▁7	-2468
▁ɔ	-2469
anc	-2470
djè	-2471
dôn	-2472
how	-2473
kar	-2474
mɛr	-2475
one	-2476
ora	-2477
ssê	-2478
örö	-2479
ɛri	-2480
▁(1	-2481
▁16	-2482
▁AD	-2483
▁Cu	-2484
▁Dô	-2485
▁He	-2486
▁Hu	-2487
▁Ke	-2488
▁Le	-2489
▁Ow	-2490
▁We	-2491
▁bà	-2492
▁dr	-2493
▁ge	-2494
▁of	-2495
▁sy	-2496
bola	-2497
boro	-2498
bôli	-2499
cket	-2500
dara	-2501
enin	-2502
fili	-2503
fɛnw	-2504
koli	-2505
komi	-2506
llow	-2507
mbaw	-2508
ment	-2509
mouw	-2510
nani	-2511
orro	-2512
rand	-2513
réti	-2514
ssiw	-2515
stri	-2516
tere	-2517
tige	-2518
èrèw	-2519
▁199	-2520
▁Afi	-2521
▁Ama	-2522
▁Doh	-2523
▁Don	-2524
▁Dou	-2525
▁Fal	-2526
▁Han	-2527
▁Har	-2528
▁Ina	-2529
▁Ira	-2530
▁Lon	-2531
▁Mol	-2532
▁Ste	-2533
▁The	-2534
▁Tôn	-2535
▁afô	-2536
▁bén	-2537
▁cin	-2538
▁drô	-2539
▁gné	-2540
▁koh	-2541
▁kèè	-2542
▁laf	-2543
▁obi	-2544
▁ohé	-2545
▁oli	-2546
▁tle	-2547
▁ula	-2548
djugu	-2549
guati	-2550
nkèrè	-2551
oroni	-2552
ounan	-2553
ranin	-2554
ransi	-2555
tèrin	-2556
umlan	-2557
▁Angi	-2558
▁Bato	-2559
▁Cali	-2560
▁Fari	-2561
▁Gala	-2562
▁Gnan	-2563
▁Inde	-2564
▁Issa	-2565
▁Komi	-2566
▁Sara	-2567
▁akan	-2568
▁alle	-2569
▁bakè	-2570
▁baro	-2571
▁beye	-2572
▁biyé	-2573
▁bèrô	-2574
▁degi	-2575
▁dɔni	-2576
▁féng	-2577
▁fénw	-2578
▁fôli	-2579
▁gari	-2580
▁gbin	-2581
▁kafo	-2582
▁kaso	-2583
▁kéré	-2584
▁lado	-2585
▁maka	-2586
▁mumè	-2587
▁nata	-2588
▁sege	-2589
▁siga	-2590
▁siti	-2591
▁toyi	-2592
▁visa	-2593
▁wiri	-2594
▁wori	-2595
▁yolo	-2596
▁yéla	-2597
baliya	-2598
eneman	-2599
matiki	-2600
môgôya	-2601
tourou	-2602
yanfan	-2603
yôrôla	-2604
▁Chine	-2605
▁Metro	-2606
▁Mogow	-2607
▁Paris	-2608
▁Parti	-2609
▁South	-2610
▁ayiwa	-2611
▁bɛgɛn	-2612
▁donan	-2613
▁feinw	-2614
▁gbele	-2615
▁glacé	-2616
▁gnami	-2617
▁guunw	-2618
▁kassé	-2619
▁koman	-2620
▁longo	-2621
▁magni	-2622
▁mètri	-2623
▁ninin	-2624
▁sanfi	-2625
▁seere	-2626
▁sossi	-2627
▁tôhou	-2628
▁video	-2629
▁yiriw	-2630
▁Aliman	-2631
▁Djaman	-2632
▁George	-2633
▁Nation	-2634
▁Tagama	-2635
▁Taiwan	-2636
▁biganw	-2637
▁courou	-2638
▁dayira	-2639
▁djanto	-2640
▁djigan	-2641
▁djikan	-2642
▁gbekan	-2643
▁katcha	-2644
▁katèmè	-2645
▁keimin	-2646
▁kounda	-2647
▁kônôna	-2648
▁mitôgô	-2649
▁mobiri	-2650
▁sebeli	-2651
▁sisitè	-2652
▁tôgôla	-2653
▁wolola	-2654
▁yɛlɛla	-2655
kinoloji	-2656
tèrinèti	-2657
▁Califor	-2658
▁biseegi	-2659
▁douniya	-2660
▁doussou	-2661
▁fongnon	-2662
▁gbanzan	-2663
▁gnannan	-2664
▁gwansan	-2665
▁kalaman	-2666
▁kassoro	-2667
▁kogodji	-2668
▁kossôbè	-2669
▁kônôndô	-2670
▁lassôrô	-2671
▁tcheman	-2672
▁waguati	-2673
▁yeleman	-2674
▁Belgique	-2675
▁capitali	-2676
▁dantiguè	-2677
▁dɔgɔmuso	-2678
▁election	-2679
▁ketchogo	-2680
▁kônônala	-2681
▁lassigui	-2682
▁piramidi	-2683
▁sateliti	-2684
▁sigiyôrô	-2685
▁siguinan	-2686
▁tinminan	-2687
▁worodugu	-2688
▁basiginin	-2689
▁gninigali	-2690
▁interneti	-2691
▁kibarohya	-2692
▁kounafoni	-2693
▁kountigui	-2694
▁kilomètiri	-2695
▁djamakoulou	-2696
ké	-2697
my	-2698
wi	-2699
ela	-2700
gap	-2701
ola	-2702
ren	-2703
riw	-2704
rɛn	-2705
tte	-2706
ven	-2707
vid	-2708
▁nɛ	-2709
▁pu	-2710
baro	-2711
lara	-2712
lonw	-2713
mila	-2714
minɛ	-2715
rian	-2716
simi	-2717
site	-2718
tron	-2719
zini	-2720
▁ari	-2721
▁mis	-2722
▁tur	-2723
▁yin	-2724
ganin	-2725
ologi	-2726
▁alou	-2727
▁gala	-2728
▁pari	-2729
▁saga	-2730
▁yafô	-2731
tation	-2732
▁boyan	-2733
▁kassi	-2734
▁ladon	-2735
▁metri	-2736
▁sonni	-2737
▁sɔngɔ	-2738
▁tilen	-2739
▁borila	-2740
▁cogoya	-2741
▁djouma	-2742
▁duniya	-2743
▁gɛlɛya	-2744
▁mangan	-2745
▁yɛlɛma	-2746
▁kuntigi	-2747
▁farifaga	-2748
▁lanibala	-2749
▁nɛrɛmuguman	-2750
gs	-2751
ii	-2752
sk	-2753
ɔl	-2754
▁î	-2755
bru	-2756
cin	-2757
der	-2758
iya	-2759
lus	-2760
rip	-2761
tik	-2762
▁bl	-2763
▁pé	-2764
ball	-2765
burg	-2766
erne	-2767
gari	-2768
goli	-2769
karo	-2770
kuma	-2771
lanw	-2772
line	-2773
ssen	-2774
teni	-2775
tine	-2776
toun	-2777
vier	-2778
yere	-2779
yɛlɛ	-2780
ɛrɛn	-2781
▁aki	-2782
▁ber	-2783
▁ima	-2784
▁jou	-2785
▁pɔr	-2786
▁saw	-2787
kaman	-2788
koura	-2789
likan	-2790
manya	-2791
tuman	-2792
▁boni	-2793
▁deme	-2794
▁dili	-2795
▁kita	-2796
▁kono	-2797
▁kɛla	-2798
▁labè	-2799
▁lamɛ	-2800
▁lasa	-2801
▁misi	-2802
▁nɛnɛ	-2803
▁polo	-2804
▁sorô	-2805
▁sègè	-2806
▁tayé	-2807
▁toli	-2808
▁tulo	-2809
▁tunu	-2810
▁têmê	-2811
▁wula	-2812
▁yela	-2813
▁ɲɛna	-2814
bagaya	-2815
kouman	-2816
▁batow	-2817
▁duguw	-2818
▁fissa	-2819
▁gwɛlɛ	-2820
▁kosso	-2821
▁mouso	-2822
▁charia	-2823
▁fotota	-2824
▁kabako	-2825
▁kɛlɛkɛ	-2826
▁ladili	-2827
▁matchi	-2828
▁tɛmɛna	-2829
▁yirali	-2830
▁denbaya	-2831
▁gwɛlɛya	-2832
▁jɛnkulu	-2833
▁sigilan	-2834
),	-2835
4,	-2836
89	-2837
am	-2838
dr	-2839
ex	-2840
gy	-2841
sc	-2842
ɛs	-2843
▁;	-2844
▁Q	-2845
▁à	-2846
.11	-2847
biw	-2848
cti	-2849
dew	-2850
dɛn	-2851
faw	-2852
fia	-2853
féw	-2854
gbo	-2855
gby	-2856
jar	-2857
kha	-2858
mbi	-2859
ons	-2860
pén	-2861
sèn	-2862
sén	-2863
tic	-2864
toh	-2865
war	-2866
yal	-2867
yèn	-2868
yɛr	-2869
ôli	-2870
ôni	-2871
▁(2	-2872
▁(3	-2873
▁17	-2874
▁Ci	-2875
▁Fe	-2876
▁Jo	-2877
▁Ri	-2878
▁Sh	-2879
▁US	-2880
▁Ve	-2881
▁Ya	-2882
▁ab	-2883
▁cô	-2884
▁dê	-2885
▁gê	-2886
▁pô	-2887
▁ri	-2888
▁ré	-2889
,000	-2890
airi	-2891
beni	-2892
bori	-2893
cifi	-2894
fura	-2895
gana	-2896
garo	-2897
gban	-2898
kêla	-2899
kôli	-2900
lèli	-2901
mand	-2902
mino	-2903
naya	-2904
orld	-2905
oung	-2906
pago	-2907
sala	-2908
sege	-2909
siye	-2910
sɔrɔ	-2911
tani	-2912
tche	-2913
ters	-2914
tèli	-2915
yali	-2916
yele	-2917
èguè	-2918
èrin	-2919
▁100	-2920
▁802	-2921
▁Abé	-2922
▁App	-2923
▁Aya	-2924
▁Bal	-2925
▁Ban	-2926
▁Bla	-2927
▁Con	-2928
▁Eli	-2929
▁Fer	-2930
▁Gna	-2931
▁Hin	-2932
▁Lôn	-2933
▁Nan	-2934
▁Oka	-2935
▁Oya	-2936
▁Pri	-2937
▁Pro	-2938
▁Sud	-2939
▁Whi	-2940
▁ata	-2941
▁dip	-2942
▁hun	-2943
▁keh	-2944
▁laj	-2945
▁obè	-2946
▁olé	-2947
▁ora	-2948
▁oro	-2949
▁oun	-2950
▁siè	-2951
▁tah	-2952
ciété	-2953
feinw	-2954
gbèrè	-2955
illet	-2956
léman	-2957
magni	-2958
mogow	-2959
môgôw	-2960
osoni	-2961
rôpou	-2962
segui	-2963
ssili	-2964
sèguè	-2965
tchin	-2966
thern	-2967
▁Alli	-2968
▁Alon	-2969
▁Caro	-2970
▁Duni	-2971
▁Goma	-2972
▁Iran	-2973
▁Mara	-2974
▁Mari	-2975
▁Maro	-2976
▁Poli	-2977
▁Sani	-2978
▁Tour	-2979
▁Tuma	-2980
▁Téré	-2981
▁agen	-2982
▁angi	-2983
▁baji	-2984
▁deou	-2985
▁dira	-2986
▁doro	-2987
▁dumu	-2988
▁dégu	-2989
▁dénw	-2990
▁dôlô	-2991
▁foon	-2992
▁fèsè	-2993
▁gazi	-2994
▁grou	-2995
▁haki	-2996
▁jean	-2997
▁kake	-2998
▁kakê	-2999
▁kasé	-3000
▁korô	-3001
▁lafa	-3002
▁lalo	-3003
▁lamô	-3004
▁lasé	-3005
▁lugu	-3006
▁para	-3007
▁tchê	-3008
▁togô	-3009
▁touw	-3010
▁voté	-3011
▁walé	-3012
▁yêlê	-3013
cation	-3014
darban	-3015
gapour	-3016
létèri	-3017
lôgôlô	-3018
manian	-3019
nnenya	-3020
ouroun	-3021
sident	-3022
tchini	-3023
▁Avion	-3024
▁Baara	-3025
▁Chili	-3026
▁Chino	-3027
▁Kongo	-3028
▁Louis	-3029
▁Touma	-3030
▁Union	-3031
▁binan	-3032
▁blala	-3033
▁carré	-3034
▁cɛman	-3035
▁dencɛ	-3036
▁djabi	-3037
▁djeme	-3038
▁dôron	-3039
▁faman	-3040
▁fiéré	-3041
▁gbili	-3042
▁gwèlè	-3043
▁gwèrè	-3044
▁gwɛrɛ	-3045
▁hakan	-3046
▁itali	-3047
▁kabon	-3048
▁kassa	-3049
▁kisse	-3050
▁kègna	-3051
▁labla	-3052
▁ladji	-3053
▁maana	-3054
▁maflè	-3055
▁makan	-3056
▁mouga	-3057
▁moumè	-3058
▁neguè	-3059
▁niman	-3060
▁parki	-3061
▁seyan	-3062
▁sinan	-3063
▁sissi	-3064
▁soura	-3065
▁suwan	-3066
▁tadji	-3067
▁tagan	-3068
▁tanan	-3069
▁tiogo	-3070
▁touri	-3071
▁touyé	-3072
▁train	-3073
▁yélén	-3074
▁ɔnhɔn	-3075
anistan	-3076
cherchi	-3077
djourou	-3078
kouroun	-3079
unugnan	-3080
versité	-3081
▁802.11	-3082
▁Afriki	-3083
▁Berlin	-3084
▁Hakili	-3085
▁Jamana	-3086
▁Kanjar	-3087
▁Kouman	-3088
▁bolila	-3089
▁chégui	-3090
▁classi	-3091
▁couran	-3092
▁dayèrè	-3093
▁dinmin	-3094
▁duguma	-3095
▁faaman	-3096
▁farani	-3097
▁flanan	-3098
▁follow	-3099
▁franca	-3100
▁gnanfè	-3101
▁keleen	-3102
▁kèrèkè	-3103
▁kénlén	-3104
▁kôsôbè	-3105
▁lakika	-3106
▁lotèli	-3107
▁minanw	-3108
▁minugu	-3109
▁misali	-3110
▁sarala	-3111
▁sarati	-3112
▁seriko	-3113
▁tchila	-3114
▁temeni	-3115
▁tôgôma	-3116
▁woulou	-3117
▁yarala	-3118
▁yèrèla	-3119
▁yôrômi	-3120
gnanagbè	-3121
tèrènèti	-3122
▁Jamanan	-3123
▁Turquie	-3124
▁baarala	-3125
▁biwolon	-3126
▁conondo	-3127
▁demisse	-3128
▁djagnan	-3129
▁djumlan	-3130
▁gnanabô	-3131
▁ladjèle	-3132
▁ladjèni	-3133
▁missinw	-3134
▁moussow	-3135
▁société	-3136
▁tchaama	-3137
▁tchogow	-3138
▁tchégui	-3139
▁National	-3140
▁Northern	-3141
▁Olympiki	-3142
▁Pakistan	-3143
▁Piramidi	-3144
▁akisidan	-3145
▁banakisè	-3146
▁bassigui	-3147
▁bilayôrô	-3148
▁bissigui	-3149
▁fitchini	-3150
▁internet	-3151
▁kititigè	-3152
▁konondon	-3153
▁kônnondô	-3154
▁kônôntôn	-3155
▁milliyon	-3156
▁porogara	-3157
▁woronvla	-3158
▁Sundarban	-3159
▁kititiguè	-3160
▁kounafoli	-3161
nkèrènnenya	-3162
▁kountiguiw	-3163
ny	-3164
bri	-3165
cro	-3166
dra	-3167
ila	-3168
ira	-3169
mɛn	-3170
ski	-3171
sou	-3172
ten	-3173
ôkô	-3174
ɲɔn	-3175
▁ze	-3176
dala	-3177
elen	-3178
lori	-3179
siti	-3180
sɛbɛ	-3181
triw	-3182
▁amé	-3183
▁gra	-3184
▁gre	-3185
▁ini	-3186
▁kal	-3187
▁pon	-3188
▁wan	-3189
aniya	-3190
dilan	-3191
duuru	-3192
naman	-3193
risto	-3194
▁anka	-3195
▁boon	-3196
▁buru	-3197
▁chou	-3198
▁glan	-3199
▁jara	-3200
▁jida	-3201
▁jona	-3202
▁kasa	-3203
▁kulu	-3204
▁layi	-3205
▁mulo	-3206
▁naga	-3207
▁nègè	-3208
▁sala	-3209
▁sena	-3210
▁tcho	-3211
missin	-3212
ssouma	-3213
tional	-3214
▁diyan	-3215
▁kulon	-3216
▁kungo	-3217
▁minuw	-3218
▁ɲinin	-3219
▁barada	-3220
▁biloru	-3221
▁kalama	-3222
▁kɔnɔni	-3223
▁kɔrɔta	-3224
▁nimero	-3225
▁nimoro	-3226
▁sinɔgɔ	-3227
▁yɔrɔla	-3228
▁sirakan	-3229
▁kɔrɔmuso	-3230
▁lanibara	-3231
▁belebeleba	-3232
▁hakililata	-3233
▁biwolonfila	-3234
hn	-3235
bet	-3236
bre	-3237
bɔn	-3238
cci	-3239
gnê	-3240
iti	-3241
lei	-3242
lia	-3243
mna	-3244
mun	-3245
ork	-3246
par	-3247
phi	-3248
pri	-3249
sow	-3250
sra	-3251
tes	-3252
thi	-3253
urs	-3254
vie	-3255
vou	-3256
vɛn	-3257
▁aa	-3258
▁my	-3259
▁py	-3260
▁sp	-3261
▁wè	-3262
beth	-3263
doni	-3264
erre	-3265
fine	-3266
iniw	-3267
kani	-3268
lana	-3269
mati	-3270
pine	-3271
réné	-3272
senw	-3273
teur	-3274
zara	-3275
zoni	-3276
▁bah	-3277
▁bee	-3278
▁cam	-3279
▁dɔk	-3280
▁gar	-3281
▁gon	-3282
▁gou	-3283
▁ili	-3284
▁pri	-3285
▁pur	-3286
▁sia	-3287
▁ter	-3288
▁ɲin	-3289
kongo	-3290
kurun	-3291
laban	-3292
ranan	-3293
siraw	-3294
▁bafè	-3295
▁bala	-3296
▁biro	-3297
▁boɲɛ	-3298
▁café	-3299
▁cana	-3300
▁daka	-3301
▁dali	-3302
▁digi	-3303
▁drɔn	-3304
▁film	-3305
▁firi	-3306
▁fora	-3307
▁hɛrɛ	-3308
▁joué	-3309
▁kafi	-3310
▁klan	-3311
▁mada	-3312
▁mani	-3313
▁mori	-3314
▁mɛna	-3315
▁saan	-3316
▁seen	-3317
▁sigɛ	-3318
▁sila	-3319
▁sɛkɔ	-3320
▁yaga	-3321
▁ɲɔgɔ	-3322
ration	-3323
tigiya	-3324
toliki	-3325
▁araba	-3326
▁balɔn	-3327
▁bange	-3328
▁bissi	-3329
▁bougô	-3330
▁caama	-3331
▁faamu	-3332
▁fiyen	-3333
▁kissi	-3334
▁kunko	-3335
▁kèlaw	-3336
▁parti	-3337
▁super	-3338
▁toron	-3339
▁batoli	-3340
▁bougou	-3341
▁damani	-3342
▁djidja	-3343
▁kankan	-3344
▁kounba	-3345
▁kènèma	-3346
▁kènèya	-3347
▁lakali	-3348
▁marali	-3349
▁masaya	-3350
▁mirila	-3351
▁nimɔrɔ	-3352
▁nunugu	-3353
▁tounbi	-3354
▁ɲanama	-3355
▁biduuru	-3356
▁sorassi	-3357
▁kinibolo	-3358
▁kunafoli	-3359
▁munumunu	-3360
▁kabakourou	-3361
CA	-3362
NE	-3363
TA	-3364
US	-3365
au	-3366
cs	-3367
ft	-3368
kg	-3369
vè	-3370
zn	-3371
ên	-3372
▁6	-3373
all	-3374
aye	-3375
cal	-3376
cki	-3377
clé	-3378
dju	-3379
dôw	-3380
eid	-3381
ffa	-3382
jon	-3383
kɛn	-3384
los	-3385
nôn	-3386
omi	-3387
pia	-3388
ppa	-3389
pre	-3390
ser	-3391
sus	-3392
sɛr	-3393
tah	-3394
the	-3395
tta	-3396
vet	-3397
vey	-3398
vié	-3399
èli	-3400
èma	-3401
ère	-3402
▁11	-3403
▁2.	-3404
▁En	-3405
▁GP	-3406
▁Gn	-3407
▁Ji	-3408
▁Jr	-3409
▁Po	-3410
▁Sy	-3411
▁cy	-3412
▁he	-3413
▁hy	-3414
▁um	-3415
▁ɛr	-3416
aiti	-3417
bato	-3418
bein	-3419
brou	-3420
bèni	-3421
béri	-3422
bôni	-3423
chia	-3424
chon	-3425
cori	-3426
delo	-3427
dôla	-3428
enus	-3429
fala	-3430
fone	-3431
fènw	-3432
fèsè	-3433
fôlô	-3434
guin	-3435
heli	-3436
iman	-3437
inos	-3438
jigi	-3439
jogo	-3440
kali	-3441
kèta	-3442
liko	-3443
ller	-3444
lèri	-3445
mena	-3446
miki	-3447
mili	-3448
mine	-3449
natè	-3450
ness	-3451
ougn	-3452
ounw	-3453
pani	-3454
riwa	-3455
ropi	-3456
sebe	-3457
sili	-3458
sori	-3459
stre	-3460
suna	-3461
sègè	-3462
sôgô	-3463
tats	-3464
tral	-3465
tura	-3466
tôya	-3467
urri	-3468
uxem	-3469
ymna	-3470
yolo	-3471
zili	-3472
▁196	-3473
▁Anw	-3474
▁Baa	-3475
▁Bar	-3476
▁Bou	-3477
▁Bre	-3478
▁Car	-3479
▁Chi	-3480
▁Com	-3481
▁Cos	-3482
▁Dun	-3483
▁Fen	-3484
▁Fin	-3485
▁Grè	-3486
▁How	-3487
▁Jan	-3488
▁Kru	-3489
▁Kun	-3490
▁Las	-3491
▁Min	-3492
▁Mou	-3493
▁Pic	-3494
▁Sen	-3495
▁Ski	-3496
▁Tan	-3497
▁Tin	-3498
▁Zea	-3499
▁agn	-3500
▁até	-3501
▁bas	-3502
▁bha	-3503
▁bil	-3504
▁blâ	-3505
▁dju	-3506
▁ekɔ	-3507
▁féw	-3508
▁gbi	-3509
▁gnô	-3510
▁gwa	-3511
▁gwè	-3512
▁ité	-3513
▁kii	-3514
▁kuw	-3515
▁lor	-3516
▁low	-3517
▁mbi	-3518
▁mèn	-3519
▁nii	-3520
▁nuw	-3521
▁oté	-3522
▁our	-3523
▁pol	-3524
▁sci	-3525
▁suu	-3526
▁toi	-3527
▁tor	-3528
▁web	-3529
banin	-3530
conon	-3531
djabi	-3532
djala	-3533
djibi	-3534
ffalo	-3535
gandi	-3536
gboya	-3537
guila	-3538
gwèlè	-3539
houla	-3540
isney	-3541
kland	-3542
kɔnɔn	-3543
lafan	-3544
mafen	-3545
massa	-3546
orgor	-3547
ougnè	-3548
pagos	-3549
ption	-3550
rouya	-3551
shing	-3552
ssara	-3553
sèbèw	-3554
tairi	-3555
talan	-3556
trali	-3557
tèriw	-3558
uruni	-3559
yafan	-3560
èlèya	-3561
èrèmè	-3562
éréné	-3563
▁1970	-3564
▁2017	-3565
▁Afgh	-3566
▁Alex	-3567
▁Ange	-3568
▁Auck	-3569
▁Bush	-3570
▁Cape	-3571
▁Casa	-3572
▁Djaa	-3573
▁Djin	-3574
▁Doro	-3575
▁Iraq	-3576
▁Kalo	-3577
▁Kèmè	-3578
▁Lôgô	-3579
▁Medi	-3580
▁Mori	-3581
▁Reid	-3582
▁Sogo	-3583
▁Stan	-3584
▁Togo	-3585
▁Unis	-3586
▁Wari	-3587
▁aben	-3588
▁anga	-3589
▁befè	-3590
▁boko	-3591
▁béhi	-3592
▁béré	-3593
▁bôçi	-3594
▁chia	-3595
▁civi	-3596
▁diɲɛ	-3597
▁dlan	-3598
▁dèsè	-3599
▁déng	-3600
▁féri	-3601
▁kalô	-3602
▁kate	-3603
▁kati	-3604
▁koba	-3605
▁koté	-3606
▁kôfê	-3607
▁ladé	-3608
▁laha	-3609
▁lami	-3610
▁mârâ	-3611
▁nalo	-3612
▁nela	-3613
▁nikô	-3614
▁pasé	-3615
▁plan	-3616
▁pèrè	-3617
▁péré	-3618
▁sana	-3619
▁sièc	-3620
▁soun	-3621
▁suru	-3622
▁sèmè	-3623
▁sèrè	-3624
▁séko	-3625
▁séng	-3626
▁sêbê	-3627
▁sôsô	-3628
▁taxi	-3629
▁tigê	-3630
▁tônô	-3631
▁welé	-3632
▁yana	-3633
▁yena	-3634
▁ɲafɔ	-3635
arikou	-3636
barani	-3637
bourou	-3638
dérali	-3639
jamana	-3640
kasèbè	-3641
labolo	-3642
ougoun	-3643
pendan	-3644
rétien	-3645
sinsin	-3646
ssodja	-3647
sunami	-3648
tougou	-3649
yasira	-3650
▁Angla	-3651
▁Anglè	-3652
▁Angui	-3653
▁Antar	-3654
▁Argen	-3655
▁Grand	-3656
▁Haiti	-3657
▁Inafô	-3658
▁James	-3659
▁Kenya	-3660
▁Latin	-3661
▁Luxem	-3662
▁Molda	-3663
▁Monte	-3664
▁Parki	-3665
▁Saint	-3666
▁Sanfè	-3667
▁Sanji	-3668
▁Sansk	-3669
▁Sisan	-3670
▁Sport	-3671
▁Turki	-3672
▁World	-3673
▁ayira	-3674
▁baasi	-3675
▁bagan	-3676
▁bisse	-3677
▁bochi	-3678
▁bombu	-3679
▁chaya	-3680
▁dinan	-3681
▁djege	-3682
▁djila	-3683
▁djuru	-3684
▁dohou	-3685
▁domou	-3686
▁doron	-3687
▁duman	-3688
▁dèmin	-3689
▁fanfê	-3690
▁filaw	-3691
▁flèla	-3692
▁fôlôn	-3693
▁gnala	-3694
▁kalen	-3695
▁katei	-3696
▁kuran	-3697
▁kôdji	-3698
▁kôrôw	-3699
▁ladje	-3700
▁lamon	-3701
▁lobei	-3702
▁lônko	-3703
▁lɛtri	-3704
▁massé	-3705
▁miles	-3706
▁minbé	-3707
▁nankè	-3708
▁nasra	-3709
▁ninan	-3710
▁nônfè	-3711
▁olugu	-3712
▁onhon	-3713
▁paris	-3714
▁saria	-3715
▁septe	-3716
▁suman	-3717
▁sèbèw	-3718
▁tchèw	-3719
▁toubé	-3720
▁tôgôw	-3721
▁woulé	-3722
baranin	-3723
ciation	-3724
kission	-3725
ssouman	-3726
▁Alonso	-3727
▁Armeni	-3728
▁Domini	-3729
▁Howard	-3730
▁Sandji	-3731
▁angilɛ	-3732
▁aviyôn	-3733
▁badjou	-3734
▁ballon	-3735
▁barigo	-3736
▁bhajan	-3737
▁bisigi	-3738
▁bolola	-3739
▁borola	-3740
▁brevet	-3741
▁coungo	-3742
▁djèguè	-3743
▁dongui	-3744
▁fisaya	-3745
▁fognon	-3746
▁gnuman	-3747
▁kamele	-3748
▁kasoro	-3749
▁keleye	-3750
▁keneya	-3751
▁kibaru	-3752
▁konron	-3753
▁kouraw	-3754
▁kèrein	-3755
▁kèyôrô	-3756
▁kêmêsi	-3757
▁kɛwale	-3758
▁labôli	-3759
▁lakolo	-3760
▁lekoli	-3761
▁lonanw	-3762
▁lôniya	-3763
▁mayara	-3764
▁milimè	-3765
▁proton	-3766
▁sabana	-3767
▁saheli	-3768
▁siyôrô	-3769
▁sognan	-3770
▁sounou	-3771
▁suguru	-3772
▁sèbèni	-3773
▁sôrôli	-3774
▁sôrôta	-3775
▁sɔkɔra	-3776
▁takulu	-3777
▁tchèla	-3778
▁teimin	-3779
▁ticket	-3780
▁tiguiw	-3781
▁tununa	-3782
▁turisi	-3783
▁tèrèmè	-3784
▁tériya	-3785
▁térébô	-3786
▁tôgôyé	-3787
▁yɛlɛko	-3788
batiguiw	-3789
burukalo	-3790
djoukôrô	-3791
kourouni	-3792
shington	-3793
érénéman	-3794
▁Afiriki	-3795
▁Amazoni	-3796
▁Charles	-3797
▁Chinois	-3798
▁Espagne	-3799
▁Filimou	-3800
▁Gnongon	-3801
▁Kôgôdji	-3802
▁Moriori	-3803
▁Nansara	-3804
▁Republi	-3805
▁Tchèman	-3806
▁Zealand	-3807
▁adamade	-3808
▁anguilè	-3809
▁avionso	-3810
▁baleman	-3811
▁capital	-3812
▁chamanw	-3813
▁djarati	-3814
▁djôyôrô	-3815
▁dougouw	-3816
▁dôrôpén	-3817
▁espagnô	-3818
▁foonènè	-3819
▁gnamima	-3820
▁groupou	-3821
▁kassôrô	-3822
▁kenekan	-3823
▁kibaria	-3824
▁koumala	-3825
▁kélénan	-3826
▁kônôdôn	-3827
▁labaara	-3828
▁latiguè	-3829
▁lônniya	-3830
▁mandjan	-3831
▁massaya	-3832
▁miliyôn	-3833
▁okosson	-3834
▁oridina	-3835
▁sarakan	-3836
▁sawoura	-3837
▁sugandi	-3838
▁tasuman	-3839
▁tiguiya	-3840
▁tiguèla	-3841
▁toumami	-3842
▁wadjibi	-3843
▁yereman	-3844
gnongonya	-3845
▁Auckland	-3846
▁Minisiri	-3847
▁barakèla	-3848
▁bilasira	-3849
▁diamanaw	-3850
▁djatigui	-3851
▁djoussou	-3852
▁doumouni	-3853
▁dôrôtôrô	-3854
▁farikolo	-3855
▁farisogo	-3856
▁francais	-3857
▁gnagnini	-3858
▁gounkoun	-3859
▁gouverne	-3860
▁koulouba	-3861
▁kɛcogoya	-3862
▁ladjigui	-3863
▁lasinsin	-3864
▁minisiri	-3865
▁minougou	-3866
▁sègèsègè	-3867
▁tagayôrô	-3868
▁toumanan	-3869
▁wagakélé	-3870
▁yoloyolo	-3871
▁yôrôdjan	-3872
▁Atlantiki	-3873
▁Californi	-3874
▁Francisco	-3875
▁Singapour	-3876
▁donkilila	-3877
▁dounougna	-3878
▁faratiman	-3879
▁gnongonan	-3880
▁gnoumanna	-3881
▁gouvèrènè	-3882
▁kogodjiba	-3883
▁konnondon	-3884
▁kunnafoni	-3885
▁kôrôssili	-3886
▁sababouyé	-3887
▁siguiyoro	-3888
▁woronfila	-3889
▁Luxembourg	-3890
▁Université	-3891
▁Washington	-3892
▁bassiguini	-3893
▁dougoukoro	-3894
▁dôgôtôrôya	-3895
▁intèrinèti	-3896
▁intèrènèti	-3897
▁kilomètèrè	-3898
▁latanganin	-3899
▁sèguèsèguè	-3900
▁tchintchin	-3901
▁television	-3902
▁tɛkinoloji	-3903
▁Afghanistan	-3904
▁glassikourou	-3905
cô	-3906
dy	-3907
yn	-3908
ble	-3909
bra	-3910
chy	-3911
dɛl	-3912
esi	-3913
fli	-3914
gar	-3915
lun	-3916
ple	-3917
red	-3918
tir	-3919
élè	-3920
▁gɛ	-3921
▁jɔ	-3922
▁jɛ	-3923
▁st	-3924
▁tc	-3925
▁tà	-3926
bert	-3927
eniw	-3928
fɔlɔ	-3929
ison	-3930
lenw	-3931
ques	-3932
rili	-3933
rusi	-3934
segi	-3935
tege	-3936
tiɔn	-3937
ture	-3938
tɔrɔ	-3939
▁bro	-3940
▁caa	-3941
▁can	-3942
▁dur	-3943
▁epi	-3944
▁kah	-3945
▁ken	-3946
▁niw	-3947
▁oba	-3948
▁per	-3949
▁bien	-3950
▁denn	-3951
▁dini	-3952
▁hèrè	-3953
▁kasi	-3954
▁kori	-3955
▁kule	-3956
▁lade	-3957
▁nigɛ	-3958
▁omɛr	-3959
▁sanu	-3960
▁seli	-3961
▁sɛnɛ	-3962
▁tali	-3963
▁tena	-3964
▁tien	-3965
▁tran	-3966
▁vote	-3967
▁yera	-3968
ɔrɔnan	-3969
▁alugu	-3970
▁dabla	-3971
▁danan	-3972
▁diplo	-3973
▁djani	-3974
▁feere	-3975
▁gnimi	-3976
▁jaati	-3977
▁juguw	-3978
▁lahou	-3979
▁mansa	-3980
▁miniw	-3981
▁minkè	-3982
▁surun	-3983
▁talon	-3984
▁yanfè	-3985
▁biduru	-3986
▁biwɔrɔ	-3987
▁cogodi	-3988
▁dɔgɔcɛ	-3989
▁jigira	-3990
▁labato	-3991
▁labila	-3992
▁minuti	-3993
▁sumani	-3994
▁teriya	-3995
▁toulon	-3996
▁toulou	-3997
▁tumadɔ	-3998
▁wotoro	-3999
▁alabato	-4000
▁kungolo	-4001
▁lɔgɔkun	-4002
▁musoman	-4003
▁nansara	-4004
▁siranya	-4005
▁wagatiw	-4006
▁balontan	-4007
▁dougouma	-4008
▁filaburu	-4009
as	-4010
ct	-4011
cy	-4012
ds	-4013
hô	-4014
it	-4015
je	-4016
rd	-4017
zɛ	-4018
ane	-4019
ayé	-4020
ché	-4021
del	-4022
gre	-4023
lah	-4024
lem	-4025
lie	-4026
lor	-4027
mie	-4028
mil	-4029
mis	-4030
nei	-4031
oré	-4032
por	-4033
ree	-4034
roi	-4035
tha	-4036
tia	-4037
tis	-4038
ôro	-4039
ɛsi	-4040
▁av	-4041
▁hé	-4042
▁hô	-4043
▁nn	-4044
▁zo	-4045
▁ɔr	-4046
bada	-4047
bari	-4048
bina	-4049
boni	-4050
enne	-4051
jani	-4052
leri	-4053
phen	-4054
puté	-4055
rana	-4056
riye	-4057
ssar	-4058
stro	-4059
than	-4060
tiya	-4061
wolo	-4062
yana	-4063
ètri	-4064
ɲɛna	-4065
▁abè	-4066
▁cii	-4067
▁fer	-4068
▁fit	-4069
▁fiy	-4070
▁ila	-4071
▁kim	-4072
▁kɔm	-4073
▁neu	-4074
▁nus	-4075
▁nyé	-4076
▁obe	-4077
▁oyi	-4078
▁pin	-4079
▁teh	-4080
▁ver	-4081
▁île	-4082
fanga	-4083
misɛn	-4084
tilen	-4085
zuela	-4086
▁annu	-4087
▁baba	-4088
▁bani	-4089
▁beni	-4090
▁béni	-4091
▁bɔni	-4092
▁bɛra	-4093
▁cɛka	-4094
▁dasi	-4095
▁disi	-4096
▁dɔrɔ	-4097
▁euro	-4098
▁finw	-4099
▁gara	-4100
▁golo	-4101
▁issa	-4102
▁john	-4103
▁kato	-4104
▁kilé	-4105
▁lalɔ	-4106
▁loon	-4107
▁nôfè	-4108
▁nɔnɔ	-4109
▁nɛgɛ	-4110
▁sine	-4111
▁sula	-4112
▁sɔkɔ	-4113
▁toka	-4114
▁tɔnɔ	-4115
▁tɔrɔ	-4116
▁vila	-4117
fourou	-4118
neider	-4119
tagama	-4120
wagati	-4121
▁balaw	-4122
▁denin	-4123
▁djolo	-4124
▁djôrô	-4125
▁gnèfè	-4126
▁gwili	-4127
▁kanda	-4128
▁kanga	-4129
▁kanma	-4130
▁kuraw	-4131
▁marsi	-4132
▁minis	-4133
▁musso	-4134
▁pilan	-4135
▁plasi	-4136
▁premi	-4137
▁sarra	-4138
▁sofaw	-4139
▁sosso	-4140
▁tando	-4141
▁touba	-4142
▁wɛrɛw	-4143
▁yɔrɔw	-4144
▁balola	-4145
▁binkan	-4146
▁biworo	-4147
▁diyara	-4148
▁djaabi	-4149
▁député	-4150
▁dɔktɛr	-4151
▁finman	-4152
▁founou	-4153
▁gwɛlɛn	-4154
▁kilasi	-4155
▁kumana	-4156
▁kôrôta	-4157
▁kɔgɔji	-4158
▁layôrô	-4159
▁mougou	-4160
▁nonnon	-4161
▁progra	-4162
▁saraka	-4163
▁sigira	-4164
▁sinsin	-4165
▁sourou	-4166
▁sɛbɛri	-4167
▁toumba	-4168
▁tountè	-4169
▁tumana	-4170
▁weleli	-4171
▁yèrèma	-4172
▁ɲagami	-4173
national	-4174
▁dusukun	-4175
▁fitiniw	-4176
▁sangolo	-4177
▁denmisɛn	-4178
▁katoliki	-4179
▁tagamana	-4180
▁alabatoso	-4181
▁djakouman	-4182
▁balimamuso	-4183
-1	-4184
.5	-4185
0)	-4186
1,	-4187
22	-4188
76	-4189
80	-4190
AS	-4191
BI	-4192
CO	-4193
EP	-4194
NS	-4195
NU	-4196
Ni	-4197
OL	-4198
Si	-4199
TC	-4200
TI	-4201
ay	-4202
gö	-4203
mɔ	-4204
od	-4205
wé	-4206
zô	-4207
èw	-4208
▁$	-4209
▁è	-4210
▁”	-4211
NES	-4212
Net	-4213
The	-4214
ano	-4215
bai	-4216
bèè	-4217
chn	-4218
ciw	-4219
cks	-4220
con	-4221
cté	-4222
dge	-4223
dre	-4224
fol	-4225
fou	-4226
fri	-4227
gal	-4228
ght	-4229
giw	-4230
gro	-4231
hke	-4232
hne	-4233
hog	-4234
hoo	-4235
hra	-4236
hua	-4237
ito	-4238
ken	-4239
ktu	-4240
lap	-4241
léw	-4242
lɛr	-4243
mah	-4244
mma	-4245
moa	-4246
noi	-4247
nya	-4248
ony	-4249
ore	-4250
osa	-4251
own	-4252
pei	-4253
sha	-4254
tec	-4255
tor	-4256
tɔr	-4257
ulu	-4258
wal	-4259
yat	-4260
zin	-4261
ziw	-4262
zɛn	-4263
ârâ	-4264
èni	-4265
èsi	-4266
éen	-4267
éng	-4268
énw	-4269
êla	-4270
ögö	-4271
▁(9	-4272
▁10	-4273
▁15	-4274
▁25	-4275
▁34	-4276
▁60	-4277
▁90	-4278
▁AC	-4279
▁Az	-4280
▁Bè	-4281
▁Ea	-4282
▁Eu	-4283
▁MP	-4284
▁Oh	-4285
▁PA	-4286
▁To	-4287
▁Vo	-4288
▁Wi	-4289
▁Yé	-4290
▁Ze	-4291
▁bî	-4292
▁cɔ	-4293
▁ex	-4294
▁gr	-4295
▁gé	-4296
▁km	-4297
▁kà	-4298
▁mm	-4299
▁rɔ	-4300
Plus	-4301
anda	-4302
aniw	-4303
anta	-4304
ardi	-4305
blan	-4306
bèla	-4307
béti	-4308
cera	-4309
char	-4310
ckey	-4311
curi	-4312
dain	-4313
dari	-4314
dasi	-4315
elle	-4316
ensi	-4317
ergi	-4318
fari	-4319
fasi	-4320
fiti	-4321
fohi	-4322
fèla	-4323
fôla	-4324
fôli	-4325
galo	-4326
gazi	-4327
gbèw	-4328
geni	-4329
gnèw	-4330
guei	-4331
guru	-4332
gèni	-4333
happ	-4334
hegi	-4335
igui	-4336
inya	-4337
isse	-4338
jata	-4339
juru	-4340
kama	-4341
kini	-4342
kogo	-4343
kula	-4344
kèmè	-4345
kèya	-4346
kôfè	-4347
kɛra	-4348
lade	-4349
lama	-4350
laya	-4351
lika	-4352
liyé	-4353
lôni	-4354
mail	-4355
mark	-4356
mein	-4357
misè	-4358
mité	-4359
mlan	-4360
mèli	-4361
nanw	-4362
nèla	-4363
ogoh	-4364
oliw	-4365
onan	-4366
onas	-4367
onlo	-4368
onni	-4369
onou	-4370
ospi	-4371
ouba	-4372
paré	-4373
pock	-4374
polo	-4375
pona	-4376
rich	-4377
rost	-4378
saka	-4379
sani	-4380
sasa	-4381
sini	-4382
sisi	-4383
soba	-4384
suba	-4385
sula	-4386
séré	-4387
sɛgɛ	-4388
tabu	-4389
taki	-4390
tara	-4391
teya	-4392
thio	-4393
tici	-4394
toru	-4395
tugu	-4396
téri	-4397
tôla	-4398
uruw	-4399
velô	-4400
veri	-4401
vila	-4402
waii	-4403
walé	-4404
were	-4405
yèri	-4406
yɛrɛ	-4407
zari	-4408
▁181	-4409
▁500	-4410
▁Ala	-4411
▁Ana	-4412
▁Ani	-4413
▁Azi	-4414
▁Bis	-4415
▁Blo	-4416
▁Bom	-4417
▁Bor	-4418
▁Cou	-4419
▁Cur	-4420
▁Dar	-4421
▁Del	-4422
▁Den	-4423
▁FBI	-4424
▁Gol	-4425
▁Gor	-4426
▁Gou	-4427
▁Ika	-4428
▁Kir	-4429
▁Kôn	-4430
▁Liv	-4431
▁Mau	-4432
▁Nii	-4433
▁Nin	-4434
▁Oyé	-4435
▁Pol	-4436
▁Pra	-4437
▁Ran	-4438
▁Red	-4439
▁Rom	-4440
▁Sco	-4441
▁She	-4442
▁Shi	-4443
▁Swe	-4444
▁Tex	-4445
▁Tom	-4446
▁Tru	-4447
▁Val	-4448
▁Ver	-4449
▁Vir	-4450
▁ahé	-4451
▁anu	-4452
▁atè	-4453
▁avo	-4454
▁bra	-4455
▁béé	-4456
▁cee	-4457
▁cor	-4458
▁dar	-4459
▁doo	-4460
▁dɛn	-4461
▁fra	-4462
▁fri	-4463
▁fôn	-4464
▁gbo	-4465
▁hum	-4466
▁ing	-4467
▁ito	-4468
▁jak	-4469
▁jue	-4470
▁jèn	-4471
▁myu	-4472
▁nis	-4473
▁nka	-4474
▁ofè	-4475
▁otè	-4476
▁pra	-4477
▁pɔn	-4478
▁pɛn	-4479
▁ran	-4480
▁ren	-4481
▁sei	-4482
▁sha	-4483
▁tra	-4484
▁uka	-4485
▁uta	-4486
▁vɛn	-4487
▁yaw	-4488
anaya	-4489
ardin	-4490
baliw	-4491
besse	-4492
cific	-4493
ctiki	-4494
engen	-4495
filiw	-4496
giden	-4497
gnôgô	-4498
guêli	-4499
intan	-4500
karan	-4501
kelaw	-4502
kolon	-4503
kénlé	-4504
kêlaw	-4505
kôdji	-4506
lines	-4507
lliti	-4508
lotte	-4509
mandi	-4510
mouli	-4511
mpson	-4512
oroba	-4513
ounds	-4514
penha	-4515
raman	-4516
ranna	-4517
rikin	-4518
ronon	-4519
ronti	-4520
seben	-4521
sseni	-4522
ssipa	-4523
ssoun	-4524
sséka	-4525
ssôgô	-4526
stemu	-4527
stiki	-4528
stoni	-4529
tabli	-4530
tchei	-4531
tello	-4532
telly	-4533
treet	-4534
trons	-4535
tèguè	-4536
tèmou	-4537
urusi	-4538
yaman	-4539
èrèni	-4540
éréla	-4541
ôgôma	-4542
ôrôya	-4543
▁1979	-4544
▁2020	-4545
▁Agen	-4546
▁Apia	-4547
▁Bori	-4548
▁Dane	-4549
▁Faso	-4550
▁Feli	-4551
▁Fenw	-4552
▁Fôlô	-4553
▁Gazi	-4554
▁Gouv	-4555
▁Guin	-4556
▁Guru	-4557
▁Hara	-4558
▁Jour	-4559
▁Kala	-4560
▁King	-4561
▁Kogo	-4562
▁Kèlè	-4563
▁Lolo	-4564
▁Lôni	-4565
▁Para	-4566
▁Polo	-4567
▁Prix	-4568
▁Qing	-4569
▁Rock	-4570
▁Roma	-4571
▁Rome	-4572
▁Saan	-4573
▁Tile	-4574
▁Tilé	-4575
▁UNES	-4576
▁Utah	-4577
▁Vati	-4578
▁Vene	-4579
▁West	-4580
▁Wolo	-4581
▁Yoga	-4582
▁Yomi	-4583
▁York	-4584
▁Zeru	-4585
▁anni	-4586
▁baou	-4587
▁bela	-4588
▁bich	-4589
▁boda	-4590
▁bouo	-4591
▁bouô	-4592
▁bèyé	-4593
▁béyi	-4594
▁bôrô	-4595
▁celi	-4596
▁char	-4597
▁cira	-4598
▁dafe	-4599
▁dami	-4600
▁djam	-4601
▁djôn	-4602
▁doug	-4603
▁dugn	-4604
▁dôle	-4605
▁dôlé	-4606
▁dôra	-4607
▁dɔra	-4608
▁fanw	-4609
▁femi	-4610
▁fien	-4611
▁foni	-4612
▁fôni	-4613
▁galé	-4614
▁gôrô	-4615
▁hara	-4616
▁jaté	-4617
▁kaan	-4618
▁kawa	-4619
▁kili	-4620
▁kiya	-4621
▁koré	-4622
▁kouw	-4623
▁kèle	-4624
▁lagn	-4625
▁léhé	-4626
▁lôla	-4627
▁lôli	-4628
▁mabô	-4629
▁masé	-4630
▁maya	-4631
▁maɲi	-4632
▁mibè	-4633
▁mibé	-4634
▁mizi	-4635
▁nabe	-4636
▁nafô	-4637
▁nene	-4638
▁nôrô	-4639
▁octo	-4640
▁omin	-4641
▁scan	-4642
▁show	-4643
▁siri	-4644
▁taco	-4645
▁taji	-4646
▁tarô	-4647
▁tché	-4648
▁tèka	-4649
▁téhi	-4650
▁téna	-4651
▁vanc	-4652
▁voti	-4653
▁wèlè	-4654
▁yéra	-4655
amanaw	-4656
bilako	-4657
blanca	-4658
cerato	-4659
dalini	-4660
delogo	-4661
founou	-4662
gongon	-4663
graphi	-4664
happan	-4665
juguya	-4666
kasara	-4667
kɔrɔba	-4668
lougou	-4669
maniya	-4670
minnan	-4671
minoff	-4672
nafolo	-4673
oumala	-4674
rikinw	-4675
risiya	-4676
tayôrô	-4677
tikalo	-4678
tinmin	-4679
tôgôla	-4680
unteni	-4681
uransi	-4682
vèrènè	-4683
yongon	-4684
yèrèla	-4685
▁Allah	-4686
▁Ameri	-4687
▁Apple	-4688
▁Araba	-4689
▁Chini	-4690
▁David	-4691
▁Etats	-4692
▁Ethio	-4693
▁Faran	-4694
▁Flori	-4695
▁Hurri	-4696
▁Inter	-4697
▁Iraqi	-4698
▁Javan	-4699
▁Kouna	-4700
▁Lônni	-4701
▁Machu	-4702
▁Maori	-4703
▁Minan	-4704
▁Norvè	-4705
▁Rober	-4706
▁Samoa	-4707
▁Sanfi	-4708
▁Sanga	-4709
▁Santa	-4710
▁Stark	-4711
▁Venus	-4712
▁White	-4713
▁Zambi	-4714
▁akèla	-4715
▁albɛr	-4716
▁alibi	-4717
▁bessé	-4718
▁biyéw	-4719
▁bolow	-4720
▁buora	-4721
▁bèman	-4722
▁bèssé	-4723
▁chiya	-4724
▁coura	-4725
▁cramp	-4726
▁dalan	-4727
▁dansi	-4728
▁degui	-4729
▁demen	-4730
▁digui	-4731
▁diina	-4732
▁djanw	-4733
▁djeni	-4734
▁djéri	-4735
▁djôle	-4736
▁donna	-4737
▁douyé	-4738
▁dunia	-4739
▁dégui	-4740
▁dônni	-4741
▁dôtrô	-4742
▁faaba	-4743
▁fanbè	-4744
▁filmu	-4745
▁fitin	-4746
▁fleli	-4747
▁fôgnô	-4748
▁gbolo	-4749
▁gbèni	-4750
▁gnènè	-4751
▁gwele	-4752
▁gɛlɛn	-4753
▁hotel	-4754
▁inafo	-4755
▁janto	-4756
▁kelaw	-4757
▁kimin	-4758
▁kinda	-4759
▁kisèw	-4760
▁koffè	-4761
▁kogna	-4762
▁korfè	-4763
▁koroh	-4764
▁koulo	-4765
▁kurun	-4766
▁kèèla	-4767
▁kôron	-4768
▁kôson	-4769
▁lanib	-4770
▁lassi	-4771
▁lèèri	-4772
▁lônni	-4773
▁mikan	-4774
▁miman	-4775
▁minɛn	-4776
▁miria	-4777
▁misɛn	-4778
▁moyen	-4779
▁nonfè	-4780
▁nonni	-4781
▁nuclé	-4782
▁oromè	-4783
▁passe	-4784
▁reser	-4785
▁rugby	-4786
▁saint	-4787
▁salan	-4788
▁sango	-4789
▁shegi	-4790
▁sissè	-4791
▁sojan	-4792
▁sound	-4793
▁taman	-4794
▁taran	-4795
▁tchai	-4796
▁tchei	-4797
▁tesse	-4798
▁tiyen	-4799
▁tlonw	-4800
▁tonon	-4801
▁tèrin	-4802
▁tèssé	-4803
▁tɛmɛn	-4804
▁wagaw	-4805
▁waman	-4806
▁wassa	-4807
▁werew	-4808
▁woror	-4809
▁woula	-4810
▁yigui	-4811
▁yorro	-4812
▁zango	-4813
damande	-4814
djuguya	-4815
enerali	-4816
kèyôrôw	-4817
lasegui	-4818
massala	-4819
misèniw	-4820
ricainw	-4821
ssikara	-4822
telliti	-4823
velôpou	-4824
versite	-4825
ymnasti	-4826
énérali	-4827
▁Alexan	-4828
▁Amérik	-4829
▁Angilè	-4830
▁Center	-4831
▁Disney	-4832
▁Duniya	-4833
▁Dôtôrô	-4834
▁Erôpou	-4835
▁Europu	-4836
▁Fernan	-4837
▁France	-4838
▁Hawaii	-4839
▁Island	-4840
▁Misali	-4841
▁Peters	-4842
▁Picchu	-4843
▁Romney	-4844
▁Street	-4845
▁Taipei	-4846
▁Tinnin	-4847
▁Valley	-4848
▁alissa	-4849
▁ayéssé	-4850
▁bambaw	-4851
▁bayèlè	-4852
▁boloka	-4853
▁bombou	-4854
▁borife	-4855
▁bougnè	-4856
▁buteli	-4857
▁damana	-4858
▁danfew	-4859
▁dayele	-4860
▁demiss	-4861
▁dibila	-4862
▁diinan	-4863
▁django	-4864
▁djanya	-4865
▁djiman	-4866
▁djinni	-4867
▁djondj	-4868
▁dounou	-4869
▁dounya	-4870
▁dôwèrè	-4871
▁fagala	-4872
▁famuya	-4873
▁fanfei	-4874
▁fransi	-4875
▁fôlôla	-4876
▁gbanni	-4877
▁gnaden	-4878
▁gnakun	-4879
▁gnaman	-4880
▁goundo	-4881
▁hockey	-4882
▁jalaki	-4883
▁jamanw	-4884
▁kakôrô	-4885
▁kayira	-4886
▁keilei	-4887
▁kelena	-4888
▁korgor	-4889
▁kotéba	-4890
▁kounma	-4891
▁kuruli	-4892
▁kèkafi	-4893
▁kèlèba	-4894
▁kèwali	-4895
▁kéléyé	-4896
▁kôrôbô	-4897
▁kôrôlé	-4898
▁kôrôsi	-4899
▁kôrôyé	-4900
▁lafasa	-4901
▁laminɛ	-4902
▁lasigi	-4903
▁lasôrô	-4904
▁latege	-4905
▁lizini	-4906
▁lourou	-4907
▁lôkôli	-4908
▁maloya	-4909
▁masôrô	-4910
▁minnin	-4911
▁morgor	-4912
▁morifa	-4913
▁môgôya	-4914
▁nanfèn	-4915
▁nougou	-4916
▁olympi	-4917
▁otuman	-4918
▁pounds	-4919
▁recori	-4920
▁sebeni	-4921
▁sigila	-4922
▁signan	-4923
▁sèbèla	-4924
▁sènèkè	-4925
▁sébaga	-4926
▁sérikô	-4927
▁sôbèna	-4928
▁sôngôn	-4929
▁tariku	-4930
▁tchera	-4931
▁tchian	-4932
▁tchili	-4933
▁temena	-4934
▁tolaci	-4935
▁toumbè	-4936
▁tounou	-4937
▁tounté	-4938
▁tukôrô	-4939
▁téliya	-4940
▁térébé	-4941
▁tôhouw	-4942
▁voteli	-4943
▁walifa	-4944
▁watila	-4945
▁watira	-4946
▁wololi	-4947
▁worola	-4948
▁wotchè	-4949
▁yalala	-4950
▁yelema	-4951
▁yélikè	-4952
onasteri	-4953
ricerato	-4954
sôrôsira	-4955
tchogola	-4956
tougouni	-4957
yèrèyèrè	-4958
▁Alimanw	-4959
▁Anglais	-4960
▁Anguilè	-4961
▁Atlanta	-4962
▁Buffalo	-4963
▁Central	-4964
▁Copenha	-4965
▁Douniya	-4966
▁Faransi	-4967
▁Harbour	-4968
▁Islandi	-4969
▁Juillet	-4970
▁Lôgôkun	-4971
▁Mediter	-4972
▁Moldava	-4973
▁Pacific	-4974
▁Tournoi	-4975
▁Vatican	-4976
▁adamadé	-4977
▁binanni	-4978
▁biségui	-4979
▁biworon	-4980
▁boronon	-4981
▁dantchè	-4982
▁denmuso	-4983
▁djamanw	-4984
▁djateya	-4985
▁djatéya	-4986
▁djikôrô	-4987
▁douroun	-4988
▁dôgôman	-4989
▁faragwè	-4990
▁faragwɛ	-4991
▁filayan	-4992
▁fondoni	-4993
▁fôlônan	-4994
▁gbèrein	-4995
▁gnanama	-4996
▁gnaniya	-4997
▁gnanran	-4998
▁gniniga	-4999
▁gnôngôn	-5000
▁gôrôtôn	-5001
▁kafissa	-5002
▁kibaroh	-5003
▁kogoman	-5004
▁kolossi	-5005
▁kourayé	-5006
▁kumaden	-5007
▁kumasen	-5008
▁kèmèssi	-5009
▁kènèkan	-5010
▁kénléyé	-5011
▁kérétch	-5012
▁kôdjabi	-5013
▁kôgôdou	-5014
▁kôkôdji	-5015
▁kôrôlen	-5016
▁lagafia	-5017
▁lakoyaw	-5018
▁lasigui	-5019
▁miiriya	-5020
▁mobiliw	-5021
▁monbili	-5022
▁polisiw	-5023
▁saboula	-5024
▁sariyas	-5025
▁soumaya	-5026
▁souroun	-5027
▁tasouma	-5028
▁tileben	-5029
▁tsunami	-5030
▁têmêlén	-5031
▁wayashi	-5032
▁website	-5033
▁wuleman	-5034
▁yirikaw	-5035
djougouya	-5036
▁Airlines	-5037
▁Carolina	-5038
▁Costello	-5039
▁Danielle	-5040
▁Dougouba	-5041
▁Dugukolo	-5042
▁Falkland	-5043
▁Guinness	-5044
▁Hurrican	-5045
▁Jourdain	-5046
▁Martelly	-5047
▁Sanskrit	-5048
▁Sientifi	-5049
▁Siminoff	-5050
▁Yèlèmali	-5051
▁adamaden	-5052
▁adamadén	-5053
▁bichégui	-5054
▁bidourou	-5055
▁chianman	-5056
▁dakabana	-5057
▁dansigui	-5058
▁djangaro	-5059
▁djangnan	-5060
▁djiguila	-5061
▁djoukoro	-5062
▁dougouba	-5063
▁dougoudé	-5064
▁dougoula	-5065
▁dèmèdèmè	-5066
▁dôgôyala	-5067
▁farikoro	-5068
▁fèsèfèsè	-5069
▁fédérali	-5070
▁fôtchogo	-5071
▁gbiliman	-5072
▁gnanagbè	-5073
▁gneneman	-5074
▁gnininga	-5075
▁gnôngôna	-5076
▁jamananw	-5077
▁jatiminè	-5078
▁kabourou	-5079
▁kateimin	-5080
▁kolasegi	-5081
▁konnondo	-5082
▁kounoung	-5083
▁kourounw	-5084
▁kèreinkè	-5085
▁kèrèkèla	-5086
▁kôgôdugu	-5087
▁kôgôjiba	-5088
▁labannan	-5089
▁limaniya	-5090
▁mayarala	-5091
▁miriyala	-5092
▁ninakili	-5093
▁nissodja	-5094
▁sababuya	-5095
▁saramaya	-5096
▁sobolila	-5097
▁sossiété	-5098
▁sougouya	-5099
▁sèbèlikè	-5100
▁tchienli	-5101
▁tchienni	-5102
▁tchogola	-5103
▁tougoula	-5104
▁tourissi	-5105
▁téléfone	-5106
▁tɛmɛsira	-5107
▁worobaga	-5108
▁yelemani	-5109
▁yiriwala	-5110
▁yôrôtôgô	-5111
▁yɛlɛmana	-5112
▁yɛrɛyɛrɛ	-5113
dougoukolo	-5114
élèkission	-5115
▁Australie	-5116
▁Charlotte	-5117
▁Massatchè	-5118
▁MetroPlus	-5119
▁Venezuela	-5120
▁balimancɛ	-5121
▁barikaman	-5122
▁delilikan	-5123
▁djamananw	-5124
▁envelôpou	-5125
▁faranfasi	-5126
▁gnangnini	-5127
▁gnanraman	-5128
▁gnansigui	-5129
▁jagobaara	-5130
▁kalafiliw	-5131
▁kalansira	-5132
▁kotiguiya	-5133
▁kounawolo	-5134
▁kouroukan	-5135
▁ladilikan	-5136
▁minissiri	-5137
▁passeport	-5138
▁président	-5139
▁recherchi	-5140
▁sababouya	-5141
▁scientifi	-5142
▁sossiyété	-5143
▁suwandili	-5144
▁tchogoyaw	-5145
▁tchètiguè	-5146
▁toukonnon	-5147
▁yamarouya	-5148
▁Americainw	-5149
▁Casablanca	-5150
▁Dougoukolo	-5151
▁Sundarbans	-5152
▁banabagatô	-5153
▁bélébéléba	-5154
▁demisseinw	-5155
▁djougouman	-5156
▁farimanfen	-5157
▁gnannanman	-5158
▁gniningali	-5159
▁kilometere	-5160
▁lassigiden	-5161
▁septembrou	-5162
▁universite	-5163
korognanagbè	-5164
▁Anguilétèri	-5165
▁demissinhou	-5166
▁djidjoukôrô	-5167
▁donkililala	-5168
▁sariyassoun	-5169
massalakoulou	-5170
▁gnadenlôgôlô	-5171
▁oridinatairi	-5172
▁saheliyanfan	-5173
▁sariyabilako	-5174
▁yoloyolobaga	-5175
▁samarabatiguiw	-5176
▁kèrènkèrènnenya	-5177
hɔ	-5178
ça	-5179
ɲɔ	-5180
ami	-5181
fɔr	-5182
gas	-5183
kir	-5184
kra	-5185
lew	-5186
mas	-5187
mir	-5188
pɔr	-5189
swa	-5190
via	-5191
ɛne	-5192
ɛre	-5193
▁am	-5194
▁ok	-5195
balo	-5196
daga	-5197
dore	-5198
fɔni	-5199
gina	-5200
gɛra	-5201
kèra	-5202
muna	-5203
sera	-5204
sila	-5205
tera	-5206
ɛtri	-5207
ɲini	-5208
▁alɛ	-5209
▁app	-5210
▁cla	-5211
▁fɔn	-5212
▁gun	-5213
▁gɛn	-5214
▁imp	-5215
▁lar	-5216
▁lay	-5217
▁por	-5218
▁sal	-5219
▁ste	-5220
▁sɛr	-5221
▁tɔw	-5222
▁yɔn	-5223
djigi	-5224
kɛlaw	-5225
laman	-5226
linan	-5227
neman	-5228
phone	-5229
rince	-5230
tigiw	-5231
ville	-5232
ɲuman	-5233
▁anto	-5234
▁dafa	-5235
▁dian	-5236
▁dibi	-5237
▁dogô	-5238
▁duga	-5239
▁fasa	-5240
▁fina	-5241
▁fèga	-5242
▁gafe	-5243
▁gene	-5244
▁gran	-5245
▁gɛlɛ	-5246
▁kado	-5247
▁kafe	-5248
▁kapi	-5249
▁kisi	-5250
▁kiun	-5251
▁kɛni	-5252
▁kɛrɛ	-5253
▁lamè	-5254
▁lasi	-5255
▁mate	-5256
▁mika	-5257
▁mugu	-5258
▁naan	-5259
▁nayé	-5260
▁pɔri	-5261
▁sela	-5262
▁siko	-5263
▁soli	-5264
▁sura	-5265
▁sɔbɛ	-5266
▁toga	-5267
▁tɛnɛ	-5268
latigɛ	-5269
trepri	-5270
urunan	-5271
▁avoka	-5272
▁babaw	-5273
▁banna	-5274
▁baraw	-5275
▁bissa	-5276
▁danbe	-5277
▁djona	-5278
▁durɔn	-5279
▁gilan	-5280
▁guvɛr	-5281
▁kilan	-5282
▁koulé	-5283
▁kɔsɔn	-5284
▁lafia	-5285
▁lamin	-5286
▁lɔnni	-5287
▁madam	-5288
▁marki	-5289
▁nataw	-5290
▁russi	-5291
▁sanou	-5292
▁songo	-5293
▁sɔnna	-5294
▁toulo	-5295
▁crayon	-5296
▁dafani	-5297
▁dɔgɔni	-5298
▁dɔtɔrɔ	-5299
▁fantan	-5300
▁jatila	-5301
▁jukɔrɔ	-5302
▁komite	-5303
▁kunbɛn	-5304
▁lamaga	-5305
▁larala	-5306
▁madame	-5307
▁makari	-5308
▁marala	-5309
▁missin	-5310
▁miziki	-5311
▁sabari	-5312
▁sekɔra	-5313
▁sirada	-5314
▁sɔrɔla	-5315
▁sɛbɛli	-5316
▁tarata	-5317
▁tugula	-5318
▁tugura	-5319
▁lɔnniya	-5320
▁naninan	-5321
▁soumani	-5322
▁tɛmɛnin	-5323
▁wolonfi	-5324
▁wɔrɔnan	-5325
▁bamousso	-5326
▁banabaga	-5327
▁fouroula	-5328
▁jakumani	-5329
▁kabakuru	-5330
▁tassouma	-5331
▁ɲinigali	-5332
▁faragwɛla	-5333
▁hakilinan	-5334
▁kalandenw	-5335
ad	-5336
dɛ	-5337
hz	-5338
pr	-5339
vu	-5340
ût	-5341
ald	-5342
ant	-5343
bor	-5344
bul	-5345
cia	-5346
diw	-5347
dɔr	-5348
ell	-5349
hai	-5350
har	-5351
inɛ	-5352
jor	-5353
kor	-5354
kro	-5355
kut	-5356
lis	-5357
lit	-5358
lok	-5359
mad	-5360
now	-5361
olu	-5362
pal	-5363
pha	-5364
phe	-5365
pɛl	-5366
ruw	-5367
sey	-5368
sil	-5369
spi	-5370
sur	-5371
tas	-5372
uli	-5373
ume	-5374
vin	-5375
zen	-5376
ôyô	-5377
▁at	-5378
▁au	-5379
▁ay	-5380
▁es	-5381
▁gô	-5382
▁hɛ	-5383
▁ɛl	-5384
alle	-5385
bugu	-5386
cani	-5387
chin	-5388
ence	-5389
gate	-5390
gnol	-5391
gwan	-5392
jala	-5393
jibi	-5394
juma	-5395
king	-5396
lata	-5397
leke	-5398
lima	-5399
lèya	-5400
mith	-5401
muru	-5402
oniw	-5403
ouna	-5404
pini	-5405
riti	-5406
roya	-5407
saki	-5408
seli	-5409
ston	-5410
sɔgɔ	-5411
thur	-5412
tili	-5413
tina	-5414
tino	-5415
tɛri	-5416
vati	-5417
wili	-5418
yete	-5419
▁aci	-5420
▁ami	-5421
▁ati	-5422
▁bri	-5423
▁bré	-5424
▁cho	-5425
▁ché	-5426
▁gaz	-5427
▁how	-5428
▁kom	-5429
▁kra	-5430
▁las	-5431
▁lat	-5432
▁naa	-5433
▁nɔn	-5434
▁olo	-5435
▁oto	-5436
▁pɛr	-5437
▁rue	-5438
▁sun	-5439
▁vɛr	-5440
▁yaa	-5441
anama	-5442
bayaw	-5443
deini	-5444
eremi	-5445
kuluw	-5446
lande	-5447
mouni	-5448
mɔgɔw	-5449
nowbo	-5450
rikɛn	-5451
ssini	-5452
talon	-5453
umaya	-5454
yaume	-5455
ɲɔgɔn	-5456
▁acci	-5457
▁boyi	-5458
▁bɛgɛ	-5459
▁bɛna	-5460
▁cɛni	-5461
▁dana	-5462
▁depi	-5463
▁doli	-5464
▁dèrè	-5465
▁ekɔl	-5466
▁fale	-5467
▁fatɔ	-5468
▁feri	-5469
▁frou	-5470
▁fɔli	-5471
▁fɛrɛ	-5472
▁jabi	-5473
▁jaga	-5474
▁kako	-5475
▁kare	-5476
▁kira	-5477
▁kobè	-5478
▁koko	-5479
▁koow	-5480
▁lɔni	-5481
▁maji	-5482
▁midi	-5483
▁misa	-5484
▁mèna	-5485
▁nanw	-5486
▁nimi	-5487
▁paki	-5488
▁pasa	-5489
▁pasi	-5490
▁pere	-5491
▁pila	-5492
▁sago	-5493
▁saki	-5494
▁sari	-5495
▁sarl	-5496
▁sina	-5497
▁soow	-5498
▁sɔsɔ	-5499
▁tian	-5500
▁tila	-5501
▁tonw	-5502
▁tulu	-5503
▁vidé	-5504
▁wote	-5505
▁yélè	-5506
▁ɲaga	-5507
eneral	-5508
fagala	-5509
mougou	-5510
yɛlɛma	-5511
▁anglè	-5512
▁arabu	-5513
▁ayèrè	-5514
▁baden	-5515
▁balan	-5516
▁baske	-5517
▁boiti	-5518
▁bolon	-5519
▁bonya	-5520
▁chegi	-5521
▁deniw	-5522
▁djira	-5523
▁dondo	-5524
▁galon	-5525
▁gnèrè	-5526
▁karti	-5527
▁kolɔn	-5528
▁landa	-5529
▁magné	-5530
▁manga	-5531
▁niniw	-5532
▁nison	-5533
▁pɔrti	-5534
▁pɛrɛn	-5535
▁saara	-5536
▁soula	-5537
▁sɛbɛn	-5538
▁tchen	-5539
▁telia	-5540
▁trans	-5541
nikelen	-5542
▁aradio	-5543
▁aviyɔn	-5544
▁benkan	-5545
▁berlin	-5546
▁binana	-5547
▁bolora	-5548
▁cɛjugu	-5549
▁cɛkaɲi	-5550
▁dannan	-5551
▁diaman	-5552
▁dimina	-5553
▁fagali	-5554
▁faragw	-5555
▁fariya	-5556
▁fatura	-5557
▁filana	-5558
▁filɛri	-5559
▁indien	-5560
▁juguya	-5561
▁kalifa	-5562
▁kamelé	-5563
▁karila	-5564
▁kuruba	-5565
▁labèna	-5566
▁lakoli	-5567
▁lanaya	-5568
▁lanilo	-5569
▁lasiri	-5570
▁lawili	-5571
▁miliya	-5572
▁namara	-5573
▁nouman	-5574
▁papier	-5575
▁papiye	-5576
▁samian	-5577
▁snowbo	-5578
▁sogoma	-5579
▁sougan	-5580
▁sèbèra	-5581
▁tchaya	-5582
▁tericɛ	-5583
▁tigiya	-5584
▁tobili	-5585
▁tobiri	-5586
▁tounbé	-5587
▁tounga	-5588
▁wilila	-5589
▁ɲɔgɔnw	-5590
▁biwɔɔrɔ	-5591
▁djanyan	-5592
▁duguden	-5593
▁finɛtri	-5594
▁fitinin	-5595
▁gnataga	-5596
▁kitabou	-5597
▁korossi	-5598
▁kossèbè	-5599
▁nanzara	-5600
▁nɔgɔman	-5601
▁républi	-5602
▁sabanan	-5603
▁siginan	-5604
▁teliman	-5605
▁dogoyara	-5606
▁dumunikɛ	-5607
▁gwiliman	-5608
▁koungolo	-5609
▁kunawolo	-5610
▁laminini	-5611
▁sigiyɔrɔ	-5612
▁sosiyete	-5613
▁telefɔni	-5614
▁wilibali	-5615
▁damadaman	-5616
▁denmisenw	-5617
▁kalansoba	-5618
▁tubabukan	-5619
▁ɲiningali	-5620
".	-5621
,”	-5622
-3	-5623
1)	-5624
1:	-5625
3,	-5626
30	-5627
39	-5628
4)	-5629
6,	-5630
68	-5631
8,	-5632
AP	-5633
BA	-5634
BS	-5635
Bi	-5636
DR	-5637
EM	-5638
GS	-5639
HA	-5640
IC	-5641
IF	-5642
JR	-5643
Ka	-5644
NP	-5645
Na	-5646
Nu	-5647
OC	-5648
OV	-5649
PW	-5650
RI	-5651
TB	-5652
VD	-5653
Xe	-5654
bà	-5655
bâ	-5656
cè	-5657
dd	-5658
eu	-5659
gr	-5660
ia	-5661
jo	-5662
ms	-5663
ns	-5664
oo	-5665
rà	-5666
tw	-5667
vy	-5668
vɛ	-5669
xy	-5670
▁É	-5671
-76	-5672
00.	-5673
980	-5674
ATA	-5675
Bay	-5676
ETI	-5677
Ghz	-5678
NSA	-5679
PWS	-5680
Uni	-5681
air	-5682
ang	-5683
ats	-5684
bdr	-5685
bek	-5686
bie	-5687
boh	-5688
bro	-5689
bwé	-5690
cɛn	-5691
dje	-5692
djê	-5693
duc	-5694
ead	-5695
eau	-5696
edi	-5697
eij	-5698
elé	-5699
pɔ	-5700
▁«	-5701
bew	-5702
bén	-5703
chè	-5704
ens	-5705
ent	-5706
ffi	-5707
fiw	-5708
foh	-5709
fɔn	-5710
gbê	-5711
gow	-5712
guo	-5713
gôw	-5714
hey	-5715
igh	-5716
jah	-5717
kis	-5718
kti	-5719
kur	-5720
lar	-5721
lom	-5722
lyn	-5723
lɛm	-5724
mbu	-5725
miw	-5726
naw	-5727
nga	-5728
nic	-5729
nom	-5730
omo	-5731
oom	-5732
ord	-5733
pho	-5734
psu	-5735
pti	-5736
rei	-5737
riz	-5738
rrô	-5739
run	-5740
sor	-5741
ssy	-5742
sto	-5743
sɛl	-5744
tcè	-5745
tho	-5746
tts	-5747
tus	-5748
ube	-5749
uer	-5750
une	-5751
ung	-5752
val	-5753
von	-5754
vèn	-5755
win	-5756
yia	-5757
you	-5758
àrà	-5759
êbê	-5760
ênê	-5761
ôgo	-5762
ôna	-5763
ônè	-5764
”).	-5765
▁00	-5766
▁12	-5767
▁21	-5768
▁24	-5769
▁27	-5770
▁30	-5771
▁35	-5772
▁36	-5773
▁70	-5774
▁80	-5775
▁Am	-5776
▁Ao	-5777
▁As	-5778
▁By	-5779
▁Ce	-5780
▁Dz	-5781
▁Ed	-5782
▁Fè	-5783
▁Fé	-5784
▁Hy	-5785
▁II	-5786
▁Ir	-5787
▁KO	-5788
▁Mc	-5789
▁My	-5790
▁Nè	-5791
▁Né	-5792
▁Oa	-5793
▁St	-5794
▁Sá	-5795
▁Te	-5796
▁Tè	-5797
▁Tɛ	-5798
▁Va	-5799
ls	-5800
fiè	-5801
mei	-5802
▁Fu	-5803
▁Il	-5804
▁Ye	-5805
▁Zi	-5806
▁dà	-5807
▁fâ	-5808
▁il	-5809
▁ir	-5810
▁oo	-5811
▁wɛ	-5812
▁yê	-5813
▁ɛs	-5814
▁ɲɔ	-5815
Clou	-5816
Luna	-5817
Môgô	-5818
USGS	-5819
acti	-5820
aflè	-5821
arai	-5822
arns	-5823
assi	-5824
bagw	-5825
bone	-5826
bèrè	-5827
bèti	-5828
bêrê	-5829
cads	-5830
ccin	-5831
ceri	-5832
chel	-5833
chti	-5834
chéw	-5835
ckiw	-5836
coun	-5837
cété	-5838
danw	-5839
dian	-5840
diri	-5841
disi	-5842
djin	-5843
doza	-5844
ekaw	-5845
enan	-5846
enny	-5847
enos	-5848
enry	-5849
ersi	-5850
ervi	-5851
eurs	-5852
faya	-5853
fiya	-5854
ford	-5855
fénw	-5856
geul	-5857
ggin	-5858
gnou	-5859
greb	-5860
guay	-5861
hall	-5862
hani	-5863
hiri	-5864
hkek	-5865
hman	-5866
illa	-5867
inau	-5868
irei	-5869
itre	-5870
jong	-5871
kanw	-5872
kari	-5873
kisɛ	-5874
kkha	-5875
kèti	-5876
kênê	-5877
lags	-5878
lecu	-5879
leni	-5880
lola	-5881
lomi	-5882
lotw	-5883
lèzi	-5884
léma	-5885
mapp	-5886
mart	-5887
masi	-5888
mbru	-5889
mira	-5890
mɛna	-5891
nabô	-5892
naou	-5893
nibè	-5894
nodô	-5895
ochy	-5896
ogow	-5897
omen	-5898
oriw	-5899
SP	-5900
SUS	-5901
ool	-5902
▁Hi	-5903
▁Mr	-5904
SPCA	-5905
bouô	-5906
dola	-5907
dust	-5908
hake	-5909
ires	-5910
luli	-5911
lôsi	-5912
lɛri	-5913
mako	-5914
ortu	-5915
ouka	-5916
ouli	-5917
pera	-5918
pori	-5919
quet	-5920
rant	-5921
rati	-5922
regi	-5923
rena	-5924
reya	-5925
rukg	-5926
ruya	-5927
rèfè	-5928
réfè	-5929
saur	-5930
sene	-5931
shin	-5932
sieh	-5933
sipa	-5934
sita	-5935
soft	-5936
ssby	-5937
stem	-5938
séli	-5939
sôli	-5940
sɔbɛ	-5941
tagi	-5942
talo	-5943
tana	-5944
tata	-5945
tcho	-5946
tham	-5947
tian	-5948
tier	-5949
tifi	-5950
togo	-5951
tolo	-5952
tone	-5953
tonw	-5954
tori	-5955
tour	-5956
town	-5957
traw	-5958
tuma	-5959
télé	-5960
urou	-5961
vech	-5962
wang	-5963
wart	-5964
wulu	-5965
wôlô	-5966
xico	-5967
yaga	-5968
yalé	-5969
yata	-5970
yila	-5971
yili	-5972
yoli	-5973
yoto	-5974
yton	-5975
yèli	-5976
yélà	-5977
zani	-5978
zôri	-5979
èman	-5980
énan	-5981
ôpou	-5982
▁000	-5983
▁220	-5984
▁400	-5985
▁800	-5986
▁ADD	-5987
▁ADN	-5988
▁AOL	-5989
▁Abe	-5990
▁Aka	-5991
▁All	-5992
▁Asi	-5993
▁Aye	-5994
▁Baw	-5995
▁Bay	-5996
▁Bhu	-5997
▁Big	-5998
▁Bii	-5999
ale	-6000
fes	-6001
llo	-6002
sèw	-6003
ède	-6004
▁et	-6005
band	-6006
diaw	-6007
déng	-6008
fôni	-6009
gnèn	-6010
kouw	-6011
kèni	-6012
lôru	-6013
muli	-6014
muya	-6015
okyo	-6016
rias	-6017
sèmè	-6018
séri	-6019
tèmi	-6020
▁198	-6021
▁Bin	-6022
▁Bra	-6023
▁Bri	-6024
▁Bro	-6025
▁Bèn	-6026
▁Bèè	-6027
▁Bôn	-6028
▁CEP	-6029
▁Cam	-6030
▁Can	-6031
▁Cin	-6032
▁Dow	-6033
▁Dre	-6034
▁Ecu	-6035
▁Egy	-6036
▁Ere	-6037
▁Fan	-6038
▁For	-6039
▁Gar	-6040
▁Gos	-6041
▁Gri	-6042
▁HJR	-6043
▁Hol	-6044
▁Inc	-6045
▁Iwa	-6046
▁Jaa	-6047
▁Kar	-6048
▁Koh	-6049
▁Kou	-6050
▁Lee	-6051
▁Len	-6052
▁Les	-6053
▁Los	-6054
▁MRI	-6055
▁Mac	-6056
▁Mal	-6057
▁Men	-6058
▁Mer	-6059
▁Nam	-6060
▁Nou	-6061
▁Nov	-6062
▁ONU	-6063
▁Old	-6064
▁Oli	-6065
▁Olé	-6066
▁Oni	-6067
▁PBS	-6068
▁Pan	-6069
▁Pre	-6070
▁Pun	-6071
▁REM	-6072
▁Rea	-6073
▁Roe	-6074
▁Sha	-6075
▁Sla	-6076
▁Spe	-6077
▁Sur	-6078
▁Tas	-6079
▁Wil	-6080
▁Xin	-6081
▁Zha	-6082
▁ada	-6083
▁ako	-6084
▁alo	-6085
▁api	-6086
▁asi	-6087
▁ass	-6088
▁bai	-6089
▁blo	-6090
▁boo	-6091
▁buo	-6092
▁bur	-6093
▁cia	-6094
▁clu	-6095
▁côn	-6096
▁dra	-6097
▁dôh	-6098
▁ero	-6099
bow	-6100
kru	-6101
yne	-6102
zel	-6103
zil	-6104
▁Er	-6105
▁Wé	-6106
fola	-6107
houw	-6108
iney	-6109
kour	-6110
lopi	-6111
pati	-6112
vèri	-6113
▁Bow	-6114
▁Edi	-6115
▁Hes	-6116
▁Law	-6117
▁Oce	-6118
▁Wou	-6119
▁cas	-6120
▁far	-6121
▁fas	-6122
▁fiw	-6123
▁fèè	-6124
▁fɔr	-6125
▁gol	-6126
▁gwɛ	-6127
▁géo	-6128
▁iba	-6129
▁iko	-6130
▁isi	-6131
▁juw	-6132
▁kru	-6133
▁krô	-6134
▁kur	-6135
▁kôô	-6136
▁lun	-6137
▁lôh	-6138
▁mir	-6139
▁mɛr	-6140
▁nei	-6141
▁nom	-6142
▁nyè	-6143
▁nɔɔ	-6144
▁oyo	-6145
▁plu	-6146
▁rɛn	-6147
▁shu	-6148
▁sor	-6149
▁séé	-6150
▁the	-6151
▁tla	-6152
▁tlo	-6153
▁tlé	-6154
▁too	-6155
▁tuu	-6156
▁tèm	-6157
▁tén	-6158
▁téé	-6159
▁ura	-6160
▁war	-6161
▁wii	-6162
▁yél	-6163
▁yɛn	-6164
▁zɔr	-6165
▁èrè	-6166
▁été	-6167
▁éyé	-6168
▁ôla	-6169
▁ɔhɔ	-6170
Cloud	-6171
aiman	-6172
alasu	-6173
amara	-6174
ancer	-6175
anila	-6176
annan	-6177
arani	-6178
babou	-6179
banni	-6180
bassi	-6181
binla	-6182
bogna	-6183
borow	-6184
brani	-6185
burgh	-6186
chard	-6187
cture	-6188
decin	-6189
deman	-6190
denhu	-6191
dilaw	-6192
djein	-6193
djini	-6194
déniw	-6195
eauty	-6196
eneti	-6197
ereya	-6198
erque	-6199
sri	-6200
▁Zé	-6201
▁cu	-6202
buqu	-6203
chen	-6204
chis	-6205
djow	-6206
erew	-6207
finw	-6208
ingh	-6209
lynn	-6210
omer	-6211
quou	-6212
sinw	-6213
▁(19	-6214
▁Fil	-6215
▁Fèn	-6216
▁His	-6217
▁Naw	-6218
▁OHA	-6219
▁UTC	-6220
▁tôm	-6221
andra	-6222
bolow	-6223
chama	-6224
djali	-6225
erbai	-6226
falen	-6227
foura	-6228
féngw	-6229
ganli	-6230
gbèlè	-6231
geria	-6232
ggins	-6233
giNet	-6234
ginal	-6235
ginia	-6236
glisi	-6237
gneli	-6238
gnogo	-6239
gnoli	-6240
gnéla	-6241
gonan	-6242
gongo	-6243
guain	-6244
guama	-6245
guein	-6246
hamun	-6247
heuri	-6248
ilacé	-6249
inako	-6250
inein	-6251
ineti	-6252
inèti	-6253
irini	-6254
itrei	-6255
jaman	-6256
kabèn	-6257
kanto	-6258
keira	-6259
konlo	-6260
koson	-6261
koula	-6262
kouna	-6263
kôrôw	-6264
lahou	-6265
lando	-6266
laouw	-6267
leyan	-6268
llari	-6269
lolow	-6270
lonia	-6271
lorou	-6272
lujah	-6273
manan	-6274
manla	-6275
mbers	-6276
meini	-6277
mikan	-6278
miles	-6279
minèw	-6280
mènan	-6281
méran	-6282
ogobo	-6283
ogoni	-6284
olola	-6285
oniya	-6286
oungo	-6287
ouver	-6288
polis	-6289
ratus	-6290
ringi	-6291
ropic	-6292
salem	-6293
sanga	-6294
scope	-6295
sinau	-6296
sinna	-6297
skimo	-6298
sorow	-6299
wn	-6300
ado	-6301
aisi	-6302
amaw	-6303
ariw	-6304
dira	-6305
déli	-6306
kata	-6307
kôtô	-6308
unan	-6309
▁DVD	-6310
▁Ice	-6311
▁Sik	-6312
▁gui	-6313
▁okô	-6314
▁val	-6315
alasi	-6316
bouoh	-6317
béfan	-6318
djèni	-6319
eneya	-6320
mounw	-6321
ssama	-6322
ssila	-6323
ssing	-6324
ssèri	-6325
sséla	-6326
sséri	-6327
stani	-6328
stitu	-6329
sèèrè	-6330
tanin	-6331
tball	-6332
tchôn	-6333
tendo	-6334
tigue	-6335
tikiw	-6336
tohou	-6337
torow	-6338
ttman	-6339
uerto	-6340
ugnan	-6341
uluyé	-6342
unuya	-6343
vansi	-6344
velle	-6345
verne	-6346
video	-6347
waati	-6348
woron	-6349
yanin	-6350
yorro	-6351
zairi	-6352
èrèné	-6353
êlêkê	-6354
ôgôla	-6355
ôngôn	-6356
▁(200	-6357
▁1920	-6358
▁1960	-6359
▁1976	-6360
▁2005	-6361
▁2013	-6362
▁2016	-6363
▁ACTA	-6364
▁ASUS	-6365
▁Aali	-6366
▁Adam	-6367
▁Anna	-6368
▁Anta	-6369
▁Août	-6370
▁Ariz	-6371
▁Asie	-6372
▁Asso	-6373
▁Assy	-6374
▁Baba	-6375
▁Bali	-6376
▁Bari	-6377
▁Beij	-6378
▁Bere	-6379
▁Bina	-6380
▁Bran	-6381
▁Béré	-6382
▁Cabo	-6383
▁Capi	-6384
▁City	-6385
▁Cook	-6386
▁Cuba	-6387
▁Cush	-6388
▁Daga	-6389
▁Dece	-6390
▁Deni	-6391
▁Djan	-6392
▁Doni	-6393
▁Déng	-6394
▁Dôgô	-6395
▁East	-6396
▁Ephe	-6397
▁Equa	-6398
▁Fair	-6399
▁Fere	-6400
▁Filè	-6401
▁Foto	-6402
▁Fred	-6403
▁Fôli	-6404
▁Gali	-6405
▁Ging	-6406
▁Giza	-6407
▁Glen	-6408
▁Goun	-6409
▁Gree	-6410
▁Hall	-6411
▁Hers	-6412
▁Indu	-6413
▁Isra	-6414
▁Jeff	-6415
▁Jeux	-6416
▁Kara	-6417
▁Khan	-6418
▁Koré	-6419
▁Kuma	-6420
▁Kèrè	-6421
▁Lake	-6422
▁Lenz	-6423
▁Luna	-6424
▁METI	-6425
▁Mapu	-6426
▁Mars	-6427
▁Mili	-6428
▁Minw	-6429
▁Miyé	-6430
▁Musa	-6431
▁NPWS	-6432
▁Nafa	-6433
▁Namg	-6434
▁Nege	-6435
▁Nouv	-6436
▁Nove	-6437
▁Nôgô	-6438
▁Octo	-6439
▁Olaf	-6440
▁Pago	-6441
▁Pale	-6442
▁Poro	-6443
▁Raju	-6444
▁Ring	-6445
▁Saba	-6446
▁Sagi	-6447
▁Sami	-6448
▁Sena	-6449
▁Shar	-6450
▁Shoo	-6451
▁Sigi	-6452
▁Squa	-6453
▁Sámi	-6454
▁Séko	-6455
▁Tama	-6456
▁Tara	-6457
▁Thra	-6458
▁Town	-6459
▁USOC	-6460
▁Viet	-6461
▁Visa	-6462
▁Wara	-6463
▁Woro	-6464
▁Yama	-6465
▁aali	-6466
▁abla	-6467
▁acid	-6468
▁affa	-6469
▁agiw	-6470
▁anri	-6471
▁anta	-6472
▁asun	-6473
▁atom	-6474
▁bawo	-6475
▁bebô	-6476
▁bere	-6477
▁bese	-6478
▁bhog	-6479
▁bini	-6480
▁bohn	-6481
▁boud	-6482
▁bran	-6483
▁bugô	-6484
▁bèbé	-6485
▁bèkè	-6486
▁bèni	-6487
▁bèra	-6488
▁bèsé	-6489
▁bèyi	-6490
▁békè	-6491
▁bôlô	-6492
▁bɛrɛ	-6493
▁caya	-6494
▁comi	-6495
▁cong	-6496
▁coro	-6497
▁dabô	-6498
▁dakè	-6499
▁daro	-6500
▁degu	-6501
▁djaw	-6502
▁djiw	-6503
▁domu	-6504
▁drôn	-6505
▁dôbô	-6506
▁dôhu	-6507
▁eBay	-6508
▁fakɛ	-6509
▁fede	-6510
▁fein	-6511
▁feou	-6512
▁feré	-6513
▁filê	-6514
▁fini	-6515
▁fiti	-6516
▁fiyè	-6517
▁fiyê	-6518
▁flan	-6519
▁fona	-6520
▁fèka	-6521
▁fôrô	-6522
▁gato	-6523
▁gbou	-6524
▁gnei	-6525
▁gnôn	-6526
▁hala	-6527
▁hèri	-6528
▁hôrô	-6529
▁iman	-6530
▁inde	-6531
▁indé	-6532
▁jate	-6533
▁jege	-6534
▁jolo	-6535
▁kaca	-6536
▁kanh	-6537
▁kass	-6538
▁kaya	-6539
▁kemi	-6540
▁kimi	-6541
▁kolé	-6542
▁koum	-6543
▁kouo	-6544
▁koye	-6545
▁kulé	-6546
▁kômi	-6547
▁kôri	-6548
▁körö	-6549
▁labe	-6550
▁labɔ	-6551
▁lakô	-6552
▁lamu	-6553
▁lass	-6554
▁lele	-6555
▁loli	-6556
▁lôru	-6557
▁lɔra	-6558
▁mabo	-6559
▁mafo	-6560
▁mafè	-6561
▁masi	-6562
▁mese	-6563
▁mibe	-6564
▁mitè	-6565
▁moto	-6566
▁muni	-6567
▁muru	-6568
▁muyé	-6569
▁môni	-6570
▁mögö	-6571
▁nahi	-6572
▁navi	-6573
▁ngon	-6574
▁nika	-6575
▁nila	-6576
▁nile	-6577
▁nilo	-6578
▁nisô	-6579
▁nori	-6580
▁noro	-6581
▁nron	-6582
▁nâtô	-6583
▁ochi	-6584
▁ossi	-6585
▁ouna	-6586
▁ouye	-6587
▁pati	-6588
▁pein	-6589
▁plas	-6590
▁rene	-6591
▁sang	-6592
▁sawa	-6593
▁sekɔ	-6594
▁siɲɛ	-6595
▁sogn	-6596
▁solo	-6597
▁stan	-6598
▁sufè	-6599
▁sârâ	-6600
▁sèli	-6601
▁sébé	-6602
▁séfè	-6603
▁sénw	-6604
▁sêti	-6605
▁taki	-6606
▁tana	-6607
▁tata	-6608
▁tehi	-6609
▁tifè	-6610
▁timb	-6611
▁tiya	-6612
▁tobi	-6613
▁toni	-6614
▁toug	-6615
▁turu	-6616
▁téli	-6617
▁tête	-6618
▁tôgo	-6619
▁tôma	-6620
▁tôto	-6621
▁tôwu	-6622
▁uwya	-6623
▁vion	-6624
▁wani	-6625
▁wayé	-6626
▁wiza	-6627
▁wuli	-6628
▁wêrê	-6629
▁wôyô	-6630
▁yafa	-6631
▁yàrà	-6632
▁yéli	-6633
▁yéni	-6634
▁yésé	-6635
▁égli	-6636
▁éssé	-6637
▁ɲɛfɛ	-6638
active	-6639
animan	-6640
araman	-6641
bagato	-6642
bariya	-6643
bdrung	-6644
bérika	-6645
chaman	-6646
ctoria	-6647
curity	-6648
dasiya	-6649
delwal	-6650
djosso	-6651
délôgô	-6652
fangan	-6653
firiki	-6654
folina	-6655
ganfia	-6656
gation	-6657
gnogon	-6658
gnongô	-6659
gnonni	-6660
gnuman	-6661
guidaw	-6662
guiniw	-6663
guêssê	-6664
gwèlèn	-6665
hakili	-6666
hammad	-6667
hilipp	-6668
ininin	-6669
jourou	-6670
kafile	-6671
keilaw	-6672
kokura	-6673
kolode	-6674
konomi	-6675
korobo	-6676
kosson	-6677
kounan	-6678
kèrèfè	-6679
kôliso	-6680
kônôni	-6681
kôrôma	-6682
kôrôni	-6683
kôrôta	-6684
lasika	-6685
leyèri	-6686
liyôrô	-6687
marine	-6688
masôrô	-6689
mbabwé	-6690
mbuktu	-6691
minèni	-6692
mètèrè	-6693
nounou	-6694
ortuga	-6695
ospiza	-6696
perony	-6697
ponais	-6698
poulos	-6699
quipou	-6700
ranéen	-6701
rianci	-6702
résori	-6703
senman	-6704
siraya	-6705
siyete	-6706
souman	-6707
ssaman	-6708
ssouri	-6709
ssèguè	-6710
ssèniw	-6711
sségui	-6712
strict	-6713
sɛgɛli	-6714
tagala	-6715
tchegi	-6716
tchôgô	-6717
tignin	-6718
tounou	-6719
vation	-6720
verisi	-6721
viétik	-6722
waliya	-6723
yèlèma	-6724
yɔrɔla	-6725
zabeth	-6726
élégué	-6727
▁(3980	-6728
▁Adama	-6729
▁Aires	-6730
▁Alani	-6731
▁Alibi	-6732
▁Allen	-6733
▁Angel	-6734
▁Angné	-6735
▁Archi	-6736
▁Arias	-6737
▁Arisi	-6738
▁Astro	-6739
▁Aussi	-6740
▁Baasi	-6741
▁Badji	-6742
▁Barce	-6743
▁Black	-6744
▁Blake	-6745
▁Bobek	-6746
▁Bombu	-6747
▁Canal	-6748
▁Chase	-6749
▁Chris	-6750
▁Davey	-6751
▁Djate	-6752
▁Douni	-6753
▁Drukg	-6754
▁Dzong	-6755
▁Emira	-6756
▁Flags	-6757
▁Giant	-6758
▁Gnôgô	-6759
▁Golfu	-6760
▁Grant	-6761
▁Grèki	-6762
▁Henry	-6763
▁Hindi	-6764
▁Hotel	-6765
▁Hsieh	-6766
▁Huhne	-6767
▁Hydro	-6768
▁India	-6769
▁Irani	-6770
▁Jerry	-6771
▁Kasso	-6772
▁Komen	-6773
▁Koura	-6774
▁Kôdji	-6775
▁Lolow	-6776
▁Lonni	-6777
▁Maroc	-6778
▁Micro	-6779
▁Musow	-6780
▁Nadal	-6781
▁Ninin	-6782
▁Noosa	-6783
▁North	-6784
▁Norve	-6785
▁Ovech	-6786
▁Penin	-6787
▁Perry	-6788
▁Persi	-6789
▁Potro	-6790
▁RSPCA	-6791
▁Radio	-6792
▁Rocki	-6793
▁Roman	-6794
▁Rugby	-6795
▁Sabou	-6796
▁Saito	-6797
▁Sanfe	-6798
▁Santo	-6799
▁Saras	-6800
▁Scott	-6801
▁Singh	-6802
▁Stand	-6803
▁Stone	-6804
▁Super	-6805
▁Suède	-6806
▁Swedi	-6807
▁Tchin	-6808
▁Texas	-6809
▁Tibet	-6810
▁Tokyo	-6811
▁Tolon	-6812
▁Tommy	-6813
▁Train	-6814
▁Trans	-6815
▁Trump	-6816
▁Tutan	-6817
▁Versa	-6818
▁Vidal	-6819
▁Zapon	-6820
▁Zayat	-6821
▁Zmapp	-6822
▁abena	-6823
▁abéna	-6824
▁afôra	-6825
▁ahiyé	-6826
▁alele	-6827
▁alélé	-6828
▁amino	-6829
▁anidô	-6830
▁anika	-6831
▁baakè	-6832
▁balôn	-6833
▁banaw	-6834
▁bangu	-6835
▁belen	-6836
▁billè	-6837
▁blalà	-6838
▁bogna	-6839
▁bonna	-6840
▁boouw	-6841
▁borro	-6842
▁bèguè	-6843
▁bénni	-6844
▁bôchi	-6845
▁centi	-6846
▁chino	-6847
▁curan	-6848
▁dagnè	-6849
▁dagua	-6850
▁damaw	-6851
▁danbé	-6852
▁deinw	-6853
▁demba	-6854
▁desse	-6855
▁digan	-6856
▁diili	-6857
▁djidi	-6858
▁djigê	-6859
▁djita	-6860
▁djoro	-6861
▁djéni	-6862
▁dohni	-6863
▁donda	-6864
▁doulo	-6865
▁doung	-6866
▁drôtô	-6867
▁dèssè	-6868
▁dégou	-6869
▁dêssê	-6870
▁falén	-6871
▁fassa	-6872
▁fasso	-6873
▁fesse	-6874
▁figne	-6875
▁fignè	-6876
▁finou	-6877
▁flèli	-6878
▁flèni	-6879
▁foliw	-6880
▁folon	-6881
▁folow	-6882
▁foron	-6883
▁forra	-6884
▁foshi	-6885
▁fèguè	-6886
▁fènsè	-6887
▁fèèrè	-6888
▁fôlaw	-6889
▁fôlôw	-6890
▁fônon	-6891
▁fɔɲɔn	-6892
▁gbiri	-6893
▁gboro	-6894
▁gbèla	-6895
▁gbèya	-6896
▁glasi	-6897
▁gnanw	-6898
▁gnina	-6899
▁gnuma	-6900
▁gounw	-6901
▁grand	-6902
▁guèlè	-6903
▁guèrè	-6904
▁hangi	-6905
▁hydro	-6906
▁ikomi	-6907
▁intèr	-6908
▁iyafô	-6909
▁iyéré	-6910
▁jadon	-6911
▁janya	-6912
▁jigui	-6913
▁kabaw	-6914
▁kabou	-6915
▁kakei	-6916
▁kanto	-6917
▁kodin	-6918
▁koffé	-6919
▁kogoh	-6920
▁kokan	-6921
▁kossô	-6922
▁kosôn	-6923
▁koubé	-6924
▁kouda	-6925
▁koung	-6926
▁kowla	-6927
▁koyaw	-6928
▁kréfè	-6929
▁kulun	-6930
▁kèdin	-6931
▁kèlèw	-6932
▁kèmin	-6933
▁kèèra	-6934
▁kékou	-6935
▁laada	-6936
▁labén	-6937
▁ladaw	-6938
▁ladin	-6939
▁ladow	-6940
▁ladôn	-6941
▁lafan	-6942
▁latin	-6943
▁lohla	-6944
▁lonbɛ	-6945
▁lonya	-6946
▁lôdaw	-6947
▁lônya	-6948
▁lɔnko	-6949
▁maara	-6950
▁mairi	-6951
▁makow	-6952
▁marfa	-6953
▁marké	-6954
▁mimbé	-6955
▁minkɛ	-6956
▁mitou	-6957
▁modɛl	-6958
▁mogon	-6959
▁muras	-6960
▁mɛtri	-6961
▁nanko	-6962
▁nansé	-6963
▁negue	-6964
▁nibei	-6965
▁nikan	-6966
▁nissô	-6967
▁novan	-6968
▁nusɔn	-6969
▁nèèma	-6970
▁ojogo	-6971
▁okèla	-6972
▁ominw	-6973
▁oursi	-6974
▁oyôrô	-6975
▁paqui	-6976
▁passi	-6977
▁placi	-6978
▁plane	-6979
▁sanan	-6980
▁sanfê	-6981
▁seguè	-6982
▁segɔn	-6983
▁senfè	-6984
▁serra	-6985
▁siban	-6986
▁sirra	-6987
▁smart	-6988
▁sohow	-6989
▁sonli	-6990
▁sonna	-6991
▁sosow	-6992
▁soufè	-6993
▁sourô	-6994
▁spori	-6995
▁ssoro	-6996
▁sèrèw	-6997
▁tabou	-6998
▁tafan	-6999
▁tagua	-7000
▁tanna	-7001
▁tchan	-7002
▁tchia	-7003
▁teriw	-7004
▁tiyɛn	-7005
▁tiɲɛn	-7006
▁togoh	-7007
▁tohou	-7008
▁tomon	-7009
▁toubè	-7010
▁tugan	-7011
▁télén	-7012
▁wagon	-7013
▁wolôn	-7014
▁wonlo	-7015
▁wéelé	-7016
▁yanan	-7017
▁zaara	-7018
▁ɲinan	-7019
bôssira	-7020
bɔninya	-7021
chestri	-7022
djateya	-7023
gnanman	-7024
guilisi	-7025
intanba	-7026
kourouw	-7027
kéléman	-7028
likèlaw	-7029
lonbaga	-7030
manséri	-7031
manyôrô	-7032
marchéw	-7033
massion	-7034
monkalo	-7035
nayaala	-7036
ougouya	-7037
paniola	-7038
rétienw	-7039
sababou	-7040
sasauru	-7041
sebenin	-7042
ssarada	-7043
stanbul	-7044
tanfɛnw	-7045
tchogow	-7046
tchèman	-7047
tinople	-7048
vonport	-7049
waliman	-7050
élétèri	-7051
émissin	-7052
▁Adaman	-7053
▁Agenci	-7054
▁Albuqu	-7055
▁Aléman	-7056
▁Amster	-7057
▁Angola	-7058
▁Aristo	-7059
▁Arthur	-7060
▁Aviyon	-7061
▁Balasu	-7062
▁Beauty	-7063
▁Bilama	-7064
▁Carter	-7065
▁Comité	-7066
▁Coungo	-7067
▁Danius	-7068
▁Dunlap	-7069
▁Edison	-7070
▁Energi	-7071
▁Estoni	-7072
▁Europe	-7073
▁Foroba	-7074
▁Gordon	-7075
▁Herost	-7076
▁Hindou	-7077
▁Hoteli	-7078
▁Kamlan	-7079
▁Kibaro	-7080
▁Koungo	-7081
▁Kourou	-7082
▁Lakkha	-7083
▁Layton	-7084
▁Living	-7085
▁Malèzi	-7086
▁Mexico	-7087
▁Miller	-7088
▁Miniti	-7089
▁Misira	-7090
▁Mobili	-7091
▁Mobiri	-7092
▁Mounan	-7093
▁Môgômi	-7094
▁Ordina	-7095
▁Piquet	-7096
▁Posoni	-7097
▁Prague	-7098
▁Prince	-7099
▁Puerto	-7100
▁Romain	-7101
▁Romani	-7102
▁Rossby	-7103
▁Safari	-7104
▁Samara	-7105
▁School	-7106
▁Sejong	-7107
▁Sintra	-7108
▁Siraba	-7109
▁Slalom	-7110
▁Sougou	-7111
▁Survey	-7112
▁Tainos	-7113
▁Toulon	-7114
▁UNESCO	-7115
▁Xinhua	-7116
▁Yôrôdô	-7117
▁Zagreb	-7118
▁Zeruza	-7119
▁Zuluyé	-7120
▁abenan	-7121
▁abènan	-7122
▁alasse	-7123
▁arabou	-7124
▁aradjo	-7125
▁atomou	-7126
▁avansi	-7127
▁balawu	-7128
▁balonw	-7129
▁banikô	-7130
▁barraw	-7131
▁bataki	-7132
▁beinan	-7133
▁besson	-7134
▁bilôru	-7135
▁bognin	-7136
▁boloci	-7137
▁bougna	-7138
▁bouora	-7139
▁béfôla	-7140
▁bôdjou	-7141
▁bôyôrô	-7142
▁canadi	-7143
▁celili	-7144
▁chaama	-7145
▁civili	-7146
▁connon	-7147
▁corona	-7148
▁cycads	-7149
▁côgôya	-7150
▁daraka	-7151
▁darapo	-7152
▁dawolo	-7153
▁dayɛlɛ	-7154
▁debaya	-7155
▁dessin	-7156
▁dibaga	-7157
▁dimana	-7158
▁djalan	-7159
▁djiein	-7160
▁djonaw	-7161
▁dogoya	-7162
▁dorgor	-7163
▁dounan	-7164
▁duguko	-7165
▁dunanw	-7166
▁dunuya	-7167
▁durisi	-7168
▁dôfara	-7169
▁dôonon	-7170
▁enregi	-7171
▁essipa	-7172
▁fambaw	-7173
▁fanbaw	-7174
▁fangaw	-7175
▁fangua	-7176
▁farafi	-7177
▁fatchè	-7178
▁fayira	-7179
▁filakè	-7180
▁fleili	-7181
▁fonfon	-7182
▁forlor	-7183
▁franan	-7184
▁fronti	-7185
▁fudéli	-7186
▁fôgnon	-7187
▁gbelen	-7188
▁gberew	-7189
▁gbissi	-7190
▁gbèman	-7191
▁gnadan	-7192
▁gnanda	-7193
▁gnanla	-7194
▁gnongô	-7195
▁gnôgon	-7196
▁gongon	-7197
▁habada	-7198
▁halisa	-7199
▁hoteli	-7200
▁iléman	-7201
▁ingeni	-7202
▁jajani	-7203
▁jensen	-7204
▁jikuru	-7205
▁kachia	-7206
▁kadôgô	-7207
▁kagnin	-7208
▁kamlan	-7209
▁kamélé	-7210
▁kanaga	-7211
▁kanman	-7212
▁kannon	-7213
▁kateme	-7214
▁kewali	-7215
▁kilara	-7216
▁kimmin	-7217
▁kissei	-7218
▁kitabu	-7219
▁klassi	-7220
▁kokèta	-7221
▁kokôrô	-7222
▁kongon	-7223
▁kornon	-7224
▁korota	-7225
▁kosôbè	-7226
▁kosɔbɛ	-7227
▁kotôgô	-7228
▁koungo	-7229
▁kèbaga	-7230
▁kèmèna	-7231
▁kèmèni	-7232
▁kèrèni	-7233
▁kèwalé	-7234
▁kéléna	-7235
▁kélépé	-7236
▁kêrêfê	-7237
▁kôlôsi	-7238
▁kônnôn	-7239
▁kôrôba	-7240
▁kôrôfô	-7241
▁kôrôla	-7242
▁kôrôni	-7243
▁kɔrɔni	-7244
▁kɛnɛma	-7245
▁laamou	-7246
▁labain	-7247
▁labana	-7248
▁labein	-7249
▁ladina	-7250
▁ladjen	-7251
▁ladjèn	-7252
▁ladoli	-7253
▁ladèrè	-7254
▁lafien	-7255
▁lafèrè	-7256
▁lakura	-7257
▁lakènè	-7258
▁lalira	-7259
▁laloni	-7260
▁lamiri	-7261
▁lamôni	-7262
▁lanibɛ	-7263
▁laseli	-7264
▁lasoro	-7265
▁latige	-7266
▁latimi	-7267
▁lawèrè	-7268
▁laɲini	-7269
▁logolo	-7270
▁loyoro	-7271
▁lôbèni	-7272
▁lôgôla	-7273
▁madimi	-7274
▁makoya	-7275
▁makèya	-7276
▁mangro	-7277
▁manôgô	-7278
▁marara	-7279
▁masuba	-7280
▁masɔrɔ	-7281
▁matôgô	-7282
▁mayili	-7283
▁meleke	-7284
▁minala	-7285
▁minani	-7286
▁minɛna	-7287
▁miseni	-7288
▁mogoya	-7289
▁molecu	-7290
▁mourou	-7291
▁myéssé	-7292
▁mɔgɔsi	-7293
▁nabila	-7294
▁nafara	-7295
▁nasson	-7296
▁nazara	-7297
▁nisson	-7298
▁numero	-7299
▁nèmaya	-7300
▁option	-7301
▁organi	-7302
▁oyéssé	-7303
▁pacifi	-7304
▁polici	-7305
▁posoni	-7306
▁pèrèmi	-7307
▁rachis	-7308
▁radari	-7309
▁roller	-7310
▁sagama	-7311
▁saison	-7312
▁samali	-7313
▁samiya	-7314
▁sanfei	-7315
▁sangni	-7316
▁sangua	-7317
▁sangui	-7318
▁sanhan	-7319
▁sanima	-7320
▁sebaga	-7321
▁seberi	-7322
▁segnan	-7323
▁seibei	-7324
▁sendon	-7325
▁sereya	-7326
▁siensi	-7327
▁signin	-7328
▁sigɛna	-7329
▁sinaya	-7330
▁sinema	-7331
▁sinôgô	-7332
▁sirini	-7333
▁sisani	-7334
▁siyako	-7335
▁siècle	-7336
▁siècli	-7337
▁socété	-7338
▁sokônô	-7339
▁soroba	-7340
▁sorola	-7341
▁souwan	-7342
▁sugubè	-7343
▁suruni	-7344
▁sèbèri	-7345
▁sèguèn	-7346
▁sɛbɛra	-7347
▁tagali	-7348
▁tagana	-7349
▁tamana	-7350
▁tchela	-7351
▁tchema	-7352
▁tchiei	-7353
▁tchira	-7354
▁tchôgô	-7355
▁tchôkô	-7356
▁tlanni	-7357
▁togola	-7358
▁torohn	-7359
▁tulonw	-7360
▁tèmini	-7361
▁tèmèla	-7362
▁tèyélà	-7363
▁télévi	-7364
▁téréma	-7365
▁tôgôye	-7366
▁virisi	-7367
▁virusi	-7368
▁votéli	-7369
▁waatiw	-7370
▁waléya	-7371
▁wariko	-7372
▁weleku	-7373
▁woloba	-7374
▁wolofa	-7375
▁wéléli	-7376
▁wéléni	-7377
▁wéréla	-7378
▁yachti	-7379
▁yakaro	-7380
▁yanfan	-7381
▁yiriga	-7382
▁yirika	-7383
▁yoromi	-7384
▁yoroni	-7385
▁yorora	-7386
▁yèrèko	-7387
▁yébali	-7388
▁yôrôbè	-7389
▁yôrôlô	-7390
▁yôrôyé	-7391
▁yɛrɛkɛ	-7392
▁ɲanabɔ	-7393
chnologi	-7394
dougouma	-7395
délôgôlô	-7396
gnanagbe	-7397
gnanaguè	-7398
gnongonw	-7399
kourounw	-7400
kurasege	-7401
kɔnɔntɔn	-7402
latagama	-7403
lication	-7404
manfeinw	-7405
marayôrô	-7406
minidjan	-7407
mountour	-7408
moussoya	-7409
mérangui	-7410
ochydore	-7411
ological	-7412
ougounin	-7413
ourougou	-7414
pendanci	-7415
pendansi	-7416
rimatiki	-7417
ssoumaya	-7418
tcheiman	-7419
tchogoya	-7420
tourouba	-7421
treprizi	-7422
tôrôwali	-7423
vèrènèri	-7424
wajamana	-7425
èrinèman	-7426
▁Alleman	-7427
▁Arizona	-7428
▁Azerbai	-7429
▁Beijing	-7430
▁Bishkek	-7431
▁Brazili	-7432
▁Brother	-7433
▁Chandra	-7434
▁Chatham	-7435
▁Constan	-7436
▁Cushing	-7437
▁Donkili	-7438
▁Ethiopi	-7439
▁Eurôpou	-7440
▁Finland	-7441
▁Floride	-7442
▁Gosling	-7443
▁Hangeul	-7444
▁Harappa	-7445
▁Hershey	-7446
▁Hongrie	-7447
▁Janvier	-7448
▁Johnson	-7449
▁Lagnini	-7450
▁Liggins	-7451
▁Mariana	-7452
▁Massaba	-7453
▁Mendoza	-7454
▁Ngawang	-7455
▁Nigeria	-7456
▁Nitendo	-7457
▁Norvègi	-7458
▁Nouvèli	-7459
▁Olympic	-7460
▁Oyapock	-7461
▁Philipp	-7462
▁Pittman	-7463
▁Policiw	-7464
▁Pologne	-7465
▁Portuga	-7466
▁Richard	-7467
▁Royaume	-7468
▁Simpson	-7469
▁Station	-7470
▁Stearns	-7471
▁Stephen	-7472
▁Tagaman	-7473
▁Tarikou	-7474
▁TogiNet	-7475
▁Turkish	-7476
▁Zambien	-7477
▁Zelandi	-7478
▁alimanw	-7479
▁alougou	-7480
▁apilika	-7481
▁baarada	-7482
▁baarake	-7483
▁barigon	-7484
▁bhajans	-7485
▁bolonoo	-7486
▁bougôli	-7487
▁bènankè	-7488
▁canceri	-7489
▁carbone	-7490
▁casinos	-7491
▁charles	-7492
▁chouhou	-7493
▁cogodji	-7494
▁couroun	-7495
▁crampon	-7496
▁dantige	-7497
▁dawoula	-7498
▁dilanna	-7499
▁dimanba	-7500
▁diyadon	-7501
▁djabili	-7502
▁djanman	-7503
▁djanyaw	-7504
▁djatela	-7505
▁djatéla	-7506
▁djognan	-7507
▁djonanw	-7508
▁djoonan	-7509
▁djèmèli	-7510
▁djèngèn	-7511
▁dogohya	-7512
▁dogoman	-7513
▁dohwere	-7514
▁donkiri	-7515
▁dunigna	-7516
▁durunan	-7517
▁dôrômin	-7518
▁faragbè	-7519
▁faralén	-7520
▁filimou	-7521
▁forougn	-7522
▁fourakè	-7523
▁funteni	-7524
▁gbangan	-7525
▁gnagali	-7526
▁gnagami	-7527
▁gnamogo	-7528
▁gnanaye	-7529
▁gnasôrô	-7530
▁gninili	-7531
▁gninina	-7532
▁gnoumaw	-7533
▁gnèmôgô	-7534
▁gnôgôtè	-7535
▁grafiti	-7536
▁gualasi	-7537
▁guèlèya	-7538
▁idjigui	-7539
▁indienw	-7540
▁janvier	-7541
▁juillet	-7542
▁kahandè	-7543
▁kalande	-7544
▁kalankɛ	-7545
▁kalendé	-7546
▁kanogoh	-7547
▁karanli	-7548
▁kasséka	-7549
▁kebagaw	-7550
▁kissèya	-7551
▁kodjugu	-7552
▁kognanw	-7553
▁kohoula	-7554
▁konondô	-7555
▁kossobe	-7556
▁koulouw	-7557
▁krétien	-7558
▁kônnodô	-7559
▁kôrondô	-7560
▁kôrôman	-7561
▁kɛwalew	-7562
▁labinni	-7563
▁lablala	-7564
▁lafignè	-7565
▁lakolon	-7566
▁lannaya	-7567
▁lassoro	-7568
▁lasséla	-7569
▁lôgôkun	-7570
▁magaman	-7571
▁marawla	-7572
▁masouba	-7573
▁massaba	-7574
▁massala	-7575
▁massiri	-7576
▁massoro	-7577
▁meitrei	-7578
▁minisry	-7579
▁mogohou	-7580
▁morgorw	-7581
▁nagassi	-7582
▁neiguei	-7583
▁nôgôman	-7584
▁oromèni	-7585
▁protons	-7586
▁préparé	-7587
▁sanfine	-7588
▁sanfiye	-7589
▁sanfèla	-7590
▁saranna	-7591
▁sariyaw	-7592
▁scanèri	-7593
▁seguila	-7594
▁shariya	-7595
▁siguida	-7596
▁siguili	-7597
▁siguira	-7598
▁sogolan	-7599
▁sogoman	-7600
▁sokônôn	-7601
▁sosiété	-7602
▁sougouw	-7603
▁suwandi	-7604
▁séguila	-7605
▁tagafan	-7606
▁tagamaw	-7607
▁tanaman	-7608
▁tangali	-7609
▁tanouli	-7610
▁tchaaya	-7611
▁tchiein	-7612
▁tchignè	-7613
▁tiguèli	-7614
▁tourisi	-7615
▁tourist	-7616
▁tumanan	-7617
▁tumanla	-7618
▁tumbésé	-7619
▁turisiw	-7620
▁tèmènin	-7621
▁utikalo	-7622
▁walassa	-7623
▁wangoli	-7624
▁warigbè	-7625
▁woulouw	-7626
▁wôrônan	-7627
▁yenafoh	-7628
▁yéléman	-7629
▁yêlêman	-7630
bramanian	-7631
djiguisso	-7632
kongowulu	-7633
kountigui	-7634
ougnongon	-7635
ruyasèbèw	-7636
tiguiyara	-7637
vereneman	-7638
ymnastics	-7639
▁Allemand	-7640
▁Ameriqui	-7641
▁Bakôrôni	-7642
▁Beresili	-7643
▁Chambers	-7644
▁Chhappan	-7645
▁Chisinau	-7646
▁Chrétien	-7647
▁Danemark	-7648
▁Djamanaw	-7649
▁Donguili	-7650
▁Drukgyal	-7651
▁Dunugnan	-7652
▁Dôgôtôrô	-7653
▁Emirates	-7654
▁Fallujah	-7655
▁Farafina	-7656
▁Farikolo	-7657
▁Fernando	-7658
▁Filipine	-7659
▁Geospiza	-7660
▁Gingrich	-7661
▁Italiyen	-7662
▁Javanesi	-7663
▁Missouri	-7664
▁Muhammad	-7665
▁Ovechkin	-7666
▁Paraguay	-7667
▁Partizan	-7668
▁Romanian	-7669
▁Schengen	-7670
▁Security	-7671
▁Shooters	-7672
▁Sosiyete	-7673
▁Soviétik	-7674
▁Sporting	-7675
▁Tinninlo	-7676
▁Toubabou	-7677
▁Tumamina	-7678
▁Victoria	-7679
▁Yèlèmani	-7680
▁Zimbabwé	-7681
▁adamadéw	-7682
▁adamande	-7683
▁africain	-7684
▁arabalon	-7685
▁aviyonso	-7686
▁balɔntan	-7687
▁banabolo	-7688
▁barakera	-7689
▁barakɛla	-7690
▁bisigiya	-7691
▁boriféng	-7692
▁campagni	-7693
▁charibon	-7694
▁compagni	-7695
▁dagabali	-7696
▁daminala	-7697
▁dayelela	-7698
▁dinosaur	-7699
▁dinozôri	-7700
▁diplomou	-7701
▁diyabèti	-7702
▁diyagoya	-7703
▁djagboya	-7704
▁djangalo	-7705
▁djidjali	-7706
▁djiguira	-7707
▁djondjon	-7708
▁djélégué	-7709
▁djôssini	-7710
▁dorotoro	-7711
▁dougalen	-7712
▁dougaléw	-7713
▁dougoubâ	-7714
▁dounigna	-7715
▁dunugnan	-7716
▁dôlôtôya	-7717
▁electron	-7718
▁espagnôl	-7719
▁faamouli	-7720
▁fagamanw	-7721
▁falenniw	-7722
▁filimouw	-7723
▁fonnonni	-7724
▁foundeni	-7725
▁fèrèsira	-7726
▁fôlôfôlô	-7727
▁fɔlɔfɔlɔ	-7728
▁gbaniman	-7729
▁gbeleman	-7730
▁gbèlèman	-7731
▁gintanba	-7732
▁gnalagbè	-7733
▁gnanadjè	-7734
▁gnanagwè	-7735
▁gnaraman	-7736
▁gnogonan	-7737
▁hakilina	-7738
▁kalandéw	-7739
▁kanpagni	-7740
▁katinmin	-7741
▁kibaroya	-7742
▁kiimènan	-7743
▁kisseiya	-7744
▁kogodugu	-7745
▁konnonan	-7746
▁konnondô	-7747
▁kononton	-7748
▁kounkolo	-7749
▁kourouni	-7750
▁kunkelen	-7751
▁kurakura	-7752
▁kèkafilè	-7753
▁kèlèbolo	-7754
▁kèmèfila	-7755
▁kèrèkèrè	-7756
▁kèyôrôla	-7757
▁kêlêbolo	-7758
▁kônondoh	-7759
▁kônônton	-7760
▁kôrôtala	-7761
▁kôsségui	-7762
▁kɔnɔninw	-7763
▁ladibaga	-7764
▁ladinein	-7765
▁lahalaya	-7766
▁lahaliya	-7767
▁laminiya	-7768
▁lamôdenw	-7769
▁lasagoli	-7770
▁lonnigbè	-7771
▁lônikèla	-7772
▁lôniyara	-7773
▁mafèlèli	-7774
▁makognan	-7775
▁mansinna	-7776
▁marayôrô	-7777
▁miliyari	-7778
▁misenman	-7779
▁misikara	-7780
▁musomani	-7781
▁neutrons	-7782
▁nisôngôn	-7783
▁nouvelle	-7784
▁octobrou	-7785
▁olympiki	-7786
▁pakistan	-7787
▁pankurun	-7788
▁pyramidi	-7789
▁sabatini	-7790
▁sanfignê	-7791
▁sebagaya	-7792
▁sekoyira	-7793
▁sigiyoro	-7794
▁siguinin	-7795
▁silamaya	-7796
▁sinɔgɔra	-7797
▁sisitèmu	-7798
▁somôgôya	-7799
▁sourafén	-7800
▁sèbèfura	-7801
▁sènèkèla	-7802
▁sébagaya	-7803
▁sêguêssê	-7804
▁sôgôsôgô	-7805
▁sôrôkadi	-7806
▁tacojogo	-7807
▁tagamara	-7808
▁taganman	-7809
▁tagasira	-7810
▁tamashin	-7811
▁tchayara	-7812
▁tchiaman	-7813
▁tchogodi	-7814
▁teimeini	-7815
▁terisira	-7816
▁timinnan	-7817
▁tougouli	-7818
▁toukônon	-7819
▁tèmèsira	-7820
▁téléfoni	-7821
▁tômaséré	-7822
▁walifaso	-7823
▁wayédiaw	-7824
▁welougou	-7825
▁woromani	-7826
▁yeremani	-7827
▁yereyere	-7828
▁yèlèmana	-7829
▁yèrèmali	-7830
▁yèrèmani	-7831
▁yèrèyèrè	-7832
▁yôrôdôla	-7833
▁ɲanamaya	-7834
kôrômadèmè	-7835
riceratopi	-7836
tôburukalo	-7837
▁Alexandri	-7838
▁Allimagni	-7839
▁Americain	-7840
▁Argentine	-7841
▁Argentini	-7842
▁Australia	-7843
▁Djamakuru	-7844
▁Djikourou	-7845
▁Elizabeth	-7846
▁Farikonlo	-7847
▁Galapagos	-7848
▁Gnôgônatè	-7849
▁Hesperony	-7850
▁Hurricane	-7851
▁Jabaranin	-7852
▁Kalansoba	-7853
▁Kolasegui	-7854
▁Lônikèlaw	-7855
▁Microsoft	-7856
▁Monasteri	-7857
▁Novembrou	-7858
▁Pakistani	-7859
▁Peninsula	-7860
▁Recherchi	-7861
▁Sanfignèw	-7862
▁Whitehall	-7863
▁Zhabdrung	-7864
▁agnoumala	-7865
▁akisidanw	-7866
▁assuransi	-7867
▁bananbolo	-7868
▁banankisè	-7869
▁barakaman	-7870
▁barakèlaw	-7871
▁binbariya	-7872
▁bisiguiya	-7873
▁bèladjèni	-7874
▁bèmantchè	-7875
▁demissein	-7876
▁demissinw	-7877
▁denmisɛnw	-7878
▁djabarani	-7879
▁djamanara	-7880
▁djarasisi	-7881
▁djekourou	-7882
▁djègongon	-7883
▁djèkourou	-7884
▁dougoubaw	-7885
▁dougoudén	-7886
▁dougounan	-7887
▁dounignan	-7888
▁dugnugnan	-7889
▁dumunifen	-7890
▁dunanjigi	-7891
▁démisèniw	-7892
▁dɔnkilila	-7893
▁fanfèlala	-7894
▁faragwèla	-7895
▁foundeini	-7896
▁gnadelogo	-7897
▁gnakunaya	-7898
▁gnanamaya	-7899
▁gnannaman	-7900
▁gneinbila	-7901
▁gninmogow	-7902
▁gnôgônatè	-7903
▁gnôgôndan	-7904
▁gnôngôdan	-7905
▁gounkounw	-7906
▁hakangnan	-7907
▁internèti	-7908
▁intèrnèti	-7909
▁jabaranin	-7910
▁jadonyoro	-7911
▁jamakuluw	-7912
▁kabakoman	-7913
▁kalandénw	-7914
▁kamassôrô	-7915
▁kassodenw	-7916
▁ketchogow	-7917
▁kibaroyaw	-7918
▁kilometri	-7919
▁kititèguè	-7920
▁kognouman	-7921
▁kounfalen	-7922
▁koutourou	-7923
▁kundalini	-7924
▁kérétchen	-7925
▁kôgôdjida	-7926
▁kôrôssila	-7927
▁labaarala	-7928
▁ladéguili	-7929
▁lolosèèrè	-7930
▁léguilisi	-7931
▁maaradugu	-7932
▁magnétiki	-7933
▁massatche	-7934
▁milimètri	-7935
▁missikara	-7936
▁nafamafɛn	-7937
▁nucléairi	-7938
▁politiqui	-7939
▁pérésiden	-7940
▁sababouye	-7941
▁sariyasun	-7942
▁satelliti	-7943
▁sibangazi	-7944
▁siguignon	-7945
▁siguinibè	-7946
▁sisitèmou	-7947
▁sissitèmi	-7948
▁sorobanin	-7949
▁tagabolow	-7950
▁tchogohya	-7951
▁tchèkagni	-7952
▁tôgôssèbè	-7953
▁univerisi	-7954
▁vancouver	-7955
▁waritigui	-7956
▁wolônfila	-7957
▁wonlofila	-7958
▁worifoura	-7959
▁yelemanli	-7960
▁yèlèmanla	-7961
▁yèlèmanli	-7962
délôgôlôlaw	-7963
kodjougouya	-7964
▁Angilètèri	-7965
▁Angilétèri	-7966
▁Angélétèri	-7967
▁Antarctiki	-7968
▁Atlantiqui	-7969
▁Aussitrali	-7970
▁California	-7971
▁Californie	-7972
▁Califoroni	-7973
▁Copenhague	-7974
▁Dougoukoro	-7975
▁Dôtôrôtchè	-7976
▁Filèkasèbè	-7977
▁Gymnastics	-7978
▁Hispaniola	-7979
▁Masalabolo	-7980
▁Mediterane	-7981
▁Montevideo	-7982
▁Olympiques	-7983
▁Speciation	-7984
▁Tɛkinoloji	-7985
▁Zuluyékalo	-7986
▁baratchogo	-7987
▁bayèlèmali	-7988
▁bikɔnɔntɔn	-7989
▁biworonvla	-7990
▁biyétayôrô	-7991
▁dantanfɛnw	-7992
▁dantiguèli	-7993
▁datougoula	-7994
▁diɲɛlatigɛ	-7995
▁djamanandé	-7996
▁djamandénw	-7997
▁djateminan	-7998
▁djikankoun	-7999
▁donguirila	-8000
▁dôgôtôrôso	-8001
▁dôrôtôrôso	-8002
▁dôtrôssola	-8003
▁enregistre	-8004
▁entreprizi	-8005
▁fonafolina	-8006
▁gnanangbèw	-8007
▁gninigaliw	-8008
▁gninmôgôya	-8009
▁gnongonman	-8010
▁jagokèyôrô	-8011
▁kognagnini	-8012
▁kogodougou	-8013
▁kounanfoni	-8014
▁kètchogoya	-8015
▁kôtougouni	-8016
▁lassoumaya	-8017
▁lasôrôkadi	-8018
▁mandiminan	-8019
▁môbilibori	-8020
▁nèmayafènw	-8021
▁ordinateri	-8022
▁porogaramu	-8023
▁sanfèkaran	-8024
▁sanganogon	-8025
▁sennayaala	-8026
▁sougandili	-8027
▁sègèsègèli	-8028
▁sôrôdasiya	-8029
▁télévision	-8030
▁yèrètôgôla	-8031
kurasegesege	-8032
mountournèla	-8033
▁Albuquerque	-8034
▁Association	-8035
▁Australikaw	-8036
▁Coungoconon	-8037
▁Herostratus	-8038
▁Petersbourg	-8039
▁baarakèdénw	-8040
▁banabagatoh	-8041
▁banakisèdon	-8042
▁boumérangui	-8043
▁djitcheiman	-8044
▁dôgôtôrôsso	-8045
▁gnamatounou	-8046
▁kinibolofan	-8047
▁kissèbérika	-8048
▁konronlafan	-8049
▁kèmèssarada	-8050
▁kôrôlensira	-8051
▁labɛnkokura	-8052
▁nafolodilan	-8053
▁nintôrôwali	-8054
▁radioactive	-8055
▁scientifiki	-8056
▁seerejuguya	-8057
▁siguikolode	-8058
▁siguiyoroma	-8059
▁tchegnouman	-8060
▁tôgômanséri	-8061
▁yôrônikelen	-8062
▁ɲanabɔninya	-8063
▁Glassikourou	-8064
▁Maroochydore	-8065
▁apilikatchôn	-8066
▁djolibôssira	-8067
▁djéridjourou	-8068
▁forougnôgôma	-8069
▁founoufounou	-8070
▁gouvèrènèman	-8071
▁gouvérénéman	-8072
▁kèreinkèrein	-8073
▁nafasôrôsira	-8074
▁nèguèdjourou	-8075
▁siguignongon	-8076
▁sisikourounw	-8077
▁sèbèlitchogo	-8078
▁tanoulidjala	-8079
▁yèlèmayèlèma	-8080
▁Yamaruyasèbèw	-8081
▁international	-8082
▁novanburukalo	-8083
▁sirakankasara	-8084
▁sêguêssêguêli	-8085
▁Constantinople	-8086
▁djikankourouni	-8087
▁doumoudougouma	-8088
▁Balasubramanian	-8089
▁mansinnasebenin	-8090
▁tubabukongowulu	-8091
.0	-8092
ak	-8093
nɛ	-8094
ud	-8095
uf	-8096
ɲe	-8097
▁0	-8098
▁ŋ	-8099
asi	-8100
bel	-8101
cor	-8102
des	-8103
dor	-8104
gɛr	-8105
ibi	-8106
iye	-8107
jɔn	-8108
lvi	-8109
lɛt	-8110
mit	-8111
nie	-8112
pɛr	-8113
rɛd	-8114
sar	-8115
vre	-8116
vɛl	-8117
wou	-8118
ysi	-8119
yɛl	-8120
zak	-8121
élo	-8122
éri	-8123
ɔrk	-8124
ɛti	-8125
ɲak	-8126
ɲɔl	-8127
▁gɔ	-8128
▁ob	-8129
▁tr	-8130
aise	-8131
bɔra	-8132
dron	-8133
dɔni	-8134
filɛ	-8135
gala	-8136
kɛto	-8137
leur	-8138
nard	-8139
nikɛ	-8140
rist	-8141
scar	-8142
siɔn	-8143
stin	-8144
suma	-8145
teau	-8146
tien	-8147
tise	-8148
ttri	-8149
turu	-8150
tɛmɛ	-8151
tɛni	-8152
vini	-8153
wari	-8154
yiri	-8155
zano	-8156
▁ahh	-8157
▁anh	-8158
▁bib	-8159
▁bru	-8160
▁bɔɔ	-8161
▁bɛl	-8162
▁cre	-8163
▁cɛw	-8164
▁dio	-8165
▁eli	-8166
▁fau	-8167
▁flɛ	-8168
▁fur	-8169
▁hɛr	-8170
▁iyi	-8171
▁jin	-8172
▁kre	-8173
▁kɔr	-8174
▁len	-8175
▁men	-8176
▁mil	-8177
▁naw	-8178
▁now	-8179
▁nɔr	-8180
▁ohh	-8181
▁prɛ	-8182
▁sab	-8183
▁sep	-8184
▁sid	-8185
▁sir	-8186
▁sit	-8187
▁sée	-8188
▁tcj	-8189
▁thé	-8190
▁tro	-8191
▁vil	-8192
▁wis	-8193
▁woo	-8194
▁ɛri	-8195
biliw	-8196
ginna	-8197
gérie	-8198
homas	-8199
illon	-8200
magne	-8201
mɛtri	-8202
orges	-8203
ranci	-8204
riman	-8205
teman	-8206
umana	-8207
▁ahou	-8208
▁arti	-8209
▁bili	-8210
▁biri	-8211
▁bule	-8212
▁bɔsi	-8213
▁bɛɛn	-8214
▁cour	-8215
▁feyi	-8216
▁filo	-8217
▁funu	-8218
▁gama	-8219
▁giri	-8220
▁gosi	-8221
▁grip	-8222
▁gwɛn	-8223
▁gèlè	-8224
▁gêlê	-8225
▁jina	-8226
▁jogo	-8227
▁jɛni	-8228
▁kokè	-8229
▁kokɛ	-8230
▁konô	-8231
▁kɔmi	-8232
▁kɛta	-8233
▁labi	-8234
▁leyé	-8235
▁lora	-8236
▁maha	-8237
▁mail	-8238
▁meda	-8239
▁mura	-8240
▁mɔnt	-8241
▁nigê	-8242
▁niko	-8243
▁numé	-8244
▁park	-8245
▁pont	-8246
▁roma	-8247
▁seba	-8248
▁sika	-8249
▁sili	-8250
▁sobè	-8251
▁sran	-8252
▁sufɛ	-8253
▁sɛzi	-8254
▁tapi	-8255
▁tomi	-8256
▁tour	-8257
▁wasa	-8258
▁yèna	-8259
▁zozɛ	-8260
▁ɔnɔn	-8261
▁ɲɛnɛ	-8262
ugulan	-8263
▁améri	-8264
▁andre	-8265
▁artik	-8266
▁banba	-8267
▁barka	-8268
▁benna	-8269
▁bisou	-8270
▁cogow	-8271
▁danna	-8272
▁deeni	-8273
▁diyɛn	-8274
▁ekɔli	-8275
▁faniw	-8276
▁fendô	-8277
▁jaabi	-8278
▁kogow	-8279
▁komin	-8280
▁kunba	-8281
▁lafar	-8282
▁lamɛn	-8283
▁magan	-8284
▁marko	-8285
▁micro	-8286
▁minnu	-8287
▁mouna	-8288
▁nankɔ	-8289
▁nisɔn	-8290
▁papie	-8291
▁piano	-8292
▁piyɛr	-8293
▁profe	-8294
▁purke	-8295
▁sanba	-8296
▁saraw	-8297
▁simɔn	-8298
▁sôssô	-8299
▁sɔnni	-8300
▁table	-8301
▁yanfe	-8302
▁youma	-8303
▁zapon	-8304
▁ɛntɛr	-8305
▁ɲaman	-8306
▁ɲɔngɔ	-8307
▁barila	-8308
▁bilala	-8309
▁bilani	-8310
▁bilara	-8311
▁boroma	-8312
▁bretɔn	-8313
▁cɛncɛn	-8314
▁delila	-8315
▁dôtôrô	-8316
▁dɔwɛrɛ	-8317
▁farini	-8318
▁filila	-8319
▁filimu	-8320
▁franci	-8321
▁gobele	-8322
▁jagabɔ	-8323
▁jumana	-8324
▁jurumu	-8325
▁karama	-8326
▁kasira	-8327
▁klancɛ	-8328
▁kulɛri	-8329
▁kɔrɔcɛ	-8330
▁lakisi	-8331
▁latigɛ	-8332
▁lukɔnɔ	-8333
▁mesiye	-8334
▁sabali	-8335
▁sarani	-8336
▁sigida	-8337
▁sigɛsi	-8338
▁sukaro	-8339
▁sumana	-8340
▁tchèni	-8341
▁tiɲɛna	-8342
▁tumabɛ	-8343
▁tɔgɔko	-8344
▁yèlèko	-8345
▁yɔrɔni	-8346
▁couleur	-8347
▁cɛmancɛ	-8348
▁dimansi	-8349
▁djalaki	-8350
▁dugalen	-8351
▁lankolo	-8352
▁station	-8353
▁yɔrɔjan	-8354
▁ɲininga	-8355
▁allemand	-8356
▁cogoyasi	-8357
▁datugula	-8358
▁duminikɛ	-8359
▁gwɛlɛman	-8360
▁kalanbon	-8361
▁kalanden	-8362
▁wolomani	-8363
▁yèlèmani	-8364
▁yɛrɛsɔrɔ	-8365
▁ɲanamanw	-8366
▁amandeman	-8367
▁barakɛyɔrɔ	-8368
▁djinkoulou	-8369
▁guvɛrneman	-8370
▁wolonfilanan	-8371
ee	-8372
nɔ	-8373
op	-8374
ue	-8375
vô	-8376
ys	-8377
yɛ	-8378
èr	-8379
ón	-8380
▁/	-8381
▁ê	-8382
bia	-8383
bit	-8384
bye	-8385
car	-8386
cel	-8387
cie	-8388
cot	-8389
ctu	-8390
dit	-8391
diy	-8392
djé	-8393
dry	-8394
duw	-8395
dwa	-8396
dɔn	-8397
eul	-8398
far	-8399
fer	-8400
fle	-8401
gai	-8402
ges	-8403
gie	-8404
hun	-8405
ink	-8406
iné	-8407
ker	-8408
kla	-8409
kre	-8410
ksu	-8411
lam	-8412
ler	-8413
lka	-8414
lve	-8415
maw	-8416
mbê	-8417
mɔr	-8418
oka	-8419
old	-8420
pik	-8421
pua	-8422
rse	-8423
sko	-8424
stu	-8425
sté	-8426
tat	-8427
tɔw	-8428
tɛl	-8429
ura	-8430
use	-8431
var	-8432
vri	-8433
yor	-8434
yte	-8435
zie	-8436
zon	-8437
zɛr	-8438
ɔpu	-8439
ɛnw	-8440
ɛru	-8441
▁ak	-8442
▁ap	-8443
▁ec	-8444
▁eh	-8445
▁fl	-8446
▁gè	-8447
▁hu	-8448
▁ik	-8449
▁mr	-8450
▁mé	-8451
▁ny	-8452
▁op	-8453
▁pɛ	-8454
▁rè	-8455
▁ue	-8456
▁ur	-8457
▁ve	-8458
▁wɔ	-8459
atre	-8460
biki	-8461
boko	-8462
bôra	-8463
cain	-8464
ches	-8465
daya	-8466
dent	-8467
dimi	-8468
drid	-8469
duru	-8470
eman	-8471
eres	-8472
fori	-8473
furu	-8474
gata	-8475
gela	-8476
goro	-8477
gura	-8478
gɛri	-8479
gɛrɛ	-8480
hara	-8481
hiti	-8482
kana	-8483
kuri	-8484
kɛnɛ	-8485
kɛri	-8486
lans	-8487
lder	-8488
lley	-8489
loli	-8490
loya	-8491
léon	-8492
maga	-8493
miba	-8494
mier	-8495
ming	-8496
minu	-8497
misɛ	-8498
mont	-8499
nali	-8500
orla	-8501
quin	-8502
rala	-8503
rane	-8504
rede	-8505
rose	-8506
seke	-8507
suru	-8508
sɛti	-8509
tché	-8510
thic	-8511
tila	-8512
tile	-8513
tiye	-8514
toni	-8515
tran	-8516
tuka	-8517
tèni	-8518
unia	-8519
vala	-8520
vari	-8521
vian	-8522
voir	-8523
wana	-8524
yari	-8525
yini	-8526
yôro	-8527
ésie	-8528
▁aha	-8529
▁alf	-8530
▁amɛ	-8531
▁awɔ	-8532
▁azi	-8533
▁bey	-8534
▁bis	-8535
▁bɔr	-8536
▁che	-8537
▁col	-8538
▁cɔn	-8539
▁cɛɛ	-8540
▁dii	-8541
▁dol	-8542
▁doz	-8543
▁eco	-8544
▁eki	-8545
▁elé	-8546
▁fis	-8547
▁fli	-8548
▁flo	-8549
▁fɔɔ	-8550
▁gbé	-8551
▁gen	-8552
▁hee	-8553
▁his	-8554
▁ime	-8555
▁iye	-8556
▁iyo	-8557
▁kli	-8558
▁kok	-8559
▁kén	-8560
▁kɛn	-8561
▁kɛr	-8562
▁lèn	-8563
▁may	-8564
▁maɲ	-8565
▁mba	-8566
▁mer	-8567
▁moi	-8568
▁muy	-8569
▁mɔr	-8570
▁nen	-8571
▁ota	-8572
▁pas	-8573
▁pat	-8574
▁pom	-8575
▁pos	-8576
▁sra	-8577
▁sty	-8578
▁suw	-8579
▁tri	-8580
▁tum	-8581
▁tɛn	-8582
▁ubi	-8583
▁una	-8584
▁via	-8585
▁yal	-8586
▁yon	-8587
▁zen	-8588
▁ɛsi	-8589
bagan	-8590
briel	-8591
colas	-8592
dassi	-8593
diman	-8594
dogon	-8595
eline	-8596
gwɛrɛ	-8597
lensi	-8598
levil	-8599
lonni	-8600
mende	-8601
metri	-8602
mouso	-8603
oniki	-8604
pansi	-8605
peman	-8606
randa	-8607
reton	-8608
riyaw	-8609
roide	-8610
sansi	-8611
siyon	-8612
siyɔn	-8613
sseur	-8614
ssèni	-8615
sting	-8616
sɛniw	-8617
tanya	-8618
tique	-8619
tiriw	-8620
tuari	-8621
vince	-8622
çaise	-8623
▁alah	-8624
▁albi	-8625
▁alon	-8626
▁ambé	-8627
▁anbé	-8628
▁babo	-8629
▁baka	-8630
▁baki	-8631
▁bibi	-8632
▁biye	-8633
▁bobo	-8634
▁bogn	-8635
▁bogo	-8636
▁bonw	-8637
▁bugu	-8638
▁buwa	-8639
▁cupu	-8640
▁cɛna	-8641
▁dabi	-8642
▁dabo	-8643
▁dale	-8644
▁dege	-8645
▁dela	-8646
▁deng	-8647
▁dirɛ	-8648
▁dorô	-8649
▁duur	-8650
▁duwa	-8651
▁dêmê	-8652
▁feen	-8653
▁fenn	-8654
▁fifa	-8655
▁filé	-8656
▁folô	-8657
▁free	-8658
▁fɔɲɔ	-8659
▁fɛti	-8660
▁gali	-8661
▁galo	-8662
▁gasi	-8663
▁gelé	-8664
▁gere	-8665
▁gnou	-8666
▁goro	-8667
▁hong	-8668
▁hɛri	-8669
▁jamu	-8670
▁jani	-8671
▁juin	-8672
▁jɔrɔ	-8673
▁kafé	-8674
▁kami	-8675
▁kano	-8676
▁keni	-8677
▁kila	-8678
▁kile	-8679
▁komu	-8680
▁kong	-8681
▁koso	-8682
▁koss	-8683
▁kote	-8684
▁koto	-8685
▁kunk	-8686
▁kéle	-8687
▁kêra	-8688
▁kôfé	-8689
▁labé	-8690
▁lozi	-8691
▁lôra	-8692
▁lɛri	-8693
▁maci	-8694
▁made	-8695
▁mala	-8696
▁mama	-8697
▁mark	-8698
▁mars	-8699
▁mira	-8700
▁mise	-8701
▁miya	-8702
▁mora	-8703
▁mèni	-8704
▁mèri	-8705
▁mɛnɛ	-8706
▁nali	-8707
▁nama	-8708
▁napo	-8709
▁nelo	-8710
▁ninw	-8711
▁niyé	-8712
▁nɔfɛ	-8713
▁nɔrɔ	-8714
▁nɛni	-8715
▁panp	-8716
▁paro	-8717
▁paul	-8718
▁pele	-8719
▁peru	-8720
▁poin	-8721
▁sanp	-8722
▁sanw	-8723
▁sawu	-8724
▁sebè	-8725
▁sign	-8726
▁sisɛ	-8727
▁sita	-8728
▁site	-8729
▁soba	-8730
▁sona	-8731
▁soso	-8732
▁sôbê	-8733
▁taye	-8734
▁tebe	-8735
▁telé	-8736
▁temè	-8737
▁tera	-8738
▁tige	-8739
▁tika	-8740
▁tlon	-8741
▁tènè	-8742
▁tôni	-8743
▁tôri	-8744
▁ubɛn	-8745
▁yini	-8746
▁yɔgɔ	-8747
▁yɔrk	-8748
▁zana	-8749
▁zari	-8750
▁zɔrz	-8751
▁ɔhɔn	-8752
▁ɲigi	-8753
balima	-8754
diyenw	-8755
fitini	-8756
gilisi	-8757
kɔnɔna	-8758
kɛbaga	-8759
môgoya	-8760
oumani	-8761
phabet	-8762
ritani	-8763
sabeth	-8764
ɲɔngɔn	-8765
▁abina	-8766
▁alima	-8767
▁apple	-8768
▁aviɔn	-8769
▁ayere	-8770
▁bafla	-8771
▁bamou	-8772
▁bangi	-8773
▁barla	-8774
▁benni	-8775
▁boɲɛn	-8776
▁breta	-8777
▁bɔɔra	-8778
▁ceman	-8779
▁chien	-8780
▁chila	-8781
▁chôkô	-8782
▁commi	-8783
▁dansa	-8784
▁dehou	-8785
▁diana	-8786
▁dɔnkɛ	-8787
▁essen	-8788
▁faraw	-8789
▁filip	-8790
▁flani	-8791
▁forma	-8792
▁franc	-8793
▁glaci	-8794
▁hanri	-8795
▁jalan	-8796
▁janfa	-8797
▁janko	-8798
▁jigin	-8799
▁kalaw	-8800
▁kanɲi	-8801
▁keine	-8802
▁klasi	-8803
▁kobaw	-8804
▁kogni	-8805
▁kulɛr	-8806
▁kunan	-8807
▁kɔlɔn	-8808
▁kɔrɔn	-8809
▁lerou	-8810
▁lonbè	-8811
▁lonna	-8812
▁lɔndr	-8813
▁machi	-8814
▁mason	-8815
▁melan	-8816
▁moini	-8817
▁mufɛn	-8818
▁nunun	-8819
▁obama	-8820
▁oleye	-8821
▁ponpe	-8822
▁prefe	-8823
▁prima	-8824
▁prodi	-8825
▁rapɔr	-8826
▁roman	-8827
▁sanpi	-8828
▁sapɛl	-8829
▁seera	-8830
▁sigin	-8831
▁siyɛn	-8832
▁smith	-8833
▁songô	-8834
▁sougo	-8835
▁testé	-8836
▁tigiw	-8837
▁tugun	-8838
▁tunka	-8839
▁turne	-8840
▁vidéo	-8841
▁vitri	-8842
▁water	-8843
▁wilen	-8844
▁zozɛf	-8845
▁ɲasin	-8846
▁ɲɛgɛn	-8847
baroeul	-8848
ganmini	-8849
kɔrɔbaw	-8850
sigilan	-8851
sondiya	-8852
tiseman	-8853
ɲanaman	-8854
▁aliman	-8855
▁amende	-8856
▁avionw	-8857
▁bagala	-8858
▁balora	-8859
▁banban	-8860
▁bonbon	-8861
▁boɲɛna	-8862
▁breton	-8863
▁bɔyɔrɔ	-8864
▁canada	-8865
▁cayala	-8866
▁commun	-8867
▁dagani	-8868
▁danilo	-8869
▁dankan	-8870
▁degili	-8871
▁dimini	-8872
▁disiki	-8873
▁djanfa	-8874
▁dugula	-8875
▁dɛmɛni	-8876
▁esansi	-8877
▁fagari	-8878
▁famaya	-8879
▁famoun	-8880
▁fanfan	-8881
▁farila	-8882
▁filara	-8883
▁filɛru	-8884
▁fleuri	-8885
▁froide	-8886
▁gansan	-8887
▁gninan	-8888
▁hamini	-8889
▁jabili	-8890
▁jarabi	-8891
▁jijani	-8892
▁jolile	-8893
▁jɛkulu	-8894
▁kafisa	-8895
▁kamana	-8896
▁kasara	-8897
▁katala	-8898
▁kibari	-8899
▁komini	-8900
▁koroni	-8901
▁koumba	-8902
▁kouran	-8903
▁kuntan	-8904
▁kɔrɔko	-8905
▁kɛlɛla	-8906
▁kɛnɛya	-8907
▁lamɛna	-8908
▁lanino	-8909
▁layiri	-8910
▁layuru	-8911
▁lettri	-8912
▁litiri	-8913
▁livuru	-8914
▁lorans	-8915
▁lɔyɔrɔ	-8916
▁madrid	-8917
▁magaya	-8918
▁maison	-8919
▁masacɛ	-8920
▁monsie	-8921
▁mɔbili	-8922
▁mɔgɔya	-8923
▁nongon	-8924
▁plassi	-8925
▁samana	-8926
▁sibiri	-8927
▁sigasi	-8928
▁sigɛni	-8929
▁sirana	-8930
▁sirila	-8931
▁soutra	-8932
▁sumaya	-8933
▁tabolo	-8934
▁tchoga	-8935
▁tchogô	-8936
▁tchèmi	-8937
▁tigêla	-8938
▁tigɛra	-8939
▁toumbe	-8940
▁tounka	-8941
▁tourou	-8942
▁volley	-8943
▁vɛnsan	-8944
▁wajibi	-8945
▁waliya	-8946
▁wolona	-8947
▁wulafɛ	-8948
▁yanama	-8949
▁yataga	-8950
▁yeelen	-8951
▁yèlèla	-8952
▁yɔngɔn	-8953
▁yɔrɔbɛ	-8954
▁yɛrɛma	-8955
▁ɲiniga	-8956
▁ɲinina	-8957
tagabolo	-8958
▁antoine	-8959
▁banbaga	-8960
▁banbali	-8961
▁deminsè	-8962
▁depansi	-8963
▁dilanni	-8964
▁diplomu	-8965
▁djigiya	-8966
▁djouman	-8967
▁farakan	-8968
▁finètri	-8969
▁folevil	-8970
▁gnandji	-8971
▁histori	-8972
▁juguman	-8973
▁kamelen	-8974
▁kelenna	-8975
▁kibarou	-8976
▁kolonni	-8977
▁kourama	-8978
▁kunbiri	-8979
▁magakan	-8980
▁mɔnbili	-8981
▁nimissa	-8982
▁nousson	-8983
▁pologne	-8984
▁premiye	-8985
▁program	-8986
▁sankolo	-8987
▁siranna	-8988
▁sirayan	-8989
▁stephen	-8990
▁sunguru	-8991
▁telefon	-8992
▁walissa	-8993
▁waribla	-8994
▁yɛrɛman	-8995
▁ɲɔgɔnye	-8996
fouroukou	-8997
▁accident	-8998
▁alphabet	-8999
▁baakelen	-9000
▁bagabaga	-9001
▁bolibaga	-9002
▁boliboli	-9003
▁cɛjuguni	-9004
▁cɛkɔrɔba	-9005
▁datuguni	-9006
▁denbayaw	-9007
▁dugudenw	-9008
▁dugutigi	-9009
▁dèmissin	-9010
▁dɔgɔyara	-9011
▁dɛnmisɛn	-9012
▁espagnol	-9013
▁gɛlɛyara	-9014
▁isituari	-9015
▁jalatigi	-9016
▁kabakoya	-9017
▁kaburuso	-9018
▁kititigɛ	-9019
▁konnonna	-9020
▁kumabolo	-9021
▁kɔnɔnikɛ	-9022
▁kɛmɛfila	-9023
▁kɛmɛsaba	-9024
▁lalagani	-9025
▁layourou	-9026
▁magamaga	-9027
▁majigini	-9028
▁makaritɔ	-9029
▁marabolo	-9030
▁misaliya	-9031
▁national	-9032
▁nisondia	-9033
▁nôgômani	-9034
▁pantalon	-9035
▁presidan	-9036
▁saramani	-9037
▁sirabada	-9038
▁soundogo	-9039
▁sɔgɔmada	-9040
▁sɔgɔsɔgɔ	-9041
▁tagamasi	-9042
▁toumbara	-9043
▁tumajuma	-9044
▁warimara	-9045
▁waritigi	-9046
▁yananman	-9047
▁adamadenw	-9048
▁bissimila	-9049
▁gnagamina	-9050
▁kalansɛbɛ	-9051
▁mandimini	-9052
▁nalomanya	-9053
▁sanyɛlɛma	-9054
▁sigibagaw	-9055
▁snowboard	-9056
▁sɛnɛkɛlaw	-9057
▁amendement	-9058
▁commission	-9059
▁djatiminin	-9060
▁dugumakolo	-9061
▁hakilinata	-9062
▁dafouroukou	-9063
▁républicain	-9064
▁politikikɛla	-9065
.68	-9066
.76	-9067
1.5	-9068
11:	-9069
22,	-9070
50)	-9071
61,	-9072
64)	-9073
81)	-9074
ASP	-9075
KNP	-9076
NED	-9077
OVI	-9078
Pit	-9079
TIR	-9080
nɔɔ	-9081
rhô	-9082
vèr	-9083
yns	-9084
yên	-9085
▁$5	-9086
▁04	-9087
-189	-9088
.688	-9089
00.9	-9090
22,5	-9091
3.76	-9092
:11:	-9093
ASPN	-9094
ATAM	-9095
Cord	-9096
FTIR	-9097
Kalo	-9098
Napo	-9099
OVID	-9100
Read	-9101
adsi	-9102
aens	-9103
alos	-9104
ccor	-9105
ddhi	-9106
eosa	-9107
ethe	-9108
ffir	-9109
garz	-9110
génw	-9111
hrai	-9112
iaop	-9113
iapo	-9114
imah	-9115
keng	-9116
khar	-9117
kirk	-9118
lady	-9119
lgar	-9120
lɛru	-9121
onny	-9122
ores	-9123
palà	-9124
phic	-9125
ptor	-9126
pèli	-9127
shal	-9128
surf	-9129
sway	-9130
sêla	-9131
ukra	-9132
vèné	-9133
vélo	-9134
wôro	-9135
yatA	-9136
ytha	-9137
zôti	-9138
émis	-9139
ésus	-9140
ênka	-9141
ënya	-9142
ögöw	-9143
ürse	-9144
▁(90	-9145
▁1.5	-9146
▁104	-9147
▁117	-9148
▁2.4	-9149
▁2.8	-9150
▁3.5	-9151
▁35°	-9152
▁5.0	-9153
▁Eee	-9154
▁FIC	-9155
▁GPS	-9156
▁Luf	-9157
▁MyS	-9158
▁NBA	-9159
▁OIC	-9160
▁VNP	-9161
▁Vau	-9162
▁Voi	-9163
▁Wik	-9164
▁bzn	-9165
▁fâg	-9166
▁rɔs	-9167
▁wèè	-9168
5.688	-9169
Flynn	-9170
Môgôw	-9171
OVIDI	-9172
Pitts	-9173
Saens	-9174
allit	-9175
angji	-9176
bêrên	-9177
carro	-9178
cheng	-9179
chner	-9180
condi	-9181
ddhis	-9182
deira	-9183
divou	-9184
eckiw	-9185
ennyl	-9186
ervis	-9187
esium	-9188
farni	-9189
feuse	-9190
flili	-9191
folro	-9192
frivo	-9193
gelos	-9194
gnêla	-9195
hngan	-9196
hraib	-9197
ighme	-9198
ighur	-9199
imein	-9200
induw	-9201
inézi	-9202
itriw	-9203
kirer	-9204
kitɔr	-9205
krayé	-9206
ladys	-9207
lanje	-9208
lient	-9209
meisi	-9210
melia	-9211
mieux	-9212
mmals	-9213
mpink	-9214
munan	-9215
necté	-9216
nessy	-9217
ntiya	-9218
ovian	-9219
patic	-9220
physi	-9221
poloX	-9222
psuli	-9223
ptown	-9224
pulve	-9225
pôpou	-9226
quent	-9227
rezel	-9228
ridge	-9229
rming	-9230
roisé	-9231
setts	-9232
shadi	-9233
sijon	-9234
sovar	-9235
spièn	-9236
ssary	-9237
ssieu	-9238
ssoms	-9239
ssénw	-9240
story	-9241
suedi	-9242
sôrrô	-9243
temis	-9244
thema	-9245
thera	-9246
tiago	-9247
tihua	-9248
tiple	-9249
toiti	-9250
ttave	-9251
ucani	-9252
uguèw	-9253
ummah	-9254
unlap	-9255
vilis	-9256
xygen	-9257
ynska	-9258
yoliu	-9259
yorki	-9260
yteam	-9261
zezin	-9262
égénw	-9263
êbêli	-9264
ürses	-9265
ɛnpik	-9266
▁1810	-9267
▁1818	-9268
▁1819	-9269
▁1839	-9270
▁1965	-9271
▁2207	-9272
▁ADNi	-9273
▁Abra	-9274
▁Aksu	-9275
▁Amir	-9276
▁Binn	-9277
▁Bowy	-9278
▁Chia	-9279
▁Cinq	-9280
▁Darw	-9281
▁Down	-9282
▁Ence	-9283
▁Fuzé	-9284
▁Fèsè	-9285
▁Fèèn	-9286
▁GPSi	-9287
▁Grid	-9288
▁Head	-9289
▁Hito	-9290
▁Ilha	-9291
▁Ilia	-9292
▁Irku	-9293
▁Jagr	-9294
▁Koho	-9295
▁Lord	-9296
▁Niue	-9297
▁Oahu	-9298
▁Offi	-9299
wood	-9300
▁Joa	-9301
▁Job	-9302
▁Rio	-9303
▁USA	-9304
1,000	-9305
Zoung	-9306
tania	-9307
taniu	-9308
world	-9309
▁1789	-9310
▁Bang	-9311
▁Fede	-9312
▁Ferr	-9313
▁Jobs	-9314
▁Joch	-9315
▁Jose	-9316
▁Olds	-9317
▁Picc	-9318
▁Sclé	-9319
▁Seng	-9320
▁Sikh	-9321
▁Spri	-9322
▁Syri	-9323
▁Sèli	-9324
▁Tank	-9325
▁Temp	-9326
▁Tony	-9327
▁Twin	-9328
▁USAF	-9329
▁Urun	-9330
▁Utha	-9331
▁Velo	-9332
▁Voie	-9333
▁Voti	-9334
▁Voté	-9335
▁WNED	-9336
▁Wall	-9337
▁Whir	-9338
▁Wide	-9339
▁Yira	-9340
▁Zoom	-9341
▁bînw	-9342
▁club	-9343
▁cybè	-9344
▁côcô	-9345
▁ecoz	-9346
▁eibi	-9347
▁flnn	-9348
▁fârâ	-9349
▁howe	-9350
▁héji	-9351
▁ikka	-9352
▁jɔsi	-9353
▁krap	-9354
▁mynu	-9355
▁mônè	-9356
▁navy	-9357
▁nyès	-9358
▁occi	-9359
▁okmi	-9360
▁pinè	-9361
▁plum	-9362
▁thai	-9363
▁torw	-9364
▁tubà	-9365
▁êsco	-9366
11,000	-9367
3.764,	-9368
55.688	-9369
Khamun	-9370
akitɔr	-9371
apolis	-9372
araibe	-9373
araibu	-9374
bêrêma	-9375
ccordi	-9376
celotw	-9377
ckwood	-9378
counon	-9379
ctérie	-9380
ddhism	-9381
denbro	-9382
djigai	-9383
djuruw	-9384
djêguê	-9385
djêlén	-9386
drillo	-9387
dénmis	-9388
eirèfè	-9389
ennylv	-9390
ftball	-9391
ganama	-9392
gnouan	-9393
gnènin	-9394
guinni	-9395
hakera	-9396
houdry	-9397
inidiw	-9398
jikèmè	-9399
24,	-9400
5),	-9401
892	-9402
Rex	-9403
scö	-9404
▁QC	-9405
cons	-9406
sénw	-9407
warz	-9408
ɛsto	-9409
▁(24	-9410
▁(29	-9411
▁(31	-9412
▁(35	-9413
▁17,	-9414
▁176	-9415
elred	-9416
gboks	-9417
litvi	-9418
ology	-9419
ondew	-9420
onser	-9421
onshu	-9422
secti	-9423
▁(189	-9424
▁(291	-9425
▁(313	-9426
▁1767	-9427
▁4892	-9428
Honshu	-9429
ctioni	-9430
jorque	-9431
kereni	-9432
khamon	-9433
khamun	-9434
kismou	-9435
kongow	-9436
koroni	-9437
kuchen	-9438
kyteam	-9439
kênêya	-9440
kônnôn	-9441
labanw	-9442
lamine	-9443
lokrit	-9444
lomiko	-9445
lunkut	-9446
lèliké	-9447
maeosa	-9448
mahôrô	-9449
makèya	-9450
maseli	-9451
masiɲɛ	-9452
matise	-9453
mberew	-9454
meiras	-9455
minuti	-9456
musaka	-9457
mɔkalo	-9458
oldust	-9459
olture	-9460
ounibè	-9461
ouveri	-9462
penado	-9463
photon	-9464
polozi	-9465
porino	-9466
péenne	-9467
péréla	-9468
ralopi	-9469
reifei	-9470
reiman	-9471
rience	-9472
rzezin	-9473
rôbein	-9474
scöpou	-9475
sichel	-9476
sinèsi	-9477
songôw	-9478
soumou	-9479
ssogow	-9480
sulate	-9481
sènanw	-9482
sôsôli	-9483
tabagw	-9484
tartic	-9485
tchell	-9486
tchoko	-9487
tchêla	-9488
tenèri	-9489
thansa	-9490
tiboni	-9491
tienfi	-9492
tignèn	-9493
tikèti	-9494
tirsti	-9495
togoye	-9496
trrane	-9497
tswana	-9498
ttaire	-9499
igs	-9500
bruk	-9501
dern	-9502
▁Jii	-9503
igsli	-9504
riegs	-9505
tinel	-9506
▁Wuli	-9507
▁joue	-9508
Kriegs	-9509
dallus	-9510
emanya	-9511
gurats	-9512
hirimè	-9513
iyalaw	-9514
messen	-9515
rètriw	-9516
subako	-9517
tendan	-9518
tounbè	-9519
ttakha	-9520
tukawa	-9521
tutaki	-9522
térita	-9523
tôckiw	-9524
umthan	-9525
urudju	-9526
vachon	-9527
vembru	-9528
viriye	-9529
vèrifè	-9530
vélopé	-9531
werela	-9532
wôlôni	-9533
yapock	-9534
yiriga	-9535
yéléma	-9536
ètiriw	-9537
ɔrɔfli	-9538
▁(250)	-9539
▁(291.	-9540
▁(9000	-9541
▁1624,	-9542
▁1818.	-9543
▁1920,	-9544
▁1960,	-9545
▁1965,	-9546
▁1966,	-9547
▁1978,	-9548
▁1988,	-9549
▁1994,	-9550
▁2:11:	-9551
▁7,000	-9552
▁Abésé	-9553
▁Allia	-9554
▁Artic	-9555
▁Atili	-9556
▁Ayato	-9557
▁Balbo	-9558
▁Barca	-9559
▁Bishe	-9560
▁Bloch	-9561
▁Borse	-9562
▁Boudd	-9563
▁Bowen	-9564
▁Byzan	-9565
▁Calle	-9566
▁Celli	-9567
▁Civil	-9568
▁Conce	-9569
▁Couch	-9570
▁Curry	-9571
▁Deniw	-9572
▁Dream	-9573
▁Dunde	-9574
▁Elicô	-9575
▁Esipa	-9576
▁Feere	-9577
▁Formo	-9578
▁Gardi	-9579
▁Genus	-9580
▁Gilla	-9581
▁Glynn	-9582
▁Gnala	-9583
▁Gnini	-9584
▁Golfi	-9585
▁Gounw	-9586
▁Gurus	-9587
▁Homer	-9588
▁Hospi	-9589
▁Iliad	-9590
▁Indus	-9591
▁Islam	-9592
▁Iwata	-9593
▁Janya	-9594
▁Jesus	-9595
▁Jogin	-9596
▁Jonny	-9597
▁Jésus	-9598
▁Kahne	-9599
kék	-9600
mmy	-9601
itas	-9602
▁2.2	-9603
▁Smy	-9604
▁hyd	-9605
▁swi	-9606
ravid	-9607
roven	-9608
vidde	-9609
ñitas	-9610
▁Army	-9611
▁Bela	-9612
▁Emmy	-9613
▁Smyr	-9614
▁econ	-9615
▁pusi	-9616
Proven	-9617
bouola	-9618
curité	-9619
demila	-9620
hisimi	-9621
kolonw	-9622
kéklén	-9623
rianta	-9624
rosimi	-9625
somila	-9626
ssériw	-9627
venger	-9628
▁Butte	-9629
▁Clara	-9630
▁Katir	-9631
▁Koubé	-9632
▁Kunko	-9633
▁Lastu	-9634
▁Lions	-9635
▁Loliw	-9636
▁Lônko	-9637
▁Malar	-9638
▁Maldo	-9639
▁Minou	-9640
▁Mysti	-9641
▁Necro	-9642
▁Nepal	-9643
▁Nobel	-9644
▁Nonni	-9645
▁Norwé	-9646
▁Ocean	-9647
▁Olébé	-9648
▁Osaka	-9649
▁Osita	-9650
▁Pitts	-9651
▁Plata	-9652
▁Point	-9653
▁Ponni	-9654
▁Prade	-9655
▁Range	-9656
▁Sacks	-9657
▁Sansc	-9658
▁Seork	-9659
▁Seven	-9660
▁Shari	-9661
▁Sikhs	-9662
▁Sogow	-9663
▁Soguo	-9664
▁Sovie	-9665
▁Soyou	-9666
▁Straw	-9667
▁Suedi	-9668
▁Sveri	-9669
▁Tanni	-9670
▁Terre	-9671
▁Tropi	-9672
▁Truex	-9673
▁Tupua	-9674
▁Tègui	-9675
▁UNESI	-9676
▁Upani	-9677
▁Vegas	-9678
▁Velas	-9679
▁Villa	-9680
▁Wayne	-9681
▁Westj	-9682
▁Wouss	-9683
▁Xiaop	-9684
▁aboko	-9685
▁abôni	-9686
▁asidi	-9687
▁atéré	-9688
▁ayêrê	-9689
▁azôti	-9690
▁beech	-9691
▁besén	-9692
▁birow	-9693
▁braka	-9694
▁brébé	-9695
▁caila	-9696
▁caktu	-9697
▁capsu	-9698
▁chokô	-9699
Tchè	-9700
▁bàa	-9701
▁geo	-9702
daléw	-9703
ocket	-9704
▁1990	-9705
▁Feou	-9706
▁Keme	-9707
▁Kese	-9708
▁Moll	-9709
▁Tônô	-9710
Rocket	-9711
filirô	-9712
gement	-9713
oronic	-9714
tafɛnw	-9715
▁1990,	-9716
▁Afiki	-9717
▁Hanco	-9718
▁Harvi	-9719
▁Kenin	-9720
▁Lanta	-9721
▁Leona	-9722
▁Letri	-9723
▁Moldo	-9724
▁Tenin	-9725
▁Tônba	-9726
▁chékô	-9727
▁clako	-9728
▁congé	-9729
▁corpo	-9730
▁cônou	-9731
▁darsi	-9732
▁degun	-9733
▁digis	-9734
▁djudu	-9735
▁droni	-9736
▁dumun	-9737
▁dôhuw	-9738
▁dôlôh	-9739
▁ebola	-9740
▁esipa	-9741
▁farwo	-9742
▁fibre	-9743
▁finiw	-9744
▁fiyin	-9745
▁flana	-9746
▁flɛru	-9747
▁funuf	-9748
▁furen	-9749
▁gboya	-9750
▁gnéni	-9751
▁gnênê	-9752
▁golfi	-9753
▁gouni	-9754
▁grave	-9755
▁gring	-9756
▁gsani	-9757
▁gunnw	-9758
▁gymna	-9759
▁haiti	-9760
▁hôron	-9761
▁ilaba	-9762
▁imeli	-9763
▁imprè	-9764
▁itoun	-9765
▁itésé	-9766
▁izini	-9767
▁jouéw	-9768
▁juwên	-9769
▁jèngè	-9770
▁jênka	-9771
▁katii	-9772
▁kenen	-9773
▁kimmi	-9774
▁kitab	-9775
▁korôn	-9776
▁kruwa	-9777
▁kérék	-9778
▁lajin	-9779
▁lajén	-9780
▁lènpo	-9781
▁mabor	-9782
▁misèn	-9783
▁mumèn	-9784
▁muyun	-9785
▁mènin	-9786
▁môgow	-9787
▁nyèsi	-9788
▁obiti	-9789
▁oboro	-9790
▁obèla	-9791
▁obètè	-9792
▁okèra	-9793
▁okôfê	-9794
▁oming	-9795
▁pekɛn	-9796
▁posti	-9797
▁publi	-9798
▁pɔnpe	-9799
cone	-9800
iiki	-9801
lkar	-9802
mênê	-9803
yôbô	-9804
▁(16	-9805
▁161	-9806
▁ADT	-9807
▁Cud	-9808
▁Heb	-9809
▁XDR	-9810
ancar	-9811
djèla	-9812
dônan	-9813
karta	-9814
kissê	-9815
stone	-9816
tario	-9817
ttari	-9818
ultur	-9819
zéris	-9820
öröya	-9821
▁1610	-9822
▁Cuer	-9823
▁Cupu	-9824
▁gɛri	-9825
▁kênê	-9826
▁törö	-9827
▁yörö	-9828
djèman	-9829
dulkar	-9830
fèrèni	-9831
iikika	-9832
loridi	-9833
ntario	-9834
nôbila	-9835
polisi	-9836
▁Cudde	-9837
▁Dôhou	-9838
▁Ferry	-9839
▁Kecha	-9840
▁botoh	-9841
▁kissê	-9842
▁okotè	-9843
▁rɛsto	-9844
▁sabba	-9845
▁salva	-9846
▁sanny	-9847
▁seibi	-9848
▁seven	-9849
▁shaya	-9850
▁sirri	-9851
▁sonnô	-9852
▁ssala	-9853
▁styli	-9854
▁supre	-9855
▁suufê	-9856
▁tropi	-9857
▁tèdjé	-9858
▁tèmni	-9859
▁tôrhô	-9860
▁tɔriw	-9861
▁tɛrɛn	-9862
▁urani	-9863
▁wabiw	-9864
▁yaabu	-9865
▁yawou	-9866
▁yongô	-9867
▁États	-9868
▁étian	-9869
▁ôgôla	-9870
-1895),	-9871
Afiriki	-9872
Equipou	-9873
Goldust	-9874
Reading	-9875
adorian	-9876
ancarlo	-9877
andahar	-9878
boardin	-9879
boroman	-9880
bourouw	-9881
béyafan	-9882
comandi	-9883
conondo	-9884
derland	-9885
dollari	-9886
donésie	-9887
ducteur	-9888
eimeisi	-9889
enfanga	-9890
eremiyé	-9891
eritagi	-9892
frivole	-9893
gagnéla	-9894
gativou	-9895
gbangan	-9896
gbèrèla	-9897
ggurats	-9898
gnongôn	-9899
▁6.	-9900
atèr	-9901
duit	-9902
eers	-9903
llah	-9904
okda	-9905
tèrw	-9906
▁6.3	-9907
▁thc	-9908
drigo	-9909
lombè	-9910
mmada	-9911
nigli	-9912
oking	-9913
shche	-9914
turni	-9915
▁6.34	-9916
▁Drea	-9917
▁ambè	-9918
▁anvô	-9919
▁egli	-9920
▁jeru	-9921
▁plat	-9922
▁ther	-9923
borila	-9924
golali	-9925
labôla	-9926
niglia	-9927
okdale	-9928
ptekaw	-9929
pubiki	-9930
ratiou	-9931
shchev	-9932
triers	-9933
▁Banan	-9934
▁Pamer	-9935
▁Profe	-9936
▁Yanan	-9937
▁akèlè	-9938
▁capte	-9939
▁kokɛn	-9940
▁there	-9941
▁tôrôn	-9942
▁ɲɛnin	-9943
Oyapock	-9944
chester	-9945
gbènèla	-9946
gnêlati	-9947
gnôgôna	-9948
gongonw	-9949
guèlèya	-9950
guèrèni	-9951
hepatic	-9952
hirimèn	-9953
iapoque	-9954
igslist	-9955
imahoro	-9956
inisôgô	-9957
jourouw	-9958
kenogon	-9959
kissili	-9960
kogoman	-9961
kokoura	-9962
konsene	-9963
kouatèr	-9964
kouraya	-9965
kouroug	-9966
kutunan	-9967
kénléla	-9968
kôfèfin	-9969
ladeshi	-9970
lington	-9971
lombèri	-9972
lopeman	-9973
lopitec	-9974
mafenmi	-9975
manchin	-9976
mantɛmɛ	-9977
marines	-9978
matiguê	-9979
mbridge	-9980
mintiya	-9981
misseni	-9982
mometri	-9983
mouyali	-9984
mênênin	-9985
môgôyap	-9986
naliste	-9987
nkuchen	-9988
nyanfan	-9989
oguidaw	-9990
olokali	-9991
ololalé	-9992
omerang	-9993
onirost	-9994
onogobo	-9995
onserva	-9996
ordassi	-9997
orgorma	-9998
pagosse	-9999
zofi	-10000
zota	-10001
▁blä	-10002
trogé	-10003
▁Katr	-10004
▁equa	-10005
▁rezo	-10006
bachia	-10007
▁Stars	-10008
▁Yiriw	-10009
▁kêrên	-10010
▁poyiw	-10011
▁pômou	-10012
inezota	-10013
ponaisw	-10014
pulveda	-10015
quadron	-10016
requent	-10017
riantaf	-10018
ringich	-10019
ripsion	-10020
ristina	-10021
ristoph	-10022
ritiali	-10023
rongoro	-10024
roscope	-10025
rosimit	-10026
rrassiw	-10027
sabanan	-10028
sasaurs	-10029
scopeta	-10030
sebenni	-10031
shadiou	-10032
sitèmou	-10033
sriyôrô	-10034
ssagoli	-10035
sselika	-10036
ssinger	-10037
ssomili	-10038
ssèbèni	-10039
ssékour	-10040
sumpink	-10041
sèminèw	-10042
tasèbèw	-10043
tchelor	-10044
tchoogo	-10045
tendant	-10046
thelred	-10047
trapati	-10048
trogéni	-10049
trotchè	-10050
ttarius	-10051
ttropic	-10052
turubaw	-10053
ucanian	-10054
ulijala	-10055
umthang	-10056
unumunu	-10057
uruniya	-10058
verneur	-10059
vèrsion	-10060
woronfi	-10061
yanyini	-10062
yereira	-10063
yigbèrè	-10064
yongona	-10065
zariden	-10066
èguèsso	-10067
èmafénw	-10068
èrinèri	-10069
ênbêrên	-10070
ɲininin	-10071
̋Proven	-10072
▁(1981)	-10073
▁30,000	-10074
▁Agents	-10075
▁Alpini	-10076
▁Angile	-10077
▁Anglèw	-10078
▁Baliya	-10079
▁Baltic	-10080
▁Barada	-10081
▁Baragi	-10082
▁Barake	-10083
▁Barakè	-10084
▁Bardia	-10085
▁Barisa	-10086
▁Belaru	-10087
▁Bishek	-10088
▁Bombou	-10089
▁Borden	-10090
▁Bowyer	-10091
▁Brezil	-10092
▁Bridge	-10093
▁Bright	-10094
▁Bènniw	-10095
▁Bégénw	-10096
▁Cancer	-10097
▁Canyon	-10098
▁Cheers	-10099
gènw	-10100
▁Dub	-10101
00.94	-10102
Kalan	-10103
boksi	-10104
djonw	-10105
espre	-10106
gènin	-10107
kɛɲɛn	-10108
meras	-10109
trôsi	-10110
unrun	-10111
uteur	-10112
▁2002	-10113
▁2004	-10114
▁Bonw	-10115
▁Gaza	-10116
▁Tènè	-10117
00.948	-10118
mesenw	-10119
téliti	-10120
▁Chaco	-10121
▁Garan	-10122
▁Jaabi	-10123
▁Mondi	-10124
▁Peter	-10125
▁Phnon	-10126
▁gbaaw	-10127
▁gbasi	-10128
▁jenka	-10129
▁loonw	-10130
kitrôsi	-10131
kɛɲɛnin	-10132
lantéli	-10133
sijonin	-10134
tchigèn	-10135
trôtchè	-10136
unrunin	-10137
▁2002).	-10138
▁Arabou	-10139
▁Chinoi	-10140
▁Cincin	-10141
▁Compan	-10142
▁Dervis	-10143
▁Djanto	-10144
▁Djonan	-10145
▁Djèguè	-10146
▁Donhke	-10147
▁Dravid	-10148
▁Dublin	-10149
▁Dumuni	-10150
▁Eighme	-10151
▁Ephesi	-10152
▁Erectu	-10153
▁Faassi	-10154
▁Felipe	-10155
▁Ferrer	-10156
▁Filmou	-10157
▁Fitina	-10158
▁Franks	-10159
▁Fuzéba	-10160
▁Garcia	-10161
▁Goundo	-10162
▁Gouèlè	-10163
▁Greeki	-10164
▁Gripen	-10165
▁Harper	-10166
▁Irakou	-10167
▁Jakari	-10168
▁Javane	-10169
▁Jeline	-10170
▁Joaqui	-10171
▁Jochem	-10172
▁Joseon	-10173
▁Jummah	-10174
▁Kabouô	-10175
▁Kanbri	-10176
▁Kiyoto	-10177
▁Kolola	-10178
▁Koulou	-10179
▁Kruasi	-10180
▁Kruger	-10181
▁Kurura	-10182
▁Kurusé	-10183
▁Kèwale	-10184
▁Kêlêkê	-10185
▁Kônnôn	-10186
▁Labalo	-10187
▁Laskar	-10188
▁Lizini	-10189
▁Marali	-10190
▁Marcie	-10191
▁Mersey	-10192
▁Modern	-10193
▁Montez	-10194
▁Musahi	-10195
▁Nankun	-10196
▁Nassar	-10197
▁Okeira	-10198
▁Oldsmo	-10199
.17	-10200
ONU	-10201
▁93	-10202
▁XI	-10203
▁Xa	-10204
.174	-10205
cuti	-10206
wuli	-10207
▁(02	-10208
▁1.1	-10209
▁93%	-10210
cutif	-10211
fewso	-10212
gypti	-10213
régué	-10214
tigèw	-10215
▁(02:	-10216
▁1.1.	-10217
▁Bhog	-10218
▁XIXe	-10219
▁baju	-10220
▁yéwu	-10221
▁zira	-10222
▁ziri	-10223
pandan	-10224
ssiraw	-10225
togola	-10226
écutif	-10227
▁Bawou	-10228
▁Gorce	-10229
▁Sanju	-10230
▁gazôn	-10231
▁nogor	-10232
▁négué	-10233
▁olivu	-10234
▁olouw	-10235
amadian	-10236
garamou	-10237
moussow	-10238
réguébo	-10239
yèlèman	-10240
▁(02:30	-10241
▁(9.174	-10242
▁Jagoya	-10243
▁Kônonw	-10244
▁Olimpi	-10245
▁Oliver	-10246
▁Owaati	-10247
▁Paleon	-10248
▁Peteri	-10249
▁Plitvi	-10250
▁Polgni	-10251
▁Polyne	-10252
▁Ranchi	-10253
▁Ranger	-10254
▁Reagan	-10255
▁Saanou	-10256
▁Sabari	-10257
▁Saffir	-10258
▁Saraba	-10259
▁Satoru	-10260
▁Satéli	-10261
▁Sebeni	-10262
▁Sharma	-10263
▁Siensi	-10264
▁Sofaya	-10265
▁Square	-10266
▁Squash	-10267
▁Stania	-10268
▁Suisse	-10269
▁Sumaya	-10270
▁Sweden	-10271
▁Sébéri	-10272
▁Sêbêli	-10273
▁Tamaki	-10274
▁Templo	-10275
▁Thrace	-10276
▁Thrash	-10277
▁Tintin	-10278
▁Tirini	-10279
▁Tondew	-10280
▁Transi	-10281
▁Treton	-10282
▁Tulonw	-10283
▁Turusi	-10284
▁Téréfè	-10285
▁Uptown	-10286
▁Vaccin	-10287
▁Vietna	-10288
▁Wariko	-10289
▁Wilson	-10290
▁Xavier	-10291
▁Yannan	-10292
▁Yélikè	-10293
▁Zambie	-10294
▁Zéland	-10295
▁abanni	-10296
▁ablala	-10297
▁abénan	-10298
▁alfrɛd	-10299
CAf	-10300
20-1	-10301
ECAf	-10302
gers	-10303
gger	-10304
vrié	-10305
LECAf	-10306
beral	-10307
honna	-10308
20-160	-10309
vinité	-10310
▁Banki	-10311
▁Jikru	-10312
▁Masai	-10313
▁Tando	-10314
▁bônan	-10315
▁cɛkaɲ	-10316
▁lamaw	-10317
▁missê	-10318
▁oyeka	-10319
▁siifè	-10320
▁évèné	-10321
bagatôw	-10322
enegger	-10323
kônonya	-10324
▁(9000)	-10325
▁Duguba	-10326
▁Eglisi	-10327
▁Marion	-10328
▁Masaya	-10329
▁Rogers	-10330
▁ZLECAf	-10331
▁alpine	-10332
▁alɛksi	-10333
▁amankè	-10334
▁angile	-10335
▁anglew	-10336
▁anglèw	-10337
▁anhnan	-10338
▁anvôlo	-10339
▁asiper	-10340
▁baanan	-10341
▁badala	-10342
▁badjiw	-10343
▁basfon	-10344
▁bavari	-10345
▁beladj	-10346
▁beséng	-10347
▁billan	-10348
▁bitere	-10349
▁bouôra	-10350
▁branan	-10351
▁bretaɲ	-10352
▁brudju	-10353
▁buruju	-10354
▁bègènw	-10355
▁bénikô	-10356
▁bêmuru	-10357
▁bôlôlô	-10358
▁bɔnbɔn	-10359
▁bɛrlɛn	-10360
▁cendji	-10361
▁center	-10362
▁chaisi	-10363
▁cherre	-10364
▁clanje	-10365
▁clavié	-10366
▁client	-10367
▁colber	-10368
▁comite	-10369
▁congrè	-10370
▁croisé	-10371
▁cultur	-10372
▁curusi	-10373
▁cybèri	-10374
▁dabola	-10375
▁dakala	-10376
▁danila	-10377
▁deisse	-10378
▁demein	-10379
▁demena	-10380
▁dessen	-10381
▁dianan	-10382
▁dibilà	-10383
▁dignèf	-10384
▁diguin	-10385
▁diliye	-10386
▁diyana	-10387
▁djènsè	-10388
▁djôrôw	-10389
▁domuna	-10390
▁duwage	-10391
▁dôleyé	-10392
▁dôwère	-10393
▁electr	-10394
▁enkèti	-10395
▁farman	-10396
▁firila	-10397
▁fitana	-10398
▁fitira	-10399
hnu	-10400
nuba	-10401
▁Hoo	-10402
▁Jeu	-10403
aiisw	-10404
caisw	-10405
ishnu	-10406
remer	-10407
sogow	-10408
ôlôlô	-10409
▁Bulo	-10410
▁Gize	-10411
▁Jege	-10412
▁Kier	-10413
▁Nova	-10414
▁afol	-10415
▁ayra	-10416
▁béng	-10417
▁otei	-10418
▁wôlô	-10419
▁ɛnpa	-10420
Bremer	-10421
Sissan	-10422
kekela	-10423
oulafè	-10424
teissi	-10425
unakha	-10426
▁Felix	-10427
▁Gizeh	-10428
▁Hooke	-10429
▁Olasa	-10430
▁Sebew	-10431
▁Singa	-10432
▁afolà	-10433
▁audio	-10434
▁barow	-10435
▁fânga	-10436
▁golog	-10437
▁ofani	-10438
gueinra	-10439
▁Bulogi	-10440
▁Fognon	-10441
▁Foster	-10442
▁Jegehu	-10443
▁Schuma	-10444
▁Vishnu	-10445
▁faando	-10446
▁feirei	-10447
▁flènié	-10448
▁fofola	-10449
▁fotata	-10450
▁fènsèn	-10451
▁fèèrèw	-10452
▁féréla	-10453
▁févrié	-10454
▁fôlanw	-10455
▁fônikô	-10456
▁fɔlade	-10457
▁gaariw	-10458
▁galaxi	-10459
▁gbassi	-10460
▁gbeniw	-10461
▁gbinli	-10462
▁gbirig	-10463
▁gboman	-10464
▁gerefe	-10465
▁gnègèn	-10466
▁gnôndô	-10467
▁gongan	-10468
▁gosili	-10469
▁gouniw	-10470
▁gwelen	-10471
▁gwèlen	-10472
▁gwèlèn	-10473
▁hunhun	-10474
▁hydoro	-10475
▁hôrônw	-10476
▁ibessé	-10477
▁ikanto	-10478
▁ikônon	-10479
▁imaili	-10480
▁inerne	-10481
▁itéssé	-10482
▁jaabiw	-10483
▁janiya	-10484
▁jateya	-10485
▁jikɔnɔ	-10486
▁jèngèn	-10487
▁jɔyɔrɔ	-10488
▁kadjin	-10489
▁kadogo	-10490
▁kalike	-10491
▁kanpan	-10492
▁kasitô	-10493
▁kayaki	-10494
▁kayôbô	-10495
▁kekela	-10496
▁kenmin	-10497
▁kirabô	-10498
▁kiriso	-10499
Dire	-10500
liff	-10501
taff	-10502
enain	-10503
siste	-10504
tiwiw	-10505
zaraw	-10506
▁nâna	-10507
ayaman	-10508
elekan	-10509
kissèw	-10510
▁Cliff	-10511
▁Punja	-10512
▁djéli	-10513
▁fiyèn	-10514
▁jaraw	-10515
▁kambe	-10516
▁ounce	-10517
▁patho	-10518
▁weele	-10519
djigini	-10520
gandiya	-10521
gatiwiw	-10522
▁Artici	-10523
▁Balkan	-10524
▁Batoli	-10525
▁Charly	-10526
▁Nadiya	-10527
▁Nasɔrɔ	-10528
▁Punjab	-10529
▁Siradi	-10530
▁akônôn	-10531
▁dinoza	-10532
▁kinnin	-10533
▁kisêla	-10534
▁klankè	-10535
▁kofféi	-10536
▁kogniw	-10537
▁kohouw	-10538
▁kokoji	-10539
▁komine	-10540
▁konôta	-10541
▁korong	-10542
▁korsor	-10543
▁kosobe	-10544
▁kosônn	-10545
▁kouruw	-10546
▁koyéwa	-10547
▁kuludo	-10548
▁kurunb	-10549
▁kètoun	-10550
▁kèwale	-10551
▁kêwalé	-10552
▁kôgbèw	-10553
▁kôrôçi	-10554
▁kôôdji	-10555
▁kɛkafi	-10556
▁labouô	-10557
▁labèni	-10558
▁labôyô	-10559
▁laderi	-10560
▁ladoga	-10561
▁ladona	-10562
▁lagafi	-10563
▁lajara	-10564
▁lajɛni	-10565
▁lakôsé	-10566
▁lalola	-10567
▁lamusa	-10568
▁lasegi	-10569
▁latéri	-10570
▁layidu	-10571
▁lodola	-10572
▁longow	-10573
▁lèsogo	-10574
▁lébôla	-10575
▁lɔgɔra	-10576
▁maariw	-10577
▁maderi	-10578
▁mafiya	-10579
▁mairie	-10580
▁majigi	-10581
▁maoriw	-10582
▁markof	-10583
▁midoni	-10584
▁milyon	-10585
▁miryia	-10586
▁misenw	-10587
▁missen	-10588
▁miwomi	-10589
▁miyato	-10590
▁mlanko	-10591
▁mogoni	-10592
▁moumèw	-10593
▁muniti	-10594
▁musaka	-10595
▁nagaçi	-10596
▁natôla	-10597
▁ndaléw	-10598
▁nenain	-10599
IFA	-10600
▁189	-10601
▁mɔt	-10602
aster	-10603
dôwla	-10604
ongol	-10605
sètiw	-10606
talla	-10607
vièti	-10608
▁(100	-10609
▁1895	-10610
▁3000	-10611
▁Awla	-10612
▁FIFA	-10613
▁Filo	-10614
▁Lola	-10615
▁Oubé	-10616
▁Ouya	-10617
▁Touk	-10618
▁Tout	-10619
▁sêkê	-10620
Mongol	-10621
àpagos	-10622
▁(100)	-10623
▁Cadwa	-10624
▁Smith	-10625
▁Touan	-10626
▁Toukn	-10627
▁abada	-10628
▁amakè	-10629
▁anafa	-10630
▁côssi	-10631
▁fouhi	-10632
▁gwɛni	-10633
▁hungu	-10634
▁ibéna	-10635
▁sawla	-10636
▁totow	-10637
baarakè	-10638
baaratô	-10639
eremugu	-10640
gbèrèya	-10641
minidew	-10642
onatèmè	-10643
tabulon	-10644
trolèri	-10645
▁Ayéssé	-10646
▁Doroni	-10647
▁Filoso	-10648
▁Sister	-10649
▁Toutan	-10650
▁abadan	-10651
▁abesse	-10652
▁cartiw	-10653
▁conser	-10654
▁kênêma	-10655
▁kôongo	-10656
▁nilafi	-10657
▁nronni	-10658
▁nugura	-10659
▁nôrôla	-10660
▁nôrôni	-10661
▁obanan	-10662
▁obanni	-10663
▁olivie	-10664
▁otalla	-10665
▁ourdou	-10666
▁oxygen	-10667
▁pasazé	-10668
▁patinw	-10669
▁pelepe	-10670
▁pierre	-10671
▁pilagi	-10672
▁pinrin	-10673
▁pirini	-10674
▁plasma	-10675
▁porozé	-10676
▁provɛn	-10677
▁péréfè	-10678
▁randon	-10679
▁ranger	-10680
▁rechar	-10681
▁requin	-10682
▁saabou	-10683
▁sagoya	-10684
▁salanw	-10685
▁sanfiw	-10686
▁sangso	-10687
▁sariaw	-10688
▁seerew	-10689
▁segɔnd	-10690
▁senatè	-10691
▁seneya	-10692
▁siriwa	-10693
▁sofaya	-10694
▁sojanw	-10695
▁solisi	-10696
▁sossow	-10697
▁soufri	-10698
▁sougna	-10699
eam	-10700
nzn	-10701
mamô	-10702
môgo	-10703
tten	-10704
wula	-10705
▁MPs	-10706
Chili	-10707
nninw	-10708
ssimô	-10709
▁Team	-10710
▁sitt	-10711
bangou	-10712
goudou	-10713
▁Costi	-10714
▁Filip	-10715
▁Minis	-10716
▁Royal	-10717
▁Steve	-10718
▁akola	-10719
▁dronw	-10720
▁kotow	-10721
▁mɛnna	-10722
▁ohésé	-10723
▁shibo	-10724
cleyèri	-10725
côssimô	-10726
▁Batten	-10727
▁Minisi	-10728
▁Nikola	-10729
▁bôliyé	-10730
▁counon	-10731
▁coyagi	-10732
▁folikê	-10733
▁lakalé	-10734
▁lakiti	-10735
▁lamara	-10736
▁makadi	-10737
▁souraw	-10738
▁soyaga	-10739
▁sozani	-10740
▁suisse	-10741
▁susɛti	-10742
▁sèmèni	-10743
▁sérici	-10744
▁sêkêlê	-10745
▁tannzn	-10746
▁tchêfa	-10747
▁tereni	-10748
▁teroun	-10749
▁tiigui	-10750
▁tilali	-10751
▁tinrin	-10752
▁tiogow	-10753
▁toloon	-10754
▁tondéw	-10755
▁tonnie	-10756
▁tononn	-10757
▁torgor	-10758
▁tougna	-10759
▁toumné	-10760
▁transc	-10761
▁tricot	-10762
▁tèrènè	-10763
▁ténakè	-10764
▁ténasé	-10765
▁tôliko	-10766
▁tômôna	-10767
▁vidéow	-10768
▁vitriw	-10769
▁votéla	-10770
▁wangan	-10771
▁werela	-10772
▁wèèrèw	-10773
▁yeleni	-10774
▁yengen	-10775
▁yingon	-10776
▁yinika	-10777
▁yoloyo	-10778
▁yékomi	-10779
▁yékêla	-10780
▁zaburu	-10781
▁zapone	-10782
▁èssipa	-10783
▁ɲafɔra	-10784
▁ɲinana	-10785
4-1895),	-10786
Démissin	-10787
alàpagos	-10788
anissary	-10789
bachiabo	-10790
badamina	-10791
barakela	-10792
bmarines	-10793
bognalan	-10794
borifénw	-10795
bttropic	-10796
bétibana	-10797
ccordion	-10798
chloridi	-10799
96,	-10800
▁40	-10801
▁45	-10802
▁54	-10803
▁55	-10804
-96,	-10805
biné	-10806
down	-10807
gnôl	-10808
▁Bob	-10809
▁Geo	-10810
▁Jim	-10811
▁yèè	-10812
5-96,	-10813
cieli	-10814
elier	-10815
flèli	-10816
flèlà	-10817
labin	-10818
oweli	-10819
ézari	-10820
▁Boti	-10821
▁Yeli	-10822
▁dadɔ	-10823
▁gnôô	-10824
▁seew	-10825
▁torh	-10826
▁tâko	-10827
Vitriw	-10828
ertifi	-10829
ganvia	-10830
lidénw	-10831
▁Aviôn	-10832
▁Belly	-10833
▁Jimén	-10834
▁Marsi	-10835
▁Tufin	-10836
▁Yogua	-10837
▁niguê	-10838
▁okôfè	-10839
▁omibé	-10840
▁yétaw	-10841
enlandi	-10842
flèlifé	-10843
kuntala	-10844
yôrôdow	-10845
▁Cabiné	-10846
▁Cézari	-10847
▁Dofani	-10848
▁França	-10849
▁Helier	-10850
▁Jiméne	-10851
▁Noweli	-10852
▁Turiki	-10853
▁diagnô	-10854
▁fouran	-10855
▁létala	-10856
▁presen	-10857
▁samani	-10858
chounibè	-10859
cientifi	-10860
damanden	-10861
dilannaw	-10862
dinburgh	-10863
disitiri	-10864
djangalo	-10865
doumouni	-10866
douyafan	-10867
ducation	-10868
endulkar	-10869
faralola	-10870
finsiraw	-10871
galadjan	-10872
genieurs	-10873
gnogomaw	-10874
gnoumani	-10875
grafeuse	-10876
gɛsɛgɛli	-10877
hannessy	-10878
inagbèlè	-10879
ingbinla	-10880
ingboksi	-10881
iriginia	-10882
kinology	-10883
kinololo	-10884
kolotolo	-10885
konondon	-10886
kopoulos	-10887
koumanyé	-10888
kounandé	-10889
kurasɛgɛ	-10890
kènèyôrô	-10891
kèrèlima	-10892
kéklénya	-10893
laganfia	-10894
lasirila	-10895
libagatô	-10896
liyôrôyé	-10897
mamôbili	-10898
minikela	-10899
flai	-10900
llas	-10901
▁éné	-10902
gorno	-10903
kenti	-10904
▁Alas	-10905
▁Baby	-10906
▁Card	-10907
▁Kiba	-10908
▁Liby	-10909
▁espé	-10910
▁fuzé	-10911
▁ofla	-10912
▁énér	-10913
gininw	-10914
liniki	-10915
▁Dutch	-10916
▁dawou	-10917
▁ikara	-10918
▁ikele	-10919
énétiki	-10920
▁Africa	-10921
▁Alaska	-10922
▁Dounia	-10923
▁Dustin	-10924
▁anbari	-10925
▁dulini	-10926
▁gwanni	-10927
▁kokara	-10928
▁maflai	-10929
▁nankoh	-10930
▁tekele	-10931
▁tolonw	-10932
mininôgô	-10933
minisimi	-10934
olomanla	-10935
onikuluw	-10936
orniglia	-10937
orobatôn	-10938
ougnôngô	-10939
politiki	-10940
pération	-10941
périence	-10942
rilikalo	-10943
rontieri	-10944
ropicali	-10945
roumikan	-10946
sarakala	-10947
sichella	-10948
sistemou	-10949
sitiriki	-10950
sitition	-10951
ssamaniw	-10952
ssoumana	-10953
strellas	-10954
taniumou	-10955
tchaiman	-10956
tchôgôlô	-10957
therland	-10958
thermiki	-10959
tibonite	-10960
tienfiku	-10961
trranean	-10962
tèmètèrè	-10963
téritama	-10964
ugandiya	-10965
viétikiw	-10966
wôlônita	-10967
yiralanw	-10968
znbourou	-10969
èkitrôsi	-10970
èrènéman	-10971
érésiden	-10972
▁120-160	-10973
▁2:11:60	-10974
▁AOLsera	-10975
▁Adamadé	-10976
▁Algérie	-10977
▁Angeles	-10978
▁Antarti	-10979
▁Arctiki	-10980
▁Arisito	-10981
▁Armenie	-10982
▁Astroge	-10983
▁Avenger	-10984
▁Baarakê	-10985
▁Baltici	-10986
▁Banbaga	-10987
▁Belgiki	-10988
▁Binairi	-10989
▁Binnens	-10990
▁Birming	-10991
▁Bolonia	-10992
▁Borsell	-10993
▁Bostoni	-10994
▁Branson	-10995
▁Brezili	-10996
▁Burudju	-10997
▁Caraibu	-10998
▁Carolyn	-10999
▁Dae	-11000
▁Jui	-11001
▁zak	-11002
marki	-11003
omali	-11004
èrein	-11005
▁1977	-11006
▁2011	-11007
▁Jugi	-11008
▁Jugé	-11009
▁Mant	-11010
▁Mora	-11011
▁Soul	-11012
▁Séna	-11013
▁Séni	-11014
▁Sésa	-11015
▁dinè	-11016
▁lègè	-11017
Somali	-11018
jikônô	-11019
kônôtô	-11020
kɔrɔta	-11021
mafenw	-11022
▁Daesh	-11023
▁Dakun	-11024
▁Hangi	-11025
▁Julle	-11026
▁Manss	-11027
▁Opera	-11028
▁Soufe	-11029
▁Vichy	-11030
▁ganan	-11031
▁gansi	-11032
▁kenya	-11033
▁yêrêy	-11034
arikouw	-11035
lénfenw	-11036
èreinbô	-11037
▁Bresil	-11038
▁Juifou	-11039
▁Jullet	-11040
▁Morako	-11041
▁Soupon	-11042
▁Sésame	-11043
▁gnongo	-11044
▁gnonni	-11045
▁gɛrɛsi	-11046
▁kêlêkê	-11047
▁lakônô	-11048
▁lalôla	-11049
▁lègèsè	-11050
▁mifenw	-11051
▁owaati	-11052
▁sènèla	-11053
▁tilanè	-11054
jourouyé	-11055
▁Cellili	-11056
▁Cetiguè	-11057
▁Choudry	-11058
▁Christi	-11059
▁Cuddeba	-11060
▁Dantchè	-11061
▁Darwini	-11062
▁Denbaya	-11063
▁Dominic	-11064
▁Dounian	-11065
▁Downing	-11066
▁Dreamer	-11067
▁Dunkirk	-11068
▁Egilisi	-11069
▁Eighmey	-11070
▁Elicôpi	-11071
▁Ephesus	-11072
▁Espagni	-11073
▁Fairban	-11074
▁Falcone	-11075
▁Faranci	-11076
▁Faraonw	-11077
▁Floridi	-11078
▁Formosa	-11079
▁Francis	-11080
▁Galasie	-11081
▁Galille	-11082
▁Gardian	-11083
▁General	-11084
▁Georges	-11085
▁Giovian	-11086
▁Gnagali	-11087
▁Gnamôgô	-11088
▁Golfibé	-11089
▁Gouèlèw	-11090
▁Gridley	-11091
▁Hancock	-11092
▁Harapan	-11093
▁Harvick	-11094
▁Hasting	-11095
▁Headley	-11096
▁Hitoshi	-11097
▁Iceland	-11098
▁Ikonomi	-11099
auw	-11100
uwe	-11101
uwen	-11102
woyo	-11103
ynch	-11104
mbley	-11105
teauw	-11106
yanir	-11107
ynchr	-11108
èyèlè	-11109
▁ecno	-11110
▁luwi	-11111
▁miuw	-11112
▁néla	-11113
▁skiw	-11114
▁tôuw	-11115
▁zuwe	-11116
cogolé	-11117
misali	-11118
muyani	-11119
ourley	-11120
woyoba	-11121
▁Djeri	-11122
▁Zuwen	-11123
▁bènbè	-11124
▁bènli	-11125
▁corow	-11126
▁dalil	-11127
▁fieri	-11128
▁tohon	-11129
▁waato	-11130
keleman	-11131
kouyani	-11132
tcogolé	-11133
▁Blogui	-11134
▁Canaan	-11135
▁Cyanir	-11136
▁Dèyèlè	-11137
▁Wayagi	-11138
▁bènkan	-11139
▁ecnomi	-11140
▁farawo	-11141
▁sangué	-11142
▁sekoyé	-11143
▁soneri	-11144
▁tacogo	-11145
▁tamaki	-11146
▁warayé	-11147
▁woyola	-11148
kouyaniw	-11149
ynchroni	-11150
▁Gourley	-11151
▁Indienw	-11152
▁Intihua	-11153
▁Islande	-11154
▁Islands	-11155
▁Jelinek	-11156
▁Joaquim	-11157
▁Kechagi	-11158
▁Koumala	-11159
▁Krutche	-11160
▁Kumaden	-11161
▁Kunsèmè	-11162
▁Kèmèssi	-11163
▁Kɔrɔfli	-11164
▁Livuruw	-11165
▁Lolohou	-11166
▁Londiri	-11167
▁Louison	-11168
▁Macinin	-11169
▁Mantouv	-11170
▁Mapuchi	-11171
▁Marciej	-11172
▁Minanba	-11173
▁Minisri	-11174
▁Minisry	-11175
▁Montana	-11176
▁Montero	-11177
▁Mukoson	-11178
▁Nazaraw	-11179
▁Norvegi	-11180
▁Oakland	-11181
▁Oldrich	-11182
▁Ontario	-11183
▁Orlando	-11184
▁Orleyan	-11185
▁Paleont	-11186
▁Pankuru	-11187
▁Paragou	-11188
▁Pattave	-11189
▁Piccolo	-11190
▁Poroduc	-11191
▁Pradesh	-11192
▁Premier	-11193
▁Roberts	-11194
▁Rodrigo	-11195
▁Romainw	-11196
▁Rumelia	-11197
▁Saboula	-11198
▁Sanfine	-11199
▁ɛk	-11200
ames	-11201
eber	-11202
géla	-11203
gési	-11204
géti	-11205
étéo	-11206
étéw	-11207
▁Agé	-11208
James	-11209
ghara	-11210
grade	-11211
ority	-11212
▁Muso	-11213
▁Open	-11214
▁Park	-11215
▁Scan	-11216
▁cone	-11217
▁dégé	-11218
▁kéni	-11219
▁sôna	-11220
buruku	-11221
mpisiw	-11222
munity	-11223
yagéla	-11224
▁Agéen	-11225
▁Cambo	-11226
▁Liyon	-11227
▁Pekin	-11228
▁bangé	-11229
▁conek	-11230
▁dimiw	-11231
▁dingo	-11232
▁gouli	-11233
▁kélen	-11234
▁météo	-11235
▁mɔndi	-11236
▁niayé	-11237
▁otuma	-11238
▁wolvi	-11239
adsides	-11240
erinako	-11241
ralisiw	-11242
rassion	-11243
rengéti	-11244
thority	-11245
▁Bieber	-11246
▁Musoka	-11247
▁dimila	-11248
▁jɛnsɛn	-11249
▁kosebe	-11250
▁kossôn	-11251
▁kèlèpé	-11252
▁lagési	-11253
▁loloss	-11254
▁maminè	-11255
▁natarô	-11256
▁yɔngon	-11257
▁Mission	-11258
▁Sangasô	-11259
▁Sanskri	-11260
▁Sarasva	-11261
▁Schwarz	-11262
▁Scottur	-11263
▁Shekhar	-11264
▁Siraban	-11265
▁Sneider	-11266
▁Stanley	-11267
▁Tamasse	-11268
▁Tanzani	-11269
▁Texassi	-11270
▁Touandô	-11271
▁Transni	-11272
▁Trésori	-11273
▁Tsunami	-11274
▁Téréman	-11275
▁UNESICO	-11276
▁Urunqui	-11277
▁Uthappa	-11278
▁Vautier	-11279
▁Virgini	-11280
▁Wembley	-11281
▁Westjet	-11282
▁Westmin	-11283
▁Whitefa	-11284
▁Woloman	-11285
▁Woulafè	-11286
▁Zélandi	-11287
▁accidan	-11288
▁affairi	-11289
▁agenciw	-11290
▁alaséli	-11291
▁alleman	-11292
▁aminnan	-11293
▁amériki	-11294
▁anbéssé	-11295
▁arabalo	-11296
▁arabouw	-11297
▁aritifi	-11298
▁atagani	-11299
468	-11300
bɔmu	-11301
xies	-11302
▁Sup	-11303
▁Zap	-11304
▁nân	-11305
4684,	-11306
hanes	-11307
ponèw	-11308
pteri	-11309
stice	-11310
▁Gate	-11311
▁Rahu	-11312
▁Rust	-11313
▁Zapa	-11314
▁mabɔ	-11315
▁nânâ	-11316
loniya	-11317
phanes	-11318
piteri	-11319
yamogo	-11320
▁Djabi	-11321
▁Djago	-11322
▁Kashi	-11323
▁Rahul	-11324
▁Sulli	-11325
▁Supli	-11326
▁biéli	-11327
▁gbela	-11328
▁gbema	-11329
▁glace	-11330
▁kooba	-11331
▁koofo	-11332
▁mishi	-11333
▁poroj	-11334
copteri	-11335
telisti	-11336
▁Rusten	-11337
▁Safina	-11338
▁Zapate	-11339
▁Zapônè	-11340
▁douniy	-11341
▁flashi	-11342
▁gbelin	-11343
▁logoba	-11344
▁moteri	-11345
▁poroga	-11346
▁porojé	-11347
▁soloni	-11348
espresso	-11349
konnonfé	-11350
▁Cadeira	-11351
▁Djamina	-11352
▁Japonai	-11353
▁Japonnè	-11354
▁Kashiwa	-11355
▁Suplicy	-11356
▁akonnon	-11357
▁atomiki	-11358
▁ayerela	-11359
▁ayêrêta	-11360
▁bagatow	-11361
▁baimanw	-11362
▁balawou	-11363
▁baltici	-11364
▁bangeli	-11365
▁bangera	-11366
▁bangira	-11367
▁barikam	-11368
▁barkela	-11369
▁barrada	-11370
▁basketi	-11371
▁bavaria	-11372
▁benioka	-11373
▁benkola	-11374
▁bessira	-11375
▁bienjan	-11376
▁binburu	-11377
▁birichi	-11378
▁bisabaw	-11379
▁bisséka	-11380
▁bolahou	-11381
▁bonbons	-11382
▁bouotoh	-11383
▁boutonw	-11384
▁brébéba	-11385
▁bunteni	-11386
▁bznkani	-11387
▁bènkama	-11388
▁bèssira	-11389
▁bônkônô	-11390
▁bônmina	-11391
▁bôssili	-11392
▁caesium	-11393
▁caktusi	-11394
▁calaman	-11395
▁cameras	-11396
▁capsule	-11397
▁capteur	-11398
▁caraibe	-11399
ckei	-11400
fuye	-11401
hufu	-11402
▁Afg	-11403
▁Mux	-11404
▁arm	-11405
▁kph	-11406
cquou	-11407
fonyé	-11408
gɛnin	-11409
indou	-11410
kinda	-11411
mètiw	-11412
▁1889	-11413
▁dôna	-11414
▁dôno	-11415
▁kafu	-11416
Hindou	-11417
anagbe	-11418
bôkuma	-11419
cachon	-11420
fonnon	-11421
gbekan	-11422
▁1889,	-11423
▁Afoug	-11424
▁Afrik	-11425
▁Khufu	-11426
▁Muxlo	-11427
▁Tifon	-11428
▁indou	-11429
▁iniyé	-11430
▁nônôn	-11431
▁walla	-11432
gistiki	-11433
kounabô	-11434
▁Afghan	-11435
▁Greene	-11436
▁Krezel	-11437
▁Muxloe	-11438
▁Soyouz	-11439
▁blakei	-11440
▁cariti	-11441
▁gnagbe	-11442
▁mugusu	-11443
▁nèguèw	-11444
▁plagiw	-11445
▁tansôn	-11446
▁tickei	-11447
endelwal	-11448
karamôgô	-11449
rafourou	-11450
▁Comètiw	-11451
▁Karachi	-11452
▁afonnon	-11453
▁cemanve	-11454
▁centimè	-11455
▁central	-11456
▁chamayé	-11457
▁coaster	-11458
▁communi	-11459
▁comparé	-11460
▁contina	-11461
▁corossi	-11462
▁couleri	-11463
▁couragi	-11464
▁cɛɲuman	-11465
▁dakunla	-11466
▁damimin	-11467
▁danféng	-11468
▁datugun	-11469
▁deimein	-11470
▁deissei	-11471
▁demisén	-11472
▁dendjow	-11473
▁dessera	-11474
▁diguila	-11475
▁dinmini	-11476
▁dinosor	-11477
▁diyanan	-11478
▁dizairi	-11479
▁djaabiw	-11480
▁djamdja	-11481
▁djamnan	-11482
▁djemeli	-11483
▁djidala	-11484
▁djogoha	-11485
▁djoroni	-11486
▁djuguya	-11487
▁djukôrô	-11488
▁djènsèn	-11489
▁djélibo	-11490
▁dogonan	-11491
▁dogonin	-11492
▁dominin	-11493
▁dortoro	-11494
▁dotorow	-11495
▁dowerew	-11496
▁dugnara	-11497
▁dèrènan	-11498
▁déguéré	-11499
lls	-11500
yèr	-11501
yèw	-11502
ɔtɔ	-11503
céan	-11504
céla	-11505
doxi	-11506
llsw	-11507
xide	-11508
xiou	-11509
▁Ish	-11510
banaz	-11511
diney	-11512
fiyèw	-11513
gorie	-11514
gwêlê	-11515
llman	-11516
rieli	-11517
torua	-11518
êlêla	-11519
êlêni	-11520
▁Kham	-11521
▁Kêlê	-11522
▁boyè	-11523
▁flàw	-11524
▁hola	-11525
▁lacé	-11526
▁maxi	-11527
▁miyè	-11528
céladu	-11529
diomou	-11530
lafenw	-11531
llswor	-11532
olvila	-11533
osyété	-11534
yêlêla	-11535
ôrôbla	-11536
▁dooke	-11537
▁môssô	-11538
▁océan	-11539
▁série	-11540
▁ôriki	-11541
▁ôyôrô	-11542
ganisan	-11543
itutaki	-11544
rieliye	-11545
tangani	-11546
thodoxi	-11547
tégorie	-11548
urunali	-11549
yèryèrè	-11550
▁Assiri	-11551
▁Ishina	-11552
▁Obanaz	-11553
▁bakuru	-11554
▁darike	-11555
▁fagani	-11556
▁kolabê	-11557
▁sôbèra	-11558
▁ullman	-11559
▁ɲanɔtɔ	-11560
llsworth	-11561
sanfiyèw	-11562
▁Alexiou	-11563
▁Comores	-11564
▁Doumini	-11565
▁Firansi	-11566
▁Galassi	-11567
▁Khamene	-11568
▁Nôrôbla	-11569
▁Rotorua	-11570
▁Sosyété	-11571
▁Sydiney	-11572
▁dioxide	-11573
▁dôkônon	-11574
▁dônkala	-11575
▁economi	-11576
▁ecozone	-11577
▁enkenti	-11578
▁essenci	-11579
▁faamanw	-11580
▁facture	-11581
▁fafarni	-11582
▁falenfe	-11583
▁fanbèfè	-11584
▁fankele	-11585
▁fannani	-11586
▁faragwê	-11587
▁fasodén	-11588
▁faumuya	-11589
▁federal	-11590
▁femisse	-11591
▁fenètri	-11592
▁filanaw	-11593
▁filèféw	-11594
▁fitinou	-11595
▁fiyènan	-11596
▁fiéréla	-11597
▁foonênê	-11598
▁foronko	-11599
ttp	-11600
ctée	-11601
▁Coo	-11602
▁Coû	-11603
▁Ree	-11604
▁Tay	-11605
▁WIF	-11606
▁Rece	-11607
▁Reed	-11608
▁WIFI	-11609
▁Wade	-11610
▁akow	-11611
▁http	-11612
dindin	-11613
lonkow	-11614
pereni	-11615
sionnè	-11616
tôkélé	-11617
▁Airwa	-11618
▁Breta	-11619
▁Cocha	-11620
▁Coper	-11621
▁Cover	-11622
▁Coûro	-11623
▁Recep	-11624
▁Taala	-11625
▁Tagan	-11626
▁Tayyi	-11627
▁Tchan	-11628
▁guunn	-11629
▁kokow	-11630
▁Cooper	-11631
▁Coûroû	-11632
▁Italie	-11633
▁Mitoro	-11634
▁Nasion	-11635
▁Polisi	-11636
▁Tayyip	-11637
▁Wakati	-11638
▁antoro	-11639
▁lactée	-11640
▁lafiri	-11641
▁séngui	-11642
dindinla	-11643
sionnèli	-11644
tchèkélé	-11645
▁Airways	-11646
▁Cochamo	-11647
▁Coverci	-11648
▁Coûroûn	-11649
▁Jiménez	-11650
▁Octobru	-11651
▁Taganan	-11652
▁atôkélé	-11653
▁fambara	-11654
▁foronto	-11655
▁founoun	-11656
▁fouteni	-11657
▁fénètri	-11658
▁féréfin	-11659
▁gagnéla	-11660
▁galaxie	-11661
▁gbagban	-11662
▁gbiliya	-11663
▁gbinlin	-11664
▁gbinnan	-11665
▁gbiriya	-11666
▁gnafèla	-11667
▁gnagban	-11668
▁gnalôni	-11669
▁gnamata	-11670
▁gnasini	-11671
▁gnigari	-11672
▁gnonkan	-11673
▁gnèfenw	-11674
▁gnènabô	-11675
▁gnômini	-11676
▁gongnon	-11677
▁gouvènè	-11678
▁guintan	-11679
▁gwèrèni	-11680
▁gwêlêni	-11681
▁hauteur	-11682
▁ignonni	-11683
▁ilabain	-11684
▁indiyèn	-11685
▁itounka	-11686
▁japonèw	-11687
▁jaramin	-11688
▁joginna	-11689
▁justice	-11690
▁kabouoh	-11691
▁kaburuw	-11692
▁kachaya	-11693
▁kadogoh	-11694
▁kagwèlè	-11695
▁kahanka	-11696
▁kalikan	-11697
▁kamsôrô	-11698
▁kanbôla	-11699
APS	-11700
▁$1	-11701
bena	-11702
jate	-11703
roja	-11704
jalan	-11705
lowki	-11706
lônaw	-11707
lônni	-11708
▁$100	-11709
bentan	-11710
sitemu	-11711
tchiya	-11712
▁Faraf	-11713
▁Farag	-11714
▁blani	-11715
▁julôn	-11716
▁lolow	-11717
▁lôben	-11718
▁teben	-11719
anjalan	-11720
jatelan	-11721
kêyôrôw	-11722
lanikaw	-11723
▁Angkor	-11724
▁Faragb	-11725
▁Saroja	-11726
▁balani	-11727
▁kafôko	-11728
▁katchi	-11729
▁kodjou	-11730
▁milimé	-11731
▁mitouè	-11732
▁sisitɛ	-11733
▁sédjou	-11734
▁tilani	-11735
▁tolini	-11736
chikèlaw	-11737
rangongo	-11738
▁dénbaya	-11739
▁karatiw	-11740
▁karilow	-11741
▁kaspièn	-11742
▁kassara	-11743
▁kassorô	-11744
▁kegneli	-11745
▁kelepen	-11746
▁kemeshi	-11747
▁kiriyôn	-11748
▁kissila	-11749
▁kisèman	-11750
▁kliniki	-11751
▁kodinge	-11752
▁koforla	-11753
▁kofôniw	-11754
▁kokeniw	-11755
▁kokrayé	-11756
▁kokɛtaw	-11757
▁kolabên	-11758
▁konodon	-11759
▁koronan	-11760
▁koronya	-11761
▁korotor	-11762
▁korowka	-11763
▁koréyèn	-11764
▁kotogui	-11765
▁koulako	-11766
▁koulétô	-11767
▁kounbin	-11768
▁koungsô	-11769
▁krapfen	-11770
▁kunsèmè	-11771
▁kuradow	-11772
▁kurunin	-11773
▁kèlèdéw	-11774
▁kèmandi	-11775
▁kélépén	-11776
▁kérédiw	-11777
▁kêlahou	-11778
▁kêrênkê	-11779
▁kôdjila	-11780
▁kôkanfé	-11781
▁kônônas	-11782
▁kônôtôn	-11783
▁kôsegui	-11784
▁kôssôbè	-11785
▁kôségui	-11786
▁labenka	-11787
▁labenni	-11788
▁labilla	-11789
▁labinli	-11790
▁labènin	-11791
▁labènna	-11792
▁labénni	-11793
▁labënya	-11794
▁ladilan	-11795
▁ladjèla	-11796
▁ladjôli	-11797
▁laereya	-11798
▁lagnaga	-11799
tsk	-11800
uts	-11801
▁37	-11802
▁378	-11803
▁Ham	-11804
▁Haï	-11805
▁Ihé	-11806
▁fên	-11807
eigue	-11808
pibli	-11809
trabo	-11810
▁Ambé	-11811
▁Dibi	-11812
▁Dimi	-11813
▁Fasa	-11814
▁Haki	-11815
▁Pila	-11816
▁jeke	-11817
▁nôsé	-11818
▁sɔɔn	-11819
demiki	-11820
eiguew	-11821
ramide	-11822
trigue	-11823
utsche	-11824
▁Aleis	-11825
▁Cuomo	-11826
▁Dilan	-11827
▁Diyan	-11828
▁Dougn	-11829
▁Grèsi	-11830
▁Haïti	-11831
▁Mouso	-11832
▁abésé	-11833
▁algue	-11834
▁balao	-11835
▁drôgi	-11836
▁intra	-11837
▁jemin	-11838
▁miube	-11839
▁nôôrô	-11840
▁ofaga	-11841
▁sɔɔni	-11842
▁têmin	-11843
▁tônba	-11844
▁tônou	-11845
▁tônôn	-11846
fagalan	-11847
genfaga	-11848
gueyoro	-11849
▁Aleisk	-11850
▁Allies	-11851
▁Diinan	-11852
▁Hamlin	-11853
▁Pilato	-11854
▁Strabo	-11855
▁nôogon	-11856
▁nôyôrô	-11857
▁takisi	-11858
▁tomati	-11859
▁versus	-11860
fagayôrô	-11861
ininkèta	-11862
▁Alessan	-11863
▁Batosso	-11864
▁Diamana	-11865
▁Irkutsk	-11866
▁Johndro	-11867
▁balaoba	-11868
▁gnanfei	-11869
▁jeiguew	-11870
▁lagnina	-11871
▁laguila	-11872
▁lakissi	-11873
▁lalikan	-11874
▁lamaraa	-11875
▁lassama	-11876
▁lassela	-11877
▁lasséli	-11878
▁latigue	-11879
▁latinan	-11880
▁lekonon	-11881
▁lesseni	-11882
▁lfitini	-11883
▁logokun	-11884
▁lokagni	-11885
▁lolohou	-11886
▁londiri	-11887
▁léyénon	-11888
▁lônigwè	-11889
▁lônkoya	-11890
▁mabouoh	-11891
▁madimin	-11892
▁madjigi	-11893
▁madogon	-11894
▁magnôgô	-11895
▁mahngan	-11896
▁mailbou	-11897
▁mammals	-11898
▁manifes	-11899
▁-3	-11900
▁-8	-11901
mbèn	-11902
reil	-11903
tail	-11904
▁-32	-11905
bènni	-11906
chael	-11907
chain	-11908
chare	-11909
kubèn	-11910
llyon	-11911
wgolo	-11912
▁-328	-11913
▁-820	-11914
▁Fort	-11915
▁News	-11916
▁Nord	-11917
▁Tcha	-11918
▁Tian	-11919
▁Tibe	-11920
▁Tigi	-11921
▁Yose	-11922
▁cola	-11923
▁cost	-11924
▁fènw	-11925
▁offi	-11926
▁uwbé	-11927
cktail	-11928
kunbèn	-11929
▁-328-	-11930
▁-820-	-11931
▁fotow	-11932
▁koffo	-11933
▁masaw	-11934
▁monne	-11935
▁monou	-11936
charest	-11937
chariya	-11938
formoun	-11939
gnindon	-11940
gninnan	-11941
gnègnin	-11942
koumbèn	-11943
ppareil	-11944
▁Tianla	-11945
▁Uniyon	-11946
▁Yosemi	-11947
▁bohoun	-11948
▁colabè	-11949
▁fotola	-11950
▁fotosi	-11951
▁kegnin	-11952
▁kunbèn	-11953
▁kègnin	-11954
▁office	-11955
▁senaya	-11956
▁tolila	-11957
manchain	-11958
▁-820-).	-11959
▁Michael	-11960
▁Tibetan	-11961
▁bèrèbèn	-11962
▁faranni	-11963
▁faranra	-11964
▁kangnin	-11965
▁mantcha	-11966
▁mantraw	-11967
▁masuman	-11968
▁matchiw	-11969
▁mathema	-11970
▁medecin	-11971
▁membrou	-11972
▁metriki	-11973
▁mikônon	-11974
▁militia	-11975
▁miliyon	-11976
▁miliyɔn	-11977
▁millyon	-11978
▁milonni	-11979
▁minbena	-11980
▁mininla	-11981
▁mininni	-11982
▁ministè	-11983
▁minougu	-11984
▁miriiya	-11985
▁missinn	-11986
▁missêni	-11987
▁monsieu	-11988
▁mousoba	-11989
▁môbiliw	-11990
▁nanfolo	-11991
▁nangili	-11992
▁nantoro	-11993
▁nimafen	-11994
▁ninandi	-11995
▁ningazi	-11996
▁nombrou	-11997
▁nonfèko	-11998
▁noukala	-11999
dhya	-12000
geum	-12001
over	-12002
vers	-12003
cianw	-12004
ssium	-12005
tôgôw	-12006
ummin	-12007
▁Abei	-12008
▁Erie	-12009
▁Obei	-12010
▁Seen	-12011
▁Sege	-12012
▁Yele	-12013
▁bêla	-12014
▁dinê	-12015
bananw	-12016
gilikè	-12017
gnégui	-12018
lenanw	-12019
ongeum	-12020
▁Prote	-12021
▁Saanw	-12022
▁Seali	-12023
▁Seoun	-12024
▁Seyan	-12025
▁Ségui	-12026
▁djogi	-12027
▁guver	-12028
▁overs	-12029
▁scori	-12030
▁tenin	-12031
tassium	-12032
▁Canana	-12033
▁Hummin	-12034
▁Kerala	-12035
▁Madhya	-12036
▁Obeila	-12037
▁Vision	-12038
▁Yèlèda	-12039
▁bêjugu	-12040
▁djoona	-12041
▁djossa	-12042
▁gnigni	-12043
▁gniyan	-12044
▁ibissé	-12045
▁siégui	-12046
▁tananw	-12047
▁tenala	-12048
▁tournè	-12049
▁töröla	-12050
▁yôrôwh	-12051
enicianw	-12052
filenanw	-12053
hailandi	-12054
namanhou	-12055
soumanan	-12056
▁Hanover	-12057
▁Protein	-12058
▁Sealion	-12059
▁Seenkow	-12060
▁Setigui	-12061
▁dumanyé	-12062
▁guverni	-12063
▁minlikè	-12064
▁nuclére	-12065
▁nyamogo	-12066
▁nyèsile	-12067
▁nônyara	-12068
▁nɛmɔgɔw	-12069
▁occidan	-12070
▁okognan	-12071
▁olugula	-12072
▁olékama	-12073
▁olɛnpik	-12074
▁omiriya	-12075
▁onzairi	-12076
▁organis	-12077
▁otumana	-12078
▁oyèrèla	-12079
▁pasimɛr	-12080
▁pasipor	-12081
▁pasélan	-12082
▁photota	-12083
▁pintiri	-12084
▁piriniw	-12085
▁plasini	-12086
▁plateau	-12087
▁porotôn	-12088
▁porovèn	-12089
▁produit	-12090
▁prètriw	-12091
▁publici	-12092
▁péréfèc	-12093
▁pôtabli	-12094
▁reservo	-12095
▁romainw	-12096
▁rôssama	-12097
▁saariya	-12098
▁sabbabu	-12099
rɛt	-12100
▁brɛ	-12101
▁shô	-12102
fendi	-12103
libon	-12104
nindè	-12105
teske	-12106
thèni	-12107
▁abon	-12108
▁djôô	-12109
▁korh	-12110
farada	-12111
kosiri	-12112
laboli	-12113
manaya	-12114
sirila	-12115
▁Djila	-12116
▁Djiya	-12117
▁campa	-12118
▁djôri	-12119
▁kandè	-12120
▁kɔngɔ	-12121
▁towma	-12122
barakan	-12123
rafendi	-12124
▁Athèni	-12125
▁Djikan	-12126
▁Kafara	-12127
▁agensi	-12128
▁amassé	-12129
▁bisara	-12130
▁danfen	-12131
▁dasiri	-12132
▁djôssi	-12133
▁kafara	-12134
▁korhor	-12135
▁korkan	-12136
▁korlon	-12137
▁korron	-12138
▁kènidè	-12139
▁kôtugu	-12140
▁lassin	-12141
▁mafara	-12142
▁misiri	-12143
▁sindji	-12144
▁tiléni	-12145
ationali	-12146
bolibolo	-12147
▁Djikôrô	-12148
▁aboneri	-12149
▁bognôrô	-12150
▁borifen	-12151
▁djagaro	-12152
▁djegnan	-12153
▁kitibon	-12154
▁lilibon	-12155
▁sangoro	-12156
▁sankuru	-12157
▁sannira	-12158
▁sanyele	-12159
▁saranda	-12160
▁saturni	-12161
▁science	-12162
▁seereya	-12163
▁seventh	-12164
▁shumina	-12165
▁siginfe	-12166
▁signali	-12167
▁siifèli	-12168
▁silabaw	-12169
▁silamin	-12170
▁siradag	-12171
▁siradow	-12172
▁sistemu	-12173
▁sitting	-12174
▁sognani	-12175
▁sooboli	-12176
▁sorasiw	-12177
▁sororli	-12178
▁sosètiw	-12179
▁soufèla	-12180
▁soumara	-12181
▁sounôgo	-12182
▁sourafê	-12183
▁soutara	-12184
▁sovièti	-12185
▁srankan	-12186
▁stanley	-12187
▁stewart	-12188
▁stôckiw	-12189
▁summada	-12190
▁surunya	-12191
▁systemu	-12192
▁sékoféw	-12193
▁sénbôra	-12194
▁sénsaba	-12195
▁sôgônin	-12196
▁sôssôli	-12197
▁sɛbɛnin	-12198
▁tableti	-12199
ocu	-12200
Oper	-12201
elén	-12202
hopp	-12203
linj	-12204
mond	-12205
mono	-12206
monô	-12207
▁Tpp	-12208
▁Upp	-12209
▁Été	-12210
fɛndi	-12211
linpi	-12212
ocula	-12213
torum	-12214
ymond	-12215
▁Manc	-12216
▁Natu	-12217
▁Soda	-12218
▁card	-12219
▁pole	-12220
dinavi	-12221
elénni	-12222
monose	-12223
monôti	-12224
ogonya	-12225
olomon	-12226
tékélé	-12227
walima	-12228
▁Djida	-12229
▁Madam	-12230
▁Schle	-12231
▁Shopp	-12232
▁Simon	-12233
▁Solan	-12234
▁Tpper	-12235
▁djôti	-12236
▁domon	-12237
▁porou	-12238
linpiki	-12239
lényôrô	-12240
oculare	-12241
ralifɛn	-12242
sigiden	-12243
▁Fenton	-12244
▁Proven	-12245
▁Russiw	-12246
▁basigi	-12247
▁djèlén	-12248
▁dèmèli	-12249
▁kakèta	-12250
▁keilin	-12251
▁lamien	-12252
▁lawali	-12253
▁lilinj	-12254
▁masama	-12255
▁nasigi	-12256
▁yirede	-12257
Opertion	-12258
intékélé	-12259
monoseki	-12260
yroscope	-12261
yéelénni	-12262
▁Alasika	-12263
▁Mancuni	-12264
▁Raymond	-12265
▁Schlege	-12266
▁Solanki	-12267
▁Solomon	-12268
▁Sotigui	-12269
▁Sédiman	-12270
▁Uppsala	-12271
▁akanôgô	-12272
▁diguein	-12273
▁djidili	-12274
▁ladinan	-12275
▁siniman	-12276
▁soussou	-12277
▁tachama	-12278
▁tagadju	-12279
▁tagasén	-12280
▁tagatoh	-12281
▁talonta	-12282
▁tananin	-12283
▁tandoli	-12284
▁tangala	-12285
▁tanyoro	-12286
▁tchanma	-12287
▁tchiain	-12288
▁tchiaiw	-12289
▁tchieiw	-12290
▁tebenan	-12291
▁therese	-12292
▁tigènin	-12293
▁tilanni	-12294
▁tilenan	-12295
▁tilébin	-12296
▁timiniw	-12297
▁tinmini	-12298
▁tintile	-12299
cles	-12300
Ïles	-12301
ïwan	-12302
diabi	-12303
dysse	-12304
imogo	-12305
jords	-12306
kèren	-12307
laisw	-12308
lesco	-12309
tinni	-12310
tinti	-12311
wanda	-12312
▁Jude	-12313
▁Wifi	-12314
▁nofe	-12315
▁nogô	-12316
▁noto	-12317
▁wila	-12318
▁wisa	-12319
▁Ïles	-12320
dilila	-12321
dyssey	-12322
kèrenn	-12323
risban	-12324
sinniw	-12325
tinnan	-12326
tirira	-12327
▁Casin	-12328
▁Gnami	-12329
▁kɛlɛw	-12330
▁ladia	-12331
▁luwan	-12332
▁patin	-12333
▁willi	-12334
agatimi	-12335
djinkan	-12336
lassion	-12337
lescope	-12338
nkèrenn	-12339
phocles	-12340
risbane	-12341
▁Farila	-12342
▁Judean	-12343
▁Katimi	-12344
▁Rwanda	-12345
▁Sachin	-12346
▁Taïwan	-12347
▁Tchèli	-12348
▁bèrèkè	-12349
▁djingn	-12350
▁fjords	-12351
▁itinti	-12352
▁lonaya	-12353
▁mètiri	-12354
▁takola	-12355
djiguili	-12356
metirira	-12357
timètèrè	-12358
tintinni	-12359
▁Booking	-12360
▁Casinow	-12361
▁Civilis	-12362
▁Odyssey	-12363
▁atouman	-12364
▁djinôgô	-12365
▁gnabola	-12366
▁lamissa	-12367
▁luwanse	-12368
▁republi	-12369
▁tchinni	-12370
▁tiyenli	-12371
▁tolatan	-12372
▁tonsigi	-12373
▁torohya	-12374
▁toronkè	-12375
▁touminè	-12376
▁tounbei	-12377
▁tountei	-12378
▁tournèw	-12379
▁trinmin	-12380
▁trésori	-12381
▁tubabou	-12382
▁tumadɔw	-12383
▁tunkadi	-12384
▁tôgnôgô	-12385
▁tôgômaw	-12386
▁version	-12387
▁votelaw	-12388
▁waajibi	-12389
▁wagakei	-12390
▁wolofla	-12391
▁woronic	-12392
▁wotchèw	-12393
▁woularô	-12394
▁woulini	-12395
▁wuléman	-12396
▁wèètchè	-12397
▁yagamou	-12398
▁yeimogo	-12399
gva	-12400
vaj	-12401
leil	-12402
▁Met	-12403
djata	-12404
pédji	-12405
round	-12406
rygva	-12407
sieli	-12408
▁Java	-12409
▁Neva	-12410
▁Rese	-12411
▁asie	-12412
housie	-12413
pitèni	-12414
tarani	-12415
▁Djigi	-12416
▁Metrè	-12417
▁folor	-12418
▁korôw	-12419
▁lôhla	-12420
▁panli	-12421
▁panna	-12422
▁panni	-12423
▁tlala	-12424
▁yamay	-12425
birilon	-12426
lendenw	-12427
sèguèli	-12428
▁Kabiri	-12429
▁Nevada	-12430
▁Resear	-12431
▁Shivaj	-12432
▁Soleil	-12433
▁Trygva	-12434
▁bulala	-12435
▁dogole	-12436
▁logofi	-12437
▁nehman	-12438
▁pankun	-12439
▁sirani	-12440
▁tranyé	-12441
▁wéléla	-12442
▁yaloya	-12443
alhousie	-12444
taranilo	-12445
▁Kôssôbè	-12446
▁Wayagiw	-12447
▁bassigi	-12448
▁bèssôrô	-12449
▁logofie	-12450
▁touroun	-12451
▁uyèrèla	-12452
▁wéléliw	-12453
▁yirigaa	-12454
▁yàràman	-12455
▁yéllèli	-12456
▁yôrôwla	-12457
▁zelande	-12458
▁zouroun	-12459
▁ôrikidé	-12460
▁ɔrleyan	-12461
▁ɲɛnɛman	-12462
amaiikika	-12463
anadjigui	-12464
anjalanka	-12465
bognasira	-12466
cationmin	-12467
chnologie	-12468
cientifiw	-12469
côssimôti	-12470
dénmisinw	-12471
ellington	-12472
fangamanw	-12473
fongnonni	-12474
ganinsira	-12475
ganisanhu	-12476
gnananman	-12477
gnindonda	-12478
gnoumaniw	-12479
gnoumankô	-12480
gorongoro	-12481
guèrènila	-12482
hatrapati	-12483
hendelwal	-12484
ineapolis	-12485
inisôgôma	-12486
jankongow	-12487
kilassion	-12488
kissèyara	-12489
kolossili	-12490
komissèri	-12491
konnonfin	-12492
kourakèra	-12493
lopitecus	-12494
lunkutuni	-12495
magnanman	-12496
manyafinw	-12497
matiguêlé	-12498
matiseriw	-12499
+1)	-12500
moc	-12501
moto	-12502
udia	-12503
zaak	-12504
▁Ald	-12505
▁mph	-12506
cimen	-12507
doron	-12508
fasto	-12509
foron	-12510
kedaw	-12511
kuraw	-12512
menan	-12513
modén	-12514
mérik	-12515
êrêkê	-12516
▁Aldw	-12517
▁brik	-12518
▁dɛsɛ	-12519
▁fêrê	-12520
▁kisɛ	-12521
▁limo	-12522
▁mayè	-12523
Amérik	-12524
cimens	-12525
goyala	-12526
inette	-12527
mobili	-12528
ologne	-12529
▁Aldwy	-12530
▁Democ	-12531
▁Izaak	-12532
▁Toron	-12533
▁bɛrna	-12534
▁condè	-12535
▁coron	-12536
▁gnamo	-12537
▁horon	-12538
▁ikakè	-12539
lingsha	-12540
ssabati	-12541
▁COVIDI	-12542
▁Caudia	-12543
▁Greece	-12544
▁Hussar	-12545
▁bɛrnar	-12546
▁combaw	-12547
▁diagne	-12548
▁famuna	-12549
▁hotels	-12550
baliyala	-12551
doronfin	-12552
pecimens	-12553
risitali	-12554
toinette	-12555
yalayala	-12556
▁Aldwych	-12557
▁Anatoli	-12558
▁Cologne	-12559
▁Lafasto	-12560
▁Lamodén	-12561
▁Toronto	-12562
▁diyanye	-12563
▁horonya	-12564
▁kemenan	-12565
▁ladjigi	-12566
▁mɔndial	-12567
▁negesso	-12568
▁sôrôdaw	-12569
lingshaus	-12570
négativou	-12571
ogonôgôya	-12572
onyanyini	-12573
ougnôngôw	-12574
ougouyaba	-12575
ourougouy	-12576
raigslist	-12577
riceratop	-12578
rikourouw	-12579
ronbolila	-12580
rzezinski	-12581
shannessy	-12582
sigidenya	-12583
specimens	-12584
ssoumanba	-12585
stitution	-12586
surafendi	-12587
sèbènninw	-12588
tchianman	-12589
tchèforon	-12590
tilenyôrô	-12591
ucanianhu	-12592
urmoussow	-12593
velopeman	-12594
vernement	-12595
viritiali	-12596
vèrènèman	-12597
woronfila	-12598
yasriyôrô	-12599
ksbu	-12600
▁Cir	-12601
▁cir	-12602
einli	-12603
gnein	-12604
mafén	-12605
yiraw	-12606
▁Film	-12607
▁Yaku	-12608
▁fusé	-12609
▁sinu	-12610
dawolo	-12611
dugufa	-12612
ksburi	-12613
tabaya	-12614
▁Karno	-12615
▁Nyira	-12616
▁Yakub	-12617
▁djouk	-12618
▁hurri	-12619
▁sinua	-12620
▁wouri	-12621
bilisen	-12622
kolisso	-12623
koundaw	-12624
senkoun	-12625
▁Cirque	-12626
▁Dugumè	-12627
▁Halifa	-12628
▁Halisa	-12629
▁Sinnin	-12630
▁béséka	-12631
▁dabôli	-12632
▁djidaw	-12633
▁djouba	-12634
▁djoubô	-12635
▁djoula	-12636
▁djouni	-12637
▁djouya	-12638
▁kounah	-12639
▁tanikô	-12640
▁tilara	-12641
fadugufa	-12642
yirasèbè	-12643
ôbilisen	-12644
▁Halifax	-12645
▁Iraqkaw	-12646
▁balokan	-12647
▁borifén	-12648
▁djoukrô	-12649
▁founene	-12650
▁kouloub	-12651
▁koundaw	-12652
▁kègnein	-12653
▁nimafén	-12654
▁seguiko	-12655
▁seguitô	-12656
yongonman	-12657
yongonnan	-12658
èrènémanw	-12659
élévision	-12660
éological	-12661
êlêkênani	-12662
▁1995-96,	-12663
▁Adamande	-12664
▁Aitutaki	-12665
▁Alemagni	-12666
▁Alimagni	-12667
▁American	-12668
▁Anatolia	-12669
▁Anglaisw	-12670
▁Antartic	-12671
▁Arisitot	-12672
▁Articliw	-12673
▁Assyrian	-12674
▁Assyriye	-12675
▁Asumpink	-12676
▁Baarakun	-12677
▁Babyloni	-12678
▁Banabaga	-12679
▁Barcelon	-12680
▁Belgrade	-12681
▁Binganli	-12682
▁Bololalé	-12683
▁Botswana	-12684
▁Bouffalo	-12685
▁Bretagne	-12686
▁Brisbane	-12687
▁Buddhism	-12688
▁Bumthang	-12689
▁Byzantin	-12690
▁Callejon	-12691
▁Damadian	-12692
▁Danfeinw	-12693
▁Demessen	-12694
▁District	-12695
▁Djaabili	-12696
▁Djaabôli	-12697
▁Djabrani	-12698
▁Djamanna	-12699
94)	-12700
pov	-12701
Zulu	-12702
podi	-12703
polu	-12704
pore	-12705
poth	-12706
▁Wei	-12707
▁Yei	-12708
▁éfô	-12709
▁éji	-12710
hangi	-12711
maria	-12712
pouli	-12713
stria	-12714
unada	-12715
▁1980	-12716
▁Arya	-12717
▁Ruud	-12718
▁ambe	-12719
▁biei	-12720
▁bêlà	-12721
▁nuga	-12722
▁nuki	-12723
▁obei	-12724
▁ɲɛɲɛ	-12725
waZulu	-12726
▁Akiri	-12727
▁Delhi	-12728
▁Ipodi	-12729
▁Maria	-12730
▁Unión	-12731
▁Upolu	-12732
▁Weise	-12733
▁djein	-12734
▁frank	-12735
▁klala	-12736
▁sahan	-12737
▁sorro	-12738
▁sôrrô	-12739
▁yaria	-12740
▁éfôlà	-12741
pothèsi	-12742
▁(1994)	-12743
▁Biwôro	-12744
▁Eskimo	-12745
▁Nigata	-12746
▁bieila	-12747
▁bunada	-12748
▁dguini	-12749
▁fanhan	-12750
▁franni	-12751
▁grippe	-12752
▁groupu	-12753
▁guerre	-12754
▁karaan	-12755
▁karaté	-12756
▁karaya	-12757
▁laminè	-12758
▁loniya	-12759
▁éjiden	-12760
dékoulou	-12761
enkoulou	-12762
▁Bernard	-12763
▁KwaZulu	-12764
▁Mayorki	-12765
▁Yeimogo	-12766
▁anpouli	-12767
▁déguini	-12768
▁karadan	-12769
▁karaman	-12770
▁kunutaw	-12771
▁lankiri	-12772
▁tagafèn	-12773
▁têmênan	-12774
▁waraman	-12775
jenkoulou	-12776
▁Amérikiw	-12777
▁Djamanya	-12778
▁Dougouni	-12779
▁Dugutaga	-12780
▁Dôtôrôso	-12781
▁Ekouatèr	-12782
▁Equateur	-12783
▁Equatèri	-12784
▁Espagnol	-12785
▁Estonian	-12786
▁Ethelred	-12787
▁Ethiopie	-12788
▁Fairmont	-12789
▁Faragbgè	-12790
▁Farikoro	-12791
▁Fasodugu	-12792
▁Fernande	-12793
▁Filipini	-12794
▁Filipino	-12795
▁Fênbêrên	-12796
▁Fôlôfôlô	-12797
▁Galilleo	-12798
▁Geophysi	-12799
cium	-12800
sôro	-12801
▁gos	-12802
coura	-12803
▁Arab	-12804
▁funa	-12805
▁kasô	-12806
▁kosô	-12807
▁lètè	-12808
▁olaa	-12809
▁omer	-12810
alcium	-12811
minano	-12812
minanw	-12813
sèbèkè	-12814
▁Whist	-12815
▁borra	-12816
▁djèbè	-12817
▁djèfa	-12818
▁farra	-12819
▁goshi	-12820
▁lanti	-12821
▁lanyé	-12822
▁larra	-12823
▁nagua	-12824
▁proga	-12825
▁proki	-12826
▁proté	-12827
▁utôrô	-12828
minanri	-12829
siguili	-12830
thogoya	-12831
ôgôsèbè	-12832
▁Easter	-12833
▁Fahman	-12834
▁Gnanan	-12835
▁Kôsôbè	-12836
▁djèniw	-12837
▁fɔlɔla	-12838
▁lanfan	-12839
▁neutrô	-12840
▁prolon	-12841
▁sebeou	-12842
▁tminan	-12843
courakan	-12844
olitiqui	-12845
ortuguèw	-12846
pandansi	-12847
siguiliw	-12848
sôrosira	-12849
▁Calcium	-12850
▁chogoya	-12851
▁djèbèli	-12852
▁djègnon	-12853
▁dogôman	-12854
▁haminan	-12855
▁lantiyi	-12856
▁naguasi	-12857
▁neutrôn	-12858
▁prokirè	-12859
Politiqui	-12860
thogoyala	-12861
▁Gnanagbe	-12862
▁Gouarani	-12863
▁Gounkoun	-12864
▁Hastings	-12865
▁Hospital	-12866
▁Hydrogen	-12867
▁Icelandi	-12868
▁Iranienw	-12869
▁Iraqikaw	-12870
▁Ishinawa	-12871
▁Istanbul	-12872
▁Italienw	-12873
▁Italiyèn	-12874
▁Jamananw	-12875
▁Japonais	-12876
▁Japonaiw	-12877
▁Javanese	-12878
▁Jeongeum	-12879
▁Jiwoyoba	-12880
▁Johndroe	-12881
▁Jupiteri	-12882
▁Kalandéw	-12883
▁Kanbriji	-12884
▁Kapitèni	-12885
▁Katirina	-12886
▁Keimeisi	-12887
▁Khamenei	-12888
▁Kingsway	-12889
▁Kirchner	-12890
▁Kolokali	-12891
▁Konserva	-12892
▁Krutchev	-12893
▁Kunawolo	-12894
▁Kuruséfo	-12895
▁Kèmasôrô	-12896
▁Kôgôdugu	-12897
▁Lakôliso	-12898
▁Lantagne	-12899
arry	-12900
gouv	-12901
hôkè	-12902
mpou	-12903
mpro	-12904
mpsi	-12905
mpto	-12906
ryce	-12907
▁môm	-12908
▁môr	-12909
▁thè	-12910
betha	-12911
hanto	-12912
ryani	-12913
▁1922	-12914
▁môrf	-12915
arianw	-12916
bethae	-12917
flanan	-12918
fôlini	-12919
hantom	-12920
hotonw	-12921
korota	-12922
mpsire	-12923
mptomi	-12924
ryland	-12925
▁Larry	-12926
▁Nadia	-12927
▁Pryce	-12928
▁ampou	-12929
▁biliw	-12930
▁filiz	-12931
▁gbanz	-12932
▁minèw	-12933
▁sèliw	-12934
▁wulen	-12935
siyôrôw	-12936
téliban	-12937
utukawa	-12938
▁Mangan	-12939
▁Rampro	-12940
▁djaaba	-12941
▁fagaro	-12942
▁filizö	-12943
▁gbanli	-12944
▁gbanna	-12945
▁kimmim	-12946
▁kôhôkè	-12947
▁ladjin	-12948
▁minèra	-12949
▁sɛbɛni	-12950
maryland	-12951
ymnastic	-12952
zabethae	-12953
▁Alibele	-12954
▁Phantom	-12955
▁Photonw	-12956
▁djatéli	-12957
▁députéw	-12958
▁dônkili	-12959
▁famouli	-12960
▁faryani	-12961
▁filizöf	-12962
▁gbannan	-12963
▁gbansan	-12964
▁karande	-12965
▁karanma	-12966
▁kuruliw	-12967
▁kènèman	-12968
▁mômbili	-12969
▁môrfini	-12970
▁nôfèkow	-12971
▁walaliw	-12972
korotasse	-12973
ohutukawa	-12974
olofôlini	-12975
▁Lôgôtchè	-12976
▁Lônniyaw	-12977
▁Majorque	-12978
▁Massachu	-12979
▁Massatcè	-12980
▁Masubako	-12981
▁Militèri	-12982
▁Mitchell	-12983
▁Moldavie	-12984
▁Munumunu	-12985
▁Oldsmobi	-12986
▁Olinpiki	-12987
▁Olympici	-12988
▁Panthera	-12989
▁Pattavee	-12990
▁Pedrillo	-12991
▁Piratiou	-12992
▁Plitvice	-12993
▁Polinézi	-12994
▁Prokirer	-12995
▁Province	-12996
▁Repubiki	-12997
▁Republic	-12998
▁Research	-12999
fêla	-13000
mafê	-13001
quez	-13002
touw	-13003
▁Pau	-13004
arque	-13005
djouw	-13006
fêlaw	-13007
tchiê	-13008
ôkalo	-13009
▁Bibu	-13010
▁Biro	-13011
▁Bisi	-13012
▁Bouw	-13013
▁Jong	-13014
▁Nepa	-13015
▁Page	-13016
▁Paro	-13017
▁Pass	-13018
▁Pato	-13019
▁Souw	-13020
▁Touw	-13021
▁Wong	-13022
djanyé	-13023
ènkalo	-13024
▁Biguè	-13025
▁Bissi	-13026
▁Paget	-13027
▁Paulo	-13028
▁amina	-13029
▁deouw	-13030
▁déniw	-13031
▁lanpo	-13032
▁sôliw	-13033
atidjan	-13034
djankaw	-13035
golofin	-13036
êrêmafê	-13037
▁Armand	-13038
▁Bibulu	-13039
▁Biguèw	-13040
▁Jarque	-13041
▁Nepalè	-13042
▁bodjan	-13043
▁bédjan	-13044
▁filɛni	-13045
▁kadjan	-13046
▁komina	-13047
▁ladoni	-13048
▁nanniw	-13049
▁pasaze	-13050
▁samina	-13051
▁tianla	-13052
▁yalake	-13053
koundama	-13054
rankelaw	-13055
tchôkalo	-13056
▁Moldovi	-13057
▁djamafê	-13058
▁kounouw	-13059
▁sôrôniw	-13060
djanyénan	-13061
ongotchiê	-13062
ôtchôkalo	-13063
▁Romantis	-13064
▁Sandaman	-13065
▁Santiago	-13066
▁Santorum	-13067
▁Sarasvat	-13068
▁Sateliti	-13069
▁Shneider	-13070
▁Shopping	-13071
▁Sigiyɔrɔ	-13072
▁Simpsons	-13073
▁Siradili	-13074
▁Sordassi	-13075
▁Standing	-13076
▁Stardust	-13077
▁Sénatèri	-13078
▁Sêbêlikê	-13079
▁Tchaaman	-13080
▁Thrasher	-13081
▁Tibentan	-13082
▁Tibetkaw	-13083
▁Toukônôn	-13084
▁Toumambê	-13085
▁Tropique	-13086
▁Turisiya	-13087
▁Tuttakha	-13088
▁Tôgôsèbè	-13089
▁Universi	-13090
▁Virginia	-13091
▁Viteissi	-13092
▁Wagatimi	-13093
▁Whirling	-13094
▁Worodugu	-13095
▁Wulibali	-13096
▁Xiaoping	-13097
▁Zapatero	-13098
▁Zenerali	-13099
chus	-13100
kivu	-13101
kêmê	-13102
lyer	-13103
mbla	-13104
mêsi	-13105
namb	-13106
stus	-13107
çais	-13108
▁Aug	-13109
▁Séé	-13110
▁amb	-13111
sliya	-13112
▁Audi	-13113
▁Kodi	-13114
▁Kosa	-13115
▁bawu	-13116
▁bomb	-13117
▁feiw	-13118
▁july	-13119
▁pure	-13120
béliya	-13121
heliya	-13122
mogoya	-13123
namber	-13124
tiguèw	-13125
▁Flyer	-13126
▁Kohou	-13127
▁Kotch	-13128
▁Kotri	-13129
▁Miami	-13130
▁araso	-13131
▁dénni	-13132
▁dénou	-13133
▁fonni	-13134
▁kmêsi	-13135
▁watii	-13136
▁alahya	-13137
▁araban	-13138
▁arakaw	-13139
▁bakêmê	-13140
▁dekele	-13141
▁déndén	-13142
▁okassé	-13143
▁tigila	-13144
▁woteli	-13145
▁Augstus	-13146
▁Kosagon	-13147
▁assigui	-13148
▁dougnan	-13149
▁gnambla	-13150
▁issigui	-13151
▁italian	-13152
▁ladinin	-13153
▁messieu	-13154
▁sétiguè	-13155
heliyafan	-13156
▁Kotchama	-13157
▁Lockwood	-13158
▁Zeruzalè	-13159
▁abènanto	-13160
▁adamadew	-13161
▁adjateya	-13162
▁alasséla	-13163
▁alatiguè	-13164
▁amerikin	-13165
▁amɛrikɛn	-13166
▁anvôlopu	-13167
▁appareil	-13168
▁arabanna	-13169
▁arasoiri	-13170
▁asiperzi	-13171
▁asuransi	-13172
▁aviyônso	-13173
▁aviyɔnso	-13174
▁baarakeè	-13175
▁baasikow	-13176
▁bagarada	-13177
▁bakiteri	-13178
▁balimacɛ	-13179
▁balôntan	-13180
▁banbaliw	-13181
▁baradjan	-13182
▁barakani	-13183
▁baraketa	-13184
▁barikamn	-13185
▁barralaw	-13186
▁batolikè	-13187
▁begnogon	-13188
▁berliner	-13189
▁bikonnon	-13190
▁bisoukou	-13191
▁bissiouw	-13192
▁bisségui	-13193
▁biterela	-13194
▁biyiriga	-13195
▁blossoms	-13196
▁bodjanba	-13197
▁bognanan	-13198
▁bolofara	-13199
cker	-13200
wmba	-13201
zasi	-13202
▁600	-13203
▁hôô	-13204
▁néa	-13205
abila	-13206
danfé	-13207
imaya	-13208
lakaw	-13209
manfé	-13210
origé	-13211
pumba	-13212
ôwmba	-13213
▁Gomu	-13214
▁Jack	-13215
▁akon	-13216
▁gben	-13217
▁gbrè	-13218
▁mafé	-13219
▁pomé	-13220
▁tèyo	-13221
abilas	-13222
latige	-13223
lemanw	-13224
locker	-13225
mayala	-13226
▁Okèla	-13227
▁black	-13228
▁dakon	-13229
▁dégué	-13230
▁fagua	-13231
▁gboun	-13232
▁lakaw	-13233
▁lekon	-13234
▁segue	-13235
▁senan	-13236
▁senpa	-13237
▁valen	-13238
dokônôn	-13239
▁Bôwmba	-13240
▁Gnanfê	-13241
▁Matchi	-13242
▁System	-13243
▁akonno	-13244
▁aradar	-13245
▁biwolo	-13246
▁corigé	-13247
▁damiɛn	-13248
▁hôôron	-13249
▁marafé	-13250
▁sennan	-13251
▁songoh	-13252
▁tpumba	-13253
▁yélèma	-13254
delogola	-13255
▁Formuli	-13256
▁Gomulka	-13257
▁Klocker	-13258
▁Kèmèsiw	-13259
▁Neimaya	-13260
▁dilanan	-13261
▁djamaan	-13262
▁djamama	-13263
▁gnabila	-13264
▁lônkola	-13265
▁somôgôw	-13266
▁songoye	-13267
▁tiguiyé	-13268
abilasêbê	-13269
kélémanya	-13270
▁Amerikin	-13271
▁Sikismou	-13272
▁Tchannan	-13273
▁akonnoon	-13274
▁anglaisw	-13275
▁borikèla	-13276
▁borofɛnw	-13277
▁borolayé	-13278
▁buruyèri	-13279
▁businèsi	-13280
▁bèrèbèrè	-13281
▁bètagala	-13282
▁bêjuguye	-13283
▁cailaber	-13284
▁campisiw	-13285
▁canadien	-13286
▁celatige	-13287
▁chiyôrôw	-13288
▁clakoyaw	-13289
▁cocktail	-13290
▁cogokalo	-13291
▁communis	-13292
▁conirost	-13293
▁connecté	-13294
▁courouka	-13295
▁crampons	-13296
▁crétienw	-13297
▁cɛnimuso	-13298
▁dabirini	-13299
mph	-13300
duga	-13301
gudu	-13302
hoki	-13303
jour	-13304
quie	-13305
rrin	-13306
vrin	-13307
▁Who	-13308
▁iod	-13309
▁nâf	-13310
gbêni	-13311
êrêla	-13312
▁Four	-13313
▁albu	-13314
▁alla	-13315
▁doho	-13316
▁enré	-13317
▁frin	-13318
▁kaho	-13319
▁medu	-13320
▁nâfâ	-13321
▁tôho	-13322
▁uwni	-13323
batigi	-13324
enkulu	-13325
vaquie	-13326
▁Autri	-13327
▁Koron	-13328
▁Symph	-13329
▁alani	-13330
▁album	-13331
▁béntô	-13332
▁daabo	-13333
▁shoki	-13334
▁térin	-13335
▁wéélé	-13336
korobaw	-13337
rainouw	-13338
▁Dundee	-13339
▁enrégi	-13340
▁gbèren	-13341
▁hêrêla	-13342
▁iodini	-13343
▁kabala	-13344
▁kabama	-13345
▁kogudu	-13346
▁kurake	-13347
▁kutigi	-13348
▁lonbei	-13349
▁meduse	-13350
▁sitigi	-13351
▁timina	-13352
▁tèrrin	-13353
▁yéléwn	-13354
almeiras	-13355
irainouw	-13356
lovaquie	-13357
▁Musachi	-13358
▁Versace	-13359
▁chaaman	-13360
▁dôrôgui	-13361
▁lakôlou	-13362
▁siranin	-13363
▁wayasiw	-13364
kônonfenw	-13365
▁Autrichi	-13366
▁Djenkulu	-13367
▁Masatchè	-13368
▁Peremiyé	-13369
▁chinoisw	-13370
▁crayonla	-13371
▁dablaliw	-13372
▁dagayɔrɔ	-13373
▁dalamini	-13374
▁damaninw	-13375
▁dankissè	-13376
▁danogobo	-13377
▁dansagow	-13378
▁darinako	-13379
▁dayèrèli	-13380
▁dayèrèni	-13381
▁deenmisɛ	-13382
▁demessen	-13383
▁demisinw	-13384
▁dentiguè	-13385
▁derinako	-13386
▁dinminla	-13387
▁dinminli	-13388
▁district	-13389
▁djabrani	-13390
▁djamdjam	-13391
▁djankata	-13392
▁djatiden	-13393
▁djatimin	-13394
▁djidiali	-13395
▁djiguini	-13396
▁djilaman	-13397
▁djitamba	-13398
▁djoguili	-13399
sfo	-13400
▁39	-13401
cosi	-13402
oats	-13403
▁194	-13404
▁Dei	-13405
▁afo	-13406
Boats	-13407
finna	-13408
fèsèn	-13409
gwela	-13410
kanfo	-13411
mafin	-13412
sfore	-13413
▁1945	-13414
▁Kiri	-13415
▁bafo	-13416
▁befo	-13417
▁fofo	-13418
▁rusi	-13419
finnin	-13420
gbèrèw	-13421
gnôngô	-13422
ninfin	-13423
ropoli	-13424
▁Batow	-13425
▁Deita	-13426
▁Ecosi	-13427
▁lafin	-13428
▁mafin	-13429
▁marve	-13430
▁saniw	-13431
▁yôngô	-13432
dougouw	-13433
démafin	-13434
finsira	-13435
gniniga	-13436
▁Dioula	-13437
▁Klassi	-13438
▁afoora	-13439
▁dôrôpé	-13440
▁koloch	-13441
▁lafinè	-13442
▁logobo	-13443
▁lôniba	-13444
▁samahi	-13445
▁samala	-13446
▁sanfin	-13447
▁saniya	-13448
▁votisa	-13449
dougouba	-13450
mmintiya	-13451
tiropoli	-13452
▁Interne	-13453
▁begnini	-13454
▁bolifin	-13455
▁chereya	-13456
▁fosfore	-13457
▁lolodén	-13458
▁octobre	-13459
▁Démissin	-13460
▁Kirisita	-13461
▁Lastucci	-13462
▁Nôgôtôya	-13463
▁bafokeng	-13464
▁batoyôrô	-13465
▁dafinnin	-13466
▁djiguitô	-13467
▁djiguiya	-13468
▁djolibon	-13469
▁djolifén	-13470
▁djossila	-13471
▁djougoun	-13472
▁djoumalo	-13473
▁djuguman	-13474
▁djôguini	-13475
▁dogotoro	-13476
▁dominifé	-13477
▁dortoror	-13478
▁dounando	-13479
▁dounnanw	-13480
▁douroula	-13481
▁dourouna	-13482
▁dréguébo	-13483
▁duguloni	-13484
▁duniabei	-13485
▁duniyara	-13486
▁durisiri	-13487
▁dusudiya	-13488
▁dèmènanw	-13489
▁déguinan	-13490
▁dévélopé	-13491
▁dôgômuso	-13492
▁dôtôrôya	-13493
▁dɔtɔrɔcɛ	-13494
▁economic	-13495
▁endemiki	-13496
▁enrégité	-13497
▁equatèri	-13498
▁falefenw	-13499
filê	-13500
mbur	-13501
uyaw	-13502
yong	-13503
cling	-13504
mburg	-13505
miyon	-13506
ninka	-13507
ninlè	-13508
nènin	-13509
▁Gnin	-13510
biuyaw	-13511
galila	-13512
gnèliw	-13513
iliyon	-13514
yongyi	-13515
éngali	-13516
▁diayé	-13517
▁diyaw	-13518
▁fèèçi	-13519
▁julie	-13520
▁tonku	-13521
folihou	-13522
inigali	-13523
kɔnɔfɛn	-13524
ninlèyè	-13525
tangali	-13526
tassion	-13527
▁Erepre	-13528
▁dabéri	-13529
▁dagali	-13530
▁kalata	-13531
▁kesaba	-13532
▁mafilê	-13533
▁sensen	-13534
▁tannin	-13535
▁tchedo	-13536
▁tonnon	-13537
▁tâyôrô	-13538
biuyawsi	-13539
kounouna	-13540
ninigali	-13541
salakulu	-13542
sovarman	-13543
▁Europou	-13544
▁Gninini	-13545
▁Gyongyi	-13546
▁Hamburg	-13547
▁Kamiyon	-13548
▁Nagorno	-13549
▁Norvege	-13550
▁bengali	-13551
▁cycling	-13552
▁diabéti	-13553
▁ekonomi	-13554
▁kalagna	-13555
▁kalamou	-13556
▁kassola	-13557
▁kèninka	-13558
▁makoyaw	-13559
▁massaou	-13560
▁ninyɔrɔ	-13561
▁tonkuya	-13562
▁tonoliw	-13563
▁yaariya	-13564
Gninigali	-13565
festation	-13566
kélénaman	-13567
▁Adamadén	-13568
▁biéngali	-13569
▁commandi	-13570
▁daminnin	-13571
▁fangante	-13572
▁fanguama	-13573
▁faraliya	-13574
▁faratili	-13575
▁fasodéng	-13576
▁federali	-13577
▁feerefɛn	-13578
▁feviriye	-13579
▁fignènin	-13580
▁filakèla	-13581
▁filanayé	-13582
▁filimoun	-13583
▁filipine	-13584
▁filozofi	-13585
▁finalila	-13586
▁fintchin	-13587
▁fitanayé	-13588
▁fiyêliyé	-13589
▁flananyé	-13590
▁fliflili	-13591
▁flètigui	-13592
▁folissen	-13593
▁folofolo	-13594
▁football	-13595
▁forobaya	-13596
▁fotosifɛ	-13597
▁founteni	-13598
▁founteri	-13599
amé	-13600
dino	-13601
gatu	-13602
méli	-13603
sino	-13604
tulu	-13605
turi	-13606
zaki	-13607
dénba	-13608
radén	-13609
tukan	-13610
ôgnon	-13611
▁Cami	-13612
▁Capu	-13613
▁Care	-13614
▁Hebi	-13615
▁Mino	-13616
▁betu	-13617
▁camé	-13618
▁natu	-13619
▁nizn	-13620
▁tutu	-13621
▁yénô	-13622
engnon	-13623
gatuan	-13624
osoniw	-13625
pitali	-13626
pusino	-13627
seball	-13628
èridén	-13629
▁Byron	-13630
▁bougo	-13631
▁iméli	-13632
▁koumé	-13633
▁kôkôn	-13634
▁sokôn	-13635
gnonkan	-13636
ouganni	-13637
tecturi	-13638
▁Capuzo	-13639
▁Fougan	-13640
▁Fôgnon	-13641
▁Minoan	-13642
▁bognon	-13643
▁caméra	-13644
▁djatéy	-13645
▁foloma	-13646
▁kôkôna	-13647
▁otukan	-13648
▁pôrôya	-13649
▁tôgnon	-13650
▁woloni	-13651
capitali	-13652
gatuangw	-13653
pagraphi	-13654
▁Camille	-13655
▁Fèridén	-13656
▁Hebiron	-13657
▁Norvège	-13658
▁Sosoniw	-13659
▁Veguila	-13660
▁bolifèn	-13661
▁boutiki	-13662
▁djatéyà	-13663
▁djisuru	-13664
▁koulèri	-13665
▁kôradén	-13666
▁logofiè	-13667
▁makantè	-13668
▁natural	-13669
▁nisogow	-13670
▁skitulu	-13671
▁tiguèni	-13672
américain	-13673
dinosorow	-13674
ouroussan	-13675
▁Baseball	-13676
▁Scotturb	-13677
▁borognon	-13678
▁daminalo	-13679
▁faragnon	-13680
▁fitiniti	-13681
▁fountéri	-13682
▁fouroumi	-13683
▁français	-13684
▁furufara	-13685
▁fôlasenw	-13686
▁fôlisénw	-13687
▁gafefura	-13688
▁garafiti	-13689
▁gbanzanw	-13690
▁gbeèlèya	-13691
▁gbissili	-13692
▁gbèssila	-13693
▁genetiki	-13694
▁gnafêlaw	-13695
▁gnaladje	-13696
▁gnamakun	-13697
▁gnaminan	-13698
▁gnaminin	-13699
hei	-13700
hes	-13701
ella	-13702
elsa	-13703
kôlà	-13704
▁JAS	-13705
▁oho	-13706
lonel	-13707
ssélà	-13708
ticli	-13709
ènsèw	-13710
▁Baaw	-13711
▁Bach	-13712
▁Cree	-13713
▁Romu	-13714
▁Show	-13715
▁bikê	-13716
▁lalà	-13717
▁lôno	-13718
▁makê	-13719
▁sigê	-13720
▁tolà	-13721
angari	-13722
jènsèw	-13723
léounw	-13724
ssanfè	-13725
ssansi	-13726
▁Balaw	-13727
▁Creek	-13728
▁Rossi	-13729
▁Telsa	-13730
▁cella	-13731
▁forli	-13732
▁ikôlà	-13733
▁lônla	-13734
▁sigèn	-13735
êléounw	-13736
▁Bamuso	-13737
▁Irland	-13738
▁bénika	-13739
▁kamaso	-13740
▁kôssan	-13741
▁lanibé	-13742
▁lanimi	-13743
▁lônina	-13744
▁makura	-13745
▁masoro	-13746
▁miridô	-13747
▁sodjan	-13748
▁system	-13749
▁tagalà	-13750
▁tchilà	-13751
▁timila	-13752
▁Bachman	-13753
▁Colonel	-13754
▁Langari	-13755
▁Medecin	-13756
▁articli	-13757
▁bouteri	-13758
▁essansi	-13759
▁faamuli	-13760
▁gninnan	-13761
▁thchama	-13762
▁téléman	-13763
falényôrô	-13764
▁Bachmann	-13765
▁Erectusi	-13766
▁gnamogon	-13767
▁gnamogow	-13768
▁gnanabôh	-13769
▁gnanadje	-13770
▁gnananko	-13771
▁gnanfola	-13772
▁gnangami	-13773
▁gnankoro	-13774
▁gnantata	-13775
▁gnanwèrè	-13776
▁gnassôrô	-13777
▁gnatiguè	-13778
▁gninguin	-13779
▁gnininan	-13780
▁gnintaga	-13781
▁gnnongon	-13782
▁gnogonfè	-13783
▁gnogonna	-13784
▁gnoubaga	-13785
▁gnoumanw	-13786
▁gnèguain	-13787
▁gnènègbè	-13788
▁gnènèman	-13789
▁gnênêguê	-13790
▁gnôgônye	-13791
▁gnôngôya	-13792
▁gwanniha	-13793
▁gwèlèman	-13794
▁hakanyaw	-13795
▁hakekela	-13796
▁hakèsuma	-13797
▁halakini	-13798
▁hampsire	-13799
mpe	-13800
pee	-13801
tɛz	-13802
hura	-13803
jona	-13804
nels	-13805
pèri	-13806
èèri	-13807
▁Arn	-13808
▁McM	-13809
▁alà	-13810
gnèti	-13811
peech	-13812
▁Erik	-13813
▁Inka	-13814
▁Jago	-13815
▁Jazi	-13816
▁balà	-13817
▁bôlà	-13818
▁filà	-13819
▁kohu	-13820
dation	-13821
gnafan	-13822
gnagbè	-13823
gnèguè	-13824
kanèri	-13825
lation	-13826
lefoni	-13827
mobiri	-13828
oussou	-13829
ridala	-13830
saoura	-13831
sation	-13832
unnels	-13833
▁(240)	-13834
▁Inkau	-13835
▁McMur	-13836
▁Soufè	-13837
▁arike	-13838
▁fièri	-13839
▁lanan	-13840
▁liliw	-13841
▁lokei	-13842
▁signa	-13843
▁signè	-13844
▁vèèri	-13845
orikônô	-13846
slation	-13847
▁Arnold	-13848
▁Goethe	-13849
▁binèri	-13850
▁koréen	-13851
▁laadaw	-13852
▁lagɛri	-13853
▁musohu	-13854
▁nation	-13855
▁speech	-13856
▁supèri	-13857
gnèguèyé	-13858
vangelos	-13859
▁Katrina	-13860
▁McMurdo	-13861
▁Môgôhou	-13862
▁Runnels	-13863
▁arikelo	-13864
▁djangna	-13865
▁koungna	-13866
▁sèbènin	-13867
▁tagalôn	-13868
▁vignèti	-13869
gislation	-13870
gnagbèlaw	-13871
orikônôci	-13872
oundation	-13873
▁Djoussou	-13874
▁Sikanèri	-13875
▁bagnafan	-13876
▁hivèrifè	-13877
▁hèrèsôrô	-13878
▁ikaraman	-13879
▁indoukaw	-13880
▁inerneti	-13881
▁istanbul	-13882
▁italiyèn	-13883
▁jalakili	-13884
▁jamakoun	-13885
▁jaraminj	-13886
▁jatemina	-13887
▁jatigiya	-13888
▁jurunali	-13889
▁jɛngɛnin	-13890
▁kablahou	-13891
▁kadjigui	-13892
▁kafoyôrô	-13893
▁kagwèlèn	-13894
▁kaladenw	-13895
▁kalifala	-13896
▁kamangou	-13897
▁kambelle	-13898
▁kamberew	-13899
cau	-13900
menw	-13901
▁Hir	-13902
▁Lag	-13903
▁Lat	-13904
agara	-13905
caust	-13906
zienw	-13907
▁Ladi	-13908
▁Loes	-13909
▁Midi	-13910
▁Miss	-13911
▁meri	-13912
▁nèzi	-13913
▁roca	-13914
Eskimo	-13915
ksiyon	-13916
rigami	-13917
▁Coupe	-13918
▁Djaga	-13919
▁Lagla	-13920
▁alélo	-13921
▁alétè	-13922
▁baase	-13923
▁dèguè	-13924
▁nègui	-13925
▁oyafô	-13926
▁taaga	-13927
▁welee	-13928
nibagaw	-13929
▁Alaban	-13930
▁Hiring	-13931
▁Lamini	-13932
▁Latvia	-13933
▁Loesch	-13934
▁Midité	-13935
▁dalila	-13936
▁gnanag	-13937
▁gnanam	-13938
▁kenera	-13939
arizienw	-13940
kourouba	-13941
olocaust	-13942
▁Capsuli	-13943
▁Djagaro	-13944
▁Laglasé	-13945
▁Miditér	-13946
▁Niagara	-13947
▁Origami	-13948
▁Sabagaw	-13949
▁dèguèni	-13950
▁faghara	-13951
▁koudayi	-13952
▁tununan	-13953
▁welekou	-13954
▁wouléli	-13955
ɔnnibagaw	-13956
▁Allemenw	-13957
▁Binayôrô	-13958
▁Ladibaga	-13959
▁Setigiya	-13960
▁Yosemiti	-13961
▁gnanamya	-13962
▁kamounou	-13963
▁kanagaçi	-13964
▁karamogo	-13965
▁kassaraw	-13966
▁kassigui	-13967
▁kassobow	-13968
▁kasôrôow	-13969
▁katagama	-13970
▁katakata	-13971
▁katikati	-13972
▁katôgôla	-13973
▁kebaliya	-13974
▁kecogoya	-13975
▁kinikini	-13976
▁kitaboun	-13977
▁klantchè	-13978
▁kofôlikè	-13979
▁kofônibè	-13980
▁kogohdji	-13981
▁kokodugu	-13982
▁kokètabè	-13983
▁kokôrôsi	-13984
▁kolakali	-13985
▁kologolo	-13986
▁kolokari	-13987
▁kolokisè	-13988
▁kolokoun	-13989
▁kolondow	-13990
▁kolɔnniw	-13991
▁korotani	-13992
▁koroyoro	-13993
▁kotiguiw	-13994
▁koulakaw	-13995
▁koulouwo	-13996
▁koumanfo	-13997
▁koumanto	-13998
▁koumasén	-13999
UTC	-14000
lɔk	-14001
lɔs	-14002
ngw	-14003
rên	-14004
rchi	-14005
▁ahu	-14006
hnman	-14007
tonga	-14008
tonli	-14009
▁1998	-14010
▁Chin	-14011
▁Nazi	-14012
▁Tchi	-14013
▁ahia	-14014
▁bagw	-14015
▁kolɔ	-14016
ckstro	-14017
kataga	-14018
lonton	-14019
marali	-14020
ralien	-14021
rarchi	-14022
tagaba	-14023
tarali	-14024
▁alien	-14025
▁ataga	-14026
▁bachi	-14027
▁doouw	-14028
▁gnigi	-14029
▁keila	-14030
▁kôgôi	-14031
▁michi	-14032
▁sodén	-14033
ckstrom	-14034
érarchi	-14035
▁1998).	-14036
▁Jeffer	-14037
▁Naziou	-14038
▁Tchièn	-14039
▁comité	-14040
▁dondon	-14041
▁gnèguè	-14042
▁kitigè	-14043
▁komité	-14044
▁mataga	-14045
▁minalé	-14046
▁motèri	-14047
▁permit	-14048
rontonga	-14049
▁Montchè	-14050
▁Sangolo	-14051
▁fihnman	-14052
▁fôtalan	-14053
▁gbèrèya	-14054
▁kounchi	-14055
▁kônôdon	-14056
▁kônôton	-14057
▁latonli	-14058
▁lôdawlé	-14059
▁mogochi	-14060
ssitarali	-14061
▁Chindimi	-14062
▁dunandon	-14063
▁fototala	-14064
▁gbèrèman	-14065
▁kokataga	-14066
▁kounafli	-14067
▁koundama	-14068
▁kounkoya	-14069
▁kounkènè	-14070
▁kountaga	-14071
▁kourouwo	-14072
▁ktcogolé	-14073
▁kumadenw	-14074
▁kumadéng	-14075
▁kumanden	-14076
▁kunafôni	-14077
▁kunkkênê	-14078
▁kunssiri	-14079
▁kuntigiw	-14080
▁kurukara	-14081
▁kèkoyani	-14082
▁kèlèkèli	-14083
▁kènèmaya	-14084
▁kènèyarô	-14085
▁kèreinké	-14086
▁kèrèfèli	-14087
▁kélégnin	-14088
▁kélékèmè	-14089
▁kélékélé	-14090
▁kélépéyé	-14091
▁kénlénni	-14092
▁kêmênani	-14093
▁kêrêkêla	-14094
▁kôfêlala	-14095
▁kôgôidji	-14096
▁kônondon	-14097
▁kônontôn	-14098
▁kônôféng	-14099
ols	-14100
▁éh	-14101
bson	-14102
llis	-14103
olga	-14104
▁Col	-14105
▁myo	-14106
guson	-14107
omson	-14108
pport	-14109
éland	-14110
▁alli	-14111
▁pisi	-14112
▁piɛr	-14113
▁wifi	-14114
gnagwè	-14115
homson	-14116
kikoun	-14117
kounbè	-14118
kounna	-14119
sebugu	-14120
ythago	-14121
ɔkelen	-14122
▁Baraw	-14123
▁Ellis	-14124
▁Fools	-14125
▁Sirip	-14126
▁Volga	-14127
▁allia	-14128
▁douno	-14129
▁green	-14130
▁heman	-14131
▁ikoun	-14132
▁kuruw	-14133
▁nason	-14134
▁wobaw	-14135
kounbèw	-14136
ogotchè	-14137
▁Allahw	-14138
▁Angeli	-14139
▁Gazian	-14140
▁Gibson	-14141
▁Ninman	-14142
▁Sôgôma	-14143
▁bakoun	-14144
▁bonbaw	-14145
▁bôçila	-14146
▁djuguw	-14147
▁dounaw	-14148
▁dounda	-14149
▁kerena	-14150
▁koumaw	-14151
▁nakoun	-14152
▁nanson	-14153
▁pisito	-14154
▁tchaam	-14155
▁zéland	-14156
ythagore	-14157
▁Colbert	-14158
▁Gillard	-14159
▁Siripor	-14160
▁Thomson	-14161
▁Tɔkelen	-14162
▁alliagi	-14163
▁fèssèni	-14164
▁korobaw	-14165
▁koumako	-14166
▁mobiliu	-14167
▁môgôbaw	-14168
▁rapport	-14169
▁tchaamn	-14170
▁yiraliw	-14171
gnagwèlaw	-14172
▁Ferguson	-14173
▁Gaziante	-14174
▁Kalaalle	-14175
▁Logotchè	-14176
▁Siriporn	-14177
▁Sôgômada	-14178
▁Triantaf	-14179
▁gnassing	-14180
▁kôrôbaya	-14181
▁kôrôbôli	-14182
▁kôrôbôni	-14183
▁kôrôfinw	-14184
▁kôrôtani	-14185
▁kɔrɔsili	-14186
▁kɛkafilɛ	-14187
▁kɛmɛjata	-14188
▁labainan	-14189
▁labaloli	-14190
▁labatoli	-14191
▁labatoya	-14192
▁labilali	-14193
▁lablalew	-14194
▁ladahani	-14195
▁ladamuni	-14196
▁ladinain	-14197
▁ladinnin	-14198
▁ladjenba	-14199
▁4,	-14200
gbèn	-14201
▁Web	-14202
gbènè	-14203
gbèya	-14204
rôgbè	-14205
teori	-14206
watiw	-14207
▁Fori	-14208
▁Pori	-14209
anagbè	-14210
kôrôba	-14211
kôrôya	-14212
yeelen	-14213
▁Ikôrô	-14214
▁aviai	-14215
▁avian	-14216
▁aviôn	-14217
▁bàbla	-14218
▁fényé	-14219
▁labor	-14220
▁lagbè	-14221
▁magbè	-14222
$11,000	-14223
teoriti	-14224
▁Azéris	-14225
▁Manila	-14226
▁Sabana	-14227
▁agbènè	-14228
▁aminan	-14229
▁aviônc	-14230
▁dôkôrô	-14231
▁kôgôya	-14232
▁kôkôrô	-14233
▁lemuru	-14234
▁nikôrô	-14235
▁niwôrô	-14236
▁nôgbèn	-14237
▁tèmina	-14238
▁tèmèna	-14239
▁tèmèra	-14240
▁tômona	-14241
▁walaha	-14242
▁wilili	-14243
▁yerela	-14244
▁yɛlɛni	-14245
▁yɛlɛra	-14246
▁aviaire	-14247
▁fisaman	-14248
▁ganagbè	-14249
▁gnakôrô	-14250
▁gnangbè	-14251
▁gninmin	-14252
▁karôgbè	-14253
▁origami	-14254
▁torroya	-14255
▁walaman	-14256
▁yɛlɛman	-14257
gnangbèya	-14258
mousoumou	-14259
▁Copernic	-14260
▁Kountaga	-14261
▁aminanko	-14262
▁aviôncom	-14263
▁dékôrôba	-14264
▁ladoniya	-14265
▁ladonyia	-14266
▁ladégili	-14267
▁lafisali	-14268
▁lafèrèra	-14269
▁lakagnan	-14270
▁lakaléli	-14271
▁lakikaya	-14272
▁lakolidè	-14273
▁lakôliso	-14274
▁laminifi	-14275
▁laminila	-14276
▁lasiriya	-14277
▁lasourou	-14278
▁lassegui	-14279
▁lassinan	-14280
▁lassèguè	-14281
▁latangan	-14282
▁layiriwa	-14283
▁lesebugu	-14284
▁lonbagaw	-14285
▁lonibaga	-14286
▁loniyara	-14287
▁loutigui	-14288
▁lôgôtchè	-14289
▁lôninaba	-14290
▁lɔnnigwɛ	-14291
▁maabiliw	-14292
▁madimila	-14293
▁madimini	-14294
▁makasila	-14295
▁makassiw	-14296
▁makèyarô	-14297
▁makônôni	-14298
▁makônôtô	-14299
rys	-14300
▁22	-14301
▁26	-14302
▁rn	-14303
▁rɛ	-14304
enjo	-14305
gèri	-14306
omor	-14307
péré	-14308
tècu	-14309
▁2).	-14310
▁bul	-14311
▁bus	-14312
▁déw	-14313
▁ngè	-14314
▁rɔn	-14315
▁zni	-14316
awéré	-14317
kunra	-14318
pèrin	-14319
ssèli	-14320
éréti	-14321
▁2220	-14322
▁Asia	-14323
▁Féré	-14324
▁Nick	-14325
▁Zari	-14326
▁Zuni	-14327
▁buro	-14328
▁déli	-14329
▁dépi	-14330
▁déén	-14331
▁fègè	-14332
▁pôsi	-14333
▁rnde	-14334
▁tehe	-14335
▁wéré	-14336
ohenjo	-14337
penden	-14338
péréli	-14339
▁Autra	-14340
▁Okela	-14341
▁Zarid	-14342
▁bajiw	-14343
▁bulga	-14344
▁bulle	-14345
▁bussi	-14346
▁chrys	-14347
▁déénh	-14348
▁fessè	-14349
▁gbêlê	-14350
▁jupou	-14351
▁lourô	-14352
▁mifin	-14353
ddenbro	-14354
tècussi	-14355
érétièn	-14356
▁Lagèri	-14357
▁Leslie	-14358
▁beitah	-14359
▁djoriw	-14360
▁dépité	-14361
▁déénhw	-14362
▁gnamaw	-14363
▁gnégui	-14364
▁kônôni	-14365
▁miniyé	-14366
omorphic	-14367
pendenci	-14368
▁Faragbè	-14369
▁Mohenjo	-14370
▁Nicklas	-14371
▁Opéréli	-14372
▁Seville	-14373
▁Tasmani	-14374
▁Zaridèn	-14375
▁hôrônya	-14376
▁muganin	-14377
▁sipèrin	-14378
▁transan	-14379
▁téréman	-14380
▁walebaw	-14381
anapolisi	-14382
ddenbroke	-14383
tchiaiman	-14384
▁Kérétièn	-14385
▁Tasmania	-14386
▁bulgarie	-14387
▁bulletin	-14388
▁choukoya	-14389
▁fenkunra	-14390
▁gnéguili	-14391
▁kouawéré	-14392
▁kônôyôrô	-14393
▁maloyala	-14394
▁manganli	-14395
▁mangboya	-14396
▁mangrovi	-14397
▁maralida	-14398
▁maralila	-14399
Bst	-14400
alt	-14401
▁Ew	-14402
fort	-14403
fôgô	-14404
inew	-14405
susu	-14406
tema	-14407
▁Bli	-14408
▁Bon	-14409
▁Epi	-14410
▁Guy	-14411
▁gɛr	-14412
Bstou	-14413
gondi	-14414
gonli	-14415
inews	-14416
uruma	-14417
▁Daka	-14418
▁Guyh	-14419
▁Walt	-14420
▁bôyi	-14421
▁klok	-14422
▁kɛto	-14423
▁musu	-14424
▁noon	-14425
▁tete	-14426
lankan	-14427
ogokan	-14428
saliya	-14429
temata	-14430
urumat	-14431
yagaro	-14432
▁Episo	-14433
▁Ewing	-14434
▁Paolo	-14435
▁ardɛn	-14436
▁fééré	-14437
▁gberè	-14438
▁kotou	-14439
▁nizon	-14440
▁touli	-14441
amanama	-14442
kèmèchi	-14443
ôgôfôgô	-14444
▁Guyhru	-14445
▁Wladys	-14446
▁Zachar	-14447
▁beigan	-14448
▁jawuli	-14449
▁kasusu	-14450
▁kloklo	-14451
▁kônôla	-14452
▁labôla	-14453
▁makoun	-14454
▁népalà	-14455
▁ohéssé	-14456
▁sisite	-14457
▁sutura	-14458
bolofara	-14459
▁Blizari	-14460
▁Episodi	-14461
▁Guilacé	-14462
▁Gurumat	-14463
▁Guyhrum	-14464
▁Zachary	-14465
▁baarafé	-14466
▁gberèya	-14467
▁kélaouw	-14468
▁segondi	-14469
▁senaboh	-14470
▁tension	-14471
▁Dakabana	-14472
▁Misaliya	-14473
▁Namanama	-14474
▁Watemata	-14475
▁Wikinews	-14476
▁dragonli	-14477
▁dugalenw	-14478
▁fôgôfôgô	-14479
▁gnogokan	-14480
▁iyésséka	-14481
▁makoundo	-14482
▁maranila	-14483
▁masôrôli	-14484
▁matchiow	-14485
▁matôgôli	-14486
▁mayèleni	-14487
▁medecins	-14488
▁melamine	-14489
▁melanine	-14490
▁miiliyon	-14491
▁militèri	-14492
▁mimobiri	-14493
▁minninni	-14494
▁minɛbolo	-14495
▁miribali	-14496
▁missigui	-14497
▁misènman	-14498
▁mitinnan	-14499
:02	-14500
ate	-14501
bah	-14502
zna	-14503
▁Dr	-14504
▁TT	-14505
9:02	-14506
caro	-14507
mzna	-14508
▁Inu	-14509
▁Tlé	-14510
▁sew	-14511
▁sôh	-14512
09:02	-14513
roate	-14514
ssian	-14515
ssida	-14516
témou	-14517
▁gese	-14518
▁héli	-14519
▁kofɔ	-14520
▁liza	-14521
▁molo	-14522
▁pépé	-14523
▁sisa	-14524
:09:02	-14525
bahana	-14526
minina	-14527
▁(2006	-14528
▁(3136	-14529
▁Gonou	-14530
▁Inuit	-14531
▁clubu	-14532
▁maabo	-14533
▁ngali	-14534
maféngw	-14535
mznahou	-14536
▁(2006)	-14537
▁Croate	-14538
▁Woroni	-14539
▁dabora	-14540
▁kilomé	-14541
▁kunbaw	-14542
▁labara	-14543
▁lafoni	-14544
▁nyinin	-14545
▁okakan	-14546
▁tilema	-14547
▁1:09:02	-14548
▁adamina	-14549
▁gnandon	-14550
▁jênkakê	-14551
▁kenegbe	-14552
▁lonnila	-14553
▁otogoye	-14554
▁premier	-14555
▁tagassi	-14556
▁yôrômin	-14557
ssidayara	-14558
▁Deutsche	-14559
▁Dilokrit	-14560
▁Kalafili	-14561
▁diananko	-14562
▁faandoye	-14563
▁fepereni	-14564
▁gesekolo	-14565
▁jamakula	-14566
▁kagnanla	-14567
▁ladinali	-14568
▁mitôgôye	-14569
▁mitôgôyé	-14570
▁mobiliba	-14571
▁molecumi	-14572
▁motobori	-14573
▁mougouki	-14574
▁moussara	-14575
▁murasɔgɔ	-14576
▁murutila	-14577
▁môgôfaga	-14578
▁môtourou	-14579
▁nafamafé	-14580
▁nafolodo	-14581
▁nanignan	-14582
▁nankofèn	-14583
▁neguèsso	-14584
▁neremugu	-14585
▁niguêkan	-14586
▁nijuguya	-14587
▁nimankan	-14588
▁nisongon	-14589
▁nissôdia	-14590
▁nisôkadi	-14591
▁nogoyali	-14592
▁nonnonra	-14593
▁nougoula	-14594
▁nounoula	-14595
▁nèguèkan	-14596
▁nèguèsso	-14597
▁nènèkili	-14598
▁nôgôyala	-14599
64	-14600
WAP	-14601
ada	-14602
ayc	-14603
mèè	-14604
▁pp	-14605
SWAP	-14606
bakè	-14607
dami	-14608
dela	-14609
djôn	-14610
mèri	-14611
rèna	-14612
▁(64	-14613
▁Gba	-14614
▁Uye	-14615
▁föl	-14616
SWAPO	-14617
aycur	-14618
guida	-14619
▁Béen	-14620
▁Gbaa	-14621
▁bése	-14622
▁fölö	-14623
▁nann	-14624
▁sôgo	-14625
▁teka	-14626
▁toll	-14627
▁ɲimi	-14628
aycurù	-14629
djônla	-14630
eremia	-14631
kognan	-14632
tlandi	-14633
ɲɔmɔgɔ	-14634
▁Frank	-14635
▁Mario	-14636
▁dolen	-14637
▁forla	-14638
▁kamèè	-14639
▁konni	-14640
▁koudi	-14641
▁nanya	-14642
▁sèrès	-14643
▁ubakè	-14644
eremiah	-14645
goguida	-14646
guining	-14647
▁Sirèna	-14648
▁abaada	-14649
▁cancer	-14650
▁counan	-14651
▁gnagni	-14652
▁nanfin	-14653
▁sôgoma	-14654
▁tandan	-14655
▁vitiri	-14656
▁Cañitas	-14657
▁alimafo	-14658
▁bonkɔnɔ	-14659
▁celilou	-14660
▁kalassi	-14661
▁laminiw	-14662
▁primèri	-14663
▁sangama	-14664
▁tchidén	-14665
▁tilanda	-14666
▁Diamanaw	-14667
▁Guaycurù	-14668
▁Jeremiah	-14669
▁dgoguida	-14670
▁koudigui	-14671
▁kèwaliya	-14672
▁kêkognan	-14673
▁ladianan	-14674
▁nanninan	-14675
▁nɛnɛkiri	-14676
▁ochissan	-14677
▁ognongon	-14678
▁okangnan	-14679
▁olympics	-14680
▁olékoson	-14681
▁oromèniw	-14682
▁otéssélà	-14683
▁pajikèmè	-14684
▁parasiti	-14685
▁peinduru	-14686
▁pinrinli	-14687
▁plombèri	-14688
▁porogari	-14689
▁première	-14690
▁progamou	-14691
▁programu	-14692
▁prolonga	-14693
▁protéini	-14694
▁présiden	-14695
▁pureland	-14696
▁pyramide	-14697
▁pɔritabu	-14698
▁radjosso	-14699
SY	-14700
Ya	-14701
KSY	-14702
Nan	-14703
are	-14704
bim	-14705
fre	-14706
öfè	-14707
▁NK	-14708
▁TM	-14709
Bush	-14710
Yafa	-14711
arie	-14712
bune	-14713
chte	-14714
frey	-14715
nugu	-14716
wélé	-14717
▁16,	-14718
▁NKH	-14719
▁TMZ	-14720
▁déé	-14721
▁slo	-14722
Marie	-14723
bimla	-14724
waliw	-14725
yanra	-14726
▁Mick	-14727
▁amou	-14728
▁béto	-14729
▁fanh	-14730
▁fôgn	-14731
▁fôka	-14732
▁kofê	-14733
▁köfè	-14734
▁sasa	-14735
▁slov	-14736
▁têmè	-14737
gative	-14738
infrey	-14739
ribune	-14740
wéléla	-14741
▁Fassa	-14742
▁Kaare	-14743
▁baziw	-14744
▁yanni	-14745
Nanfolo	-14746
Tribune	-14747
fugulan	-14748
rougnan	-14749
▁Fichte	-14750
▁Tarata	-14751
▁bouoni	-14752
▁fôgnôn	-14753
▁tagaba	-14754
▁tagasi	-14755
▁têmèna	-14756
▁wirini	-14757
▁yorroh	-14758
▁Boyanra	-14759
▁Winfrey	-14760
▁Yèlèman	-14761
▁amoulou	-14762
▁gbinnin	-14763
▁hakètan	-14764
▁iwéléla	-14765
▁kewaliw	-14766
▁labanan	-14767
▁mibimla	-14768
▁sloveni	-14769
▁Morioriw	-14770
▁biwôrôni	-14771
▁cogoyala	-14772
▁déguenan	-14773
▁gnôntchè	-14774
▁negative	-14775
▁reakitɔr	-14776
▁recharge	-14777
▁sababuye	-14778
▁sabananw	-14779
▁sabanayé	-14780
▁sabatila	-14781
▁sananfèn	-14782
▁sanfignè	-14783
▁sangoura	-14784
▁sankubèn	-14785
▁sanoufin	-14786
▁saratigê	-14787
▁satéliti	-14788
▁securité	-14789
▁segesege	-14790
▁sendonan	-14791
▁sendonni	-14792
▁serikôtô	-14793
▁siginibe	-14794
▁sigisigi	-14795
▁siguidaw	-14796
▁siguiniw	-14797
▁sikoulou	-14798
▁sinanyan	-14799
dah	-14800
grou	-14801
trou	-14802
èèrè	-14803
▁adj	-14804
▁edi	-14805
▁juu	-14806
▁puw	-14807
▁rou	-14808
dèssè	-14809
karou	-14810
mouya	-14811
wawou	-14812
yaala	-14813
▁Doun	-14814
▁Medu	-14815
▁acha	-14816
▁fadj	-14817
▁gɛni	-14818
▁iden	-14819
▁inan	-14820
▁soji	-14821
▁wɛlɛ	-14822
▁yasa	-14823
araniw	-14824
kotoro	-14825
kounou	-14826
midjan	-14827
ssidan	-14828
sébana	-14829
tigrou	-14830
▁Baato	-14831
▁Hèèrè	-14832
▁dalou	-14833
▁dougp	-14834
▁hɛɛre	-14835
▁nasse	-14836
▁yanna	-14837
barohya	-14838
niminan	-14839
▁Gürses	-14840
▁Kuruba	-14841
▁blaani	-14842
▁fignèw	-14843
▁finhya	-14844
▁identi	-14845
▁inanfô	-14846
▁jamala	-14847
▁kènikô	-14848
▁kélélé	-14849
▁lomina	-14850
▁pôsiti	-14851
▁yinrin	-14852
dinatèri	-14853
kisébana	-14854
kounouni	-14855
ssidanla	-14856
▁Bouddha	-14857
▁Meduziw	-14858
▁bouddah	-14859
▁bèguènw	-14860
▁planeti	-14861
▁sojigui	-14862
▁Aristoti	-14863
▁Bérézili	-14864
▁Fingnini	-14865
▁Hakilito	-14866
▁adjumlan	-14867
▁baaraniw	-14868
▁dokotoro	-14869
▁douwawou	-14870
▁gboutrou	-14871
▁identité	-14872
▁kéléléyé	-14873
▁presenta	-14874
▁siradili	-14875
▁siranhya	-14876
▁sisitɛmu	-14877
▁sodiomou	-14878
▁softball	-14879
▁sognaniw	-14880
▁sognanni	-14881
▁sogoloni	-14882
▁sokônnon	-14883
▁solosali	-14884
▁somôgoya	-14885
▁songonka	-14886
▁sorassiw	-14887
▁sougoufa	-14888
▁sougoufè	-14889
▁soukarou	-14890
▁soumanle	-14891
▁soumanni	-14892
▁soumanya	-14893
▁sourafan	-14894
▁souwandi	-14895
▁sugubèla	-14896
▁surugnan	-14897
▁symptomi	-14898
▁sysitemu	-14899
--	-14900
djô	-14901
▁Ké	-14902
▁MA	-14903
▁Mü	-14904
viet	-14905
▁Ade	-14906
▁MAC	-14907
▁Müs	-14908
▁alè	-14909
▁fii	-14910
araka	-14911
damou	-14912
inata	-14913
kadjô	-14914
ombai	-14915
▁Duty	-14916
▁Mana	-14917
▁Mani	-14918
▁Mill	-14919
▁Müsl	-14920
▁luci	-14921
▁spru	-14922
▁séti	-14923
▁tuni	-14924
djoukɛ	-14925
▁1861,	-14926
▁Bandi	-14927
▁Borne	-14928
▁MACCA	-14929
▁Müslü	-14930
▁fɛɛrɛ	-14931
▁karri	-14932
▁large	-14933
▁manya	-14934
▁romin	-14935
▁sanka	-14936
▁touka	-14937
▁touro	-14938
wôlôman	-14939
▁Blacks	-14940
▁Borneo	-14941
▁Daraka	-14942
▁Mombai	-14943
▁Müslüm	-14944
▁Soviet	-14945
▁canabi	-14946
▁daminn	-14947
▁faatou	-14948
▁foroto	-14949
▁gounan	-14950
▁kabein	-14951
▁kartie	-14952
▁labôra	-14953
▁manman	-14954
▁milion	-14955
▁môgôba	-14956
▁spruce	-14957
▁sukolo	-14958
▁suèguè	-14959
▁sétidj	-14960
▁wôrôyé	-14961
kénlénin	-14962
▁Adekoya	-14963
▁Madamou	-14964
▁fiitini	-14965
▁gnanman	-14966
▁jatigiw	-14967
▁kalfili	-14968
▁konoton	-14969
▁largeur	-14970
▁okonnon	-14971
▁saniman	-14972
▁séguini	-14973
▁tilancɛ	-14974
▁énérgie	-14975
mahôrônya	-14976
ssèritchè	-14977
▁Kétchogo	-14978
▁Sentinel	-14979
▁akuntala	-14980
▁alakadjô	-14981
▁canabisi	-14982
▁djounior	-14983
▁gnongnon	-14984
▁môgôbaye	-14985
▁obeinata	-14986
▁sèbèkèla	-14987
▁sèbèlila	-14988
▁sèbèninô	-14989
▁sèbèsèbè	-14990
▁sèguèguè	-14991
▁sèrèsèrè	-14992
▁sèrèvèri	-14993
▁sèsènanw	-14994
▁séliyôrô	-14995
▁sériyôrô	-14996
▁sôbèkôrô	-14997
▁sôbêkôrô	-14998
▁sôrôlikè	-14999
9)	-15000
IH	-15001
49)	-15002
cié	-15003
▁lƆ	-15004
anga	-15005
ciéw	-15006
minô	-15007
stra	-15008
urra	-15009
▁Die	-15010
▁Fli	-15011
▁VIH	-15012
49)).	-15013
rousa	-15014
thnic	-15015
urray	-15016
▁Indé	-15017
▁Rina	-15018
▁calo	-15019
▁dôtè	-15020
▁grew	-15021
▁hana	-15022
▁jôlô	-15023
▁rène	-15024
▁uman	-15025
basenw	-15026
changa	-15027
ervice	-15028
mèsira	-15029
raptor	-15030
▁Diego	-15031
▁Djaté	-15032
▁Maswa	-15033
▁Shama	-15034
▁Taizi	-15035
▁anôgô	-15036
▁kougo	-15037
▁mayli	-15038
▁mimin	-15039
▁nôgon	-15040
bolifen	-15041
denwara	-15042
tuguèsi	-15043
▁Faraou	-15044
▁Flight	-15045
▁Kitabu	-15046
▁Murray	-15047
▁Tolonw	-15048
▁benniw	-15049
▁donant	-15050
▁ethnic	-15051
▁hanami	-15052
▁jidara	-15053
▁jôlôkô	-15054
▁kallan	-15055
▁lôlira	-15056
▁siraou	-15057
▁sitɛnɛ	-15058
▁téminô	-15059
ciraptor	-15060
djougouw	-15061
▁(149)).	-15062
▁755.688	-15063
▁Pennylv	-15064
▁Service	-15065
▁lagamou	-15066
▁laminan	-15067
▁sangaso	-15068
bolifenhu	-15069
▁Christch	-15070
▁Hakiliya	-15071
▁Kabasenw	-15072
▁Muchanga	-15073
▁Nimafenw	-15074
▁Officiéw	-15075
▁Tèmèsira	-15076
▁fotolabô	-15077
▁nôgondan	-15078
▁sônminan	-15079
▁tabolola	-15080
▁taboulon	-15081
▁tagalanw	-15082
▁tagayoro	-15083
▁takoulou	-15084
▁tanifila	-15085
▁tarikura	-15086
▁tchaiman	-15087
▁tchegnan	-15088
▁tcheiman	-15089
▁tchianmi	-15090
▁tchinguè	-15091
▁tchogaya	-15092
▁tchèmala	-15093
▁tchèmanw	-15094
▁tchêfali	-15095
▁tchôlôlô	-15096
▁temenila	-15097
▁terebali	-15098
▁tignèliw	-15099
400	-15100
erz	-15101
ggi	-15102
koç	-15103
ole	-15104
ugi	-15105
ɔrg	-15106
hine	-15107
nari	-15108
tési	-15109
▁Nôn	-15110
▁diâ	-15111
▁lɔr	-15112
aniko	-15113
findô	-15114
gnole	-15115
maféw	-15116
maggi	-15117
nario	-15118
urida	-15119
éléni	-15120
▁9400	-15121
▁Kôrô	-15122
▁Moas	-15123
▁Odju	-15124
▁diât	-15125
▁djek	-15126
▁doua	-15127
▁fagi	-15128
▁yéko	-15129
erzber	-15130
[...]
