<unk>	0
<s>	0
</s>	0
▁d	-0
es	-1
▁l	-2
en	-3
▁p	-4
on	-5
▁s	-6
▁c	-7
▁a	-8
ou	-9
▁de	-10
an	-11
re	-12
ent	-13
er	-14
qu	-15
ai	-16
ti	-17
▁m	-18
le	-19
is	-20
ne	-21
ar	-22
▁e	-23
▁t	-24
▁la	-25
in	-26
▁v	-27
▁qu	-28
il	-29
ur	-30
▁le	-31
te	-32
or	-33
▁f	-34
▁r	-35
▁u	-36
it	-37
▁et	-38
est	-39
▁à	-40
▁les	-41
▁des	-42
▁n	-43
om	-44
our	-45
▁en	-46
us	-47
ment	-48
▁é	-49
as	-50
▁b	-51
ont	-52
ant	-53
tion	-54
el	-55
▁L	-56
▁pr	-57
au	-58
al	-59
ous	-60
me	-61
ie	-62
▁j	-63
▁au	-64
▁g	-65
▁est	-66
ait	-67
ans	-68
▁du	-69
▁par	-70
▁pl	-71
ce	-72
té	-73
▁un	-74
ir	-75
ag	-76
ais	-77
▁.	-78
ch	-79
eu	-80
▁tr	-81
ve	-82
és	-83
▁que	-84
que	-85
▁il	-86
ér	-87
tr	-88
ation	-89
ons	-90
▁com	-91
ci	-92
▁une	-93
tre	-94
os	-95
▁pour	-96
▁ch	-97
ol	-98
mp	-99
de	-100
▁dé	-101
les	-102
▁re	-103
at	-104
▁pas	-105
▁dans	-106
ée	-107
▁se	-108
ers	-109
▁qui	-110
▁plus	-111
ien	-112
▁C	-113
▁sur	-114
oi	-115
▁in	-116
▁vous	-117
se	-118
ap	-119
ain	-120
li	-121
end	-122
ff	-123
▁h	-124
un	-125
ouv	-126
ab	-127
▁ce	-128
▁pro	-129
am	-130
ale	-131
ue	-132
pr	-133
si	-134
▁sont	-135
▁ne	-136
ois	-137
ac	-138
ux	-139
di	-140
res	-141
▁S	-142
▁ré	-143
iv	-144
▁?	-145
av	-146
▁con	-147
and	-148
▁peu	-149
ort	-150
ig	-151
▁av	-152
▁su	-153
lle	-154
im	-155
ès	-156
▁o	-157
urs	-158
iè	-159
▁Les	-160
▁été	-161
▁ou	-162
tes	-163
▁gr	-164
ure	-165
ées	-166
ic	-167
▁vo	-168
ques	-169
▁ét	-170
op	-171
▁je	-172
▁ont	-173
elle	-174
▁Le	-175
▁an	-176
ul	-177
aire	-178
id	-179
age	-180
▁A	-181
..	-182
ité	-183
▁P	-184
▁ave	-185
ille	-186
▁di	-187
onn	-188
▁tou	-189
▁ex	-190
ati	-191
ay	-192
ui	-193
▁D	-194
aient	-195
ot	-196
ang	-197
▁M	-198
ique	-199
▁!	-200
et	-201
bre	-202
aux	-203
▁son	-204
▁I	-205
▁mais	-206
▁1	-207
oir	-208
ces	-209
oin	-210
ert	-211
▁avec	-212
une	-213
ter	-214
pe	-215
être	-216
tres	-217
▁La	-218
oc	-219
ier	-220
▁nom	-221
ion	-222
▁si	-223
lé	-224
▁»	-225
▁cons	-226
én	-227
og	-228
▁(	-229
▁elle	-230
alement	-231
▁«	-232
ants	-233
▁E	-234
ord	-235
▁rue	-236
ors	-237
um	-238
ad	-239
▁cr	-240
▁deux	-241
▁ent	-242
▁T	-243
ét	-244
ère	-245
00	-246
ens	-247
par	-248
▁B	-249
emp	-250
ance	-251
ing	-252
▁sa	-253
che	-254
if	-255
▁mar	-256
ut	-257
▁déc	-258
▁ar	-259
ine	-260
▁ac	-261
▁comme	-262
ations	-263
mes	-264
▁Il	-265
vent	-266
éc	-267
ante	-268
▁ap	-269
oit	-270
ard	-271
uit	-272
tte	-273
▁aux	-274
▁2	-275
▁être	-276
ge	-277
▁comp	-278
uis	-279
▁bien	-280
oy	-281
imp	-282
▁fr	-283
▁N	-284
lis	-285
▁fait	-286
▁mon	-287
eau	-288
▁parti	-289
ême	-290
ace	-291
able	-292
ière	-293
▁dis	-294
▁tout	-295
▁al	-296
▁y	-297
▁peut	-298
▁for	-299
ction	-300
▁G	-301
▁leur	-302
ays	-303
▁es	-304
▁nous	-305
onne	-306
▁ser	-307
mb	-308
iques	-309
ains	-310
▁me	-311
▁pers	-312
ts	-313
▁cont	-314
▁tu	-315
▁pe	-316
ments	-317
ours	-318
▁comm	-319
▁on	-320
nes	-321
ong	-322
ence	-323
▁dev	-324
...	-325
▁ég	-326
ond	-327
endant	-328
▁nombre	-329
▁pays	-330
ate	-331
ents	-332
aires	-333
▁R	-334
▁car	-335
ande	-336
▁J	-337
▁temp	-338
ri	-339
eux	-340
tin	-341
tu	-342
▁as	-343
ouve	-344
▁cel	-345
▁était	-346
▁également	-347
rem	-348
ures	-349
▁per	-350
ist	-351
▁env	-352
▁ph	-353
près	-354
oup	-355
orte	-356
ils	-357
▁prés	-358
app	-359
▁cette	-360
tilis	-361
▁ca	-362
ill	-363
ouver	-364
ente	-365
▁diff	-366
▁rou	-367
▁imp	-368
▁ter	-369
ign	-370
endre	-371
▁peuvent	-372
▁H	-373
▁pos	-374
éd	-375
ail	-376
▁mil	-377
▁même	-378
▁am	-379
▁che	-380
▁cent	-381
ats	-382
pos	-383
lar	-384
▁quel	-385
ré	-386
▁at	-387
▁grand	-388
lè	-389
min	-390
▁cert	-391
▁trav	-392
▁très	-393
▁U	-394
ici	-395
ore	-396
▁ma	-397
▁ob	-398
ten	-399
▁rés	-400
▁F	-401
ib	-402
elles	-403
st	-404
ég	-405
▁app	-406
▁En	-407
▁ils	-408
▁br	-409
ouvent	-410
ass	-411
oins	-412
ph	-413
▁conn	-414
▁entre	-415
ub	-416
aine	-417
▁res	-418
▁peti	-419
▁voy	-420
▁faire	-421
cip	-422
ite	-423
iss	-424
▁où	-425
ec	-426
▁vis	-427
▁prem	-428
ourn	-429
ture	-430
▁ses	-431
onnes	-432
orm	-433
ussi	-434
ole	-435
▁ann	-436
▁gén	-437
onc	-438
▁rég	-439
aut	-440
▁cour	-441
▁lors	-442
▁V	-443
▁trois	-444
ex	-445
▁pré	-446
oire	-447
▁après	-448
out	-449
▁ti	-450
od	-451
sion	-452
▁utilis	-453
ages	-454
▁man	-455
▁sou	-456
itu	-457
lles	-458
▁mal	-459
▁fin	-460
autres	-461
▁personnes	-462
▁ces	-463
▁mont	-464
mis	-465
ales	-466
▁seu	-467
uc	-468
▁déclar	-469
tique	-470
cu	-471
▁avait	-472
ob	-473
ça	-474
▁st	-475
ingt	-476
▁sous	-477
▁K	-478
alis	-479
▁génér	-480
agn	-481
ler	-482
ra	-483
▁Ch	-484
▁lui	-485
lement	-486
▁souvent	-487
▁:	-488
▁tous	-489
▁ça	-490
ins	-491
▁votre	-492
▁k	-493
ieu	-494
▁cl	-495
▁éc	-496
▁aim	-497
pl	-498
▁bas	-499
aines	-500
tions	-501
▁mé	-502
erre	-503
anc	-504
rent	-505
▁arr	-506
ann	-507
aison	-508
vous	-509
▁aut	-510
part	-511
▁avoir	-512
▁prin	-513
ions	-514
▁plu	-515
tif	-516
use	-517
▁rép	-518
▁aussi	-519
▁or	-520
ités	-521
▁min	-522
élé	-523
ient	-524
▁long	-525
▁O	-526
▁sp	-527
cher	-528
▁compr	-529
erv	-530
rer	-531
ête	-532
ieux	-533
iste	-534
ième	-535
▁vers	-536
▁moins	-537
▁pol	-538
▁temps	-539
▁sans	-540
▁z	-541
oule	-542
▁leurs	-543
▁trans	-544
rit	-545
ues	-546
▁cap	-547
▁jus	-548
all	-549
ieur	-550
omme	-551
▁suis	-552
tér	-553
qui	-554
▁19	-555
asse	-556
▁dem	-557
ez	-558
cid	-559
ches	-560
▁aff	-561
▁beau	-562
▁prob	-563
tiques	-564
▁inter	-565
atre	-566
ubli	-567
uses	-568
▁rec	-569
illes	-570
▁envir	-571
ies	-572
▁plupart	-573
ze	-574
ép	-575
ites	-576
jet	-577
▁col	-578
▁monde	-579
ice	-580
rait	-581
tent	-582
▁cin	-583
▁autres	-584
▁voyage	-585
fr	-586
▁enc	-587
▁cela	-588
nement	-589
▁ville	-590
▁ad	-591
▁sû	-592
▁déclaré	-593
▁acc	-594
▁fa	-595
▁dire	-596
▁avant	-597
▁3	-598
ble	-599
omb	-600
iens	-601
ourd	-602
enc	-603
éro	-604
olog	-605
puis	-606
pt	-607
roit	-608
▁cha	-609
▁enf	-610
▁pendant	-611
▁sign	-612
▁tour	-613
▁princip	-614
ieurs	-615
▁É	-616
ide	-617
pér	-618
agne	-619
▁soi	-620
▁pass	-621
▁différ	-622
ables	-623
ud	-624
ange	-625
ivers	-626
▁autre	-627
met	-628
▁déb	-629
one	-630
sez	-631
▁éle	-632
▁milli	-633
).	-634
▁quatre	-635
pec	-636
rez	-637
vez	-638
▁form	-639
▁vingt	-640
▁nombreux	-641
▁rest	-642
tis	-643
aiss	-644
▁sûr	-645
▁dix	-646
▁vol	-647
ident	-648
adi	-649
▁gu	-650
eure	-651
hui	-652
tel	-653
ven	-654
▁sy	-655
▁th	-656
teur	-657
▁ans	-658
▁appel	-659
▁situ	-660
▁co	-661
▁main	-662
▁puis	-663
▁encore	-664
auv	-665
ème	-666
▁né	-667
insi	-668
▁cul	-669
▁moi	-670
▁anim	-671
▁conc	-672
▁prod	-673
tiv	-674
▁».	-675
▁der	-676
▁eff	-677
▁siè	-678
ition	-679
ise	-680
▁inf	-681
▁nord	-682
▁soit	-683
▁grande	-684
▁partie	-685
▁év	-686
ié	-687
elon	-688
▁loc	-689
▁nouv	-690
▁gouver	-691
▁jou	-692
are	-693
anis	-694
▁donc	-695
▁fois	-696
▁télé	-697
ém	-698
coup	-699
iter	-700
ta	-701
fois	-702
▁mer	-703
▁off	-704
▁poin	-705
▁voit	-706
atique	-707
▁no	-708
▁sc	-709
▁dit	-710
▁dern	-711
▁W	-712
▁De	-713
tats	-714
▁Par	-715
▁travail	-716
lig	-717
▁ni	-718
lent	-719
▁chos	-720
port	-721
gr	-722
lu	-723
tés	-724
▁ass	-725
▁non	-726
▁Dans	-727
▁rapp	-728
▁avez	-729
▁gens	-730
▁contre	-731
▁présent	-732
ienne	-733
▁dont	-734
▁ainsi	-735
▁aur	-736
▁dév	-737
▁préc	-738
els	-739
oci	-740
êtes	-741
▁vie	-742
jourd	-743
tement	-744
▁route	-745
▁beaucoup	-746
mé	-747
▁fe	-748
▁vi	-749
ende	-750
ines	-751
ères	-752
▁cor	-753
Un	-754
▁20	-755
▁Ce	-756
▁»,	-757
▁déf	-758
▁fam	-759
onction	-760
▁consid	-761
▁import	-762
arr	-763
cien	-764
▁publi	-765
▁alors	-766
▁elles	-767
▁depuis	-768
▁certains	-769
▁Un	-770
iers	-771
antes	-772
▁serv	-773
▁contr	-774
udi	-775
▁mes	-776
▁sol	-777
▁comb	-778
▁place	-779
▁raison	-780
▁fonction	-781
ak	-782
per	-783
▁ab	-784
▁cas	-785
▁lég	-786
▁pouv	-787
▁4	-788
cle	-789
era	-790
éci	-791
▁liv	-792
▁dép	-793
aille	-794
▁port	-795
▁étaient	-796
cess	-797
▁dom	-798
ustr	-799
ances	-800
▁permet	-801
acc	-802
ire	-803
ganis	-804
▁lieu	-805
aud	-806
▁là	-807
▁dou	-808
anger	-809
amment	-810
pendant	-811
ov	-812
▁Si	-813
opul	-814
uite	-815
▁fut	-816
▁char	-817
▁mons	-818
▁meille	-819
▁enfants	-820
él	-821
▁;	-822
▁cô	-823
oyen	-824
▁inc	-825
▁indi	-826
▁part	-827
ellement	-828
▁animaux	-829
oupe	-830
▁ind	-831
ature	-832
▁arriv	-833
▁environ	-834
▁personne	-835
▁plusieurs	-836
uf	-837
urop	-838
▁fem	-839
▁donn	-840
▁pres	-841
▁ta	-842
▁esp	-843
▁conf	-844
▁repr	-845
▁toute	-846
▁te	-847
iles	-848
èrent	-849
était	-850
▁culture	-851
▁monsieur	-852
ame	-853
▁Au	-854
isme	-855
▁200	-856
▁Une	-857
▁fond	-858
▁mati	-859
▁prof	-860
▁trop	-861
▁popul	-862
he	-863
ela	-864
▁oc	-865
▁lang	-866
▁près	-867
▁jusqu	-868
la	-869
▁eu	-870
aint	-871
appr	-872
▁num	-873
▁trente	-874
cep	-875
œur	-876
▁sé	-877
▁hab	-878
▁cher	-879
uction	-880
▁spéci	-881
▁end	-882
ateur	-883
▁possi	-884
▁bl	-885
▁jam	-886
▁aujourd	-887
▁5	-888
ige	-889
▁ju	-890
elop	-891
▁jeu	-892
▁sec	-893
▁Bien	-894
cident	-895
▁cours	-896
▁États	-897
▁premier	-898
rap	-899
▁va	-900
▁sci	-901
ières	-902
▁syst	-903
▁problè	-904
▁comment	-905
▁particu	-906
ode	-907
▁sud	-908
ommes	-909
000	-910
▁Gr	-911
▁ép	-912
▁emp	-913
▁var	-914
▁ven	-915
▁cond	-916
▁quar	-917
▁certaines	-918
ls	-919
tée	-920
▁bon	-921
▁bou	-922
▁rel	-923
jours	-924
▁camp	-925
▁phot	-926
▁nouve	-927
▁considér	-928
aî	-929
cs	-930
mi	-931
év	-932
ges	-933
aise	-934
teurs	-935
▁exemp	-936
▁signif	-937
▁première	-938
ip	-939
ôt	-940
▁X	-941
mble	-942
éric	-943
▁Ces	-944
▁fer	-945
▁mat	-946
▁ret	-947
ences	-948
▁appr	-949
▁êtes	-950
▁nation	-951
▁nombreuses	-952
iez	-953
onom	-954
uits	-955
▁ren	-956
▁simp	-957
ix	-958
ade	-959
mar	-960
ves	-961
ène	-962
équ	-963
igne	-964
▁fais	-965
▁sera	-966
ouvert	-967
▁généralement	-968
▁On	-969
orts	-970
▁ess	-971
▁thé	-972
▁Pour	-973
▁pris	-974
▁guerre	-975
▁propos	-976
▁trouve	-977
gu	-978
ow	-979
ern	-980
▁ag	-981
▁km	-982
▁fil	-983
entif	-984
▁faci	-985
▁région	-986
▁scientif	-987
éri	-988
veau	-989
▁gar	-990
▁mot	-991
▁faut	-992
▁chemin	-993
▁jamais	-994
ner	-995
▁fl	-996
ager	-997
▁auc	-998
ograp	-999
▁Cela	-1000
▁jour	-1001
▁groupe	-1002
▁travers	-1003
az	-1004
olu	-1005
▁dr	-1006
llem	-1007
quer	-1008
titu	-1009
▁bes	-1010
▁lim	-1011
▁fran	-1012
vement	-1013
▁dévelop	-1014
▁voiture	-1015
▁toujours	-1016
rai	-1017
▁ah	-1018
▁all	-1019
alité	-1020
istre	-1021
▁remp	-1022
▁tomb	-1023
yp	-1024
ane	-1025
▁déj	-1026
▁met	-1027
▁rap	-1028
autre	-1029
▁doit	-1030
▁assez	-1031
▁selon	-1032
▁commenc	-1033
▁quelques	-1034
▁gouvernement	-1035
ché	-1036
dre	-1037
omm	-1038
ones	-1039
▁cré	-1040
▁deven	-1041
▁étudi	-1042
▁numéro	-1043
ablement	-1044
ah	-1045
hn	-1046
▁gé	-1047
▁fai	-1048
▁viv	-1049
quipe	-1050
▁porte	-1051
istoire	-1052
▁particuli	-1053
▁6	-1054
amb	-1055
int	-1056
Unis	-1057
mbre	-1058
▁sub	-1059
▁w	-1060
agit	-1061
ital	-1062
uire	-1063
▁can	-1064
▁nav	-1065
tenir	-1066
▁voir	-1067
▁journ	-1068
▁moyen	-1069
▁système	-1070
att	-1071
omp	-1072
rés	-1073
▁sk	-1074
atif	-1075
chet	-1076
▁ins	-1077
▁sav	-1078
entre	-1079
▁mois	-1080
▁site	-1081
▁crois	-1082
▁siècle	-1083
▁scientifiques	-1084
th	-1085
ense	-1086
temp	-1087
▁Ils	-1088
▁eux	-1089
▁hum	-1090
▁mod	-1091
▁cinq	-1092
▁suiv	-1093
yr	-1094
fin	-1095
rir	-1096
▁li	-1097
land	-1098
nent	-1099
pect	-1100
▁autor	-1101
▁reste	-1102
▁commun	-1103
air	-1104
des	-1105
▁he	-1106
less	-1107
entes	-1108
▁prov	-1109
▁soci	-1110
ateurs	-1111
▁bonne	-1112
▁améric	-1113
▁recher	-1114
ia	-1115
▁î	-1116
atr	-1117
ich	-1118
▁im	-1119
ètres	-1120
▁Cert	-1121
▁terre	-1122
▁organis	-1123
amp	-1124
ule	-1125
enti	-1126
▁dés	-1127
▁ici	-1128
▁lar	-1129
ouvez	-1130
▁!...	-1131
▁mort	-1132
▁sept	-1133
▁seul	-1134
▁quand	-1135
aï	-1136
erg	-1137
ôle	-1138
▁suc	-1139
▁vos	-1140
andis	-1141
istes	-1142
▁rien	-1143
▁sais	-1144
▁sauv	-1145
▁sœur	-1146
▁notre	-1147
▁petit	-1148
▁années	-1149
▁constr	-1150
▁nécess	-1151
▁endroit	-1152
▁lorsque	-1153
▁8	-1154
cul	-1155
▁cet	-1156
▁mad	-1157
▁coup	-1158
▁suff	-1159
▁bless	-1160
▁chose	-1161
▁mondi	-1162
▁dispos	-1163
▁millions	-1164
▁nouvelle	-1165
▁signifie	-1166
arg	-1167
esp	-1168
ymp	-1169
endu	-1170
▁ple	-1171
▁ten	-1172
▁début	-1173
▁demand	-1174
▁pouvez	-1175
idé	-1176
oul	-1177
rès	-1178
vis	-1179
▁dur	-1180
▁men	-1181
▁six	-1182
▁nuit	-1183
tenant	-1184
▁cinqu	-1185
▁trouver	-1186
qué	-1187
ret	-1188
uss	-1189
çon	-1190
▁Al	-1191
apon	-1192
form	-1193
▁000	-1194
▁201	-1195
▁aér	-1196
▁str	-1197
▁étr	-1198
▁chef	-1199
▁extr	-1200
iennes	-1201
▁avaient	-1202
lex	-1203
anti	-1204
tien	-1205
▁civ	-1206
▁sup	-1207
avant	-1208
sions	-1209
▁pens	-1210
▁mieux	-1211
▁mille	-1212
▁prendre	-1213
),	-1214
avez	-1215
oise	-1216
▁mét	-1217
xante	-1218
▁afin	-1219
▁dépl	-1220
▁tant	-1221
▁zéro	-1222
▁habit	-1223
▁contin	-1224
▁niveau	-1225
▁téléph	-1226
▁parfois	-1227
▁quarante	-1228
▁Fr	-1229
oque	-1230
orig	-1231
orté	-1232
▁lum	-1233
▁maj	-1234
▁mis	-1235
▁élé	-1236
▁joue	-1237
▁poli	-1238
▁élev	-1239
ograph	-1240
▁grands	-1241
▁maison	-1242
oix	-1243
tant	-1244
▁doc	-1245
▁fort	-1246
▁laqu	-1247
▁minu	-1248
▁îles	-1249
nation	-1250
utilis	-1251
▁capit	-1252
▁nature	-1253
▁police	-1254
▁deuxième	-1255
▁président	-1256
éb	-1257
aff	-1258
▁ol	-1259
▁obs	-1260
▁oui	-1261
▁plan	-1262
▁péri	-1263
▁heure	-1264
▁compte	-1265
▁termin	-1266
▁visite	-1267
▁laquelle	-1268
▁soixante	-1269
▁problèmes	-1270
In	-1271
ili	-1272
iti	-1273
reg	-1274
▁pê	-1275
▁exc	-1276
▁mom	-1277
▁déjà	-1278
▁parc	-1279
ctions	-1280
frique	-1281
raient	-1282
▁direc	-1283
▁droit	-1284
▁franç	-1285
▁chaque	-1286
▁madame	-1287
▁toutes	-1288
▁exemple	-1289
▁utilisé	-1290
▁connaiss	-1291
▁transport	-1292
yn	-1293
êt	-1294
ave	-1295
ime	-1296
jec	-1297
lus	-1298
▁ri	-1299
ides	-1300
▁bar	-1301
▁ord	-1302
▁rev	-1303
▁reç	-1304
▁sal	-1305
suite	-1306
▁chez	-1307
ustral	-1308
▁suite	-1309
▁tradi	-1310
histoire	-1311
▁comprendre	-1312
hô	-1313
aur	-1314
ilà	-1315
lic	-1316
ock	-1317
tifs	-1318
▁reg	-1319
▁font	-1320
▁retr	-1321
▁jours	-1322
▁théor	-1323
▁voilà	-1324
▁étant	-1325
▁aurait	-1326
▁réalis	-1327
iversité	-1328
éh	-1329
ach	-1330
▁St	-1331
pres	-1332
quoi	-1333
▁Des	-1334
▁dir	-1335
▁atte	-1336
▁ense	-1337
▁pati	-1338
▁livre	-1339
▁saint	-1340
▁ancien	-1341
▁change	-1342
▁existe	-1343
▁langue	-1344
▁compagn	-1345
▁rapport	-1346
▁Cependant	-1347
ok	-1348
pé	-1349
ied	-1350
lin	-1351
mée	-1352
net	-1353
▁gl	-1354
▁mo	-1355
entr	-1356
▁doi	-1357
▁nos	-1358
▁bois	-1359
▁perd	-1360
▁besoin	-1361
▁petits	-1362
▁public	-1363
▁manière	-1364
▁quelque	-1365
▁commencé	-1366
▁internation	-1367
ps	-1368
ru	-1369
chn	-1370
cin	-1371
hab	-1372
ohn	-1373
uve	-1374
été	-1375
lant	-1376
▁bat	-1377
anche	-1378
▁large	-1379
▁reven	-1380
▁seule	-1381
▁techn	-1382
▁distin	-1383
▁famille	-1384
▁pouvoir	-1385
▁possible	-1386
▁7	-1387
▁Q	-1388
▁À	-1389
mer	-1390
sus	-1391
tez	-1392
▁In	-1393
▁fle	-1394
▁vit	-1395
▁Lors	-1396
▁ques	-1397
périen	-1398
▁activ	-1399
▁appar	-1400
▁celui	-1401
▁match	-1402
origine	-1403
▁classe	-1404
endement	-1405
iquement	-1406
onnement	-1407
▁nouveau	-1408
▁comporte	-1409
▁maintenant	-1410
orn	-1411
ras	-1412
éen	-1413
▁vu	-1414
istr	-1415
otte	-1416
▁mus	-1417
▁vér	-1418
urité	-1419
▁ceux	-1420
▁proc	-1421
▁semb	-1422
▁vrai	-1423
issage	-1424
▁condi	-1425
▁relig	-1426
▁tourn	-1427
isation	-1428
▁choses	-1429
▁compos	-1430
▁femmes	-1431
▁petite	-1432
▁réserv	-1433
▁tradition	-1434
oû	-1435
▁—	-1436
tég	-1437
étr	-1438
▁ru	-1439
orti	-1440
▁feu	-1441
▁rév	-1442
temps	-1443
▁haut	-1444
▁tard	-1445
ication	-1446
▁heures	-1447
▁inform	-1448
▁moment	-1449
▁rapide	-1450
▁dernier	-1451
0,	-1452
act	-1453
▁(1	-1454
ards	-1455
bles	-1456
▁coû	-1457
▁dér	-1458
▁sem	-1459
▁séc	-1460
heure	-1461
ilité	-1462
oleil	-1463
urope	-1464
▁inst	-1465
▁Terre	-1466
▁olymp	-1467
▁pours	-1468
▁quelle	-1469
▁suffis	-1470
▁grandes	-1471
▁pratique	-1472
ro	-1473
ry	-1474
uv	-1475
enf	-1476
ind	-1477
oss	-1478
uli	-1479
ette	-1480
iver	-1481
▁cad	-1482
▁cli	-1483
▁tre	-1484
▁jean	-1485
▁tête	-1486
▁élec	-1487
action	-1488
▁affir	-1489
▁offici	-1490
▁points	-1491
▁devrait	-1492
▁petites	-1493
▁presque	-1494
▁ministre	-1495
▁pourrait	-1496
gn	-1497
ize	-1498
ède	-1499
erne	-1500
ices	-1501
mont	-1502
ress	-1503
tées	-1504
▁ait	-1505
▁not	-1506
▁pan	-1507
▁ref	-1508
▁riv	-1509
▁sus	-1510
▁toi	-1511
▁nour	-1512
▁vois	-1513
▁aimer	-1514
▁année	-1515
▁centr	-1516
▁vites	-1517
▁commer	-1518
▁doivent	-1519
▁général	-1520
▁journée	-1521
ell	-1522
fér	-1523
tat	-1524
écu	-1525
élè	-1526
île	-1527
▁Sh	-1528
▁cy	-1529
ider	-1530
iser	-1531
▁Mal	-1532
▁Mar	-1533
▁Sud	-1534
▁log	-1535
▁ski	-1536
▁film	-1537
▁pied	-1538
▁prix	-1539
▁père	-1540
▁viol	-1541
équipe	-1542
▁essay	-1543
▁malad	-1544
▁point	-1545
▁somme	-1546
endance	-1547
▁projet	-1548
▁représ	-1549
▁ensuite	-1550
▁pourquoi	-1551
▁différents	-1552
iel	-1553
oid	-1554
oph	-1555
ori	-1556
éan	-1557
alif	-1558
ible	-1559
▁ban	-1560
▁prop	-1561
▁resp	-1562
▁terr	-1563
▁donne	-1564
▁forme	-1565
▁matin	-1566
▁souff	-1567
gré	-1568
ype	-1569
▁op	-1570
icul	-1571
même	-1572
▁fac	-1573
▁let	-1574
veill	-1575
▁rend	-1576
▁sour	-1577
riture	-1578
▁celle	-1579
▁connu	-1580
▁progr	-1581
▁résul	-1582
▁sujet	-1583
mission	-1584
nements	-1585
térieur	-1586
èrement	-1587
▁course	-1588
▁tandis	-1589
université	-1590
ox	-1591
huit	-1592
▁loi	-1593
▁roi	-1594
▁ver	-1595
▁vic	-1596
▁base	-1597
▁côté	-1598
▁norm	-1599
argent	-1600
▁affec	-1601
▁capac	-1602
▁champ	-1603
▁effet	-1604
▁manif	-1605
▁annonc	-1606
▁serait	-1607
▁Certains	-1608
▁mondiale	-1609
▁étudiants	-1610
af	-1611
ha	-1612
èg	-1613
ose	-1614
ates	-1615
enue	-1616
onde	-1617
oute	-1618
sept	-1619
oupes	-1620
▁actu	-1621
▁pont	-1622
▁civil	-1623
▁sites	-1624
olution	-1625
tention	-1626
▁destin	-1627
▁observ	-1628
▁sécurité	-1629
▁seulement	-1630
aci	-1631
ran	-1632
usé	-1633
âge	-1634
éch	-1635
▁bâ	-1636
▁pu	-1637
avor	-1638
onie	-1639
quel	-1640
▁but	-1641
▁cer	-1642
▁nég	-1643
mbres	-1644
ément	-1645
▁?...	-1646
▁disp	-1647
▁gros	-1648
▁mari	-1649
▁orig	-1650
▁peup	-1651
▁étab	-1652
andonn	-1653
encont	-1654
▁passe	-1655
▁sorti	-1656
▁centre	-1657
▁longue	-1658
▁permis	-1659
▁savoir	-1660
▁située	-1661
▁matière	-1662
entissage	-1663
▁contrôle	-1664
▁endroits	-1665
▁autorités	-1666
▁cependant	-1667
""	-1668
II	-1669
dr	-1670
▁Z	-1671
art	-1672
och	-1673
▁XV	-1674
inos	-1675
yant	-1676
érie	-1677
▁div	-1678
▁dét	-1679
▁lit	-1680
▁méd	-1681
▁réd	-1682
oires	-1683
êtres	-1684
▁Tout	-1685
▁face	-1686
▁inté	-1687
▁loin	-1688
▁soir	-1689
▁Selon	-1690
▁avons	-1691
▁conse	-1692
▁corps	-1693
▁envoy	-1694
▁fourn	-1695
▁march	-1696
▁miles	-1697
▁sorte	-1698
▁train	-1699
périence	-1700
▁combien	-1701
▁régions	-1702
▁capitale	-1703
▁manifest	-1704
▁particulier	-1705
bl	-1706
ami	-1707
iff	-1708
ète	-1709
isse	-1710
neuf	-1711
oche	-1712
quip	-1713
▁cat	-1714
▁lib	-1715
▁vir	-1716
agnol	-1717
aises	-1718
▁poss	-1719
▁prom	-1720
▁aucun	-1721
▁chaud	-1722
▁europ	-1723
▁façon	-1724
▁ligne	-1725
▁zones	-1726
▁devant	-1727
▁mesure	-1728
▁partir	-1729
▁répond	-1730
▁maisons	-1731
▁important	-1732
co	-1733
eff	-1734
env	-1735
lev	-1736
▁hô	-1737
anté	-1738
arch	-1739
êmes	-1740
▁val	-1741
▁veu	-1742
après	-1743
école	-1744
▁mots	-1745
▁neuf	-1746
▁phil	-1747
▁succ	-1748
▁état	-1749
lément	-1750
▁aller	-1751
▁femme	-1752
▁homme	-1753
▁super	-1754
▁arrivé	-1755
▁divers	-1756
▁locale	-1757
▁lorsqu	-1758
▁saison	-1759
▁soient	-1760
▁temple	-1761
▁lumière	-1762
▁membres	-1763
▁minutes	-1764
▁rencont	-1765
▁vitesse	-1766
▁longtemps	-1767
▁facilement	-1768
▁principale	-1769
man	-1770
off	-1771
raî	-1772
tim	-1773
urg	-1774
▁10	-1775
▁11	-1776
▁15	-1777
▁16	-1778
▁18	-1779
▁An	-1780
▁Gu	-1781
▁Ne	-1782
▁Re	-1783
▁Su	-1784
▁ir	-1785
ires	-1786
join	-1787
▁100	-1788
▁abs	-1789
inter	-1790
quant	-1791
▁John	-1792
▁Nous	-1793
▁Vous	-1794
▁espè	-1795
▁hier	-1796
▁lanc	-1797
▁priv	-1798
▁quoi	-1799
▁surv	-1800
▁vais	-1801
▁vidé	-1802
▁Chine	-1803
▁avenue	-1804
▁sommes	-1805
▁taille	-1806
▁période	-1807
▁service	-1808
▁particip	-1809
▁nouvelles	-1810
▁recherche	-1811
▁voyageurs	-1812
▁population	-1813
▁probablement	-1814
be	-1815
tro	-1816
aill	-1817
aite	-1818
aque	-1819
llez	-1820
ourg	-1821
tier	-1822
ènes	-1823
▁cop	-1824
▁rep	-1825
▁règ	-1826
iment	-1827
oulez	-1828
pital	-1829
▁aimé	-1830
▁bate	-1831
▁bâti	-1832
▁reçu	-1833
▁allez	-1834
▁cadre	-1835
▁cellu	-1836
▁situé	-1837
▁spect	-1838
▁struc	-1839
▁trouv	-1840
▁passer	-1841
▁spécif	-1842
▁voulez	-1843
▁français	-1844
▁cinquante	-1845
apprentissage	-1846
arc	-1847
cal	-1848
lec	-1849
ots	-1850
uiv	-1851
▁bi	-1852
oirs	-1853
orth	-1854
tout	-1855
utôt	-1856
▁pén	-1857
▁véh	-1858
asser	-1859
cessi	-1860
ement	-1861
illet	-1862
quent	-1863
tures	-1864
▁bord	-1865
▁chev	-1866
▁médi	-1867
▁surf	-1868
▁type	-1869
▁ayant	-1870
▁donné	-1871
▁indép	-1872
▁neige	-1873
▁parle	-1874
▁rempl	-1875
▁santé	-1876
usement	-1877
▁hommes	-1878
▁livres	-1879
▁mètres	-1880
▁précéd	-1881
▁réguli	-1882
▁maladie	-1883
▁spectac	-1884
▁milliers	-1885
9,	-1886
ss	-1887
▁9	-1888
inc	-1889
ysi	-1890
▁Ar	-1891
▁Qu	-1892
médi	-1893
neur	-1894
téri	-1895
udes	-1896
▁ang	-1897
▁bus	-1898
▁fau	-1899
▁mas	-1900
▁piè	-1901
▁évé	-1902
ative	-1903
ibles	-1904
urent	-1905
▁Elle	-1906
▁célè	-1907
▁vari	-1908
cessus	-1909
▁Cette	-1910
▁Comme	-1911
▁enreg	-1912
▁ident	-1913
▁terme	-1914
▁aucune	-1915
▁précis	-1916
▁telles	-1917
▁villes	-1918
▁conserv	-1919
▁humains	-1920
▁produit	-1921
▁meilleure	-1922
▁processus	-1923
▁importante	-1924
bu	-1925
ack	-1926
éli	-1927
adio	-1928
oles	-1929
onné	-1930
umes	-1931
yram	-1932
▁cal	-1933
▁lun	-1934
▁ris	-1935
▁rom	-1936
▁vue	-1937
▁éch	-1938
année	-1939
icile	-1940
▁arrê	-1941
▁atta	-1942
▁docu	-1943
▁fils	-1944
▁gard	-1945
▁mère	-1946
▁méth	-1947
▁pous	-1948
▁sort	-1949
▁tels	-1950
issent	-1951
ouleur	-1952
ouvrir	-1953
pement	-1954
▁accep	-1955
▁cause	-1956
▁glace	-1957
▁puiss	-1958
▁connaî	-1959
▁facile	-1960
▁propre	-1961
istiques	-1962
▁républi	-1963
▁constitu	-1964
▁représent	-1965
▁conditions	-1966
▁différentes	-1967
▁traditionne	-1968
▁développement	-1969
tic	-1970
tor	-1971
uer	-1972
vec	-1973
▁po	-1974
lais	-1975
oyau	-1976
▁hau	-1977
istan	-1978
ouest	-1979
oyens	-1980
quête	-1981
vingt	-1982
▁huit	-1983
▁peur	-1984
▁prév	-1985
▁quit	-1986
▁sait	-1987
▁sent	-1988
▁supp	-1989
années	-1990
▁froid	-1991
▁fréqu	-1992
▁merci	-1993
▁véhic	-1994
▁dirige	-1995
▁plutôt	-1996
andonnée	-1997
llemagne	-1998
▁appelés	-1999
▁distinc	-2000
▁program	-2001
▁surface	-2002
▁télévis	-2003
ologiques	-2004
▁meilleur	-2005
▁notamment	-2006
▁rapidement	-2007
né	-2008
▁%	-2009
▁œ	-2010
ada	-2011
ess	-2012
jou	-2013
oie	-2014
oût	-2015
rec	-2016
▁17	-2017
ator	-2018
fric	-2019
prim	-2020
▁197	-2021
▁sau	-2022
agnes	-2023
ergie	-2024
▁mauv	-2025
▁souh	-2026
accord	-2027
ternet	-2028
ulaire	-2029
▁Après	-2030
▁déter	-2031
▁physi	-2032
▁prati	-2033
▁provo	-2034
énergie	-2035
▁faible	-2036
▁jeunes	-2037
▁reconn	-2038
▁routes	-2039
▁économ	-2040
ographie	-2041
▁entrepr	-2042
▁obtenir	-2043
▁société	-2044
▁comprend	-2045
▁sauvages	-2046
▁changement	-2047
▁nourriture	-2048
▁environnement	-2049
ani	-2050
ash	-2051
ber	-2052
pin	-2053
xim	-2054
auff	-2055
ises	-2056
sons	-2057
▁sim	-2058
mment	-2059
tient	-2060
▁dist	-2061
▁exig	-2062
▁expl	-2063
▁grav	-2064
▁rare	-2065
▁trib	-2066
▁vill	-2067
▁garde	-2068
▁infec	-2069
▁vidéo	-2070
oiseaux	-2071
▁appelé	-2072
▁autour	-2073
▁demain	-2074
▁entraî	-2075
▁origin	-2076
ologique	-2077
▁terminé	-2078
▁détermin	-2079
▁nouveaux	-2080
▁poursuiv	-2081
▁habitants	-2082
▁travaille	-2083
▁suffisamment	-2084
ala	-2085
isl	-2086
oth	-2087
ser	-2088
son	-2089
âce	-2090
aler	-2091
erve	-2092
lait	-2093
orer	-2094
orme	-2095
rant	-2096
seur	-2097
▁att	-2098
▁cir	-2099
▁exp	-2100
▁sep	-2101
homme	-2102
irent	-2103
itann	-2104
térie	-2105
▁chac	-2106
▁intr	-2107
▁méde	-2108
ailles	-2109
espace	-2110
économ	-2111
▁aider	-2112
▁allem	-2113
▁objec	-2114
▁paris	-2115
▁perdu	-2116
▁satel	-2117
▁stand	-2118
▁série	-2119
▁trait	-2120
▁compar	-2121
▁conten	-2122
▁regard	-2123
▁retour	-2124
▁étrang	-2125
▁britann	-2126
▁courant	-2127
▁langues	-2128
▁surtout	-2129
▁familles	-2130
▁politique	-2131
▁téléphone	-2132
▁supplément	-2133
An	-2134
▁i	-2135
iné	-2136
ton	-2137
▁24	-2138
▁30	-2139
▁Tr	-2140
aces	-2141
agas	-2142
idée	-2143
onti	-2144
▁...	-2145
▁Can	-2146
▁bal	-2147
▁dol	-2148
▁typ	-2149
abord	-2150
asion	-2151
océan	-2152
resse	-2153
trait	-2154
▁Avec	-2155
▁Jeux	-2156
▁Mais	-2157
▁Prem	-2158
▁carb	-2159
▁ciel	-2160
▁conv	-2161
▁cuis	-2162
▁dipl	-2163
▁pren	-2164
▁pêch	-2165
époque	-2166
▁hôtel	-2167
▁ordin	-2168
Afrique	-2169
▁France	-2170
▁faites	-2171
▁profes	-2172
▁simple	-2173
▁Pendant	-2174
▁annoncé	-2175
▁célèbre	-2176
Allemagne	-2177
▁national	-2178
▁voitures	-2179
▁simplement	-2180
▁principalement	-2181
lo	-2182
ma	-2183
▁–	-2184
bes	-2185
can	-2186
eur	-2187
ham	-2188
let	-2189
iron	-2190
jour	-2191
▁dim	-2192
▁réc	-2193
▁vas	-2194
onstr	-2195
orité	-2196
▁bout	-2197
▁pier	-2198
▁sens	-2199
▁pyram	-2200
▁resse	-2201
▁chasse	-2202
▁dollar	-2203
▁lequel	-2204
▁rejoin	-2205
▁rendre	-2206
▁électr	-2207
▁compris	-2208
▁demande	-2209
▁respons	-2210
▁restaur	-2211
▁semaine	-2212
▁européen	-2213
▁difficile	-2214
to	-2215
ari	-2216
cop	-2217
ira	-2218
éré	-2219
agné	-2220
atis	-2221
deux	-2222
hors	-2223
onte	-2224
oure	-2225
ront	-2226
tenu	-2227
état	-2228
▁bén	-2229
▁cit	-2230
▁cri	-2231
▁jau	-2232
avait	-2233
▁bure	-2234
▁mang	-2235
bilité	-2236
érique	-2237
▁accue	-2238
▁boule	-2239
▁celles	-2240
▁lettre	-2241
▁parole	-2242
▁rester	-2243
accident	-2244
▁devient	-2245
▁plantes	-2246
ativement	-2247
▁problème	-2248
▁question	-2249
▁services	-2250
▁fonctionne	-2251
▁travailler	-2252
▁comportement	-2253
50	-2254
Am	-2255
Ar	-2256
Ie	-2257
aw	-2258
ank	-2259
duc	-2260
oen	-2261
tit	-2262
vid	-2263
▁oh	-2264
prit	-2265
▁Car	-2266
▁Tur	-2267
▁fes	-2268
▁kil	-2269
▁pay	-2270
▁pen	-2271
▁sac	-2272
▁équ	-2273
avoir	-2274
ption	-2275
tiers	-2276
▁Nord	-2277
▁Plus	-2278
▁atom	-2279
▁ital	-2280
▁rais	-2281
▁ress	-2282
▁voie	-2283
▁voix	-2284
dessus	-2285
ission	-2286
▁Elles	-2287
▁Japon	-2288
▁Toute	-2289
▁aille	-2290
▁devez	-2291
▁décis	-2292
▁grâce	-2293
▁japon	-2294
▁juste	-2295
▁plais	-2296
▁siège	-2297
▁équip	-2298
ulation	-2299
▁Chaque	-2300
▁Grande	-2301
▁confir	-2302
▁connus	-2303
▁dispar	-2304
▁festiv	-2305
▁format	-2306
▁proven	-2307
▁respec	-2308
▁individ	-2309
▁juillet	-2310
▁station	-2311
▁troupes	-2312
▁accident	-2313
▁capacité	-2314
▁ensemble	-2315
▁compagnie	-2316
▁considéré	-2317
▁randonnée	-2318
▁touristes	-2319
▁civilisation	-2320
eb	-2321
je	-2322
eng	-2323
erm	-2324
ote	-2325
ris	-2326
ude	-2327
uté	-2328
êts	-2329
amin	-2330
cinq	-2331
ionn	-2332
oies	-2333
omer	-2334
usse	-2335
usée	-2336
▁eng	-2337
▁fab	-2338
▁inv	-2339
▁pot	-2340
▁tax	-2341
▁ton	-2342
phère	-2343
▁avis	-2344
▁croy	-2345
▁dieu	-2346
▁fati	-2347
▁lune	-2348
▁prot	-2349
▁trou	-2350
▁vien	-2351
▁zone	-2352
cheter	-2353
ellent	-2354
entrée	-2355
phants	-2356
▁accus	-2357
▁assis	-2358
▁favor	-2359
▁kilom	-2360
▁milit	-2361
▁peine	-2362
▁radio	-2363
▁scène	-2364
ception	-2365
ination	-2366
organis	-2367
▁accord	-2368
▁auprès	-2369
▁dispon	-2370
ustralie	-2371
▁dollars	-2372
▁activité	-2373
▁ailleurs	-2374
▁campagne	-2375
▁derniers	-2376
▁reconstr	-2377
▁principal	-2378
utilisation	-2379
▁spécifiques	-2380
by	-2381
ek	-2382
gh	-2383
gé	-2384
of	-2385
aix	-2386
lan	-2387
oti	-2388
tur	-2389
▁mm	-2390
lite	-2391
oite	-2392
▁ami	-2393
▁chu	-2394
▁cyc	-2395
▁dég	-2396
▁fen	-2397
▁lac	-2398
▁sex	-2399
▁tot	-2400
istor	-2401
▁club	-2402
▁empl	-2403
▁phas	-2404
▁pron	-2405
▁tent	-2406
ancien	-2407
itions	-2408
ologie	-2409
▁artis	-2410
▁colon	-2411
▁effic	-2412
▁fille	-2413
▁frapp	-2414
▁laiss	-2415
▁parcs	-2416
▁plait	-2417
▁blessé	-2418
▁chante	-2419
▁dehors	-2420
▁risque	-2421
▁répand	-2422
▁réussi	-2423
▁équipe	-2424
▁études	-2425
paravant	-2426
▁nations	-2427
▁centrale	-2428
▁montagne	-2429
▁position	-2430
▁religion	-2431
▁découvert	-2432
▁montagnes	-2433
▁situation	-2434
▁kilomètres	-2435
▁olympiques	-2436
▁déclaration	-2437
▁informations	-2438
▁Y	-2439
acé	-2440
aie	-2441
arm	-2442
aul	-2443
sun	-2444
sur	-2445
▁Bl	-2446
▁Me	-2447
▁is	-2448
ades	-2449
crit	-2450
ensi	-2451
illé	-2452
lise	-2453
oine	-2454
quie	-2455
quér	-2456
tiqu	-2457
voir	-2458
▁199	-2459
▁New	-2460
▁Rom	-2461
▁Son	-2462
▁caf	-2463
▁dyn	-2464
▁fit	-2465
▁tar	-2466
agent	-2467
ancer	-2468
lande	-2469
ouvre	-2470
tiens	-2471
▁Hong	-2472
▁août	-2473
▁carr	-2474
▁sang	-2475
▁visa	-2476
iciles	-2477
sement	-2478
▁cents	-2479
▁dinos	-2480
▁douze	-2481
▁expos	-2482
▁impli	-2483
▁mouve	-2484
▁objet	-2485
▁table	-2486
▁vient	-2487
appelle	-2488
ouvelle	-2489
▁Depuis	-2490
▁Soleil	-2491
▁atomes	-2492
▁forces	-2493
▁peuple	-2494
▁photos	-2495
airement	-2496
▁affirmé	-2497
▁cherche	-2498
▁navires	-2499
▁Internet	-2500
▁dernière	-2501
▁physique	-2502
▁résultats	-2503
▁satellite	-2504
▁difficiles	-2505
▁expérience	-2506
▁politiques	-2507
▁pourraient	-2508
▁construction	-2509
ik	-2510
car	-2511
cri	-2512
eor	-2513
len	-2514
moi	-2515
ney	-2516
orl	-2517
oux	-2518
tie	-2519
til	-2520
und	-2521
ver	-2522
yon	-2523
abet	-2524
acif	-2525
dats	-2526
inst	-2527
occu	-2528
ètes	-2529
énom	-2530
érat	-2531
▁cam	-2532
▁châ	-2533
▁emb	-2534
▁gaz	-2535
▁lut	-2536
▁rac	-2537
▁rug	-2538
▁réf	-2539
allée	-2540
chent	-2541
cture	-2542
gment	-2543
iller	-2544
image	-2545
moins	-2546
ottes	-2547
ourag	-2548
▁adap	-2549
▁attr	-2550
▁date	-2551
▁déli	-2552
▁jeux	-2553
▁patr	-2554
▁sein	-2555
▁voul	-2556
atives	-2557
avance	-2558
entrer	-2559
▁limit	-2560
▁mains	-2561
▁parmi	-2562
▁passé	-2563
▁pieds	-2564
▁résid	-2565
▁supér	-2566
▁tremb	-2567
▁vents	-2568
hôpital	-2569
ération	-2570
▁banque	-2571
▁chacun	-2572
▁immédi	-2573
▁législ	-2574
▁mettre	-2575
▁procéd	-2576
▁qualif	-2577
▁quelqu	-2578
▁retard	-2579
▁signal	-2580
▁chaises	-2581
▁complex	-2582
▁conséqu	-2583
▁extrême	-2584
▁oiseaux	-2585
▁parents	-2586
▁profond	-2587
▁premiers	-2588
▁présente	-2589
▁seraient	-2590
▁utiliser	-2591
▁éléphants	-2592
▁gouverneur	-2593
▁république	-2594
▁uniquement	-2595
▁connaissance	-2596
gg	-2597
▁â	-2598
dix	-2599
emb	-2600
enn	-2601
oud	-2602
rim	-2603
six	-2604
ume	-2605
éti	-2606
▁nu	-2607
▁pâ	-2608
aime	-2609
expl	-2610
odes	-2611
èmes	-2612
▁ali	-2613
▁cav	-2614
▁cér	-2615
▁dès	-2616
▁ges	-2617
▁jol	-2618
enses	-2619
tégor	-2620
étude	-2621
▁coll	-2622
▁cœur	-2623
▁dess	-2624
▁mous	-2625
▁occu	-2626
▁pauv	-2627
▁reti	-2628
▁test	-2629
▁venu	-2630
▁veux	-2631
▁émis	-2632
inform	-2633
issait	-2634
▁bille	-2635
▁navig	-2636
▁noire	-2637
▁autant	-2638
▁cartes	-2639
▁déplac	-2640
▁manque	-2641
▁marché	-2642
▁milieu	-2643
▁source	-2644
avantage	-2645
▁catégor	-2646
▁retourn	-2647
▁théorie	-2648
ification	-2649
▁cellules	-2650
▁commence	-2651
▁commerce	-2652
▁produits	-2653
▁trouvent	-2654
▁vraiment	-2655
amendement	-2656
▁connaître	-2657
▁proposent	-2658
▁amendement	-2659
▁populaires	-2660
▁production	-2661
▁télévision	-2662
▁britannique	-2663
▁extrêmement	-2664
▁actuellement	-2665
20	-2666
9.	-2667
là	-2668
Zél	-2669
abl	-2670
agr	-2671
bas	-2672
idi	-2673
ile	-2674
ola	-2675
tal	-2676
urb	-2677
▁Am	-2678
▁bo	-2679
Inde	-2680
arer	-2681
ball	-2682
bert	-2683
cule	-2684
ectu	-2685
erts	-2686
line	-2687
reux	-2688
urer	-2689
▁Cas	-2690
▁Har	-2691
▁Sch	-2692
▁Sur	-2693
▁bre	-2694
▁deb	-2695
▁gen	-2696
▁mul	-2697
▁mut	-2698
▁mél	-2699
▁por	-2700
▁sty	-2701
ainte	-2702
objet	-2703
oport	-2704
ordre	-2705
uites	-2706
▁Même	-2707
▁Sing	-2708
▁basé	-2709
▁bras	-2710
▁café	-2711
▁flux	-2712
▁stim	-2713
▁tsun	-2714
Europe	-2715
atorze	-2716
issant	-2717
▁Groen	-2718
▁Moyen	-2719
▁Parmi	-2720
▁chiff	-2721
▁distr	-2722
▁envis	-2723
▁force	-2724
▁lieux	-2725
▁lundi	-2726
▁morte	-2727
▁parce	-2728
▁plein	-2729
▁proch	-2730
▁simil	-2731
▁tarif	-2732
▁viens	-2733
▁Canada	-2734
▁bateau	-2735
▁bureau	-2736
▁charge	-2737
▁durant	-2738
▁hôtels	-2739
▁manger	-2740
▁membre	-2741
▁parler	-2742
▁plages	-2743
▁quanti	-2744
▁répons	-2745
▁semble	-2746
▁soleil	-2747
▁unique	-2748
▁vivant	-2749
émission	-2750
▁Lorsque	-2751
▁Turquie	-2752
▁atteint	-2753
▁billets	-2754
▁certain	-2755
▁compren	-2756
▁qualité	-2757
▁soutien	-2758
▁visiter	-2759
▁feuilles	-2760
▁véhicule	-2761
▁Certaines	-2762
▁américain	-2763
▁direction	-2764
▁objectifs	-2765
▁relations	-2766
▁élections	-2767
▁commission	-2768
▁recherches	-2769
▁relativement	-2770
hr	-2771
dif	-2772
ley	-2773
lie	-2774
lit	-2775
mit	-2776
uel	-2777
urr	-2778
zan	-2779
▁eh	-2780
▁rê	-2781
ands	-2782
arde	-2783
ends	-2784
osse	-2785
ouis	-2786
▁etc	-2787
▁tôt	-2788
▁écr	-2789
▁œuv	-2790
ambre	-2791
erlin	-2792
hiver	-2793
trois	-2794
▁aime	-2795
▁alli	-2796
▁demi	-2797
▁détr	-2798
▁fall	-2799
▁lire	-2800
▁mars	-2801
▁reli	-2802
▁réun	-2803
▁veut	-2804
tembre	-2805
ustrie	-2806
▁allée	-2807
▁avion	-2808
▁mange	-2809
▁repos	-2810
▁rouge	-2811
▁vérit	-2812
ouverte	-2813
▁boulev	-2814
▁collec	-2815
▁debout	-2816
▁droite	-2817
▁espèce	-2818
▁fronti	-2819
▁montre	-2820
▁ouvert	-2821
▁provin	-2822
▁riches	-2823
▁sports	-2824
acifique	-2825
tivement	-2826
▁appelée	-2827
▁connais	-2828
▁install	-2829
▁pourrez	-2830
▁ressemb	-2831
▁affaires	-2832
▁ancienne	-2833
▁intéress	-2834
▁présence	-2835
▁enregistr	-2836
▁formation	-2837
▁largement	-2838
▁questions	-2839
entiellement	-2840
amm	-2841
aît	-2842
cre	-2843
gué	-2844
hum	-2845
ick	-2846
igé	-2847
ini	-2848
isé	-2849
old	-2850
èse	-2851
ague	-2852
aide	-2853
ares	-2854
cine	-2855
erse	-2856
oign	-2857
otid	-2858
uclé	-2859
çant	-2860
▁cab	-2861
▁fig	-2862
▁jur	-2863
▁lis	-2864
▁mic	-2865
▁mol	-2866
actér	-2867
asses	-2868
ticle	-2869
ville	-2870
▁ache	-2871
▁adul	-2872
▁enne	-2873
▁exer	-2874
▁faud	-2875
▁paix	-2876
▁quin	-2877
▁yeux	-2878
▁éduc	-2879
endent	-2880
jectif	-2881
▁belle	-2882
▁chang	-2883
▁domes	-2884
▁franc	-2885
▁jeune	-2886
▁multi	-2887
▁oblig	-2888
▁plate	-2889
▁poste	-2890
▁victi	-2891
▁virus	-2892
istique	-2893
retagne	-2894
vention	-2895
▁complè	-2896
▁danger	-2897
▁envoyé	-2898
▁fleuve	-2899
▁marche	-2900
▁matéri	-2901
▁quotid	-2902
▁succès	-2903
▁séjour	-2904
▁éviter	-2905
économie	-2906
▁devenir	-2907
▁enquête	-2908
▁sommeil	-2909
alisation	-2910
▁caractér	-2911
▁citoyens	-2912
▁espagnol	-2913
▁rapports	-2914
▁tourisme	-2915
▁utilisés	-2916
▁aériennes	-2917
▁cinquième	-2918
▁davantage	-2919
▁nationale	-2920
▁populaire	-2921
▁programme	-2922
▁troisième	-2923
▁utilisées	-2924
▁auparavant	-2925
▁directement	-2926
▁principales	-2927
7,	-2928
hy	-2929
con	-2930
fgh	-2931
hlè	-2932
ina	-2933
las	-2934
yth	-2935
▁35	-2936
▁80	-2937
▁At	-2938
▁Dr	-2939
▁Fl	-2940
▁Je	-2941
▁Ma	-2942
▁of	-2943
ames	-2944
erge	-2945
ical	-2946
inés	-2947
otre	-2948
oubl	-2949
rive	-2950
tive	-2951
téor	-2952
uves	-2953
▁400	-2954
▁500	-2955
▁Air	-2956
▁Auc	-2957
▁Ste	-2958
▁arm	-2959
▁ouv	-2960
▁pal	-2961
▁pre	-2962
▁rob	-2963
aleur	-2964
ament	-2965
andes	-2966
areil	-2967
indre	-2968
urant	-2969
▁Char	-2970
▁Cong	-2971
▁Deux	-2972
▁adop	-2973
▁ajou	-2974
▁blog	-2975
▁choc	-2976
▁desc	-2977
▁disc	-2978
▁meur	-2979
▁mise	-2980
▁peux	-2981
▁prim	-2982
▁soup	-2983
▁sugg	-2984
▁vont	-2985
enfant	-2986
éberge	-2987
▁North	-2988
▁Paris	-2989
▁Saint	-2990
▁carte	-2991
▁conne	-2992
▁dange	-2993
▁faune	-2994
▁haute	-2995
▁liste	-2996
▁local	-2997
▁maxim	-2998
▁mêmes	-2999
▁offre	-3000
▁venir	-3001
▁vieux	-3002
Zélande	-3003
akistan	-3004
oubliez	-3005
étaient	-3006
▁Europe	-3007
▁associ	-3008
▁conduc	-3009
▁connue	-3010
▁explos	-3011
▁famili	-3012
▁france	-3013
▁habitu	-3014
▁histor	-3015
▁indien	-3016
▁menace	-3017
▁météor	-3018
▁phénom	-3019
▁porter	-3020
▁proche	-3021
▁réseau	-3022
▁trains	-3023
ancement	-3024
iculture	-3025
▁Afrique	-3026
▁couleur	-3027
▁joueurs	-3028
▁mauvais	-3029
▁auraient	-3030
▁concerne	-3031
▁création	-3032
▁festival	-3033
▁publique	-3034
▁éléments	-3035
▁Groenland	-3036
▁Toutefois	-3037
▁autrefois	-3038
▁spectacle	-3039
▁structure	-3040
▁transform	-3041
▁traverser	-3042
▁disponibles	-3043
▁possibilité	-3044
▁touristique	-3045
▁tremblement	-3046
▁supplémentaires	-3047
bo	-3048
ka	-3049
ys	-3050
za	-3051
ape	-3052
ara	-3053
ger	-3054
inf	-3055
ony	-3056
sec	-3057
ulé	-3058
wan	-3059
▁dû	-3060
▁lu	-3061
aure	-3062
ayon	-3063
bres	-3064
cipe	-3065
illi	-3066
teau	-3067
çons	-3068
émie	-3069
▁jan	-3070
amour	-3071
arriv	-3072
atifs	-3073
endez	-3074
tobre	-3075
usion	-3076
▁bomb	-3077
▁bons	-3078
▁eaux	-3079
▁entr	-3080
▁grec	-3081
▁trad	-3082
chauff	-3083
ologne	-3084
titude	-3085
▁chois	-3086
▁copie	-3087
▁divis	-3088
▁décid	-3089
▁faite	-3090
▁grave	-3091
▁latin	-3092
▁magas	-3093
▁mardi	-3094
▁pêche	-3095
▁salle	-3096
▁écrit	-3097
arrière	-3098
importe	-3099
issaire	-3100
llement	-3101
▁arrêté	-3102
▁combat	-3103
▁devait	-3104
▁objets	-3105
▁pierre	-3106
▁presse	-3107
▁second	-3108
▁surviv	-3109
pression	-3110
▁commune	-3111
▁effectu	-3112
▁impasse	-3113
▁secours	-3114
▁soldats	-3115
▁souhait	-3116
intérieur	-3117
▁demander	-3118
▁présenté	-3119
▁standard	-3120
▁excellent	-3121
▁olympique	-3122
▁septembre	-3123
▁spécialis	-3124
organisation	-3125
fs	-3126
io	-3127
kh	-3128
ars	-3129
imm	-3130
iés	-3131
mos	-3132
▁ai	-3133
▁pi	-3134
cept	-3135
cles	-3136
ings	-3137
itez	-3138
ourt	-3139
urez	-3140
▁agr	-3141
▁air	-3142
▁cru	-3143
▁pér	-3144
▁tel	-3145
▁tex	-3146
armée	-3147
ciens	-3148
front	-3149
ieuse	-3150
ombre	-3151
orter	-3152
tinér	-3153
tième	-3154
ution	-3155
▁atti	-3156
▁cath	-3157
▁célé	-3158
▁jard	-3159
▁lois	-3160
▁onze	-3161
▁préf	-3162
▁prép	-3163
▁torn	-3164
casion	-3165
ension	-3166
érence	-3167
▁exist	-3168
▁ferme	-3169
▁forte	-3170
▁frère	-3171
▁hiver	-3172
▁nuclé	-3173
▁panne	-3174
▁rares	-3175
▁reine	-3176
▁signe	-3177
▁types	-3178
oration	-3179
remment	-3180
▁chiens	-3181
▁circul	-3182
▁diplom	-3183
▁départ	-3184
▁dépass	-3185
▁graves	-3186
▁vallée	-3187
étranger	-3188
▁conduit	-3189
▁contenu	-3190
▁données	-3191
▁faisait	-3192
▁mariage	-3193
▁offrent	-3194
▁parties	-3195
▁passage	-3196
▁proches	-3197
▁propose	-3198
▁réalité	-3199
▁siècles	-3200
▁équipes	-3201
veillance	-3202
▁aimerait	-3203
▁aérienne	-3204
▁dimanche	-3205
▁dépenses	-3206
▁occident	-3207
▁bâtiments	-3208
▁américaine	-3209
▁événements	-3210
▁considèrent	-3211
-1	-3212
1.	-3213
2,	-3214
4,	-3215
6,	-3216
Is	-3217
SA	-3218
sy	-3219
ym	-3220
▁,	-3221
ive	-3222
iée	-3223
obs	-3224
olé	-3225
orv	-3226
oué	-3227
tra	-3228
utr	-3229
éde	-3230
▁""	-3231
▁14	-3232
▁40	-3233
▁As	-3234
▁Bu	-3235
▁Pr	-3236
avid	-3237
extr	-3238
igue	-3239
iété	-3240
once	-3241
ovié	-3242
oyez	-3243
quis	-3244
État	-3245
▁195	-3246
▁196	-3247
▁198	-3248
▁800	-3249
▁Ang	-3250
▁Bal	-3251
▁Fin	-3252
▁Gal	-3253
▁San	-3254
▁Vén	-3255
▁bac	-3256
▁cre	-3257
▁mur	-3258
Union	-3259
credi	-3260
estre	-3261
impos	-3262
seurs	-3263
▁Kong	-3264
▁XVII	-3265
▁chim	-3266
▁clim	-3267
▁domm	-3268
▁esti	-3269
▁four	-3270
▁gagn	-3271
▁lacs	-3272
▁lent	-3273
▁nove	-3274
▁page	-3275
▁pois	-3276
▁préd	-3277
aintes	-3278
cience	-3279
habitu	-3280
import	-3281
ington	-3282
quérir	-3283
tellig	-3284
▁Metro	-3285
▁Super	-3286
▁afric	-3287
▁aient	-3288
▁coûte	-3289
▁foule	-3290
▁incid	-3291
▁intér	-3292
▁lesqu	-3293
▁modif	-3294
▁payer	-3295
▁phras	-3296
▁quant	-3297
▁sport	-3298
▁style	-3299
▁tenir	-3300
▁virtu	-3301
▁vérif	-3302
▁élevé	-3303
actions	-3304
arrivée	-3305
atiques	-3306
endroit	-3307
enfants	-3308
istance	-3309
ographe	-3310
▁Berlin	-3311
▁Guerre	-3312
▁Malgré	-3313
▁appris	-3314
▁grotte	-3315
▁malgré	-3316
▁noires	-3317
▁pauvre	-3318
▁philip	-3319
▁préfér	-3320
▁seront	-3321
▁trouvé	-3322
Bretagne	-3323
objectif	-3324
térieure	-3325
▁Congrès	-3326
▁attaque	-3327
▁austral	-3328
▁besoins	-3329
▁camping	-3330
▁concern	-3331
▁méthode	-3332
▁passant	-3333
▁prononc	-3334
▁propres	-3335
▁rejoint	-3336
▁rivière	-3337
▁sauvage	-3338
▁tempête	-3339
▁tsunami	-3340
▁univers	-3341
▁voyager	-3342
▁voyages	-3343
▁voyagez	-3344
Australie	-3345
▁Nouvelle	-3346
▁certaine	-3347
▁efficace	-3348
▁indépend	-3349
▁novembre	-3350
▁produire	-3351
▁quantité	-3352
▁quatorze	-3353
▁documents	-3354
▁meilleurs	-3355
▁nucléaire	-3356
▁pyramides	-3357
▁rencontre	-3358
▁visiteurs	-3359
▁similaires	-3360
▁circulation	-3361
▁destination	-3362
▁international	-3363
hé	-3364
ug	-3365
▁"	-3366
aér	-3367
erb	-3368
gar	-3369
igr	-3370
igu	-3371
lég	-3372
mén	-3373
oma	-3374
alle	-3375
amen	-3376
dent	-3377
eaux	-3378
enne	-3379
gent	-3380
liss	-3381
oyal	-3382
▁bel	-3383
▁cou	-3384
▁cur	-3385
▁maî	-3386
▁pil	-3387
▁tur	-3388
▁éto	-3389
auche	-3390
ogène	-3391
onner	-3392
▁cens	-3393
▁gare	-3394
▁géné	-3395
▁hors	-3396
▁ment	-3397
▁prol	-3398
▁subs	-3399
▁vaut	-3400
▁vête	-3401
cevoir	-3402
esprit	-3403
sectes	-3404
urance	-3405
étaire	-3406
▁améli	-3407
▁athlè	-3408
▁const	-3409
▁durée	-3410
▁déjeu	-3411
▁piste	-3412
▁pièce	-3413
▁remar	-3414
▁rendu	-3415
▁rugby	-3416
▁savez	-3417
▁sembl	-3418
▁stade	-3419
▁sépar	-3420
anglais	-3421
itation	-3422
lection	-3423
ministr	-3424
▁dessus	-3425
▁devenu	-3426
▁donner	-3427
▁droits	-3428
▁imprim	-3429
▁jouait	-3430
▁joueur	-3431
▁revenu	-3432
▁tribun	-3433
aéroport	-3434
▁capable	-3435
▁central	-3436
▁entière	-3437
▁logique	-3438
▁réserve	-3439
▁réunion	-3440
▁étoiles	-3441
▁bataille	-3442
▁commerci	-3443
▁diverses	-3444
▁document	-3445
▁exemples	-3446
▁générale	-3447
▁histoire	-3448
▁majorité	-3449
▁principe	-3450
▁rarement	-3451
▁milliards	-3452
▁permettre	-3453
▁commissaire	-3454
ed	-3455
mm	-3456
tt	-3457
abs	-3458
gne	-3459
ict	-3460
odi	-3461
rée	-3462
ses	-3463
tié	-3464
èle	-3465
▁do	-3466
▁ve	-3467
astr	-3468
atur	-3469
cier	-3470
dans	-3471
erry	-3472
fait	-3473
iner	-3474
inet	-3475
lier	-3476
oris	-3477
rich	-3478
rier	-3479
vier	-3480
édér	-3481
éles	-3482
▁cos	-3483
▁dos	-3484
▁mor	-3485
▁mou	-3486
▁nor	-3487
▁pat	-3488
▁rem	-3489
▁sil	-3490
▁tal	-3491
▁web	-3492
agons	-3493
apour	-3494
appar	-3495
iaire	-3496
itent	-3497
lique	-3498
luent	-3499
oient	-3500
quées	-3501
▁aide	-3502
▁infr	-3503
▁mess	-3504
▁pétr	-3505
▁renf	-3506
actère	-3507
ieuses	-3508
église	-3509
▁biens	-3510
▁choix	-3511
▁dynas	-3512
▁débat	-3513
▁escar	-3514
▁fabri	-3515
▁films	-3516
▁fédér	-3517
▁influ	-3518
▁pense	-3519
▁propr	-3520
▁règle	-3521
▁scand	-3522
▁seize	-3523
▁suivi	-3524
▁taxes	-3525
▁telle	-3526
atrième	-3527
▁avions	-3528
▁chauds	-3529
▁compét	-3530
▁former	-3531
▁incend	-3532
▁itinér	-3533
▁minute	-3534
▁montré	-3535
▁nouvel	-3536
▁pensez	-3537
▁pistes	-3538
▁pièces	-3539
▁prépar	-3540
▁recomm	-3541
▁sommet	-3542
▁tempor	-3543
▁établi	-3544
approche	-3545
ouvertes	-3546
▁anciens	-3547
▁dispose	-3548
▁docteur	-3549
▁espèces	-3550
▁faisant	-3551
▁janvier	-3552
▁limites	-3553
▁majeure	-3554
▁mesures	-3555
▁moderne	-3556
▁varient	-3557
▁village	-3558
▁aliments	-3559
▁athlètes	-3560
▁carrière	-3561
▁communau	-3562
▁développ	-3563
▁japonais	-3564
▁médecine	-3565
▁province	-3566
▁regarder	-3567
▁tendance	-3568
▁activités	-3569
▁caractère	-3570
▁différent	-3571
▁développé	-3572
▁nécessité	-3573
▁passeport	-3574
▁prochaine	-3575
▁présentes	-3576
▁étrangers	-3577
▁événement	-3578
▁connaissez	-3579
▁enregistré	-3580
▁nécessaire	-3581
▁permettent	-3582
▁travaillent	-3583
▁photographie	-3584
▁communication	-3585
▁connaissances	-3586
▁installations	-3587
1,	-3588
2.	-3589
8,	-3590
8.	-3591
ON	-3592
US	-3593
Xe	-3594
sp	-3595
up	-3596
vé	-3597
yd	-3598
ël	-3599
arb	-3600
der	-3601
its	-3602
nov	-3603
oga	-3604
ros	-3605
ush	-3606
ège	-3607
▁21	-3608
▁25	-3609
▁36	-3610
▁60	-3611
▁Ap	-3612
▁Br	-3613
▁Is	-3614
▁Ph	-3615
▁Sa	-3616
▁Se	-3617
▁él	-3618
Ital	-3619
adap	-3620
agos	-3621
cool	-3622
gène	-3623
iche	-3624
ipel	-3625
ling	-3626
ning	-3627
onge	-3628
prét	-3629
ttes	-3630
uler	-3631
user	-3632
vant	-3633
xion	-3634
éens	-3635
▁194	-3636
▁Cap	-3637
▁Com	-3638
▁Kan	-3639
▁Lun	-3640
▁Run	-3641
▁bag	-3642
▁del	-3643
▁hos	-3644
▁meu	-3645
▁mém	-3646
▁san	-3647
▁tes	-3648
accès	-3649
aimer	-3650
aller	-3651
aures	-3652
ernes	-3653
fghan	-3654
habit	-3655
hôtel	-3656
icale	-3657
indép	-3658
inité	-3659
otion	-3660
résil	-3661
tisme	-3662
▁Cons	-3663
▁Dani	-3664
▁Norv	-3665
▁Rock	-3666
▁Star	-3667
▁ceci	-3668
▁empê	-3669
▁juge	-3670
▁lait	-3671
▁plac	-3672
▁sexe	-3673
▁taux	-3674
▁vite	-3675
▁vols	-3676
Italie	-3677
agence	-3678
anches	-3679
ignant	-3680
ilibre	-3681
insule	-3682
marins	-3683
ondres	-3684
ources	-3685
quatre	-3686
uisent	-3687
▁Chili	-3688
▁Grand	-3689
▁Suède	-3690
▁autom	-3691
▁bombe	-3692
▁boute	-3693
▁chamb	-3694
▁doute	-3695
▁déliv	-3696
▁lancé	-3697
▁libre	-3698
▁lourd	-3699
▁minus	-3700
▁noyau	-3701
▁sonne	-3702
▁titre	-3703
▁téles	-3704
▁viend	-3705
agement	-3706
aissent	-3707
ampoule	-3708
andises	-3709
avaient	-3710
environ	-3711
iennent	-3712
iterran	-3713
ruption	-3714
uctions	-3715
▁Brésil	-3716
▁Lorsqu	-3717
▁arrive	-3718
▁bonnes	-3719
▁carrés	-3720
▁chutes	-3721
▁combin	-3722
▁crayon	-3723
▁déclen	-3724
▁effets	-3725
▁entend	-3726
▁faudra	-3727
▁flotte	-3728
▁introd	-3729
▁laissé	-3730
▁mascul	-3731
▁orient	-3732
▁procès	-3733
▁refusé	-3734
▁tourne	-3735
Amérique	-3736
aissance	-3737
périment	-3738
titution	-3739
▁Premier	-3740
▁cerveau	-3741
▁continu	-3742
▁domaine	-3743
▁entoure	-3744
▁explosé	-3745
▁italien	-3746
▁lecture	-3747
▁marcher	-3748
▁musique	-3749
▁pensent	-3750
▁personn	-3751
▁retrouv	-3752
▁vieille	-3753
▁élevées	-3754
oviétique	-3755
évolution	-3756
▁Première	-3757
▁consiste	-3758
▁courants	-3759
▁dynastie	-3760
▁déplacer	-3761
▁fenêtres	-3762
▁patients	-3763
▁préparer	-3764
▁puissent	-3765
▁systèmes	-3766
▁théories	-3767
▁télescop	-3768
▁violents	-3769
▁voyageur	-3770
expérience	-3771
▁Pacifique	-3772
▁Plusieurs	-3773
▁Singapour	-3774
▁attention	-3775
▁capacités	-3776
▁carburant	-3777
▁catégorie	-3778
▁connexion	-3779
▁dinosaure	-3780
▁fortement	-3781
▁individus	-3782
▁lentilles	-3783
▁présenter	-3784
▁péninsule	-3785
▁utilisant	-3786
▁américains	-3787
▁compagnies	-3788
▁conscience	-3789
▁couramment	-3790
▁déterminer	-3791
▁provenance	-3792
▁techniques	-3793
indépendance	-3794
▁domestiques	-3795
▁européennes	-3796
▁législation	-3797
▁marchandises	-3798
▁organisation	-3799
▁gouvernements	-3800
▁représentants	-3801
aj	-3802
gy	-3803
sé	-3804
ty	-3805
agu	-3806
ana	-3807
ast	-3808
auc	-3809
dez	-3810
exc	-3811
kin	-3812
lée	-3813
oot	-3814
run	-3815
ébr	-3816
évé	-3817
▁lé	-3818
andi	-3819
assé	-3820
atta	-3821
burg	-3822
cons	-3823
terr	-3824
œurs	-3825
▁hor	-3826
▁int	-3827
▁red	-3828
▁sté	-3829
activ	-3830
avais	-3831
cides	-3832
idité	-3833
igner	-3834
illez	-3835
illon	-3836
oudre	-3837
ressi	-3838
tière	-3839
étais	-3840
▁aura	-3841
▁aver	-3842
▁buts	-3843
▁conç	-3844
▁côte	-3845
▁dorm	-3846
▁dure	-3847
▁néan	-3848
▁omer	-3849
▁opér	-3850
▁symp	-3851
▁sûre	-3852
▁éval	-3853
atoire	-3854
onique	-3855
parole	-3856
▁annon	-3857
▁basée	-3858
▁chant	-3859
▁cérém	-3860
▁exige	-3861
▁fonds	-3862
▁frais	-3863
▁impos	-3864
▁inqui	-3865
▁instr	-3866
▁jouer	-3867
▁libér	-3868
▁massi	-3869
▁menti	-3870
▁numér	-3871
▁plats	-3872
▁proté	-3873
▁scien	-3874
▁seuls	-3875
▁total	-3876
▁voies	-3877
▁voler	-3878
▁évolu	-3879
aliforn	-3880
▁accomp	-3881
▁aiment	-3882
▁animal	-3883
▁changé	-3884
▁chauss	-3885
▁couple	-3886
▁croiss	-3887
▁entier	-3888
▁fleurs	-3889
▁franch	-3890
▁interd	-3891
▁invent	-3892
▁navire	-3893
▁parven	-3894
▁philos	-3895
▁sortie	-3896
▁sortir	-3897
▁territ	-3898
▁volcan	-3899
ensemble	-3900
position	-3901
▁accessi	-3902
▁actions	-3903
▁anglais	-3904
▁arrivée	-3905
▁confort	-3906
▁couvert	-3907
▁demandé	-3908
▁douleur	-3909
▁défavor	-3910
▁défense	-3911
▁groupes	-3912
▁inscrit	-3913
▁lettres	-3914
▁partout	-3915
▁possède	-3916
▁pouvait	-3917
▁terrain	-3918
industrie	-3919
ouverture	-3920
▁chambres	-3921
▁confront	-3922
▁conseils	-3923
▁devaient	-3924
▁figurent	-3925
▁insectes	-3926
▁intellig	-3927
▁lesquels	-3928
▁remporté	-3929
▁sciences	-3930
▁soutenir	-3931
importance	-3932
▁boulevard	-3933
▁continuer	-3934
▁directeur	-3935
▁néanmoins	-3936
▁vêtements	-3937
▁entreprise	-3938
▁identiques	-3939
▁mouvements	-3940
▁ressources	-3941
▁destinations	-3942
▁essentiellement	-3943
.,	-3944
ey	-3945
hu	-3946
ll	-3947
ns	-3948
abo	-3949
agé	-3950
ity	-3951
ket	-3952
olo	-3953
oom	-3954
ork	-3955
rie	-3956
rog	-3957
roy	-3958
uré	-3959
zon	-3960
▁bu	-3961
▁fé	-3962
▁ér	-3963
agée	-3964
assi	-3965
avis	-3966
enir	-3967
esse	-3968
irai	-3969
lieu	-3970
lure	-3971
mine	-3972
nels	-3973
oile	-3974
ores	-3975
oyer	-3976
rais	-3977
rire	-3978
tine	-3979
ueil	-3980
ésie	-3981
▁ber	-3982
▁blo	-3983
▁brû	-3984
▁fus	-3985
▁gui	-3986
▁imm	-3987
▁pes	-3988
▁stu	-3989
▁écl	-3990
annes	-3991
appro	-3992
aptis	-3993
arque	-3994
bourg	-3995
idées	-3996
ister	-3997
ondre	-3998
quare	-3999
titue	-4000
èdent	-4001
étudi	-4002
▁chré	-4003
▁cous	-4004
▁faim	-4005
▁john	-4006
▁mine	-4007
▁susp	-4008
▁symb	-4009
▁vend	-4010
▁vent	-4011
▁écou	-4012
anisme	-4013
attend	-4014
entiel	-4015
idémie	-4016
imoine	-4017
ionnat	-4018
lettes	-4019
▁boire	-4020
▁chans	-4021
▁chien	-4022
▁céléb	-4023
▁décès	-4024
▁excur	-4025
▁fallu	-4026
▁illég	-4027
▁inond	-4028
▁jaune	-4029
▁lutte	-4030
▁modes	-4031
▁ourag	-4032
▁paras	-4033
▁remis	-4034
▁référ	-4035
▁sympt	-4036
▁tiers	-4037
▁tombe	-4038
▁touch	-4039
▁varie	-4040
cessite	-4041
itaires	-4042
▁cathol	-4043
▁cheval	-4044
▁collab	-4045
▁consul	-4046
▁contri	-4047
▁dépend	-4048
▁enfant	-4049
▁entour	-4050
▁gauche	-4051
▁jardin	-4052
▁littér	-4053
▁locaux	-4054
▁parlez	-4055
▁phases	-4056
▁protég	-4057
▁remont	-4058
▁rennes	-4059
▁régime	-4060
▁tombes	-4061
▁viande	-4062
attendre	-4063
issement	-4064
mosphère	-4065
▁agences	-4066
▁apporté	-4067
▁augment	-4068
▁bateaux	-4069
▁cellule	-4070
▁contemp	-4071
▁déplace	-4072
▁efforts	-4073
▁identif	-4074
▁magasin	-4075
▁parlent	-4076
▁patient	-4077
▁perform	-4078
▁plateau	-4079
▁puisque	-4080
▁raisons	-4081
▁regarde	-4082
▁revenir	-4083
▁réponse	-4084
▁tournée	-4085
ashington	-4086
extérieur	-4087
lications	-4088
▁accueill	-4089
▁déjeuner	-4090
▁entendre	-4091
▁méthodes	-4092
▁poissons	-4093
▁rapporte	-4094
▁répondre	-4095
▁tornades	-4096
▁tribunal	-4097
▁victimes	-4098
▁accueilli	-4099
▁capitaine	-4100
▁constitue	-4101
▁construit	-4102
▁continent	-4103
▁dernières	-4104
▁devraient	-4105
▁distances	-4106
▁découvrir	-4107
▁exigences	-4108
▁fonctionn	-4109
▁fonctions	-4110
▁nécessite	-4111
▁originale	-4112
▁parlement	-4113
▁quatrième	-4114
▁réglement	-4115
▁vingtaine	-4116
▁concentrer	-4117
▁enregistre	-4118
▁légèrement	-4119
▁navigation	-4120
▁officielle	-4121
▁patrimoine	-4122
▁principaux	-4123
▁révolution	-4124
▁territoire	-4125
▁changements	-4126
▁différences	-4127
▁entreprises	-4128
▁ordinateurs	-4129
▁pratiquement	-4130
▁touristiques	-4131
▁comportements	-4132
▁internationaux	-4133
30	-4134
5,	-4135
ki	-4136
où	-4137
▁Â	-4138
Ind	-4139
ONU	-4140
aki	-4141
alo	-4142
aly	-4143
dem	-4144
gyp	-4145
isp	-4146
jar	-4147
oto	-4148
ple	-4149
rak	-4150
ray	-4151
red	-4152
rov	-4153
ôts	-4154
▁(3	-4155
▁00	-4156
▁1,	-4157
▁34	-4158
▁Ed	-4159
▁GP	-4160
▁Hu	-4161
▁Wh	-4162
▁XI	-4163
▁aj	-4164
▁ci	-4165
▁lo	-4166
acks	-4167
acts	-4168
anne	-4169
avie	-4170
aïti	-4171
empl	-4172
ersé	-4173
exas	-4174
grés	-4175
hydr	-4176
ison	-4177
krit	-4178
main	-4179
ocht	-4180
olue	-4181
orld	-4182
péré	-4183
qués	-4184
reur	-4185
rist	-4186
réot	-4187
tice	-4188
tile	-4189
trer	-4190
éder	-4191
êter	-4192
▁Ass	-4193
▁Bel	-4194
▁Col	-4195
▁Dis	-4196
▁Dun	-4197
▁Env	-4198
▁Gre	-4199
▁Lak	-4200
▁Man	-4201
▁Taï	-4202
▁The	-4203
▁fou	-4204
▁fur	-4205
▁gam	-4206
▁gla	-4207
▁hen	-4208
▁mun	-4209
▁pau	-4210
▁saf	-4211
▁Âge	-4212
afric	-4213
aisse	-4214
ancis	-4215
andre	-4216
enreg	-4217
eorge	-4218
gènes	-4219
lines	-4220
pects	-4221
prise	-4222
quide	-4223
tenue	-4224
tenus	-4225
ussie	-4226
ventu	-4227
éenne	-4228
▁Bush	-4229
▁Camb	-4230
▁Goma	-4231
▁Mold	-4232
▁Sant	-4233
▁Sund	-4234
▁Vers	-4235
▁aidé	-4236
▁amis	-4237
▁arch	-4238
▁batt	-4239
▁bret	-4240
▁clos	-4241
▁coin	-4242
▁cycl	-4243
▁deme	-4244
▁dois	-4245
▁fête	-4246
▁grat	-4247
▁paul	-4248
▁plum	-4249
▁posi	-4250
▁ryth	-4251
▁sikh	-4252
▁stra	-4253
▁susc	-4254
actifs	-4255
alisme	-4256
alisée	-4257
alités	-4258
arbans	-4259
marine	-4260
nelles	-4261
oindre	-4262
phabet	-4263
ticles	-4264
▁Ainsi	-4265
▁Aucun	-4266
▁Avant	-4267
▁Louis	-4268
▁Parti	-4269
▁Texas	-4270
▁blanc	-4271
▁bénév	-4272
▁canal	-4273
▁catal	-4274
▁chats	-4275
▁ciném	-4276
▁court	-4277
▁coûté	-4278
▁créée	-4279
▁domin	-4280
▁dépla	-4281
▁enfin	-4282
▁envah	-4283
▁finan	-4284
▁lions	-4285
▁magné	-4286
▁nommé	-4287
▁phase	-4288
▁prend	-4289
▁prise	-4290
▁roues	-4291
▁sable	-4292
▁satis	-4293
▁sensi	-4294
▁servi	-4295
▁soyez	-4296
▁sucre	-4297
▁tests	-4298
▁écriv	-4299
absence	-4300
acheter	-4301
landais	-4302
otation	-4303
sements	-4304
tiquité	-4305
étition	-4306
▁Disney	-4307
▁Kanjar	-4308
▁Russie	-4309
▁agents	-4310
▁aimera	-4311
▁amende	-4312
▁camper	-4313
▁canyon	-4314
▁consac	-4315
▁couvre	-4316
▁découv	-4317
▁député	-4318
▁détail	-4319
▁fruits	-4320
▁gagner	-4321
▁gardez	-4322
▁limité	-4323
▁marine	-4324
▁marque	-4325
▁marqué	-4326
▁moitié	-4327
▁moyens	-4328
▁médias	-4329
▁métier	-4330
▁penser	-4331
▁plumes	-4332
▁rendez	-4333
▁stable	-4334
▁superf	-4335
▁transp	-4336
▁visage	-4337
▁wagons	-4338
▁étudié	-4339
habitude	-4340
igration	-4341
lantique	-4342
occasion	-4343
ochtones	-4344
édemment	-4345
ératures	-4346
éricains	-4347
▁Aujourd	-4348
▁Charles	-4349
▁Environ	-4350
▁Francis	-4351
▁Running	-4352
▁affecte	-4353
▁arrivés	-4354
▁carbone	-4355
▁chaleur	-4356
▁château	-4357
▁clients	-4358
▁concurr	-4359
▁disparu	-4360
▁fatigué	-4361
▁héberge	-4362
▁indique	-4363
▁justice	-4364
▁liquide	-4365
▁mondial	-4366
▁normale	-4367
▁partent	-4368
▁préoccu	-4369
▁pétrole	-4370
▁quitter	-4371
▁raisonn	-4372
▁rapides	-4373
▁restant	-4374
▁réduire	-4375
▁signalé	-4376
▁stéréot	-4377
▁tension	-4378
hydrogène	-4379
▁Californ	-4380
▁Moldavie	-4381
▁Northern	-4382
▁boissons	-4383
▁chimique	-4384
▁concentr	-4385
▁critique	-4386
▁culturel	-4387
▁cultures	-4388
▁distance	-4389
▁dommages	-4390
▁décision	-4391
▁environs	-4392
▁fréquent	-4393
▁individu	-4394
▁masculin	-4395
▁matériel	-4396
▁mauvaise	-4397
▁mercredi	-4398
▁modernes	-4399
▁probable	-4400
▁rivières	-4401
▁résoudre	-4402
▁sanskrit	-4403
▁tempêtes	-4404
enregistre	-4405
fghanistan	-4406
▁allemande	-4407
▁anciennes	-4408
▁apprendre	-4409
▁condition	-4410
▁conseillé	-4411
▁dangereux	-4412
▁disposent	-4413
▁distincte	-4414
▁faisaient	-4415
▁incidence	-4416
▁maintenir	-4417
▁phénomène	-4418
▁pouvaient	-4419
▁premières	-4420
▁provenant	-4421
▁provoquer	-4422
▁précédent	-4423
▁recommand	-4424
▁religieux	-4425
▁retourner	-4426
▁Sundarbans	-4427
▁Washington	-4428
▁chercheurs	-4429
▁communauté	-4430
▁considérés	-4431
▁différente	-4432
▁domination	-4433
▁découverte	-4434
▁européenne	-4435
▁importants	-4436
▁poursuivre	-4437
▁présentent	-4438
▁accusations	-4439
▁autochtones	-4440
▁normalement	-4441
▁subsistance	-4442
▁manifestants	-4443
▁précédemment	-4444
▁surveillance	-4445
▁températures	-4446
▁planification	-4447
▁technologique	-4448
▁internationales	-4449
.-	-4450
ly	-4451
sa	-4452
éf	-4453
ago	-4454
den	-4455
gle	-4456
iér	-4457
jan	-4458
lam	-4459
ols	-4460
ops	-4461
orc	-4462
osp	-4463
tex	-4464
uil	-4465
uir	-4466
ust	-4467
ute	-4468
van	-4469
vet	-4470
ève	-4471
îne	-4472
▁dî	-4473
agir	-4474
alem	-4475
amis	-4476
ater	-4477
aude	-4478
erie	-4479
léch	-4480
oges	-4481
ophe	-4482
resp	-4483
rite	-4484
ules	-4485
çait	-4486
èque	-4487
élec	-4488
ômes	-4489
▁bib	-4490
▁coh	-4491
▁diz	-4492
▁emm	-4493
▁fix	-4494
▁ger	-4495
▁gre	-4496
▁lux	-4497
▁pap	-4498
▁pou	-4499
▁ray	-4500
▁sab	-4501
▁sch	-4502
▁vég	-4503
▁éte	-4504
adies	-4505
agers	-4506
aques	-4507
board	-4508
chant	-4509
ignes	-4510
primé	-4511
riers	-4512
sible	-4513
équip	-4514
▁aler	-4515
▁aper	-4516
▁banc	-4517
▁chap	-4518
▁chin	-4519
▁cité	-4520
▁couv	-4521
▁forc	-4522
▁gars	-4523
▁gour	-4524
▁juin	-4525
▁mode	-4526
▁monn	-4527
▁neuv	-4528
▁secr	-4529
▁vict	-4530
▁vote	-4531
alerie	-4532
archie	-4533
idence	-4534
ormais	-4535
sionne	-4536
tières	-4537
ximité	-4538
▁caval	-4539
▁clair	-4540
▁côtés	-4541
▁décor	-4542
▁dépar	-4543
▁fleur	-4544
▁marié	-4545
▁métal	-4546
▁peint	-4547
▁riche	-4548
▁réuss	-4549
▁stock	-4550
▁sœurs	-4551
▁tiens	-4552
▁verre	-4553
▁évalu	-4554
article	-4555
instant	-4556
ulaires	-4557
veiller	-4558
▁allant	-4559
▁beauté	-4560
▁bottes	-4561
▁chaîne	-4562
▁discip	-4563
▁décidé	-4564
▁juridi	-4565
▁matchs	-4566
▁obtenu	-4567
▁phrase	-4568
▁prison	-4569
▁précip	-4570
▁record	-4571
▁repose	-4572
▁seules	-4573
▁succes	-4574
▁suivre	-4575
▁voisin	-4576
aimerais	-4577
ancienne	-4578
appareil	-4579
utiliser	-4580
▁acheter	-4581
▁adultes	-4582
▁appelle	-4583
▁chambre	-4584
▁contact	-4585
▁corresp	-4586
▁devenue	-4587
▁entendu	-4588
▁gestion	-4589
▁pouvant	-4590
▁prolong	-4591
▁restent	-4592
▁récents	-4593
▁silence	-4594
▁stratég	-4595
iversaire	-4596
lissement	-4597
pressions	-4598
▁bâtiment	-4599
▁difficul	-4600
▁maladies	-4601
▁pourtant	-4602
▁réchauff	-4603
▁soutient	-4604
atiquement	-4605
▁désormais	-4606
▁favorable	-4607
▁festivals	-4608
▁française	-4609
▁frontière	-4610
▁passagers	-4611
▁proximité	-4612
▁précision	-4613
▁régulière	-4614
▁réservoir	-4615
▁toutefois	-4616
▁véritable	-4617
▁commencent	-4618
▁finalement	-4619
▁professeur	-4620
▁structures	-4621
heureusement	-4622
▁conséquence	-4623
▁défavorable	-4624
▁entièrement	-4625
▁responsable	-4626
▁complètement	-4627
▁professionne	-4628
▁manifestations	-4629
ds	-4630
hi	-4631
ya	-4632
▁-	-4633
bum	-4634
dam	-4635
dio	-4636
gin	-4637
gue	-4638
gés	-4639
ish	-4640
itt	-4641
més	-4642
ott	-4643
oun	-4644
oxy	-4645
pes	-4646
rou	-4647
ône	-4648
▁mâ	-4649
aign	-4650
appe	-4651
cain	-4652
dire	-4653
eler	-4654
guer	-4655
indi	-4656
lève	-4657
nous	-4658
omin	-4659
quée	-4660
tait	-4661
ting	-4662
trop	-4663
âtre	-4664
érus	-4665
ôtre	-4666
▁don	-4667
▁eut	-4668
▁fas	-4669
▁fun	-4670
▁gor	-4671
▁hér	-4672
▁ill	-4673
▁lou	-4674
▁mai	-4675
▁mob	-4676
▁mos	-4677
▁néo	-4678
▁obé	-4679
▁rig	-4680
▁tig	-4681
▁tri	-4682
▁tém	-4683
▁urb	-4684
ageux	-4685
agues	-4686
ceaux	-4687
elots	-4688
eront	-4689
erres	-4690
escal	-4691
forme	-4692
icité	-4693
illée	-4694
iritu	-4695
lanta	-4696
limin	-4697
onome	-4698
udici	-4699
▁agré	-4700
▁coop	-4701
▁créé	-4702
▁drog	-4703
▁fini	-4704
▁hang	-4705
▁heur	-4706
▁iran	-4707
▁ling	-4708
▁locu	-4709
▁magn	-4710
▁mour	-4711
▁noir	-4712
▁prét	-4713
▁rang	-4714
▁rent	-4715
▁rues	-4716
▁réel	-4717
▁serp	-4718
▁sert	-4719
▁vacc	-4720
▁zoom	-4721
▁épau	-4722
assées	-4723
auteur	-4724
explos	-4725
oyaume	-4726
tifici	-4727
étales	-4728
▁aurez	-4729
▁camér	-4730
▁candi	-4731
▁causé	-4732
▁diplô	-4733
▁facil	-4734
▁faits	-4735
▁gramm	-4736
▁griff	-4737
▁idées	-4738
▁initi	-4739
▁jolie	-4740
▁liées	-4741
▁manus	-4742
▁nomin	-4743
▁prêts	-4744
▁remet	-4745
▁russe	-4746
▁règne	-4747
▁signé	-4748
▁voire	-4749
▁école	-4750
atement	-4751
augment	-4752
embourg	-4753
endront	-4754
ression	-4755
utation	-4756
▁absolu	-4757
▁allons	-4758
▁apport	-4759
▁auquel	-4760
▁condam	-4761
▁contrô	-4762
▁devons	-4763
▁dormir	-4764
▁emprun	-4765
▁esprit	-4766
▁fondée	-4767
▁furent	-4768
▁garder	-4769
▁jaunes	-4770
▁lancer	-4771
▁néglig	-4772
▁occupe	-4773
▁pleine	-4774
▁privée	-4775
▁sainte	-4776
▁servir	-4777
▁solide	-4778
▁tables	-4779
▁vivent	-4780
▁volont	-4781
▁élevés	-4782
▁œuvres	-4783
agissait	-4784
espagnol	-4785
ignement	-4786
éremment	-4787
érusalem	-4788
▁accepté	-4789
▁autoris	-4790
▁compréh	-4791
▁cuisine	-4792
▁demeure	-4793
▁devenus	-4794
▁envoyer	-4795
▁fenêtre	-4796
▁inventé	-4797
▁mission	-4798
▁monnaie	-4799
▁naturel	-4800
▁planète	-4801
▁plumage	-4802
▁pouvons	-4803
▁protest	-4804
▁remplir	-4805
▁réfléch	-4806
▁simples	-4807
▁solaire	-4808
▁spiritu	-4809
▁survécu	-4810
▁variété	-4811
approcher	-4812
tissement	-4813
▁attendre	-4814
▁contribu	-4815
▁dizaines	-4816
▁facteurs	-4817
▁immédiat	-4818
▁incluent	-4819
▁internet	-4820
▁neuvième	-4821
▁précipit	-4822
▁relation	-4823
▁terminer	-4824
▁transfér	-4825
entreprise	-4826
▁contraire	-4827
▁fondament	-4828
▁génétique	-4829
▁japonaise	-4830
▁lancement	-4831
▁locuteurs	-4832
▁mouvement	-4833
▁nationaux	-4834
▁pratiques	-4835
▁protéines	-4836
▁résidence	-4837
▁toilettes	-4838
▁véhicules	-4839
agriculture	-4840
utilisateur	-4841
▁conception	-4842
▁concernant	-4843
▁participer	-4844
▁particules	-4845
▁photograph	-4846
▁rencontrer	-4847
▁représente	-4848
▁supérieurs	-4849
▁transports	-4850
▁électrique	-4851
▁championnat	-4852
▁indépendant	-4853
▁occidentale	-4854
▁photographe	-4855
▁restaurants	-4856
▁économiques	-4857
▁intéressants	-4858
▁immédiatement	-4859
▁régulièrement	-4860
▁fonctionnement	-4861
▁supplémentaire	-4862
."	-4863
5.	-4864
6.	-4865
64	-4866
7.	-4867
DN	-4868
EP	-4869
Fi	-4870
NE	-4871
Or	-4872
RM	-4873
TA	-4874
oz	-4875
wa	-4876
éj	-4877
▁0	-4878
Ant	-4879
Est	-4880
Net	-4881
Ori	-4882
ata	-4883
bét	-4884
hés	-4885
ilé	-4886
inv	-4887
irs	-4888
lez	-4889
liz	-4890
lob	-4891
mir	-4892
mon	-4893
nas	-4894
nés	-4895
olf	-4896
oll	-4897
ome	-4898
orp	-4899
rid	-4900
udg	-4901
xie	-4902
zél	-4903
écr	-4904
▁(2	-4905
▁1.	-4906
▁12	-4907
▁2,	-4908
▁22	-4909
▁28	-4910
▁48	-4911
▁56	-4912
▁70	-4913
▁Bh	-4914
▁Co	-4915
▁Cr	-4916
▁Jr	-4917
▁No	-4918
▁Ol	-4919
▁Th	-4920
▁Wi	-4921
▁hy	-4922
▁sn	-4923
▁én	-4924
Plus	-4925
actu	-4926
afic	-4927
anca	-4928
anes	-4929
attr	-4930
ayez	-4931
cins	-4932
endo	-4933
erto	-4934
gner	-4935
idal	-4936
iend	-4937
iger	-4938
inté	-4939
ippe	-4940
izeh	-4941
mith	-4942
onso	-4943
oûte	-4944
pays	-4945
tiss	-4946
vers	-4947
ward	-4948
éans	-4949
▁(14	-4950
▁Ari	-4951
▁Aux	-4952
▁Cet	-4953
▁Cin	-4954
▁Cop	-4955
▁Esp	-4956
▁How	-4957
▁Las	-4958
▁Lux	-4959
▁Mer	-4960
▁One	-4961
▁Pic	-4962
▁Rob	-4963
▁Sec	-4964
▁Ses	-4965
▁Seu	-4966
▁Sim	-4967
▁Sir	-4968
▁Vir	-4969
▁XVe	-4970
▁ach	-4971
▁ant	-4972
▁arb	-4973
▁bha	-4974
▁bis	-4975
▁ble	-4976
▁béb	-4977
▁fél	-4978
▁inu	-4979
▁lav	-4980
▁pav	-4981
▁rad	-4982
▁rai	-4983
▁sép	-4984
▁tim	-4985
▁tox	-4986
▁tué	-4987
▁âge	-4988
Armén	-4989
agnos	-4990
agées	-4991
aider	-4992
aites	-4993
amine	-4994
antal	-4995
appan	-4996
azone	-4997
ffalo	-4998
hamon	-4999
honne	-5000
indou	-5001
innes	-5002
kland	-5003
lever	-5004
offre	-5005
reuve	-5006
tiles	-5007
toral	-5008
ugais	-5009
ymnas	-5010
étant	-5011
▁1000	-5012
▁2020	-5013
▁Alex	-5014
▁Asie	-5015
▁Beau	-5016
▁Belg	-5017
▁Ceci	-5018
▁Ging	-5019
▁Leur	-5020
▁Luna	-5021
▁Lune	-5022
▁Mont	-5023
▁Mori	-5024
▁Newt	-5025
▁Néan	-5026
▁Reid	-5027
▁Ross	-5028
▁Sans	-5029
▁Stan	-5030
▁arts	-5031
▁bloc	-5032
▁bour	-5033
▁brut	-5034
▁budg	-5035
▁chou	-5036
▁coul	-5037
▁coût	-5038
▁diab	-5039
▁dégâ	-5040
▁déta	-5041
▁fera	-5042
▁flor	-5043
▁gala	-5044
▁liés	-5045
▁math	-5046
▁neur	-5047
▁pein	-5048
▁plat	-5049
▁pôle	-5050
▁récu	-5051
▁scol	-5052
▁skis	-5053
▁stat	-5054
▁tort	-5055
▁Égyp	-5056
▁État	-5057
▁éche	-5058
Orient	-5059
alerte	-5060
aliser	-5061
aminer	-5062
antill	-5063
avenir	-5064
eloppe	-5065
ennies	-5066
ientôt	-5067
ilités	-5068
oiseau	-5069
ourner	-5070
tisser	-5071
zéland	-5072
écules	-5073
▁Allem	-5074
▁Angel	-5075
▁Carol	-5076
▁Champ	-5077
▁David	-5078
▁Gizeh	-5079
▁Haïti	-5080
▁James	-5081
▁Quand	-5082
▁Royal	-5083
▁Tours	-5084
▁Trans	-5085
▁Vénus	-5086
▁World	-5087
▁alpin	-5088
▁atten	-5089
▁biais	-5090
▁canad	-5091
▁chute	-5092
▁créer	-5093
▁dieux	-5094
▁dissi	-5095
▁front	-5096
▁gamme	-5097
▁graff	-5098
▁invis	-5099
▁loint	-5100
▁meurt	-5101
▁minim	-5102
▁outre	-5103
▁paire	-5104
▁pollu	-5105
▁ratif	-5106
▁repas	-5107
▁spati	-5108
▁subst	-5109
▁thème	-5110
▁tibét	-5111
▁trous	-5112
▁vivez	-5113
▁épous	-5114
▁êtres	-5115
Arménie	-5116
abilité	-5117
archite	-5118
cidents	-5119
ditions	-5120
honneur	-5121
octobre	-5122
ologies	-5123
omerang	-5124
teindre	-5125
urgence	-5126
▁Alonso	-5127
▁George	-5128
▁Nation	-5129
▁Taïwan	-5130
▁Virgin	-5131
▁XVIIIe	-5132
▁ajouté	-5133
▁albert	-5134
▁barils	-5135
▁basket	-5136
▁battre	-5137
▁breton	-5138
▁cancer	-5139
▁causée	-5140
▁cinéma	-5141
▁correc	-5142
▁croûte	-5143
▁décrit	-5144
▁engend	-5145
▁entrer	-5146
▁essayé	-5147
▁estime	-5148
▁examen	-5149
▁filles	-5150
▁grippe	-5151
▁grosse	-5152
▁images	-5153
▁métaux	-5154
▁normal	-5155
▁normes	-5156
▁océans	-5157
▁option	-5158
▁pouces	-5159
▁privil	-5160
▁proies	-5161
▁puisse	-5162
▁suffit	-5163
▁tarifs	-5164
▁tenait	-5165
▁trafic	-5166
▁treize	-5167
▁vision	-5168
▁vitres	-5169
▁volume	-5170
▁étions	-5171
aitement	-5172
ankhamon	-5173
cription	-5174
tiennent	-5175
▁Buffalo	-5176
▁Chambre	-5177
▁Moriori	-5178
▁Norvège	-5179
▁Pologne	-5180
▁Seconde	-5181
▁adresse	-5182
▁arrière	-5183
▁aviaire	-5184
▁bactéri	-5185
▁bloquer	-5186
▁catalan	-5187
▁chevaux	-5188
▁chiffre	-5189
▁demanda	-5190
▁diagnos	-5191
▁enseign	-5192
▁entrées	-5193
▁exigent	-5194
▁financi	-5195
▁fournir	-5196
▁galaxie	-5197
▁grottes	-5198
▁indiqué	-5199
▁longues	-5200
▁médecin	-5201
▁médical	-5202
▁nombres	-5203
▁partage	-5204
▁peuples	-5205
▁pierres	-5206
▁preuves	-5207
▁privées	-5208
▁progrès	-5209
▁protons	-5210
▁racines	-5211
▁remonte	-5212
▁revenus	-5213
▁seconde	-5214
▁sembler	-5215
▁supérie	-5216
▁temples	-5217
▁visible	-5218
▁visitez	-5219
▁vivants	-5220
▁élément	-5221
Antiquité	-5222
apprendre	-5223
attention	-5224
iterranée	-5225
périences	-5226
▁Airlines	-5227
▁Gingrich	-5228
▁Pakistan	-5229
▁acquérir	-5230
▁alliance	-5231
▁annonces	-5232
▁articles	-5233
▁chiffres	-5234
▁complexe	-5235
▁demandes	-5236
▁discours	-5237
▁district	-5238
▁divinité	-5239
▁effectué	-5240
▁entraîné	-5241
▁envisage	-5242
▁extrêmes	-5243
▁géograph	-5244
▁habitant	-5245
▁mutation	-5246
▁pakistan	-5247
▁prennent	-5248
▁pression	-5249
▁pâtisser	-5250
▁quartier	-5251
▁recevoir	-5252
▁repasser	-5253
▁réaction	-5254
▁répandue	-5255
▁scandale	-5256
▁stations	-5257
▁terrains	-5258
▁émission	-5259
▁étranger	-5260
annulation	-5261
atmosphère	-5262
▁Allemands	-5263
▁Francisco	-5264
▁Jérusalem	-5265
▁MetroPlus	-5266
▁Néanmoins	-5267
▁atteindre	-5268
▁bouteille	-5269
▁croisière	-5270
▁diffèrent	-5271
▁décennies	-5272
▁espagnols	-5273
▁européens	-5274
▁grammaire	-5275
▁indigènes	-5276
▁invisible	-5277
▁molécules	-5278
▁naissance	-5279
▁officiers	-5280
▁parasites	-5281
▁philippin	-5282
▁philosoph	-5283
▁plaisance	-5284
▁retrouver	-5285
▁résidents	-5286
▁symptômes	-5287
▁tellement	-5288
▁travaillé	-5289
▁tropicale	-5290
immigration	-5291
information	-5292
▁Américains	-5293
▁Atlantique	-5294
▁Californie	-5295
▁Luxembourg	-5296
▁absolument	-5297
▁atteignant	-5298
▁chaussures	-5299
▁conducteur	-5300
▁construits	-5301
▁croisières	-5302
▁dinosaures	-5303
▁distinctes	-5304
▁exposition	-5305
▁frontières	-5306
▁historique	-5307
▁moustiques	-5308
▁permettant	-5309
▁poursuites	-5310
▁procédures	-5311
▁programmes	-5312
▁provoquant	-5313
▁présidenti	-5314
▁restaurant	-5315
▁régulières	-5316
▁soviétique	-5317
▁spectacles	-5318
▁transporté	-5319
▁télescopes	-5320
▁variations	-5321
informations	-5322
▁américaines	-5323
▁compétences	-5324
▁conducteurs	-5325
▁expériences	-5326
▁fournissent	-5327
▁itinéraires	-5328
▁littérature	-5329
▁nécessaires	-5330
▁personnelle	-5331
▁ressemblent	-5332
▁Toutankhamon	-5333
▁technologies	-5334
enregistrement	-5335
▁manifestation	-5336
▁précipitations	-5337
do	-5338
ga	-5339
oï	-5340
sh	-5341
uy	-5342
vi	-5343
we	-5344
ye	-5345
èv	-5346
éz	-5347
ama	-5348
aum	-5349
dia	-5350
dou	-5351
eul	-5352
gie	-5353
her	-5354
igg	-5355
igh	-5356
ker	-5357
nez	-5358
ocr	-5359
ogn	-5360
oré	-5361
osa	-5362
pir	-5363
pée	-5364
ril	-5365
umé	-5366
ura	-5367
vin	-5368
way	-5369
èce	-5370
▁fi	-5371
▁ha	-5372
▁mi	-5373
▁os	-5374
▁ul	-5375
▁ur	-5376
acle	-5377
acte	-5378
allé	-5379
amas	-5380
avoc	-5381
chev	-5382
chés	-5383
comm	-5384
fond	-5385
fort	-5386
heur	-5387
iant	-5388
icie	-5389
oits	-5390
outs	-5391
vité	-5392
zano	-5393
èche	-5394
èles	-5395
ètre	-5396
édit	-5397
ékin	-5398
▁amb	-5399
▁cub	-5400
▁duc	-5401
▁fal	-5402
▁lic	-5403
▁mir	-5404
▁tit	-5405
▁ubu	-5406
▁vac	-5407
abeth	-5408
aguay	-5409
alyse	-5410
avier	-5411
chest	-5412
eline	-5413
huile	-5414
ifier	-5415
initi	-5416
lieue	-5417
teaux	-5418
urine	-5419
▁brun	-5420
▁golf	-5421
▁hiér	-5422
▁loup	-5423
▁mamm	-5424
▁mich	-5425
▁pire	-5426
▁pomp	-5427
▁prém	-5428
▁prêt	-5429
▁rédi	-5430
▁sauf	-5431
▁snow	-5432
▁suit	-5433
▁supr	-5434
▁tien	-5435
▁tire	-5436
▁traî	-5437
▁vain	-5438
▁vert	-5439
▁vive	-5440
▁volé	-5441
▁vécu	-5442
accomp	-5443
assemb	-5444
ection	-5445
eorges	-5446
laires	-5447
liquer	-5448
échapp	-5449
▁abord	-5450
▁accès	-5451
▁ailes	-5452
▁armée	-5453
▁arrêt	-5454
▁auber	-5455
▁beaux	-5456
▁chefs	-5457
▁chers	-5458
▁comté	-5459
▁crise	-5460
▁cruci	-5461
▁dynam	-5462
▁démis	-5463
▁forêt	-5464
▁geste	-5465
▁henri	-5466
▁indic	-5467
▁liber	-5468
▁musée	-5469
▁métro	-5470
▁noirs	-5471
▁outil	-5472
▁parlé	-5473
▁peupl	-5474
▁pleut	-5475
▁poser	-5476
▁quels	-5477
▁répar	-5478
▁subir	-5479
▁texte	-5480
▁therm	-5481
▁tirer	-5482
▁traum	-5483
antalon	-5484
cension	-5485
ensions	-5486
onniers	-5487
▁adulte	-5488
▁affich	-5489
▁aimait	-5490
▁cacher	-5491
▁consta	-5492
▁danser	-5493
▁disait	-5494
▁employ	-5495
▁exerce	-5496
▁impôts	-5497
▁malade	-5498
▁micros	-5499
▁ouvrir	-5500
▁pattes	-5501
▁pointe	-5502
▁preuve	-5503
▁quinze	-5504
▁respir	-5505
▁scènes	-5506
▁soirée	-5507
▁sombre	-5508
▁sortes	-5509
▁souver	-5510
▁square	-5511
▁tempér	-5512
▁vienne	-5513
▁voyons	-5514
▁écrire	-5515
▁éteint	-5516
activité	-5517
entement	-5518
entendre	-5519
▁apporte	-5520
▁cabinet	-5521
▁colline	-5522
▁colonie	-5523
▁courage	-5524
▁déroule	-5525
▁détruit	-5526
▁formats	-5527
▁maximum	-5528
▁modèles	-5529
▁montant	-5530
▁nourrir	-5531
▁octobre	-5532
▁ouverte	-5533
▁parlait	-5534
▁plaisir	-5535
▁plaques	-5536
▁remplac	-5537
▁retirer	-5538
▁saisons	-5539
▁souffre	-5540
▁superbe	-5541
▁tourner	-5542
▁utilise	-5543
▁voisins	-5544
prétation	-5545
équilibre	-5546
▁attendez	-5547
▁banlieue	-5548
▁commande	-5549
▁conduite	-5550
▁installé	-5551
▁interrog	-5552
▁pantalon	-5553
▁parcours	-5554
▁protéger	-5555
▁pyramide	-5556
▁retrouvé	-5557
▁répondit	-5558
▁réponses	-5559
▁résultat	-5560
▁utilisée	-5561
▁administr	-5562
▁commencer	-5563
▁confirmée	-5564
▁constante	-5565
▁intention	-5566
▁italienne	-5567
▁participé	-5568
▁possèdent	-5569
▁poursuivi	-5570
▁rejoindre	-5571
▁réveiller	-5572
▁snowboard	-5573
▁traumatis	-5574
▁étrangère	-5575
▁correspond	-5576
▁meilleures	-5577
▁secrétaire	-5578
▁semblables	-5579
architecture	-5580
▁amendements	-5581
▁financement	-5582
▁importantes	-5583
▁reconstruit	-5584
▁anniversaire	-5585
ax	-5586
ca	-5587
dd	-5588
ji	-5589
ni	-5590
oa	-5591
ín	-5592
ald	-5593
ano	-5594
awa	-5595
don	-5596
ena	-5597
enh	-5598
exp	-5599
gée	-5600
had	-5601
oft	-5602
own	-5603
pol	-5604
qua	-5605
tou	-5606
ufs	-5607
ung	-5608
édi	-5609
▁da	-5610
▁el	-5611
▁gê	-5612
▁ro	-5613
achu	-5614
atie	-5615
avan	-5616
avec	-5617
empe	-5618
isée	-5619
iées	-5620
lège	-5621
mail	-5622
olat	-5623
ompe	-5624
orée	-5625
otes	-5626
phin	-5627
rasé	-5628
raël	-5629
rées	-5630
ster	-5631
uies	-5632
uste	-5633
ways	-5634
éduc	-5635
érif	-5636
étab	-5637
▁asi	-5638
▁dig	-5639
▁dén	-5640
▁far	-5641
▁fis	-5642
▁jac	-5643
▁jud	-5644
▁lev	-5645
▁mig	-5646
▁org	-5647
▁pel	-5648
▁reb	-5649
▁roy	-5650
▁tra	-5651
▁vou	-5652
▁élè	-5653
▁île	-5654
actif	-5655
aints	-5656
aitez	-5657
alent	-5658
alise	-5659
alisé	-5660
anctu	-5661
anité	-5662
avent	-5663
avion	-5664
aître	-5665
cules	-5666
entez	-5667
hémis	-5668
itant	-5669
lotte	-5670
mêmes	-5671
onies	-5672
onyme	-5673
ordin	-5674
texte	-5675
tives	-5676
trice	-5677
tueux	-5678
ureur	-5679
veaux	-5680
zième	-5681
èvres	-5682
▁aima	-5683
▁asse	-5684
▁bass	-5685
▁berg	-5686
▁boul	-5687
▁cout	-5688
▁dame	-5689
▁déte	-5690
▁foss	-5691
▁gren	-5692
▁isol	-5693
▁joué	-5694
▁mach	-5695
▁marc	-5696
▁monu	-5697
▁nett	-5698
▁parf	-5699
▁pill	-5700
▁plis	-5701
▁réce	-5702
▁répu	-5703
▁sing	-5704
▁spec	-5705
▁ster	-5706
▁tend	-5707
▁trés	-5708
▁vice	-5709
▁émet	-5710
areils	-5711
atrice	-5712
conque	-5713
excell	-5714
existe	-5715
ifique	-5716
istère	-5717
itable	-5718
licité	-5719
neider	-5720
oratif	-5721
ourage	-5722
▁actes	-5723
▁agent	-5724
▁aperç	-5725
▁bande	-5726
▁boudd	-5727
▁citer	-5728
▁crist	-5729
▁défin	-5730
▁dérog	-5731
▁dérou	-5732
▁exécu	-5733
▁faute	-5734
▁fuite	-5735
▁fêtes	-5736
▁glaci	-5737
▁grimp	-5738
▁lende	-5739
▁louis	-5740
▁major	-5741
▁marie	-5742
▁marée	-5743
▁occup	-5744
▁ordre	-5745
▁placé	-5746
▁plans	-5747
▁refus	-5748
▁rense	-5749
▁roman	-5750
▁ronge	-5751
▁soign	-5752
▁tombé	-5753
▁tuber	-5754
▁tubes	-5755
▁vente	-5756
▁venus	-5757
▁verte	-5758
▁vivre	-5759
▁vôtre	-5760
▁étape	-5761
▁états	-5762
▁œuvre	-5763
adresse	-5764
affaire	-5765
alistes	-5766
analyse	-5767
aniques	-5768
annonce	-5769
armonie	-5770
aujourd	-5771
chaient	-5772
ciation	-5773
issante	-5774
ouleurs	-5775
ublique	-5776
étudier	-5777
▁accept	-5778
▁allait	-5779
▁annulé	-5780
▁attend	-5781
▁attent	-5782
▁atterr	-5783
▁attrap	-5784
▁captur	-5785
▁classi	-5786
▁coupés	-5787
▁crédit	-5788
▁cérébr	-5789
▁devoir	-5790
▁dirigé	-5791
▁disant	-5792
▁déclin	-5793
▁endomm	-5794
▁formes	-5795
▁forêts	-5796
▁frappe	-5797
▁incroy	-5798
▁judici	-5799
▁logici	-5800
▁légers	-5801
▁majeur	-5802
▁mathém	-5803
▁monast	-5804
▁mousse	-5805
▁nuages	-5806
▁pensée	-5807
▁perman	-5808
▁pilote	-5809
▁polici	-5810
▁positi	-5811
▁posses	-5812
▁prenez	-5813
▁promen	-5814
▁prévus	-5815
▁reprod	-5816
▁reçoit	-5817
▁ruines	-5818
▁règles	-5819
▁révélé	-5820
▁sanctu	-5821
▁statut	-5822
▁sujets	-5823
▁vagues	-5824
▁vendus	-5825
▁visant	-5826
▁écrans	-5827
▁écrasé	-5828
▁élevée	-5829
▁élimin	-5830
▁élèves	-5831
▁époque	-5832
▁étoile	-5833
affaires	-5834
alphabet	-5835
empereur	-5836
escalade	-5837
ications	-5838
istoires	-5839
ociation	-5840
équipage	-5841
▁accords	-5842
▁attirer	-5843
▁blanche	-5844
▁blessés	-5845
▁chemins	-5846
▁choisir	-5847
▁circons	-5848
▁composé	-5849
▁convers	-5850
▁détaill	-5851
▁essayer	-5852
▁essayez	-5853
▁exprimé	-5854
▁faciles	-5855
▁forfait	-5856
▁forment	-5857
▁grecque	-5858
▁journal	-5859
▁liberté	-5860
▁légumes	-5861
▁malades	-5862
▁marchés	-5863
▁massive	-5864
▁mettent	-5865
▁meurtre	-5866
▁mélange	-5867
▁niveaux	-5868
▁observé	-5869
▁obtenue	-5870
▁parcour	-5871
▁pensées	-5872
▁pilotes	-5873
▁préfère	-5874
▁périodi	-5875
▁respect	-5876
▁sortant	-5877
▁sources	-5878
▁suprême	-5879
▁tombeau	-5880
▁voisine	-5881
▁établit	-5882
attendait	-5883
augmenter	-5884
explosion	-5885
térieures	-5886
éducation	-5887
▁artifici	-5888
▁artistes	-5889
▁cavalier	-5890
▁champign	-5891
▁communes	-5892
▁composée	-5893
▁conclure	-5894
▁conduire	-5895
▁empêcher	-5896
▁espèrent	-5897
▁interdit	-5898
▁marchent	-5899
▁naturels	-5900
▁ouragans	-5901
▁profiter	-5902
▁puissant	-5903
▁qualifié	-5904
▁remporte	-5905
▁reprises	-5906
▁retrouve	-5907
▁semaines	-5908
▁septième	-5909
▁signific	-5910
▁solution	-5911
▁traduire	-5912
▁vacances	-5913
▁victoire	-5914
▁viennent	-5915
▁villages	-5916
▁épidémie	-5917
excellence	-5918
hémisphère	-5919
▁améliorer	-5920
▁asiatique	-5921
▁assurance	-5922
▁autrement	-5923
▁blessures	-5924
▁cavalerie	-5925
▁composées	-5926
▁critiques	-5927
▁encourage	-5928
▁excursion	-5929
▁faciliter	-5930
▁intérieur	-5931
▁iranienne	-5932
▁juridique	-5933
▁lendemain	-5934
▁militaire	-5935
▁orientale	-5936
▁personnel	-5937
▁possibles	-5938
▁publiques	-5939
▁quotidien	-5940
▁remarquer	-5941
▁reprendre	-5942
▁récemment	-5943
▁rédaction	-5944
▁sensation	-5945
▁sélection	-5946
▁utilisent	-5947
▁éducation	-5948
▁accessible	-5949
▁artistique	-5950
▁catholique	-5951
▁classement	-5952
▁considérée	-5953
▁convention	-5954
▁croissance	-5955
▁cérémonies	-5956
▁dépression	-5957
▁développer	-5958
▁importance	-5959
▁organismes	-5960
▁quelconque	-5961
▁réputation	-5962
▁sanctuaire	-5963
▁successeur	-5964
▁superficie	-5965
▁traversant	-5966
▁économique	-5967
▁agriculture	-5968
▁commerciaux	-5969
▁comprennent	-5970
▁coopération	-5971
▁difficultés	-5972
▁disposition	-5973
▁département	-5974
▁inondations	-5975
▁lotissement	-5976
▁nominations	-5977
▁proposition	-5978
▁spécialisés	-5979
▁température	-5980
établissement	-5981
▁différemment	-5982
▁informatique	-5983
▁performances	-5984
▁profondément	-5985
interprétation	-5986
▁organisations	-5987
▁traditionnels	-5988
▁internationale	-5989
11	-5990
3,	-5991
76	-5992
AC	-5993
AS	-5994
BI	-5995
CO	-5996
Il	-5997
MT	-5998
OL	-5999
TC	-6000
ba	-6001
dy	-6002
ks	-6003
na	-6004
oe	-6005
oh	-6006
oo	-6007
yl	-6008
áp	-6009
’«	-6010
▁[	-6011
▁x	-6012
▁°	-6013
Auc	-6014
Haw	-6015
NES	-6016
Pét	-6017
Uta	-6018
acu	-6019
anç	-6020
aro	-6021
bon	-6022
cap	-6023
chu	-6024
cté	-6025
eek	-6026
eli	-6027
ene	-6028
esc	-6029
gén	-6030
har	-6031
hne	-6032
ial	-6033
ila	-6034
jon	-6035
kek	-6036
kha	-6037
lal	-6038
lap	-6039
lor	-6040
lém	-6041
lér	-6042
mad	-6043
nel	-6044
oce	-6045
oda	-6046
oks	-6047
orb	-6048
ric	-6049
sme	-6050
tan	-6051
the	-6052
uin	-6053
uma	-6054
uél	-6055
vén	-6056
wal	-6057
win	-6058
yap	-6059
yez	-6060
▁23	-6061
▁26	-6062
▁29	-6063
▁3,	-6064
▁32	-6065
▁45	-6066
▁46	-6067
▁50	-6068
▁53	-6069
▁64	-6070
▁90	-6071
▁Ac	-6072
▁Ge	-6073
▁Go	-6074
▁Hs	-6075
▁Kh	-6076
▁Ky	-6077
▁Lo	-6078
▁Mu	-6079
▁NP	-6080
▁Ng	-6081
▁Ni	-6082
▁Né	-6083
▁Pl	-6084
▁Sk	-6085
▁by	-6086
▁câ	-6087
▁ot	-6088
▁pH	-6089
▁pè	-6090
▁to	-6091
▁tâ	-6092
▁us	-6093
▁»)	-6094
2.11	-6095
Autr	-6096
Irak	-6097
UNES	-6098
Utah	-6099
abes	-6100
anda	-6101
ando	-6102
apes	-6103
appa	-6104
ashi	-6105
asma	-6106
ault	-6107
ayat	-6108
ayer	-6109
cent	-6110
chel	-6111
cite	-6112
cope	-6113
dame	-6114
enya	-6115
eros	-6116
este	-6117
gues	-6118
guée	-6119
gyal	-6120
hall	-6121
icts	-6122
inex	-6123
itis	-6124
itts	-6125
iège	-6126
lobe	-6127
mand	-6128
nant	-6129
odge	-6130
olis	-6131
omen	-6132
outa	-6133
ovis	-6134
pées	-6135
quim	-6136
rons	-6137
sule	-6138
tics	-6139
tiez	-6140
uira	-6141
veil	-6142
veur	-6143
vues	-6144
ypes	-6145
zona	-6146
éces	-6147
éche	-6148
éloi	-6149
épic	-6150
érer	-6151
ésil	-6152
étés	-6153
éval	-6154
▁181	-6155
▁188	-6156
▁20,	-6157
▁202	-6158
▁250	-6159
▁300	-6160
▁600	-6161
▁All	-6162
▁Bab	-6163
▁Bay	-6164
▁Bob	-6165
▁Chh	-6166
▁Cos	-6167
▁Dar	-6168
▁Del	-6169
▁Déc	-6170
▁Emp	-6171
▁Ess	-6172
▁FBI	-6173
▁GMT	-6174
▁GPS	-6175
▁Hos	-6176
▁Kir	-6177
▁Lib	-6178
▁Liv	-6179
▁Los	-6180
▁Mas	-6181
▁Mus	-6182
▁Méd	-6183
▁Peu	-6184
▁Pro	-6185
▁Rép	-6186
▁Six	-6187
▁Tai	-6188
▁Web	-6189
▁bin	-6190
▁clô	-6191
▁coc	-6192
▁dém	-6193
▁fan	-6194
▁foc	-6195
▁fol	-6196
▁fum	-6197
▁fév	-6198
▁gou	-6199
▁hon	-6200
▁ign	-6201
▁las	-6202
▁lié	-6203
▁lés	-6204
▁mix	-6205
▁méc	-6206
▁nap	-6207
▁pin	-6208
▁pir	-6209
▁pun	-6210
▁péd	-6211
▁rét	-6212
▁set	-6213
▁sin	-6214
▁syn	-6215
▁séj	-6216
▁sén	-6217
▁tap	-6218
▁vig	-6219
Indus	-6220
alini	-6221
atant	-6222
burgh	-6223
cheur	-6224
crime	-6225
endie	-6226
essai	-6227
hique	-6228
hôtes	-6229
illum	-6230
ingén	-6231
inoff	-6232
inson	-6233
ipels	-6234
isées	-6235
lalom	-6236
levés	-6237
liers	-6238
mirer	-6239
ommée	-6240
onais	-6241
oques	-6242
orcer	-6243
oride	-6244
ourde	-6245
phine	-6246
pérer	-6247
rirez	-6248
taire	-6249
tello	-6250
telly	-6251
ystic	-6252
çonné	-6253
èlent	-6254
égard	-6255
érées	-6256
étrer	-6257
ézuél	-6258
êtait	-6259
▁2010	-6260
▁Alli	-6261
▁Barc	-6262
▁Bich	-6263
▁Comm	-6264
▁Cour	-6265
▁Fall	-6266
▁Fern	-6267
▁Form	-6268
▁Hall	-6269
▁Harv	-6270
▁Haut	-6271
▁Iran	-6272
▁Ital	-6273
▁Kund	-6274
▁Mara	-6275
▁Mass	-6276
▁Miss	-6277
▁Park	-6278
▁Pays	-6279
▁Qing	-6280
▁Rome	-6281
▁Show	-6282
▁Suis	-6283
▁Temp	-6284
▁Tous	-6285
▁Vanc	-6286
▁Vati	-6287
▁West	-6288
▁XIXe	-6289
▁XVIe	-6290
▁York	-6291
▁alex	-6292
▁anne	-6293
▁appa	-6294
▁avoc	-6295
▁bars	-6296
▁bébé	-6297
▁chat	-6298
▁crit	-6299
▁dign	-6300
▁duré	-6301
▁enqu	-6302
▁ethn	-6303
▁fiss	-6304
▁horl	-6305
▁inex	-6306
▁joli	-6307
▁lame	-6308
▁lave	-6309
▁luxe	-6310
▁mené	-6311
▁nage	-6312
▁nave	-6313
▁note	-6314
▁parv	-6315
▁polo	-6316
▁prog	-6317
▁raci	-6318
▁radi	-6319
▁rené	-6320
▁réac	-6321
▁réag	-6322
▁scén	-6323
▁sûrs	-6324
▁tiré	-6325
▁trac	-6326
▁tric	-6327
▁vise	-6328
▁voud	-6329
▁yach	-6330
▁yoga	-6331
▁éner	-6332
▁épis	-6333
▁œufs	-6334
Antarc	-6335
Péters	-6336
UNESCO	-6337
agerie	-6338
agisse	-6339
agnols	-6340
alcool	-6341
allons	-6342
aminée	-6343
apagos	-6344
archet	-6345
contin	-6346
culose	-6347
eresse	-6348
ervent	-6349
ichard	-6350
iction	-6351
ifères	-6352
illons	-6353
inness	-6354
laient	-6355
lation	-6356
liques	-6357
lision	-6358
lérose	-6359
monter	-6360
onance	-6361
ordonn	-6362
ortiss	-6363
otherm	-6364
ouines	-6365
tances	-6366
terrir	-6367
utrons	-6368
yapock	-6369
ápagos	-6370
émique	-6371
émités	-6372
études	-6373
▁1970,	-6374
▁2008,	-6375
▁2010,	-6376
▁2017,	-6377
▁Alors	-6378
▁Arias	-6379
▁Arist	-6380
▁Court	-6381
▁Huhne	-6382
▁Jourd	-6383
▁Kenya	-6384
▁Machu	-6385
▁Perry	-6386
▁Pékin	-6387
▁Radio	-6388
▁Santa	-6389
▁Singh	-6390
▁Stark	-6391
▁Trois	-6392
▁Votre	-6393
▁Vérif	-6394
▁White	-6395
▁XVIIe	-6396
▁abatt	-6397
▁abrit	-6398
▁aimés	-6399
▁bancs	-6400
▁bases	-6401
▁basse	-6402
▁bière	-6403
▁blogs	-6404
▁chars	-6405
▁coinc	-6406
▁curry	-6407
▁dégât	-6408
▁emmen	-6409
▁entré	-6410
▁envie	-6411
▁ferez	-6412
▁funér	-6413
▁futur	-6414
▁gagné	-6415
▁gliss	-6416
▁géant	-6417
▁handi	-6418
▁image	-6419
▁intui	-6420
▁jette	-6421
▁jeudi	-6422
▁lance	-6423
▁lever	-6424
▁liège	-6425
▁locom	-6426
▁mangé	-6427
▁marco	-6428
▁masse	-6429
▁menée	-6430
▁micro	-6431
▁migré	-6432
▁mosas	-6433
▁music	-6434
▁nager	-6435
▁paral	-6436
▁phara	-6437
▁pouss	-6438
▁préal	-6439
▁pèler	-6440
▁relie	-6441
▁renif	-6442
▁révél	-6443
▁rêves	-6444
▁sache	-6445
▁score	-6446
▁selle	-6447
▁soins	-6448
▁testé	-6449
▁tigre	-6450
▁tours	-6451
▁trône	-6452
▁tuant	-6453
▁venez	-6454
▁visas	-6455
▁émise	-6456
▁équiv	-6457
▁étiez	-6458
▁évent	-6459
Islande	-6460
ablanca	-6461
accueil	-6462
adapter	-6463
aisseur	-6464
ataires	-6465
atation	-6466
bilités	-6467
gestion	-6468
héberge	-6469
ibution	-6470
inosité	-6471
occuper	-6472
quateur	-6473
ulsions	-6474
venzano	-6475
échelle	-6476
ératops	-6477
ériques	-6478
▁802.11	-6479
▁Blacks	-6480
▁Carter	-6481
▁Christ	-6482
▁Comité	-6483
▁Copenh	-6484
▁Dunlap	-6485
▁Déclar	-6486
▁Howard	-6487
▁Lakkha	-6488
▁Maoris	-6489
▁Picchu	-6490
▁Romney	-6491
▁abrite	-6492
▁accusé	-6493
▁adress	-6494
▁alcool	-6495
▁assass	-6496
▁baptis	-6497
▁billet	-6498
▁bouddh	-6499
▁boules	-6500
▁briser	-6501
▁brésil	-6502
▁budget	-6503
▁causer	-6504
▁charme	-6505
▁chaude	-6506
▁chauff	-6507
▁civils	-6508
▁client	-6509
▁craign	-6510
▁célébr	-6511
▁disque	-6512
▁douane	-6513
▁drogue	-6514
▁débuté	-6515
▁démont	-6516
▁emploi	-6517
▁envers	-6518
▁excell	-6519
▁export	-6520
▁fascin	-6521
▁félins	-6522
▁garçon	-6523
▁gourou	-6524
▁géante	-6525
▁heurté	-6526
▁lourde	-6527
▁lumine	-6528
▁maître	-6529
▁meutes	-6530
▁monter	-6531
▁multip	-6532
▁munies	-6533
▁offrir	-6534
▁ordres	-6535
▁parlée	-6536
▁pentes	-6537
▁plasma	-6538
▁pluies	-6539
▁postes	-6540
▁poussi	-6541
▁prends	-6542
▁prises	-6543
▁promul	-6544
▁pronon	-6545
▁racont	-6546
▁radars	-6547
▁raides	-6548
▁rempli	-6549
▁report	-6550
▁romain	-6551
▁rythme	-6552
▁safari	-6553
▁savane	-6554
▁slalom	-6555
▁stimul	-6556
▁succéd	-6557
▁talons	-6558
▁termes	-6559
▁terres	-6560
▁textes	-6561
▁traces	-6562
▁tribus	-6563
▁valeur	-6564
▁échecs	-6565
▁échoué	-6566
▁écrits	-6567
Auckland	-6568
Internet	-6569
Nouvelle	-6570
archipel	-6571
humanité	-6572
humidité	-6573
incendie	-6574
invasion	-6575
ontières	-6576
teraient	-6577
échapper	-6578
▁Atlanta	-6579
▁Bichkek	-6580
▁Essayez	-6581
▁Floride	-6582
▁Johnson	-6583
▁Londres	-6584
▁Vatican	-6585
▁absolue	-6586
▁affirme	-6587
▁agressi	-6588
▁aimions	-6589
▁antoine	-6590
▁arriver	-6591
▁aspects	-6592
▁associé	-6593
▁assurer	-6594
▁bassins	-6595
▁bientôt	-6596
▁caméras	-6597
▁capsule	-6598
▁casinos	-6599
▁catastr	-6600
▁censure	-6601
▁chanson	-6602
▁charles	-6603
▁chèvres	-6604
▁climats	-6605
▁clôture	-6606
▁comparé	-6607
▁comport	-6608
▁compter	-6609
▁compéti	-6610
▁concent	-6611
▁conflit	-6612
▁consist	-6613
▁consomm	-6614
▁courses	-6615
▁cyclone	-6616
▁côtiers	-6617
▁dangere	-6618
▁dessous	-6619
▁diabète	-6620
▁dixième	-6621
▁donnant	-6622
▁dépasse	-6623
▁détenus	-6624
▁englobe	-6625
▁ennemis	-6626
▁faisons	-6627
▁fortune	-6628
▁fédéral	-6629
▁février	-6630
▁hauteur	-6631
▁illustr	-6632
▁importe	-6633
▁inutile	-6634
▁limitée	-6635
▁londres	-6636
▁lunaire	-6637
▁lésions	-6638
▁manager	-6639
▁mangent	-6640
▁marquer	-6641
▁marquis	-6642
▁minimum	-6643
▁moindre	-6644
▁montage	-6645
▁mémoire	-6646
▁navette	-6647
▁ocelots	-6648
▁photons	-6649
▁positif	-6650
▁pousser	-6651
▁problém	-6652
▁préserv	-6653
▁publics	-6654
▁rendent	-6655
▁rentrer	-6656
▁roulent	-6657
▁réalisé	-6658
▁répandu	-6659
▁sanguin	-6660
▁science	-6661
▁spécial	-6662
▁suggère	-6663
▁suspect	-6664
▁symbole	-6665
▁veulent	-6666
▁victime	-6667
▁violent	-6668
▁volonté	-6669
▁voulait	-6670
▁épaules	-6671
▁équator	-6672
administr	-6673
africains	-6674
continent	-6675
ittsburgh	-6676
écesseurs	-6677
édération	-6678
ézuéliens	-6679
▁Baltique	-6680
▁Belgique	-6681
▁Cambodge	-6682
▁Caroline	-6683
▁Costello	-6684
▁Danielle	-6685
▁Finlande	-6686
▁Guinness	-6687
▁Hospital	-6688
▁Jourdain	-6689
▁Martelly	-6690
▁National	-6691
▁Paraguay	-6692
▁Pourquoi	-6693
▁Siminoff	-6694
▁Vérifiez	-6695
▁approche	-6696
▁attitude	-6697
▁avantage	-6698
▁capables	-6699
▁chanteur	-6700
▁chinoise	-6701
▁collines	-6702
▁confirmé	-6703
▁contacts	-6704
▁contenir	-6705
▁continue	-6706
▁courante	-6707
▁coutumes	-6708
▁couvrant	-6709
▁craintes	-6710
▁cristaux	-6711
▁côtières	-6712
▁divisant	-6713
▁domaines	-6714
▁engendré	-6715
▁entières	-6716
▁exécutif	-6717
▁familial	-6718
▁financer	-6719
▁fissures	-6720
▁habitués	-6721
▁handicap	-6722
▁horaires	-6723
▁horloges	-6724
▁humaines	-6725
▁implique	-6726
▁incendie	-6727
▁infecter	-6728
▁inscrits	-6729
▁intérêts	-6730
▁limitées	-6731
▁logement	-6732
▁lunettes	-6733
▁maltrait	-6734
▁manières	-6735
▁marquant	-6736
▁mentionn	-6737
▁montrent	-6738
▁neutrons	-6739
▁objectif	-6740
▁observer	-6741
▁panneaux	-6742
▁patineur	-6743
▁plaintes	-6744
▁planètes	-6745
▁portable	-6746
▁profitez	-6747
▁présents	-6748
▁quittent	-6749
▁rappelle	-6750
▁remplacé	-6751
▁retraite	-6752
▁revanche	-6753
▁rotation	-6754
▁réserver	-6755
▁sclérose	-6756
▁semblent	-6757
▁sociétés	-6758
▁sterling	-6759
▁sûrement	-6760
▁toxiques	-6761
▁transmis	-6762
▁tropical	-6763
▁troubles	-6764
▁trouvait	-6765
▁téléphon	-6766
▁vitesses	-6767
▁électron	-6768
Université	-6769
imposition	-6770
ordinateur	-6771
zélandaise	-6772
économiser	-6773
événements	-6774
▁Australie	-6775
▁Charlotte	-6776
▁Espagnols	-6777
▁Galapagos	-6778
▁Galápagos	-6779
▁Kundalini	-6780
▁Malouines	-6781
▁Schneider	-6782
▁Vancouver	-6783
▁Whitehall	-6784
▁acceptées	-6785
▁accidents	-6786
▁affectées	-6787
▁affirment	-6788
▁africaine	-6789
▁allemands	-6790
▁appareils	-6791
▁appellent	-6792
▁archipels	-6793
▁bactéries	-6794
▁batailles	-6795
▁boomerang	-6796
▁boutiques	-6797
▁bénévoles	-6798
▁collision	-6799
▁comporter	-6800
▁contribué	-6801
▁dirigeait	-6802
▁décisions	-6803
▁dépassant	-6804
▁déplaçait	-6805
▁entraîner	-6806
▁enveloppe	-6807
▁envisager	-6808
▁familiale	-6809
▁fermeture	-6810
▁graffitis	-6811
▁générique	-6812
▁indiquent	-6813
▁industrie	-6814
▁influence	-6815
▁manuscrit	-6816
▁minuscule	-6817
▁mutations	-6818
▁opération	-6819
▁placement	-6820
▁portugais	-6821
▁potentiel	-6822
▁printemps	-6823
▁prononcés	-6824
▁prévoient	-6825
▁qualifiés	-6826
▁ressemble	-6827
▁réalisées	-6828
▁référence	-6829
▁résonance	-6830
▁sanctions	-6831
▁semblable	-6832
▁suggèrent	-6833
▁surchauff	-6834
▁surmonter	-6835
▁séjourner	-6836
▁terrestre	-6837
▁théorique	-6838
▁tiendront	-6839
▁traversez	-6840
▁violentes	-6841
▁végétales	-6842
▁électeurs	-6843
▁électoral	-6844
▁émissions	-6845
Afghanistan	-6846
Antarctique	-6847
Pétersbourg	-6848
hébergement	-6849
▁Casablanca	-6850
▁Provenzano	-6851
▁République	-6852
▁Révolution	-6853
▁appartient	-6854
▁avantageux	-6855
▁compagnons	-6856
▁comparable	-6857
▁complexité	-6858
▁complément	-6859
▁construire	-6860
▁contraints	-6861
▁corruption	-6862
▁culturelle	-6863
▁diagnostic	-6864
▁découvrent	-6865
▁extrémités	-6866
▁extérieure	-6867
▁festivités	-6868
▁forteresse	-6869
▁introduits	-6870
▁locomotion	-6871
▁luminosité	-6872
▁magnifique	-6873
▁magnétique	-6874
▁mammifères	-6875
▁militaires	-6876
▁minuscules	-6877
▁ordinateur	-6878
▁organisent	-6879
▁passeports	-6880
▁phénomènes	-6881
▁possession	-6882
▁produisent	-6883
▁précédents	-6884
▁ressortiss	-6885
▁réductions	-6886
▁réservoirs	-6887
▁résolution	-6888
▁révélation	-6889
▁semblerait	-6890
▁substances	-6891
▁supérieure	-6892
▁temporaire	-6893
▁téléphones	-6894
▁téléphonie	-6895
▁véritables	-6896
▁équipement	-6897
▁Déclaration	-6898
▁alcoolisées	-6899
▁apparemment	-6900
▁australiens	-6901
▁biologiques	-6902
▁cherchaient	-6903
▁combinaison	-6904
▁concurrents	-6905
▁considérées	-6906
▁culturelles	-6907
▁déclencheur	-6908
▁expositions	-6909
▁générations	-6910
▁géologiques	-6911
▁nécessitent	-6912
▁obligations	-6913
▁obligatoire	-6914
▁officielles	-6915
▁originaires	-6916
▁pakistanais	-6917
▁permettrait	-6918
▁publication	-6919
▁pâtisseries	-6920
▁quotidienne	-6921
▁rayonnement	-6922
▁républicain	-6923
▁réservation	-6924
▁stéréotypes	-6925
▁tricératops	-6926
▁tuberculose	-6927
▁utilisation	-6928
▁Méditerranée	-6929
▁Vénézuéliens	-6930
▁applications	-6931
▁britanniques	-6932
▁certainement	-6933
▁commentaires	-6934
▁conservation	-6935
▁constitution	-6936
▁déterminisme	-6937
▁indépendance	-6938
▁indépendante	-6939
▁possibilités	-6940
▁responsables	-6941
▁scientifique	-6942
▁traditionnel	-6943
administration	-6944
▁circonstances	-6945
▁concentration	-6946
▁problématique	-6947
▁prononciation	-6948
▁prédécesseurs	-6949
▁reconstruction	-6950
▁respectivement	-6951
▁Malheureusement	-6952
▁environnemental	-6953
▁météorologiques	-6954
▁potentiellement	-6955
▁raisonnablement	-6956
▁traditionnelles	-6957
'.	-6958
bé	-6959
fa	-6960
go	-6961
ja	-6962
ué	-6963
yo	-6964
zz	-6965
ón	-6966
abe	-6967
ags	-6968
any	-6969
ase	-6970
aïd	-6971
cas	-6972
chi	-6973
del	-6974
enj	-6975
enz	-6976
imb	-6977
lif	-6978
lui	-6979
obi	-6980
oca	-6981
oge	-6982
omo	-6983
ren	-6984
ubr	-6985
vre	-6986
âme	-6987
êle	-6988
œuv	-6989
abil	-6990
amer	-6991
ampe	-6992
char	-6993
delà	-6994
empê	-6995
encé	-6996
iait	-6997
illa	-6998
inde	-6999
inée	-7000
ives	-7001
jean	-7002
lige	-7003
mais	-7004
midi	-7005
oici	-7006
onnu	-7007
orde	-7008
orps	-7009
rade	-7010
rein	-7011
romp	-7012
seau	-7013
thur	-7014
tise	-7015
uter	-7016
èter	-7017
érée	-7018
êtez	-7019
▁anc	-7020
▁and	-7021
▁bec	-7022
▁clé	-7023
▁déd	-7024
▁eau	-7025
▁jet	-7026
▁jul	-7027
▁nez	-7028
▁nid	-7029
▁née	-7030
▁ras	-7031
▁the	-7032
▁top	-7033
acité	-7034
anges	-7035
antan	-7036
appel	-7037
arité	-7038
effet	-7039
ierge	-7040
ierre	-7041
impôt	-7042
intér	-7043
issue	-7044
lises	-7045
naire	-7046
ombes	-7047
orent	-7048
ouill	-7049
oulée	-7050
pelez	-7051
posée	-7052
quise	-7053
rette	-7054
risti	-7055
siers	-7056
titut	-7057
tères	-7058
umeur	-7059
écile	-7060
▁aigu	-7061
▁amén	-7062
▁angl	-7063
▁barr	-7064
▁bern	-7065
▁bond	-7066
▁bref	-7067
▁bête	-7068
▁chic	-7069
▁diss	-7070
▁dram	-7071
▁dédi	-7072
▁défi	-7073
▁exac	-7074
▁idée	-7075
▁irez	-7076
▁lion	-7077
▁murs	-7078
▁narr	-7079
▁obsc	-7080
▁opin	-7081
▁pain	-7082
▁pert	-7083
▁quas	-7084
▁rass	-7085
▁rive	-7086
▁réci	-7087
▁sabl	-7088
▁sacr	-7089
▁soud	-7090
▁souv	-7091
▁vale	-7092
▁voté	-7093
▁étud	-7094
avocat	-7095
aïdjan	-7096
empire	-7097
emploi	-7098
iggins	-7099
igneur	-7100
incent	-7101
itaire	-7102
lexion	-7103
stacle	-7104
tienne	-7105
ucteur	-7106
électr	-7107
▁baiss	-7108
▁bruit	-7109
▁bénéf	-7110
▁clubs	-7111
▁compt	-7112
▁côtes	-7113
▁dents	-7114
▁dites	-7115
▁dîner	-7116
▁exper	-7117
▁forts	-7118
▁fémin	-7119
▁leçon	-7120
▁maroc	-7121
▁ouest	-7122
▁parad	-7123
▁plage	-7124
▁pluie	-7125
▁puits	-7126
▁rampe	-7127
▁remer	-7128
▁royal	-7129
▁surpl	-7130
▁surpr	-7131
▁tente	-7132
▁toile	-7133
▁voici	-7134
enquête	-7135
exploit	-7136
intérêt	-7137
oiselle	-7138
▁acides	-7139
▁actuel	-7140
▁argent	-7141
▁bruits	-7142
▁chaise	-7143
▁champs	-7144
▁chance	-7145
▁comité	-7146
▁commém	-7147
▁cousin	-7148
▁croire	-7149
▁débarr	-7150
▁défini	-7151
▁eugène	-7152
▁feront	-7153
▁formée	-7154
▁frappé	-7155
▁gardes	-7156
▁inquié	-7157
▁légère	-7158
▁marcof	-7159
▁palais	-7160
▁passée	-7161
▁places	-7162
▁pommes	-7163
▁relais	-7164
▁remise	-7165
▁roches	-7166
▁réelle	-7167
▁satisf	-7168
▁sienne	-7169
▁souffr	-7170
▁suppos	-7171
▁tomber	-7172
▁traite	-7173
▁vierge	-7174
▁écoles	-7175
assaient	-7176
huitième	-7177
ventions	-7178
▁aliment	-7179
▁article	-7180
▁chacune	-7181
▁charges	-7182
▁concept	-7183
▁connues	-7184
▁couvrir	-7185
▁dominic	-7186
▁démissi	-7187
▁détails	-7188
▁fallait	-7189
▁georges	-7190
▁interdi	-7191
▁locales	-7192
▁marches	-7193
▁mettant	-7194
▁million	-7195
▁moyenne	-7196
▁musical	-7197
▁numéros	-7198
▁origine	-7199
▁perturb	-7200
▁termine	-7201
▁théâtre	-7202
▁travaux	-7203
▁trouvés	-7204
▁vainque	-7205
▁viendra	-7206
▁églises	-7207
erbaïdjan	-7208
événement	-7209
▁actuelle	-7210
▁aimaient	-7211
▁appareil	-7212
▁blessure	-7213
▁chapelle	-7214
▁chercher	-7215
▁chiennes	-7216
▁concerts	-7217
▁constaté	-7218
▁cuisiner	-7219
▁existent	-7220
▁françois	-7221
▁mortelle	-7222
▁patience	-7223
▁pouvoirs	-7224
▁prochain	-7225
▁pêchions	-7226
▁rappeler	-7227
▁réalisés	-7228
▁semblait	-7229
▁sonnette	-7230
▁suivante	-7231
▁suspendu	-7232
tissements	-7233
▁chanteuse	-7234
▁conserver	-7235
▁emprunter	-7236
▁endémique	-7237
▁instantan	-7238
▁naturelle	-7239
▁pacifique	-7240
▁peintures	-7241
▁réflexion	-7242
▁comprenait	-7243
▁conférence	-7244
▁conseiller	-7245
▁disponible	-7246
▁exactement	-7247
▁expériment	-7248
▁naturelles	-7249
▁présidence	-7250
▁reviennent	-7251
▁exemplaires	-7252
▁indications	-7253
▁prisonniers	-7254
▁conséquences	-7255
▁observateurs	-7256
▁naturellement	-7257
▁officiellement	-7258
▁transformation	-7259
ep	-7260
gs	-7261
ke	-7262
zi	-7263
▁/	-7264
ado	-7265
anz	-7266
arn	-7267
aug	-7268
avi	-7269
cie	-7270
deb	-7271
for	-7272
hor	-7273
ios	-7274
ith	-7275
ium	-7276
jol	-7277
nom	-7278
oka	-7279
oke	-7280
pen	-7281
por	-7282
raf	-7283
rix	-7284
sif	-7285
syl	-7286
umb	-7287
uns	-7288
ury	-7289
yan	-7290
çue	-7291
▁hé	-7292
▁pa	-7293
▁sè	-7294
▁ém	-7295
agog	-7296
akar	-7297
amoa	-7298
ardi	-7299
ario	-7300
arot	-7301
arre	-7302
arrê	-7303
asie	-7304
ayak	-7305
chré	-7306
cide	-7307
comp	-7308
esti	-7309
gant	-7310
hôte	-7311
iguï	-7312
imal	-7313
inze	-7314
iras	-7315
leur	-7316
levé	-7317
mann	-7318
mier	-7319
nées	-7320
obel	-7321
obsc	-7322
ommy	-7323
onga	-7324
orph	-7325
ouer	-7326
ouse	-7327
outh	-7328
outi	-7329
oxim	-7330
phen	-7331
piré	-7332
uifs	-7333
uret	-7334
vada	-7335
venu	-7336
vise	-7337
écou	-7338
émis	-7339
énor	-7340
érés	-7341
ésus	-7342
êque	-7343
▁bai	-7344
▁bot	-7345
▁cau	-7346
▁chr	-7347
▁dam	-7348
▁dél	-7349
▁fiè	-7350
▁fos	-7351
▁gué	-7352
▁has	-7353
▁mag	-7354
▁mah	-7355
▁max	-7356
▁net	-7357
▁ode	-7358
▁orb	-7359
▁pis	-7360
▁pul	-7361
▁pès	-7362
▁sit	-7363
▁sér	-7364
▁tin	-7365
▁tir	-7366
▁tom	-7367
▁vik	-7368
▁ère	-7369
▁éme	-7370
ablir	-7371
aiser	-7372
album	-7373
alors	-7374
antir	-7375
argot	-7376
aurez	-7377
autor	-7378
chets	-7379
ciper	-7380
dront	-7381
ettes	-7382
exist	-7383
froid	-7384
ictor	-7385
igent	-7386
influ	-7387
innov	-7388
iquet	-7389
isent	-7390
islam	-7391
isole	-7392
itage	-7393
iétés	-7394
lerie	-7395
licop	-7396
léans	-7397
manie	-7398
obile	-7399
olive	-7400
oléon	-7401
onale	-7402
ortée	-7403
outes	-7404
ridge	-7405
tible	-7406
tumes	-7407
ydore	-7408
écran	-7409
▁abat	-7410
▁allé	-7411
▁amie	-7412
▁anti	-7413
▁astr	-7414
▁cann	-7415
▁cass	-7416
▁cime	-7417
▁clar	-7418
▁coal	-7419
▁cogn	-7420
▁coqu	-7421
▁cria	-7422
▁crim	-7423
▁doig	-7424
▁fine	-7425
▁fixe	-7426
▁foot	-7427
▁froi	-7428
▁guér	-7429
▁honn	-7430
▁joie	-7431
▁join	-7432
▁lien	-7433
▁lyon	-7434
▁mens	-7435
▁orth	-7436
▁ouvr	-7437
▁pani	-7438
▁path	-7439
▁plai	-7440
▁porn	-7441
▁pots	-7442
▁prun	-7443
▁race	-7444
▁roch	-7445
▁rois	-7446
▁rous	-7447
▁rétr	-7448
▁rôle	-7449
▁sacs	-7450
▁same	-7451
▁saut	-7452
▁stel	-7453
▁subi	-7454
▁vins	-7455
▁égyp	-7456
aliste	-7457
ambers	-7458
anique	-7459
aspect	-7460
astruc	-7461
aucune	-7462
aurais	-7463
espère	-7464
habite	-7465
heures	-7466
iciens	-7467
iendra	-7468
igueur	-7469
mation	-7470
mettre	-7471
primer	-7472
sylvan	-7473
tifier	-7474
trices	-7475
viseur	-7476
çonner	-7477
érieur	-7478
▁acier	-7479
▁admis	-7480
▁alent	-7481
▁amour	-7482
▁arbre	-7483
▁austr	-7484
▁avanc	-7485
▁avent	-7486
▁avril	-7487
▁basés	-7488
▁battu	-7489
▁bleus	-7490
▁bords	-7491
▁ceris	-7492
▁cible	-7493
▁cités	-7494
▁conçu	-7495
▁coupé	-7496
▁danse	-7497
▁degré	-7498
▁dimin	-7499
▁dioxy	-7500
▁dotée	-7501
▁durer	-7502
▁démén	-7503
▁enter	-7504
▁fores	-7505
▁gardé	-7506
▁genre	-7507
▁guide	-7508
▁honte	-7509
▁innov	-7510
▁inves	-7511
▁juges	-7512
▁kayak	-7513
▁madem	-7514
▁maire	-7515
▁maîtr	-7516
▁mettr	-7517
▁morts	-7518
▁motif	-7519
▁motiv	-7520
▁nerve	-7521
▁niche	-7522
▁perte	-7523
▁ponts	-7524
▁porté	-7525
▁prévu	-7526
▁recru	-7527
▁roulé	-7528
▁réels	-7529
▁rêver	-7530
▁sacré	-7531
▁serré	-7532
▁tient	-7533
▁trent	-7534
▁tromp	-7535
▁vaste	-7536
▁voyez	-7537
▁vrais	-7538
▁écout	-7539
accessi	-7540
arrêter	-7541
ativité	-7542
attaque	-7543
chement	-7544
chester	-7545
ensable	-7546
essayer	-7547
heureux	-7548
quaient	-7549
sterdam	-7550
uration	-7551
▁alerte	-7552
▁aspect	-7553
▁attrib	-7554
▁bandes	-7555
▁brisée	-7556
▁calend	-7557
▁candid	-7558
▁classé	-7559
▁compli	-7560
▁copies	-7561
▁courte	-7562
▁croyez	-7563
▁cuisin	-7564
▁durent	-7565
▁décern	-7566
▁empois	-7567
▁ennemi	-7568
▁essaie	-7569
▁extrav	-7570
▁ferrov	-7571
▁fièvre	-7572
▁francs	-7573
▁frères	-7574
▁humain	-7575
▁intégr	-7576
▁lourds	-7577
▁marais	-7578
▁minuit	-7579
▁montée	-7580
▁métrop	-7581
▁nommée	-7582
▁négoci	-7583
▁panier	-7584
▁paraît	-7585
▁parois	-7586
▁plaint	-7587
▁pousse	-7588
▁pressé	-7589
▁propri	-7590
▁prévue	-7591
▁publié	-7592
▁quitté	-7593
▁refuse	-7594
▁rentre	-7595
▁restée	-7596
▁retire	-7597
▁revend	-7598
▁rouges	-7599
▁royale	-7600
▁rédigé	-7601
▁sensib	-7602
▁sentez	-7603
▁situés	-7604
▁sièges	-7605
▁soulig	-7606
▁soumis	-7607
▁studio	-7608
▁suivie	-7609
▁sèches	-7610
▁titres	-7611
▁triang	-7612
▁triste	-7613
▁troubl	-7614
▁trésor	-7615
▁urbain	-7616
▁vaccin	-7617
▁valide	-7618
▁varier	-7619
▁verrez	-7620
▁vidéos	-7621
▁vérité	-7622
▁étudie	-7623
actuelle	-7624
ceptions	-7625
lections	-7626
lication	-7627
uisement	-7628
ympiques	-7629
écriture	-7630
▁affaire	-7631
▁aimeras	-7632
▁alertes	-7633
▁appelez	-7634
▁appréci	-7635
▁bonjour	-7636
▁bureaux	-7637
▁centres	-7638
▁chances	-7639
▁changer	-7640
▁christi	-7641
▁communi	-7642
▁comprom	-7643
▁connaît	-7644
▁constat	-7645
▁controv	-7646
▁diplômé	-7647
▁directe	-7648
▁donnent	-7649
▁défaite	-7650
▁défendu	-7651
▁détourn	-7652
▁emplace	-7653
▁fourmis	-7654
▁guerres	-7655
▁habitée	-7656
▁heureux	-7657
▁humaine	-7658
▁hélicop	-7659
▁infecté	-7660
▁laisser	-7661
▁largeur	-7662
▁linguis	-7663
▁montrer	-7664
▁méduses	-7665
▁nomment	-7666
▁ouverts	-7667
▁parvenu	-7668
▁passent	-7669
▁pauvres	-7670
▁perspec	-7671
▁phrases	-7672
▁portent	-7673
▁pêchait	-7674
▁quelles	-7675
▁rassemb	-7676
▁refroid	-7677
▁reprend	-7678
▁restait	-7679
▁retrait	-7680
▁revient	-7681
▁risques	-7682
▁royaume	-7683
▁réalise	-7684
▁sachant	-7685
▁scandin	-7686
▁serpent	-7687
▁servent	-7688
▁situent	-7689
▁sixième	-7690
▁spectre	-7691
▁stables	-7692
▁tombent	-7693
▁tournoi	-7694
▁typique	-7695
▁variées	-7696
▁vigueur	-7697
▁vincent	-7698
▁vérifié	-7699
▁épisode	-7700
▁établis	-7701
▁étudier	-7702
▁évident	-7703
accompagn	-7704
ascension	-7705
habitants	-7706
isolement	-7707
issements	-7708
uellement	-7709
épaisseur	-7710
▁adaptées	-7711
▁affectés	-7712
▁aimèrent	-7713
▁amateurs	-7714
▁apportez	-7715
▁approxim	-7716
▁arrivent	-7717
▁aéroport	-7718
▁châteaux	-7719
▁collabor	-7720
▁comparer	-7721
▁complète	-7722
▁consacré	-7723
▁conserve	-7724
▁costumes	-7725
▁couleurs	-7726
▁diffusée	-7727
▁distinct	-7728
▁détruite	-7729
▁encourag	-7730
▁entourée	-7731
▁entraîne	-7732
▁faudrait	-7733
▁football	-7734
▁fossiles	-7735
▁garantir	-7736
▁généraux	-7737
▁harmonie	-7738
▁heureuse	-7739
▁instable	-7740
▁longueur	-7741
▁magasins	-7742
▁napoléon	-7743
▁occasion	-7744
▁original	-7745
▁pompiers	-7746
▁portrait	-7747
▁profonde	-7748
▁prématur	-7749
▁rapidité	-7750
▁remercie	-7751
▁retourne	-7752
▁routière	-7753
▁réaliser	-7754
▁répandre	-7755
▁sections	-7756
▁semblant	-7757
▁souhaite	-7758
▁supermar	-7759
▁surplomb	-7760
▁touriste	-7761
▁tranches	-7762
▁transpar	-7763
▁vaisseau	-7764
▁valables	-7765
▁viendrai	-7766
▁étudiant	-7767
expériment	-7768
innovation	-7769
zerbaïdjan	-7770
▁chercheur	-7771
▁chrétiens	-7772
▁coalition	-7773
▁cohérence	-7774
▁complexes	-7775
▁comprends	-7776
▁consultez	-7777
▁cérémonie	-7778
▁diffusion	-7779
▁dirigeant	-7780
▁disposant	-7781
▁existence	-7782
▁fréquente	-7783
▁identifié	-7784
▁inférieur	-7785
▁interprét	-7786
▁ministère	-7787
▁monastère	-7788
▁nouveauté	-7789
▁organisée	-7790
▁permettra	-7791
▁policiers	-7792
▁primaires	-7793
▁principes	-7794
▁procédure	-7795
▁profondes	-7796
▁préoccupé	-7797
▁remontant	-7798
▁satisfait	-7799
▁spéciales	-7800
▁stratégie	-7801
▁suivantes	-7802
▁survivant	-7803
▁thermique	-7804
▁traversée	-7805
▁trentaine	-7806
▁vainqueur	-7807
▁équilibre	-7808
onstitution	-7809
électricité	-7810
▁acceptable	-7811
▁accompagné	-7812
▁accueillir	-7813
▁activement	-7814
▁allemandes	-7815
▁apparition	-7816
▁catégories	-7817
▁classiques	-7818
▁collection	-7819
▁commercial	-7820
▁concernées	-7821
▁conséquent	-7822
▁deviennent	-7823
▁forestiers	-7824
▁formulaire	-7825
▁hiérarchie	-7826
▁infrastruc	-7827
▁intérieure	-7828
▁judiciaire	-7829
▁négligence	-7830
▁opposition	-7831
▁permanente	-7832
▁pleinement	-7833
▁propriétés	-7834
▁ressembler	-7835
▁répétition	-7836
▁souveraine	-7837
▁suffisante	-7838
▁totalement	-7839
▁transforme	-7840
▁téléviseur	-7841
▁accessibles	-7842
▁compréhensi	-7843
▁confortable	-7844
▁connaissent	-7845
▁connaissons	-7846
▁constituent	-7847
▁dominicaine	-7848
▁ferroviaire	-7849
▁intéressant	-7850
▁populations	-7851
▁précisément	-7852
▁précédentes	-7853
▁préparation	-7854
▁stratégique	-7855
▁technologie	-7856
▁travaillant	-7857
▁universelle	-7858
▁atterrissage	-7859
▁conversation	-7860
▁dispositions	-7861
▁efficacement	-7862
▁intelligente	-7863
▁mademoiselle	-7864
▁modification	-7865
▁observations	-7866
▁représentant	-7867
▁réalisations	-7868
▁travailleurs	-7869
▁christianisme	-7870
▁réchauffement	-7871
expérimentation	-7872
▁établissements	-7873
▁professionnelle	-7874
-3	-7875
02	-7876
16	-7877
18	-7878
22	-7879
40	-7880
55	-7881
62	-7882
8)	-7883
90	-7884
92	-7885
AP	-7886
Ap	-7887
BA	-7888
BS	-7889
CA	-7890
DA	-7891
DG	-7892
DT	-7893
ET	-7894
En	-7895
GS	-7896
HA	-7897
Hz	-7898
IB	-7899
'«	-7900
ID	-7901
IS	-7902
MI	-7903
NP	-7904
OC	-7905
OV	-7906
Oc	-7907
Oh	-7908
Ou	-7909
RS	-7910
SW	-7911
Up	-7912
VD	-7913
WS	-7914
iP	-7915
kg	-7916
ko	-7917
tn	-7918
ua	-7919
Ég	-7920
ût	-7921
üm	-7922
▁Î	-7923
"""	-7924
-76	-7925
00.	-7926
9).	-7927
ADN	-7928
Ass	-7929
Bas	-7930
Bay	-7931
ETI	-7932
Esp	-7933
IRM	-7934
Ins	-7935
OHA	-7936
PCA	-7937
aan	-7938
afe	-7939
aga	-7940
ahu	-7941
aii	-7942
aju	-7943
ake	-7944
anb	-7945
apu	-7946
asv	-7947
ath	-7948
avy	-7949
aín	-7950
bet	-7951
bow	-7952
cht	-7953
cia	-7954
ese	-7955
euf	-7956
hua	-7957
ieh	-7958
inn	-7959
iop	-7960
ipp	-7961
iza	-7962
jab	-7963
jac	-7964
jah	-7965
lad	-7966
lls	-7967
lum	-7968
mai	-7969
mma	-7970
ogi	-7971
ogé	-7972
omé	-7973
onf	-7974
opr	-7975
ory	-7976
ouc	-7977
rom	-7978
ruk	-7979
rup	-7980
toi	-7981
tén	-7982
uet	-7983
von	-7984
yam	-7985
yer	-7986
ynn	-7987
îte	-7988
▁(«	-7989
▁6,	-7990
▁78	-7991
▁83	-7992
▁Bo	-7993
▁Du	-7994
▁Dz	-7995
▁Er	-7996
▁Et	-7997
▁Fe	-7998
▁II	-7999
ben	-8000
laf	-8001
lim	-8002
▁27	-8003
▁2:	-8004
▁Gi	-8005
▁Ir	-8006
▁Iw	-8007
▁Mc	-8008
▁Nu	-8009
▁Ny	-8010
▁Ou	-8011
▁Pa	-8012
▁Pe	-8013
▁Po	-8014
▁Pu	-8015
▁Pâ	-8016
▁Ri	-8017
▁Sc	-8018
▁Sl	-8019
▁Ve	-8020
▁Xe	-8021
▁lâ	-8022
▁pd	-8023
-19.	-8024
ACTA	-8025
ASUS	-8026
OVID	-8027
Oreg	-8028
USOC	-8029
acie	-8030
adal	-8031
aigu	-8032
aito	-8033
akis	-8034
anch	-8035
angé	-8036
anqu	-8037
anur	-8038
arns	-8039
arou	-8040
aska	-8041
atus	-8042
aube	-8043
avey	-8044
aîtr	-8045
bola	-8046
brer	-8047
cela	-8048
chus	-8049
cium	-8050
cour	-8051
dage	-8052
diff	-8053
dimb	-8054
enge	-8055
enos	-8056
enry	-8057
erci	-8058
espè	-8059
eter	-8060
ethn	-8061
ford	-8062
gués	-8063
hent	-8064
hori	-8065
ibre	-8066
icol	-8067
icon	-8068
idim	-8069
idés	-8070
igny	-8071
inal	-8072
ingb	-8073
irag	-8074
irap	-8075
irer	-8076
itan	-8077
itas	-8078
jans	-8079
jong	-8080
khar	-8081
kish	-8082
llsw	-8083
lynn	-8084
lète	-8085
mark	-8086
mart	-8087
mond	-8088
mura	-8089
nier	-8090
ocie	-8091
oids	-8092
oilé	-8093
okyo	-8094
olyn	-8095
omas	-8096
onlé	-8097
onze	-8098
ooch	-8099
39,	-8100
Uni	-8101
ect	-8102
eue	-8103
yst	-8104
œil	-8105
▁FI	-8106
▁We	-8107
IIIe	-8108
Mapp	-8109
ahel	-8110
arra	-8111
ceau	-8112
hrop	-8113
ichu	-8114
ongo	-8115
ople	-8116
oqué	-8117
orch	-8118
oriz	-8119
orum	-8120
otor	-8121
ound	-8122
ouri	-8123
oxal	-8124
oyés	-8125
pant	-8126
phal	-8127
pins	-8128
prés	-8129
père	-8130
quet	-8131
rain	-8132
rine	-8133
rois	-8134
rump	-8135
ryce	-8136
sent	-8137
sile	-8138
sych	-8139
tang	-8140
tnam	-8141
trav	-8142
trel	-8143
tros	-8144
tues	-8145
tère	-8146
uine	-8147
vech	-8148
vide	-8149
èges	-8150
écri	-8151
élev	-8152
énat	-8153
éque	-8154
érin	-8155
îles	-8156
îtes	-8157
▁(15	-8158
▁(31	-8159
▁1,5	-8160
▁120	-8161
▁160	-8162
▁168	-8163
▁177	-8164
▁183	-8165
▁220	-8166
▁403	-8167
▁AOL	-8168
▁Ath	-8169
▁Bar	-8170
▁Big	-8171
▁Bow	-8172
▁Bro	-8173
▁Bul	-8174
▁Cud	-8175
▁DVD	-8176
▁Dam	-8177
▁Dan	-8178
▁Dix	-8179
▁Dre	-8180
▁Eph	-8181
▁Fel	-8182
▁GHz	-8183
▁Gaz	-8184
▁Ham	-8185
▁Han	-8186
▁Jam	-8187
▁Kow	-8188
▁Lay	-8189
▁Lee	-8190
▁Mad	-8191
▁Mau	-8192
▁Mec	-8193
▁Min	-8194
▁Mod	-8195
▁NBA	-8196
▁Nam	-8197
▁PBS	-8198
▁PDG	-8199
1)	-8200
At	-8201
▁Ad	-8202
▁Or	-8203
abwe	-8204
amén	-8205
anks	-8206
hnom	-8207
obil	-8208
oncé	-8209
▁Mic	-8210
▁Oli	-8211
▁PIB	-8212
▁Pen	-8213
▁Red	-8214
▁Roe	-8215
▁Rog	-8216
▁Roi	-8217
▁Rou	-8218
▁Sap	-8219
▁Sep	-8220
▁Ser	-8221
▁Sky	-8222
▁Sol	-8223
▁Spr	-8224
▁Str	-8225
▁Sul	-8226
▁TDA	-8227
▁Tas	-8228
▁Tri	-8229
▁USA	-8230
▁UTC	-8231
▁Vel	-8232
▁Veu	-8233
▁Vie	-8234
▁Wil	-8235
▁XVI	-8236
▁XXe	-8237
▁Xin	-8238
▁cac	-8239
▁céc	-8240
▁cés	-8241
▁dan	-8242
▁dic	-8243
▁dus	-8244
▁esc	-8245
▁exo	-8246
▁gal	-8247
▁goû	-8248
▁iss	-8249
▁lir	-8250
▁mam	-8251
▁mph	-8252
▁ner	-8253
▁neu	-8254
▁noc	-8255
▁ore	-8256
▁péj	-8257
▁riz	-8258
▁rol	-8259
▁ros	-8260
▁rur	-8261
▁sar	-8262
▁tab	-8263
▁tie	-8264
▁via	-8265
▁»).	-8266
▁Éth	-8267
▁âgé	-8268
Apple	-8269
Islam	-8270
Ouest	-8271
achat	-8272
achis	-8273
acide	-8274
adapt	-8275
adhés	-8276
adian	-8277
ading	-8278
adors	-8279
affir	-8280
aillé	-8281
aisie	-8282
alpin	-8283
amani	-8284
ambie	-8285
améli	-8286
anbul	-8287
andel	-8288
andez	-8289
andra	-8290
angés	-8291
anime	-8292
antic	-8293
arasv	-8294
argon	-8295
asubr	-8296
atham	-8297
aucun	-8298
autom	-8299
tax	-8300
▁(5	-8301
▁37	-8302
▁39	-8303
▁Es	-8304
Alex	-8305
USGS	-8306
lots	-8307
épal	-8308
▁Bat	-8309
▁Jud	-8310
▁Mon	-8311
▁Sie	-8312
▁bit	-8313
▁nov	-8314
▁urg	-8315
▁élu	-8316
awang	-8317
ayant	-8318
azote	-8319
aínos	-8320
aïbes	-8321
chner	-8322
chées	-8323
coles	-8324
cosse	-8325
court	-8326
deira	-8327
drung	-8328
elone	-8329
enant	-8330
engen	-8331
enter	-8332
envir	-8333
erait	-8334
ershe	-8335
ervez	-8336
esper	-8337
garie	-8338
herbe	-8339
icien	-8340
ience	-8341
igées	-8342
ilipp	-8343
illir	-8344
inage	-8345
ingst	-8346
ingue	-8347
intra	-8348
ionné	-8349
iopie	-8350
irait	-8351
irurg	-8352
isant	-8353
ituée	-8354
lager	-8355
maine	-8356
marin	-8357
meurs	-8358
mitée	-8359
monau	-8360
mosph	-8361
ockey	-8362
ocole	-8363
onald	-8364
onctu	-8365
ondes	-8366
onnés	-8367
ontin	-8368
onvén	-8369
ophis	-8370
opith	-8371
opoul	-8372
oppos	-8373
orait	-8374
ordon	-8375
ortés	-8376
oseph	-8377
osses	-8378
oston	-8379
other	-8380
otred	-8381
ousse	-8382
oyant	-8383
oïsme	-8384
phinx	-8385
phone	-8386
quait	-8387
quist	-8388
roves	-8389
semés	-8390
terre	-8391
treet	-8392
turne	-8393
usses	-8394
ustin	-8395
venir	-8396
video	-8397
zards	-8398
ébron	-8399
Io	-8400
Ari	-8401
▁54	-8402
▁Ot	-8403
▁er	-8404
Ohio	-8405
▁pai	-8406
▁vél	-8407
audin	-8408
endue	-8409
échec	-8410
écriv	-8411
émité	-8412
éveil	-8413
▁(200	-8414
▁1922	-8415
▁1995	-8416
▁2004	-8417
▁2005	-8418
▁2007	-8419
▁2013	-8420
▁Adam	-8421
▁Anna	-8422
▁Apia	-8423
▁Baba	-8424
▁Bach	-8425
▁Bell	-8426
▁Bhog	-8427
▁Brit	-8428
▁Cabo	-8429
▁Camp	-8430
▁Casp	-8431
▁Ceux	-8432
▁Chac	-8433
▁Cinq	-8434
▁City	-8435
▁Cité	-8436
▁Comp	-8437
▁Cook	-8438
▁Dane	-8439
▁Dieu	-8440
▁Donc	-8441
▁Druk	-8442
▁Educ	-8443
▁Eliz	-8444
▁Fair	-8445
▁Fati	-8446
▁Fond	-8447
▁Fort	-8448
▁Fred	-8449
▁Gore	-8450
▁Hang	-8451
▁Irak	-8452
▁Jeff	-8453
▁Kala	-8454
▁Katr	-8455
▁Lake	-8456
▁Lenz	-8457
▁Leon	-8458
▁Lord	-8459
▁Mant	-8460
▁Mari	-8461
▁Mitt	-8462
▁Moll	-8463
▁Méde	-8464
▁NPWS	-8465
▁Navy	-8466
▁Nint	-8467
▁Olaf	-8468
▁Opér	-8469
▁Pago	-8470
▁Paro	-8471
▁Penn	-8472
▁Pitt	-8473
▁Pres	-8474
▁Prin	-8475
▁Prix	-8476
▁Près	-8477
▁Puis	-8478
▁Quel	-8479
▁Rain	-8480
▁Raju	-8481
▁Rick	-8482
▁Ring	-8483
▁Shar	-8484
▁Simp	-8485
▁Slov	-8486
▁Spor	-8487
▁Thaï	-8488
▁Togi	-8489
▁Tomb	-8490
▁Voie	-8491
▁Yoga	-8492
▁Zhab	-8493
▁Zimb	-8494
▁abus	-8495
▁airs	-8496
▁aval	-8497
▁babo	-8498
▁caro	-8499
▁coco	-8500
▁code	-8501
▁corn	-8502
▁crev	-8503
▁crée	-8504
▁dens	-8505
▁digé	-8506
▁dort	-8507
▁décl	-8508
▁erre	-8509
▁estu	-8510
▁exon	-8511
▁expé	-8512
▁fans	-8513
▁faux	-8514
▁fisc	-8515
▁foie	-8516
▁frag	-8517
▁féro	-8518
▁homm	-8519
▁infe	-8520
▁inév	-8521
▁kera	-8522
▁laur	-8523
▁lève	-8524
▁léon	-8525
▁léop	-8526
▁mand	-8527
▁maur	-8528
▁mers	-8529
▁moto	-8530
▁mâch	-8531
▁nerv	-8532
▁noix	-8533
▁nutr	-8534
▁ours	-8535
▁pais	-8536
▁posé	-8537
▁poud	-8538
▁regr	-8539
▁rela	-8540
▁robe	-8541
▁rome	-8542
▁rose	-8543
▁roue	-8544
▁runs	-8545
▁rêve	-8546
▁sabb	-8547
▁sexu	-8548
▁sols	-8549
▁sons	-8550
▁surp	-8551
▁sédi	-8552
▁tord	-8553
▁tron	-8554
▁turc	-8555
▁unes	-8556
▁vand	-8557
▁visu	-8558
▁vues	-8559
▁week	-8560
▁yann	-8561
▁yens	-8562
▁Îles	-8563
▁âgés	-8564
▁épre	-8565
Argent	-8566
Hawaii	-8567
Oregon	-8568
aillon	-8569
aindre	-8570
aisons	-8571
amille	-8572
ampons	-8573
anning	-8574
ançais	-8575
apolis	-8576
ardust	-8577
arrest	-8578
buquer	-8579
celade	-8580
charge	-8581
ctique	-8582
deback	-8583
ecture	-8584
effort	-8585
endjab	-8586
endoza	-8587
engeti	-8588
entral	-8589
erostr	-8590
ershey	-8591
estres	-8592
hammad	-8593
hindou	-8594
idente	-8595
iement	-8596
igeria	-8597
ignent	-8598
impact	-8599
impanz	-8600
imprim	-8601
impéri	-8602
inspec	-8603
instar	-8604
iterie	-8605
ivores	-8606
licule	-8607
lusion	-8608
lèrent	-8609
ocirap	-8610
ogènes	-8611
olètes	-8612
ongent	-8613
onnait	-8614
onnent	-8615
ooters	-8616
oramas	-8617
oriser	-8618
orphes	-8619
orçant	-8620
ospiza	-8621
ouctou	-8622
oulait	-8623
renton	-8624
rosoft	-8625
tantin	-8626
tieuse	-8627
treize	-8628
turage	-8629
téraux	-8630
ulture	-8631
uriser	-8632
ypique	-8633
yriens	-8634
Église	-8635
édoise	-8636
égouts	-8637
éventu	-8638
▁(1000	-8639
▁1940,	-8640
▁1956,	-8641
▁1959.	-8642
▁1976,	-8643
▁1979,	-8644
▁1981,	-8645
▁1989,	-8646
▁1994,	-8647
▁2007.	-8648
▁2009,	-8649
▁2011.	-8650
▁2016.	-8651
▁Aires	-8652
▁Allen	-8653
▁Apple	-8654
▁Aussi	-8655
▁Autre	-8656
▁Black	-8657
▁Blake	-8658
▁Bobek	-8659
▁COVID	-8660
▁Chase	-8661
▁Davey	-8662
▁Devon	-8663
▁Dzong	-8664
▁Entre	-8665
▁Europ	-8666
▁Gates	-8667
▁Grant	-8668
▁Great	-8669
▁Grèce	-8670
▁Henry	-8671
▁Hsieh	-8672
▁Jakar	-8673
▁Jerry	-8674
▁Juifs	-8675
▁Kings	-8676
▁Komen	-8677
▁Kyoto	-8678
▁Libye	-8679
▁Marie	-8680
▁Massa	-8681
▁Monte	-8682
▁Nadal	-8683
▁Nobel	-8684
▁Noire	-8685
▁Noosa	-8686
▁Notre	-8687
▁Onega	-8688
▁Onion	-8689
▁Peter	-8690
▁Phnom	-8691
▁Polyn	-8692
▁Potro	-8693
▁Pryce	-8694
▁Pyram	-8695
▁Royau	-8696
▁Sagit	-8697
▁Sahel	-8698
▁Saito	-8699
▁Samis	-8700
▁Samoa	-8701
▁Seuls	-8702
▁Shyam	-8703
▁Soyez	-8704
▁Stone	-8705
▁Suite	-8706
▁Sénat	-8707
▁Tokyo	-8708
▁Tommy	-8709
▁Tonlé	-8710
▁Trump	-8711
▁Unies	-8712
▁Vidal	-8713
▁ZMapp	-8714
▁Zayat	-8715
▁achev	-8716
▁actif	-8717
▁adéqu	-8718
▁aimée	-8719
▁album	-8720
▁armes	-8721
▁avers	-8722
▁brave	-8723
▁break	-8724
▁caché	-8725
▁carré	-8726
▁cassé	-8727
▁cella	-8728
▁cesse	-8729
▁charm	-8730
▁charr	-8731
▁cohér	-8732
▁collè	-8733
▁congé	-8734
▁cross	-8735
▁crème	-8736
▁cyber	-8737
▁câble	-8738
▁digue	-8739
▁drone	-8740
▁débit	-8741
▁décéd	-8742
▁dévas	-8743
▁espér	-8744
▁estim	-8745
▁estiv	-8746
▁fasse	-8747
▁fermé	-8748
▁finit	-8749
▁flore	-8750
▁forcé	-8751
▁fosse	-8752
▁fusée	-8753
▁gagne	-8754
▁gorge	-8755
▁grecs	-8756
▁grêle	-8757
▁hangi	-8758
▁horiz	-8759
▁incul	-8760
▁ingén	-8761
▁irrit	-8762
▁javan	-8763
▁jupes	-8764
▁liens	-8765
▁loups	-8766
▁manip	-8767
▁menac	-8768
▁mener	-8769
▁millé	-8770
▁mises	-8771
▁moléc	-8772
▁nordi	-8773
▁norme	-8774
▁notes	-8775
▁patin	-8776
▁phage	-8777
▁poids	-8778
▁poign	-8779
▁porcs	-8780
▁ports	-8781
▁psych	-8782
▁péril	-8783
▁queue	-8784
▁ramen	-8785
▁recon	-8786
▁redir	-8787
▁relié	-8788
▁repér	-8789
▁resté	-8790
▁récif	-8791
▁répét	-8792
▁sauvé	-8793
▁scann	-8794
▁senti	-8795
▁sikhs	-8796
▁smart	-8797
▁smith	-8798
▁sonde	-8799
▁stric	-8800
▁subit	-8801
▁taxis	-8802
▁tenté	-8803
▁tirée	-8804
▁toits	-8805
▁tress	-8806
▁tribu	-8807
▁trott	-8808
▁unité	-8809
▁usage	-8810
▁vende	-8811
▁venge	-8812
▁verti	-8813
▁vidal	-8814
▁vigil	-8815
▁violé	-8816
▁voyag	-8817
▁yacht	-8818
▁zooms	-8819
▁Étant	-8820
▁élans	-8821
▁épuis	-8822
▁évide	-8823
Amazone	-8824
Arizona	-8825
Austral	-8826
Espagne	-8827
Organis	-8828
Oyapock	-8829
amanian	-8830
angerie	-8831
anthrop	-8832
antisme	-8833
assurer	-8834
aticien	-8835
atoires	-8836
attends	-8837
aîtront	-8838
caments	-8839
culture	-8840
entends	-8841
envoyer	-8842
ersonne	-8843
escrime	-8844
espèces	-8845
extrême	-8846
horizon	-8847
ibilité	-8848
iconque	-8849
ictoria	-8850
imposer	-8851
ingboks	-8852
insèque	-8853
ivresse	-8854
léments	-8855
minales	-8856
nations	-8857
obtenir	-8858
ocratie	-8859
offrent	-8860
oignées	-8861
ologues	-8862
onychus	-8863
ophones	-8864
opoulos	-8865
ouragan	-8866
ovision	-8867
oxygène	-8868
pements	-8869
primées	-8870
risonné	-8871
stanbul	-8872
torales	-8873
travail	-8874
umacher	-8875
univers	-8876
vechkin	-8877
veillée	-8878
veillés	-8879
élevage	-8880
éloigne	-8881
étaires	-8882
évaluer	-8883
▁Alaska	-8884
▁Alliés	-8885
▁Animal	-8886
▁Arabes	-8887
▁Aucune	-8888
▁Beauty	-8889
▁Buenos	-8890
▁Celles	-8891
▁Center	-8892
▁Centre	-8893
▁Danius	-8894
▁Darwin	-8895
▁Durant	-8896
▁Edison	-8897
▁Empire	-8898
▁Faites	-8899
▁Gordon	-8900
▁Gymnas	-8901
▁Hébron	-8902
▁Island	-8903
▁Israël	-8904
▁Layton	-8905
▁Mecque	-8906
▁Meille	-8907
▁Miller	-8908
▁Modern	-8909
▁Monter	-8910
▁Nevada	-8911
▁Nombre	-8912
▁Norvég	-8913
▁Nyirag	-8914
▁Pensez	-8915
▁Piquet	-8916
▁Prague	-8917
▁Puerto	-8918
▁Pâques	-8919
▁Rossby	-8920
▁Sejong	-8921
▁Seules	-8922
▁Sintra	-8923
▁Sirena	-8924
▁Sphinx	-8925
▁Street	-8926
▁Suisse	-8927
▁Taínos	-8928
▁Toutes	-8929
▁Xinhua	-8930
▁Zambie	-8931
▁abattu	-8932
▁absent	-8933
▁absorb	-8934
▁acheté	-8935
▁acquis	-8936
▁action	-8937
▁adapté	-8938
▁adopté	-8939
▁aident	-8940
▁ajouta	-8941
▁aminés	-8942
▁amoure	-8943
▁animés	-8944
▁annuel	-8945
▁antiqu	-8946
▁appels	-8947
▁archet	-8948
▁armées	-8949
▁assemb	-8950
▁attein	-8951
▁bagage	-8952
▁baiser	-8953
▁balles	-8954
▁barres	-8955
▁basses	-8956
▁basées	-8957
▁belges	-8958
▁bhajan	-8959
▁blocus	-8960
▁blogue	-8961
▁bonjou	-8962
▁bouger	-8963
▁brevet	-8964
▁brûler	-8965
▁cadres	-8966
▁censés	-8967
▁chargé	-8968
▁commis	-8969
▁contag	-8970
▁conçus	-8971
▁coréen	-8972
▁coulés	-8973
▁crient	-8974
▁cuites	-8975
▁cyanur	-8976
▁cécité	-8977
▁degrés	-8978
▁design	-8979
▁diffus	-8980
▁disent	-8981
▁donnez	-8982
▁double	-8983
▁doudou	-8984
▁déduit	-8985
▁désign	-8986
▁désirs	-8987
▁désolé	-8988
▁dévers	-8989
▁dûment	-8990
▁entrav	-8991
▁envahi	-8992
▁erreur	-8993
▁espace	-8994
▁espère	-8995
▁figure	-8996
▁focale	-8997
▁formés	-8998
▁frappa	-8999
▁fréque	-9000
▁garage	-9001
▁genoux	-9002
▁griffe	-9003
▁gymnas	-9004
▁géants	-9005
▁hangis	-9006
▁hasard	-9007
▁hindou	-9008
▁hockey	-9009
▁impact	-9010
▁incarc	-9011
▁indisp	-9012
▁intent	-9013
▁invers	-9014
▁jargon	-9015
▁justif	-9016
▁lactée	-9017
▁larges	-9018
▁libéré	-9019
▁lutter	-9020
▁menées	-9021
▁mobile	-9022
▁montés	-9023
▁moteur	-9024
▁musées	-9025
▁mystic	-9026
▁nomade	-9027
▁oblige	-9028
▁odeurs	-9029
▁offres	-9030
▁otages	-9031
▁parent	-9032
▁parodi	-9033
▁patins	-9034
▁peines	-9035
▁peuplé	-9036
▁photon	-9037
▁pinces	-9038
▁pinson	-9039
▁placés	-9040
▁pleure	-9041
▁ponctu	-9042
▁portes	-9043
▁portée	-9044
▁posées	-9045
▁pourra	-9046
▁poussé	-9047
▁poésie	-9048
▁promis	-9049
▁pêcher	-9050
▁rachis	-9051
▁redout	-9052
▁regret	-9053
▁relève	-9054
▁repéré	-9055
▁reçues	-9056
▁rivage	-9057
▁russes	-9058
▁récomp	-9059
▁rétréc	-9060
▁révèle	-9061
▁samedi	-9062
▁sauter	-9063
▁savent	-9064
▁scénar	-9065
▁sentir	-9066
▁serons	-9067
▁servis	-9068
▁signes	-9069
▁sophis	-9070
▁stocké	-9071
▁strict	-9072
▁suisse	-9073
▁survie	-9074
▁suscep	-9075
▁sécher	-9076
▁séisme	-9077
▁teniez	-9078
▁tranqu	-9079
▁tridim	-9080
▁troupe	-9081
▁tuteur	-9082
▁unions	-9083
▁variée	-9084
▁venait	-9085
▁vendre	-9086
▁viable	-9087
▁visent	-9088
▁vitaux	-9089
▁voient	-9090
▁volent	-9091
▁Égypte	-9092
▁éclair	-9093
▁épices	-9094
▁étapes	-9095
▁étique	-9096
▁éventu	-9097
Autriche	-9098
Institut	-9099
adhésion	-9100
aiguille	-9101
ailleurs	-9102
andelwal	-9103
antillon	-9104
arasvati	-9105
assister	-9106
audience	-9107
autorité	-9108
cessions	-9109
cultures	-9110
dimbourg	-9111
effondre	-9112
ensionne	-9113
entielle	-9114
exprimer	-9115
extraire	-9116
identité	-9117
imagerie	-9118
intéress	-9119
istricts	-9120
llsworth	-9121
médiaire	-9122
rictions	-9123
tillerie	-9124
térieurs	-9125
Équateur	-9126
électeur	-9127
éléments	-9128
épidémie	-9129
éteindre	-9130
étendent	-9131
▁Airways	-9132
▁Amazone	-9133
▁Angeles	-9134
▁Assurez	-9135
▁Austral	-9136
▁Bologne	-9137
▁Britann	-9138
▁Brother	-9139
▁Central	-9140
▁Chatham	-9141
▁Colbert	-9142
▁Collège	-9143
▁Comment	-9144
▁Company	-9145
▁Ensuite	-9146
▁Formule	-9147
▁Hangeul	-9148
▁Harappa	-9149
▁Harvard	-9150
▁Hershey	-9151
▁Hongrie	-9152
▁Katrina	-9153
▁Liggins	-9154
▁Marooch	-9155
▁Mendoza	-9156
▁Musashi	-9157
▁Nations	-9158
▁Ngawang	-9159
▁Nigeria	-9160
▁Philipp	-9161
▁Pittman	-9162
▁Presque	-9163
▁Rainbow	-9164
▁Reading	-9165
▁Richard	-9166
▁Romains	-9167
▁Royaume	-9168
▁Souvent	-9169
▁Stanley	-9170
▁Stearns	-9171
▁Stephen	-9172
▁TogiNet	-9173
▁Trenton	-9174
▁Turkish	-9175
▁Vietnam	-9176
▁accusés	-9177
▁accéder	-9178
▁adaptés	-9179
▁admirer	-9180
▁affront	-9181
▁aimerez	-9182
▁ajoutée	-9183
▁apprend	-9184
▁assisté	-9185
▁assurez	-9186
▁atmosph	-9187
▁attendu	-9188
▁attrait	-9189
▁avocats	-9190
▁aériens	-9191
▁baisser	-9192
▁battant	-9193
▁bhajans	-9194
▁blessée	-9195
▁boisson	-9196
▁calcium	-9197
▁capturé	-9198
▁chanter	-9199
▁chirurg	-9200
▁civiles	-9201
▁civilis	-9202
▁classer	-9203
▁classes	-9204
▁clavier	-9205
▁combiné	-9206
▁comptés	-9207
▁comètes	-9208
▁concert	-9209
▁condens	-9210
▁coûteux	-9211
▁cubains	-9212
▁culmine	-9213
▁diffici	-9214
▁dignité	-9215
▁digérer	-9216
▁diminué	-9217
▁dioxyde	-9218
▁dommage	-9219
▁douille	-9220
▁débuter	-9221
▁décerné	-9222
▁déverse	-9223
▁dévoilé	-9224
▁enfance	-9225
▁entiers	-9226
▁envahir	-9227
▁experts	-9228
▁feuille	-9229
▁finance	-9230
▁forçant	-9231
▁fossile	-9232
▁fournit	-9233
▁féroces	-9234
▁gallons	-9235
▁garçons	-9236
▁graines	-9237
▁grandit	-9238
▁gratuit	-9239
▁gravité	-9240
▁griffes	-9241
▁géantes	-9242
▁hommage	-9243
▁honnête	-9244
▁honorer	-9245
▁hostile	-9246
▁humides	-9247
▁illégal	-9248
▁intacte	-9249
▁interne	-9250
▁intérim	-9251
▁intérêt	-9252
▁jacques	-9253
▁jardins	-9254
▁joindre	-9255
▁limiter	-9256
▁literie	-9257
▁loisirs	-9258
▁lucides	-9259
▁légales	-9260
▁machine	-9261
▁malheur	-9262
▁manquez	-9263
▁marines	-9264
▁marques	-9265
▁menaces	-9266
▁mention	-9267
▁meubles	-9268
▁millier	-9269
▁mineurs	-9270
▁mortels	-9271
▁murmura	-9272
▁métiers	-9273
▁nerveux	-9274
▁négatif	-9275
▁offerts	-9276
▁optique	-9277
▁ouragan	-9278
▁palmier	-9279
▁paysage	-9280
▁pharaon	-9281
▁placées	-9282
▁portant	-9283
▁portées	-9284
▁précoce	-9285
▁prêtres	-9286
▁pédagog	-9287
▁pénales	-9288
▁raconte	-9289
▁randonn	-9290
▁ratifié	-9291
▁rectang	-9292
▁rendant	-9293
▁replier	-9294
▁retenir	-9295
▁rigides	-9296
▁risquez	-9297
▁robinet	-9298
▁routine	-9299
▁rythmes	-9300
▁répondu	-9301
▁saisonn	-9302
▁semelle	-9303
▁sentent	-9304
▁simplif	-9305
▁soigner	-9306
▁sondage	-9307
▁sortent	-9308
▁sorties	-9309
▁soutenu	-9310
▁spatial	-9311
▁stimulé	-9312
▁subtrop	-9313
▁succède	-9314
▁suggéré	-9315
▁suivant	-9316
▁superpr	-9317
▁support	-9318
▁suscité	-9319
▁séjours	-9320
▁timides	-9321
▁tireurs	-9322
▁tombées	-9323
▁tornade	-9324
▁traiter	-9325
▁tremble	-9326
▁trouble	-9327
▁témoign	-9328
▁valeurs	-9329
▁veillez	-9330
▁visites	-9331
▁écoutez	-9332
▁écrivit	-9333
▁énergie	-9334
▁époques	-9335
▁épreuve	-9336
▁équipés	-9337
Alexandre	-9338
Amsterdam	-9339
Argentine	-9340
agination	-9341
alpinisme	-9342
appellent	-9343
arctiques	-9344
atteindre	-9345
autoroute	-9346
buquerque	-9347
extrémité	-9348
histoires	-9349
intention	-9350
invention	-9351
lantiques	-9352
obscurité	-9353
ociraptor	-9354
onvénient	-9355
ordonnées	-9356
organisme	-9357
portation	-9358
rairement	-9359
utilisent	-9360
également	-9361
épicentre	-9362
▁Bachmann	-9363
▁Balasubr	-9364
▁Beaucoup	-9365
▁Bulgarie	-9366
▁Caraïbes	-9367
▁Chambers	-9368
▁Champion	-9369
▁Chhappan	-9370
▁Damadian	-9371
▁Danemark	-9372
▁Deuxième	-9373
▁Drukgyal	-9374
▁Encelade	-9375
▁Fernando	-9376
▁Français	-9377
▁Geospiza	-9378
▁Italiens	-9379
▁Kirchner	-9380
▁Livingst	-9381
▁Mercredi	-9382
▁Missouri	-9383
▁Muhammad	-9384
▁Médecins	-9385
▁Nintendo	-9386
▁Partizan	-9387
▁Planning	-9388
▁Pourtant	-9389
▁Pyramide	-9390
▁Royaumes	-9391
▁Schengen	-9392
▁Shooters	-9393
▁Simpsons	-9394
▁Sporting	-9395
▁Stanford	-9396
▁Stardust	-9397
▁Tasmanie	-9398
▁Veuillez	-9399
▁Victoria	-9400
▁Virginie	-9401
▁Zimbabwe	-9402
▁accordée	-9403
▁adoption	-9404
▁affecter	-9405
▁affectée	-9406
▁agissent	-9407
▁aimerais	-9408
▁allemand	-9409
▁alliages	-9410
▁ancêtres	-9411
▁annoncée	-9412
▁antiques	-9413
▁apparent	-9414
▁appelées	-9415
▁archipel	-9416
▁arrêtées	-9417
▁atterrir	-9418
▁auberges	-9419
▁augmenté	-9420
▁australe	-9421
▁babochet	-9422
▁bactérie	-9423
▁banquets	-9424
▁binaires	-9425
▁caldeira	-9426
▁chansons	-9427
▁chimpanz	-9428
▁collecte	-9429
▁colonial	-9430
▁composés	-9431
▁condamné	-9432
▁confirme	-9433
▁conflits	-9434
▁connecté	-9435
▁conquist	-9436
▁contexte	-9437
▁coréenne	-9438
▁cosmonau	-9439
▁crampons	-9440
▁critères	-9441
▁cruciale	-9442
▁cyclique	-9443
▁célèbres	-9444
▁célébrer	-9445
▁devenues	-9446
▁diversif	-9447
▁domicile	-9448
▁débarque	-9449
▁décharge	-9450
▁décisive	-9451
▁déclarés	-9452
▁défaites	-9453
▁démontré	-9454
▁dépasser	-9455
▁déranger	-9456
▁désigner	-9457
▁détruire	-9458
▁environn	-9459
▁examiner	-9460
▁exerçant	-9461
▁exigence	-9462
▁exploser	-9463
▁fabriqué	-9464
▁falaises	-9465
▁forfaits	-9466
▁formelle	-9467
▁franchit	-9468
▁glaciers	-9469
▁géotherm	-9470
▁identité	-9471
▁impliqué	-9472
▁imprimée	-9473
▁infectée	-9474
▁infrarou	-9475
▁inhabitu	-9476
▁intégrés	-9477
▁journées	-9478
▁laurence	-9479
▁liaisons	-9480
▁location	-9481
▁légalité	-9482
▁léopards	-9483
▁maintien	-9484
▁matières	-9485
▁maximale	-9486
▁militant	-9487
▁modifier	-9488
▁modifiée	-9489
▁musicaux	-9490
▁médaillé	-9491
▁médecins	-9492
▁mélamine	-9493
▁mélangés	-9494
▁nocturne	-9495
▁normales	-9496
▁négative	-9497
▁obstacle	-9498
▁opinions	-9499
▁ouvrirez	-9500
▁paisible	-9501
▁parsemés	-9502
▁partager	-9503
▁penchent	-9504
▁peuplées	-9505
▁planches	-9506
▁polonais	-9507
▁positive	-9508
▁poursuit	-9509
▁pourvues	-9510
▁primates	-9511
▁procurer	-9512
▁produite	-9513
▁profonds	-9514
▁prolongé	-9515
▁provoque	-9516
▁provoqué	-9517
▁prédomin	-9518
▁préférés	-9519
▁préparés	-9520
▁prétendu	-9521
▁punaises	-9522
▁pâturage	-9523
▁pénétrer	-9524
▁périodes	-9525
▁rapporté	-9526
▁ratifier	-9527
▁reconnue	-9528
▁reconnus	-9529
▁relative	-9530
▁remonter	-9531
▁remplace	-9532
▁renommée	-9533
▁retourné	-9534
▁richesse	-9535
▁rongeurs	-9536
▁roumaine	-9537
▁récupéré	-9538
▁réservés	-9539
▁rétablir	-9540
▁réussite	-9541
▁révèlent	-9542
▁scolaire	-9543
▁sentiers	-9544
▁serpents	-9545
▁signalés	-9546
▁sikhisme	-9547
▁skieuses	-9548
▁soulager	-9549
▁soutenus	-9550
▁spatiale	-9551
▁structur	-9552
▁suspects	-9553
▁tibétain	-9554
▁touchées	-9555
▁tournois	-9556
▁tournure	-9557
▁traction	-9558
▁traitant	-9559
▁traquent	-9560
▁traverse	-9561
▁tsunamis	-9562
▁typiques	-9563
▁télécomm	-9564
▁utilisez	-9565
▁vieilles	-9566
▁virtuels	-9567
▁vivaient	-9568
▁Éthiopie	-9569
▁économie	-9570
▁écriture	-9571
▁émettent	-9572
▁épreuves	-9573
▁épuisant	-9574
▁établiss	-9575
▁évaluant	-9576
▁éventail	-9577
▁évidence	-9578
alisations	-9579
attraction	-9580
erostratus	-9581
hindouisme	-9582
impression	-9583
initiative	-9584
inspecteur	-9585
tantinople	-9586
épuisement	-9587
▁Barcelone	-9588
▁Brésilien	-9589
▁Cambridge	-9590
▁Caspienne	-9591
▁Cuddeback	-9592
▁Devonport	-9593
▁Education	-9594
▁Elizabeth	-9595
▁Mariannes	-9596
▁Microsoft	-9597
▁Opération	-9598
▁Parisiens	-9599
▁Polynésie	-9600
▁Quiconque	-9601
▁Serengeti	-9602
▁Templiers	-9603
▁Zhabdrung	-9604
▁abattoirs	-9605
▁accidenté	-9606
▁affichées	-9607
▁apportant	-9608
▁astronome	-9609
▁autorisés	-9610
▁bénévolat	-9611
▁canadiens	-9612
▁candidats	-9613
▁canyoning	-9614
▁centaines	-9615
▁chanteurs	-9616
▁chasseurs	-9617
▁chimiques	-9618
▁cimetière	-9619
▁collectif	-9620
▁comptoirs	-9621
▁concentré	-9622
▁conquérir	-9623
▁constater	-9624
▁constitué	-9625
▁courantes	-9626
▁courriers	-9627
▁couvertes	-9628
▁craignait	-9629
▁crevasses	-9630
▁croyances	-9631
▁culturels	-9632
▁célébrité	-9633
▁cérébraux	-9634
▁disciplin	-9635
▁dynamisme	-9636
▁débutants	-9637
▁délimitée	-9638
▁dépendent	-9639
▁détachent	-9640
▁effectuer	-9641
▁efficaces	-9642
▁encouragé	-9643
▁enquêtait	-9644
▁entretenu	-9645
▁escarpées	-9646
▁estivales	-9647
▁estuaires	-9648
▁exotiques	-9649
▁expliquer	-9650
▁fournisse	-9651
▁fréquents	-9652
▁fédérales	-9653
▁grossiers	-9654
▁générales	-9655
▁impliqués	-9656
▁incendies	-9657
▁incidents	-9658
▁indiennes	-9659
▁insulaire	-9660
▁islandais	-9661
▁keraotred	-9662
▁localités	-9663
▁logiciels	-9664
▁lointains	-9665
▁longueurs	-9666
▁lumineuse	-9667
▁maintiens	-9668
▁mangroves	-9669
▁maniement	-9670
▁maximiser	-9671
▁monuments	-9672
▁mortalité	-9673
▁multiples	-9674
▁médailles	-9675
▁mémoriser	-9676
▁nerveuses	-9677
▁nutrition	-9678
▁obsolètes	-9679
▁oculaires	-9680
▁organisme	-9681
▁panoramas	-9682
▁paradoxal	-9683
▁pellicule	-9684
▁physiques	-9685
▁pollution	-9686
▁portables	-9687
▁poussière	-9688
▁prenaient	-9689
▁probables	-9690
▁prononcer	-9691
▁protocole	-9692
▁préalable	-9693
▁précieuse	-9694
▁puissante	-9695
▁péjoratif	-9696
▁quantités	-9697
▁rectifier	-9698
▁religions	-9699
▁respecter	-9700
▁retrouvée	-9701
▁réacteurs	-9702
▁réactions	-9703
▁récupérer	-9704
▁réfléchir	-9705
▁régionaux	-9706
▁réservent	-9707
▁sensibles	-9708
▁sentiment	-9709
▁similaire	-9710
▁souhaitez	-9711
▁soupçonné	-9712
▁stabilité	-9713
▁standards	-9714
▁suffisent	-9715
▁suscitant	-9716
▁sécuriser	-9717
▁sénatrice	-9718
▁sépulture	-9719
▁tentative	-9720
▁transféré	-9721
▁télescope	-9722
▁variantes	-9723
▁variation	-9724
▁virtuelle	-9725
▁voyageant	-9726
▁Égyptiens	-9727
▁échantill	-9728
▁éducatifs	-9729
▁électrons	-9730
▁éloignées	-9731
aménagement	-9732
appartement	-9733
arrestation	-9734
expressions	-9735
implication	-9736
échantillon	-9737
▁Copenhague	-9738
▁Frontières	-9739
▁Fédération	-9740
▁Gymnastics	-9741
▁Khandelwal	-9742
▁Manchester	-9743
▁Montevideo	-9744
▁Nyiragongo	-9745
▁Pennsylvan	-9746
▁Sagittaire	-9747
▁Schumacher	-9748
▁Soviétique	-9749
▁Springboks	-9750
▁Tombouctou	-9751
▁Versailles	-9752
▁antiquités	-9753
▁atteignent	-9754
▁attraction	-9755
▁australien	-9756
▁botaniques	-9757
▁bouddhisme	-9758
▁bouteilles	-9759
▁bénéfiques	-9760
▁calendrier	-9761
▁champignon	-9762
▁comportait	-9763
▁composante	-9764
▁confronter	-9765
▁conservées	-9766
▁constituée	-9767
▁constitués	-9768
▁contaminée	-9769
▁continents	-9770
▁contrainte	-9771
▁conviction	-9772
▁croissante	-9773
▁cyanurique	-9774
▁descendant	-9775
▁différence	-9776
▁dirigeants	-9777
▁distinguer	-9778
▁décoration	-9779
▁définitifs	-9780
▁dépendance	-9781
▁détaillées	-9782
▁développés	-9783
▁emprisonné	-9784
▁enquêteurs	-9785
▁essayaient	-9786
▁excellente	-9787
▁excursions	-9788
▁expression	-9789
▁fascinante	-9790
▁financière	-9791
▁fréquentés	-9792
▁germinales	-9793
▁grandement	-9794
▁génération	-9795
▁géographie	-9796
▁identifiés	-9797
▁impossible	-9798
▁impulsions	-9799
▁infections	-9800
▁intentions	-9801
▁intégrante	-9802
▁inévitable	-9803
▁locataires	-9804
▁malheureux	-9805
▁mangeaient	-9806
▁maturation	-9807
▁mentionnée	-9808
▁microscope	-9809
▁mosasaures	-9810
▁motivation	-9811
▁mysticisme	-9812
▁méditation	-9813
▁méditerran	-9814
▁métallique	-9815
▁météorites	-9816
▁navigables	-9817
▁nécessiter	-9818
▁originaire	-9819
▁perception	-9820
▁plateforme	-9821
▁pratiquant	-9822
▁pratiquent	-9823
▁privilèges	-9824
▁promulguée	-9825
▁précédente	-9826
▁préfecture	-9827
▁préférable	-9828
▁présentées	-9829
▁présidente	-9830
▁pèlerinage	-9831
▁radioactif	-9832
▁randonnées	-9833
▁rapporteur	-9834
▁recommandé	-9835
▁renforçant	-9836
▁renseigner	-9837
▁reportages	-9838
▁sabbatique	-9839
▁signifiant	-9840
▁smartphone	-9841
▁souhaitent	-9842
▁spécialité	-9843
▁spéciation	-9844
▁spécifique	-9845
▁stéréotype	-9846
▁surchauffe	-9847
▁survivants	-9848
▁séparément	-9849
▁tarifaires	-9850
▁traditions	-9851
▁traduction	-9852
▁transformé	-9853
▁tristement	-9854
▁virtuelles	-9855
▁éducatives	-9856
▁équatorien	-9857
▁évidemment	-9858
Organisation	-9859
esperonychus	-9860
illumination	-9861
impérialisme	-9862
▁Afghanistan	-9863
▁Association	-9864
▁Philippines	-9865
▁appartenant	-9866
▁association	-9867
▁attractions	-9868
▁boulangerie	-9869
▁catastrophe	-9870
▁construites	-9871
▁coordonnées	-9872
▁dangereuses	-9873
▁distinction	-9874
▁débarrasser	-9875
▁découvertes	-9876
▁définissent	-9877
▁démissionné	-9878
▁déversement	-9879
▁endommagées	-9880
▁enregistrer	-9881
▁enregistrée	-9882
▁estimations	-9883
▁fondamental	-9884
▁fréquemment	-9885
▁funérailles	-9886
▁gymnastique	-9887
▁historiques	-9888
▁hébergement	-9889
▁interactifs	-9890
▁interrogées	-9891
▁intrinsèque	-9892
▁intérieures	-9893
▁médicaments	-9894
▁navigateurs	-9895
▁occidentaux	-9896
▁participent	-9897
▁périodiques	-9898
▁raisonnable	-9899
▁représentés	-9900
▁rugissement	-9901
▁soutiennent	-9902
▁traitements	-9903
▁transporter	-9904
environnement	-9905
intermédiaire	-9906
▁Maroochydore	-9907
▁compétitions	-9908
▁conservateur	-9909
▁consommation	-9910
▁correctement	-9911
▁distribution	-9912
▁déplacements	-9913
▁emplacements	-9914
▁entraînement	-9915
▁escarpements	-9916
▁exportations	-9917
▁fonctionnait	-9918
▁fonctionnent	-9919
▁fondamentaux	-9920
▁francophones	-9921
▁géographique	-9922
▁inconvénient	-9923
▁indépendants	-9924
▁instructions	-9925
▁journalistes	-9926
▁légalisation	-9927
▁manipulation	-9928
▁nationalisée	-9929
▁neurologique	-9930
▁numérotation	-9931
▁opérationnel	-9932
▁parfaitement	-9933
▁participants	-9934
▁particulière	-9935
▁personnelles	-9936
▁photographes	-9937
▁pornographie	-9938
▁restauration	-9939
▁restrictions	-9940
▁réservations	-9941
▁sensiblement	-9942
▁souveraineté	-9943
▁subtropicale	-9944
▁supermarchés	-9945
▁transmission	-9946
▁transportant	-9947
▁traumatismes	-9948
▁tremblements	-9949
▁téléphonique	-9950
▁compréhension	-9951
▁conquistadors	-9952
▁conservateurs	-9953
▁considérables	-9954
▁contemplation	-9955
▁difficilement	-9956
▁diplomatiques	-9957
▁géographiques	-9958
▁individuelles	-9959
▁indépendantes	-9960
▁linguistiques	-9961
▁mathématicien	-9962
▁partiellement	-9963
▁protestations	-9964
▁reconnaissent	-9965
▁socialisation	-9966
▁spectaculaire	-9967
▁Constantinople	-9968
▁atmosphériques	-9969
▁complémentaire	-9970
▁empoisonnement	-9971
▁habituellement	-9972
▁incroyablement	-9973
▁indépendamment	-9974
▁météorologique	-9975
▁parlementaires	-9976
▁philosophiques	-9977
▁présidentielle	-9978
▁recommandation	-9979
▁responsabilité	-9980
▁ressortissants	-9981
▁réglementation	-9982
▁spécifiquement	-9983
▁temporairement	-9984
▁traditionnelle	-9985
▁tridimensionne	-9986
▁économiquement	-9987
▁Balasubramanian	-9988
▁fonctionnalités	-9989
▁méditerranéenne	-9990
▁présidentielles	-9991
▁réglementations	-9992
.)	-9993
?!	-9994
cy	-9995
da	-9996
du	-9997
ju	-9998
nt	-9999
aac	-10000
ael	-10001
agi	-10002
bli	-10003
cel	-10004
chy	-10005
ely	-10006
gen	-10007
gir	-10008
hon	-10009
hér	-10010
ilh	-10011
imé	-10012
ita	-10013
lou	-10014
lut	-10015
mpe	-10016
née	-10017
occ	-10018
oli	-10019
orr	-10020
ota	-10021
ouz	-10022
oxe	-10023
oyé	-10024
pas	-10025
rat	-10026
rey	-10027
ron	-10028
sen	-10029
tré	-10030
uff	-10031
vie	-10032
zac	-10033
écl	-10034
ôme	-10035
▁bê	-10036
▁fu	-10037
▁gi	-10038
▁hâ	-10039
▁it	-10040
▁jo	-10041
▁ly	-10042
▁od	-10043
▁rô	-10044
▁sh	-10045
▁so	-10046
abre	-10047
adel	-10048
anie	-10049
anth	-10050
aper	-10051
appl	-10052
arab	-10053
arry	-10054
atar	-10055
berg	-10056
bour	-10057
cade	-10058
ción	-10059
erth	-10060
fred	-10061
gine	-10062
gnez	-10063
heim	-10064
ibré	-10065
itié	-10066
itée	-10067
ivez	-10068
mper	-10069
ogne	-10070
ords	-10071
pide	-10072
riez	-10073
sine	-10074
susc	-10075
ueur	-10076
ulté	-10077
umer	-10078
vire	-10079
âmes	-10080
élan	-10081
▁bav	-10082
▁ben	-10083
▁bil	-10084
▁bor	-10085
▁bér	-10086
▁cro	-10087
▁dau	-10088
▁den	-10089
▁dîn	-10090
▁enn	-10091
▁enr	-10092
▁eût	-10093
▁ful	-10094
▁gas	-10095
▁ham	-10096
▁hom	-10097
▁idi	-10098
▁idé	-10099
▁imb	-10100
▁jos	-10101
▁luc	-10102
▁new	-10103
▁pod	-10104
▁prê	-10105
▁pur	-10106
▁rog	-10107
▁rém	-10108
▁sap	-10109
▁sel	-10110
▁vin	-10111
▁âme	-10112
acées	-10113
afond	-10114
agant	-10115
agnac	-10116
airie	-10117
antis	-10118
arbre	-10119
astre	-10120
drais	-10121
elipe	-10122
erson	-10123
gérie	-10124
iance	-10125
illac	-10126
inger	-10127
issez	-10128
iteur	-10129
lioth	-10130
nison	-10131
ocèse	-10132
olesc	-10133
ouvel	-10134
quons	-10135
rière	-10136
seize	-10137
tiend	-10138
uivre	-10139
zaine	-10140
échal	-10141
écria	-10142
étend	-10143
▁acte	-10144
▁ball	-10145
▁bell	-10146
▁bleu	-10147
▁bonn	-10148
▁cade	-10149
▁cant	-10150
▁crav	-10151
▁cray	-10152
▁cris	-10153
▁drap	-10154
▁déce	-10155
▁glob	-10156
▁goût	-10157
▁grad	-10158
▁griè	-10159
▁jura	-10160
▁lavé	-10161
▁mate	-10162
▁mets	-10163
▁micr	-10164
▁midi	-10165
▁naît	-10166
▁noms	-10167
▁park	-10168
▁pond	-10169
▁prie	-10170
▁pros	-10171
▁préj	-10172
▁rail	-10173
▁rire	-10174
▁scep	-10175
▁scul	-10176
▁soif	-10177
▁tenu	-10178
▁toul	-10179
▁tuer	-10180
▁york	-10181
▁écar	-10182
▁égal	-10183
achète	-10184
agique	-10185
aillés	-10186
andais	-10187
change	-10188
dition	-10189
ennedy	-10190
illant	-10191
inière	-10192
invent	-10193
lissez	-10194
michel	-10195
observ	-10196
ociety	-10197
ogants	-10198
pierre	-10199
primée	-10200
quants	-10201
relles	-10202
uisant	-10203
ulsion	-10204
upport	-10205
urrent	-10206
ussion	-10207
éclair	-10208
élérer	-10209
étoile	-10210
évêque	-10211
▁agric	-10212
▁aimez	-10213
▁andré	-10214
▁arabe	-10215
▁avais	-10216
▁barth	-10217
▁bertr	-10218
▁bosse	-10219
▁broch	-10220
▁censé	-10221
▁colle	-10222
▁comte	-10223
▁coméd	-10224
▁coron	-10225
▁coups	-10226
▁croix	-10227
▁culte	-10228
▁dates	-10229
▁douce	-10230
▁drôle	-10231
▁débou	-10232
▁délic	-10233
▁démar	-10234
▁dépos	-10235
▁farce	-10236
▁fondé	-10237
▁formé	-10238
▁fumée	-10239
▁indem	-10240
▁insul	-10241
▁intim	-10242
▁isolé	-10243
▁jouez	-10244
▁laval	-10245
▁levée	-10246
▁linge	-10247
▁lisez	-10248
▁léger	-10249
▁moine	-10250
▁monts	-10251
▁muret	-10252
▁mâles	-10253
▁natif	-10254
▁nomme	-10255
▁obéir	-10256
▁occas	-10257
▁oubli	-10258
▁paque	-10259
▁piano	-10260
▁plant	-10261
▁pleur	-10262
▁pompe	-10263
▁poète	-10264
▁prier	-10265
▁prote	-10266
▁pêcha	-10267
▁quart	-10268
▁recue	-10269
▁refer	-10270
▁repro	-10271
▁revue	-10272
▁récit	-10273
▁sauve	-10274
▁serez	-10275
▁sinon	-10276
▁sourd	-10277
▁suici	-10278
▁tapis	-10279
▁tâche	-10280
▁venue	-10281
▁villa	-10282
▁voter	-10283
▁écart	-10284
achèter	-10285
ambourg	-10286
applaud	-10287
attants	-10288
illette	-10289
ionnats	-10290
leville	-10291
ouilles	-10292
veilles	-10293
échauff	-10294
▁aimons	-10295
▁appren	-10296
▁arbres	-10297
▁arthur	-10298
▁auteur	-10299
▁aérien	-10300
▁belles	-10301
▁berlin	-10302
▁bronze	-10303
▁canard	-10304
▁cassée	-10305
▁causes	-10306
▁centim	-10307
▁cercle	-10308
▁cuivre	-10309
▁datant	-10310
▁desser	-10311
▁doigts	-10312
▁débuts	-10313
▁défaut	-10314
▁défend	-10315
▁envoie	-10316
▁faveur	-10317
▁façons	-10318
▁finale	-10319
▁firent	-10320
▁gaudin	-10321
▁hausse	-10322
▁humeur	-10323
▁invité	-10324
▁joseph	-10325
▁larmes	-10326
▁limite	-10327
▁limitr	-10328
▁madrid	-10329
▁maxime	-10330
▁michel	-10331
▁mienne	-10332
▁modèle	-10333
▁mourir	-10334
▁occupé	-10335
▁papier	-10336
▁plaine	-10337
▁plaira	-10338
▁plaire	-10339
▁posséd	-10340
▁poèmes	-10341
▁prénom	-10342
▁reprit	-10343
▁restes	-10344
▁restez	-10345
▁revoir	-10346
▁robert	-10347
▁réduit	-10348
▁sacrif	-10349
▁sexuel	-10350
▁souple	-10351
▁souris	-10352
▁stabil	-10353
▁suivez	-10354
▁timide	-10355
▁tombée	-10356
▁totale	-10357
▁tourné	-10358
▁trompe	-10359
▁valent	-10360
▁église	-10361
agissant	-10362
altitude	-10363
attaques	-10364
interrog	-10365
▁accepte	-10366
▁affecté	-10367
▁annette	-10368
▁arrêter	-10369
▁artiste	-10370
▁attribu	-10371
▁auberge	-10372
▁bagages	-10373
▁bernard	-10374
▁bonheur	-10375
▁cheveux	-10376
▁chinois	-10377
▁choisis	-10378
▁colonel	-10379
▁command	-10380
▁conseil	-10381
▁console	-10382
▁crainte	-10383
▁croyais	-10384
▁descend	-10385
▁dessert	-10386
▁dessins	-10387
▁devriez	-10388
▁disposi	-10389
▁employé	-10390
▁faculté	-10391
▁immense	-10392
▁inconnu	-10393
▁industr	-10394
▁langage	-10395
▁lourdes	-10396
▁manches	-10397
▁marrant	-10398
▁moments	-10399
▁obscure	-10400
▁opposée	-10401
▁passion	-10402
▁pauline	-10403
▁pirates	-10404
▁piscine	-10405
▁plafond	-10406
▁préféré	-10407
▁quimper	-10408
▁reconnu	-10409
▁relever	-10410
▁renifle	-10411
▁ressusc	-10412
▁roulait	-10413
▁résulte	-10414
▁sentier	-10415
▁singuli	-10416
▁soudain	-10417
▁surpris	-10418
▁séparés	-10419
▁tableau	-10420
▁unanime	-10421
▁urbaine	-10422
▁version	-10423
▁échange	-10424
▁épouses	-10425
arisation	-10426
iculteurs	-10427
ieusement	-10428
▁accompli	-10429
▁aimeriez	-10430
▁aimeront	-10431
▁alphabet	-10432
▁apparten	-10433
▁arrivera	-10434
▁arrivées	-10435
▁barrière	-10436
▁biblioth	-10437
▁blanches	-10438
▁contient	-10439
▁courtois	-10440
▁demandez	-10441
▁derrière	-10442
▁dessinée	-10443
▁décembre	-10444
▁essayait	-10445
▁fatigant	-10446
▁favorise	-10447
▁fontaine	-10448
▁frappant	-10449
▁garnison	-10450
▁maréchal	-10451
▁officier	-10452
▁oreilles	-10453
▁parvient	-10454
▁pourcent	-10455
▁pourront	-10456
▁promener	-10457
▁publiées	-10458
▁regardez	-10459
▁regroupe	-10460
▁respecté	-10461
▁rochelle	-10462
▁souffrir	-10463
▁veuillez	-10464
▁voudrais	-10465
▁vérifier	-10466
▁éditions	-10467
engagement	-10468
opposition	-10469
▁arrogants	-10470
▁augmenter	-10471
▁charmante	-10472
▁confident	-10473
▁contempor	-10474
▁disparaît	-10475
▁essentiel	-10476
▁favoriser	-10477
▁insupport	-10478
▁interdite	-10479
▁messieurs	-10480
▁narrateur	-10481
▁occasions	-10482
▁poursuite	-10483
▁profitent	-10484
▁progressi	-10485
▁propriété	-10486
▁refroidit	-10487
▁sceptique	-10488
▁universel	-10489
▁vengeance	-10490
▁aimeraient	-10491
▁continuent	-10492
▁discussion	-10493
▁enseignait	-10494
▁favorables	-10495
▁grièvement	-10496
▁imprimante	-10497
▁inquiétude	-10498
▁manuscrits	-10499
▁philosophe	-10500
▁producteur	-10501
▁scandaleux	-10502
▁stabiliser	-10503
▁traitement	-10504
▁travaillez	-10505
enseignement	-10506
▁appartement	-10507
▁catholiques	-10508
▁combattants	-10509
▁composition	-10510
▁compétition	-10511
▁couvertures	-10512
▁expressions	-10513
▁métalliques	-10514
▁personnages	-10515
▁souffrances	-10516
▁électriques	-10517
▁colonisation	-10518
▁diplomatique	-10519
▁enseignement	-10520
▁apprentissage	-10521
▁collaboration	-10522
▁particulières	-10523
▁nécessairement	-10524
▁automatiquement	-10525
▁malheureusement	-10526
ck	-10527
ee	-10528
gi	-10529
iş	-10530
ku	-10531
mo	-10532
ny	-10533
so	-10534
uk	-10535
vu	-10536
xy	-10537
ôm	-10538
üs	-10539
ău	-10540
adj	-10541
aho	-10542
alh	-10543
alt	-10544
aph	-10545
apé	-10546
até	-10547
ava	-10548
ayr	-10549
ayy	-10550
bal	-10551
ban	-10552
cev	-10553
col	-10554
com	-10555
dha	-10556
eil	-10557
fer	-10558
gol	-10559
hae	-10560
hée	-10561
iap	-10562
iar	-10563
ifs	-10564
iga	-10565
ika	-10566
iot	-10567
kar	-10568
koy	-10569
lah	-10570
lau	-10571
law	-10572
lia	-10573
los	-10574
lès	-10575
odr	-10576
ood	-10577
org	-10578
oue	-10579
ovi	-10580
peu	-10581
pit	-10582
reb	-10583
rel	-10584
roe	-10585
roi	-10586
sin	-10587
ski	-10588
ssu	-10589
try	-10590
uba	-10591
udd	-10592
ulu	-10593
uée	-10594
val	-10595
ych	-10596
yph	-10597
âne	-10598
çay	-10599
édr	-10600
édé	-10601
éex	-10602
élu	-10603
ûre	-10604
▁cf	-10605
▁cu	-10606
▁ed	-10607
▁fâ	-10608
▁ga	-10609
▁ge	-10610
▁om	-10611
▁pp	-10612
▁sw	-10613
▁vé	-10614
▁ya	-10615
▁âg	-10616
abbé	-10617
abri	-10618
abus	-10619
acée	-10620
agon	-10621
agré	-10622
aibl	-10623
airé	-10624
ajou	-10625
akou	-10626
alec	-10627
alie	-10628
alme	-10629
alog	-10630
alos	-10631
alth	-10632
amba	-10633
anga	-10634
anni	-10635
août	-10636
argu	-10637
arin	-10638
aris	-10639
arme	-10640
arqu	-10641
atal	-10642
aule	-10643
cale	-10644
chen	-10645
cies	-10646
cker	-10647
dern	-10648
dier	-10649
dium	-10650
dyss	-10651
elin	-10652
elot	-10653
erez	-10654
ffre	-10655
grès	-10656
horl	-10657
hosp	-10658
héri	-10659
idél	-10660
ight	-10661
illo	-10662
illy	-10663
ilée	-10664
ilés	-10665
inec	-10666
insp	-10667
intr	-10668
inău	-10669
iros	-10670
irus	-10671
isol	-10672
itch	-10673
ited	-10674
ivet	-10675
ivre	-10676
jeté	-10677
jian	-10678
late	-10679
lets	-10680
lomb	-10681
lons	-10682
lème	-10683
mens	-10684
mets	-10685
ming	-10686
mong	-10687
mère	-10688
odie	-10689
odin	-10690
odor	-10691
ogle	-10692
oler	-10693
olit	-10694
olus	-10695
omph	-10696
onny	-10697
onto	-10698
opes	-10699
opol	-10700
orce	-10701
ordi	-10702
orég	-10703
osex	-10704
otox	-10705
oïde	-10706
paul	-10707
pent	-10708
polo	-10709
prem	-10710
rame	-10711
ries	-10712
shir	-10713
sidi	-10714
sier	-10715
soci	-10716
tein	-10717
thel	-10718
ties	-10719
ucar	-10720
uiss	-10721
uive	-10722
ulia	-10723
umin	-10724
urch	-10725
urie	-10726
usen	-10727
view	-10728
ving	-10729
ylan	-10730
ynch	-10731
yron	-10732
écot	-10733
élie	-10734
▁arc	-10735
▁arn	-10736
▁aub	-10737
▁aud	-10738
▁bad	-10739
▁bah	-10740
▁biz	-10741
▁bié	-10742
▁cue	-10743
▁dil	-10744
▁ern	-10745
▁exh	-10746
▁foi	-10747
▁fuy	-10748
▁haï	-10749
▁hyb	-10750
▁hyp	-10751
▁hés	-10752
▁maï	-10753
▁mén	-10754
▁mér	-10755
▁naz	-10756
▁oct	-10757
▁pey	-10758
▁pié	-10759
▁pue	-10760
▁raf	-10761
▁ram	-10762
▁rau	-10763
▁seg	-10764
▁sul	-10765
▁séd	-10766
▁tis	-10767
▁tyr	-10768
▁uns	-10769
▁vap	-10770
▁voc	-10771
▁vom	-10772
▁vul	-10773
▁vén	-10774
▁wis	-10775
▁épr	-10776
▁œil	-10777
adier	-10778
affec	-10779
agara	-10780
aigle	-10781
aland	-10782
ampsh	-10783
angez	-10784
arade	-10785
arché	-10786
ariat	-10787
arrêt	-10788
atent	-10789
athlè	-10790
aurès	-10791
avons	-10792
avril	-10793
bains	-10794
charg	-10795
copie	-10796
cueil	-10797
daine	-10798
drome	-10799
ellée	-10800
eneur	-10801
enser	-10802
ensus	-10803
erala	-10804
eries	-10805
eriez	-10806
ersey	-10807
eugle	-10808
garde	-10809
iable	-10810
icain	-10811
icane	-10812
ilets	-10813
ilote	-10814
ilson	-10815
ilton	-10816
instr	-10817
ismes	-10818
itude	-10819
joint	-10820
kouts	-10821
lesse	-10822
lites	-10823
livan	-10824
lière	-10825
meute	-10826
mites	-10827
neuve	-10828
nommé	-10829
odeur	-10830
odore	-10831
olles	-10832
ométr	-10833
ophes	-10834
ormes	-10835
ormez	-10836
ouche	-10837
ourir	-10838
quand	-10839
rerie	-10840
rions	-10841
rique	-10842
roise	-10843
rutin	-10844
saint	-10845
tense	-10846
tings	-10847
trine	-10848
uffis	-10849
unité	-10850
usent	-10851
usine	-10852
usque	-10853
vesne	-10854
wanda	-10855
wards	-10856
éanie	-10857
écris	-10858
élite	-10859
émocr	-10860
éridi	-10861
éries	-10862
ômage	-10863
œuvre	-10864
▁agir	-10865
▁agit	-10866
▁ainé	-10867
▁aire	-10868
▁autr	-10869
▁bail	-10870
▁berb	-10871
▁bila	-10872
▁bise	-10873
▁cauc	-10874
▁cein	-10875
▁chau	-10876
▁coch	-10877
▁cols	-10878
▁corp	-10879
▁cuir	-10880
▁dent	-10881
▁diam	-10882
▁doté	-10883
▁doux	-10884
▁duel	-10885
▁durs	-10886
▁délé	-10887
▁ferm	-10888
▁fret	-10889
▁frot	-10890
▁fuir	-10891
▁gand	-10892
▁garr	-10893
▁goth	-10894
▁grap	-10895
▁gris	-10896
▁huss	-10897
▁hydr	-10898
▁irak	-10899
▁jung	-10900
▁levé	-10901
▁mary	-10902
▁mend	-10903
▁migr	-10904
▁mire	-10905
▁nois	-10906
▁palé	-10907
▁peau	-10908
▁perf	-10909
▁perp	-10910
▁perr	-10911
▁phal	-10912
▁poit	-10913
▁posa	-10914
▁pèse	-10915
▁québ	-10916
▁rede	-10917
▁revê	-10918
▁rude	-10919
▁réex	-10920
▁rôti	-10921
▁sach	-10922
▁saur	-10923
▁semi	-10924
▁sinc	-10925
▁soft	-10926
▁soin	-10927
▁solu	-10928
▁somb	-10929
▁stop	-10930
▁tais	-10931
▁tony	-10932
▁trei	-10933
▁tués	-10934
▁vern	-10935
▁vies	-10936
▁élog	-10937
▁énum	-10938
abriel	-10939
accept	-10940
adress	-10941
aillir	-10942
akland	-10943
alerme	-10944
alisés	-10945
angola	-10946
apeurs	-10947
apport	-10948
arrond	-10949
arrêta	-10950
assade	-10951
assons	-10952
ataire	-10953
attent	-10954
aturne	-10955
baptis	-10956
cament	-10957
chants	-10958
chette	-10959
dyssée	-10960
endeur	-10961
enfuir	-10962
engale	-10963
entend	-10964
entité	-10965
entraî	-10966
espèce	-10967
europe	-10968
explor	-10969
france	-10970
histor	-10971
hommes	-10972
iguïté	-10973
ilibré	-10974
illade	-10975
illard	-10976
illiss	-10977
illité	-10978
impôts	-10979
iménez	-10980
inerie	-10981
inrent	-10982
istant	-10983
ivière	-10984
işinău	-10985
kerque	-10986
koutsk	-10987
objets	-10988
oivent	-10989
ollant	-10990
omètre	-10991
onnant	-10992
ophane	-10993
ophone	-10994
oquant	-10995
oronto	-10996
ortion	-10997
oureur	-10998
ovanni	-10999
primés	-11000
quinze	-11001
tifiée	-11002
tinait	-11003
ussent	-11004
veillé	-11005
âteaux	-11006
çaient	-11007
écrire	-11008
édrale	-11009
éloign	-11010
érable	-11011
ériale	-11012
éville	-11013
▁adapt	-11014
▁aimes	-11015
▁amant	-11016
▁angel	-11017
▁armés	-11018
▁atlas	-11019
▁auras	-11020
▁baies	-11021
▁baign	-11022
▁bains	-11023
▁balné	-11024
▁bichu	-11025
▁bouff	-11026
▁brise	-11027
▁brute	-11028
▁bâtie	-11029
▁cache	-11030
▁caill	-11031
▁carre	-11032
▁chaos	-11033
▁chape	-11034
▁chère	-11035
▁cloud	-11036
▁coeur	-11037
▁conte	-11038
▁creux	-11039
▁cubes	-11040
▁deuil	-11041
▁dirai	-11042
▁diver	-11043
▁douan	-11044
▁drame	-11045
▁dures	-11046
▁décla	-11047
▁défic	-11048
▁détec	-11049
▁déçue	-11050
▁effec	-11051
▁enver	-11052
▁exact	-11053
▁excès	-11054
▁exilé	-11055
▁expul	-11056
▁extra	-11057
▁ferai	-11058
▁foyer	-11059
▁fusil	-11060
▁gazon	-11061
▁gravé	-11062
▁grève	-11063
▁guère	-11064
▁hôtes	-11065
▁impré	-11066
▁james	-11067
▁jeter	-11068
▁juive	-11069
▁julie	-11070
▁jésus	-11071
▁lampe	-11072
▁lente	-11073
▁ligue	-11074
▁lisse	-11075
▁louer	-11076
▁majus	-11077
▁marve	-11078
▁milan	-11079
▁mobil	-11080
▁monse	-11081
▁médor	-11082
▁obama	-11083
▁pacte	-11084
▁pause	-11085
▁peurs	-11086
▁plaît	-11087
▁pleuv	-11088
▁poche	-11089
▁privé	-11090
▁proxy	-11091
▁prélè	-11092
▁pérou	-11093
▁quais	-11094
▁quasi	-11095
▁rangs	-11096
▁recul	-11097
▁rejet	-11098
▁resta	-11099
▁riait	-11100
▁récré	-11101
▁rénov	-11102
▁révis	-11103
▁réélu	-11104
▁saisi	-11105
▁sauce	-11106
▁situe	-11107
▁songe	-11108
▁tache	-11109
▁talon	-11110
▁tasse	-11111
▁tissu	-11112
▁tronc	-11113
▁turcs	-11114
▁turin	-11115
▁vendu	-11116
▁verbe	-11117
▁verra	-11118
▁vertu	-11119
▁veuve	-11120
▁viser	-11121
▁vitre	-11122
▁vraie	-11123
▁végét	-11124
▁water	-11125
▁âgées	-11126
▁égaux	-11127
▁étage	-11128
▁étais	-11129
▁étonn	-11130
▁étude	-11131
accéder	-11132
acement	-11133
afrique	-11134
agascar	-11135
ajouter	-11136
alisant	-11137
antaine	-11138
arèrent	-11139
astings	-11140
athlète	-11141
attente	-11142
enjamin	-11143
enseign	-11144
erville	-11145
frontal	-11146
horloge	-11147
hésitez	-11148
iarches	-11149
icacité	-11150
idélité	-11151
iendrai	-11152
ilation	-11153
interse	-11154
isolent	-11155
istante	-11156
ométrie	-11157
onnance	-11158
orelles	-11159
otoxine	-11160
ouillés	-11161
ourisme	-11162
premier	-11163
quentin	-11164
rection	-11165
tements	-11166
tiennes	-11167
ucarest	-11168
ympique	-11169
ènement	-11170
échange	-11171
écoutez	-11172
éditeur	-11173
épreuve	-11174
érences	-11175
▁active	-11176
▁aimais	-11177
▁algues	-11178
▁allumé	-11179
▁amical	-11180
▁amiens	-11181
▁assume	-11182
▁assuré	-11183
▁aurais	-11184
▁averti	-11185
▁bavard	-11186
▁brèche	-11187
▁cabane	-11188
▁caisse	-11189
▁campus	-11190
▁caméra	-11191
▁canapé	-11192
▁cannes	-11193
▁cannib	-11194
▁cognac	-11195
▁colons	-11196
▁concep	-11197
▁contac	-11198
▁copain	-11199
▁copine	-11200
▁courir	-11201
▁craint	-11202
▁créées	-11203
▁cyclis	-11204
▁dedans	-11205
▁devrez	-11206
▁dialec	-11207
▁dormez	-11208
▁drague	-11209
▁débord	-11210
▁décide	-11211
▁désire	-11212
▁elvire	-11213
▁entrez	-11214
▁espoir	-11215
▁exerci	-11216
▁exprès	-11217
▁fausse	-11218
▁filets	-11219
▁forcer	-11220
▁froide	-11221
▁fusion	-11222
▁goutte	-11223
▁habite	-11224
▁hypoth	-11225
▁hérité	-11226
▁incite	-11227
▁incorp	-11228
▁intemp	-11229
▁interp	-11230
▁jaurès	-11231
▁jouant	-11232
▁jurons	-11233
▁laisse	-11234
▁lancée	-11235
▁landes	-11236
▁libres	-11237
▁lisait	-11238
▁lucien	-11239
▁mairie	-11240
▁mandat	-11241
▁manges	-11242
▁manœuv	-11243
▁marier	-11244
▁mariti	-11245
▁marius	-11246
▁mariée	-11247
▁mentir	-11248
▁microc	-11249
▁modéré	-11250
▁mortes	-11251
▁méridi	-11252
▁nantes	-11253
▁obligé	-11254
▁offrit	-11255
▁oiseau	-11256
▁passez	-11257
▁penses	-11258
▁perdue	-11259
▁placée	-11260
▁plante	-11261
▁promet	-11262
▁prêtez	-11263
▁prêtre	-11264
▁puisqu	-11265
▁pénétr	-11266
▁périph	-11267
▁quarts	-11268
▁rebond	-11269
▁recouv	-11270
▁renard	-11271
▁retenu	-11272
▁retiré	-11273
▁roussi	-11274
▁réagir	-11275
▁régner	-11276
▁répète	-11277
▁répéta	-11278
▁réside	-11279
▁résumé	-11280
▁sablés	-11281
▁sabots	-11282
▁saluer	-11283
▁savait	-11284
▁secoué	-11285
▁secret	-11286
▁signer	-11287
▁social	-11288
▁soigne	-11289
▁soupir	-11290
▁suivis	-11291
▁surint	-11292
▁sépare	-11293
▁terrif	-11294
▁thèmes	-11295
▁tienne	-11296
▁titane	-11297
▁tortue	-11298
▁toussa	-11299
▁traité	-11300
▁trajet	-11301
▁tâches	-11302
▁témoin	-11303
▁unités	-11304
▁vaches	-11305
▁vapeur	-11306
▁vastes	-11307
▁veille	-11308
▁ventes	-11309
▁verrai	-11310
▁victor	-11311
▁vivons	-11312
▁volley	-11313
▁voulut	-11314
▁voyais	-11315
▁écouté	-11316
▁élever	-11317
▁émises	-11318
▁énorme	-11319
▁épaule	-11320
▁évolué	-11321
affluent	-11322
agréable	-11323
aillance	-11324
ampshire	-11325
amérique	-11326
anarchie	-11327
appelles	-11328
attentat	-11329
aventure	-11330
baptiste	-11331
chrétien	-11332
habiller	-11333
héritier	-11334
internet	-11335
lisabeth	-11336
légation	-11337
ologiste	-11338
omatique	-11339
ussettes	-11340
échanger	-11341
édiction	-11342
équipier	-11343
érations	-11344
▁achetés	-11345
▁adolesc	-11346
▁aimable	-11347
▁ajouter	-11348
▁annonce	-11349
▁anonyme	-11350
▁aperçus	-11351
▁approch	-11352
▁arrêtez	-11353
▁arrêtée	-11354
▁artères	-11355
▁asseyez	-11356
▁attaqué	-11357
▁auteurs	-11358
▁aveugle	-11359
▁bagarre	-11360
▁bergers	-11361
▁boutons	-11362
▁branche	-11363
▁brasser	-11364
▁brusque	-11365
▁brûlant	-11366
▁charbon	-11367
▁chargés	-11368
▁chariot	-11369
▁chaudes	-11370
▁chouans	-11371
▁chômage	-11372
▁colonne	-11373
▁combats	-11374
▁comptez	-11375
▁conduis	-11376
▁confier	-11377
▁confond	-11378
▁congrès	-11379
▁consent	-11380
▁content	-11381
▁couches	-11382
▁couloir	-11383
▁couples	-11384
▁coureur	-11385
▁cousine	-11386
▁couvent	-11387
▁crayons	-11388
▁croyait	-11389
▁croyant	-11390
▁crucial	-11391
▁diocèse	-11392
▁diplôme	-11393
▁dispers	-11394
▁divisée	-11395
▁dragons	-11396
▁drapeau	-11397
▁drogues	-11398
▁durable	-11399
▁déclara	-11400
▁décorés	-11401
▁délices	-11402
▁délivre	-11403
▁déploie	-11404
▁déroulé	-11405
▁désigne	-11406
▁emblème	-11407
▁emmener	-11408
▁emmenez	-11409
▁emporte	-11410
▁emporté	-11411
▁emprein	-11412
▁engagée	-11413
▁entrait	-11414
▁entrent	-11415
▁envoyée	-11416
▁experte	-11417
▁francis	-11418
▁fusionn	-11419
▁globale	-11420
▁habitat	-11421
▁homosex	-11422
▁implant	-11423
▁indemne	-11424
▁inhabit	-11425
▁inspiré	-11426
▁instruc	-11427
▁intense	-11428
▁invités	-11429
▁libéral	-11430
▁licence	-11431
▁limoges	-11432
▁manquer	-11433
▁matches	-11434
▁matelas	-11435
▁materne	-11436
▁maurice	-11437
▁maîtres	-11438
▁mentent	-11439
▁message	-11440
▁montent	-11441
▁morceau	-11442
▁offrant	-11443
▁parallè	-11444
▁parlons	-11445
▁passées	-11446
▁peintes	-11447
▁poignée	-11448
▁portera	-11449
▁prenant	-11450
▁prirent	-11451
▁prières	-11452
▁profils	-11453
▁projets	-11454
▁projeté	-11455
▁proposé	-11456
▁préside	-11457
▁records	-11458
▁remarqu	-11459
▁remplie	-11460
▁respire	-11461
▁revendi	-11462
▁romains	-11463
▁roumain	-11464
▁rurales	-11465
▁réseaux	-11466
▁réservé	-11467
▁réussir	-11468
▁scellée	-11469
▁scrutin	-11470
▁section	-11471
▁serveur	-11472
▁signale	-11473
▁signaux	-11474
▁sociaux	-11475
▁sombres	-11476
▁souffle	-11477
▁stupide	-11478
▁succomb	-11479
▁suffira	-11480
▁supposé	-11481
▁sérieux	-11482
▁terreur	-11483
▁touchés	-11484
▁traités	-11485
▁triomph	-11486
▁trophée	-11487
▁verrait	-11488
▁vivante	-11489
▁échangé	-11490
▁échouer	-11491
▁éclairé	-11492
▁établie	-11493
▁étroite	-11494
▁étroits	-11495
accordent	-11496
ambiguïté	-11497
assemblée	-11498
assurance	-11499
ellington	-11500
erbivores	-11501
existence	-11502
historien	-11503
ignements	-11504
influence	-11505
interromp	-11506
tiendrait	-11507
térielles	-11508
éclairage	-11509
▁accepter	-11510
▁africain	-11511
▁amoureux	-11512
▁apporter	-11513
▁assister	-11514
▁aurillac	-11515
▁autonome	-11516
▁baseball	-11517
▁berbères	-11518
▁bibelots	-11519
▁blessées	-11520
▁bretagne	-11521
▁ceinture	-11522
▁cercueil	-11523
▁cerisier	-11524
▁chartres	-11525
▁chevesne	-11526
▁chocolat	-11527
▁colombes	-11528
▁conquête	-11529
▁conservé	-11530
▁continua	-11531
▁contrace	-11532
▁convient	-11533
▁coquille	-11534
▁couronne	-11535
▁créature	-11536
▁célébrés	-11537
▁descendu	-11538
▁destinés	-11539
▁devenait	-11540
▁devrions	-11541
▁différen	-11542
▁dirigent	-11543
▁dispersé	-11544
▁division	-11545
▁doctrine	-11546
▁débouché	-11547
▁décident	-11548
▁délégués	-11549
▁dépendre	-11550
▁déplacée	-11551
▁enterrés	-11552
▁escarpée	-11553
▁essayant	-11554
▁facilité	-11555
▁fournira	-11556
▁guichets	-11557
▁illustré	-11558
▁illégale	-11559
▁imbécile	-11560
▁indienne	-11561
▁initiale	-11562
▁interven	-11563
▁italiens	-11564
▁jeunesse	-11565
▁logiciel	-11566
▁maintenu	-11567
▁mangeons	-11568
▁matériau	-11569
▁montrait	-11570
▁montrant	-11571
▁monument	-11572
▁morceaux	-11573
▁mélanger	-11574
▁notation	-11575
▁négatifs	-11576
▁organisé	-11577
▁ouvertes	-11578
▁ouvriers	-11579
▁paiement	-11580
▁parvenir	-11581
▁paysages	-11582
▁peinture	-11583
▁philippe	-11584
▁plaisent	-11585
▁posséder	-11586
▁prendrez	-11587
▁produira	-11588
▁proposer	-11589
▁provient	-11590
▁précieux	-11591
▁prétexte	-11592
▁regrette	-11593
▁remettre	-11594
▁reposait	-11595
▁restauré	-11596
▁revenait	-11597
▁revenant	-11598
▁réformes	-11599
▁réputées	-11600
▁salaires	-11601
▁secondes	-11602
▁seigneur	-11603
▁souffler	-11604
▁souhaité	-11605
▁soutiens	-11606
▁suicides	-11607
▁supprimé	-11608
▁surnommé	-11609
▁syndrome	-11610
▁synonyme	-11611
▁terminée	-11612
▁théodore	-11613
▁tournent	-11614
▁tragique	-11615
▁vendredi	-11616
▁versions	-11617
▁vicieuse	-11618
▁visiteur	-11619
▁vivement	-11620
▁voudrait	-11621
▁étudient	-11622
▁éveillée	-11623
▁évoluait	-11624
accompagne	-11625
exposition	-11626
telligence	-11627
équipement	-11628
équitation	-11629
▁agressive	-11630
▁alentours	-11631
▁apparence	-11632
▁ascension	-11633
▁assassiné	-11634
▁attendant	-11635
▁autoriser	-11636
▁campagnes	-11637
▁campement	-11638
▁charrette	-11639
▁chauffeur	-11640
▁chronique	-11641
▁clarifier	-11642
▁collectiv	-11643
▁collègues	-11644
▁commerces	-11645
▁compromis	-11646
▁comédiens	-11647
▁concevoir	-11648
▁confiance	-11649
▁consensus	-11650
▁contraint	-11651
▁devinrent	-11652
▁distingué	-11653
▁diversion	-11654
▁déception	-11655
▁détaillée	-11656
▁entourent	-11657
▁entrecoup	-11658
▁espérance	-11659
▁expertise	-11660
▁graphique	-11661
▁histoires	-11662
▁impériale	-11663
▁inaccessi	-11664
▁incendiée	-11665
▁indiquant	-11666
▁infectées	-11667
▁influencé	-11668
▁inquiétée	-11669
▁installés	-11670
▁interromp	-11671
▁mentionné	-11672
▁multimédi	-11673
▁médaillés	-11674
▁métropole	-11675
▁noisettes	-11676
▁organisés	-11677
▁partagent	-11678
▁perdirent	-11679
▁piétinait	-11680
▁positions	-11681
▁prolonger	-11682
▁promenade	-11683
▁provinces	-11684
▁publicité	-11685
▁pêchaient	-11686
▁quartiers	-11687
▁quasiment	-11688
▁quinzaine	-11689
▁rapproche	-11690
▁recherché	-11691
▁remplacer	-11692
▁rencontré	-11693
▁réparties	-11694
▁signature	-11695
▁solutions	-11696
▁souffrait	-11697
▁soumettre	-11698
▁spirituel	-11699
▁supprimée	-11700
▁supérieur	-11701
▁tentation	-11702
▁titulaire	-11703
▁treizième	-11704
▁trouverez	-11705
▁télécharg	-11706
▁victoires	-11707
▁vieilliss	-11708
▁viendront	-11709
▁voulaient	-11710
▁économies	-11711
emplacement	-11712
enseignants	-11713
observation	-11714
ographiques	-11715
orthographe	-11716
écotourisme	-11717
▁abandonnée	-11718
▁africaines	-11719
▁apercevoir	-11720
▁atmosphère	-11721
▁attribuées	-11722
▁canadienne	-11723
▁cathédrale	-11724
▁clairement	-11725
▁climatique	-11726
▁complètent	-11727
▁composants	-11728
▁concurrent	-11729
▁confrontés	-11730
▁contempler	-11731
▁coéquipier	-11732
▁créativité	-11733
▁descendent	-11734
▁desservent	-11735
▁difficulté	-11736
▁dimensions	-11737
▁directions	-11738
▁dispositif	-11739
▁domestique	-11740
▁dérogation	-11741
▁déterminée	-11742
▁efficacité	-11743
▁folleville	-11744
▁géologique	-11745
▁impression	-11746
▁incroyable	-11747
▁invitation	-11748
▁lesquelles	-11749
▁législatif	-11750
▁manifester	-11751
▁marchaient	-11752
▁montraient	-11753
▁médicament	-11754
▁obtiennent	-11755
▁opérations	-11756
▁ordinaires	-11757
▁ordonnance	-11758
▁organisées	-11759
▁perfection	-11760
▁personnels	-11761
▁proportion	-11762
▁protection	-11763
▁prétendant	-11764
▁prévention	-11765
▁périodique	-11766
▁rapprocher	-11767
▁religieuse	-11768
▁rencontres	-11769
▁régionales	-11770
▁satellites	-11771
▁satisfaire	-11772
▁sauvegarde	-11773
▁scandinave	-11774
▁simplicité	-11775
▁sélections	-11776
▁tentatives	-11777
▁troublante	-11778
▁trouvaient	-11779
▁ultérieure	-11780
▁volcanique	-11781
accompagnait	-11782
apparaissent	-11783
exploitation	-11784
informatique	-11785
intersection	-11786
▁adolescents	-11787
▁alimentaire	-11788
▁azerbaïdjan	-11789
▁centimètres	-11790
▁chaussettes	-11791
▁communautés	-11792
▁comparaison	-11793
▁considérait	-11794
▁constituées	-11795
▁contiennent	-11796
▁controversé	-11797
▁croisillons	-11798
▁disparition	-11799
▁défaillance	-11800
▁dépassaient	-11801
▁désagréable	-11802
▁enseignants	-11803
▁extravagant	-11804
▁fonctionner	-11805
▁fréquentées	-11806
▁grenouilles	-11807
▁instantanée	-11808
▁intempéries	-11809
▁journaliste	-11810
▁limitrophes	-11811
▁massivement	-11812
▁monseigneur	-11813
▁méridionale	-11814
▁patriarches	-11815
▁plantations	-11816
▁représenter	-11817
▁respectueux	-11818
▁respiration	-11819
▁ressemblait	-11820
▁réalisateur	-11821
▁réalisation	-11822
▁récompenser	-11823
▁scénaristes	-11824
▁spécialiste	-11825
▁temporaires	-11826
▁agriculteurs	-11827
▁autorisation	-11828
▁bibliothèque	-11829
▁commémoratif	-11830
▁comprenaient	-11831
▁contemporain	-11832
▁contentement	-11833
▁départements	-11834
▁explications	-11835
▁formellement	-11836
▁hélicoptères	-11837
▁particuliers	-11838
▁perspectives	-11839
▁positivement	-11840
▁pratiquaient	-11841
▁présentation	-11842
▁sélectionner	-11843
▁tranquillité	-11844
▁transfrontal	-11845
arrondissement	-11846
▁effectivement	-11847
▁interventions	-11848
▁ordinairement	-11849
▁paralympiques	-11850
▁parlementaire	-11851
▁personnalités	-11852
▁réfléchissant	-11853
▁significative	-11854
▁soigneusement	-11855
▁transcription	-11856
▁compréhensible	-11857
▁fonctionnaires	-11858
▁professionnels	-11859
▁infrastructures	-11860
▁interprétations	-11861
▁progressivement	-11862
+1)	-11863
-6.	-11864
-64	-11865
160	-11866
95,	-11867
98)	-11868
ATA	-11869
CEP	-11870
KNP	-11871
NSW	-11872
Ont	-11873
PEP	-11874
Rep	-11875
URS	-11876
déj	-11877
koç	-11878
ksu	-11879
uzz	-11880
waZ	-11881
éjà	-11882
ümq	-11883
üsl	-11884
▁xi	-11885
."""	-11886
0230	-11887
39).	-11888
6-64	-11889
62).	-11890
9.02	-11891
998)	-11892
ATAM	-11893
Apol	-11894
Hisp	-11895
Ilha	-11896
Mapu	-11897
OPEP	-11898
Repú	-11899
SANP	-11900
SWAP	-11901
Upps	-11902
adya	-11903
aggi	-11904
ahoo	-11905
aiba	-11906
arks	-11907
azzi	-11908
boda	-11909
coun	-11910
daho	-11911
daro	-11912
denb	-11913
eBay	-11914
enjo	-11915
hads	-11916
hiop	-11917
ikep	-11918
koka	-11919
lory	-11920
luke	-11921
mata	-11922
msen	-11923
nius	-11924
ools	-11925
rafe	-11926
roms	-11927
taxe	-11928
ujah	-11929
uomo	-11930
urdo	-11931
uzzo	-11932
veda	-11933
wood	-11934
ylon	-11935
Égyp	-11936
éfie	-11937
êpes	-11938
▁(3)	-11939
▁00,	-11940
▁2,4	-11941
▁224	-11942
▁2:1	-11943
▁2:2	-11944
▁3,9	-11945
▁323	-11946
▁330	-11947
▁340	-11948
▁468	-11949
▁5-3	-11950
▁562	-11951
▁6,3	-11952
▁764	-11953
▁790	-11954
▁864	-11955
▁ADN	-11956
▁CEP	-11957
▁Eee	-11958
▁FIC	-11959
▁IRM	-11960
▁Joh	-11961
▁MDT	-11962
▁McC	-11963
▁NPD	-11964
▁Néo	-11965
▁Old	-11966
▁Ouï	-11967
▁Tax	-11968
▁foo	-11969
▁osc	-11970
09.02	-11971
Angle	-11972
Asoci	-11973
Badya	-11974
Flynn	-11975
Hawaï	-11976
Haïti	-11977
Idaho	-11978
Indom	-11979
Indon	-11980
Karab	-11981
Murdo	-11982
Natal	-11983
SWAPO	-11984
Taiba	-11985
Upolu	-11986
acbet	-11987
aciej	-11988
acués	-11989
agoon	-11990
aimai	-11991
algue	-11992
amaki	-11993
anama	-11994
anedo	-11995
angji	-11996
aperç	-11997
aroja	-11998
arôme	-11999
colo	-12000
croy	-12001
ooms	-12002
ouns	-12003
ayral	-12004
azaki	-12005
azawa	-12006
banks	-12007
chagi	-12008
chlor	-12009
déjeu	-12010
ectue	-12011
edish	-12012
edway	-12013
enegg	-12014
excéd	-12015
genre	-12016
guste	-12017
igata	-12018
ighme	-12019
inity	-12020
lamée	-12021
lobal	-12022
odrig	-12023
oglou	-12024
ollah	-12025
oméos	-12026
oprié	-12027
oproc	-12028
orcov	-12029
oseki	-12030
osyst	-12031
oucht	-12032
ozamb	-12033
rafal	-12034
rupts	-12035
shirt	-12036
sifie	-12037
story	-12038
tibon	-12039
ukawa	-12040
ulkar	-12041
umbai	-12042
utaki	-12043
versa	-12044
world	-12045
ynchr	-12046
yslaw	-12047
ystur	-12048
zberg	-12049
écrop	-12050
éfiez	-12051
éloig	-12052
ñitas	-12053
öcker	-12054
▁(164	-12055
▁1.1.	-12056
▁1492	-12057
▁1755	-12058
▁1810	-12059
▁1930	-12060
▁3,50	-12061
▁4892	-12062
▁6-6.	-12063
▁Aksu	-12064
▁Arba	-12065
▁Arly	-12066
▁Ayez	-12067
▁Cafe	-12068
▁Clau	-12069
▁Coop	-12070
▁Croc	-12071
▁Daru	-12072
▁Dumb	-12073
▁Déjà	-12074
▁Emma	-12075
▁Erdo	-12076
▁Erie	-12077
▁Gaza	-12078
▁Gazi	-12079
▁Goet	-12080
▁Gols	-12081
▁Hadj	-12082
▁High	-12083
▁Horr	-12084
▁Iwas	-12085
▁Java	-12086
▁Judo	-12087
▁Khan	-12088
▁Krie	-12089
▁Krom	-12090
▁KwaZ	-12091
▁Kyri	-12092
▁Maui	-12093
▁Müsl	-12094
▁Neuf	-12095
▁Ngor	-12096
▁Niue	-12097
▁Noto	-12098
▁Oahu	-12099
ADT	-12100
ngy	-12101
aguá	-12102
elty	-12103
ngyi	-12104
unye	-12105
▁Taj	-12106
atana	-12107
atome	-12108
ayana	-12109
excès	-12110
guler	-12111
öngyi	-12112
▁1940	-12113
▁Olds	-12114
▁Otta	-12115
▁Pedr	-12116
▁Polo	-12117
▁Riom	-12118
▁Roca	-12119
▁Rudd	-12120
▁Scot	-12121
▁Siem	-12122
▁Taiz	-12123
▁Taxi	-12124
▁Tayy	-12125
▁Taïn	-12126
▁Twin	-12127
▁Wild	-12128
▁Wlad	-12129
▁[...	-12130
▁abbé	-12131
▁boda	-12132
▁buff	-12133
▁caca	-12134
▁cédé	-12135
▁eBay	-12136
▁furi	-12137
▁féod	-12138
▁gasp	-12139
▁gaze	-12140
▁geek	-12141
▁guet	-12142
▁gîte	-12143
▁halo	-12144
▁hect	-12145
▁hisp	-12146
▁issu	-12147
▁kios	-12148
▁maig	-12149
▁nids	-12150
▁noyé	-12151
▁odor	-12152
▁omni	-12153
▁papa	-12154
▁paup	-12155
▁pulv	-12156
▁ravi	-12157
▁sovi	-12158
▁sâme	-12159
▁typh	-12160
▁vulg	-12161
▁Émir	-12162
▁érod	-12163
Apollo	-12164
George	-12165
Israël	-12166
Parade	-12167
United	-12168
ackstr	-12169
adapte	-12170
adelph	-12171
aguars	-12172
airobi	-12173
aldars	-12174
alhous	-12175
alifax	-12176
allinn	-12177
andray	-12178
anglad	-12179
apater	-12180
aphore	-12181
arquée	-12182
ashhad	-12183
assium	-12184
atrium	-12185
attave	-12186
atélis	-12187
avirus	-12188
ayaguá	-12189
aymond	-12190
azzias	-12191
aïcain	-12192
añitas	-12193
bennes	-12194
billon	-12195
boîtes	-12196
cadier	-12197
changa	-12198
chelor	-12199
-2.	-12200
ONG	-12201
eds	-12202
mmy	-12203
ttp	-12204
Emmy	-12205
rses	-12206
urvé	-12207
▁IXe	-12208
▁Tup	-12209
richi	-12210
udits	-12211
ydney	-12212
ürses	-12213
▁7-2.	-12214
▁Lett	-12215
▁Ryan	-12216
▁Walt	-12217
▁bits	-12218
▁http	-12219
▁sino	-12220
absolu	-12221
christ	-12222
church	-12223
commun	-12224
echagi	-12225
elinek	-12226
enlève	-12227
entown	-12228
ercice	-12229
ethnie	-12230
façons	-12231
golais	-12232
ground	-12233
hamene	-12234
happan	-12235
harles	-12236
hausen	-12237
hekhar	-12238
herbes	-12239
homéos	-12240
hospit	-12241
humeur	-12242
hérèse	-12243
héâtre	-12244
ichael	-12245
ichele	-12246
iggour	-12247
ighmey	-12248
indiff	-12249
indisp	-12250
innens	-12251
intégr	-12252
iosité	-12253
irostr	-12254
largir	-12255
löcker	-12256
mobile	-12257
ocelot	-12258
odrigo	-12259
oignez	-12260
oldust	-12261
ollage	-12262
omalie	-12263
ominic	-12264
onfort	-12265
ontinu	-12266
opithè	-12267
ordial	-12268
organe	-12269
oudhar	-12270
outils	-12271
ozones	-12272
pleins	-12273
presso	-12274
quimau	-12275
reints	-12276
sentie	-12277
sifiés	-12278
située	-12279
tezuma	-12280
therel	-12281
ulveda	-12282
umuler	-12283
uscade	-12284
ushing	-12285
ustain	-12286
voyant	-12287
walder	-12288
wazaki	-12289
wealth	-12290
Écosse	-12291
▁(1418	-12292
▁(1644	-12293
▁1500.	-12294
▁1683,	-12295
▁1770,	-12296
▁1835.	-12297
▁1839.	-12298
▁1884,	-12299
FTA	-12300
CFTA	-12301
garz	-12302
▁144	-12303
▁148	-12304
▁Ash	-12305
▁Khé	-12306
fCFTA	-12307
▁1444	-12308
▁Angk	-12309
▁Proc	-12310
AfCFTA	-12311
garzyn	-12312
▁1480,	-12313
▁1885.	-12314
▁1939,	-12315
▁1957,	-12316
▁1963,	-12317
▁1966,	-12318
▁1967.	-12319
▁1980,	-12320
▁1988.	-12321
▁1993,	-12322
▁1998)	-12323
▁1998.	-12324
▁2005,	-12325
▁2005.	-12326
▁2011,	-12327
▁2013.	-12328
▁2015,	-12329
▁2020,	-12330
▁28000	-12331
▁2:11.	-12332
▁Alexe	-12333
▁Alexi	-12334
▁Barça	-12335
▁Belly	-12336
▁Bowen	-12337
▁Byron	-12338
▁Chaco	-12339
▁Danub	-12340
▁Deeds	-12341
▁Droma	-12342
▁Dylan	-12343
▁Ephés	-12344
▁Falls	-12345
▁Fatih	-12346
▁Ferry	-12347
▁Fluke	-12348
▁Flyer	-12349
▁Forum	-12350
▁Glory	-12351
▁Glynn	-12352
▁Hanov	-12353
▁Hsien	-12354
▁Ident	-12355
▁Iwata	-12356
▁Jamie	-12357
▁Javan	-12358
▁Judée	-12359
▁Julia	-12360
▁Kouns	-12361
▁LATAM	-12362
▁Leona	-12363
▁Lodin	-12364
▁Loong	-12365
▁Makis	-12366
▁Maswa	-12367
▁Merci	-12368
▁Month	-12369
▁Mérin	-12370
▁Népal	-12371
▁Palme	-12372
▁Panth	-12373
▁Phant	-12374
▁Qatar	-12375
▁Riina	-12376
▁Robin	-12377
▁Rockh	-12378
▁Rotor	-12379
▁Roumé	-12380
▁Sacks	-12381
▁Safin	-12382
▁Sakis	-12383
▁Scott	-12384
▁Shark	-12385
▁Simon	-12386
▁Sirip	-12387
▁Slova	-12388
▁South	-12389
▁Sâmes	-12390
▁Thaïs	-12391
▁VIIIe	-12392
▁Velas	-12393
▁Villa	-12394
▁Women	-12395
▁[...]	-12396
▁aidés	-12397
▁antié	-12398
▁appuy	-12399
-19	-12400
1.3	-12401
2,3	-12402
2,8	-12403
84,	-12404
9-1	-12405
96,	-12406
ASA	-12407
Ish	-12408
NSA	-12409
RMN	-12410
SAF	-12411
-191	-12412
-96,	-12413
41.3	-12414
684,	-12415
69-1	-12416
USAF	-12417
nutr	-12418
oung	-12419
▁NSA	-12420
▁piq	-12421
-1912	-12422
4684,	-12423
69-15	-12424
:41.3	-12425
Ishik	-12426
achym	-12427
avoué	-12428
uyère	-12429
▁(14,	-12430
▁(2,3	-12431
▁12,8	-12432
▁Jobs	-12433
▁NASA	-12434
▁piég	-12435
-1912)	-12436
:09.02	-12437
igurez	-12438
ikings	-12439
oungla	-12440
▁(14,7	-12441
▁2001.	-12442
▁2002,	-12443
▁2004,	-12444
▁2016,	-12445
▁2022,	-12446
▁Dream	-12447
▁Stars	-12448
▁arbal	-12449
▁arbit	-12450
▁audio	-12451
▁blocs	-12452
▁bondé	-12453
▁borgo	-12454
▁bulle	-12455
▁bébés	-12456
▁bêtis	-12457
▁cacao	-12458
▁cerfs	-12459
▁césar	-12460
▁datée	-12461
▁david	-12462
▁dervi	-12463
▁diabé	-12464
▁dicté	-12465
▁diges	-12466
▁dinde	-12467
▁diuré	-12468
▁duvet	-12469
▁enjol	-12470
▁enray	-12471
▁esthé	-12472
▁fasti	-12473
▁fiche	-12474
▁fixes	-12475
▁flott	-12476
▁green	-12477
▁henry	-12478
▁homin	-12479
▁héros	-12480
▁immig	-12481
▁inaug	-12482
▁islam	-12483
▁issus	-12484
▁judaï	-12485
▁jugée	-12486
▁juvén	-12487
▁licen	-12488
▁longe	-12489
▁luxue	-12490
▁magaz	-12491
▁maman	-12492
▁mirep	-12493
▁nargu	-12494
▁natur	-12495
▁nerfs	-12496
▁népal	-12497
▁nôtre	-12498
▁octog	-12499
Uka	-12500
azza	-12501
hony	-12502
mulé	-12503
oxys	-12504
araté	-12505
infir	-12506
laska	-12507
rayon	-12508
secte	-12509
votre	-12510
▁Howe	-12511
▁Sara	-12512
▁Tony	-12513
Alaska	-12514
active	-12515
atterr	-12516
crayon	-12517
igurie	-12518
otswan	-12519
oxysme	-12520
uctive	-12521
venger	-12522
▁Crown	-12523
▁Steve	-12524
▁armén	-12525
▁juger	-12526
▁otage	-12527
▁paons	-12528
▁pavot	-12529
▁pesti	-12530
▁pesée	-12531
▁pipel	-12532
▁péche	-12533
▁périp	-12534
▁raids	-12535
▁redev	-12536
▁réagi	-12537
▁rémun	-12538
▁rétab	-12539
▁scorp	-12540
▁sitôt	-12541
▁sobre	-12542
▁studi	-12543
▁sèche	-12544
▁tabac	-12545
▁tordu	-12546
▁treks	-12547
▁ténor	-12548
▁urnes	-12549
▁veste	-12550
▁vesti	-12551
▁érigé	-12552
Autrich	-12553
Charles	-12554
Estonie	-12555
Mapuche	-12556
Oakland	-12557
Ontario	-12558
Orléans	-12559
activer	-12560
aimerai	-12561
allejon	-12562
ampleur	-12563
anciens	-12564
annessy	-12565
apatero	-12566
aporent	-12567
appeler	-12568
appelée	-12569
armouth	-12570
arrache	-12571
assurez	-12572
autoris	-12573
avocats	-12574
compati	-12575
country	-12576
crimeur	-12577
dernier	-12578
econdes	-12579
empirer	-12580
endjabi	-12581
erciano	-12582
ernazza	-12583
erzberg	-12584
esearch	-12585
exicain	-12586
famille	-12587
fghanes	-12588
forment	-12589
garzyns	-12590
gentina	-12591
gineers	-12592
guerite	-12593
hamenei	-12594
hiopien	-12595
homéost	-12596
honorer	-12597
horreur	-12598
ialisme	-12599
67,	-12600
lamé	-12601
lasg	-12602
nold	-12603
▁35.	-12604
▁356	-12605
▁Atl	-12606
▁FIF	-12607
James	-12608
hyper	-12609
icken	-12610
lames	-12611
légué	-12612
odile	-12613
olini	-12614
thèse	-12615
ythag	-12616
▁Afgh	-12617
▁FIFA	-12618
▁Flag	-12619
▁Floy	-12620
▁Mick	-12621
▁Nick	-12622
▁Phen	-12623
▁aisé	-12624
▁lisa	-12625
▁myth	-12626
fghane	-12627
hority	-12628
irming	-12629
lasgow	-12630
roatie	-12631
▁1767,	-12632
▁1977,	-12633
▁1995,	-12634
▁Floyd	-12635
▁Maori	-12636
▁Perse	-12637
▁neigé	-12638
Article	-12639
agasaki	-12640
anville	-12641
iapoque	-12642
ibouill	-12643
icolage	-12644
iguïtés	-12645
influen	-12646
innenst	-12647
invente	-12648
ituanie	-12649
itutaki	-12650
jacente	-12651
kanique	-12652
leterre	-12653
licitée	-12654
lorusse	-12655
luminés	-12656
lumière	-12657
lustrer	-12658
mirates	-12659
mogènes	-12660
monaire	-12661
odernes	-12662
olisant	-12663
ongueur	-12664
onoseki	-12665
onville	-12666
opithec	-12667
orderez	-12668
orégion	-12669
outchev	-12670
ouvalos	-12671
peedway	-12672
pestres	-12673
peuvent	-12674
phalite	-12675
présent	-12676
restres	-12677
ristoff	-12678
rupteur	-12679
staller	-12680
sunción	-12681
tilopes	-12682
tissent	-12683
trellas	-12684
uctueux	-12685
ulseurs	-12686
uminera	-12687
urseurs	-12688
utukawa	-12689
ymphony	-12690
ynthèse	-12691
ysturoy	-12692
écosyst	-12693
élangez	-12694
élargir	-12695
émistes	-12696
énormes	-12697
▁(56-64	-12698
▁1995).	-12699
91,	-12700
gola	-12701
hrum	-12702
▁Ehr	-12703
▁Khr	-12704
Indep	-12705
adley	-12706
arola	-12707
difié	-12708
hrace	-12709
iands	-12710
idley	-12711
limit	-12712
tihad	-12713
urray	-12714
▁991,	-12715
▁Casa	-12716
▁Plit	-12717
▁Zagr	-12718
▁mile	-12719
▁porc	-12720
Angola	-12721
Thrace	-12722
dicule	-12723
eadley	-12724
uthrum	-12725
▁Plitv	-12726
▁Schle	-12727
▁Surve	-12728
▁Tamas	-12729
▁genat	-12730
▁stylo	-12731
▁œuvré	-12732
agricul	-12733
urrence	-12734
▁2009).	-12735
▁4:41.3	-12736
▁Accomp	-12737
▁Albert	-12738
▁Alexeï	-12739
▁Angola	-12740
▁Armand	-12741
▁Arnold	-12742
▁Arthur	-12743
▁Bardia	-12744
▁Batten	-12745
▁Belges	-12746
▁Boston	-12747
▁Bowyer	-12748
▁Branca	-12749
▁Canaan	-12750
▁Chacun	-12751
▁Chhatr	-12752
▁Cooper	-12753
▁Copern	-12754
▁Danela	-12755
▁Dillon	-12756
▁Dravid	-12757
▁Dustin	-12758
▁Démocr	-12759
▁Ehrens	-12760
▁Entrer	-12761
▁Etihad	-12762
▁Fallou	-12763
▁Fatima	-12764
▁Felipe	-12765
▁Flagst	-12766
▁Goethe	-12767
▁Greene	-12768
▁Gürses	-12769
▁Harper	-12770
▁Jarque	-12771
▁McCord	-12772
▁Mersey	-12773
▁MetroR	-12774
▁Minnes	-12775
▁Mister	-12776
▁Mozamb	-12777
▁Mumbai	-12778
▁Murray	-12779
▁Méfiez	-12780
▁Müslüm	-12781
▁Panama	-12782
▁Petros	-12783
▁Phonde	-12784
▁Porter	-12785
▁Pythag	-12786
▁Quelqu	-12787
▁Robert	-12788
▁Saarin	-12789
▁Saffir	-12790
▁Santor	-12791
▁Saroja	-12792
▁Schleg	-12793
▁Située	-12794
▁Slovén	-12795
▁Solank	-12796
▁Strabo	-12797
▁Survey	-12798
▁Taiwan	-12799
-11	-12800
20.	-12801
ike	-12802
koya	-12803
▁Wik	-12804
balay	-12805
crire	-12806
crite	-12807
intil	-12808
okoda	-12809
ényan	-12810
▁Glen	-12811
▁Lyon	-12812
▁Mike	-12813
▁Noël	-12814
▁Sver	-12815
▁embr	-12816
▁âges	-12817
dekoya	-12818
ennité	-12819
opérat	-12820
trigue	-12821
▁1920.	-12822
▁Rouge	-12823
▁codes	-12824
▁pacif	-12825
▁époux	-12826
canisme	-12827
install	-12828
tieuses	-12829
▁Kokoda	-12830
▁Sverig	-12831
▁Tamaki	-12832
▁Tayyip	-12833
▁Templo	-12834
▁Terres	-12835
▁Thomas	-12836
▁Vallée	-12837
▁Wemble	-12838
▁Wikine	-12839
▁Zagros	-12840
▁acclim	-12841
▁achats	-12842
▁achevé	-12843
▁achète	-12844
▁ajoute	-12845
▁ajuste	-12846
▁altère	-12847
▁ambiti	-12848
▁analog	-12849
▁aperçu	-12850
▁arbore	-12851
▁aspiré	-12852
▁audace	-12853
▁ballon	-12854
▁battue	-12855
▁berger	-12856
▁bloqué	-12857
▁bombes	-12858
▁boston	-12859
▁brevis	-12860
▁bruine	-12861
▁camion	-12862
▁cannab	-12863
▁carlos	-12864
▁caucus	-12865
▁chapit	-12866
▁coffre	-12867
▁coincé	-12868
▁couche	-12869
▁creusé	-12870
▁crimes	-12871
▁crêpes	-12872
▁currys	-12873
▁cyberc	-12874
▁cèdent	-12875
▁césium	-12876
▁datent	-12877
▁dictée	-12878
▁divisa	-12879
▁décida	-12880
▁dédiée	-12881
▁dégâts	-12882
▁délogé	-12883
▁démarr	-12884
▁dîners	-12885
▁effray	-12886
▁embarc	-12887
▁embard	-12888
▁enneig	-12889
▁ennuis	-12890
▁enragé	-12891
▁esquim	-12892
▁fermés	-12893
▁filtré	-12894
▁fleury	-12895
▁fosses	-12896
▁fuites	-12897
▁fument	-12898
▁fuseau	-12899
24,	-12900
ght	-12901
iku	-12902
ofi	-12903
ofan	-12904
reek	-12905
surf	-12906
▁Yas	-12907
alofi	-12908
anzan	-12909
aught	-12910
ghour	-12911
hindi	-12912
uriku	-12913
▁Blue	-12914
▁Medi	-12915
▁Paix	-12916
▁géof	-12917
Orland	-12918
acquér	-12919
armées	-12920
chsurf	-12921
ohenjo	-12922
▁1624,	-12923
▁1990,	-12924
▁Bloch	-12925
▁Creek	-12926
▁Yasov	-12927
▁cafés	-12928
▁dégus	-12929
▁glacé	-12930
Océanie	-12931
Orlando	-12932
anzanie	-12933
armante	-12934
courant	-12935
gétique	-12936
inscrit	-12937
oinette	-12938
okuriku	-12939
surtout	-12940
▁Histor	-12941
▁Stofan	-12942
▁approf	-12943
▁cycles	-12944
▁gayral	-12945
▁genèse	-12946
▁german	-12947
▁germes	-12948
▁gratte	-12949
▁géofil	-12950
▁heurts	-12951
▁hostil	-12952
▁hériss	-12953
▁idioti	-12954
▁ignore	-12955
▁instru	-12956
▁isolés	-12957
▁jointe	-12958
▁kényan	-12959
▁lapins	-12960
▁latins	-12961
▁limogé	-12962
▁lucide	-12963
▁maniér	-12964
▁manège	-12965
▁marqua	-12966
▁marthe	-12967
▁massif	-12968
▁mettra	-12969
▁millén	-12970
▁mineur	-12971
▁mirage	-12972
▁mixage	-12973
▁mourut	-12974
▁mythes	-12975
▁méconn	-12976
▁mémori	-12977
▁mérite	-12978
▁nantis	-12979
▁neutre	-12980
▁obscur	-12981
▁olivet	-12982
▁orbite	-12983
▁ouvrez	-12984
▁pachym	-12985
▁paraly	-12986
▁percev	-12987
▁plaide	-12988
▁podcas	-12989
▁podium	-12990
▁pourvu	-12991
▁prunes	-12992
▁prétex	-12993
▁pâques	-12994
▁québec	-12995
▁racine	-12996
▁rangée	-12997
▁rasoir	-12998
▁remets	-12999
XIe	-13000
faw	-13001
50).	-13002
aseb	-13003
risb	-13004
▁(50	-13005
▁450	-13006
▁850	-13007
▁Haw	-13008
▁XIe	-13009
Arist	-13010
Armée	-13011
ankar	-13012
asebo	-13013
okeng	-13014
▁(150	-13015
▁1850	-13016
▁Bank	-13017
▁Carp	-13018
▁Cris	-13019
▁Tank	-13020
▁reje	-13021
▁taxi	-13022
ermant	-13023
icheng	-13024
proies	-13025
▁Asfaw	-13026
▁Award	-13027
▁Brisb	-13028
▁Carib	-13029
▁Frank	-13030
▁Hawaï	-13031
▁Musée	-13032
▁invol	-13033
▁rugir	-13034
afokeng	-13035
aminent	-13036
osphère	-13037
▁1450).	-13038
▁Sasebo	-13039
▁fabule	-13040
▁minoen	-13041
▁requis	-13042
▁requér	-13043
▁roller	-13044
▁rédige	-13045
▁réinté	-13046
▁réunir	-13047
▁sachez	-13048
▁sapins	-13049
▁saurat	-13050
▁sauvet	-13051
▁scores	-13052
▁sikhes	-13053
▁silenc	-13054
▁sincér	-13055
▁symbol	-13056
▁séries	-13057
▁taxées	-13058
▁thomas	-13059
▁tibéto	-13060
▁tomate	-13061
▁tordus	-13062
▁tracas	-13063
▁turque	-13064
▁typhon	-13065
▁uriner	-13066
▁usages	-13067
▁utiles	-13068
▁valise	-13069
▁vendez	-13070
▁viking	-13071
▁visuel	-13072
▁yaourt	-13073
▁Écosse	-13074
▁écueil	-13075
▁émeute	-13076
▁érodés	-13077
▁évents	-13078
▁évitez	-13079
Aristote	-13080
Asociaci	-13081
Eysturoy	-13082
Ishikawa	-13083
Istanbul	-13084
Oiapoque	-13085
Ovechkin	-13086
SANParks	-13087
abilités	-13088
adwalder	-13089
affecter	-13090
africain	-13091
agonways	-13092
alhousie	-13093
allemand	-13094
améliore	-13095
anophone	-13096
ançaient	-13097
arotonga	-13098
articles	-13099
ión	-13100
arlo	-13101
asto	-13102
aulo	-13103
géré	-13104
lira	-13105
moto	-13106
ollo	-13107
uxlo	-13108
▁24,	-13109
▁240	-13110
Fasto	-13111
ajour	-13112
arium	-13113
atisé	-13114
ceton	-13115
facts	-13116
itéré	-13117
uxloe	-13118
▁(140	-13119
▁Hira	-13120
▁Trac	-13121
▁Troy	-13122
▁True	-13123
ampton	-13124
ombiné	-13125
ronter	-13126
ténuer	-13127
▁Canad	-13128
▁Erkoç	-13129
▁Madhy	-13130
▁Paulo	-13131
▁Tracy	-13132
▁Truex	-13133
▁Unión	-13134
▁bénin	-13135
▁camom	-13136
▁nicol	-13137
▁ruiné	-13138
▁volet	-13139
ancarlo	-13140
copiste	-13141
hérence	-13142
oudhary	-13143
quarium	-13144
tefacts	-13145
utorité	-13146
▁Apollo	-13147
▁Ephèse	-13148
▁Madhya	-13149
▁Muxloe	-13150
▁carbon	-13151
▁criait	-13152
▁dominé	-13153
▁ingéré	-13154
▁jambes	-13155
Autorité	-13156
atiseurs	-13157
atterrir	-13158
atténuer	-13159
banazawa	-13160
chlorure	-13161
effectue	-13162
employés	-13163
empêcher	-13164
endroits	-13165
endulkar	-13166
eneurial	-13167
entendez	-13168
erosmith	-13169
exercice	-13170
gsmarine	-13171
hannessy	-13172
hentique	-13173
ikepunye	-13174
illusion	-13175
immenses	-13176
imposant	-13177
ingtième	-13178
ingénier	-13179
issinger	-13180
limitées	-13181
longueur	-13182
mongoles	-13183
neapolis	-13184
occupant	-13185
oduisent	-13186
olitaine	-13187
ological	-13188
omorphes	-13189
ontinuum	-13190
onwealth	-13191
orcerons	-13192
orcovado	-13193
otypique	-13194
ouchsurf	-13195
quinerie	-13196
quérants	-13197
rafalgar	-13198
routchev	-13199
mala	-13200
othé	-13201
▁645	-13202
Assun	-13203
arson	-13204
ibson	-13205
ieber	-13206
quash	-13207
ungle	-13208
▁1950	-13209
▁expo	-13210
▁maïs	-13211
Larson	-13212
infrey	-13213
lisser	-13214
othies	-13215
▁Sanju	-13216
▁Yahoo	-13217
▁expon	-13218
▁galer	-13219
atemala	-13220
jacques	-13221
▁Bieber	-13222
▁Franks	-13223
▁Gibson	-13224
▁gravir	-13225
▁intrah	-13226
▁intron	-13227
▁judoka	-13228
▁jungle	-13229
▁luttes	-13230
▁mirent	-13231
▁squash	-13232
▁stands	-13233
▁tirant	-13234
Assunpin	-13235
moothies	-13236
rélation	-13237
tenariat	-13238
terelles	-13239
toujours	-13240
uisirent	-13241
ussolini	-13242
uthority	-13243
yloniens	-13244
écropole	-13245
éniciens	-13246
étudiant	-13247
▁(1000-1	-13248
▁Acheter	-13249
▁Actrice	-13250
▁Adekoya	-13251
▁Afghans	-13252
▁Algérie	-13253
▁Athènes	-13254
▁Auguste	-13255
▁Avenger	-13256
▁Bengale	-13257
▁Birming	-13258
▁CafeNet	-13259
▁Capuzzo	-13260
▁Caribes	-13261
▁Casques	-13262
▁Cañitas	-13263
▁Chandra	-13264
▁Chicken	-13265
▁Claudia	-13266
▁Cologne	-13267
▁Combiné	-13268
▁Commons	-13269
▁Comores	-13270
▁Conseil	-13271
▁Cushing	-13272
▁Dominic	-13273
▁Dreamer	-13274
▁Etherel	-13275
▁Formosa	-13276
▁Galilée	-13277
▁Glasgow	-13278
▁Goldust	-13279
▁Guthrum	-13280
▁Halifax	-13281
▁Harvick	-13282
▁Highway	-13283
▁Horrock	-13284
▁Irlande	-13285
▁Islande	-13286
▁Iwasaki	-13287
▁Jakarta	-13288
▁Jelinek	-13289
▁Klöcker	-13290
▁LaFasto	-13291
▁Ligurie	-13292
▁Massach	-13293
▁McMurdo	-13294
▁Medical	-13295
▁Michael	-13296
▁Michele	-13297
▁Mohenjo	-13298
▁Montana	-13299
189	-13300
îné	-13301
1895	-13302
▁175	-13303
▁178	-13304
▁360	-13305
▁480	-13306
▁poh	-13307
anium	-13308
atoru	-13309
esses	-13310
essor	-13311
ravec	-13312
truée	-13313
unisé	-13314
–1895	-13315
▁1970	-13316
▁1973	-13317
▁1977	-13318
▁Cuer	-13319
▁aîné	-13320
▁haub	-13321
4–1895	-13322
Oravec	-13323
frican	-13324
primes	-13325
▁(0230	-13326
▁1759,	-13327
▁1789,	-13328
▁antic	-13329
▁goûté	-13330
▁lunes	-13331
▁poils	-13332
▁recto	-13333
▁échaf	-13334
94–1895	-13335
lulaire	-13336
uranium	-13337
▁Guardi	-13338
▁Oliver	-13339
▁Satoru	-13340
▁canada	-13341
▁délais	-13342
▁méthan	-13343
▁nevers	-13344
▁paress	-13345
▁potier	-13346
▁pratic	-13347
▁romane	-13348
▁échapp	-13349
894–1895	-13350
▁African	-13351
▁Cuerden	-13352
▁Namgyal	-13353
▁Ngorong	-13354
▁Nicklas	-13355
▁Oldrich	-13356
▁Orchest	-13357
▁Palerme	-13358
▁Passons	-13359
▁Pattave	-13360
▁Pendjab	-13361
▁Princes	-13362
▁Roberto	-13363
▁Roberts	-13364
▁Rodrigo	-13365
▁Rotorua	-13366
▁Saturne	-13367
▁Shankar	-13368
▁Shekhar	-13369
▁Solanki	-13370
▁Somalie	-13371
▁Starmer	-13372
▁Surtout	-13373
▁Sustain	-13374
▁Séville	-13375
▁Tallinn	-13376
▁Toronto	-13377
▁Trinity	-13378
▁Versace	-13379
▁Vikings	-13380
▁Wembley	-13381
▁Westmin	-13382
▁Wikinew	-13383
▁Winfrey	-13384
▁Yasovar	-13385
▁Zoungla	-13386
▁absolus	-13387
▁achemin	-13388
▁acérées	-13389
▁adjoint	-13390
▁adonner	-13391
▁adoptée	-13392
▁affaibl	-13393
▁affiche	-13394
▁afghane	-13395
▁agrandi	-13396
▁allions	-13397
▁amandes	-13398
▁aménage	-13399
Abu	-13400
▁93	-13401
▁Yu	-13402
arcè	-13403
bots	-13404
buti	-13405
droe	-13406
oots	-13407
▁29,	-13408
▁93%	-13409
Boots	-13410
lectr	-13411
oplie	-13412
▁Quas	-13413
▁Yuan	-13414
▁bior	-13415
▁boré	-13416
▁féli	-13417
▁jack	-13418
▁mack	-13419
Pierre	-13420
alawan	-13421
argots	-13422
immédi	-13423
iorité	-13424
ophysi	-13425
oriété	-13426
ossack	-13427
▁1889,	-13428
▁Quant	-13429
▁ennem	-13430
▁harcè	-13431
▁pénur	-13432
agirait	-13433
lectric	-13434
liquent	-13435
onibles	-13436
requent	-13437
▁Addenb	-13438
▁Quatre	-13439
▁chevre	-13440
▁cibles	-13441
▁enlevé	-13442
▁pénale	-13443
▁étoles	-13444
cessives	-13445
immédiat	-13446
lexibles	-13447
pitalier	-13448
uisibles	-13449
▁Camille	-13450
▁Mossack	-13451
▁Palawan	-13452
▁accordé	-13453
▁achevés	-13454
▁aménagé	-13455
▁artisan	-13456
▁asynchr	-13457
▁attirés	-13458
▁averses	-13459
▁baigner	-13460
▁balbuti	-13461
▁balcons	-13462
▁barrage	-13463
▁battait	-13464
▁berline	-13465
▁binaire	-13466
▁bioryth	-13467
▁bizarre	-13468
▁blagues	-13469
▁blocage	-13470
▁bloguer	-13471
▁bonsoir	-13472
▁brousse	-13473
▁cabanes	-13474
▁carotén	-13475
▁cavrois	-13476
▁century	-13477
▁cerises	-13478
▁cessent	-13479
▁changés	-13480
▁chevreu	-13481
▁choisie	-13482
▁chronom	-13483
▁citoyen	-13484
▁codifié	-13485
▁coincés	-13486
▁collège	-13487
▁colonis	-13488
▁comesti	-13489
▁complet	-13490
▁confiné	-13491
▁contrib	-13492
▁cosette	-13493
▁coucher	-13494
▁courbes	-13495
▁coussin	-13496
▁croient	-13497
▁cuirass	-13498
▁curieux	-13499
▁104	-13500
▁108	-13501
▁117	-13502
▁150	-13503
▁153	-13504
▁164	-13505
▁186	-13506
▁Ans	-13507
▁Sup	-13508
erman	-13509
odoxe	-13510
raîch	-13511
timaf	-13512
▁1861	-13513
▁Anne	-13514
▁Guar	-13515
▁Reag	-13516
▁Reap	-13517
▁hôte	-13518
▁iras	-13519
▁josé	-13520
▁valu	-13521
autier	-13522
envers	-13523
hangji	-13524
levait	-13525
offrir	-13526
okarot	-13527
timale	-13528
▁1537,	-13529
▁1649,	-13530
▁Cuomo	-13531
▁Paolo	-13532
▁Recep	-13533
▁Waite	-13534
▁aires	-13535
▁pires	-13536
▁rétro	-13537
▁tracé	-13538
aillard	-13539
joindre	-13540
timafia	-13541
▁Guaran	-13542
▁Reagan	-13543
▁Report	-13544
▁Suplic	-13545
▁chanté	-13546
▁survol	-13547
▁Guaraní	-13548
▁Guerres	-13549
▁Mokarot	-13550
▁Phondey	-13551
▁Suplicy	-13552
▁Vautier	-13553
▁Veerman	-13554
▁Zhangji	-13555
▁absence	-13556
▁absents	-13557
▁avertit	-13558
▁brisent	-13559
▁cinémat	-13560
▁copains	-13561
▁damiens	-13562
▁dauphin	-13563
▁dessine	-13564
▁devrais	-13565
▁devront	-13566
▁disputé	-13567
▁divorce	-13568
▁douanes	-13569
▁débarqu	-13570
▁déclare	-13571
▁décorer	-13572
▁décrite	-13573
▁décédés	-13574
▁dédiées	-13575
▁défectu	-13576
▁déforme	-13577
▁déjeuné	-13578
▁délivré	-13579
▁démarré	-13580
▁dépassé	-13581
▁déposer	-13582
▁déposée	-13583
▁déroger	-13584
▁déserts	-13585
▁détaché	-13586
▁détecté	-13587
▁dévaler	-13588
▁dévasta	-13589
▁dévolue	-13590
▁emboute	-13591
▁emplois	-13592
▁empêché	-13593
▁enlever	-13594
▁enterré	-13595
▁entravé	-13596
▁escarpé	-13597
▁espérer	-13598
▁exporté	-13599
amik	-13600
asco	-13601
blos	-13602
iffr	-13603
wart	-13604
blage	-13605
ocham	-13606
écart	-13607
▁1600	-13608
▁Bart	-13609
▁Erec	-13610
▁Zach	-13611
▁diva	-13612
▁emma	-13613
amikaz	-13614
effond	-13615
itinér	-13616
ochamó	-13617
stonie	-13618
▁1988,	-13619
▁Ayant	-13620
▁Brans	-13621
▁Erect	-13622
▁Joche	-13623
▁Shika	-13624
▁Vasco	-13625
▁faibl	-13626
▁start	-13627
aturges	-13628
envoler	-13629
échiffr	-13630
▁Bartol	-13631
▁Kerala	-13632
▁Leslie	-13633
▁Nouvel	-13634
▁States	-13635
▁Zachar	-13636
▁affran	-13637
▁bâches	-13638
▁certes	-13639
▁cloche	-13640
▁divine	-13641
▁excusé	-13642
▁fourch	-13643
▁gardée	-13644
▁grimpe	-13645
▁gronde	-13646
▁hêtres	-13647
▁intéri	-13648
▁réveil	-13649
▁sortez	-13650
amikazes	-13651
andonnés	-13652
encontre	-13653
original	-13654
volution	-13655
▁Branson	-13656
▁Cochamó	-13657
▁Erectus	-13658
▁Estonie	-13659
▁Stewart	-13660
▁Zachary	-13661
▁faiblir	-13662
▁fanions	-13663
▁façonné	-13664
▁fiables	-13665
▁fiscaux	-13666
▁fleuron	-13667
▁fleuves	-13668
▁focales	-13669
▁fraises	-13670
▁frapper	-13671
▁furieux	-13672
▁féodale	-13673
▁gabriel	-13674
▁gardées	-13675
▁gazeuse	-13676
▁glacier	-13677
▁glacées	-13678
▁glisser	-13679
▁gourous	-13680
▁graveur	-13681
▁gravier	-13682
▁grosses	-13683
▁générer	-13684
▁habitez	-13685
▁haïtien	-13686
▁horaire	-13687
▁idéales	-13688
▁imposer	-13689
▁inaperç	-13690
▁inclure	-13691
▁incurvé	-13692
▁induira	-13693
▁inexact	-13694
▁initiés	-13695
▁insecte	-13696
▁insérée	-13697
▁intéret	-13698
▁investi	-13699
afé	-13700
cell	-13701
iraf	-13702
osem	-13703
▁Nik	-13704
▁Poh	-13705
▁Sof	-13706
▁cyd	-13707
antaf	-13708
arcia	-13709
exécu	-13710
icell	-13711
onsèg	-13712
opher	-13713
oseon	-13714
élève	-13715
▁1830	-13716
▁Mars	-13717
▁Mary	-13718
▁Sher	-13719
▁Shet	-13720
▁Shim	-13721
▁Shiv	-13722
▁Shri	-13723
▁Soph	-13724
▁baie	-13725
▁bank	-13726
▁miel	-13727
▁pécu	-13728
alifié	-13729
irafes	-13730
urcell	-13731
éhicul	-13732
▁1830.	-13733
▁Malar	-13734
▁Maldi	-13735
▁Malte	-13736
▁Maroc	-13737
▁Nikol	-13738
▁Shore	-13739
▁Sofia	-13740
▁Vivre	-13741
▁Yosem	-13742
▁cycle	-13743
▁logis	-13744
▁ruiss	-13745
antafyl	-13746
onsègue	-13747
▁Constr	-13748
▁Garcia	-13749
▁Joseon	-13750
▁Malais	-13751
▁Marion	-13752
▁Quinze	-13753
▁Shivaj	-13754
▁Sophoc	-13755
▁Xavier	-13756
▁congré	-13757
▁goûtez	-13758
▁propag	-13759
▁rendue	-13760
istrates	-13761
qualifié	-13762
quatorze	-13763
veillant	-13764
▁Nikolak	-13765
▁Pohamba	-13766
▁Purcell	-13767
▁Sheriff	-13768
▁Shivaji	-13769
▁banques	-13770
▁champel	-13771
▁congrég	-13772
▁danoise	-13773
▁entamer	-13774
▁girafes	-13775
▁invoqué	-13776
▁juguler	-13777
▁lancera	-13778
▁libérer	-13779
▁licenci	-13780
▁livrais	-13781
▁légionn	-13782
▁majorqu	-13783
▁mangées	-13784
▁maraude	-13785
▁maîtris	-13786
▁mensuel	-13787
▁meurent	-13788
▁miracle	-13789
▁mirages	-13790
▁mobiles	-13791
▁monothé	-13792
▁mouches	-13793
▁multila	-13794
▁murales	-13795
▁neurobi	-13796
▁neutres	-13797
▁nicolas	-13798
▁nominés	-13799
rya	-13800
akha	-13801
gnés	-13802
osso	-13803
roch	-13804
utha	-13805
▁(1)	-13806
▁(1/	-13807
▁(10	-13808
▁247	-13809
▁30,	-13810
▁60,	-13811
enfer	-13812
ressé	-13813
teind	-13814
ufact	-13815
uvall	-13816
▁(1/5	-13817
▁(105	-13818
▁1100	-13819
▁Arya	-13820
▁METI	-13821
▁cède	-13822
▁lugu	-13823
▁révé	-13824
enfuit	-13825
plutôt	-13826
resser	-13827
roquer	-13828
unakha	-13829
yptées	-13830
épices	-13831
▁1895,	-13832
▁2000,	-13833
▁Alden	-13834
▁agrég	-13835
▁byzan	-13836
▁carro	-13837
▁dérac	-13838
▁dériv	-13839
▁gross	-13840
▁hamac	-13841
▁noter	-13842
▁panam	-13843
▁panel	-13844
atteind	-13845
inéaire	-13846
ossaise	-13847
▁Bhutha	-13848
▁Duvall	-13849
▁dérivé	-13850
▁jeanne	-13851
▁olympe	-13852
▁rivaux	-13853
Arctique	-13854
rochages	-13855
roquerie	-13856
ufacturé	-13857
▁Punakha	-13858
▁Runnels	-13859
▁Science	-13860
▁coûtant	-13861
▁coûtent	-13862
▁déracin	-13863
▁guichet	-13864
▁lugubre	-13865
▁manette	-13866
▁nuirait	-13867
▁obligés	-13868
▁occupés	-13869
▁offrira	-13870
▁orageux	-13871
▁organes	-13872
▁origami	-13873
▁ouvrage	-13874
▁paléont	-13875
▁panneau	-13876
▁parrain	-13877
▁partagé	-13878
▁patrons	-13879
▁peintre	-13880
▁pendent	-13881
▁perpign	-13882
▁phoques	-13883
▁pillage	-13884
▁pillait	-13885
▁piments	-13886
▁polluer	-13887
▁pompage	-13888
▁pondent	-13889
▁poudres	-13890
▁poussin	-13891
▁poussée	-13892
▁prenons	-13893
▁procédé	-13894
▁promouv	-13895
▁prunier	-13896
▁précisé	-13897
▁précédé	-13898
▁prélevé	-13899
▁7.	-13900
▁QC	-13901
▁QV	-13902
born	-13903
cinn	-13904
cino	-13905
kras	-13906
mmer	-13907
rash	-13908
▁QVC	-13909
leuve	-13910
merie	-13911
nistr	-13912
raser	-13913
ultez	-13914
étras	-13915
▁Born	-13916
▁Corn	-13917
▁Inde	-13918
▁émer	-13919
antras	-13920
férant	-13921
olborn	-13922
uccino	-13923
étrier	-13924
▁Borné	-13925
▁Initi	-13926
▁Trash	-13927
▁horti	-13928
alanche	-13929
cheveux	-13930
cinnati	-13931
nistrie	-13932
écraser	-13933
▁2004).	-13934
▁Acteur	-13935
▁Bornéo	-13936
▁Cornig	-13937
▁Fleuve	-13938
▁apparu	-13939
▁bouton	-13940
▁bâties	-13941
▁cacahu	-13942
▁filmer	-13943
▁patron	-13944
▁tétras	-13945
▁vitrés	-13946
nisation	-13947
urricane	-13948
▁Harbour	-13949
▁Holborn	-13950
▁Niigata	-13951
▁actives	-13952
▁activés	-13953
▁chakras	-13954
▁compose	-13955
▁fournie	-13956
▁mantras	-13957
▁menacer	-13958
▁procure	-13959
▁préscol	-13960
▁présumé	-13961
▁prétend	-13962
▁pueblos	-13963
▁pyramid	-13964
▁périple	-13965
▁pêchent	-13966
▁quintes	-13967
▁quittez	-13968
▁radical	-13969
▁radioph	-13970
▁ramener	-13971
▁reculés	-13972
▁refuser	-13973
▁regarda	-13974
▁relatée	-13975
▁relevés	-13976
▁reliefs	-13977
▁reliées	-13978
▁relégué	-13979
▁rendues	-13980
▁renfort	-13981
▁rentrez	-13982
▁rentrés	-13983
▁repérer	-13984
▁repérés	-13985
▁requise	-13986
▁retirés	-13987
▁reversé	-13988
▁richard	-13989
▁rivalis	-13990
▁romaine	-13991
▁rongeur	-13992
▁royales	-13993
▁réiniti	-13994
▁réitéré	-13995
▁résider	-13996
▁révéler	-13997
▁safaris	-13998
▁sapeurs	-13999
xpé	-14000
blic	-14001
ilok	-14002
lino	-14003
pied	-14004
▁Cru	-14005
▁Kru	-14006
▁WNE	-14007
aurid	-14008
blica	-14009
erlus	-14010
incur	-14011
quipé	-14012
▁Expé	-14013
▁Indi	-14014
▁Lock	-14015
▁Sach	-14016
▁WNED	-14017
▁moas	-14018
▁rock	-14019
▁salu	-14020
▁salv	-14021
aurida	-14022
auront	-14023
ellino	-14024
entrav	-14025
ençons	-14026
expans	-14027
guilla	-14028
iettes	-14029
illier	-14030
linées	-14031
quides	-14032
ragées	-14033
▁Congo	-14034
▁Dilok	-14035
▁Stadi	-14036
▁State	-14037
▁Titan	-14038
▁accru	-14039
▁boisé	-14040
▁bénie	-14041
▁ensev	-14042
▁illic	-14043
▁perds	-14044
▁reçus	-14045
▁salée	-14046
auridae	-14047
incurve	-14048
uberlus	-14049
▁Indias	-14050
▁Kruger	-14051
▁Sachin	-14052
▁applic	-14053
▁moelle	-14054
▁piégée	-14055
▁réputé	-14056
▁équipé	-14057
entraver	-14058
▁Cruelty	-14059
▁Mangola	-14060
▁Stadium	-14061
▁pêchera	-14062
▁reviens	-14063
▁savoirs	-14064
▁savoure	-14065
▁scanner	-14066
▁sensori	-14067
▁sentait	-14068
▁sentiez	-14069
▁septent	-14070
▁sexuels	-14071
▁simuler	-14072
▁stimuli	-14073
▁stricte	-14074
▁studios	-14075
▁surtaxe	-14076
▁séparée	-14077
▁tentait	-14078
▁timbres	-14079
▁tortues	-14080
▁toxines	-14081
▁traitez	-14082
▁trombes	-14083
▁tronçon	-14084
▁témoins	-14085
▁unicell	-14086
▁urgente	-14087
▁vaccins	-14088
▁valable	-14089
▁veiller	-14090
▁vendues	-14091
▁vidalat	-14092
▁vikings	-14093
▁vitrine	-14094
▁vitrées	-14095
▁voudrez	-14096
▁voulons	-14097
▁véhicul	-14098
▁ziggour	-14099
ynx	-14100
ébri	-14101
zanti	-14102
▁Anat	-14103
▁cock	-14104
▁lynx	-14105
▁maje	-14106
▁miti	-14107
▁éjec	-14108
affich	-14109
consin	-14110
inoise	-14111
édoque	-14112
▁Indes	-14113
▁Lundi	-14114
▁Mario	-14115
▁Rooms	-14116
▁Santi	-14117
▁belge	-14118
▁civis	-14119
▁cockt	-14120
▁criti	-14121
▁momie	-14122
▁prime	-14123
antième	-14124
zantine	-14125
ébriété	-14126
▁Anatol	-14127
▁bourge	-14128
▁cadeau	-14129
▁direct	-14130
▁inclus	-14131
▁légiti	-14132
▁éjecté	-14133
accorder	-14134
iliaires	-14135
imprimée	-14136
olédoque	-14137
▁directs	-14138
▁excuses	-14139
▁mitigés	-14140
▁pensait	-14141
▁siennes	-14142
▁sombrer	-14143
▁échappé	-14144
▁éclairs	-14145
▁écoulée	-14146
▁écouter	-14147
▁édition	-14148
▁épaisse	-14149
▁étendue	-14150
▁éthique	-14151
▁évaluer	-14152
▁éveillé	-14153
▁évoluer	-14154
69-1539).	-14155
Assunpink	-14156
República	-14157
Sarasvati	-14158
Shannessy	-14159
accumuler	-14160
achèterai	-14161
acquérait	-14162
activités	-14163
actualité	-14164
adressent	-14165
affichage	-14166
affronter	-14167
africaine	-14168
allongent	-14169
angladais	-14170
anitiques	-14171
anticorps	-14172
apprêtait	-14173
appuccino	-14174
artefacts	-14175
astronome	-14176
atélistes	-14177
automatis	-14178
avalanche	-14179
aventines	-14180
aventurer	-14181
avènement	-14182
ayatollah	-14183
chrétiens	-14184
diffusion	-14185
dilection	-14186
districts	-14187
effondrer	-14188
endurance	-14189
enveloppe	-14190
expansion	-14191
expulsion	-14192
garzynska	-14193
important	-14194
inclusion	-14195
inconfort	-14196
infection	-14197
influenza	-14198
ingénieur	-14199
▁88	-14200
▁(2)	-14201
▁Ald	-14202
▁Guy	-14203
erger	-14204
ergée	-14205
guidé	-14206
japon	-14207
ouret	-14208
ticul	-14209
tiqué	-14210
▁2012	-14211
▁2016	-14212
▁Aldw	-14213
▁Alph	-14214
▁Pôle	-14215
▁Ramp	-14216
▁dura	-14217
▁thaï	-14218
▁verg	-14219
alenti	-14220
aponie	-14221
ergure	-14222
espion	-14223
ingamp	-14224
retour	-14225
sivité	-14226
▁Alpha	-14227
▁aérop	-14228
▁pirat	-14229
culaire	-14230
ergents	-14231
tiquées	-14232
▁Guyane	-14233
▁Rampro	-14234
▁Steven	-14235
▁Tandis	-14236
▁affirm	-14237
▁alliés	-14238
▁coupée	-14239
▁désert	-14240
▁menant	-14241
▁pleins	-14242
▁reform	-14243
▁sauvés	-14244
▁tenues	-14245
▁étroit	-14246
ulsivité	-14247
▁Aldwych	-14248
▁Laponie	-14249
▁articul	-14250
▁blesser	-14251
▁coupant	-14252
▁désiste	-14253
▁formule	-14254
▁malvers	-14255
▁ouvrant	-14256
▁ralenti	-14257
▁émerger	-14258
▁étriers	-14259
asculaire	-14260
entielles	-14261
innenstad	-14262
interdire	-14263
japonaise	-14264
liminaire	-14265
nutrition	-14266
omatiques	-14267
ontements	-14268
ontologie	-14269
opithecus	-14270
opolamine	-14271
opération	-14272
oquinerie	-14273
orchestre	-14274
ordentown	-14275
organiser	-14276
oritaires	-14277
orsellino	-14278
osauridae	-14279
ouchtchev	-14280
ovisionné	-14281
quatrième	-14282
revention	-14283
ristoffer	-14284
rymogènes	-14285
terrestre	-14286
tiquaires	-14287
tographie	-14288
troscopie	-14289
udiciable	-14290
urbanisme	-14291
urrection	-14292
viométrie	-14293
Édimbourg	-14294
économies	-14295
écrivains	-14296
écroulait	-14297
éditation	-14298
élections	-14299
iao	-14300
abia	-14301
enia	-14302
ichy	-14303
yrie	-14304
yrne	-14305
yros	-14306
èdes	-14307
▁040	-14308
▁130	-14309
▁35°	-14310
▁hei	-14311
▁pyr	-14312
alley	-14313
ichel	-14314
ippol	-14315
myrne	-14316
sides	-14317
▁Fich	-14318
▁Nich	-14319
▁Patr	-14320
▁liée	-14321
arenia	-14322
enland	-14323
ippoly	-14324
ipèdes	-14325
▁Aless	-14326
▁Chiao	-14327
▁Enfin	-14328
▁Ethel	-14329
▁Fools	-14330
▁Jeong	-14331
▁Syrie	-14332
▁Vichy	-14333
▁gyros	-14334
▁ondes	-14335
▁sagas	-14336
adsides	-14337
aptisée	-14338
ichella	-14339
pectant	-14340
titudes	-14341
ureland	-14342
yrienne	-14343
▁2:11.6	-14344
▁Felici	-14345
▁Fichte	-14346
▁Nichol	-14347
▁Patrol	-14348
▁Smyrne	-14349
▁Valley	-14350
▁bonnet	-14351
▁mondes	-14352
▁médina	-14353
▁provis	-14354
▁tisane	-14355
actitude	-14356
ippolyte	-14357
orateurs	-14358
tinentes	-14359
ératives	-14360
▁2:11.60	-14361
▁Felicia	-14362
▁Jeongeu	-14363
▁Karenia	-14364
▁Steward	-14365
▁bipèdes	-14366
▁liaison	-14367
isichella	-14368
éléphants	-14369
élérerait	-14370
émissions	-14371
étudiants	-14372
éventuels	-14373
▁1995-96,	-14374
▁4:41.30,	-14375
▁Addenbro	-14376
▁Afghanes	-14377
▁Alessand	-14378
▁Alliance	-14379
▁Aristote	-14380
▁Artifici	-14381
▁Auckland	-14382
▁Bafokeng	-14383
▁Barcelon	-14384
▁Bellings	-14385
▁Benjamin	-14386
▁Berliner	-14387
▁Brisbane	-14388
▁Bucarest	-14389
▁Canadien	-14390
▁Chandray	-14391
▁Chhatrap	-14392
▁Copernic	-14393
▁Couronne	-14394
▁Ehrenstr	-14395
▁Electric	-14396
▁Eléments	-14397
▁Esquimau	-14398
▁Ethelred	-14399
ryg	-14400
▁68	-14401
▁69	-14402
aked	-14403
rygv	-14404
ufth	-14405
umth	-14406
▁688	-14407
▁700	-14408
Bumth	-14409
abatt	-14410
ambou	-14411
itals	-14412
ompét	-14413
reint	-14414
résor	-14415
éloge	-14416
▁Lamb	-14417
▁cabo	-14418
Centre	-14419
attant	-14420
chèque	-14421
enseur	-14422
temple	-14423
▁1772,	-14424
▁Kense	-14425
▁Lufth	-14426
▁Naked	-14427
▁Trygv	-14428
▁dense	-14429
▁inspe	-14430
▁naval	-14431
▁skier	-14432
chetant	-14433
chettes	-14434
fiction	-14435
oitiers	-14436
▁Flotte	-14437
▁Trésor	-14438
▁botrel	-14439
▁cabine	-14440
▁canaux	-14441
▁devint	-14442
▁dérout	-14443
▁gratif	-14444
▁joints	-14445
▁navale	-14446
▁skieur	-14447
▁suivit	-14448
▁timbre	-14449
Bumthang	-14450
abattage	-14451
ambition	-14452
▁Kenseth	-14453
▁Tchèque	-14454
▁charrie	-14455
▁dépense	-14456
▁estimer	-14457
▁sentant	-14458
▁skieurs	-14459
▁suivies	-14460
ompétents	-14461
ouchettes	-14462
▁Capitals	-14463
▁Ethereld	-14464
▁Fairmont	-14465
▁Finances	-14466
▁Gaziante	-14467
▁Golsling	-14468
▁Groening	-14469
▁Guardian	-14470
▁Hambourg	-14471
▁Harappan	-14472
▁Hastings	-14473
▁Herzberg	-14474
▁Horrocks	-14475
▁Intrigue	-14476
▁Irkoutsk	-14477
▁Javanais	-14478
▁Jeongeum	-14479
▁Johndroe	-14480
▁Khamenei	-14481
▁Kingsway	-14482
▁Lettonie	-14483
▁Lituanie	-14484
▁Lockwood	-14485
▁Lufthans	-14486
▁Maryland	-14487
▁Muchanga	-14488
▁Mélangez	-14489
▁Nagasaki	-14490
▁Nicholas	-14491
▁Oneworld	-14492
▁Ouïghour	-14493
▁Panthera	-14494
▁Pattavee	-14495
▁Personne	-14496
▁Plitvice	-14497
▁Pureland	-14498
▁Quatorze	-14499
UTC	-14500
ahl	-14501
iah	-14502
ahar	-14503
ahne	-14504
ahul	-14505
hane	-14506
éché	-14507
ümqi	-14508
▁Jaz	-14509
▁Mah	-14510
rümqi	-14511
ylard	-14512
zones	-14513
▁Jazz	-14514
▁Noor	-14515
▁flac	-14516
▁flam	-14517
▁flot	-14518
▁trah	-14519
aréfie	-14520
entrai	-14521
erhane	-14522
oyager	-14523
remiah	-14524
Ürümqi	-14525
▁2008.	-14526
▁Kahne	-14527
▁Mahal	-14528
▁Rahul	-14529
▁allie	-14530
▁arché	-14531
▁besan	-14532
▁cloué	-14533
▁crédi	-14534
▁créés	-14535
▁gérer	-14536
Uppsala	-14537
andahar	-14538
avement	-14539
▁Khéops	-14540
▁barbes	-14541
▁géolog	-14542
▁résolu	-14543
▁touché	-14544
▁Ürümqi	-14545
▁Berhane	-14546
▁Eighmey	-14547
▁Espagne	-14548
▁Voyager	-14549
▁asséché	-14550
▁emmagas	-14551
▁facteur	-14552
▁flacons	-14553
▁flotter	-14554
▁limités	-14555
▁orléans	-14556
▁persane	-14557
▁raréfie	-14558
▁razzias	-14559
▁remport	-14560
▁rendiez	-14561
▁réduves	-14562
▁salaire	-14563
▁Belgrade	-14564
▁Jeremiah	-14565
▁Kandahar	-14566
▁Quelques	-14567
▁Rassurez	-14568
▁Research	-14569
▁Riomaggi	-14570
▁Rogaland	-14571
▁Saarinen	-14572
▁Santiago	-14573
▁Santorum	-14574
▁Schlegel	-14575
▁Shetland	-14576
▁Siriporn	-14577
▁Sophocle	-14578
▁Speedway	-14579
▁Suédoise	-14580
▁Sveriges	-14581
▁Symphony	-14582
▁Tanzanie	-14583
▁Trygvass	-14584
▁Veguilla	-14585
▁Vernazza	-14586
▁Yarmouth	-14587
▁Zapatero	-14588
▁abordées	-14589
▁abritait	-14590
▁absorbés	-14591
▁acceptée	-14592
▁accordés	-14593
▁accusées	-14594
▁achetant	-14595
▁adoptent	-14596
▁adresses	-14597
▁adressée	-14598
▁adéquate	-14599
SPCA	-14600
elow	-14601
ixon	-14602
ower	-14603
peti	-14604
▁Iow	-14605
▁Tip	-14606
bules	-14607
guant	-14608
maréc	-14609
obsté	-14610
raigs	-14611
érive	-14612
étape	-14613
▁Iowa	-14614
▁aggr	-14615
▁calv	-14616
▁mène	-14617
▁renv	-14618
▁vogu	-14619
ernité	-14620
eselow	-14621
petits	-14622
étirer	-14623
▁Morts	-14624
▁Nixon	-14625
▁Power	-14626
▁RSPCA	-14627
▁bourg	-14628
▁digne	-14629
▁essai	-14630
▁nuits	-14631
▁roger	-14632
citeurs	-14633
gueriez	-14634
obstétr	-14635
▁Craigs	-14636
▁Dromae	-14637
▁Google	-14638
▁Romain	-14639
▁Tipper	-14640
▁aggrav	-14641
▁agiles	-14642
▁dérive	-14643
▁finish	-14644
▁fraise	-14645
▁incass	-14646
▁quitta	-14647
▁renouv	-14648
▁seriez	-14649
▁voyiez	-14650
anapolis	-14651
ibiennes	-14652
plendeur	-14653
renables	-14654
▁Kennedy	-14655
▁Keselow	-14656
▁abrupts	-14657
▁apprent	-14658
▁filante	-14659
▁options	-14660
▁renvoie	-14661
Zélandais	-14662
liciteurs	-14663
marécages	-14664
▁aiderait	-14665
▁amérique	-14666
▁anglaise	-14667
▁aperçues	-14668
▁apportée	-14669
▁aquarium	-14670
▁arborait	-14671
▁argentin	-14672
▁arnaques	-14673
▁assureur	-14674
▁attachés	-14675
▁attaquer	-14676
▁attentes	-14677
▁attirent	-14678
▁autoproc	-14679
▁autorisé	-14680
▁avancent	-14681
▁aventure	-14682
▁aversion	-14683
▁baignade	-14684
▁baptisée	-14685
▁barbules	-14686
▁batteurs	-14687
▁besançon	-14688
▁bilingue	-14689
▁boréales	-14690
▁branches	-14691
▁bulletin	-14692
▁cailloux	-14693
▁candidat	-14694
▁cannabis	-14695
▁capteurs	-14696
▁capturés	-14697
▁carrosse	-14698
▁catalane	-14699
AA	-14700
AL	-14701
Ac	-14702
0).	-14703
ALM	-14704
ets	-14705
ext	-14706
iPh	-14707
▁13	-14708
▁IT	-14709
[...]
