<unk>	0
<s>	0
</s>	0
▁d	-0
▁l	-1
es	-2
▁p	-3
en	-4
ou	-5
▁c	-6
▁s	-7
on	-8
ai	-9
qu	-10
▁a	-11
▁de	-12
re	-13
▁m	-14
▁qu	-15
il	-16
▁n	-17
an	-18
▁j	-19
er	-20
▁t	-21
eu	-22
▁v	-23
▁pa	-24
ent	-25
et	-26
is	-27
est	-28
▁f	-29
▁la	-30
▁le	-31
it	-32
ous	-33
un	-34
▁et	-35
le	-36
our	-37
oi	-38
▁il	-39
el	-40
▁pas	-41
▁à	-42
om	-43
▁en	-44
us	-45
▁les	-46
ait	-47
▁un	-48
▁que	-49
ais	-50
▁r	-51
▁je	-52
me	-53
or	-54
in	-55
ét	-56
▁"	-57
ant	-58
▁b	-59
ont	-60
ar	-61
ce	-62
eur	-63
au	-64
▁est	-65
▁vous	-66
em	-67
▁ne	-68
▁au	-69
at	-70
▁par	-71
▁pour	-72
ion	-73
▁ce	-74
és	-75
▁pr	-76
ui	-77
..	-78
▁qui	-79
ve	-80
te	-81
ans	-82
▁des	-83
▁?	-84
▁su	-85
▁di	-86
▁dans	-87
▁se	-88
tre	-89
▁ch	-90
onn	-91
ch	-92
▁com	-93
▁1	-94
▁pl	-95
▁g	-96
▁du	-97
elle	-98
▁ét	-99
res	-100
▁tr	-101
ien	-102
▁tou	-103
ain	-104
se	-105
▁une	-106
av	-107
ie	-108
▁nous	-109
▁h	-110
eux	-111
end	-112
▁re	-113
al	-114
ment	-115
ère	-116
▁mais	-117
ag	-118
de	-119
ons	-120
ir	-121
pr	-122
ée	-123
ér	-124
▁plus	-125
am	-126
as	-127
▁2	-128
ois	-129
ils	-130
▁dieu	-131
▁lui	-132
éc	-133
ig	-134
▁tout	-135
les	-136
os	-137
ers	-138
ac	-139
ort	-140
▁tu	-141
▁av	-142
si	-143
▁sont	-144
▁mon	-145
...	-146
▁an	-147
and	-148
aire	-149
▁ave	-150
▁fait	-151
▁ils	-152
ab	-153
▁dit	-154
ap	-155
ation	-156
ouv	-157
▁sur	-158
▁moi	-159
▁jour	-160
▁y	-161
ff	-162
▁ré	-163
im	-164
▁peu	-165
que	-166
iv	-167
▁cel	-168
ement	-169
ci	-170
▁son	-171
ra	-172
ut	-173
▁sa	-174
ès	-175
▁avec	-176
▁!	-177
ign	-178
oir	-179
mes	-180
▁ai	-181
être	-182
oy	-183
▁dis	-184
▁suis	-185
▁pro	-186
ité	-187
▁e	-188
aient	-189
omme	-190
ct	-191
▁comme	-192
ésus	-193
▁al	-194
▁dé	-195
▁jésus	-196
▁elle	-197
ez	-198
▁ou	-199
ol	-200
▁cr	-201
."	-202
ang	-203
▁faire	-204
▁été	-205
oit	-206
▁leur	-207
ême	-208
jour	-209
▁si	-210
▁ser	-211
▁tous	-212
emp	-213
▁é	-214
▁o	-215
▁gr	-216
ist	-217
aut	-218
ur	-219
ille	-220
id	-221
ors	-222
ants	-223
ance	-224
▁-	-225
ne	-226
êt	-227
▁3	-228
▁bien	-229
ier	-230
▁aus	-231
ic	-232
▁con	-233
uis	-234
▁fils	-235
ux	-236
oin	-237
▁aussi	-238
onne	-239
était	-240
eau	-241
age	-242
▁in	-243
▁ans	-244
▁ent	-245
▁enf	-246
ul	-247
▁me	-248
▁ap	-249
▁car	-250
▁cet	-251
▁quel	-252
▁fr	-253
▁père	-254
ens	-255
uit	-256
une	-257
ue	-258
▁ont	-259
▁était	-260
▁ses	-261
▁on	-262
ale	-263
▁nom	-264
ess	-265
▁cela	-266
▁être	-267
▁monde	-268
▁peut	-269
▁même	-270
▁pers	-271
eurs	-272
ore	-273
oup	-274
ommes	-275
che	-276
vez	-277
▁donn	-278
▁fem	-279
▁part	-280
ri	-281
▁jus	-282
igneur	-283
ad	-284
hui	-285
▁4	-286
ill	-287
jourd	-288
▁ar	-289
▁mar	-290
▁dev	-291
bre	-292
rent	-293
▁seigneur	-294
ure	-295
erre	-296
vous	-297
▁vie	-298
▁mort	-299
▁cette	-300
ions	-301
ot	-302
▁avait	-303
homme	-304
ail	-305
ord	-306
▁aux	-307
ert	-308
ées	-309
onc	-310
imp	-311
▁aujourd	-312
▁ma	-313
otre	-314
▁ex	-315
app	-316
endre	-317
▁dem	-318
▁temp	-319
▁cont	-320
rist	-321
quoi	-322
▁enfants	-323
ern	-324
um	-325
▁celui	-326
aint	-327
▁deux	-328
ière	-329
ond	-330
▁enc	-331
rai	-332
▁rép	-333
▁es	-334
▁env	-335
bl	-336
if	-337
▁aut	-338
ex	-339
▁comm	-340
ph	-341
▁pourquoi	-342
▁seu	-343
éd	-344
out	-345
▁alors	-346
ble	-347
▁ceux	-348
▁encore	-349
pl	-350
près	-351
▁oui	-352
int	-353
▁as	-354
eure	-355
▁femme	-356
én	-357
iens	-358
ça	-359
oire	-360
▁5	-361
ard	-362
ient	-363
▁puis	-364
tr	-365
ères	-366
▁très	-367
ique	-368
▁homme	-369
▁toi	-370
▁non	-371
▁où	-372
▁conn	-373
ose	-374
▁jours	-375
▁déc	-376
pt	-377
êtes	-378
isra	-379
ole	-380
cc	-381
él	-382
▁rien	-383
endant	-384
ass	-385
elles	-386
▁cons	-387
prit	-388
▁donc	-389
iss	-390
ite	-391
ge	-392
née	-393
▁20	-394
▁ces	-395
▁vrai	-396
ler	-397
▁ça	-398
ël	-399
▁app	-400
▁grand	-401
▁pass	-402
ouve	-403
▁beau	-404
ence	-405
▁temps	-406
ieux	-407
▁éc	-408
▁ca	-409
▁dire	-410
entre	-411
ise	-412
▁maison	-413
enir	-414
aiss	-415
èrent	-416
op	-417
ép	-418
▁peur	-419
▁jusqu	-420
▁6	-421
▁ju	-422
▁trois	-423
ég	-424
▁roi	-425
▁terre	-426
▁vér	-427
rit	-428
able	-429
▁am	-430
ques	-431
▁sav	-432
▁eu	-433
▁pos	-434
orm	-435
israël	-436
riv	-437
▁trav	-438
▁êtes	-439
▁li	-440
▁comment	-441
ande	-442
▁parce	-443
ah	-444
ile	-445
▁mes	-446
aime	-447
▁fois	-448
ém	-449
▁rest	-450
ine	-451
▁10	-452
acc	-453
▁là	-454
ains	-455
▁jam	-456
▁christ	-457
▁mal	-458
ys	-459
▁eux	-460
era	-461
ème	-462
▁autres	-463
oul	-464
éch	-465
▁mat	-466
▁soit	-467
coup	-468
▁ni	-469
▁sommes	-470
▁beaucoup	-471
ôt	-472
▁toute	-473
jours	-474
ob	-475
▁quand	-476
▁aim	-477
▁toujours	-478
ces	-479
aux	-480
▁per	-481
▁ville	-482
ction	-483
▁mont	-484
▁jamais	-485
▁voi	-486
ations	-487
▁vérité	-488
▁8	-489
ainsi	-490
orte	-491
ace	-492
▁pre	-493
▁sais	-494
autre	-495
▁lors	-496
▁ainsi	-497
▁eff	-498
▁personne	-499
▁sera	-500
▁sau	-501
je	-502
autres	-503
▁bon	-504
▁sou	-505
▁ret	-506
▁all	-507
esp	-508
▁notre	-509
▁19	-510
aî	-511
▁at	-512
ents	-513
cip	-514
fin	-515
enant	-516
▁faut	-517
▁pouv	-518
▁personn	-519
▁vers	-520
di	-521
▁7	-522
▁fais	-523
▁travail	-524
aim	-525
▁veux	-526
▁roy	-527
▁mère	-528
▁ég	-529
enu	-530
att	-531
use	-532
▁hommes	-533
esprit	-534
▁mang	-535
ense	-536
▁toutes	-537
ins	-538
▁mo	-539
▁leurs	-540
▁conf	-541
alement	-542
▁comp	-543
▁seul	-544
ré	-545
▁peux	-546
même	-547
▁te	-548
▁pris	-549
vent	-550
▁quoi	-551
▁trouv	-552
oses	-553
tu	-554
art	-555
▁entre	-556
ay	-557
▁choses	-558
étais	-559
▁nouve	-560
aume	-561
▁ph	-562
▁jeu	-563
▁après	-564
▁prem	-565
▁pays	-566
avais	-567
▁répond	-568
▁arriv	-569
iel	-570
▁fin	-571
▁jér	-572
vit	-573
là	-574
all	-575
▁maint	-576
ête	-577
▁parole	-578
œur	-579
ié	-580
rait	-581
▁prés	-582
▁royaume	-583
▁afin	-584
og	-585
rez	-586
▁demand	-587
▁dés	-588
cher	-589
▁bonne	-590
tes	-591
▁cor	-592
▁9	-593
▁[	-594
▁donné	-595
ivre	-596
▁pet	-597
▁fut	-598
itu	-599
▁peup	-600
▁man	-601
oint	-602
▁diff	-603
▁fam	-604
iez	-605
endu	-606
▁mois	-607
enc	-608
aine	-609
puis	-610
▁ab	-611
yp	-612
▁vu	-613
▁bes	-614
▁vraiment	-615
▁frères	-616
▁va	-617
ress	-618
avez	-619
▁sour	-620
▁cert	-621
▁ton	-622
▁besoin	-623
▁avez	-624
▁votre	-625
▁nouveau	-626
▁acc	-627
▁nombre	-628
enf	-629
jet	-630
ante	-631
▁ad	-632
▁étaient	-633
▁cas	-634
▁gens	-635
▁pendant	-636
▁att	-637
iste	-638
▁18	-639
gn	-640
▁maintenant	-641
uv	-642
▁quest	-643
iers	-644
pos	-645
ernel	-646
oute	-647
ages	-648
ente	-649
▁mis	-650
▁saint	-651
▁personnes	-652
▁avons	-653
▁rem	-654
▁contre	-655
▁sans	-656
▁chose	-657
▁loi	-658
avait	-659
alem	-660
usalem	-661
ire	-662
▁rev	-663
▁cour	-664
▁envoy	-665
▁avoir	-666
▁auc	-667
▁jérusalem	-668
▁moin	-669
arg	-670
▁depuis	-671
▁appr	-672
lement	-673
fs	-674
▁peuple	-675
▁point	-676
▁compr	-677
▁déb	-678
▁dav	-679
▁cré	-680
▁11	-681
▁sort	-682
▁che	-683
▁15	-684
illes	-685
▁gl	-686
év	-687
▁rés	-688
irent	-689
amour	-690
▁sauv	-691
are	-692
00	-693
ice	-694
roit	-695
▁journée	-696
ter	-697
▁moins	-698
:1	-699
▁dét	-700
▁autre	-701
▁gu	-702
ième	-703
▁nouv	-704
oc	-705
agn	-706
ong	-707
appr	-708
▁heure	-709
ici	-710
éri	-711
▁matin	-712
▁mari	-713
oyez	-714
▁retour	-715
▁met	-716
▁br	-717
▁nuit	-718
lé	-719
▁elles	-720
▁pai	-721
▁ciel	-722
▁or	-723
▁12	-724
▁chez	-725
▁14	-726
▁17	-727
▁voul	-728
▁simp	-729
tant	-730
▁appel	-731
▁pu	-732
rais	-733
act	-734
▁im	-735
▁foi	-736
▁proph	-737
▁rec	-738
▁petit	-739
▁imp	-740
▁sui	-741
ements	-742
▁discip	-743
▁aime	-744
▁voir	-745
▁chem	-746
▁13	-747
▁."	-748
▁quelqu	-749
eures	-750
ing	-751
▁reg	-752
▁paix	-753
▁sem	-754
ect	-755
▁passé	-756
▁avant	-757
▁vais	-758
▁lang	-759
▁sign	-760
cl	-761
▁ann	-762
iance	-763
▁fer	-764
▁mer	-765
▁chemin	-766
ète	-767
▁également	-768
▁veu	-769
▁sal	-770
▁col	-771
▁david	-772
▁péch	-773
christ	-774
▁enfant	-775
▁effet	-776
▁rel	-777
sez	-778
▁début	-779
▁for	-780
ffr	-781
▁uns	-782
▁k	-783
▁disciples	-784
▁fac	-785
▁rend	-786
▁cieux	-787
▁frère	-788
▁pens	-789
▁livre	-790
▁16	-791
▁long	-792
▁cond	-793
▁savez	-794
▁â	-795
▁doit	-796
▁ass	-797
argent	-798
agit	-799
▁envoyé	-800
▁souv	-801
ult	-802
▁coup	-803
▁soi	-804
▁viv	-805
ps	-806
▁famille	-807
▁min	-808
▁connaiss	-809
▁jui	-810
ov	-811
anc	-812
▁déj	-813
▁cher	-814
▁manger	-815
omb	-816
ïse	-817
▁écrit	-818
apt	-819
▁ter	-820
avoir	-821
ies	-822
ypte	-823
▁voit	-824
▁moïse	-825
▁.	-826
omp	-827
▁devant	-828
▁grande	-829
oie	-830
▁prêt	-831
iqu	-832
▁fille	-833
oles	-834
▁femmes	-835
util	-836
▁sept	-837
▁donne	-838
lez	-839
▁nouvelle	-840
arde	-841
▁vis	-842
▁suiv	-843
▁cause	-844
▁der	-845
och	-846
▁fa	-847
▁déjà	-848
▁question	-849
▁heures	-850
ition	-851
nes	-852
▁cl	-853
▁heureux	-854
▁hum	-855
ellement	-856
▁24	-857
▁venu	-858
sible	-859
▁morts	-860
▁confiance	-861
aires	-862
▁cœur	-863
▁mour	-864
ieu	-865
enez	-866
▁ép	-867
▁donner	-868
çon	-869
aill	-870
ompl	-871
▁lorsque	-872
▁pense	-873
▁auprès	-874
▁puiss	-875
▁port	-876
ach	-877
▁cha	-878
▁entendu	-879
éh	-880
agne	-881
▁simple	-882
▁ob	-883
▁parler	-884
▁nos	-885
ues	-886
bres	-887
▁vol	-888
up	-889
iques	-890
pendant	-891
aines	-892
▁tém	-893
▁22	-894
▁vi	-895
▁seulement	-896
aimer	-897
appel	-898
▁soir	-899
▁vient	-900
ible	-901
ats	-902
nent	-903
▁quelques	-904
▁act	-905
▁ress	-906
▁jean	-907
▁23	-908
▁lieu	-909
env	-910
▁sy	-911
▁grâ	-912
▁présent	-913
▁gloire	-914
▁premier	-915
▁cependant	-916
▁droit	-917
aît	-918
▁jug	-919
:2	-920
▁quat	-921
ham	-922
▁cin	-923
▁différ	-924
ip	-925
....	-926
▁jeune	-927
▁voici	-928
ront	-929
▁ins	-930
urent	-931
▁jud	-932
ention	-933
▁21	-934
▁dern	-935
▁sujet	-936
der	-937
uite	-938
▁ri	-939
iend	-940
▁corps	-941
▁peuvent	-942
▁comb	-943
▁mom	-944
avons	-945
▁juifs	-946
oins	-947
ienne	-948
▁sous	-949
iser	-950
ann	-951
▁perm	-952
▁lev	-953
▁co	-954
▁sup	-955
▁ens	-956
▁place	-957
▁quelque	-958
ieurs	-959
▁serv	-960
rive	-961
▁sec	-962
▁avaient	-963
exc	-964
▁dois	-965
aï	-966
▁facile	-967
▁plusieurs	-968
▁décl	-969
▁reç	-970
▁mot	-971
▁tour	-972
▁servit	-973
iment	-974
▁soyez	-975
▁ta	-976
th	-977
té	-978
ze	-979
▁maî	-980
▁25	-981
ances	-982
▁hab	-983
▁lum	-984
ib	-985
▁bou	-986
▁conv	-987
▁command	-988
▁pier	-989
▁vos	-990
ell	-991
▁prof	-992
▁0	-993
alité	-994
▁bapt	-995
form	-996
▁sac	-997
▁pourtant	-998
heure	-999
ités	-1000
▁ici	-1001
onse	-1002
nous	-1003
▁perd	-1004
▁chaque	-1005
moi	-1006
raham	-1007
▁laiss	-1008
▁voy	-1009
▁ag	-1010
▁sel	-1011
▁prendre	-1012
▁prison	-1013
▁201	-1014
od	-1015
▁repr	-1016
▁demande	-1017
▁dép	-1018
▁tomb	-1019
ends	-1020
▁desc	-1021
aître	-1022
▁pri	-1023
▁moment	-1024
▁savoir	-1025
mi	-1026
ches	-1027
▁dou	-1028
▁faites	-1029
,"	-1030
▁ven	-1031
▁cap	-1032
▁parle	-1033
▁réponse	-1034
▁dont	-1035
arr	-1036
édi	-1037
▁eut	-1038
▁quatre	-1039
▁sol	-1040
▁sang	-1041
▁aucun	-1042
▁ense	-1043
▁suite	-1044
ges	-1045
▁selon	-1046
▁...	-1047
▁pou	-1048
▁bén	-1049
oign	-1050
éternel	-1051
onté	-1052
▁aura	-1053
▁aimé	-1054
êmes	-1055
▁esprit	-1056
uc	-1057
▁vou	-1058
▁dix	-1059
▁pard	-1060
▁fl	-1061
▁st	-1062
ables	-1063
▁sp	-1064
erv	-1065
▁div	-1066
▁resp	-1067
▁envie	-1068
▁possible	-1069
équ	-1070
▁fort	-1071
appelle	-1072
▁temple	-1073
▁just	-1074
lise	-1075
air	-1076
▁répondit	-1077
ché	-1078
▁enseign	-1079
▁prop	-1080
▁veut	-1081
▁trouve	-1082
ailleurs	-1083
▁grâce	-1084
veill	-1085
fait	-1086
▁font	-1087
▁train	-1088
eternel	-1089
▁seront	-1090
asse	-1091
embl	-1092
▁fou	-1093
▁pouvoir	-1094
▁rom	-1095
▁aucune	-1096
emble	-1097
▁parents	-1098
abord	-1099
▁sent	-1100
▁amis	-1101
▁mieux	-1102
▁aff	-1103
rer	-1104
ovah	-1105
▁mill	-1106
▁aller	-1107
▁commenc	-1108
ange	-1109
▁voiture	-1110
lev	-1111
occ	-1112
▁conc	-1113
▁reste	-1114
▁lumière	-1115
▁ouv	-1116
ateur	-1117
▁parmi	-1118
omm	-1119
▁guerre	-1120
▁joie	-1121
▁bible	-1122
▁venir	-1123
▁tard	-1124
▁lorsqu	-1125
rée	-1126
▁feu	-1127
▁parl	-1128
▁trop	-1129
accord	-1130
enfant	-1131
▁év	-1132
▁yeux	-1133
▁th	-1134
▁regard	-1135
▁paroles	-1136
▁?"	-1137
▁fit	-1138
▁main	-1139
cept	-1140
ingt	-1141
▁sœur	-1142
user	-1143
▁sait	-1144
▁ay	-1145
oil	-1146
dre	-1147
▁réc	-1148
riture	-1149
uvre	-1150
▁crois	-1151
isé	-1152
▁no	-1153
▁26	-1154
▁paul	-1155
▁prod	-1156
▁jéh	-1157
▁rég	-1158
▁façon	-1159
▁porte	-1160
▁chac	-1161
▁langue	-1162
ied	-1163
▁croy	-1164
▁prom	-1165
▁bl	-1166
ites	-1167
▁partout	-1168
▁signif	-1169
ève	-1170
▁cent	-1171
▁maître	-1172
▁loin	-1173
▁pierre	-1174
utes	-1175
els	-1176
▁jéhovah	-1177
▁jac	-1178
▁diffic	-1179
▁contin	-1180
▁prin	-1181
▁prophète	-1182
né	-1183
encont	-1184
uire	-1185
▁déf	-1186
uses	-1187
▁dém	-1188
▁disp	-1189
ath	-1190
▁juste	-1191
▁rais	-1192
▁dès	-1193
▁util	-1194
▁étern	-1195
nem	-1196
idé	-1197
▁sc	-1198
▁pied	-1199
▁bat	-1200
▁belle	-1201
▁préc	-1202
▁rendre	-1203
▁sourire	-1204
ience	-1205
▁certains	-1206
man	-1207
▁tant	-1208
▁celle	-1209
▁tête	-1210
▁entend	-1211
▁int	-1212
▁contr	-1213
éb	-1214
▁mettre	-1215
ures	-1216
▁compte	-1217
▁emp	-1218
▁pouvez	-1219
▁haut	-1220
▁mé	-1221
▁chef	-1222
▁28	-1223
▁chang	-1224
▁z	-1225
▁face	-1226
▁réf	-1227
inter	-1228
ût	-1229
ettre	-1230
où	-1231
!!	-1232
▁reconn	-1233
▁chacun	-1234
eg	-1235
min	-1236
▁passe	-1237
▁partie	-1238
▁israël	-1239
ade	-1240
▁minutes	-1241
▁inter	-1242
essay	-1243
aff	-1244
▁nour	-1245
oseph	-1246
amp	-1247
▁rencont	-1248
▁année	-1249
ner	-1250
▁furent	-1251
rif	-1252
▁trans	-1253
▁âg	-1254
▁vois	-1255
uvres	-1256
▁situ	-1257
▁phar	-1258
▁péché	-1259
▁vingt	-1260
gne	-1261
▁près	-1262
istoire	-1263
▁id	-1264
▁quels	-1265
▁él	-1266
ément	-1267
▁joseph	-1268
▁gén	-1269
▁habit	-1270
itude	-1271
▁première	-1272
▁six	-1273
▁trouvé	-1274
uve	-1275
▁jou	-1276
▁rep	-1277
enseign	-1278
ode	-1279
▁arrivé	-1280
▁30	-1281
ras	-1282
emps	-1283
▁aimez	-1284
▁soient	-1285
▁relig	-1286
▁dirent	-1287
▁france	-1288
érieur	-1289
âge	-1290
onné	-1291
▁montagne	-1292
▁nations	-1293
▁propos	-1294
▁sam	-1295
▁mess	-1296
▁aimer	-1297
▁commence	-1298
▁ac	-1299
▁ah	-1300
▁rap	-1301
▁cinq	-1302
accompl	-1303
▁partir	-1304
▁route	-1305
cev	-1306
ours	-1307
▁éternelle	-1308
qui	-1309
▁anc	-1310
▁questions	-1311
uits	-1312
▁volonté	-1313
pér	-1314
▁côt	-1315
▁retr	-1316
▁ref	-1317
▁justice	-1318
▁mau	-1319
▁prép	-1320
▁quelle	-1321
fois	-1322
▁voie	-1323
▁vue	-1324
ication	-1325
isation	-1326
▁constr	-1327
▁mourir	-1328
ât	-1329
temps	-1330
ette	-1331
▁w	-1332
ate	-1333
▁mil	-1334
▁rester	-1335
▁sû	-1336
éric	-1337
ression	-1338
emple	-1339
▁quit	-1340
▁em	-1341
▁prière	-1342
▁souff	-1343
▁serait	-1344
▁manière	-1345
▁fond	-1346
▁vin	-1347
▁parti	-1348
▁passer	-1349
▁27	-1350
▁déclar	-1351
rang	-1352
▁malad	-1353
▁années	-1354
▁quelles	-1355
▁né	-1356
▁gar	-1357
▁ord	-1358
▁commun	-1359
az	-1360
uction	-1361
usc	-1362
ager	-1363
année	-1364
▁œ	-1365
:3	-1366
arriv	-1367
▁souffr	-1368
ution	-1369
cin	-1370
▁sacrif	-1371
▁trouver	-1372
esse	-1373
▁demandé	-1374
▁longtemps	-1375
arrive	-1376
▁probl	-1377
▁parlé	-1378
▁import	-1379
oci	-1380
hum	-1381
▁détr	-1382
▁seule	-1383
▁boire	-1384
oiss	-1385
▁nombreuses	-1386
▁disant	-1387
▁dél	-1388
▁anges	-1389
aide	-1390
jou	-1391
▁end	-1392
▁meill	-1393
▁off	-1394
▁lais	-1395
étaient	-1396
iés	-1397
ises	-1398
inc	-1399
ivers	-1400
▁sages	-1401
iennent	-1402
ime	-1403
▁liv	-1404
▁garde	-1405
▁lib	-1406
▁mains	-1407
resse	-1408
▁rév	-1409
aie	-1410
▁sat	-1411
▁jeunes	-1412
▁ensuite	-1413
▁voix	-1414
ène	-1415
abraham	-1416
▁inc	-1417
▁imm	-1418
▁phil	-1419
▁témoins	-1420
▁sens	-1421
abl	-1422
éf	-1423
ett	-1424
embre	-1425
▁pe	-1426
ature	-1427
▁40	-1428
onte	-1429
isés	-1430
vais	-1431
ètes	-1432
▁connu	-1433
▁puissance	-1434
▁:	-1435
▁pieds	-1436
▁commencé	-1437
ayez	-1438
eff	-1439
ira	-1440
lent	-1441
▁envir	-1442
▁art	-1443
▁merci	-1444
▁pourrait	-1445
oix	-1446
été	-1447
▁pain	-1448
▁conse	-1449
allah	-1450
▁char	-1451
issement	-1452
ières	-1453
▁ceci	-1454
occup	-1455
▁aimés	-1456
eté	-1457
▁recev	-1458
▁val	-1459
▁form	-1460
▁publ	-1461
▁sole	-1462
▁mauvais	-1463
▁sép	-1464
▁dorm	-1465
▁connais	-1466
one	-1467
▁rac	-1468
▁soleil	-1469
▁continu	-1470
▁serviteur	-1471
▁gal	-1472
ilité	-1473
▁savait	-1474
rib	-1475
itié	-1476
approch	-1477
▁prêtres	-1478
▁rue	-1479
▁petits	-1480
▁200	-1481
▁ennem	-1482
èv	-1483
ave	-1484
des	-1485
oubl	-1486
port	-1487
oqu	-1488
toi	-1489
▁rè	-1490
oque	-1491
oivent	-1492
pe	-1493
▁cru	-1494
▁croire	-1495
église	-1496
▁vivre	-1497
▁faisait	-1498
▁group	-1499
▁bar	-1500
écoute	-1501
▁foule	-1502
▁ind	-1503
▁perdu	-1504
▁existe	-1505
ets	-1506
▁!"	-1507
anté	-1508
▁disc	-1509
▁réjou	-1510
mêmes	-1511
▁réal	-1512
▁raison	-1513
▁can	-1514
▁reçu	-1515
▁lit	-1516
▁mir	-1517
▁villes	-1518
▁respect	-1519
antes	-1520
▁voud	-1521
▁serez	-1522
mée	-1523
assembl	-1524
▁sauver	-1525
▁signifie	-1526
▁commandement	-1527
▁ver	-1528
ments	-1529
▁vill	-1530
ices	-1531
▁mus	-1532
▁savons	-1533
▁vêt	-1534
▁plaît	-1535
▁gard	-1536
▁dév	-1537
▁accompl	-1538
ainte	-1539
aujourd	-1540
▁aider	-1541
après	-1542
espère	-1543
▁pol	-1544
aille	-1545
▁descend	-1546
▁mariage	-1547
▁propre	-1548
ide	-1549
heur	-1550
▁mille	-1551
urs	-1552
iendra	-1553
▁luc	-1554
▁juda	-1555
▁méde	-1556
▁chev	-1557
▁dernier	-1558
ia	-1559
ident	-1560
▁plut	-1561
ctif	-1562
érit	-1563
icle	-1564
rant	-1565
▁envers	-1566
▁50	-1567
ales	-1568
aron	-1569
▁proch	-1570
▁jacob	-1571
enus	-1572
▁devez	-1573
▁trait	-1574
unis	-1575
▁cherch	-1576
onner	-1577
▁prov	-1578
▁nombreux	-1579
▁prophètes	-1580
▁mise	-1581
hab	-1582
▁devait	-1583
êtres	-1584
▁côté	-1585
égypte	-1586
▁princip	-1587
▁connaissance	-1588
▁caf	-1589
ris	-1590
▁apport	-1591
▁connaître	-1592
uss	-1593
▁fil	-1594
aimerais	-1595
▁apprendre	-1596
▁voil	-1597
▁force	-1598
▁sourit	-1599
▁el	-1600
inform	-1601
▁exemple	-1602
▁compl	-1603
▁diman	-1604
▁is	-1605
entes	-1606
▁isra	-1607
▁rapp	-1608
▁serai	-1609
▁tes	-1610
isme	-1611
▁pat	-1612
▁pouvait	-1613
be	-1614
▁mots	-1615
▁marie	-1616
▁rapid	-1617
▁consid	-1618
▁plutôt	-1619
▁san	-1620
raient	-1621
▁libre	-1622
▁chr	-1623
▁sûr	-1624
▁milieu	-1625
▁regarde	-1626
▁mit	-1627
▁troisième	-1628
ige	-1629
▁sois	-1630
▁mirac	-1631
▁appelé	-1632
ines	-1633
▁arr	-1634
▁trad	-1635
ive	-1636
▁chefs	-1637
iles	-1638
▁bouche	-1639
▁disait	-1640
aign	-1641
▁sagesse	-1642
▁prend	-1643
aissance	-1644
▁ait	-1645
▁anim	-1646
▁nourriture	-1647
espoir	-1648
▁décéd	-1649
▁rempl	-1650
▁humains	-1651
eaux	-1652
igne	-1653
oche	-1654
▁fid	-1655
▁plais	-1656
▁milliers	-1657
▁rapidement	-1658
▁moy	-1659
▁ple	-1660
▁fête	-1661
▁meur	-1662
▁péchés	-1663
▁quant	-1664
▁pi	-1665
▁café	-1666
▁combat	-1667
▁compris	-1668
▁pop	-1669
issez	-1670
▁génér	-1671
▁prêtre	-1672
▁sortir	-1673
arer	-1674
onde	-1675
▁pauvres	-1676
?"	-1677
▁demander	-1678
▁disaient	-1679
▁29	-1680
▁31	-1681
ret	-1682
élé	-1683
▁prise	-1684
èle	-1685
▁tot	-1686
ellig	-1687
▁israél	-1688
▁don	-1689
avant	-1690
▁const	-1691
▁miséric	-1692
▁esp	-1693
▁ayant	-1694
▁écout	-1695
▁recher	-1696
▁ren	-1697
écess	-1698
excuser	-1699
▁doivent	-1700
▁semaine	-1701
▁cou	-1702
▁réveill	-1703
▁créé	-1704
▁colère	-1705
▁deuxième	-1706
▁ressusc	-1707
▁douze	-1708
org	-1709
▁dom	-1710
iter	-1711
▁vont	-1712
▁pharis	-1713
aud	-1714
▁eh	-1715
▁voulu	-1716
▁environ	-1717
euv	-1718
▁popul	-1719
▁dist	-1720
▁serviteurs	-1721
▁cours	-1722
▁dimanche	-1723
▁mod	-1724
▁fi	-1725
▁syn	-1726
▁riche	-1727
▁jo	-1728
▁certaines	-1729
▁devons	-1730
▁nécess	-1731
ouse	-1732
▁(	-1733
▁gouv	-1734
avenir	-1735
▁santé	-1736
▁voilà	-1737
obs	-1738
oss	-1739
ctions	-1740
▁médecin	-1741
▁33	-1742
itre	-1743
▁aide	-1744
▁aband	-1745
▁sembl	-1746
▁donnée	-1747
lais	-1748
honn	-1749
icul	-1750
▁fera	-1751
histoire	-1752
▁difficile	-1753
ari	-1754
yst	-1755
inqui	-1756
entrer	-1757
▁langues	-1758
▁parfait	-1759
ueil	-1760
▁aurait	-1761
▁gouvern	-1762
idi	-1763
avaient	-1764
▁bonheur	-1765
.1	-1766
action	-1767
ences	-1768
▁faim	-1769
▁souh	-1770
▁essay	-1771
▁salut	-1772
▁retourn	-1773
000	-1774
▁chant	-1775
▁souhait	-1776
ordre	-1777
▁sin	-1778
▁bient	-1779
▁appris	-1780
▁témoign	-1781
▁pours	-1782
▁sœurs	-1783
▁dér	-1784
ision	-1785
angile	-1786
▁filles	-1787
▁revenir	-1788
▁pharisiens	-1789
ué	-1790
mais	-1791
▁poss	-1792
issent	-1793
▁appar	-1794
▁jugement	-1795
▁i	-1796
▁sach	-1797
▁retrouv	-1798
▁pourrais	-1799
▁grands	-1800
rir	-1801
▁vivant	-1802
▁bientôt	-1803
▁ensemble	-1804
▁situation	-1805
▁rois	-1806
issait	-1807
▁pouvons	-1808
▁mét	-1809
▁groupe	-1810
la	-1811
▁cal	-1812
▁sim	-1813
▁lève	-1814
▁trib	-1815
ompagn	-1816
▁honte	-1817
par	-1818
auté	-1819
▁méd	-1820
▁sorte	-1821
▁droite	-1822
▁tellement	-1823
istes	-1824
ateurs	-1825
▁étions	-1826
▁prochain	-1827
once	-1828
çons	-1829
estin	-1830
▁prat	-1831
▁chois	-1832
ivement	-1833
ital	-1834
aider	-1835
▁aaron	-1836
gr	-1837
▁allez	-1838
▁religion	-1839
▁étant	-1840
▁réve	-1841
▁malade	-1842
con	-1843
▁lég	-1844
▁chrét	-1845
▁ennemis	-1846
▁travers	-1847
▁ferai	-1848
▁certain	-1849
▁demeure	-1850
opp	-1851
eront	-1852
▁petite	-1853
qué	-1854
nement	-1855
▁mange	-1856
▁plaisir	-1857
▁fon	-1858
▁same	-1859
oût	-1860
éro	-1861
▁bout	-1862
▁désol	-1863
importe	-1864
mé	-1865
▁poiss	-1866
▁annonc	-1867
ièrement	-1868
▁ami	-1869
▁actes	-1870
▁entendre	-1871
▁matth	-1872
▁voudrais	-1873
emb	-1874
essus	-1875
ueill	-1876
urité	-1877
adress	-1878
▁>	-1879
aise	-1880
▁inf	-1881
▁vit	-1882
ession	-1883
rection	-1884
abb	-1885
arrêt	-1886
▁samar	-1887
agog	-1888
orts	-1889
egypte	-1890
ind	-1891
▁siè	-1892
▁abraham	-1893
prim	-1894
▁lou	-1895
▁dormir	-1896
▁gre	-1897
rière	-1898
▁proc	-1899
▁condam	-1900
▁étrang	-1901
▁matthieu	-1902
▁contraire	-1903
yr	-1904
euse	-1905
▁jet	-1906
▁arrive	-1907
▁saints	-1908
éré	-1909
èmes	-1910
▁exc	-1911
édiat	-1912
▁humain	-1913
▁somme	-1914
ouss	-1915
▁autant	-1916
▁samedi	-1917
▁combien	-1918
co	-1919
▁service	-1920
elligence	-1921
▁répondre	-1922
▁mêmes	-1923
▁poser	-1924
▁lettre	-1925
ule	-1926
ulte	-1927
onnes	-1928
èbres	-1929
▁craign	-1930
▁tén	-1931
▁oubl	-1932
▁mesure	-1933
▁comprendre	-1934
▁vict	-1935
...]	-1936
épre	-1937
▁représ	-1938
▁,"	-1939
▁lé	-1940
▁escl	-1941
0.	-1942
aph	-1943
oth	-1944
▁obt	-1945
▁sym	-1946
adore	-1947
▁naissance	-1948
▁âgé	-1949
▁prépar	-1950
enait	-1951
▁x	-1952
▁méch	-1953
▁prie	-1954
▁sauvé	-1955
▁voyez	-1956
▁autour	-1957
▁village	-1958
dire	-1959
▁sud	-1960
enue	-1961
▁assez	-1962
▁nation	-1963
uie	-1964
▁déclaré	-1965
urrection	-1966
rés	-1967
▁allah	-1968
▁gen	-1969
oient	-1970
▁bois	-1971
▁effect	-1972
▁convient	-1973
▁ténèbres	-1974
enseignement	-1975
▁particul	-1976
ost	-1977
éci	-1978
▁32	-1979
illez	-1980
▁règne	-1981
▁attention	-1982
bles	-1983
▁typ	-1984
aband	-1985
amment	-1986
▁découv	-1987
orde	-1988
▁parv	-1989
▁entier	-1990
▁savais	-1991
▁anciens	-1992
▁faisons	-1993
▁problème	-1994
▁désert	-1995
▁•	-1996
▁devenu	-1997
▁création	-1998
▁résurrection	-1999
▁mem	-2000
▁phot	-2001
érance	-2002
▁appelés	-2003
▁voulait	-2004
▁commencement	-2005
orig	-2006
cteur	-2007
▁tent	-2008
▁galil	-2009
▁synagog	-2010
eng	-2011
▁bât	-2012
▁expl	-2013
▁arrêt	-2014
vé	-2015
eus	-2016
▁viens	-2017
uel	-2018
▁35	-2019
quelle	-2020
▁pitié	-2021
▁ouvert	-2022
▁baptisés	-2023
▁pères	-2024
▁pouvais	-2025
ust	-2026
▁bord	-2027
▁image	-2028
:4	-2029
ifest	-2030
allait	-2031
▁souvent	-2032
▁choix	-2033
▁laquelle	-2034
▁manifest	-2035
riez	-2036
▁toutefois	-2037
ud	-2038
eth	-2039
▁prier	-2040
▁demain	-2041
▁demanda	-2042
▁membres	-2043
▁habitants	-2044
▁,	-2045
usé	-2046
▁34	-2047
orer	-2048
▁dir	-2049
▁cham	-2050
▁doul	-2051
▁huit	-2052
univers	-2053
▁dess	-2054
▁[...]	-2055
▁permet	-2056
▁travailler	-2057
▁camp	-2058
ro	-2059
▁cél	-2060
▁tué	-2061
▁four	-2062
▁surv	-2063
intérieur	-2064
école	-2065
▁appart	-2066
inst	-2067
▁allé	-2068
▁chair	-2069
▁resté	-2070
épée	-2071
asser	-2072
image	-2073
▁attend	-2074
▁vêtements	-2075
ombre	-2076
▁prit	-2077
▁fonction	-2078
▁nouvelles	-2079
▁connaissent	-2080
erg	-2081
rire	-2082
▁ach	-2083
▁nord	-2084
▁dispar	-2085
▁prends	-2086
impression	-2087
▁abs	-2088
▁but	-2089
▁prix	-2090
▁péri	-2091
ifs	-2092
▁voulez	-2093
▁laissez	-2094
▁ém	-2095
▁réun	-2096
!"	-2097
ec	-2098
▁inv	-2099
aller	-2100
▁fran	-2101
▁plan	-2102
▁région	-2103
▁rencontre	-2104
mon	-2105
asion	-2106
entend	-2107
▁preuve	-2108
cle	-2109
▁tex	-2110
▁vas	-2111
issant	-2112
itions	-2113
▁résult	-2114
▁rapport	-2115
ak	-2116
yl	-2117
inf	-2118
▁num	-2119
honneur	-2120
▁produit	-2121
▁eg	-2122
quel	-2123
aurais	-2124
▁immédiat	-2125
eug	-2126
▁dég	-2127
▁soum	-2128
▁amour	-2129
▁gagn	-2130
ission	-2131
▁familles	-2132
père	-2133
▁dan	-2134
▁lim	-2135
iquer	-2136
▁grec	-2137
▁proche	-2138
auc	-2139
▁000	-2140
▁bas	-2141
▁tel	-2142
épreuve	-2143
cem	-2144
erne	-2145
années	-2146
▁moyen	-2147
▁pensez	-2148
).	-2149
af	-2150
itôt	-2151
rier	-2152
▁obs	-2153
ich	-2154
▁piè	-2155
▁cess	-2156
antage	-2157
▁verre	-2158
▁'	-2159
tres	-2160
▁ail	-2161
envoy	-2162
enfants	-2163
appelait	-2164
▁particip	-2165
▁utiliser	-2166
▁immédiatement	-2167
isse	-2168
écout	-2169
▁nature	-2170
▁pauvre	-2171
▁trente	-2172
▁viendra	-2173
▁septembre	-2174
êch	-2175
▁prév	-2176
▁assis	-2177
origine	-2178
off	-2179
▁sub	-2180
conque	-2181
▁coeur	-2182
▁rendu	-2183
▁accord	-2184
▁davantage	-2185
œil	-2186
▁ben	-2187
▁lar	-2188
▁rome	-2189
ennent	-2190
iments	-2191
▁peine	-2192
▁satan	-2193
▁recherche	-2194
uer	-2195
ôle	-2196
▁ir	-2197
aves	-2198
expl	-2199
▁inform	-2200
ame	-2201
▁occ	-2202
armée	-2203
orité	-2204
▁marc	-2205
▁disent	-2206
▁simplement	-2207
léch	-2208
▁pleure	-2209
▁croient	-2210
▁répondu	-2211
▁seconde	-2212
▁couv	-2213
▁durant	-2214
▁maladie	-2215
▁auss	-2216
▁invit	-2217
▁marche	-2218
▁riches	-2219
ôtre	-2220
▁êtres	-2221
▁profond	-2222
ub	-2223
tru	-2224
▁38	-2225
▁extr	-2226
▁signe	-2227
▁tenir	-2228
omon	-2229
▁jon	-2230
▁bonnes	-2231
▁aussitôt	-2232
ok	-2233
▁offr	-2234
▁soci	-2235
▁désir	-2236
▁animaux	-2237
▁prières	-2238
escl	-2239
▁cir	-2240
▁not	-2241
▁lire	-2242
▁suff	-2243
▁cinqu	-2244
▁entra	-2245
▁réfléch	-2246
▁mag	-2247
▁trou	-2248
▁march	-2249
20	-2250
dent	-2251
▁éch	-2252
▁inst	-2253
▁jard	-2254
▁trés	-2255
▁tuer	-2256
▁mangé	-2257
intelligence	-2258
éli	-2259
▁gent	-2260
▁prot	-2261
▁projet	-2262
▁compagn	-2263
5.	-2264
dit	-2265
▁ve	-2266
▁allait	-2267
▁celles	-2268
▁crainte	-2269
▁laisser	-2270
▁chercher	-2271
aac	-2272
▁âme	-2273
▁erre	-2274
▁mett	-2275
▁sout	-2276
▁remar	-2277
exp	-2278
lex	-2279
érer	-2280
▁chap	-2281
▁repos	-2282
ume	-2283
▁message	-2284
ias	-2285
▁sé	-2286
▁frapp	-2287
▁tromp	-2288
▁laissé	-2289
▁galilée	-2290
rog	-2291
blig	-2292
▁béb	-2293
▁men	-2294
▁compt	-2295
▁plein	-2296
▁important	-2297
jout	-2298
attend	-2299
▁salomon	-2300
abs	-2301
ettes	-2302
▁terr	-2303
▁penser	-2304
▁efforts	-2305
▁romains	-2306
▁recevoir	-2307
▁étu	-2308
andis	-2309
itable	-2310
ug	-2311
irer	-2312
▁jan	-2313
▁glor	-2314
dessus	-2315
▁suivant	-2316
▁différentes	-2317
emain	-2318
ignor	-2319
▁parc	-2320
▁exact	-2321
pour	-2322
▁firent	-2323
ède	-2324
▁jos	-2325
cture	-2326
rique	-2327
▁tandis	-2328
▁endroit	-2329
quer	-2330
érie	-2331
▁vidé	-2332
▁forme	-2333
▁états	-2334
▁unique	-2335
▁conseils	-2336
▁nu	-2337
pris	-2338
▁rou	-2339
▁préf	-2340
▁meilleur	-2341
▁semaines	-2342
uns	-2343
▁pay	-2344
▁pres	-2345
nés	-2346
▁eur	-2347
ultes	-2348
▁leva	-2349
espérance	-2350
écut	-2351
étu	-2352
iner	-2353
urer	-2354
▁brû	-2355
▁stu	-2356
human	-2357
excuse	-2358
▁conséqu	-2359
▁fav	-2360
▁yah	-2361
agnes	-2362
▁spir	-2363
▁rê	-2364
ives	-2365
▁établ	-2366
▁souvenez	-2367
amen	-2368
aute	-2369
▁pur	-2370
ôtres	-2371
▁ange	-2372
▁coll	-2373
▁prenez	-2374
▁devenir	-2375
▁respons	-2376
euf	-2377
▁bi	-2378
▁déclare	-2379
▁sommeil	-2380
▁trouvait	-2381
elopp	-2382
▁succ	-2383
▁finalement	-2384
▁=	-2385
eglise	-2386
▁so	-2387
este	-2388
inth	-2389
égard	-2390
▁sein	-2391
▁dites	-2392
▁puisse	-2393
périence	-2394
ili	-2395
obé	-2396
▁lu	-2397
▁eng	-2398
esses	-2399
▁vite	-2400
▁priez	-2401
▁pourra	-2402
▁quiconque	-2403
ifié	-2404
onses	-2405
▁souri	-2406
▁suivre	-2407
évangile	-2408
▁poursui	-2409
▁1:	-2410
olog	-2411
▁haï	-2412
arche	-2413
▁bons	-2414
▁faite	-2415
▁venue	-2416
endemain	-2417
▁45	-2418
aces	-2419
▁durée	-2420
▁source	-2421
▁histoire	-2422
▁ressuscité	-2423
imm	-2424
tez	-2425
▁én	-2426
état	-2427
▁syr	-2428
▁décem	-2429
▁accept	-2430
ensemble	-2431
lem	-2432
cool	-2433
▁ang	-2434
ection	-2435
▁résist	-2436
▁musique	-2437
▁37	-2438
appl	-2439
attente	-2440
ération	-2441
▁laisse	-2442
▁écoute	-2443
ome	-2444
▁décidé	-2445
▁réponses	-2446
▁nécessaire	-2447
pa	-2448
pri	-2449
▁équ	-2450
aimes	-2451
prise	-2452
▁rent	-2453
▁croit	-2454
▁dispos	-2455
▁manque	-2456
écriture	-2457
▁arriver	-2458
▁grandes	-2459
▁maisons	-2460
▁spiritu	-2461
ma	-2462
▁bal	-2463
▁pluie	-2464
▁garçon	-2465
▁jardin	-2466
accomplir	-2467
▁abandonné	-2468
pect	-2469
êcher	-2470
▁donna	-2471
▁judée	-2472
▁suppl	-2473
▁décembre	-2474
▁israélites	-2475
▁42	-2476
levé	-2477
inquiète	-2478
▁lendemain	-2479
▁ps	-2480
▁impos	-2481
▁caract	-2482
▁départ	-2483
▁véritable	-2484
isée	-2485
▁pér	-2486
▁changé	-2487
▁rappel	-2488
▁capable	-2489
▁film	-2490
▁stup	-2491
▁connaît	-2492
ote	-2493
▁montre	-2494
▁population	-2495
▁souffrance	-2496
euve	-2497
▁nul	-2498
▁adam	-2499
▁nuits	-2500
▁telle	-2501
▁pardon	-2502
▁concerne	-2503
▁témoignage	-2504
oll	-2505
idée	-2506
▁jes	-2507
▁juin	-2508
▁franç	-2509
▁spéci	-2510
▁appelle	-2511
▁devrait	-2512
▁peuples	-2513
▁prophét	-2514
attention	-2515
ext	-2516
empl	-2517
illet	-2518
étant	-2519
existe	-2520
▁sil	-2521
▁ayez	-2522
▁dépl	-2523
▁venus	-2524
▁portes	-2525
▁répand	-2526
intention	-2527
▁derniers	-2528
inté	-2529
▁!!!	-2530
▁juge	-2531
▁diable	-2532
▁philip	-2533
▁voient	-2534
humanité	-2535
inte	-2536
midi	-2537
èles	-2538
▁champ	-2539
▁meurt	-2540
▁recomm	-2541
onnés	-2542
œuvre	-2543
▁idée	-2544
▁lesqu	-2545
▁valeur	-2546
▁<	-2547
irm	-2548
opt	-2549
èse	-2550
▁simon	-2551
na	-2552
▁org	-2553
▁demi	-2554
▁page	-2555
rement	-2556
vier	-2557
▁lis	-2558
▁mur	-2559
▁réd	-2560
▁élé	-2561
▁famine	-2562
▁mourut	-2563
▁article	-2564
▁janvier	-2565
▁promesse	-2566
ane	-2567
êche	-2568
usion	-2569
▁permis	-2570
▁dernière	-2571
▁do	-2572
leur	-2573
émie	-2574
▁mult	-2575
▁état	-2576
article	-2577
▁voyage	-2578
▁voyons	-2579
▁parties	-2580
▁puisque	-2581
▁pâ	-2582
▁tiens	-2583
▁troup	-2584
instant	-2585
▁bataille	-2586
▁créateur	-2587
▁1:1	-2588
▁alla	-2589
▁pare	-2590
▁termin	-2591
cul	-2592
son	-2593
▁sh	-2594
▁ment	-2595
▁public	-2596
▁président	-2597
4.	-2598
inv	-2599
▁ois	-2600
▁pal	-2601
▁atte	-2602
▁sinon	-2603
ordieux	-2604
▁livres	-2605
▁œuvres	-2606
▁sauveur	-2607
▁miracles	-2608
écl	-2609
vites	-2610
▁facil	-2611
▁phara	-2612
▁corinth	-2613
▁développ	-2614
aman	-2615
▁noé	-2616
ument	-2617
▁parlait	-2618
▁période	-2619
▁hé	-2620
atta	-2621
▁lut	-2622
▁mout	-2623
▁numéro	-2624
▁second	-2625
▁premiers	-2626
ray	-2627
▁tôt	-2628
▁télé	-2629
▁table	-2630
▁fallait	-2631
▁problèmes	-2632
oure	-2633
▁exp	-2634
▁riv	-2635
▁sex	-2636
istre	-2637
ulter	-2638
viter	-2639
▁quar	-2640
▁forte	-2641
▁fruit	-2642
▁jesus	-2643
▁prêts	-2644
hu	-2645
inj	-2646
huit	-2647
▁sar	-2648
▁grâces	-2649
▁descendu	-2650
ope	-2651
enons	-2652
▁capit	-2653
▁fourn	-2654
▁pensé	-2655
▁décédé	-2656
:5	-2657
erai	-2658
erci	-2659
ussi	-2660
▁bab	-2661
jectif	-2662
iquement	-2663
▁concern	-2664
accompagn	-2665
▁présence	-2666
men	-2667
▁post	-2668
▁biens	-2669
▁dieux	-2670
▁racont	-2671
▁arrivés	-2672
▁rassembl	-2673
-1	-2674
▁op	-2675
amuse	-2676
▁hors	-2677
▁titre	-2678
occasion	-2679
▁tre	-2680
ivité	-2681
établ	-2682
▁date	-2683
ran	-2684
écu	-2685
ône	-2686
ainc	-2687
amme	-2688
▁emb	-2689
▁hér	-2690
▁pré	-2691
équip	-2692
▁œuvre	-2693
▁sauvés	-2694
▁savent	-2695
▁samarie	-2696
▁attendre	-2697
30	-2698
▁site	-2699
▁vaut	-2700
information	-2701
ôte	-2702
▁39	-2703
anim	-2704
rons	-2705
▁inté	-2706
▁allons	-2707
▁récomp	-2708
▁égypte	-2709
▁faisant	-2710
▁miséricordieux	-2711
▁36	-2712
erve	-2713
rage	-2714
▁batt	-2715
époque	-2716
▁pharaon	-2717
▁poisson	-2718
ieur	-2719
▁tim	-2720
▁mons	-2721
▁judas	-2722
▁plait	-2723
▁donnez	-2724
▁différence	-2725
..."	-2726
rions	-2727
▁soins	-2728
.2	-2729
ayant	-2730
▁amen	-2731
▁texte	-2732
arrivée	-2733
assemblée	-2734
▁synagogue	-2735
??	-2736
▁aimeras	-2737
apprendre	-2738
▁montagnes	-2739
oph	-2740
ifier	-2741
▁août	-2742
étrang	-2743
▁pleur	-2744
▁charge	-2745
▁considér	-2746
iée	-2747
assé	-2748
offr	-2749
▁actu	-2750
▁gros	-2751
▁guér	-2752
▁colle	-2753
▁entrer	-2754
▁lévites	-2755
▁éd	-2756
▁bre	-2757
exist	-2758
▁soin	-2759
▁satis	-2760
▁sépar	-2761
pourquoi	-2762
▁adultes	-2763
▁jacques	-2764
▁juillet	-2765
erç	-2766
arbre	-2767
▁ajout	-2768
▁bénéf	-2769
▁choisi	-2770
▁cheveux	-2771
▁solution	-2772
dé	-2773
lu	-2774
entrée	-2775
▁ligne	-2776
▁sauve	-2777
▁lequel	-2778
▁regardez	-2779
erc	-2780
▁bu	-2781
▁empl	-2782
▁vint	-2783
urance	-2784
éritage	-2785
▁croyez	-2786
▁justes	-2787
▁chrétiens	-2788
].	-2789
,...	-2790
ards	-2791
▁fai	-2792
▁écl	-2793
▁consulter	-2794
▁oh	-2795
erté	-2796
istr	-2797
▁log	-2798
▁séc	-2799
▁fasse	-2800
▁organ	-2801
obt	-2802
oux	-2803
amin	-2804
▁cult	-2805
isions	-2806
ception	-2807
▁compos	-2808
▁crains	-2809
gu	-2810
lam	-2811
▁be	-2812
orme	-2813
▁cop	-2814
▁loc	-2815
▁naz	-2816
▁viol	-2817
▁faits	-2818
▁repas	-2819
▁épouse	-2820
▁prisonn	-2821
▁pratique	-2822
▁représent	-2823
▁fév	-2824
▁bébé	-2825
inaire	-2826
▁possi	-2827
▁destin	-2828
▁semble	-2829
▁apôtres	-2830
▁effectivement	-2831
her	-2832
▁ant	-2833
accueil	-2834
iqué	-2835
reur	-2836
auche	-2837
▁coul	-2838
▁digne	-2839
▁livré	-2840
endroit	-2841
▁fleuve	-2842
▁propri	-2843
▁donnera	-2844
▁demandez	-2845
9.	-2846
énom	-2847
ancer	-2848
▁servir	-2849
▁présente	-2850
orce	-2851
▁aie	-2852
▁rej	-2853
import	-2854
itation	-2855
▁puisqu	-2856
▁facilement	-2857
uy	-2858
eter	-2859
lera	-2860
▁ess	-2861
ennem	-2862
cience	-2863
▁pouss	-2864
▁révél	-2865
enaient	-2866
▁vendre	-2867
▁veulent	-2868
adis	-2869
▁198	-2870
leurs	-2871
▁syst	-2872
alcool	-2873
ernité	-2874
▁aveug	-2875
▁morte	-2876
▁reçoit	-2877
▁février	-2878
▁langage	-2879
▁pierres	-2880
▁esclaves	-2881
▁différents	-2882
▁souffrances	-2883
tout	-2884
érêt	-2885
olesc	-2886
▁hébre	-2887
▁occup	-2888
esclave	-2889
▁dirige	-2890
▁comprenez	-2891
erte	-2892
▁espér	-2893
usement	-2894
▁courant	-2895
▁liberté	-2896
informations	-2897
ana	-2898
▁deb	-2899
▁pron	-2900
alités	-2901
oindre	-2902
▁ventre	-2903
▁pardonner	-2904
bas	-2905
▁41	-2906
▁pil	-2907
▁grat	-2908
appart	-2909
ination	-2910
▁daniel	-2911
▁travaux	-2912
▁bét	-2913
▁bles	-2914
occupe	-2915
▁réussi	-2916
▁miséricorde	-2917
ric	-2918
▁tir	-2919
▁déch	-2920
▁mariés	-2921
▁accueill	-2922
],	-2923
▁;	-2924
▁séd	-2925
euvre	-2926
▁quitt	-2927
▁qualité	-2928
▁voulons	-2929
oine	-2930
raph	-2931
▁diz	-2932
areth	-2933
ocher	-2934
▁bais	-2935
emment	-2936
issage	-2937
▁façons	-2938
▁reconnu	-2939
extérieur	-2940
▁exactement	-2941
hn	-2942
ss	-2943
aimez	-2944
▁médic	-2945
▁certes	-2946
paravant	-2947
▁poursuiv	-2948
irai	-2949
▁lois	-2950
▁soix	-2951
aindre	-2952
ormais	-2953
ènement	-2954
▁voulais	-2955
▁commandements	-2956
00.	-2957
▁vidéo	-2958
▁demeur	-2959
▁pouvaient	-2960
▁conscience	-2961
suis	-2962
▁eaux	-2963
▁noms	-2964
▁réalité	-2965
▁support	-2966
▁dr	-2967
iller	-2968
oncer	-2969
▁écris	-2970
aimerai	-2971
▁appela	-2972
▁commen	-2973
▁cherchez	-2974
▁croyants	-2975
▁47	-2976
▁ba	-2977
▁tél	-2978
erver	-2979
▁vert	-2980
onnement	-2981
▁sanctif	-2982
▁quarante	-2983
▁3:1	-2984
▁seras	-2985
attends	-2986
▁détour	-2987
▁territ	-2988
▁ressent	-2989
▁résultats	-2990
▁semblable	-2991
▁réellement	-2992
quis	-2993
enfer	-2994
▁faux	-2995
▁plac	-2996
▁touch	-2997
▁battre	-2998
▁cherche	-2999
▁parlent	-3000
approchèrent	-3001
▁gouvernement	-3002
iti	-3003
ute	-3004
crit	-3005
enne	-3006
▁marié	-3007
▁cherché	-3008
▁douleur	-3009
▁désormais	-3010
▁sacrifice	-3011
▁totalement	-3012
ots	-3013
▁thé	-3014
ayons	-3015
écart	-3016
▁bras	-3017
▁cité	-3018
▁dents	-3019
▁lieux	-3020
▁salaire	-3021
▁apporter	-3022
▁cés	-3023
▁levé	-3024
▁sold	-3025
▁type	-3026
▁évén	-3027
▁babyl	-3028
▁bless	-3029
▁sortes	-3030
▁devenus	-3031
▁continue	-3032
pir	-3033
▁obé	-3034
aimés	-3035
anche	-3036
▁orig	-3037
▁carte	-3038
abilité	-3039
▁rendit	-3040
▁signes	-3041
▁reviend	-3042
▁vivants	-3043
ha	-3044
▁we	-3045
oile	-3046
▁mém	-3047
▁sabb	-3048
érence	-3049
▁suivi	-3050
▁points	-3051
ications	-3052
▁paradis	-3053
▁souviens	-3054
▁sacrifices	-3055
agé	-3056
échapp	-3057
▁gauche	-3058
▁corinthiens	-3059
ast	-3060
ctu	-3061
gré	-3062
▁nav	-3063
faits	-3064
oiles	-3065
▁nive	-3066
▁noël	-3067
▁patr	-3068
▁césar	-3069
▁ferme	-3070
▁fidèle	-3071
entendre	-3072
car	-3073
▁rav	-3074
alent	-3075
objet	-3076
▁neuf	-3077
▁quin	-3078
arrête	-3079
ension	-3080
▁prost	-3081
occuper	-3082
▁vinrent	-3083
ize	-3084
imes	-3085
▁cach	-3086
▁cade	-3087
▁myst	-3088
▁pose	-3089
cteurs	-3090
▁maman	-3091
▁mondi	-3092
▁egypte	-3093
▁garder	-3094
▁détruit	-3095
▁philist	-3096
ow	-3097
uré	-3098
posé	-3099
▁mac	-3100
▁monté	-3101
▁bénédi	-3102
▁porter	-3103
▁actions	-3104
▁sécurité	-3105
▁2012	-3106
▁donnés	-3107
▁protég	-3108
enn	-3109
ivid	-3110
obre	-3111
unité	-3112
▁croix	-3113
▁rends	-3114
▁pièces	-3115
agissait	-3116
▁changer	-3117
▁courage	-3118
▁pleurer	-3119
▁monsieur	-3120
▁communauté	-3121
èt	-3122
béc	-3123
olé	-3124
orc	-3125
aura	-3126
éens	-3127
▁gui	-3128
▁mér	-3129
▁red	-3130
upart	-3131
▁dons	-3132
▁régn	-3133
amuser	-3134
iennes	-3135
▁sorti	-3136
essayer	-3137
▁disais	-3138
▁mirent	-3139
ablement	-3140
▁moutons	-3141
▁passait	-3142
▁plupart	-3143
▁détruire	-3144
▁intéress	-3145
ves	-3146
embr	-3147
écri	-3148
▁fig	-3149
▁effic	-3150
▁offici	-3151
▁parlez	-3152
▁pensée	-3153
▁retourner	-3154
▁auparavant	-3155
▁profession	-3156
iz	-3157
cif	-3158
▁[1	-3159
anch	-3160
ption	-3161
▁noir	-3162
▁super	-3163
▁sabbat	-3164
▁arrivée	-3165
▁malades	-3166
▁recommand	-3167
amb	-3168
abri	-3169
▁âge	-3170
enfui	-3171
▁agré	-3172
oration	-3173
étranger	-3174
▁comport	-3175
▁conduit	-3176
▁société	-3177
▁capitale	-3178
▁philippe	-3179
dain	-3180
▁fix	-3181
▁lam	-3182
▁tend	-3183
▁isaac	-3184
▁oblig	-3185
▁étudi	-3186
vention	-3187
▁debout	-3188
▁ordonné	-3189
▁construire	-3190
/1	-3191
ed	-3192
ses	-3193
▁mâ	-3194
primer	-3195
▁enfin	-3196
▁entré	-3197
▁claire	-3198
▁parfois	-3199
▁discours	-3200
▁décision	-3201
▁difficult	-3202
▁construction	-3203
;)	-3204
obsc	-3205
▁dén	-3206
oires	-3207
▁fass	-3208
entret	-3209
▁polit	-3210
▁progr	-3211
agement	-3212
▁fruits	-3213
▁triste	-3214
▁venait	-3215
ypt	-3216
âme	-3217
▁48	-3218
▁laz	-3219
▁impl	-3220
▁rêve	-3221
▁allés	-3222
▁trône	-3223
▁coloss	-3224
▁impossible	-3225
__	-3226
anm	-3227
▁cana	-3228
auteur	-3229
▁dispon	-3230
▁passion	-3231
▁craignez	-3232
▁meilleure	-3233
▁pan	-3234
huile	-3235
▁quot	-3236
▁rass	-3237
ennemi	-3238
▁cesse	-3239
▁charg	-3240
▁crier	-3241
▁système	-3242
▁allèrent	-3243
▁français	-3244
expérience	-3245
▁continuer	-3246
da	-3247
hor	-3248
oid	-3249
èves	-3250
▁cad	-3251
▁pén	-3252
▁circ	-3253
erreur	-3254
▁tombe	-3255
anmoins	-3256
▁précéd	-3257
▁sortit	-3258
iendront	-3259
ik	-3260
hors	-3261
rice	-3262
▁ban	-3263
▁mai	-3264
▁lune	-3265
▁rejet	-3266
èrement	-3267
entissage	-3268
▁réveillez	-3269
▁philistins	-3270
▁»	-3271
its	-3272
acité	-3273
▁avis	-3274
▁john	-3275
▁tente	-3276
afrique	-3277
envoyer	-3278
▁images	-3279
▁revenu	-3280
▁siècle	-3281
éternité	-3282
iversaire	-3283
▁néanmoins	-3284
bes	-3285
lui	-3286
èce	-3287
imag	-3288
▁dur	-3289
aiment	-3290
ettent	-3291
▁chans	-3292
▁grecs	-3293
▁quotid	-3294
▁rendez	-3295
▁jérémie	-3296
▁entièrement	-3297
:)	-3298
ev	-3299
▁bo	-3300
▁cre	-3301
▁règ	-3302
▁sinc	-3303
▁test	-3304
▁nommé	-3305
▁appréc	-3306
▁voyant	-3307
▁désolée	-3308
accomplissement	-3309
eh	-3310
▁po	-3311
ince	-3312
▁ris	-3313
▁rôle	-3314
ograph	-3315
ustice	-3316
▁aurez	-3317
▁sachant	-3318
▁<3	-3319
▁ru	-3320
iait	-3321
▁désolé	-3322
▁fidèles	-3323
▁profess	-3324
obscurité	-3325
▁septième	-3326
▁souhaite	-3327
▁accompagn	-3328
▁informations	-3329
▁«	-3330
aïe	-3331
ative	-3332
ibles	-3333
ifiés	-3334
▁dehors	-3335
▁babylone	-3336
▁$	-3337
▁bus	-3338
▁duré	-3339
inrent	-3340
▁cents	-3341
▁genre	-3342
▁retir	-3343
▁bateau	-3344
▁téléph	-3345
▁époque	-3346
▁baptême	-3347
▁relation	-3348
▁soixante	-3349
▁réveiller	-3350
arc	-3351
éder	-3352
▁cat	-3353
▁maj	-3354
itres	-3355
étend	-3356
▁arbre	-3357
▁prote	-3358
▁consac	-3359
▁visage	-3360
▁content	-3361
▁nazareth	-3362
▁préparer	-3363
▁commencer	-3364
▁colossiens	-3365
7.	-3366
del	-3367
▁44	-3368
gent	-3369
▁1:2	-3370
▁nov	-3371
othée	-3372
puiss	-3373
▁vent	-3374
▁caché	-3375
▁parla	-3376
▁équip	-3377
▁secret	-3378
▁patient	-3379
▁pauvreté	-3380
▁souffert	-3381
▁sentiment	-3382
▁territoire	-3383
6.	-3384
ysi	-3385
▁1.	-3386
▁49	-3387
érité	-3388
▁magn	-3389
ctobre	-3390
envoie	-3391
italie	-3392
▁malgré	-3393
▁naître	-3394
▁erreurs	-3395
▁oiseaux	-3396
▁ailleurs	-3397
▁puissant	-3398
▁transport	-3399
▁voulaient	-3400
iné	-3401
erie	-3402
▁reb	-3403
riers	-3404
étude	-3405
▁symb	-3406
▁liste	-3407
▁vieux	-3408
▁marcher	-3409
▁craindre	-3410
▁devraient	-3411
/0	-3412
vers	-3413
▁fût	-3414
▁rob	-3415
▁vécu	-3416
accept	-3417
avance	-3418
▁révol	-3419
▁lazare	-3420
▁quitté	-3421
▁éloign	-3422
ormément	-3423
▁miracle	-3424
▁retrouvé	-3425
apprentissage	-3426
reg	-3427
▁7.	-3428
▁pot	-3429
▁refus	-3430
▁vraie	-3431
adresse	-3432
▁termes	-3433
▁restent	-3434
▁professionn	-3435
ül	-3436
ars	-3437
mère	-3438
prét	-3439
▁ache	-3440
▁béni	-3441
▁méth	-3442
épouse	-3443
▁divers	-3444
▁oublié	-3445
▁culture	-3446
▁données	-3447
▁quitter	-3448
▁étoiles	-3449
▁différent	-3450
▁direction	-3451
▁difficiles	-3452
1.	-3453
ège	-3454
▁chi	-3455
▁nég	-3456
▁évid	-3457
▁exist	-3458
▁sainte	-3459
▁comprend	-3460
▁timothée	-3461
utilisation	-3462
▁dû	-3463
assi	-3464
éloign	-3465
▁autor	-3466
▁observ	-3467
▁rapide	-3468
▁serais	-3469
▁1,	-3470
irme	-3471
▁cul	-3472
▁?...	-3473
▁jeux	-3474
assion	-3475
iciens	-3476
▁aimait	-3477
▁améric	-3478
▁canaan	-3479
▁esprits	-3480
▁tradition	-3481
▁compagnons	-3482
▁retournèrent	-3483
▁43	-3484
sept	-3485
onnez	-3486
▁forc	-3487
▁rues	-3488
▁défin	-3489
▁imbéc	-3490
▁caractér	-3491
▁savaient	-3492
▁199	-3493
▁ram	-3494
▁saül	-3495
ailles	-3496
▁boiss	-3497
▁juges	-3498
▁yahvé	-3499
issance	-3500
▁arbres	-3501
▁serons	-3502
▁humaine	-3503
▁lecture	-3504
injustice	-3505
▁viennent	-3506
▁compassion	-3507
ym	-3508
médi	-3509
onge	-3510
▁100	-3511
▁mou	-3512
cident	-3513
▁paris	-3514
ctement	-3515
▁arrêté	-3516
▁marque	-3517
▁rivière	-3518
▁souffrent	-3519
çait	-3520
écria	-3521
▁appl	-3522
▁priv	-3523
aurait	-3524
▁décid	-3525
exemple	-3526
▁centre	-3527
▁sortie	-3528
▁écouté	-3529
▁adolesc	-3530
▁mémoire	-3531
▁spécial	-3532
▁convainc	-3533
▁éléments	-3534
importance	-3535
▁étrangers	-3536
▁concernant	-3537
urg	-3538
appar	-3539
offre	-3540
▁juif	-3541
▁syrie	-3542
▁tient	-3543
▁aimons	-3544
▁endorm	-3545
utiliser	-3546
▁interdit	-3547
▁objectif	-3548
agir	-3549
asie	-3550
cinq	-3551
onom	-3552
▁capt	-3553
▁pous	-3554
▁bonté	-3555
▁invités	-3556
▁entendez	-3557
▁ressembl	-3558
▁travaille	-3559
▁connaissais	-3560
hh	-3561
han	-3562
▁eph	-3563
andes	-3564
▁imag	-3565
▁norm	-3566
▁matins	-3567
▁niveau	-3568
▁trésor	-3569
▁verrez	-3570
▁viande	-3571
▁visite	-3572
approche	-3573
▁devient	-3574
▁nouveaux	-3575
cep	-3576
▁..	-3577
acer	-3578
delà	-3579
iant	-3580
isant	-3581
▁aient	-3582
ucation	-3583
▁monter	-3584
▁photos	-3585
▁rentre	-3586
médiaire	-3587
assurance	-3588
▁cinquante	-3589
▁195	-3590
▁bel	-3591
▁ext	-3592
lises	-3593
▁chal	-3594
▁guer	-3595
▁rich	-3596
attach	-3597
▁aimes	-3598
▁concl	-3599
▁doute	-3600
▁pente	-3601
annonce	-3602
▁marier	-3603
▁conseil	-3604
▁méchants	-3605
▁réveille	-3606
▁trouvent	-3607
▁travaillé	-3608
▁lesquelles	-3609
:6	-3610
har	-3611
non	-3612
illé	-3613
athan	-3614
cient	-3615
envir	-3616
▁plat	-3617
équipe	-3618
▁annoncé	-3619
▁arrivèrent	-3620
âte	-3621
▁!!	-3622
▁ill	-3623
▁lac	-3624
▁2017	-3625
▁beth	-3626
▁blog	-3627
▁lion	-3628
▁posé	-3629
resser	-3630
rèrent	-3631
érique	-3632
▁allem	-3633
▁manqu	-3634
▁seuls	-3635
oubliez	-3636
▁élèves	-3637
approcha	-3638
▁obtenir	-3639
▁poissons	-3640
erm	-3641
ére	-3642
ides	-3643
roge	-3644
édit	-3645
▁gra	-3646
améli	-3647
isées	-3648
▁lien	-3649
▁stat	-3650
▁tenu	-3651
▁chine	-3652
▁procl	-3653
▁tombé	-3654
▁longue	-3655
puissant	-3656
▁terrain	-3657
▁construit	-3658
oo	-3659
▁q	-3660
▁46	-3661
▁lun	-3662
jésus	-3663
lever	-3664
▁bête	-3665
▁ferm	-3666
amitié	-3667
ifique	-3668
▁démon	-3669
▁types	-3670
ourager	-3671
▁faveur	-3672
▁litres	-3673
▁ordonn	-3674
▁possib	-3675
▁repent	-3676
▁contrib	-3677
▁souvenir	-3678
▁réjouissez	-3679
bo	-3680
cre	-3681
▁dest	-3682
▁hier	-3683
▁culte	-3684
▁prince	-3685
▁novembre	-3686
▁60	-3687
arch	-3688
▁dure	-3689
▁jugé	-3690
▁mars	-3691
ésiens	-3692
▁cœurs	-3693
▁trist	-3694
orgueil	-3695
▁détail	-3696
▁envoya	-3697
▁gagner	-3698
autorité	-3699
▁approch	-3700
▁mission	-3701
▁montrer	-3702
▁soldats	-3703
▁produits	-3704
▁représente	-3705
aus	-3706
▁cam	-3707
icité	-3708
▁fier	-3709
▁canad	-3710
▁faute	-3711
▁payer	-3712
▁dépend	-3713
▁mérite	-3714
seigneur	-3715
▁consomm	-3716
▁mondiale	-3717
▁richesse	-3718
intermédiaire	-3719
he	-3720
oré	-3721
oui	-3722
raï	-3723
aimé	-3724
alors	-3725
▁tort	-3726
endorm	-3727
▁pâque	-3728
▁intern	-3729
▁promis	-3730
▁vienne	-3731
▁écrire	-3732
▁aliment	-3733
▁croyons	-3734
▁naturel	-3735
ignorance	-3736
▁mauvaise	-3737
▁millions	-3738
▁pécheurs	-3739
cte	-3740
ril	-3741
oyer	-3742
▁cit	-3743
▁!...	-3744
▁cuis	-3745
▁gars	-3746
agneau	-3747
oublie	-3748
▁josué	-3749
▁physi	-3750
▁arriva	-3751
▁commis	-3752
▁minist	-3753
▁refusé	-3754
▁gratuit	-3755
▁mettent	-3756
▁propres	-3757
▁samarit	-3758
▁souffre	-3759
▁accompli	-3760
▁disciple	-3761
▁donnerai	-3762
▁malheure	-3763
▁propriét	-3764
▁récompense	-3765
elez	-3766
▁ore	-3767
ermin	-3768
èvres	-3769
▁lanc	-3770
▁mode	-3771
▁sauf	-3772
oeuvre	-3773
▁court	-3774
▁juger	-3775
▁scrib	-3776
▁proches	-3777
▁séparer	-3778
▁pardonne	-3779
ron	-3780
iver	-3781
ueur	-3782
▁lab	-3783
aurez	-3784
▁forêt	-3785
arrêter	-3786
▁extrém	-3787
▁posséd	-3788
▁verset	-3789
▁chapitre	-3790
▁derrière	-3791
▁position	-3792
▁ô	-3793
côte	-3794
allez	-3795
▁boir	-3796
ondance	-3797
▁fassiez	-3798
▁presque	-3799
▁sacrific	-3800
the	-3801
cles	-3802
▁lav	-3803
▁mad	-3804
aucun	-3805
▁base	-3806
▁honn	-3807
▁sage	-3808
▁front	-3809
▁série	-3810
▁cheval	-3811
▁détest	-3812
▁effray	-3813
appelles	-3814
▁anglais	-3815
▁install	-3816
ram	-3817
avec	-3818
ocal	-3819
isent	-3820
▁fini	-3821
▁peau	-3822
▁tués	-3823
apôtre	-3824
▁associ	-3825
▁moyens	-3826
▁octobre	-3827
▁pentecôte	-3828
:18	-3829
ina	-3830
acle	-3831
▁fat	-3832
orter	-3833
▁cout	-3834
▁prob	-3835
▁bruit	-3836
▁boirai	-3837
▁palais	-3838
▁saviez	-3839
héritage	-3840
▁envoyés	-3841
▁persécut	-3842
▁bénédiction	-3843
▁parfaitement	-3844
▁&	-3845
com	-3846
rite	-3847
▁196	-3848
▁nés	-3849
▁sen	-3850
▁brûl	-3851
▁ence	-3852
▁trem	-3853
▁âgée	-3854
▁coupe	-3855
▁déliv	-3856
▁tribu	-3857
▁esclave	-3858
▁individ	-3859
▁passage	-3860
veillance	-3861
▁jourdain	-3862
▁villages	-3863
▁multitude	-3864
▁tristesse	-3865
io	-3866
eut	-3867
alon	-3868
çant	-3869
isode	-3870
▁mich	-3871
aimais	-3872
▁ennemi	-3873
▁montré	-3874
▁samuel	-3875
▁éviter	-3876
▁atteint	-3877
▁scribes	-3878
▁regarder	-3879
▁travaill	-3880
▁comprennent	-3881
esc	-3882
ian	-3883
raî	-3884
tit	-3885
usse	-3886
▁hor	-3887
▁mens	-3888
▁chame	-3889
▁prêch	-3890
▁égaux	-3891
▁essayer	-3892
▁réalisé	-3893
adressant	-3894
▁faisaient	-3895
▁manifesté	-3896
▁fum	-3897
aurai	-3898
ieuse	-3899
ancien	-3900
europe	-3901
ommage	-3902
érable	-3903
▁blanc	-3904
▁macéd	-3905
▁épous	-3906
▁démons	-3907
▁libres	-3908
▁apporté	-3909
ification	-3910
▁ancêtres	-3911
▁richesses	-3912
:17	-3913
rou	-3914
▁lâ	-3915
ouff	-3916
uves	-3917
▁caï	-3918
▁atta	-3919
▁journ	-3920
▁vigne	-3921
▁pareil	-3922
▁vision	-3923
▁accepté	-3924
▁assembl	-3925
▁baptisé	-3926
▁raisons	-3927
▁certaine	-3928
émentaires	-3929
▁relations	-3930
ifie	-3931
onie	-3932
faire	-3933
organ	-3934
▁grav	-3935
▁annon	-3936
▁côtés	-3937
▁liban	-3938
▁poste	-3939
▁écriv	-3940
antaine	-3941
écoutez	-3942
▁eurent	-3943
▁mariée	-3944
▁sanctu	-3945
▁pensées	-3946
▁princes	-3947
▁surtout	-3948
▁capables	-3949
:10	-3950
oli	-3951
▁70	-3952
▁éle	-3953
excus	-3954
▁2013	-3955
▁créa	-3956
▁gout	-3957
guille	-3958
▁bande	-3959
▁persu	-3960
▁remis	-3961
▁feront	-3962
▁gardez	-3963
▁séjour	-3964
alliance	-3965
enseigner	-3966
▁détermin	-3967
▁certainement	-3968
/5	-3969
8.	-3970
dd	-3971
:14	-3972
let	-3973
lig	-3974
île	-3975
rées	-3976
otion	-3977
▁indi	-3978
▁clair	-3979
▁divin	-3980
▁télév	-3981
▁chanson	-3982
avènement	-3983
▁allaient	-3984
▁patience	-3985
▁vendredi	-3986
▁macédoine	-3987
-2	-3988
▁#	-3989
:23	-3990
▁fél	-3991
agers	-3992
onnée	-3993
uelle	-3994
▁chau	-3995
▁préd	-3996
▁rach	-3997
ffront	-3998
▁jonas	-3999
▁pages	-4000
arriver	-4001
ministr	-4002
ètement	-4003
▁sauvée	-4004
▁succès	-4005
▁tribus	-4006
▁échapp	-4007
▁chambre	-4008
▁créature	-4009
▁retourne	-4010
▁centaines	-4011
▁formation	-4012
▁quotidien	-4013
▁vingtaine	-4014
▁*	-4015
hér	-4016
vis	-4017
atif	-4018
erce	-4019
raïm	-4020
ypoc	-4021
▁lat	-4022
▁née	-4023
ètres	-4024
▁bour	-4025
▁tels	-4026
ologie	-4027
▁chers	-4028
▁terme	-4029
absence	-4030
▁baiser	-4031
▁cacher	-4032
habitude	-4033
▁hébreux	-4034
▁maîtres	-4035
éducation	-4036
▁présents	-4037
▁réveillé	-4038
▁enseigner	-4039
▁respecter	-4040
▁extrémités	-4041
▁participer	-4042
▁traduction	-4043
:13	-4044
étr	-4045
▁exh	-4046
▁hon	-4047
aumes	-4048
▁tran	-4049
▁vies	-4050
aimait	-4051
▁fuite	-4052
▁ident	-4053
▁consol	-4054
▁instru	-4055
▁restée	-4056
▁apporte	-4057
▁écouter	-4058
▁devaient	-4059
▁reconnaiss	-4060
▁prisonniers	-4061
eil	-4062
▁méc	-4063
▁etre	-4064
▁jeté	-4065
ultère	-4066
▁créer	-4067
▁destr	-4068
▁domin	-4069
▁haute	-4070
▁étais	-4071
▁adress	-4072
▁commet	-4073
▁offert	-4074
▁pilate	-4075
▁tomber	-4076
attendre	-4077
▁suivante	-4078
▁trouverez	-4079
▁conditions	-4080
▁/	-4081
xim	-4082
avis	-4083
autel	-4084
cepte	-4085
ereur	-4086
pital	-4087
▁bibl	-4088
▁cris	-4089
▁dira	-4090
▁absol	-4091
▁cessé	-4092
assurer	-4093
▁compar	-4094
▁témoin	-4095
empêcher	-4096
▁annoncer	-4097
▁douleurs	-4098
▁résultat	-4099
ek	-4100
ape	-4101
mer	-4102
ènes	-4103
▁dos	-4104
▁faud	-4105
atoire	-4106
▁emmen	-4107
▁favor	-4108
▁photo	-4109
▁venez	-4110
▁attach	-4111
▁donnent	-4112
interprét	-4113
▁prostern	-4114
aü	-4115
çu	-4116
uge	-4117
▁2.	-4118
erra	-4119
ueux	-4120
▁doc	-4121
▁sod	-4122
icule	-4123
▁onze	-4124
▁élev	-4125
essaie	-4126
▁siens	-4127
▁argent	-4128
▁erreur	-4129
▁pleine	-4130
▁réflex	-4131
▁suffit	-4132
▁chameau	-4133
▁rentrer	-4134
▁manières	-4135
▁merveill	-4136
▁partager	-4137
▁retrouve	-4138
▁sanctuaire	-4139
chn	-4140
umes	-4141
élev	-4142
.....	-4143
▁mouv	-4144
▁mâle	-4145
hommes	-4146
▁lever	-4147
▁total	-4148
▁excell	-4149
▁marché	-4150
▁taille	-4151
eusement	-4152
▁crurent	-4153
▁partage	-4154
▁aliments	-4155
▁pourront	-4156
▁synagogues	-4157
rat	-4158
▁cy	-4159
odes	-4160
resp	-4161
▁soy	-4162
▁véh	-4163
accès	-4164
saint	-4165
orient	-4166
▁avert	-4167
▁haine	-4168
▁résid	-4169
▁veuve	-4170
▁chance	-4171
▁compter	-4172
▁entière	-4173
▁voisins	-4174
▁puissances	-4175
▁événements	-4176
▁difficultés	-4177
hi	-4178
ke	-4179
oï	-4180
ît	-4181
bis	-4182
cel	-4183
▁ol	-4184
arité	-4185
aîtra	-4186
prouv	-4187
▁chaî	-4188
▁sache	-4189
▁techn	-4190
anglais	-4191
▁barque	-4192
▁crucif	-4193
▁entraî	-4194
▁transm	-4195
▁décédée	-4196
▁pensais	-4197
▁secours	-4198
▁sixième	-4199
affection	-4200
approcher	-4201
▁agréable	-4202
▁heureuse	-4203
▁répondra	-4204
▁conséquent	-4205
▁reviendrai	-4206
ax	-4207
oté	-4208
dans	-4209
anger	-4210
rième	-4211
uisit	-4212
▁hist	-4213
▁lett	-4214
▁souc	-4215
▁soup	-4216
▁corre	-4217
▁champs	-4218
▁foules	-4219
▁offrir	-4220
▁chanter	-4221
▁joindre	-4222
▁matinée	-4223
▁prenons	-4224
▁proclam	-4225
▁version	-4226
▁condamné	-4227
▁retourna	-4228
erse	-4229
itue	-4230
idité	-4231
▁benj	-4232
▁dite	-4233
▁gagné	-4234
▁rouge	-4235
▁apprit	-4236
▁défaut	-4237
▁membre	-4238
▁mettez	-4239
▁perdre	-4240
▁appelée	-4241
▁parfaite	-4242
▁décisions	-4243
▁politique	-4244
▁uniquement	-4245
adm	-4246
alt	-4247
allée	-4248
oblig	-4249
iquité	-4250
ourage	-4251
▁maris	-4252
▁offre	-4253
▁sinaï	-4254
▁tourn	-4255
▁brebis	-4256
▁compét	-4257
▁joueur	-4258
▁lèvres	-4259
▁vivent	-4260
ancienne	-4261
▁prononc	-4262
▁baptiser	-4263
▁bénéfici	-4264
▁entendit	-4265
▁pourriez	-4266
▁étranger	-4267
▁découvert	-4268
▁postérité	-4269
▁téléphone	-4270
fr	-4271
nab	-4272
uni	-4273
weh	-4274
olie	-4275
ones	-4276
ouch	-4277
▁arm	-4278
▁dam	-4279
▁inj	-4280
indre	-4281
▁cath	-4282
▁joue	-4283
associ	-4284
▁adopt	-4285
▁jeter	-4286
▁lutte	-4287
▁réuss	-4288
olution	-4289
▁divert	-4290
▁modèle	-4291
▁restés	-4292
▁soyons	-4293
▁établi	-4294
▁corresp	-4295
▁groupes	-4296
▁commandé	-4297
▁condition	-4298
:8	-4299
dev	-4300
▁out	-4301
isaac	-4302
quête	-4303
▁prié	-4304
▁soul	-4305
onnant	-4306
uisent	-4307
▁dirig	-4308
▁jouer	-4309
▁pains	-4310
▁salle	-4311
acheter	-4312
▁cadeau	-4313
▁révélé	-4314
exprimer	-4315
▁faibles	-4316
▁réjouit	-4317
▁terminé	-4318
▁victime	-4319
▁arrivent	-4320
▁ministre	-4321
▁professeur	-4322
ott	-4323
▁ec	-4324
ules	-4325
▁éph	-4326
euses	-4327
oppos	-4328
▁répu	-4329
▁chiff	-4330
▁objet	-4331
▁vrais	-4332
▁dessus	-4333
▁messie	-4334
▁telles	-4335
▁annonce	-4336
▁constat	-4337
▁général	-4338
▁pourrez	-4339
▁services	-4340
▁référence	-4341
ctr	-4342
onf	-4343
incl	-4344
▁clé	-4345
▁sus	-4346
▁excl	-4347
itesse	-4348
▁calme	-4349
▁mises	-4350
▁barnab	-4351
▁habite	-4352
▁transf	-4353
▁vivons	-4354
▁yahweh	-4355
▁lettres	-4356
▁persuad	-4357
interroge	-4358
2.	-4359
éma	-4360
▁mu	-4361
arie	-4362
cari	-4363
èbre	-4364
▁197	-4365
▁dat	-4366
▁gaz	-4367
ament	-4368
oquer	-4369
▁défi	-4370
▁papa	-4371
▁stru	-4372
ration	-4373
écrire	-4374
▁2004.	-4375
▁abord	-4376
▁buvez	-4377
▁seize	-4378
obtenir	-4379
▁compat	-4380
▁forces	-4381
▁iscari	-4382
▁sodome	-4383
▁condolé	-4384
▁dizaine	-4385
existence	-4386
▁demeures	-4387
▁protéger	-4388
▁souffrir	-4389
obéissance	-4390
anniversaire	-4391
▁possibilité	-4392
▁5.	-4393
▁af	-4394
▁aî	-4395
▁aid	-4396
▁iss	-4397
▁tal	-4398
▁rout	-4399
itaire	-4400
intérêt	-4401
▁dirais	-4402
▁prénom	-4403
▁réserv	-4404
istiques	-4405
▁devenue	-4406
intéresse	-4407
▁benjamin	-4408
▁recevrez	-4409
▁victoire	-4410
▁actuellement	-4411
▁connaissances	-4412
acé	-4413
dis	-4414
ori	-4415
▁4.	-4416
avan	-4417
haut	-4418
▁jap	-4419
▁mas	-4420
ensés	-4421
habit	-4422
trait	-4423
▁moab	-4424
euvres	-4425
ivités	-4426
▁quart	-4427
▁égard	-4428
oublier	-4429
▁achevé	-4430
▁devint	-4431
▁interv	-4432
▁regret	-4433
empereur	-4434
▁croyant	-4435
▁moisson	-4436
▁moments	-4437
▁propose	-4438
▁remerci	-4439
▁tombeau	-4440
uellement	-4441
▁efficace	-4442
▁victimes	-4443
▁adolescents	-4444
:25	-4445
ensé	-4446
▁nic	-4447
ouest	-4448
trois	-4449
▁futur	-4450
érieure	-4451
▁restau	-4452
▁aveugle	-4453
▁instant	-4454
▁possède	-4455
▁siècles	-4456
▁distance	-4457
▁seraient	-4458
ts	-4459
!!!	-4460
oam	-4461
▁na	-4462
▁us	-4463
oqué	-4464
▁har	-4465
agent	-4466
aveug	-4467
vingt	-4468
entiel	-4469
ieuses	-4470
nation	-4471
offrir	-4472
▁ordre	-4473
▁scène	-4474
▁âgées	-4475
essalon	-4476
▁soumis	-4477
▁défense	-4478
▁prirent	-4479
▁commença	-4480
▁constitu	-4481
▁comprends	-4482
▁retrouver	-4483
▁changement	-4484
▁importante	-4485
yn	-4486
orr	-4487
▁ii	-4488
adam	-4489
émat	-4490
assin	-4491
autés	-4492
▁saul	-4493
▁âgés	-4494
otions	-4495
▁sarah	-4496
oreille	-4497
▁beauté	-4498
▁couple	-4499
▁nouvel	-4500
▁pleurs	-4501
▁sortis	-4502
▁souver	-4503
▁venues	-4504
▁combatt	-4505
▁discuss	-4506
▁pensent	-4507
▁enceinte	-4508
▁lesquels	-4509
▁oreilles	-4510
▁attendant	-4511
▁ministère	-4512
▁génération	-4513
ki	-4514
▁_	-4515
phe	-4516
élo	-4517
▁3.	-4518
▁mi	-4519
accr	-4520
osse	-4521
▁top	-4522
▁vir	-4523
autom	-4524
gment	-4525
élève	-4526
▁aperç	-4527
▁décès	-4528
▁japon	-4529
▁régul	-4530
▁élevé	-4531
istance	-4532
▁adulte	-4533
▁limite	-4534
▁tenait	-4535
▁tribun	-4536
▁connait	-4537
▁gentils	-4538
▁mention	-4539
▁contrôle	-4540
▁glorifié	-4541
▁poursuit	-4542
▁retourné	-4543
▁veuillez	-4544
▁demandent	-4545
▁permettre	-4546
▁protection	-4547
ami	-4548
oig	-4549
enti	-4550
yrie	-4551
▁job	-4552
atifs	-4553
atives	-4554
▁grave	-4555
▁tenté	-4556
environ	-4557
▁auront	-4558
▁partis	-4559
▁revint	-4560
▁hauteur	-4561
▁raconte	-4562
▁silence	-4563
▁explique	-4564
▁reprises	-4565
▁trouvera	-4566
▁enseignait	-4567
:16	-4568
bum	-4569
ith	-4570
▁08	-4571
▁09	-4572
▁2,	-4573
▁3:	-4574
atte	-4575
iées	-4576
▁kil	-4577
▁lot	-4578
▁anti	-4579
▁cool	-4580
▁pars	-4581
▁pont	-4582
▁vues	-4583
phraïm	-4584
yptiens	-4585
▁amoure	-4586
▁devoir	-4587
▁enlevé	-4588
▁refuse	-4589
▁repris	-4590
▁risque	-4591
▁soeurs	-4592
▁écrits	-4593
▁disparu	-4594
▁oeuvres	-4595
▁conduire	-4596
▁passeront	-4597
▁rencontré	-4598
▁thessalon	-4599
▁enseignera	-4600
▁importants	-4601
▁magnifique	-4602
▁télévision	-4603
▁continuellement	-4604
oû	-4605
ara	-4606
▁04	-4607
▁6.	-4608
▁gé	-4609
orie	-4610
ustr	-4611
ypse	-4612
êché	-4613
porte	-4614
▁aidé	-4615
▁crit	-4616
▁dign	-4617
▁elie	-4618
▁pros	-4619
▁sert	-4620
envers	-4621
erture	-4622
▁dirai	-4623
▁ignor	-4624
▁lampe	-4625
▁liens	-4626
▁discut	-4627
▁reprit	-4628
▁passent	-4629
▁craignent	-4630
▁particulier	-4631
:20	-4632
ock	-4633
éle	-4634
▁52	-4635
oule	-4636
▁civ	-4637
▁fui	-4638
▁mut	-4639
▁œil	-4640
aisse	-4641
erait	-4642
▁serp	-4643
▁vend	-4644
luence	-4645
unique	-4646
▁thème	-4647
▁change	-4648
▁connue	-4649
▁obtenu	-4650
▁sachez	-4651
▁venant	-4652
interrog	-4653
▁intérêt	-4654
▁régions	-4655
issements	-4656
▁allemand	-4657
▁considéré	-4658
▁quatrième	-4659
▁expérience	-4660
▁traitement	-4661
1,	-4662
nel	-4663
intr	-4664
itez	-4665
▁adm	-4666
raord	-4667
zième	-4668
▁subs	-4669
▁vari	-4670
▁chien	-4671
entends	-4672
èvement	-4673
▁ferait	-4674
▁phénom	-4675
▁veuves	-4676
▁compréh	-4677
▁méchanc	-4678
▁serment	-4679
▁utilisé	-4680
▁présenté	-4681
▁messagers	-4682
▁religions	-4683
▁appartient	-4684
▁clairement	-4685
▁profondément	-4686
3.	-4687
ox	-4688
:24	-4689
yle	-4690
▁tâ	-4691
alle	-4692
èces	-4693
▁50/5	-4694
▁intr	-4695
▁lent	-4696
emploi	-4697
▁chaud	-4698
▁porté	-4699
▁sacré	-4700
ifiques	-4701
▁course	-4702
ocalypse	-4703
offrande	-4704
▁affaires	-4705
▁messager	-4706
▁résister	-4707
▁meilleurs	-4708
▁pardonnez	-4709
▁destruction	-4710
▁responsable	-4711
/20	-4712
réd	-4713
▁ci	-4714
▁fus	-4715
oudre	-4716
▁rose	-4717
▁surf	-4718
engage	-4719
entraî	-4720
ueille	-4721
▁avril	-4722
▁héros	-4723
▁étiez	-4724
aliment	-4725
▁attent	-4726
▁faible	-4727
evangile	-4728
▁conserv	-4729
▁remplis	-4730
▁apprécié	-4731
▁conduite	-4732
▁jonathan	-4733
▁transform	-4734
interprétation	-4735
édé	-4736
éte	-4737
anti	-4738
icles	-4739
▁agit	-4740
▁purs	-4741
▁trah	-4742
▁amené	-4743
▁félic	-4744
écouter	-4745
▁action	-4746
▁déroul	-4747
▁saison	-4748
▁enverra	-4749
▁extrême	-4750
▁sachiez	-4751
▁églises	-4752
▁coupable	-4753
obligation	-4754
▁autrefois	-4755
▁ressemble	-4756
▁spirituel	-4757
▁préférable	-4758
▁sanctifiés	-4759
▁signifiait	-4760
▁bienveillance	-4761
.'	-4762
10	-4763
ka	-4764
aig	-4765
hon	-4766
uls	-4767
rase	-4768
émin	-4769
▁fur	-4770
agnol	-4771
impos	-4772
▁note	-4773
▁perf	-4774
▁prét	-4775
▁suit	-4776
enfuit	-4777
issons	-4778
▁adapt	-4779
▁dormi	-4780
▁forts	-4781
affaire	-4782
enfance	-4783
▁espoir	-4784
▁publié	-4785
▁vallée	-4786
adultère	-4787
issaient	-4788
▁célèbre	-4789
▁trésors	-4790
▁arrivera	-4791
▁palestin	-4792
▁autrement	-4793
▁présenter	-4794
▁disponible	-4795
ya	-4796
orn	-4797
alom	-4798
allem	-4799
anges	-4800
ôpital	-4801
▁dépos	-4802
acement	-4803
ocation	-4804
▁aiment	-4805
▁essayé	-4806
▁guérir	-4807
amérique	-4808
▁méthode	-4809
▁écoutez	-4810
▁autorité	-4811
▁souriait	-4812
▁correspond	-4813
▁méchanceté	-4814
▁poursuivre	-4815
▁déclaration	-4816
▁complètement	-4817
▁enseignement	-4818
▁probablement	-4819
▁cav	-4820
▁dor	-4821
asses	-4822
obile	-4823
écris	-4824
▁2019	-4825
▁boit	-4826
▁prog	-4827
▁spéc	-4828
▁inqui	-4829
▁milli	-4830
▁nourr	-4831
assyrie	-4832
▁connus	-4833
▁désign	-4834
▁fautes	-4835
▁larmes	-4836
▁quinze	-4837
▁tranqu	-4838
▁visité	-4839
▁guerres	-4840
▁préparé	-4841
▁levèrent	-4842
▁province	-4843
▁rappelle	-4844
▁vêtement	-4845
abandonner	-4846
▁espérance	-4847
▁programme	-4848
▁reprendre	-4849
▁personnage	-4850
▁conséquences	-4851
4,	-4852
ep	-4853
uch	-4854
▁65	-4855
deux	-4856
omas	-4857
quat	-4858
éter	-4859
▁cri	-4860
▁nett	-4861
▁zone	-4862
habite	-4863
▁prête	-4864
▁cinéma	-4865
▁marthe	-4866
▁police	-4867
▁suffis	-4868
endormir	-4869
▁contact	-4870
▁mystère	-4871
appellera	-4872
installer	-4873
opération	-4874
▁cherchent	-4875
▁demandait	-4876
▁étudiants	-4877
▁comportement	-4878
▁supplémentaires	-4879
cri	-4880
hés	-4881
▁53	-4882
extr	-4883
uler	-4884
▁pla	-4885
▁sér	-4886
▁tab	-4887
▁web	-4888
▁crée	-4889
▁pire	-4890
▁cadre	-4891
▁coups	-4892
▁peter	-4893
▁press	-4894
▁soign	-4895
▁attrib	-4896
▁républ	-4897
▁arrière	-4898
▁limites	-4899
▁parcour	-4900
▁rendons	-4901
▁retenir	-4902
▁symbole	-4903
abandonne	-4904
administr	-4905
▁dizaines	-4906
▁iscariote	-4907
▁processus	-4908
▁différente	-4909
▁commentaire	-4910
▁descendance	-4911
▁travaillent	-4912
5,	-4913
ru	-4914
▁03	-4915
▁ls	-4916
alie	-4917
ître	-4918
▁???	-4919
▁nab	-4920
épous	-4921
▁boul	-4922
▁litt	-4923
humain	-4924
utions	-4925
▁ayons	-4926
▁auriez	-4927
▁royale	-4928
▁réunis	-4929
▁laissée	-4930
embrasser	-4931
▁alliance	-4932
▁auraient	-4933
▁boissons	-4934
▁véhicule	-4935
▁absolument	-4936
▁trouvaient	-4937
▁demandèrent	-4938
▁€	-4939
:26	-4940
▁--	-4941
▁06	-4942
▁[2	-4943
▁ev	-4944
▁mc	-4945
rale	-4946
èche	-4947
▁rad	-4948
▁sab	-4949
utile	-4950
▁abre	-4951
▁lead	-4952
▁nuée	-4953
▁rang	-4954
▁vier	-4955
▁envis	-4956
▁hérit	-4957
empêche	-4958
▁aspect	-4959
▁désire	-4960
▁entret	-4961
▁levain	-4962
▁métier	-4963
▁parent	-4964
▁prions	-4965
▁soirée	-4966
▁sépare	-4967
▁voyait	-4968
▁combats	-4969
▁réunion	-4970
▁suivirent	-4971
▁viendront	-4972
▁gouverneur	-4973
▁sentiments	-4974
▁malheureusement	-4975
ba	-4976
oici	-4977
rain	-4978
▁190	-4979
▁fan	-4980
aaron	-4981
▁midi	-4982
▁moit	-4983
▁unis	-4984
▁peint	-4985
▁revêt	-4986
▁soucis	-4987
échapper	-4988
▁regardé	-4989
▁commande	-4990
▁crucifié	-4991
▁physique	-4992
▁considère	-4993
▁développement	-4994
▁^	-4995
éen	-4996
▁55	-4997
ades	-4998
anou	-4999
book	-5000
ench	-5001
▁emm	-5002
avage	-5003
islam	-5004
oigne	-5005
prime	-5006
▁chât	-5007
▁hait	-5008
▁somm	-5009
enfuir	-5010
▁accus	-5011
▁incap	-5012
▁outre	-5013
▁ramen	-5014
▁servi	-5015
hôpital	-5016
install	-5017
▁abreuv	-5018
▁devais	-5019
▁disons	-5020
▁hérode	-5021
accueill	-5022
▁affaire	-5023
▁commune	-5024
▁méchant	-5025
▁passera	-5026
▁quantité	-5027
▁sûrement	-5028
▁compagnie	-5029
▁puissants	-5030
▁écritures	-5031
accompagner	-5032
▁impression	-5033
aj	-5034
œu	-5035
aid	-5036
ani	-5037
ger	-5038
ôme	-5039
▁ge	-5040
agré	-5041
iche	-5042
isez	-5043
obil	-5044
▁cur	-5045
▁pap	-5046
▁rat	-5047
aperç	-5048
oboam	-5049
voici	-5050
▁2018	-5051
▁code	-5052
arrêta	-5053
manuel	-5054
▁ouvre	-5055
▁réput	-5056
▁situé	-5057
▁siège	-5058
▁50/50.	-5059
▁classe	-5060
▁collab	-5061
▁apparut	-5062
▁héritage	-5063
▁ouvriers	-5064
▁émotions	-5065
▁prophétie	-5066
application	-5067
explication	-5068
▁répondirent	-5069
▁réfléchissez	-5070
5:	-5071
aul	-5072
yth	-5073
▁80	-5074
alph	-5075
▁idi	-5076
▁berg	-5077
▁fest	-5078
▁irré	-5079
▁scol	-5080
▁corée	-5081
▁musul	-5082
▁pièce	-5083
▁apôtre	-5084
▁guéris	-5085
▁persév	-5086
▁thomas	-5087
▁veille	-5088
▁couleur	-5089
▁planète	-5090
▁jeunesse	-5091
▁tendance	-5092
▁caractère	-5093
▁semblables	-5094
▁extrêmement	-5095
▁condoléances	-5096
▁responsables	-5097
cs	-5098
:19	-5099
▁58	-5100
▁km	-5101
ceur	-5102
▁blé	-5103
▁buv	-5104
▁vag	-5105
ignes	-5106
▁dent	-5107
▁doll	-5108
ulaire	-5109
▁fatig	-5110
▁gardé	-5111
▁juive	-5112
▁meure	-5113
▁bétail	-5114
▁cartes	-5115
▁ordres	-5116
▁priant	-5117
▁recons	-5118
▁rentré	-5119
▁sentir	-5120
▁située	-5121
▁tienne	-5122
▁tombée	-5123
▁accordé	-5124
▁matière	-5125
▁revanche	-5126
expression	-5127
▁chapitres	-5128
▁promesses	-5129
▁souverain	-5130
▁pourraient	-5131
▁résistance	-5132
▁directement	-5133
▁sacrificateurs	-5134
inn	-5135
uil	-5136
▁4:	-5137
anci	-5138
aube	-5139
▁20.	-5140
▁adv	-5141
▁ath	-5142
▁déd	-5143
▁mél	-5144
ageux	-5145
envie	-5146
élité	-5147
▁prud	-5148
▁réel	-5149
▁autom	-5150
▁catég	-5151
▁etats	-5152
aissent	-5153
aveugle	-5154
▁craint	-5155
▁entrée	-5156
▁hébreu	-5157
▁acheter	-5158
▁apprend	-5159
▁prépare	-5160
▁devrions	-5161
▁diverses	-5162
▁interrog	-5163
▁prochaine	-5164
▁rejoindre	-5165
▁satisfait	-5166
▁israéliens	-5167
▁principaux	-5168
▁révélation	-5169
▁samaritains	-5170
▁+	-5171
dix	-5172
oun	-5173
▁1-	-5174
▁az	-5175
actu	-5176
imin	-5177
irmé	-5178
tras	-5179
érés	-5180
▁and	-5181
▁lév	-5182
▁sén	-5183
emmen	-5184
oisse	-5185
osité	-5186
oyens	-5187
▁gest	-5188
effect	-5189
▁aidez	-5190
▁armée	-5191
▁confl	-5192
▁céléb	-5193
▁hypoc	-5194
▁instr	-5195
▁monte	-5196
▁posit	-5197
▁prévu	-5198
▁tenez	-5199
▁caphar	-5200
▁chasse	-5201
▁flamme	-5202
▁moitié	-5203
▁appeler	-5204
▁dispose	-5205
▁pécheur	-5206
▁ressour	-5207
▁stupide	-5208
▁empêcher	-5209
▁résoudre	-5210
▁cinquième	-5211
▁personnel	-5212
▁république	-5213
▁constamment	-5214
yd	-5215
omn	-5216
▁fe	-5217
▁jn	-5218
amis	-5219
uise	-5220
▁lsg	-5221
▁mén	-5222
▁bure	-5223
▁fant	-5224
▁mène	-5225
▁opér	-5226
aucune	-5227
ilités	-5228
▁avais	-5229
▁jette	-5230
▁récit	-5231
▁style	-5232
▁employ	-5233
▁pousse	-5234
annoncer	-5235
▁distrib	-5236
▁espèces	-5237
▁revient	-5238
▁verront	-5239
▁étonnés	-5240
▁abreuvés	-5241
▁croyance	-5242
▁parcours	-5243
▁prennent	-5244
entreprise	-5245
▁croyances	-5246
▁entendant	-5247
▁mauvaises	-5248
▁mouvement	-5249
▁principal	-5250
▁rendirent	-5251
▁prisonnier	-5252
▁différences	-5253
▁palestiniens	-5254
▁propriétaire	-5255
▁véritablement	-5256
pes	-5257
▁1)	-5258
▁2-	-5259
▁er	-5260
▁os	-5261
ache	-5262
oloc	-5263
uent	-5264
athie	-5265
impôt	-5266
intég	-5267
▁doux	-5268
▁médi	-5269
▁week	-5270
observ	-5271
▁fréqu	-5272
▁fémin	-5273
▁levée	-5274
▁merve	-5275
▁simil	-5276
édition	-5277
▁banque	-5278
▁divine	-5279
▁former	-5280
▁garant	-5281
▁marqué	-5282
▁origin	-5283
▁routes	-5284
▁sujets	-5285
applique	-5286
humilité	-5287
▁raconté	-5288
▁surface	-5289
améliorer	-5290
▁consiste	-5291
▁enseigne	-5292
▁imbécile	-5293
▁invitons	-5294
▁notamment	-5295
▁pardonnés	-5296
▁chrétienne	-5297
▁évidemment	-5298
2,	-5299
6,	-5300
fe	-5301
:11	-5302
rie	-5303
▁he	-5304
▁10.	-5305
▁pun	-5306
▁tor	-5307
areil	-5308
celui	-5309
▁symp	-5310
▁vain	-5311
appréc	-5312
autant	-5313
introd	-5314
▁lundi	-5315
▁match	-5316
▁mérit	-5317
▁noces	-5318
▁resta	-5319
▁soeur	-5320
▁souci	-5321
▁éclat	-5322
olocaus	-5323
▁acheté	-5324
▁droits	-5325
▁mangez	-5326
▁pleuré	-5327
▁suivit	-5328
▁voleur	-5329
ecriture	-5330
▁aillent	-5331
▁docteur	-5332
▁entrepr	-5333
▁jéroboam	-5334
▁maladies	-5335
▁remettre	-5336
▁milliards	-5337
▁réveillée	-5338
▁troupeaux	-5339
▁accompagné	-5340
▁connaissez	-5341
3,	-5342
üm	-5343
▁2:	-5344
adel	-5345
cipl	-5346
rité	-5347
âtre	-5348
▁mor	-5349
▁rig	-5350
▁agir	-5351
▁bleu	-5352
▁dort	-5353
▁remb	-5354
▁sexe	-5355
atures	-5356
excell	-5357
ouvrir	-5358
▁auxqu	-5359
▁délai	-5360
▁franc	-5361
▁maîtr	-5362
▁écoul	-5363
blement	-5364
▁bethlé	-5365
▁client	-5366
▁fleurs	-5367
▁idoles	-5368
position	-5369
▁chevaux	-5370
▁confort	-5371
▁devriez	-5372
▁domaine	-5373
▁faisais	-5374
▁louange	-5375
▁regards	-5376
▁environs	-5377
▁demeurent	-5378
▁descendre	-5379
▁ephésiens	-5380
▁supérieur	-5381
▁énormément	-5382
▁reconnaître	-5383
▁conformément	-5384
▁reconnaissance	-5385
:28	-5386
uée	-5387
▁8.	-5388
agés	-5389
▁blas	-5390
▁pert	-5391
▁renf	-5392
▁sûre	-5393
▁évol	-5394
▁jugés	-5395
▁marqu	-5396
▁surpr	-5397
▁vainc	-5398
▁dessin	-5399
▁distin	-5400
▁parles	-5401
▁quitte	-5402
▁remont	-5403
▁rendra	-5404
▁règles	-5405
accepter	-5406
registre	-5407
▁dispers	-5408
▁malheur	-5409
▁versets	-5410
▁capharna	-5411
▁dépasser	-5412
▁qualités	-5413
▁soumises	-5414
▁descendit	-5415
▁premières	-5416
▁supporter	-5417
▁dirigeants	-5418
urb	-5419
▁51	-5420
oids	-5421
assés	-5422
auras	-5423
▁lond	-5424
▁mien	-5425
▁moqu	-5426
avança	-5427
▁aimée	-5428
▁améli	-5429
▁bienv	-5430
▁bêtes	-5431
▁guéri	-5432
▁médec	-5433
▁stupé	-5434
ulation	-5435
▁ancien	-5436
▁crédit	-5437
▁entour	-5438
▁envoie	-5439
▁livrer	-5440
▁éprouv	-5441
abandonn	-5442
illement	-5443
objectif	-5444
▁déclara	-5445
▁meurent	-5446
▁petites	-5447
▁ressens	-5448
▁restait	-5449
▁réjouir	-5450
▁vivante	-5451
▁actuelle	-5452
▁persuadé	-5453
▁réaliser	-5454
▁accomplie	-5455
▁demandons	-5456
▁forcément	-5457
accomplisse	-5458
▁apocalypse	-5459
-3	-5460
7,	-5461
▁66	-5462
anie	-5463
ctes	-5464
etat	-5465
ires	-5466
oeil	-5467
quér	-5468
▁jeû	-5469
▁kar	-5470
enses	-5471
itant	-5472
âteau	-5473
▁bann	-5474
▁conj	-5475
▁mach	-5476
▁pure	-5477
▁séch	-5478
étique	-5479
éviter	-5480
▁lions	-5481
▁placé	-5482
▁reine	-5483
▁sépul	-5484
▁acquis	-5485
▁avions	-5486
▁empêch	-5487
▁textes	-5488
▁affirme	-5489
▁couvrir	-5490
▁devrais	-5491
▁discipl	-5492
▁divorce	-5493
▁magistr	-5494
ouchement	-5495
▁baptiste	-5496
▁conduits	-5497
▁pardonné	-5498
▁voitures	-5499
▁combattre	-5500
▁capharnaüm	-5501
▁connaissait	-5502
▁merveilleux	-5503
▁personnages	-5504
21	-5505
sh	-5506
ti	-5507
xi	-5508
don	-5509
fum	-5510
umé	-5511
ver	-5512
acte	-5513
ensi	-5514
égal	-5515
▁cér	-5516
estre	-5517
ouill	-5518
affirm	-5519
▁sympa	-5520
▁affect	-5521
▁emport	-5522
▁empris	-5523
▁madame	-5524
▁manqué	-5525
▁romain	-5526
▁vieill	-5527
▁convert	-5528
▁londres	-5529
▁reviens	-5530
▁facebook	-5531
▁sentiers	-5532
appartient	-5533
▁autorités	-5534
▁justement	-5535
▁populaire	-5536
▁perfection	-5537
▁rappellera	-5538
▁disponibles	-5539
▁importantes	-5540
▁mt	-5541
▁sm	-5542
onnu	-5543
ôtel	-5544
▁bêt	-5545
▁arch	-5546
▁race	-5547
essaye	-5548
▁bébés	-5549
▁feras	-5550
▁jugez	-5551
▁morce	-5552
▁parab	-5553
▁vertu	-5554
▁voile	-5555
▁fausse	-5556
▁jambes	-5557
▁leçons	-5558
▁perman	-5559
▁réconc	-5560
▁sentez	-5561
iniquité	-5562
piration	-5563
▁composé	-5564
▁douceur	-5565
▁exhorte	-5566
▁prenant	-5567
▁précisé	-5568
▁troupes	-5569
abondance	-5570
▁extraord	-5571
▁principe	-5572
▁servante	-5573
▁apprennent	-5574
▁trouvèrent	-5575
50	-5576
aa	-5577
ulé	-5578
▁01	-5579
anne	-5580
argn	-5581
ecte	-5582
hent	-5583
otte	-5584
ésie	-5585
▁1:3	-5586
▁700	-5587
▁mel	-5588
▁sév	-5589
▁tit	-5590
effet	-5591
ister	-5592
▁gaza	-5593
▁hont	-5594
▁payé	-5595
▁fleur	-5596
▁spect	-5597
engager	-5598
ephraïm	-5599
istique	-5600
▁animal	-5601
▁confié	-5602
▁grosse	-5603
▁invite	-5604
▁plaire	-5605
▁économ	-5606
▁cadeaux	-5607
▁circons	-5608
▁dollars	-5609
▁pensons	-5610
▁science	-5611
▁serpent	-5612
▁soutien	-5613
▁défendre	-5614
▁implique	-5615
▁tribunal	-5616
▁fonctionn	-5617
▁justifiés	-5618
▁religieux	-5619
▁discussion	-5620
▁décourager	-5621
▁descendants	-5622
▁généralement	-5623
▁éternellement	-5624
▁thessaloniciens	-5625
of	-5626
▁@	-5627
abe	-5628
ané	-5629
▁02	-5630
alog	-5631
dieu	-5632
lant	-5633
ouvr	-5634
trap	-5635
▁gom	-5636
▁lié	-5637
ressi	-5638
▁etes	-5639
▁mépr	-5640
▁qual	-5641
olique	-5642
▁bénit	-5643
▁exauc	-5644
▁froid	-5645
▁gross	-5646
▁kilom	-5647
▁poids	-5648
▁prouv	-5649
▁réfug	-5650
ouvrage	-5651
▁canada	-5652
▁genèse	-5653
▁oiseau	-5654
▁touche	-5655
▁vierge	-5656
▁oublier	-5657
▁plantes	-5658
▁remarqu	-5659
▁sortent	-5660
▁amoureux	-5661
▁attendez	-5662
▁barnabas	-5663
▁campagne	-5664
▁chrétien	-5665
▁tiennent	-5666
▁enseignant	-5667
▁pleinement	-5668
▁rencontrer	-5669
▁condamnation	-5670
7:	-5671
:15	-5672
ash	-5673
ial	-5674
rel	-5675
rin	-5676
ocat	-5677
▁eve	-5678
▁jur	-5679
▁str	-5680
ormes	-5681
èdent	-5682
éclat	-5683
▁haïs	-5684
▁joab	-5685
▁lour	-5686
▁séle	-5687
▁vive	-5688
▁épre	-5689
▁épée	-5690
entour	-5691
iences	-5692
▁armes	-5693
▁douce	-5694
▁final	-5695
▁plong	-5696
▁récol	-5697
▁régna	-5698
▁veill	-5699
accepte	-5700
asseoir	-5701
▁bureau	-5702
▁emploi	-5703
▁espèce	-5704
▁mépris	-5705
▁parfum	-5706
▁penses	-5707
▁priait	-5708
▁rendus	-5709
▁sermon	-5710
▁vidéos	-5711
▁volont	-5712
▁études	-5713
arrivait	-5714
entrerez	-5715
intéress	-5716
▁chemins	-5717
▁rendait	-5718
▁vouloir	-5719
expliquer	-5720
▁espérons	-5721
▁entrèrent	-5722
▁réflexion	-5723
▁événement	-5724
▁ressources	-5725
▁principales	-5726
▁accomplissez	-5727
**	-5728
:9	-5729
oh	-5730
aly	-5731
▁8,	-5732
▁go	-5733
▁ja	-5734
apes	-5735
ates	-5736
brer	-5737
ranl	-5738
roch	-5739
▁jeh	-5740
▁ray	-5741
▁vég	-5742
▁coût	-5743
▁perp	-5744
▁romp	-5745
cevoir	-5746
ignore	-5747
prouve	-5748
étions	-5749
▁accès	-5750
▁album	-5751
▁avanc	-5752
▁monta	-5753
▁assure	-5754
▁boulev	-5755
▁cancer	-5756
▁désobé	-5757
▁mourra	-5758
▁portug	-5759
▁quator	-5760
▁sommet	-5761
identité	-5762
ographie	-5763
versaire	-5764
▁disting	-5765
▁mangent	-5766
▁articles	-5767
▁aveugles	-5768
▁confront	-5769
▁provient	-5770
▁américain	-5771
▁possibles	-5772
▁arriveront	-5773
▁découverte	-5774
▁entreprise	-5775
▁réalisation	-5776
▁sincèrement	-5777
▁intelligence	-5778
18	-5779
ura	-5780
▁3-	-5781
▁??	-5782
ende	-5783
indi	-5784
reux	-5785
▁cer	-5786
▁opt	-5787
▁the	-5788
▁vig	-5789
etait	-5790
illon	-5791
orent	-5792
ulité	-5793
▁goût	-5794
▁oliv	-5795
▁tais	-5796
animal	-5797
effond	-5798
espace	-5799
éclair	-5800
▁chute	-5801
▁doctr	-5802
▁latin	-5803
▁tiers	-5804
▁tuent	-5805
▁caïphe	-5806
▁circul	-5807
▁irrépr	-5808
▁littér	-5809
▁objets	-5810
▁restez	-5811
▁sombre	-5812
▁terres	-5813
▁voisin	-5814
▁artiste	-5815
▁complex	-5816
▁compose	-5817
▁coucher	-5818
▁essayez	-5819
▁manassé	-5820
▁vieille	-5821
quisition	-5822
▁aiguille	-5823
▁centaine	-5824
▁chambres	-5825
▁détruits	-5826
▁reconstr	-5827
▁tenaient	-5828
▁imbéciles	-5829
▁politesse	-5830
▁sortirent	-5831
fais	-5832
hous	-5833
▁tri	-5834
ajout	-5835
ouvre	-5836
▁bref	-5837
▁culp	-5838
▁fall	-5839
▁murs	-5840
▁russ	-5841
atique	-5842
ricult	-5843
termin	-5844
▁allée	-5845
▁films	-5846
▁guide	-5847
▁large	-5848
▁panne	-5849
affront	-5850
inaires	-5851
▁diront	-5852
▁figure	-5853
▁partit	-5854
▁régime	-5855
▁réveil	-5856
▁chacune	-5857
▁chaleur	-5858
▁convers	-5859
▁césarée	-5860
▁ordonna	-5861
▁rendant	-5862
▁univers	-5863
▁quartier	-5864
▁remarqué	-5865
▁réfléchir	-5866
organisation	-5867
▁personnellement	-5868
.3	-5869
.:	-5870
ds	-5871
had	-5872
oué	-5873
roy	-5874
rui	-5875
▁3,	-5876
▁ly	-5877
dite	-5878
enci	-5879
icie	-5880
rach	-5881
▁hél	-5882
▁mos	-5883
▁tur	-5884
ettez	-5885
▁ital	-5886
▁relâ	-5887
▁sing	-5888
▁zach	-5889
ercice	-5890
uation	-5891
ucteur	-5892
▁1905.	-5893
▁crise	-5894
▁pêche	-5895
▁tirer	-5896
adressa	-5897
▁famili	-5898
▁introd	-5899
▁mienne	-5900
▁phrase	-5901
▁procéd	-5902
▁relève	-5903
▁rempli	-5904
▁signal	-5905
▁touché	-5906
▁tourné	-5907
▁cuisine	-5908
▁définit	-5909
▁journal	-5910
▁nourrir	-5911
▁permett	-5912
▁périsse	-5913
▁reposer	-5914
esclavage	-5915
▁faudrait	-5916
intéresser	-5917
▁bienheure	-5918
▁découvrir	-5919
▁gravement	-5920
▁propriété	-5921
▁permettent	-5922
▁reviennent	-5923
accouchement	-5924
▁préparation	-5925
▁témoignages	-5926
▁communication	-5927
▁→	-5928
isl	-5929
onu	-5930
ués	-5931
▁éb	-5932
évén	-5933
▁new	-5934
▁tyr	-5935
andre	-5936
mment	-5937
▁cria	-5938
▁nath	-5939
▁damas	-5940
▁grèce	-5941
▁haïss	-5942
▁laban	-5943
▁levez	-5944
▁perte	-5945
▁végét	-5946
épisode	-5947
▁blasph	-5948
▁histor	-5949
▁passés	-5950
▁prêché	-5951
▁considé	-5952
▁donnant	-5953
▁femelle	-5954
▁hommage	-5955
▁hauteurs	-5956
▁internet	-5957
▁rappelez	-5958
▁rembours	-5959
▁souriant	-5960
▁soutenir	-5961
▁suivants	-5962
▁violence	-5963
▁bienfaits	-5964
▁directeur	-5965
▁entendent	-5966
15	-5967
gé	-5968
erl	-5969
isc	-5970
ita	-5971
▁5-	-5972
abel	-5973
adap	-5974
ands	-5975
uels	-5976
unes	-5977
▁300	-5978
écran	-5979
▁perc	-5980
▁sien	-5981
▁1959.	-5982
▁desse	-5983
▁énerv	-5984
▁ajouta	-5985
▁chante	-5986
▁démont	-5987
▁parten	-5988
▁réseau	-5989
▁saisit	-5990
▁équipe	-5991
activité	-5992
ignation	-5993
écoutent	-5994
▁2012...	-5995
▁aspects	-5996
▁donnait	-5997
▁empêche	-5998
▁mesures	-5999
▁regarda	-6000
▁remport	-6001
▁évident	-6002
▁capacité	-6003
▁divinité	-6004
▁longueur	-6005
▁parvenus	-6006
▁secondes	-6007
▁offrandes	-6008
▁égyptiens	-6009
▁habitaient	-6010
▁merveilles	-6011
▁spirituels	-6012
▁changements	-6013
▁connaissons	-6014
lo	-6015
uts	-6016
▁54	-6017
▁iv	-6018
dess	-6019
neuf	-6020
▁eau	-6021
▁joy	-6022
envol	-6023
herbe	-6024
invit	-6025
osoph	-6026
quand	-6027
rites	-6028
▁dame	-6029
▁fich	-6030
▁mets	-6031
▁vide	-6032
images	-6033
▁james	-6034
▁lancé	-6035
▁tuées	-6036
▁élect	-6037
animaux	-6038
emparer	-6039
▁affirm	-6040
▁apparu	-6041
▁chiens	-6042
▁encour	-6043
▁exclus	-6044
▁habitu	-6045
▁imagin	-6046
▁lutter	-6047
▁normal	-6048
appareil	-6049
apporter	-6050
▁ajouter	-6051
▁garçons	-6052
▁psaumes	-6053
influence	-6054
▁enseigné	-6055
▁prescrit	-6056
▁compliqué	-6057
▁phénomène	-6058
▁kilomètres	-6059
▁possession	-6060
établissement	-6061
4:	-6062
6:	-6063
do	-6064
st	-6065
ulg	-6066
▁07	-6067
▁mg	-6068
orge	-6069
▁agi	-6070
▁fab	-6071
▁inn	-6072
comme	-6073
hanie	-6074
itent	-6075
quent	-6076
sière	-6077
ustes	-6078
zaine	-6079
▁amus	-6080
▁larg	-6081
▁soif	-6082
aspect	-6083
ombres	-6084
quérir	-6085
▁acces	-6086
▁danse	-6087
▁deuil	-6088
▁domic	-6089
▁démar	-6090
▁modes	-6091
▁modif	-6092
▁utile	-6093
▁époux	-6094
housias	-6095
parents	-6096
urgence	-6097
écution	-6098
▁frappé	-6099
▁gomorr	-6100
▁passée	-6101
▁portée	-6102
▁racine	-6103
▁remise	-6104
▁virent	-6105
explique	-6106
ressions	-6107
éloigner	-6108
▁décider	-6109
▁renonce	-6110
▁secrets	-6111
▁tableau	-6112
ouverture	-6113
▁béthanie	-6114
▁carrière	-6115
▁gentille	-6116
▁habitent	-6117
▁insensés	-6118
▁intellig	-6119
▁totalité	-6120
▁accueilli	-6121
▁rendaient	-6122
▁production	-6123
▁internation	-6124
0,	-6125
gg	-6126
30.	-6127
opr	-6128
▁05	-6129
▁4,	-6130
oupe	-6131
▁cle	-6132
▁nat	-6133
▁tut	-6134
▁vih	-6135
aison	-6136
primé	-6137
▁amie	-6138
▁anne	-6139
▁dise	-6140
▁poin	-6141
anches	-6142
envoya	-6143
prêtre	-6144
quatre	-6145
épaiss	-6146
▁créée	-6147
▁redev	-6148
▁situe	-6149
▁voyag	-6150
appeler	-6151
itaires	-6152
▁adorer	-6153
▁armées	-6154
▁croiss	-6155
▁embarr	-6156
▁misère	-6157
▁oeuvre	-6158
▁posent	-6159
▁totale	-6160
▁transg	-6161
rédulité	-6162
▁attendu	-6163
▁augment	-6164
▁concept	-6165
▁délivre	-6166
▁honteux	-6167
▁renvoie	-6168
accomplit	-6169
▁contient	-6170
▁couronne	-6171
▁huitième	-6172
▁surprise	-6173
▁venaient	-6174
enregistre	-6175
▁efficaces	-6176
▁irréproch	-6177
▁philosoph	-6178
▁légèrement	-6179
▁magistrats	-6180
▁conséquence	-6181
accompagnement	-6182
aér	-6183
eul	-6184
exh	-6185
▁^^	-6186
fils	-6187
▁nus	-6188
▁put	-6189
▁vac	-6190
oncis	-6191
▁cant	-6192
allais	-6193
emples	-6194
ilibre	-6195
▁abond	-6196
▁congr	-6197
▁dress	-6198
▁isaïe	-6199
▁messi	-6200
▁neige	-6201
▁prest	-6202
▁roman	-6203
▁sable	-6204
▁sport	-6205
▁tâche	-6206
dessous	-6207
▁invité	-6208
▁places	-6209
▁proxim	-6210
▁remerc	-6211
▁bonsoir	-6212
▁choisir	-6213
▁couvert	-6214
▁dorment	-6215
▁fournir	-6216
▁projets	-6217
▁retrait	-6218
▁simples	-6219
▁souffle	-6220
▁suivent	-6221
▁trouvez	-6222
▁activité	-6223
▁gomorrhe	-6224
▁laissant	-6225
▁mensonge	-6226
▁profiter	-6227
▁préparés	-6228
▁écoutent	-6229
▁courageux	-6230
▁fondation	-6231
▁individus	-6232
▁objectifs	-6233
▁présentes	-6234
acquisition	-6235
alimentation	-6236
▁dominations	-6237
▁commentaires	-6238
--	-6239
ix	-6240
arm	-6241
iph	-6242
uth	-6243
vel	-6244
éan	-6245
éra	-6246
▁2)	-6247
▁56	-6248
▁59	-6249
▁[3	-6250
agée	-6251
eras	-6252
excl	-6253
insp	-6254
irez	-6255
itée	-6256
oise	-6257
▁air	-6258
▁jal	-6259
▁tue	-6260
initi	-6261
ismes	-6262
tront	-6263
▁alex	-6264
▁brig	-6265
▁mass	-6266
▁maux	-6267
▁neuv	-6268
▁sadd	-6269
▁tire	-6270
assant	-6271
avions	-6272
▁brill	-6273
▁europ	-6274
▁plant	-6275
▁récup	-6276
▁suici	-6277
▁vendu	-6278
▁étape	-6279
actions	-6280
illesse	-6281
ompagne	-6282
écoutes	-6283
▁courir	-6284
▁dirait	-6285
▁formes	-6286
▁gentil	-6287
▁navire	-6288
▁révèle	-6289
▁arrêter	-6290
▁château	-6291
▁ouvrage	-6292
▁propiti	-6293
▁rejoint	-6294
▁tourner	-6295
▁sexuelle	-6296
▁bibliques	-6297
▁condamnés	-6298
▁demandant	-6299
▁dernières	-6300
▁partirent	-6301
▁fonctionne	-6302
▁enseignants	-6303
▁nécessaires	-6304
▁suffisamment	-6305
administration	-6306
▁enseignements	-6307
8,	-6308
9:	-6309
:12	-6310
igé	-6311
amus	-6312
ionn	-6313
▁[1]	-6314
▁amb	-6315
inion	-6316
rible	-6317
▁chat	-6318
▁côte	-6319
▁incl	-6320
▁joué	-6321
▁math	-6322
▁vêtu	-6323
ucéens	-6324
▁abatt	-6325
▁expos	-6326
▁initi	-6327
▁leçon	-6328
empress	-6329
▁précip	-6330
▁scient	-6331
itations	-6332
▁boisson	-6333
▁céleste	-6334
▁pourras	-6335
▁bethléem	-6336
▁consacré	-6337
▁démarche	-6338
▁fidélité	-6339
▁messages	-6340
▁national	-6341
▁rappeler	-6342
▁française	-6343
▁incapable	-6344
▁possédait	-6345
▁structure	-6346
▁tentation	-6347
▁éphésiens	-6348
▁étrangère	-6349
▁commettras	-6350
▁considérés	-6351
▁réputation	-6352
▁sadducéens	-6353
intervention	-6354
▁anniversaire	-6355
'.	-6356
ry	-6357
ada	-6358
aré	-6359
hom	-6360
ick	-6361
îme	-6362
▁$.	-6363
▁coû	-6364
amine	-6365
oches	-6366
▁2020	-6367
▁susc	-6368
▁traî	-6369
aminer	-6370
appela	-6371
uments	-6372
▁créés	-6373
▁diras	-6374
▁débat	-6375
▁frais	-6376
▁mères	-6377
▁règle	-6378
▁tomba	-6379
▁viend	-6380
ffranch	-6381
iration	-6382
itution	-6383
▁débuts	-6384
▁graves	-6385
▁nuages	-6386
▁traité	-6387
observer	-6388
▁absalom	-6389
▁gouttes	-6390
▁moindre	-6391
▁attitude	-6392
▁marchent	-6393
▁médicaux	-6394
▁remarque	-6395
▁versions	-6396
▁contraint	-6397
▁maintenir	-6398
▁proximité	-6399
▁sélection	-6400
▁compréhension	-6401
.,	-6402
âh	-6403
oot	-6404
▁ep	-6405
▁gê	-6406
auff	-6407
enri	-6408
iges	-6409
zéch	-6410
▁193	-6411
▁tar	-6412
▁tom	-6413
alpha	-6414
ammes	-6415
hiver	-6416
idéal	-6417
isait	-6418
ousse	-6419
êteté	-6420
▁acte	-6421
▁choc	-6422
▁coin	-6423
▁fuir	-6424
▁mart	-6425
▁obéi	-6426
▁prol	-6427
▁sugg	-6428
altern	-6429
auront	-6430
▁crime	-6431
▁idées	-6432
▁melch	-6433
▁obéir	-6434
▁saine	-6435
▁sites	-6436
utilise	-6437
égation	-6438
élément	-6439
▁alcool	-6440
▁chauff	-6441
▁chaîne	-6442
▁courte	-6443
▁décide	-6444
▁désirs	-6445
▁franch	-6446
▁inspir	-6447
▁prises	-6448
▁rachel	-6449
▁refuge	-6450
▁repose	-6451
▁retira	-6452
▁répète	-6453
▁écrite	-6454
▁énorme	-6455
▁besoins	-6456
▁moyenne	-6457
▁pratiqu	-6458
▁veillez	-6459
▁visible	-6460
attachera	-6461
enfuirent	-6462
oublierai	-6463
▁bâtiment	-6464
▁document	-6465
▁domicile	-6466
▁lumières	-6467
▁mépriser	-6468
▁christian	-6469
▁portugais	-6470
▁entendirent	-6471
▁tremblement	-6472
),	-6473
2:	-6474
aw	-6475
emm	-6476
▁5,	-6477
▁63	-6478
____	-6479
abbi	-6480
chec	-6481
quit	-6482
sier	-6483
▁bri	-6484
▁héb	-6485
▁pes	-6486
▁sch	-6487
▁tap	-6488
océan	-6489
tures	-6490
éreux	-6491
étonn	-6492
▁doig	-6493
▁fact	-6494
▁plén	-6495
▁tiré	-6496
▁tres	-6497
atrice	-6498
ctures	-6499
excusa	-6500
oquent	-6501
▁auras	-6502
▁copie	-6503
▁ecrit	-6504
▁lance	-6505
▁ouais	-6506
▁versé	-6507
archite	-6508
attache	-6509
horreur	-6510
▁afflig	-6511
▁chants	-6512
▁chargé	-6513
▁humble	-6514
▁terrif	-6515
▁tourne	-6516
▁église	-6517
arrivais	-6518
érieures	-6519
▁détails	-6520
▁meurtre	-6521
▁raisonn	-6522
▁sympath	-6523
▁éternel	-6524
appellent	-6525
▁devienne	-6526
▁espagnol	-6527
▁activités	-6528
▁comprirent	-6529
▁difficulté	-6530
▁permettant	-6531
▁ressemblent	-6532
▁cinquantaine	-6533
▁signification	-6534
▁responsabilité	-6535
17	-6536
oz	-6537
:29	-6538
:33	-6539
ama	-6540
aum	-6541
enl	-6542
per	-6543
▁ér	-6544
▁ôt	-6545
ball	-6546
gard	-6547
phie	-6548
romp	-6549
▁15.	-6550
▁bis	-6551
▁den	-6552
▁enj	-6553
▁far	-6554
▁sor	-6555
euner	-6556
instr	-6557
ommée	-6558
empire	-6559
▁chron	-6560
▁conçu	-6561
▁dange	-6562
▁durer	-6563
▁foyer	-6564
▁lumin	-6565
▁pacif	-6566
▁écart	-6567
▁double	-6568
▁fortif	-6569
▁guérie	-6570
▁interc	-6571
▁obligé	-6572
▁russie	-6573
▁voulut	-6574
aiguille	-6575
▁charité	-6576
▁désagré	-6577
▁miracul	-6578
allemagne	-6579
entretien	-6580
▁précieux	-6581
▁respecte	-6582
▁royaumes	-6583
▁solitude	-6584
▁reviendra	-6585
▁répandait	-6586
inspiration	-6587
▁excellente	-6588
▁consolateur	-6589
▁professionnel	-6590
40	-6591
li	-6592
èg	-6593
▁ç	-6594
▁69	-6595
mine	-6596
ores	-6597
umer	-6598
éval	-6599
▁ard	-6600
▁det	-6601
▁ham	-6602
▁lan	-6603
▁lic	-6604
▁paï	-6605
▁rét	-6606
▁tam	-6607
▁vus	-6608
adopt	-6609
anaël	-6610
oport	-6611
écriv	-6612
▁club	-6613
▁pape	-6614
▁prim	-6615
▁saut	-6616
▁secr	-6617
▁finir	-6618
▁jolie	-6619
▁mécré	-6620
▁périr	-6621
▁sidon	-6622
▁vivez	-6623
ernelle	-6624
▁classi	-6625
▁danger	-6626
▁détrui	-6627
▁examin	-6628
▁nommée	-6629
▁orient	-6630
▁ouvrit	-6631
▁patrim	-6632
▁reprod	-6633
▁saurez	-6634
▁souris	-6635
▁talent	-6636
▁venons	-6637
exercice	-6638
isations	-6639
▁affront	-6640
▁chasser	-6641
▁chaînes	-6642
▁contemp	-6643
▁dessein	-6644
▁destiné	-6645
▁décédés	-6646
▁morceau	-6647
▁retirer	-6648
▁réponds	-6649
▁antioche	-6650
▁apparaît	-6651
▁continué	-6652
▁couleurs	-6653
▁oliviers	-6654
▁quittera	-6655
▁raconter	-6656
▁renseign	-6657
▁réaction	-6658
▁zacharie	-6659
▁divisions	-6660
▁pratiques	-6661
▁remercier	-6662
▁souhaitez	-6663
▁hypocrites	-6664
▁profondeur	-6665
▁religieuse	-6666
▁culpabilité	-6667
▁personnelle	-6668
▁travaillons	-6669
ja	-6670
aug	-6671
ung	-6672
▁73	-6673
▁my	-6674
amie	-6675
ival	-6676
mont	-6677
tous	-6678
▁jul	-6679
▁nie	-6680
▁rub	-6681
enser	-6682
idiot	-6683
udier	-6684
▁aîné	-6685
▁clin	-6686
▁lait	-6687
▁âmes	-6688
acités	-6689
estime	-6690
exhort	-6691
geance	-6692
infirm	-6693
onomie	-6694
▁aille	-6695
▁convi	-6696
▁enter	-6697
▁fêtes	-6698
▁jetés	-6699
▁motiv	-6700
▁multi	-6701
▁noire	-6702
▁outil	-6703
▁reçue	-6704
attaque	-6705
▁couché	-6706
▁détach	-6707
▁emmené	-6708
▁matéri	-6709
▁moteur	-6710
▁renouv	-6711
▁étapes	-6712
angoisse	-6713
attitude	-6714
iliation	-6715
▁bonjour	-6716
▁endormi	-6717
▁indique	-6718
▁pensait	-6719
alisation	-6720
▁mangerai	-6721
▁reproche	-6722
▁éloignés	-6723
accueillir	-6724
université	-6725
▁boulevers	-6726
▁certitude	-6727
▁convaincu	-6728
▁frontière	-6729
▁plénitude	-6730
▁américains	-6731
▁demandaient	-6732
▁u	-6733
asa	-6734
asc	-6735
cha	-6736
ipr	-6737
obe	-6738
ola	-6739
ota	-6740
rop	-6741
ych	-6742
éga	-6743
▁ed	-6744
alex	-6745
dici	-6746
eden	-6747
iger	-6748
lieu	-6749
nant	-6750
oirs	-6751
oive	-6752
pers	-6753
quet	-6754
îmes	-6755
▁bac	-6756
▁mic	-6757
▁nid	-6758
▁tan	-6759
achat	-6760
assit	-6761
ergie	-6762
eries	-6763
iséde	-6764
▁ador	-6765
▁cand	-6766
▁caïn	-6767
▁célé	-6768
▁diss	-6769
▁mand	-6770
▁surn	-6771
empris	-6772
▁attir	-6773
▁fabri	-6774
▁grain	-6775
▁jeudi	-6776
▁louis	-6777
▁quête	-6778
▁saisi	-6779
abonner	-6780
adolesc	-6781
entoure	-6782
énergie	-6783
établir	-6784
▁europe	-6785
▁manges	-6786
▁profit	-6787
▁recouv	-6788
▁titres	-6789
adresser	-6790
▁afrique	-6791
▁attrist	-6792
▁croyiez	-6793
▁preuves	-6794
▁refaire	-6795
▁restera	-6796
▁syriens	-6797
▁complexe	-6798
▁demandes	-6799
▁dénombre	-6800
▁déplacer	-6801
▁détruite	-6802
▁méthodes	-6803
▁pleurait	-6804
▁prostitu	-6805
▁assemblée	-6806
▁communion	-6807
▁fonctions	-6808
▁commandant	-6809
▁comprenait	-6810
▁melchiséde	-6811
▁prophéties	-6812
▁repentance	-6813
▁stupéfaits	-6814
▁disparaître	-6815
▁rencontrent	-6816
▁consommation	-6817
▁spécialistes	-6818
12	-6819
:0	-6820
:7	-6821
:22	-6822
ala	-6823
ish	-6824
mar	-6825
uez	-6826
yme	-6827
▁4-	-6828
▁dj	-6829
▁ib	-6830
ares	-6831
auto	-6832
tent	-6833
urie	-6834
uste	-6835
▁1,5	-6836
▁1:8	-6837
▁eli	-6838
▁mec	-6839
▁ste	-6840
aises	-6841
autor	-6842
avert	-6843
avion	-6844
enais	-6845
euble	-6846
intes	-6847
oméga	-6848
▁miel	-6849
▁rire	-6850
▁sida	-6851
▁bénis	-6852
▁coran	-6853
▁cycle	-6854
▁cérém	-6855
▁enfer	-6856
▁estim	-6857
▁musée	-6858
▁pénét	-6859
▁contrô	-6860
▁dignes	-6861
▁divisé	-6862
▁déluge	-6863
▁mercre	-6864
▁répart	-6865
▁saisis	-6866
▁sauvet	-6867
▁secour	-6868
▁suisse	-6869
▁surviv	-6870
▁treize	-6871
▁verser	-6872
▁affirmé	-6873
▁arrêtés	-6874
▁conform	-6875
▁contenu	-6876
▁mettait	-6877
▁progrès	-6878
▁précise	-6879
▁réjouis	-6880
honnêteté	-6881
épaisseur	-6882
évolution	-6883
▁corinthe	-6884
▁portrait	-6885
▁publique	-6886
▁supporte	-6887
▁vacances	-6888
approchant	-6889
enseignant	-6890
inquiétude	-6891
▁accomplis	-6892
▁capacités	-6893
▁fondament	-6894
▁racontera	-6895
▁rassemble	-6896
▁convaincre	-6897
▁domination	-6898
▁disposition	-6899
▁instructions	-6900
br	-6901
▁·	-6902
ena	-6903
osh	-6904
éph	-6905
▁xd	-6906
aule	-6907
eule	-6908
part	-6909
étés	-6910
êtez	-6911
▁194	-6912
▁?."	-6913
▁bag	-6914
▁las	-6915
envoi	-6916
inces	-6917
usage	-6918
èvent	-6919
▁loup	-6920
▁pêch	-6921
▁rare	-6922
▁supr	-6923
▁tome	-6924
affich	-6925
▁aviez	-6926
▁verra	-6927
▁éparg	-6928
faction	-6929
issants	-6930
▁blessé	-6931
▁calcul	-6932
▁déposé	-6933
▁faudra	-6934
▁levais	-6935
▁occupé	-6936
▁perdus	-6937
▁presse	-6938
▁prient	-6939
▁restes	-6940
▁trouva	-6941
▁vivait	-6942
▁bateaux	-6943
▁confess	-6944
▁servent	-6945
▁superbe	-6946
▁surpris	-6947
événement	-6948
▁commerce	-6949
▁demeurez	-6950
▁docteurs	-6951
▁endormis	-6952
▁générale	-6953
▁médicale	-6954
▁accueille	-6955
▁croyaient	-6956
▁devinrent	-6957
▁pourrions	-6958
▁poussière	-6959
▁conception	-6960
▁patrimoine	-6961
▁principale	-6962
▁divertissant	-6963
gi	-6964
gl	-6965
vi	-6966
ase	-6967
ber	-6968
isa	-6969
▁bé	-6970
exte	-6971
odon	-6972
érée	-6973
▁500	-6974
▁pét	-6975
▁tra	-6976
abeth	-6977
nelle	-6978
▁cord	-6979
▁dipl	-6980
▁drog	-6981
▁fixé	-6982
▁mard	-6983
▁porn	-6984
▁star	-6985
▁zéro	-6986
......	-6987
▁doués	-6988
affiche	-6989
endance	-6990
uration	-6991
éprouve	-6992
▁belles	-6993
▁boulot	-6994
▁chanté	-6995
▁esther	-6996
▁fermes	-6997
▁ferons	-6998
▁grince	-6999
▁guérit	-7000
▁leader	-7001
▁lâcher	-7002
▁plante	-7003
▁posées	-7004
▁trompé	-7005
▁accorde	-7006
▁attaché	-7007
▁déroule	-7008
▁gestion	-7009
▁logique	-7010
▁multipl	-7011
▁passant	-7012
▁prendra	-7013
▁renforc	-7014
▁revenus	-7015
▁toucher	-7016
actualité	-7017
exception	-7018
▁effectué	-7019
▁endroits	-7020
▁entendue	-7021
▁glorieux	-7022
▁mystères	-7023
▁puissent	-7024
▁sauvages	-7025
approchent	-7026
▁conserver	-7027
▁jugements	-7028
▁nathanaël	-7029
▁bénéficier	-7030
▁collection	-7031
▁originaire	-7032
▁rencontres	-7033
▁satisfaire	-7034
▁situations	-7035
▁deviendront	-7036
▁générations	-7037
▁israélienne	-7038
▁mutuellement	-7039
▁présentation	-7040
▁appartiennent	-7041
.-	-7042
kh	-7043
ân	-7044
ium	-7045
oncé	-7046
pens	-7047
élie	-7048
▁ira	-7049
▁tag	-7050
endie	-7051
illée	-7052
incar	-7053
ocrat	-7054
ories	-7055
ènent	-7056
▁2016	-7057
▁chou	-7058
▁chér	-7059
▁ench	-7060
▁mary	-7061
▁ouvr	-7062
▁queu	-7063
épanou	-7064
▁abram	-7065
▁mener	-7066
▁royal	-7067
▁zones	-7068
▁école	-7069
essence	-7070
individ	-7071
leterre	-7072
▁décède	-7073
▁exécut	-7074
▁honore	-7075
▁malédi	-7076
▁outils	-7077
▁patron	-7078
▁privil	-7079
▁précis	-7080
▁tombés	-7081
▁éclair	-7082
▁épargn	-7083
▁étouff	-7084
encontre	-7085
▁auteurs	-7086
▁enfance	-7087
▁inscrit	-7088
▁philipp	-7089
▁théâtre	-7090
▁tombent	-7091
essentiel	-7092
périences	-7093
▁atteinte	-7094
▁chiffres	-7095
▁imaginez	-7096
▁pouvoirs	-7097
▁puissiez	-7098
▁répandit	-7099
▁échapper	-7100
▁accomplir	-7101
▁châtiment	-7102
▁commettre	-7103
▁documents	-7104
▁fondement	-7105
▁pensaient	-7106
▁résidence	-7107
▁tranquill	-7108
association	-7109
▁respectueux	-7110
▁spirituelle	-7111
▁alimentation	-7112
▁bénédictions	-7113
▁correctement	-7114
▁fonctionnent	-7115
▁régulièrement	-7116
,.	-7117
14	-7118
1:	-7119
8:	-7120
ko	-7121
.10	-7122
:21	-7123
:27	-7124
aïs	-7125
oue	-7126
▁aj	-7127
▁ts	-7128
▁çà	-7129
cent	-7130
▁400	-7131
▁cra	-7132
▁fen	-7133
▁uni	-7134
aitre	-7135
amert	-7136
hôtel	-7137
icier	-7138
issue	-7139
lande	-7140
▁clef	-7141
▁euss	-7142
▁mine	-7143
▁rive	-7144
▁ruth	-7145
▁séri	-7146
▁toit	-7147
▁truc	-7148
enance	-7149
uelles	-7150
▁indép	-7151
▁jetez	-7152
▁nôtre	-7153
▁passa	-7154
▁voies	-7155
apprend	-7156
enlever	-7157
▁accusé	-7158
▁assise	-7159
▁chauss	-7160
▁décrit	-7161
▁expert	-7162
▁gardes	-7163
▁judici	-7164
▁mentir	-7165
▁nôtres	-7166
▁relevé	-7167
▁résumé	-7168
▁traite	-7169
auraient	-7170
▁absence	-7171
▁chargés	-7172
▁coutume	-7173
▁donnons	-7174
▁envoyer	-7175
▁financi	-7176
▁millier	-7177
▁nombres	-7178
▁ouverte	-7179
▁perform	-7180
▁prêcher	-7181
▁repouss	-7182
▁tempête	-7183
▁traiter	-7184
adoration	-7185
animation	-7186
attendais	-7187
▁accordée	-7188
▁ancienne	-7189
▁comporte	-7190
▁demeurer	-7191
▁occasion	-7192
▁paiement	-7193
▁produire	-7194
▁recevant	-7195
▁sépulcre	-7196
▁terrible	-7197
▁vivaient	-7198
accompagne	-7199
alternance	-7200
olocaustes	-7201
▁campagnes	-7202
▁puissions	-7203
▁considérer	-7204
▁développer	-7205
▁ressuscite	-7206
▁entreprises	-7207
▁information	-7208
▁sacrificateur	-7209
by	-7210
sa	-7211
▁î	-7212
aad	-7213
six	-7214
uff	-7215
éth	-7216
▁57	-7217
▁hy	-7218
ayer	-7219
bell	-7220
impl	-7221
orée	-7222
otes	-7223
▁bœu	-7224
▁fun	-7225
▁péd	-7226
▁res	-7227
abatt	-7228
abîme	-7229
accus	-7230
effic	-7231
isera	-7232
istan	-7233
ureur	-7234
éloge	-7235
▁brit	-7236
▁muet	-7237
intern	-7238
▁battu	-7239
▁bière	-7240
▁coupé	-7241
▁exerc	-7242
▁glace	-7243
▁masse	-7244
▁maxim	-7245
▁perse	-7246
▁salar	-7247
▁saraï	-7248
▁strat	-7249
▁tunis	-7250
▁étend	-7251
exprime	-7252
▁ajouté	-7253
▁assist	-7254
▁engend	-7255
▁ferais	-7256
▁genoux	-7257
▁glorif	-7258
▁mètres	-7259
▁portez	-7260
▁pâques	-7261
▁rejeté	-7262
▁troupe	-7263
amertume	-7264
cription	-7265
installe	-7266
▁devenez	-7267
▁discern	-7268
▁jehovah	-7269
▁longues	-7270
▁proposé	-7271
▁survint	-7272
▁écrites	-7273
▁approche	-7274
▁généreux	-7275
▁maîtrise	-7276
▁offrande	-7277
▁paraîtra	-7278
▁philadel	-7279
▁surement	-7280
▁épargnée	-7281
▁ecritures	-7282
▁excellent	-7283
▁héritiers	-7284
▁participé	-7285
imagination	-7286
▁catholique	-7287
▁discipline	-7288
▁malheureux	-7289
▁participants	-7290
emprisonnement	-7291
▁professionnels	-7292
13	-7293
va	-7294
xe	-7295
cid	-7296
unt	-7297
éve	-7298
îte	-7299
▁6,	-7300
▁83	-7301
aver	-7302
èvre	-7303
▁1:4	-7304
▁ais	-7305
▁euh	-7306
▁her	-7307
▁hur	-7308
▁lux	-7309
▁tob	-7310
crire	-7311
ochée	-7312
phère	-7313
plend	-7314
risie	-7315
rivez	-7316
écrit	-7317
édier	-7318
étudi	-7319
▁assi	-7320
▁assu	-7321
▁dédi	-7322
▁déçu	-7323
▁jeph	-7324
▁moul	-7325
▁pomp	-7326
▁sara	-7327
▁supp	-7328
▁évit	-7329
impose	-7330
équité	-7331
▁ferez	-7332
▁folie	-7333
▁formé	-7334
▁intég	-7335
▁légit	-7336
▁maria	-7337
▁navig	-7338
▁sorci	-7339
▁suive	-7340
▁vente	-7341
authent	-7342
inverse	-7343
issante	-7344
épouser	-7345
▁copain	-7346
▁déclin	-7347
▁meurtr	-7348
▁millén	-7349
▁patrie	-7350
▁retenu	-7351
▁reçues	-7352
▁rébell	-7353
▁troubl	-7354
▁étoile	-7355
▁clients	-7356
▁collect	-7357
▁dormait	-7358
▁délivré	-7359
▁feuille	-7360
▁mettant	-7361
▁plateau	-7362
▁séparés	-7363
entendent	-7364
inquiéter	-7365
équilibre	-7366
▁accident	-7367
▁arrivées	-7368
▁citoyens	-7369
▁festival	-7370
▁instants	-7371
▁journées	-7372
▁mangeait	-7373
▁neuvième	-7374
▁parvenir	-7375
▁renommée	-7376
▁ressenti	-7377
▁épreuves	-7378
adversaire	-7379
assistance	-7380
▁baptisant	-7381
▁créatures	-7382
▁détruites	-7383
▁descendant	-7384
▁définition	-7385
▁politiques	-7386
▁philadelphie	-7387
▁modifications	-7388
-5	-7389
:37	-7390
alg	-7391
ano	-7392
▁8:	-7393
▁9.	-7394
▁of	-7395
▁és	-7396
arez	-7397
etre	-7398
héro	-7399
icho	-7400
opri	-7401
osor	-7402
ourg	-7403
rine	-7404
seau	-7405
ysée	-7406
▁8:1	-7407
▁cot	-7408
▁cro	-7409
▁lap	-7410
▁ras	-7411
▁var	-7412
abram	-7413
infin	-7414
▁coqu	-7415
▁cous	-7416
▁embr	-7417
▁prém	-7418
apport	-7419
sibles	-7420
étoile	-7421
étonne	-7422
▁admin	-7423
▁démén	-7424
▁infid	-7425
▁pourv	-7426
▁radio	-7427
adapter	-7428
erreurs	-7429
ruption	-7430
uchodon	-7431
uctions	-7432
émotion	-7433
▁cachés	-7434
▁galaad	-7435
▁michel	-7436
▁ménage	-7437
▁option	-7438
▁poussé	-7439
▁psaume	-7440
▁redout	-7441
▁soldat	-7442
▁tables	-7443
▁tendre	-7444
▁tourna	-7445
attaquer	-7446
aéroport	-7447
excusait	-7448
▁blanche	-7449
▁convoit	-7450
▁entrent	-7451
▁formule	-7452
▁joueurs	-7453
▁menteur	-7454
▁portant	-7455
▁discuter	-7456
▁disposit	-7457
▁logement	-7458
▁parabole	-7459
▁prononcé	-7460
▁préoccup	-7461
▁constitue	-7462
▁suivantes	-7463
uchodonosor	-7464
▁fondements	-7465
▁identiques	-7466
▁recherches	-7467
entraînement	-7468
▁gentillesse	-7469
▁tranquillité	-7470
▁nabuchodonosor	-7471
dr	-7472
ta	-7473
▁{	-7474
.13	-7475
arb	-7476
ecc	-7477
ral	-7478
ton	-7479
▁62	-7480
▁6:	-7481
▁ha	-7482
▁sk	-7483
abst	-7484
arab	-7485
hier	-7486
iale	-7487
èque	-7488
ètre	-7489
érus	-7490
▁cui	-7491
▁del	-7492
▁fuy	-7493
▁noy	-7494
▁van	-7495
...."	-7496
igner	-7497
▁10:3	-7498
▁conç	-7499
▁hâte	-7500
▁joli	-7501
▁lame	-7502
▁mers	-7503
▁ninj	-7504
▁seni	-7505
autrui	-7506
encens	-7507
encour	-7508
oppose	-7509
ordonn	-7510
▁14:17	-7511
▁caval	-7512
▁chass	-7513
▁class	-7514
▁enfui	-7515
▁litre	-7516
▁loint	-7517
▁oppos	-7518
▁patri	-7519
▁proie	-7520
▁queue	-7521
▁silas	-7522
automne	-7523
▁adopté	-7524
▁aimera	-7525
▁auteur	-7526
▁enfuis	-7527
▁législ	-7528
▁procès	-7529
▁revoir	-7530
▁réconf	-7531
▁survie	-7532
▁utiles	-7533
appeller	-7534
apprends	-7535
endement	-7536
immédiat	-7537
▁accepte	-7538
▁bergers	-7539
▁extrait	-7540
▁jéricho	-7541
▁ouverts	-7542
▁parlons	-7543
▁royauté	-7544
▁talents	-7545
▁verrons	-7546
▁élément	-7547
▁arrivait	-7548
▁célébrer	-7549
▁doctrine	-7550
▁détresse	-7551
▁mourrait	-7552
▁médecins	-7553
▁appliquer	-7554
▁catégorie	-7555
▁dimanches	-7556
▁manifeste	-7557
▁mardochée	-7558
▁parlaient	-7559
▁puissante	-7560
▁accessible	-7561
▁commençait	-7562
▁particulière	-7563
▁persévérance	-7564
enregistrement	-7565
-4	-7566
ôn	-7567
:32	-7568
bon	-7569
hel	-7570
▁it	-7571
▁lo	-7572
aure	-7573
chée	-7574
omin	-7575
ouer	-7576
phel	-7577
édée	-7578
▁plu	-7579
appuy	-7580
armes	-7581
ifice	-7582
xiété	-7583
éenne	-7584
▁drag	-7585
▁eloï	-7586
▁flor	-7587
▁jess	-7588
▁outr	-7589
▁regr	-7590
oignée	-7591
▁1987.	-7592
▁bâtit	-7593
▁fumée	-7594
▁hélas	-7595
▁mardi	-7596
▁meurs	-7597
▁récem	-7598
▁référ	-7599
▁scand	-7600
▁stade	-7601
▁éléph	-7602
affirme	-7603
comment	-7604
ivalent	-7605
ériment	-7606
▁assass	-7607
▁donnes	-7608
▁défend	-7609
▁entrés	-7610
▁mouton	-7611
▁multip	-7612
▁occupe	-7613
▁ouvrir	-7614
▁retard	-7615
▁retiré	-7616
▁statut	-7617
▁symbol	-7618
arrivera	-7619
attacher	-7620
▁déteste	-7621
▁eglises	-7622
▁enterré	-7623
▁modèles	-7624
▁offrent	-7625
▁passées	-7626
▁protège	-7627
▁préfère	-7628
▁rendent	-7629
▁soudain	-7630
▁taisent	-7631
▁visiter	-7632
▁écrivit	-7633
▁circonst	-7634
▁emmanuel	-7635
▁entendus	-7636
▁musulman	-7637
▁paraître	-7638
▁patients	-7639
▁remédier	-7640
▁réunions	-7641
▁stupides	-7642
▁surveill	-7643
▁abondance	-7644
▁provinces	-7645
▁récemment	-7646
▁spectacle	-7647
▁trompette	-7648
▁deviennent	-7649
▁manifestée	-7650
▁compétences	-7651
▁grincements	-7652
▁précisément	-7653
▁transmettre	-7654
agr	-7655
amm	-7656
cal	-7657
lés	-7658
olu	-7659
urc	-7660
▁».	-7661
abil	-7662
empt	-7663
mans	-7664
uira	-7665
▁aér	-7666
▁bob	-7667
▁cos	-7668
▁jas	-7669
▁lee	-7670
▁nin	-7671
avent	-7672
empar	-7673
quant	-7674
uites	-7675
ultez	-7676
▁auto	-7677
▁féri	-7678
▁meme	-7679
▁obst	-7680
▁québ	-7681
▁scén	-7682
▁tiss	-7683
accent	-7684
empêch	-7685
iquent	-7686
▁assur	-7687
▁civil	-7688
▁enreg	-7689
▁fière	-7690
▁fonds	-7691
▁magie	-7692
apporte	-7693
astique	-7694
imagine	-7695
zéchias	-7696
▁afferm	-7697
▁déchir	-7698
▁exposé	-7699
▁foudre	-7700
▁locaux	-7701
▁mettra	-7702
▁prouve	-7703
▁régner	-7704
▁saisir	-7705
▁britann	-7706
▁chiffre	-7707
▁comptes	-7708
▁concent	-7709
▁conflit	-7710
▁dépasse	-7711
▁montant	-7712
▁saurait	-7713
▁sentais	-7714
▁sources	-7715
▁collabor	-7716
▁mercredi	-7717
▁recueill	-7718
▁réconcil	-7719
▁évidence	-7720
▁bénéfices	-7721
▁condamner	-7722
▁contribué	-7723
▁distances	-7724
▁histoires	-7725
▁meurtrier	-7726
▁officiers	-7727
exhortation	-7728
▁continuent	-7729
▁libération	-7730
▁meilleures	-7731
▁signifient	-7732
accompliront	-7733
▁holocaustes	-7734
▁descendaient	-7735
▁premièrement	-7736
▁christianisme	-7737
9,	-7738
zz	-7739
.."	-7740
err	-7741
ics	-7742
irs	-7743
rut	-7744
▁3)	-7745
▁75	-7746
▁98	-7747
amén	-7748
elop	-7749
uiss	-7750
▁bah	-7751
▁cab	-7752
▁loy	-7753
▁pen	-7754
oints	-7755
▁drap	-7756
▁foot	-7757
▁frag	-7758
▁frat	-7759
▁jeta	-7760
auprès	-7761
eloppe	-7762
envoyé	-7763
graver	-7764
heures	-7765
inclin	-7766
oiseau	-7767
▁adoré	-7768
▁brûlé	-7769
▁creus	-7770
▁croie	-7771
▁music	-7772
▁notes	-7773
▁soirs	-7774
▁tamar	-7775
▁tarde	-7776
▁vents	-7777
▁évent	-7778
oiseaux	-7779
▁fierté	-7780
▁fortes	-7781
▁mascul	-7782
▁montés	-7783
▁papier	-7784
▁plaine	-7785
▁toucha	-7786
▁traces	-7787
▁utilis	-7788
empathie	-7789
▁féminin	-7790
▁prétend	-7791
▁remplie	-7792
▁utilise	-7793
adressent	-7794
ativement	-7795
▁assassin	-7796
▁communes	-7797
▁cultures	-7798
▁extermin	-7799
▁installé	-7800
▁ouvertes	-7801
▁perspect	-7802
▁rebelles	-7803
▁remercie	-7804
▁sainteté	-7805
▁sourires	-7806
▁troubles	-7807
▁troupeau	-7808
▁voudrait	-7809
▁vérifier	-7810
▁étonnant	-7811
apparition	-7812
excellence	-7813
équitation	-7814
▁canadiens	-7815
▁captivité	-7816
▁détestent	-7817
▁exception	-7818
▁passèrent	-7819
▁possèdent	-7820
▁principes	-7821
▁prononcer	-7822
▁quinzaine	-7823
▁regardent	-7824
▁remarquer	-7825
▁retournée	-7826
▁reçoivent	-7827
▁sauvetage	-7828
▁sensation	-7829
▁solutions	-7830
▁souffrait	-7831
▁fondations	-7832
▁laissèrent	-7833
▁persécutés	-7834
▁craignaient	-7835
▁disparition	-7836
▁malédiction	-7837
▁proposition	-7838
▁compatissant	-7839
▁réfléchissait	-7840
/10	-7841
iew	-7842
âne	-7843
▁86	-7844
▁90	-7845
▁fâ	-7846
▁mm	-7847
azar	-7848
hiop	-7849
inés	-7850
ombe	-7851
èler	-7852
▁dim	-7853
▁dot	-7854
▁hom	-7855
▁net	-7856
▁ros	-7857
▁ève	-7858
alyse	-7859
exerc	-7860
uisez	-7861
▁dura	-7862
▁hand	-7863
▁perç	-7864
▁soll	-7865
▁îles	-7866
eresse	-7867
expuls	-7868
hérode	-7869
usions	-7870
vement	-7871
▁aides	-7872
▁boucl	-7873
▁fauss	-7874
▁fumer	-7875
▁piste	-7876
▁songe	-7877
▁trent	-7878
accorde	-7879
anxiété	-7880
emporte	-7881
éloigne	-7882
▁avenue	-7883
▁débarr	-7884
▁examen	-7885
▁exhort	-7886
▁finale	-7887
▁format	-7888
▁fureur	-7889
▁fériés	-7890
▁lisons	-7891
▁mortes	-7892
▁païens	-7893
▁rocher	-7894
▁tabern	-7895
▁tarder	-7896
▁vivres	-7897
enseigne	-7898
▁annonça	-7899
▁avancer	-7900
▁dignité	-7901
▁essenti	-7902
▁gardien	-7903
▁indiqué	-7904
▁informé	-7905
▁italien	-7906
▁prêchée	-7907
▁réserve	-7908
▁saintes	-7909
▁termine	-7910
▁tunisie	-7911
▁valeurs	-7912
▁voulant	-7913
appliquer	-7914
▁feuilles	-7915
▁peinture	-7916
▁quatorze	-7917
▁semblait	-7918
▁souhaité	-7919
▁terminée	-7920
▁touchant	-7921
approchera	-7922
▁attendait	-7923
▁avantages	-7924
▁classique	-7925
▁connaisse	-7926
▁consommer	-7927
▁encourage	-7928
▁expliquer	-7929
▁fortement	-7930
▁intéresse	-7931
▁médiateur	-7932
▁reconnaît	-7933
▁élections	-7934
▁accueillir	-7935
▁rassembler	-7936
▁travaillez	-7937
authenticité	-7938
▁cherchaient	-7939
▁intéressant	-7940
▁populations	-7941
▁religieuses	-7942
▁commencèrent	-7943
▁conversation	-7944
▁dénombrement	-7945
▁principalement	-7946
/2	-7947
4]	-7948
hy	-7949
ji	-7950
èn	-7951
ael	-7952
ali	-7953
aur	-7954
hes	-7955
sib	-7956
▁5:	-7957
août	-7958
igné	-7959
quée	-7960
éant	-7961
▁hyp	-7962
▁suc	-7963
▁yog	-7964
acles	-7965
assad	-7966
dront	-7967
envis	-7968
horiz	-7969
hypoc	-7970
terne	-7971
▁ball	-7972
▁brav	-7973
▁glob	-7974
▁lévi	-7975
▁robe	-7976
▁sand	-7977
▁surp	-7978
▁toil	-7979
interv	-7980
israel	-7981
éteint	-7982
▁combl	-7983
▁etait	-7984
▁fermé	-7985
▁jaune	-7986
▁jeûne	-7987
▁lavés	-7988
▁miens	-7989
▁numér	-7990
▁pleuv	-7991
▁relev	-7992
▁tours	-7993
▁visit	-7994
aurions	-7995
inconnu	-7996
obilier	-7997
ucteurs	-7998
èlement	-7999
▁candid	-8000
▁effets	-8001
▁exaucé	-8002
▁frappa	-8003
▁libéré	-8004
▁maudit	-8005
▁perdue	-8006
▁ramass	-8007
▁rendue	-8008
▁retent	-8009
▁samson	-8010
emmanuel	-8011
existent	-8012
humidité	-8013
▁excuses	-8014
▁faciles	-8015
▁fermera	-8016
▁honneur	-8017
▁pouvant	-8018
▁remonte	-8019
▁saurais	-8020
amusement	-8021
exécution	-8022
▁annoncée	-8023
▁artistes	-8024
▁coutumes	-8025
▁démocrat	-8026
▁louanges	-8027
▁marchons	-8028
▁parfaits	-8029
▁pouvions	-8030
▁pression	-8031
interroger	-8032
▁capitaine	-8033
▁dangereux	-8034
▁demandais	-8035
▁montèrent	-8036
▁musulmans	-8037
▁nationale	-8038
emplacement	-8039
instruction	-8040
▁prophétise	-8041
▁supérieure	-8042
▁séparation	-8043
▁profondeurs	-8044
▁prédication	-8045
3:	-8046
éz	-8047
aam	-8048
aye	-8049
aël	-8050
uct	-8051
▁""	-8052
▁6-	-8053
▁=)	-8054
▁hu	-8055
▁lc	-8056
▁tw	-8057
?...	-8058
abus	-8059
acée	-8060
aler	-8061
chem	-8062
igue	-8063
odic	-8064
ords	-8065
pier	-8066
émer	-8067
▁1.1	-8068
▁fre	-8069
▁mex	-8070
▁méf	-8071
▁rém	-8072
▁zéb	-8073
iqués	-8074
oquée	-8075
outez	-8076
ètent	-8077
écras	-8078
▁coté	-8079
▁goli	-8080
▁miss	-8081
▁rand	-8082
▁veau	-8083
aimons	-8084
emport	-8085
ensité	-8086
illons	-8087
infini	-8088
invite	-8089
resses	-8090
çaient	-8091
▁bâton	-8092
▁hauts	-8093
▁innoc	-8094
▁motif	-8095
▁mâles	-8096
▁plaça	-8097
▁psych	-8098
▁puits	-8099
▁pèler	-8100
▁verbe	-8101
▁vivra	-8102
ensions	-8103
éclaire	-8104
▁arrach	-8105
▁baisse	-8106
▁circon	-8107
▁dedans	-8108
▁estime	-8109
▁handic	-8110
▁italie	-8111
▁jusque	-8112
▁laodic	-8113
▁pattes	-8114
▁prenne	-8115
▁rassur	-8116
▁réunit	-8117
▁sauvez	-8118
▁verras	-8119
▁verres	-8120
▁énervé	-8121
apprécie	-8122
▁assurer	-8123
▁chances	-8124
▁honnête	-8125
▁nourrit	-8126
▁passons	-8127
▁portent	-8128
▁remplir	-8129
▁seniors	-8130
▁sentier	-8131
▁sincère	-8132
▁suprême	-8133
▁valable	-8134
accueille	-8135
▁auxquels	-8136
▁division	-8137
▁désordre	-8138
▁effrayés	-8139
▁exemples	-8140
▁injustes	-8141
▁montrent	-8142
▁repentir	-8143
▁trouvant	-8144
▁éloigner	-8145
automobile	-8146
efficacité	-8147
encourager	-8148
interrogea	-8149
▁annonçant	-8150
▁cérémonie	-8151
▁messieurs	-8152
▁nombreuse	-8153
▁parlèrent	-8154
▁appartenez	-8155
▁commencent	-8156
▁complément	-8157
▁engagement	-8158
▁précieuses	-8159
▁prévention	-8160
▁similaires	-8161
▁communiquer	-8162
▁destination	-8163
▁professeurs	-8164
▁recommandons	-8165
5]	-8166
gs	-8167
ack	-8168
agi	-8169
ald	-8170
hyp	-8171
ini	-8172
itt	-8173
nez	-8174
pre	-8175
sur	-8176
▁?.	-8177
▁oc	-8178
icat	-8179
inée	-8180
ogne	-8181
orés	-8182
qués	-8183
uies	-8184
▁7:4	-8185
▁alt	-8186
▁gam	-8187
▁léa	-8188
▁nez	-8189
errer	-8190
essai	-8191
notre	-8192
orage	-8193
ville	-8194
éleva	-8195
énité	-8196
▁astu	-8197
▁caus	-8198
▁cong	-8199
▁gare	-8200
▁geth	-8201
▁murm	-8202
▁réch	-8203
▁tonn	-8204
▁will	-8205
▁élus	-8206
▁évac	-8207
ataire	-8208
ignent	-8209
itudes	-8210
ualité	-8211
▁achet	-8212
▁chars	-8213
▁gamme	-8214
▁henri	-8215
▁piège	-8216
▁répar	-8217
▁répét	-8218
▁tirée	-8219
▁vécut	-8220
▁écras	-8221
▁étude	-8222
accuser	-8223
artiste	-8224
honnête	-8225
ouvrira	-8226
quement	-8227
▁appare	-8228
▁brûler	-8229
▁chassé	-8230
▁confin	-8231
▁consci	-8232
▁fondée	-8233
▁insist	-8234
▁josias	-8235
▁laissa	-8236
▁perdra	-8237
▁ramené	-8238
▁récipr	-8239
▁réduit	-8240
▁étroit	-8241
ventions	-8242
établira	-8243
▁colline	-8244
▁dessous	-8245
▁flammes	-8246
▁fortune	-8247
▁fournit	-8248
▁légumes	-8249
▁navires	-8250
▁précaut	-8251
▁purifié	-8252
▁revêtus	-8253
▁succomb	-8254
▁sénégal	-8255
▁trouble	-8256
▁zébédée	-8257
▁éloigné	-8258
accordent	-8259
▁chansons	-8260
▁crieront	-8261
▁expliqué	-8262
▁intérêts	-8263
▁manquent	-8264
▁recettes	-8265
▁recherch	-8266
▁souvient	-8267
appartiens	-8268
exposition	-8269
évaluation	-8270
▁affection	-8271
▁conduisit	-8272
▁multiples	-8273
▁princesse	-8274
▁précédent	-8275
▁revinrent	-8276
allaitement	-8277
▁abandonnée	-8278
▁automobile	-8279
▁auxquelles	-8280
▁connaîtrez	-8281
▁permanence	-8282
▁satisfaction	-8283
▁gouvernements	-8284
1]	-8285
cou	-8286
mos	-8287
old	-8288
phr	-8289
urr	-8290
âtr	-8291
▁!.	-8292
▁cm	-8293
▁dî	-8294
▁ke	-8295
▁om	-8296
▁»,	-8297
%...	-8298
agez	-8299
aies	-8300
effr	-8301
esté	-8302
ider	-8303
impr	-8304
inde	-8305
nels	-8306
élab	-8307
▁11.	-8308
▁12.	-8309
▁déç	-8310
▁neu	-8311
▁éte	-8312
ammon	-8313
aphat	-8314
ardes	-8315
estes	-8316
èvera	-8317
époux	-8318
▁1000	-8319
▁2015	-8320
▁belg	-8321
▁bret	-8322
▁brut	-8323
▁renv	-8324
▁scul	-8325
▁sion	-8326
▁séqu	-8327
auriez	-8328
devant	-8329
idence	-8330
impact	-8331
impôts	-8332
▁avent	-8333
▁boîte	-8334
▁bâtir	-8335
▁coins	-8336
▁coute	-8337
▁indis	-8338
▁influ	-8339
▁peurs	-8340
▁plans	-8341
▁poche	-8342
▁russe	-8343
▁réuni	-8344
augment	-8345
entrepr	-8346
priment	-8347
égalité	-8348
▁aidera	-8349
▁allant	-8350
▁balaam	-8351
▁blanch	-8352
▁chaude	-8353
▁couper	-8354
▁impecc	-8355
▁lancer	-8356
▁lignes	-8357
▁paraît	-8358
▁retire	-8359
▁sienne	-8360
▁statue	-8361
▁suivez	-8362
▁vagues	-8363
▁étudié	-8364
estation	-8365
internet	-8366
▁accroch	-8367
▁finance	-8368
▁illustr	-8369
▁immense	-8370
▁machine	-8371
▁montagn	-8372
▁médical	-8373
▁méditer	-8374
▁observé	-8375
▁révolte	-8376
▁sauvage	-8377
▁secteur	-8378
▁sentait	-8379
▁serions	-8380
▁stature	-8381
▁stratég	-8382
▁sérieux	-8383
▁vitesse	-8384
▁vivrons	-8385
▁édition	-8386
attendait	-8387
▁accepter	-8388
▁agissent	-8389
▁conclure	-8390
▁conflits	-8391
▁habitait	-8392
▁handicap	-8393
▁muraille	-8394
▁officier	-8395
▁présenta	-8396
▁révélées	-8397
hypocrisie	-8398
▁consultez	-8399
▁découvrez	-8400
▁interdite	-8401
▁interprét	-8402
▁méprisera	-8403
▁provoquer	-8404
▁regardait	-8405
▁rébellion	-8406
entendaient	-8407
▁photograph	-8408
▁prostituée	-8409
▁quelconque	-8410
▁restaurant	-8411
▁réflexions	-8412
architecture	-8413
▁incrédulité	-8414
▁exclusivement	-8415
-)	-8416
.)	-8417
16	-8418
7]	-8419
.24	-8420
dia	-8421
hyd	-8422
jui	-8423
éon	-8424
▁kh	-8425
▁sl	-8426
▁sn	-8427
atie	-8428
attr	-8429
bert	-8430
esqu	-8431
ings	-8432
obst	-8433
oooo	-8434
rich	-8435
sida	-8436
▁dyn	-8437
▁hés	-8438
▁pic	-8439
▁âne	-8440
acent	-8441
allen	-8442
angél	-8443
cript	-8444
estim	-8445
iaque	-8446
ollos	-8447
reurs	-8448
▁bond	-8449
▁crié	-8450
▁dari	-8451
▁dout	-8452
▁elfe	-8453
▁heur	-8454
▁hong	-8455
▁liés	-8456
▁oeil	-8457
▁paru	-8458
▁épis	-8459
aliser	-8460
arabie	-8461
extrém	-8462
exécut	-8463
pierre	-8464
ébranl	-8465
▁23...	-8466
▁adore	-8467
▁aînés	-8468
▁boute	-8469
▁canan	-8470
▁cerve	-8471
▁geste	-8472
▁geths	-8473
▁gliss	-8474
▁magas	-8475
▁minim	-8476
▁mécan	-8477
▁ninja	-8478
▁perde	-8479
▁presc	-8480
▁signé	-8481
▁tronc	-8482
abandon	-8483
diction	-8484
espagne	-8485
ibilité	-8486
▁adapté	-8487
▁advers	-8488
▁aperçu	-8489
▁battus	-8490
▁brûlés	-8491
▁confie	-8492
▁crimin	-8493
▁disput	-8494
▁domest	-8495
▁espace	-8496
▁frappe	-8497
▁goutte	-8498
▁immédi	-8499
▁permit	-8500
▁restri	-8501
▁saluez	-8502
▁tenter	-8503
▁terror	-8504
allemand	-8505
espagnol	-8506
occident	-8507
ologique	-8508
équipage	-8509
▁approuv	-8510
▁appréci	-8511
▁attente	-8512
▁captifs	-8513
▁colonne	-8514
▁dossier	-8515
▁déplace	-8516
▁goliath	-8517
▁grandir	-8518
▁niveaux	-8519
▁parlais	-8520
▁parvenu	-8521
▁rédempt	-8522
▁répandu	-8523
▁théorie	-8524
▁trouvée	-8525
▁échange	-8526
affichage	-8527
▁complète	-8528
▁laodicée	-8529
▁pleuvoir	-8530
▁rapports	-8531
▁retraite	-8532
▁réfléchi	-8533
▁syrienne	-8534
angleterre	-8535
engagement	-8536
équivalent	-8537
▁conscient	-8538
▁existence	-8539
▁grossesse	-8540
▁nécessité	-8541
▁technique	-8542
abandonnera	-8543
▁frontières	-8544
▁rassemblés	-8545
▁spécialiste	-8546
▁personnalité	-8547
▁spécialement	-8548
▁extraordinaire	-8549
▁irréprochables	-8550
▁représentation	-8551
▁extraordinaires	-8552
fa	-8553
nu	-8554
▁§	-8555
fem	-8556
jon	-8557
rip	-8558
êle	-8559
▁cu	-8560
▁mp	-8561
▁od	-8562
▁pé	-8563
▁rh	-8564
agen	-8565
cire	-8566
itut	-8567
olis	-8568
orth	-8569
oyen	-8570
êque	-8571
▁14.	-8572
▁[2]	-8573
▁bur	-8574
▁cub	-8575
▁dig	-8576
▁lin	-8577
▁sap	-8578
onome	-8579
oubli	-8580
union	-8581
ériel	-8582
▁1:10	-8583
▁agne	-8584
▁banc	-8585
▁bron	-8586
▁gren	-8587
▁lama	-8588
▁past	-8589
▁porc	-8590
▁vélo	-8591
amener	-8592
arbres	-8593
effroi	-8594
estine	-8595
istrer	-8596
ricité	-8597
▁cache	-8598
▁dissi	-8599
▁dépôt	-8600
▁gabri	-8601
▁guère	-8602
▁lucas	-8603
▁nuage	-8604
▁pieux	-8605
▁subir	-8606
▁tueur	-8607
▁virus	-8608
▁élève	-8609
entrain	-8610
lements	-8611
observe	-8612
élevage	-8613
érables	-8614
▁chérub	-8615
▁couche	-8616
▁direct	-8617
▁déchaî	-8618
▁dément	-8619
▁elisée	-8620
▁grandi	-8621
▁livrés	-8622
▁légère	-8623
▁pluies	-8624
▁promen	-8625
▁promet	-8626
▁prover	-8627
▁québec	-8628
▁sculpt	-8629
▁téléch	-8630
affaires	-8631
affirmer	-8632
imaginer	-8633
▁aimerai	-8634
▁appelez	-8635
▁consent	-8636
▁croyait	-8637
▁défauts	-8638
▁emporté	-8639
▁interpr	-8640
▁ordonne	-8641
▁protégé	-8642
▁prouver	-8643
▁relever	-8644
▁ressort	-8645
▁réalise	-8646
▁réduire	-8647
▁souvint	-8648
▁suivait	-8649
▁suscept	-8650
atteindre	-8651
encourage	-8652
▁affranch	-8653
▁agricult	-8654
▁belgique	-8655
▁guérison	-8656
▁manquait	-8657
▁proposer	-8658
▁purifier	-8659
▁vivement	-8660
▁assurance	-8661
▁avènement	-8662
▁cherchant	-8663
▁entendues	-8664
▁installés	-8665
▁prendront	-8666
▁remarques	-8667
▁sacrifier	-8668
▁tombèrent	-8669
▁trentaine	-8670
assignation	-8671
▁circoncire	-8672
▁communiqué	-8673
▁construite	-8674
▁croissance	-8675
▁mangeaient	-8676
▁adversaires	-8677
▁distinction	-8678
▁expressions	-8679
▁expériences	-8680
▁millénaires	-8681
▁spécifiques	-8682
▁heureusement	-8683
▁principautés	-8684
▁professionnelle	-8685
24	-8686
:"	-8687
ii	-8688
ال	-8689
fre	-8690
iff	-8691
jac	-8692
▁64	-8693
▁mû	-8694
astr	-8695
astu	-8696
edom	-8697
hhhh	-8698
lors	-8699
orel	-8700
èdes	-8701
▁13.	-8702
▁arb	-8703
▁bil	-8704
▁cil	-8705
▁coc	-8706
▁enl	-8707
▁kou	-8708
▁léo	-8709
aimée	-8710
ernes	-8711
illés	-8712
thani	-8713
tique	-8714
épuis	-8715
▁arab	-8716
▁arme	-8717
▁cass	-8718
▁cell	-8719
▁lass	-8720
▁monn	-8721
▁nomm	-8722
▁poit	-8723
▁poul	-8724
▁sons	-8725
alogue	-8726
argile	-8727
avocat	-8728
eliers	-8729
icules	-8730
yptien	-8731
▁about	-8732
▁alent	-8733
▁andré	-8734
▁assyr	-8735
▁balle	-8736
▁chand	-8737
▁galax	-8738
▁idiot	-8739
▁maroc	-8740
▁nomme	-8741
▁ravie	-8742
▁sangu	-8743
▁taire	-8744
ajouter	-8745
appropr	-8746
encieux	-8747
ivresse	-8748
érieurs	-8749
étendue	-8750
▁assuré	-8751
▁darius	-8752
▁devrez	-8753
▁divorc	-8754
▁désiré	-8755
▁dévoil	-8756
▁formid	-8757
▁offrit	-8758
▁prompt	-8759
▁prêter	-8760
▁réelle	-8761
▁seules	-8762
▁stress	-8763
▁trompe	-8764
individu	-8765
personne	-8766
▁acteurs	-8767
▁challen	-8768
▁desséch	-8769
▁gethsém	-8770
▁graines	-8771
▁habiter	-8772
▁importe	-8773
▁leaders	-8774
▁libérer	-8775
▁magique	-8776
▁pousser	-8777
▁rejoign	-8778
▁réponde	-8779
▁suicide	-8780
▁supplie	-8781
▁tristes	-8782
accomplît	-8783
▁commerci	-8784
▁contexte	-8785
▁détourne	-8786
▁observer	-8787
▁plaisirs	-8788
▁rapporte	-8789
▁sérénité	-8790
▁tonnerre	-8791
▁téléphon	-8792
▁utilisés	-8793
habitation	-8794
▁alentours	-8795
▁cherchait	-8796
▁circoncis	-8797
▁donnerait	-8798
▁egyptiens	-8799
▁militaire	-8800
▁moquaient	-8801
▁ouverture	-8802
▁promotion	-8803
▁prosterne	-8804
▁prédestin	-8805
aménagement	-8806
▁conseiller	-8807
▁couverture	-8808
▁expression	-8809
▁rapprocher	-8810
▁ordonnances	-8811
▁philippiens	-8812
▁quarantaine	-8813
▁congrégation	-8814
▁melchisédech	-8815
▁persécutions	-8816
▁contrairement	-8817
▁scientifiques	-8818
▁complémentaires	-8819
8]	-8820
ca	-8821
cor	-8822
dio	-8823
esh	-8824
hem	-8825
irc	-8826
rac	-8827
vée	-8828
▁?!	-8829
▁?)	-8830
▁aï	-8831
▁da	-8832
abbé	-8833
icon	-8834
inet	-8835
oral	-8836
osex	-8837
uées	-8838
énée	-8839
▁120	-8840
▁bul	-8841
▁cov	-8842
▁fau	-8843
▁nob	-8844
blige	-8845
elier	-8846
garde	-8847
illum	-8848
inage	-8849
iquée	-8850
itera	-8851
ottes	-8852
▁....	-8853
▁6:23	-8854
▁bill	-8855
▁crie	-8856
▁issu	-8857
▁juré	-8858
▁pâte	-8859
▁ryth	-8860
embarr	-8861
empare	-8862
honore	-8863
instru	-8864
isible	-8865
oquant	-8866
rocher	-8867
uscule	-8868
ustens	-8869
épaule	-8870
▁2005:	-8871
▁ailes	-8872
▁amuse	-8873
▁beaux	-8874
▁bénin	-8875
▁corne	-8876
▁discr	-8877
▁dégât	-8878
▁exige	-8879
▁finit	-8880
▁fouet	-8881
▁gérer	-8882
▁jaill	-8883
▁laver	-8884
▁reçus	-8885
▁sympt	-8886
▁vôtre	-8887
appelez	-8888
apprête	-8889
enquête	-8890
iendras	-8891
oralité	-8892
urrence	-8893
éloigna	-8894
▁bouill	-8895
▁cesser	-8896
▁couvre	-8897
▁durent	-8898
▁débuté	-8899
▁ephèse	-8900
▁jephté	-8901
▁miroir	-8902
▁montée	-8903
▁néglig	-8904
▁purent	-8905
▁ralent	-8906
▁repart	-8907
▁sabach	-8908
▁sacrés	-8909
▁sollic	-8910
▁trahis	-8911
▁trajet	-8912
accroche	-8913
▁assurez	-8914
▁barnabé	-8915
▁classes	-8916
▁contrat	-8917
▁dommage	-8918
▁désigne	-8919
▁eussiez	-8920
▁mortels	-8921
▁parlant	-8922
▁refuser	-8923
▁survécu	-8924
adressait	-8925
extrémité	-8926
habitants	-8927
housiasme	-8928
obtention	-8929
portunité	-8930
▁fréquent	-8931
▁garantie	-8932
▁inébranl	-8933
▁justifié	-8934
▁mangeras	-8935
▁purifiés	-8936
▁reconnus	-8937
▁remporte	-8938
▁resterai	-8939
abandonnez	-8940
achèvement	-8941
emmenèrent	-8942
▁atteindre	-8943
▁attendent	-8944
▁compagnon	-8945
▁dispersés	-8946
▁essentiel	-8947
▁interroge	-8948
▁librement	-8949
▁moururent	-8950
▁passionné	-8951
▁proclamer	-8952
▁progressi	-8953
▁suffisant	-8954
▁télécharg	-8955
▁accueillis	-8956
▁corruption	-8957
▁couramment	-8958
▁envoyèrent	-8959
▁faiblesses	-8960
▁historique	-8961
▁maternelle	-8962
▁révolution	-8963
▁transforme	-8964
▁bienheureux	-8965
▁circulation	-8966
▁instruments	-8967
▁reconnaisse	-8968
▁sabachthani	-8969
▁associations	-8970
▁dispositions	-8971
▁possibilités	-8972
▁connaissaient	-8973
ck	-8974
du	-8975
له	-8976
45.	-8977
:36	-8978
:38	-8979
atr	-8980
eve	-8981
iam	-8982
mat	-8983
own	-8984
uln	-8985
vre	-8986
▁1/	-8987
▁gh	-8988
▁hi	-8989
▁ro	-8990
!!!!	-8991
ombr	-8992
quie	-8993
rict	-8994
ulée	-8995
édom	-8996
élim	-8997
ômes	-8998
▁!."	-8999
▁191	-9000
▁3.1	-9001
▁dil	-9002
▁eût	-9003
▁mig	-9004
▁pyr	-9005
▁sir	-9006
▁ski	-9007
ançon	-9008
naire	-9009
orant	-9010
rants	-9011
élect	-9012
▁1:18	-9013
▁barb	-9014
▁bâti	-9015
▁chin	-9016
▁impr	-9017
▁roch	-9018
▁sott	-9019
▁stim	-9020
aignée	-9021
attrib	-9022
effort	-9023
empara	-9024
employ	-9025
ervent	-9026
instar	-9027
interc	-9028
traper	-9029
éponge	-9030
▁2005.	-9031
▁admis	-9032
▁affam	-9033
▁boule	-9034
▁casse	-9035
▁célib	-9036
▁doigt	-9037
▁dégoû	-9038
▁enlev	-9039
▁fallu	-9040
▁fosse	-9041
▁louer	-9042
▁rabbi	-9043
▁sacer	-9044
▁sucre	-9045
▁tests	-9046
entions	-9047
▁bruits	-9048
▁cachée	-9049
▁dérang	-9050
▁essaie	-9051
▁exacte	-9052
▁festin	-9053
▁ignore	-9054
▁lampes	-9055
▁limité	-9056
▁lisant	-9057
▁lévite	-9058
▁menace	-9059
▁rentra	-9060
▁solide	-9061
▁thèmes	-9062
▁tranch	-9063
▁volant	-9064
▁ébranl	-9065
▁étonné	-9066
abilités	-9067
arrivent	-9068
▁adressé	-9069
▁confier	-9070
▁correct	-9071
▁démunis	-9072
▁empress	-9073
▁frappés	-9074
▁oubliée	-9075
▁partant	-9076
▁porteur	-9077
▁préserv	-9078
▁renards	-9079
▁reprend	-9080
▁retirés	-9081
▁section	-9082
▁station	-9083
▁tournée	-9084
▁veiller	-9085
▁épisode	-9086
▁établit	-9087
attendons	-9088
▁arrivons	-9089
▁consomme	-9090
▁critique	-9091
▁domaines	-9092
▁enregist	-9093
▁haïssent	-9094
▁humaines	-9095
▁individu	-9096
▁marchand	-9097
▁matériel	-9098
▁mourront	-9099
▁réussite	-9100
▁scolaire	-9101
▁surpasse	-9102
admiration	-9103
entretenir	-9104
▁administr	-9105
▁approchez	-9106
▁appréciés	-9107
▁cessaient	-9108
▁connaitre	-9109
▁constitué	-9110
▁détruirai	-9111
▁faiblesse	-9112
▁persécuté	-9113
▁procédure	-9114
▁souvienne	-9115
▁survenant	-9116
▁demanderez	-9117
▁emprisonné	-9118
▁permettait	-9119
▁protecteur	-9120
▁traditions	-9121
▁volontaire	-9122
▁soixantaine	-9123
▁supportable	-9124
▁sympathique	-9125
▁bienheureuse	-9126
▁observations	-9127
26	-9128
82	-9129
:30	-9130
:31	-9131
:35	-9132
adj	-9133
lin	-9134
upt	-9135
▁pt	-9136
▁ال	-9137
ilib	-9138
prés	-9139
édie	-9140
évac	-9141
évol	-9142
▁10:	-9143
▁24.	-9144
▁30.	-9145
▁lés	-9146
▁urb	-9147
▁vén	-9148
...;)	-9149
achar	-9150
affil	-9151
avanc	-9152
icher	-9153
imité	-9154
olâtr	-9155
ouler	-9156
épouv	-9157
▁2021	-9158
▁4:13	-9159
▁fout	-9160
▁jack	-9161
▁loue	-9162
▁mant	-9163
▁mena	-9164
▁muni	-9165
▁stér	-9166
▁susp	-9167
▁الله	-9168
achaïe	-9169
acquit	-9170
allume	-9171
andais	-9172
astuce	-9173
enions	-9174
iation	-9175
iquant	-9176
phrate	-9177
tralie	-9178
éprouv	-9179
étaire	-9180
études	-9181
▁actif	-9182
▁amène	-9183
▁angel	-9184
▁appuy	-9185
▁basse	-9186
▁ceint	-9187
▁idole	-9188
▁idéal	-9189
▁jessé	-9190
▁print	-9191
▁revue	-9192
▁tache	-9193
▁unies	-9194
▁usage	-9195
ataires	-9196
embrass	-9197
espérer	-9198
itoyens	-9199
▁avancé	-9200
▁bêtise	-9201
▁centur	-9202
▁commém	-9203
▁duquel	-9204
▁décida	-9205
▁défait	-9206
▁idiots	-9207
▁massac	-9208
▁minute	-9209
▁nettoy	-9210
▁notion	-9211
▁pointe	-9212
▁quitta	-9213
▁sardes	-9214
▁séparé	-9215
▁volume	-9216
▁écrive	-9217
accorder	-9218
agricult	-9219
alentour	-9220
effectue	-9221
illusion	-9222
écrivain	-9223
▁cerveau	-9224
▁concert	-9225
▁ensevel	-9226
▁gabriel	-9227
▁normale	-9228
▁prenait	-9229
▁recours	-9230
▁remplit	-9231
▁réussir	-9232
▁saisons	-9233
▁traduit	-9234
▁visages	-9235
affronter	-9236
▁attachés	-9237
▁attentif	-9238
▁biblique	-9239
▁branches	-9240
▁descends	-9241
▁déjeuner	-9242
▁empêchez	-9243
▁grandeur	-9244
▁mariages	-9245
▁origines	-9246
▁relâcher	-9247
▁remplacé	-9248
▁remporté	-9249
▁réfugiés	-9250
▁témoigne	-9251
immoralité	-9252
▁accomplit	-9253
▁bienvenue	-9254
▁chérubins	-9255
▁démission	-9256
▁détourner	-9257
▁familiale	-9258
▁infidèles	-9259
▁ressentir	-9260
▁sauvegard	-9261
▁commission	-9262
▁conducteur	-9263
▁formidable	-9264
▁intentions	-9265
▁nouveautés	-9266
▁rechercher	-9267
▁silencieux	-9268
▁structures	-9269
▁tabernacle	-9270
▁administrer	-9271
▁appartement	-9272
▁disparaîtra	-9273
▁département	-9274
▁littérature	-9275
▁nourrissent	-9276
▁transporter	-9277
▁avertissement	-9278
▁félicitations	-9279
▁soigneusement	-9280
▁renseignements	-9281
fl	-9282
za	-9283
üs	-9284
سل	-9285
▁¶	-9286
▁ع	-9287
?."	-9288
dou	-9289
kin	-9290
onv	-9291
ork	-9292
tou	-9293
▁dh	-9294
ampl	-9295
ario	-9296
arry	-9297
ceau	-9298
chés	-9299
mise	-9300
neur	-9301
quin	-9302
éden	-9303
érap	-9304
▁14,	-9305
▁16.	-9306
▁250	-9307
▁etc	-9308
▁féd	-9309
▁hal	-9310
▁hos	-9311
▁sun	-9312
achab	-9313
annon	-9314
ariat	-9315
bourg	-9316
effor	-9317
eniez	-9318
escal	-9319
hérit	-9320
inent	-9321
maint	-9322
èches	-9323
▁crép	-9324
▁décr	-9325
▁exig	-9326
▁fous	-9327
▁gour	-9328
▁musc	-9329
▁pétr	-9330
▁roul	-9331
▁sors	-9332
▁vant	-9333
idique	-9334
lation	-9335
onnent	-9336
▁afric	-9337
▁colon	-9338
▁coûte	-9339
▁desqu	-9340
▁euros	-9341
▁forum	-9342
▁graph	-9343
▁levés	-9344
▁lourd	-9345
▁léger	-9346
▁nulle	-9347
▁pause	-9348
▁peste	-9349
▁phase	-9350
▁ravis	-9351
▁remet	-9352
▁riait	-9353
▁vigil	-9354
appréci	-9355
avancer	-9356
ergence	-9357
exercer	-9358
inateur	-9359
opinion	-9360
échelle	-9361
▁aident	-9362
▁avance	-9363
▁charme	-9364
▁couler	-9365
▁criait	-9366
▁danser	-9367
▁filets	-9368
▁grotte	-9369
▁lament	-9370
▁opposé	-9371
▁oublie	-9372
▁polici	-9373
▁réalis	-9374
▁éphèse	-9375
associer	-9376
euphrate	-9377
existait	-9378
utilisez	-9379
▁accéder	-9380
▁arrêtez	-9381
▁attirer	-9382
▁cilicie	-9383
▁deviens	-9384
▁emmenés	-9385
▁intense	-9386
▁maximum	-9387
▁minimum	-9388
▁nourris	-9389
▁portait	-9390
▁préféré	-9391
▁rejette	-9392
▁reprise	-9393
▁séduire	-9394
▁traités	-9395
▁viandes	-9396
▁écoulés	-9397
apparence	-9398
effectuer	-9399
endurance	-9400
▁aimerait	-9401
▁condamne	-9402
▁ezéchias	-9403
▁josaphat	-9404
▁médecine	-9405
▁pressait	-9406
▁prodiges	-9407
▁prêchant	-9408
▁évangile	-9409
▁améliorer	-9410
▁bâtiments	-9411
▁cananéens	-9412
▁challenge	-9413
▁constater	-9414
▁déterminé	-9415
▁fermement	-9416
▁influence	-9417
▁laisserai	-9418
▁palestine	-9419
▁relatives	-9420
▁similaire	-9421
▁tendresse	-9422
▁toilettes	-9423
▁vengeance	-9424
▁voudrions	-9425
▁abandonner	-9426
▁apparaître	-9427
▁commettent	-9428
▁militaires	-9429
▁miraculeux	-9430
▁présentent	-9431
▁recommanda	-9432
▁recommandé	-9433
▁rencontrés	-9434
▁retournent	-9435
▁concitoyens	-9436
▁regardaient	-9437
appartiennent	-9438
▁discernement	-9439
▁intelligents	-9440
▁représentant	-9441
▁représentent	-9442
-8	-9443
6]	-9444
صل	-9445
لي	-9446
▁و	-9447
can	-9448
ete	-9449
ffe	-9450
gie	-9451
hua	-9452
héb	-9453
ley	-9454
lée	-9455
mad	-9456
ora	-9457
sal	-9458
سلم	-9459
صلى	-9460
ليه	-9461
▁00	-9462
ault	-9463
eler	-9464
esti	-9465
etés	-9466
isan	-9467
lige	-9468
nées	-9469
omac	-9470
ophe	-9471
urez	-9472
ésil	-9473
▁23.	-9474
▁ade	-9475
▁ber	-9476
▁eue	-9477
▁faç	-9478
▁mik	-9479
▁pin	-9480
angle	-9481
ifiez	-9482
juifs	-9483
▁1:17	-9484
▁2011	-9485
▁abel	-9486
▁acqu	-9487
▁dict	-9488
▁from	-9489
▁lave	-9490
▁lavé	-9491
▁liée	-9492
▁mené	-9493
▁nids	-9494
▁quas	-9495
▁répl	-9496
▁ésaü	-9497
▁عليه	-9498
agisse	-9499
aleine	-9500
allons	-9501
audace	-9502
emmène	-9503
endort	-9504
entrai	-9505
esseur	-9506
irable	-9507
étouff	-9508
▁2013:	-9509
▁barre	-9510
▁concr	-9511
▁conne	-9512
▁devra	-9513
▁dépou	-9514
▁ecris	-9515
▁envah	-9516
▁moise	-9517
▁optim	-9518
▁ruine	-9519
▁stock	-9520
▁vaine	-9521
▁vases	-9522
▁verse	-9523
amusent	-9524
analyse	-9525
arrière	-9526
exploit	-9527
imposer	-9528
isseurs	-9529
itables	-9530
olâtrie	-9531
onction	-9532
établit	-9533
▁absent	-9534
▁amener	-9535
▁appels	-9536
▁bassin	-9537
▁blancs	-9538
▁brésil	-9539
▁causes	-9540
▁disque	-9541
▁dégâts	-9542
▁forcés	-9543
▁guider	-9544
▁locale	-9545
▁mandat	-9546
▁nathan	-9547
▁négoci	-9548
▁poésie	-9549
▁revend	-9550
▁rédigé	-9551
▁sacrée	-9552
▁voyais	-9553
▁écoles	-9554
aggraver	-9555
embrasse	-9556
émission	-9557
▁catastr	-9558
▁choisis	-9559
▁devoirs	-9560
▁décroch	-9561
▁défendu	-9562
▁déroulé	-9563
▁exploit	-9564
▁fatigué	-9565
▁francis	-9566
▁frapper	-9567
▁furieux	-9568
▁imaginé	-9569
▁jardins	-9570
▁mettrai	-9571
▁michael	-9572
▁observe	-9573
▁positif	-9574
▁regroup	-9575
▁rempart	-9576
▁rentrée	-9577
▁rigueur	-9578
▁sortant	-9579
▁voleurs	-9580
▁épouses	-9581
important	-9582
intendant	-9583
olocauste	-9584
ématiques	-9585
▁approché	-9586
▁changent	-9587
▁conquête	-9588
▁conseill	-9589
▁destinés	-9590
▁laissent	-9591
▁maltrait	-9592
▁organisé	-9593
▁procéder	-9594
▁prémices	-9595
▁renoncer	-9596
▁répandue	-9597
▁tombeaux	-9598
infirmière	-9599
ustensiles	-9600
▁centurion	-9601
▁descendra	-9602
▁développé	-9603
▁entendait	-9604
▁invoquent	-9605
▁largement	-9606
▁lentement	-9607
▁mentionné	-9608
▁permettez	-9609
▁permettra	-9610
▁prononcée	-9611
▁proposent	-9612
▁reconnais	-9613
▁regardant	-9614
▁réactions	-9615
▁utilisées	-9616
enfantement	-9617
▁catégories	-9618
▁européenne	-9619
▁impeccable	-9620
▁maladresse	-9621
▁motivation	-9622
▁respectent	-9623
▁techniques	-9624
installation	-9625
▁britannique	-9626
▁communautés	-9627
▁considèrent	-9628
▁emprisonnés	-9629
▁ressusciter	-9630
▁samaritaine	-9631
▁considérable	-9632
▁gratuitement	-9633
▁merveilleuse	-9634
▁propitiation	-9635
▁travailleurs	-9636
▁propitiatoire	-9637
▁collaborateurs	-9638
▁quotidiennement	-9639
"?	-9640
08	-9641
9]	-9642
bi	-9643
wa	-9644
.17	-9645
:34	-9646
ata	-9647
déj	-9648
hos	-9649
ymp	-9650
écr	-9651
éda	-9652
▁7:	-9653
▁js	-9654
▁ok	-9655
alys	-9656
arte	-9657
aîné	-9658
inal	-9659
inér	-9660
jean	-9661
nait	-9662
urée	-9663
âmes	-9664
▁***	-9665
▁bra	-9666
▁cig	-9667
▁fal	-9668
▁flé	-9669
▁gér	-9670
▁ouï	-9671
▁vif	-9672
▁صلى	-9673
album	-9674
anias	-9675
appui	-9676
arque	-9677
derne	-9678
irait	-9679
irrit	-9680
iture	-9681
obéir	-9682
oqués	-9683
urant	-9684
échec	-9685
▁2000	-9686
▁2010	-9687
▁buis	-9688
▁clan	-9689
▁esaü	-9690
▁feux	-9691
▁laid	-9692
▁mend	-9693
▁noah	-9694
▁noix	-9695
▁pria	-9696
▁rock	-9697
▁siff	-9698
▁vole	-9699
▁égar	-9700
▁élie	-9701
acteur	-9702
aisons	-9703
antéch	-9704
arrage	-9705
examen	-9706
ièrent	-9707
opposé	-9708
orique	-9709
primés	-9710
relles	-9711
uement	-9712
uisant	-9713
ussent	-9714
énerve	-9715
▁ammon	-9716
▁amusé	-9717
▁brûle	-9718
▁décor	-9719
▁fondé	-9720
▁gagne	-9721
▁hiver	-9722
▁irons	-9723
▁local	-9724
▁manip	-9725
▁plage	-9726
▁plate	-9727
▁posté	-9728
▁rêves	-9729
▁tasse	-9730
▁tress	-9731
▁vaill	-9732
accroch	-9733
ennemis	-9734
iendrez	-9735
▁calend	-9736
▁créées	-9737
▁exerce	-9738
▁existé	-9739
▁fourni	-9740
▁gamins	-9741
▁infect	-9742
▁invent	-9743
▁jeanne	-9744
▁joyeux	-9745
▁mondes	-9746
▁orphel	-9747
▁plaign	-9748
▁planté	-9749
▁record	-9750
▁report	-9751
▁réagir	-9752
▁récits	-9753
▁tempér	-9754
▁tester	-9755
▁vaincu	-9756
▁élimin	-9757
▁éveill	-9758
agements	-9759
assadeur	-9760
avantage	-9761
expulser	-9762
immeuble	-9763
installa	-9764
occupent	-9765
officier	-9766
oquement	-9767
économie	-9768
éhension	-9769
élection	-9770
épanouir	-9771
▁athènes	-9772
▁couteau	-9773
▁diriger	-9774
▁exprime	-9775
▁loyauté	-9776
▁légende	-9777
▁manquer	-9778
▁mexique	-9779
▁monnaie	-9780
▁prisons	-9781
▁ravages	-9782
▁retenus	-9783
▁retient	-9784
▁récolte	-9785
▁semence	-9786
▁servira	-9787
▁soigner	-9788
▁solaire	-9789
▁tuteurs	-9790
▁tuèrent	-9791
▁variété	-9792
▁équipes	-9793
apprécier	-9794
▁appelait	-9795
▁champion	-9796
▁chouette	-9797
▁contente	-9798
▁culturel	-9799
▁destinée	-9800
▁délivrés	-9801
▁détester	-9802
▁examiner	-9803
▁football	-9804
▁glorifie	-9805
▁majorité	-9806
▁masculin	-9807
▁méritent	-9808
▁plaindre	-9809
▁poitrine	-9810
▁proclamé	-9811
▁quittent	-9812
▁reconnue	-9813
▁remonter	-9814
▁terminer	-9815
▁épisodes	-9816
antichrist	-9817
initiative	-9818
maintenant	-9819
▁assyriens	-9820
▁collectif	-9821
▁confusion	-9822
▁distingue	-9823
▁favoriser	-9824
▁galiléens	-9825
▁ignorants	-9826
▁indispens	-9827
▁offrirent	-9828
▁poursuite	-9829
▁printemps	-9830
▁quinzième	-9831
▁rassemblé	-9832
▁redevenir	-9833
▁remplacer	-9834
▁restèrent	-9835
▁réalisées	-9836
▁rédaction	-9837
▁réglement	-9838
▁réunirent	-9839
▁soumettre	-9840
▁terrestre	-9841
intéressent	-9842
orientation	-9843
▁confrontés	-9844
▁encourager	-9845
▁importance	-9846
▁méditation	-9847
▁personnels	-9848
▁phénomènes	-9849
▁propriétés	-9850
▁sanctifier	-9851
enthousiasme	-9852
introduction	-9853
▁annoncèrent	-9854
▁considérons	-9855
▁racontèrent	-9856
▁travaillait	-9857
encouragement	-9858
entretenaient	-9859
▁distribution	-9860
▁surveillance	-9861
▁réconciliation	-9862
.*	-9863
11	-9864
3]	-9865
45	-9866
?!	-9867
▁—	-9868
adn	-9869
ati	-9870
cca	-9871
dam	-9872
den	-9873
hip	-9874
qua	-9875
▁<<	-9876
▁cd	-9877
anth	-9878
aret	-9879
arra	-9880
eric	-9881
igme	-9882
ocht	-9883
oilà	-9884
olée	-9885
oqua	-9886
oust	-9887
raie	-9888
tête	-9889
udie	-9890
ulté	-9891
vain	-9892
èter	-9893
▁187	-9894
▁[3]	-9895
▁amp	-9896
▁faî	-9897
▁féc	-9898
▁gad	-9899
▁jer	-9900
▁omn	-9901
▁she	-9902
▁tib	-9903
abond	-9904
aigle	-9905
arist	-9906
aussi	-9907
avère	-9908
champ	-9909
ifiée	-9910
ignée	-9911
isson	-9912
lules	-9913
ofond	-9914
onyme	-9915
phone	-9916
uffis	-9917
▁100%	-9918
▁amor	-9919
▁berl	-9920
▁corr	-9921
▁fraî	-9922
▁inse	-9923
▁iota	-9924
▁ling	-9925
▁vuln	-9926
▁ânes	-9927
▁éduc	-9928
▁élim	-9929
airain	-9930
aisser	-9931
ardeur	-9932
assaut	-9933
ennuie	-9934
esther	-9935
icieux	-9936
idémie	-9937
illage	-9938
irment	-9939
nelles	-9940
ouvant	-9941
rières	-9942
▁alain	-9943
▁cadav	-9944
▁causé	-9945
▁crème	-9946
▁dimin	-9947
▁massi	-9948
▁piété	-9949
▁poign	-9950
▁poule	-9951
▁reçut	-9952
▁tenue	-9953
▁triom	-9954
▁voire	-9955
absalom	-9956
endants	-9957
horizon	-9958
isabeth	-9959
▁ajoute	-9960
▁amitié	-9961
▁auquel	-9962
▁avenir	-9963
▁calmer	-9964
▁copine	-9965
▁cultiv	-9966
▁dépass	-9967
▁hautes	-9968
▁incroy	-9969
▁israel	-9970
▁lancée	-9971
▁pleuve	-9972
▁réclam	-9973
▁seriez	-9974
▁splend	-9975
▁élevés	-9976
attendez	-9977
audience	-9978
endormit	-9979
mosphère	-9980
▁adresse	-9981
▁buisson	-9982
▁centres	-9983
▁charges	-9984
▁citoyen	-9985
▁collège	-9986
▁confiée	-9987
▁devront	-9988
▁entends	-9989
▁fassent	-9990
▁inconnu	-9991
▁laissés	-9992
▁mondial	-9993
▁opinion	-9994
▁pareils	-9995
▁perturb	-9996
▁portera	-9997
▁promets	-9998
▁publics	-9999
▁sociale	-10000
▁suppose	-10001
▁temples	-10002
▁william	-10003
▁échappé	-10004
antiquité	-10005
entremise	-10006
▁cellules	-10007
▁comptait	-10008
▁confirmé	-10009
▁constaté	-10010
▁contenir	-10011
▁célestes	-10012
▁détourna	-10013
▁endormie	-10014
▁justesse	-10015
▁laissera	-10016
▁pareille	-10017
▁parvient	-10018
▁retirant	-10019
▁sortiras	-10020
▁utilisez	-10021
▁utilisée	-10022
antéchrist	-10023
appellerai	-10024
expériment	-10025
invitation	-10026
étonnement	-10027
▁affronter	-10028
▁bouteille	-10029
▁entraîner	-10030
▁intéressé	-10031
▁murailles	-10032
▁musiciens	-10033
▁naturelle	-10034
▁nécessite	-10035
▁physiques	-10036
▁précision	-10037
▁préfèrent	-10038
▁rassembla	-10039
▁recevront	-10040
▁regardons	-10041
▁retrouvée	-10042
▁réunissez	-10043
▁testament	-10044
▁visiteurs	-10045
▁voyageurs	-10046
électricité	-10047
▁comparable	-10048
▁convention	-10049
▁conviction	-10050
▁intérieure	-10051
▁retrouvent	-10052
▁succession	-10053
▁ustensiles	-10054
empressement	-10055
▁accusations	-10056
▁association	-10057
▁indépendant	-10058
▁intéressent	-10059
▁législation	-10060
▁ouvertement	-10061
▁partenaires	-10062
▁quatorzième	-10063
▁quotidienne	-10064
▁rassemblent	-10065
avertissement	-10066
▁comprenaient	-10067
▁explications	-10068
▁rassemblèrent	-10069
▁reconnaissent	-10070
▁nécessairement	-10071
▁réciproquement	-10072
25	-10073
2]	-10074
cr	-10075
mm	-10076
.11	-10077
/12	-10078
20.	-10079
adv	-10080
aya	-10081
elé	-10082
héd	-10083
ila	-10084
ilé	-10085
ino	-10086
iot	-10087
oms	-10088
oud	-10089
yon	-10090
anas	-10091
arth	-10092
auce	-10093
cont	-10094
ical	-10095
ific	-10096
ipse	-10097
maël	-10098
ptes	-10099
uant	-10100
unir	-10101
▁10,	-10102
▁150	-10103
▁19,	-10104
▁4:4	-10105
▁800	-10106
▁age	-10107
▁fée	-10108
▁goû	-10109
▁hym	-10110
▁mak	-10111
▁mol	-10112
▁sté	-10113
▁urg	-10114
abbas	-10115
ervez	-10116
iquez	-10117
monie	-10118
ustre	-10119
utrit	-10120
écrou	-10121
étire	-10122
▁2...	-10123
▁2:13	-10124
▁bonn	-10125
▁chag	-10126
▁clim	-10127
▁créd	-10128
▁diam	-10129
▁guil	-10130
▁refl	-10131
▁repl	-10132
▁sers	-10133
▁tint	-10134
▁vaud	-10135
▁yoga	-10136
▁épau	-10137
angers	-10138
assure	-10139
dedans	-10140
issais	-10141
isseur	-10142
orable	-10143
ouvrit	-10144
épreux	-10145
éveill	-10146
▁arros	-10147
▁camar	-10148
▁censé	-10149
▁crist	-10150
▁dette	-10151
▁flamb	-10152
▁génie	-10153
▁joign	-10154
▁louez	-10155
▁nicol	-10156
▁pacte	-10157
▁parac	-10158
▁pench	-10159
▁posée	-10160
▁remit	-10161
▁stand	-10162
▁trous	-10163
▁têtes	-10164
emmener	-10165
ensible	-10166
estomac	-10167
hésitez	-10168
inspire	-10169
octobre	-10170
opposer	-10171
éphraïm	-10172
▁attest	-10173
▁casque	-10174
▁causer	-10175
▁collèg	-10176
▁comité	-10177
▁délais	-10178
▁excusé	-10179
▁forêts	-10180
▁gueule	-10181
▁imposé	-10182
▁jaloux	-10183
▁majeur	-10184
▁naaman	-10185
▁ninive	-10186
▁pleins	-10187
▁privée	-10188
▁pureté	-10189
▁refait	-10190
▁remets	-10191
▁situés	-10192
▁soulev	-10193
▁stupéf	-10194
▁valoir	-10195
accident	-10196
arrêtera	-10197
assassin	-10198
entendez	-10199
faiteurs	-10200
incendie	-10201
inscrire	-10202
▁accueil	-10203
▁astuces	-10204
▁cessait	-10205
▁chaises	-10206
▁couples	-10207
▁entende	-10208
▁forment	-10209
▁lépreux	-10210
▁moderne	-10211
▁monstre	-10212
▁numéros	-10213
▁occupés	-10214
▁parvint	-10215
▁racines	-10216
▁réservé	-10217
▁subsist	-10218
▁turquie	-10219
ascension	-10220
ouvrirent	-10221
épouvante	-10222
étrangers	-10223
▁apprenez	-10224
▁chaleure	-10225
▁composée	-10226
▁devenues	-10227
▁droiture	-10228
▁effrayer	-10229
▁employés	-10230
▁existent	-10231
▁fichiers	-10232
▁lumineux	-10233
▁parlerez	-10234
▁préparez	-10235
▁rivières	-10236
▁réalisés	-10237
▁tournent	-10238
▁affermira	-10239
▁alexandre	-10240
▁apprirent	-10241
▁bienvenus	-10242
▁blessures	-10243
▁concevoir	-10244
▁conseillé	-10245
▁dirigeait	-10246
▁dirigeant	-10247
▁donnèrent	-10248
▁féliciter	-10249
▁interview	-10250
▁parcourir	-10251
▁poursuivi	-10252
▁reproches	-10253
▁réfléchit	-10254
observation	-10255
▁décidément	-10256
▁enthousias	-10257
▁mouvements	-10258
▁pacifiques	-10259
▁recommande	-10260
▁récompensé	-10261
▁satisfaits	-10262
▁surprenant	-10263
▁accompagnés	-10264
▁caractérise	-10265
▁compétition	-10266
▁poursuivent	-10267
▁précautions	-10268
▁territoires	-10269
▁constitution	-10270
▁désobéissance	-10271
▁manifestation	-10272
▁thessalonique	-10273
▁responsabilités	-10274
ks	-10275
pé	-10276
ye	-10277
;-)	-10278
aka	-10279
arp	-10280
cro	-10281
eli	-10282
ima	-10283
mel	-10284
ney	-10285
ogn	-10286
osc	-10287
rad	-10288
tés	-10289
ude	-10290
voy	-10291
éna	-10292
▁67	-10293
▁7-	-10294
▁ax	-10295
ague	-10296
ancé	-10297
gles	-10298
lamm	-10299
maüs	-10300
rets	-10301
sais	-10302
urés	-10303
usqu	-10304
èner	-10305
éral	-10306
▁18.	-10307
▁1:6	-10308
▁25.	-10309
▁cim	-10310
▁enn	-10311
▁gab	-10312
▁has	-10313
▁nad	-10314
▁nah	-10315
▁pel	-10316
▁pât	-10317
▁rug	-10318
▁rum	-10319
▁tol	-10320
▁yeh	-10321
[...]	-10322
acter	-10323
allég	-10324
encer	-10325
frère	-10326
ignon	-10327
orges	-10328
osses	-10329
ureté	-10330
voilà	-10331
▁3:16	-10332
▁ahhh	-10333
▁baal	-10334
▁bain	-10335
▁bang	-10336
▁brun	-10337
▁bruy	-10338
▁crut	-10339
▁fixe	-10340
▁loth	-10341
▁lâch	-10342
▁pati	-10343
▁rage	-10344
▁rupt	-10345
▁soph	-10346
▁virg	-10347
▁éval	-10348
agnost	-10349
appuie	-10350
asions	-10351
attard	-10352
elysée	-10353
ouvoir	-10354
▁accum	-10355
▁allâh	-10356
▁broch	-10357
▁butin	-10358
▁camps	-10359
▁coule	-10360
▁défis	-10361
▁dîner	-10362
▁filet	-10363
▁haïra	-10364
▁infin	-10365
▁liées	-10366
▁peupl	-10367
▁remém	-10368
▁résol	-10369
▁sains	-10370
▁salon	-10371
▁simpl	-10372
▁stéph	-10373
▁torah	-10374
▁échec	-10375
alexand	-10376
hesitez	-10377
honorer	-10378
jection	-10379
obtient	-10380
échappe	-10381
échauff	-10382
étiques	-10383
▁amenés	-10384
▁attiré	-10385
▁bourse	-10386
▁datant	-10387
▁dégoût	-10388
▁habité	-10389
▁incarc	-10390
▁incend	-10391
▁incirc	-10392
▁nobles	-10393
▁passez	-10394
▁pistes	-10395
▁trembl	-10396
▁vaches	-10397
▁épousé	-10398
agissant	-10399
opposent	-10400
oulement	-10401
ématique	-10402
éremment	-10403
▁assujet	-10404
▁autocht	-10405
▁circonc	-10406
▁confond	-10407
▁courent	-10408
▁demeura	-10409
▁envoyée	-10410
▁experts	-10411
▁fichier	-10412
▁inspiré	-10413
▁loisirs	-10414
▁offerts	-10415
▁parlera	-10416
▁procédé	-10417
▁publiée	-10418
▁pédagog	-10419
▁retirez	-10420
▁résisté	-10421
▁soumise	-10422
▁vaincre	-10423
▁violent	-10424
▁voyages	-10425
▁vérités	-10426
▁étudier	-10427
entourent	-10428
▁abandonn	-10429
▁adultère	-10430
▁aimaient	-10431
▁archives	-10432
▁blessure	-10433
▁centrale	-10434
▁courtois	-10435
▁diagnost	-10436
▁détourné	-10437
▁envisagé	-10438
▁essayant	-10439
▁légitime	-10440
▁modifier	-10441
▁paraclet	-10442
▁reconnut	-10443
▁réalisée	-10444
▁secourir	-10445
expédition	-10446
ographique	-10447
opposition	-10448
▁allemands	-10449
▁cavaliers	-10450
▁concernés	-10451
▁contrôler	-10452
▁craignait	-10453
▁effectuer	-10454
▁examinons	-10455
▁instantan	-10456
▁interdits	-10457
▁matériaux	-10458
▁ministres	-10459
▁paraboles	-10460
▁passaient	-10461
▁pharisien	-10462
▁proverbes	-10463
▁resteront	-10464
▁réconfort	-10465
▁résidents	-10466
▁servantes	-10467
▁sincérité	-10468
▁témoigner	-10469
attachement	-10470
élaboration	-10471
▁abandonnés	-10472
▁apparition	-10473
▁brièvement	-10474
▁descendait	-10475
▁dispositif	-10476
▁patiemment	-10477
▁réunissent	-10478
amélioration	-10479
▁alcoolisées	-10480
▁collecteurs	-10481
▁discussions	-10482
▁désagrément	-10483
▁financement	-10484
▁normalement	-10485
▁philosophie	-10486
▁préparatifs	-10487
▁souviennent	-10488
▁transportés	-10489
▁alimentaires	-10490
▁contribution	-10491
▁descendirent	-10492
▁personnelles	-10493
▁attentivement	-10494
▁participation	-10495
▁propriétaires	-10496
▁définitivement	-10497
▁sanctification	-10498
▁éventuellement	-10499
22	-10500
85	-10501
<3	-10502
]:	-10503
ua	-10504
yo	-10505
▁↑	-10506
ark	-10507
feu	-10508
get	-10509
gén	-10510
hém	-10511
iki	-10512
omi	-10513
pas	-10514
pet	-10515
pit	-10516
uté	-10517
▁68	-10518
▁7,	-10519
▁pn	-10520
▁sw	-10521
▁tv	-10522
ject	-10523
oger	-10524
oges	-10525
unit	-10526
élég	-10527
▁14:	-10528
▁1:7	-10529
▁24,	-10530
▁?).	-10531
▁ari	-10532
▁did	-10533
▁fas	-10534
▁guy	-10535
▁ibn	-10536
▁jés	-10537
▁lyr	-10538
▁nik	-10539
▁pon	-10540
▁syl	-10541
▁tas	-10542
▁ôté	-10543
adapt	-10544
amène	-10545
avril	-10546
ceaux	-10547
ensui	-10548
icace	-10549
imbéc	-10550
indép	-10551
ingue	-10552
innoc	-10553
iseur	-10554
édéon	-10555
érées	-10556
▁1:11	-10557
▁band	-10558
▁bloc	-10559
▁boss	-10560
▁cest	-10561
▁coff	-10562
▁cuba	-10563
▁céré	-10564
▁entr	-10565
▁foin	-10566
▁guit	-10567
▁harc	-10568
▁host	-10569
▁joël	-10570
▁menu	-10571
▁pige	-10572
▁posa	-10573
▁taux	-10574
▁vice	-10575
▁وسلم	-10576
achète	-10577
adulte	-10578
exprim	-10579
hédrin	-10580
maître	-10581
organe	-10582
uiront	-10583
uisait	-10584
▁animé	-10585
▁apais	-10586
▁autel	-10587
▁bords	-10588
▁bœufs	-10589
▁citer	-10590
▁direz	-10591
▁guise	-10592
▁génés	-10593
▁inond	-10594
▁ivrog	-10595
▁nabal	-10596
▁plaie	-10597
▁pyram	-10598
▁rémun	-10599
▁salue	-10600
▁solid	-10601
▁taure	-10602
▁vache	-10603
▁voler	-10604
adopter	-10605
ommages	-10606
étoiles	-10607
▁[...].	-10608
▁abîmes	-10609
▁affich	-10610
▁avocat	-10611
▁berger	-10612
▁béthel	-10613
▁contra	-10614
▁deviez	-10615
▁déesse	-10616
▁défens	-10617
▁explos	-10618
▁feriez	-10619
▁gédéon	-10620
▁lyrics	-10621
▁michée	-10622
▁moulin	-10623
▁pilote	-10624
▁placer	-10625
▁ramène	-10626
▁refusa	-10627
▁rythme	-10628
▁saluer	-10629
▁singap	-10630
▁soufre	-10631
▁suppos	-10632
▁volupt	-10633
▁écoulé	-10634
▁évoque	-10635
abstenir	-10636
aliments	-10637
enceinte	-10638
examiner	-10639
impureté	-10640
orgueill	-10641
sibilité	-10642
▁affamés	-10643
▁associé	-10644
▁attaque	-10645
▁authent	-10646
▁chagrin	-10647
▁confirm	-10648
▁divisés	-10649
▁débuter	-10650
▁délaiss	-10651
▁dérange	-10652
▁engagés	-10653
▁exprimé	-10654
▁fenêtre	-10655
▁manques	-10656
▁mineurs	-10657
▁municip	-10658
▁permets	-10659
▁potable	-10660
▁prolong	-10661
▁prospér	-10662
▁protest	-10663
▁ramener	-10664
▁rappelé	-10665
▁remords	-10666
▁sottise	-10667
▁soutenu	-10668
▁suggest	-10669
amenèrent	-10670
▁annuelle	-10671
▁barabbas	-10672
▁brigands	-10673
▁conforme	-10674
▁contents	-10675
▁district	-10676
▁délivrer	-10677
▁dépenses	-10678
▁lunettes	-10679
▁moudront	-10680
▁provoque	-10681
▁prévenir	-10682
▁refusent	-10683
▁respecté	-10684
▁soutiens	-10685
▁tourment	-10686
▁traitées	-10687
▁transmis	-10688
▁épouvant	-10689
▁étudiant	-10690
alexandrie	-10691
appliquent	-10692
holocauste	-10693
▁agréables	-10694
▁bienveill	-10695
▁coupables	-10696
▁deviendra	-10697
▁diffusion	-10698
▁favorable	-10699
▁intention	-10700
▁introduit	-10701
▁précarité	-10702
▁préparent	-10703
▁préparées	-10704
▁publiques	-10705
▁randonnée	-10706
▁sanhédrin	-10707
▁solitaire	-10708
▁souhaiter	-10709
▁touristes	-10710
▁traverser	-10711
▁tromperie	-10712
inscription	-10713
▁conscients	-10714
▁continuait	-10715
▁dépression	-10716
▁partenaire	-10717
▁populaires	-10718
▁popularité	-10719
▁produisent	-10720
▁prosterner	-10721
▁souhaitent	-10722
▁sévèrement	-10723
autorisation	-10724
▁appartenait	-10725
▁convictions	-10726
▁incirconcis	-10727
▁magnifiques	-10728
▁obligatoire	-10729
▁promptement	-10730
▁ressemblait	-10731
▁organisation	-10732
▁souveraineté	-10733
administrateur	-10734
▁irréprochable	-10735
▁reconnaissant	-10736
▁recommandation	-10737
▁établissements	-10738
19	-10739
41	-10740
oa	-10741
uk	-10742
.14	-10743
aïl	-10744
dan	-10745
ico	-10746
ius	-10747
jeu	-10748
oua	-10749
pin	-10750
ull	-10751
zer	-10752
éde	-10753
▁>>	-10754
▁['	-10755
▁ak	-10756
▁gâ	-10757
▁ml	-10758
▁ur	-10759
▁ya	-10760
...?	-10761
ader	-10762
alté	-10763
arre	-10764
cres	-10765
elie	-10766
empr	-10767
esaü	-10768
neté	-10769
odie	-10770
oter	-10771
pell	-10772
umée	-10773
çade	-10774
▁2:4	-10775
▁4:3	-10776
▁50.	-10777
▁600	-10778
▁aud	-10779
▁cla	-10780
▁cyr	-10781
▁had	-10782
▁néh	-10783
▁pis	-10784
▁seg	-10785
▁tox	-10786
accum	-10787
aides	-10788
ensif	-10789
giène	-10790
icien	-10791
jusqu	-10792
ochus	-10793
quées	-10794
▁..."	-10795
▁argu	-10796
▁cast	-10797
▁cray	-10798
▁crét	-10799
▁cuir	-10800
▁déco	-10801
▁fume	-10802
▁joas	-10803
▁mali	-10804
▁maît	-10805
▁palm	-10806
▁préj	-10807
▁resc	-10808
▁sain	-10809
▁tite	-10810
▁unes	-10811
▁émer	-10812
adorer	-10813
aments	-10814
apprêt	-10815
enants	-10816
endurc	-10817
eubles	-10818
incons	-10819
invest	-10820
iosité	-10821
izième	-10822
ouille	-10823
ralité	-10824
▁agent	-10825
▁agrip	-10826
▁arabe	-10827
▁beths	-10828
▁bibli	-10829
▁boudd	-10830
▁bourg	-10831
▁bravo	-10832
▁chuch	-10833
▁cimet	-10834
▁croir	-10835
▁dédié	-10836
▁embar	-10837
▁fiers	-10838
▁harry	-10839
▁hôtel	-10840
▁issus	-10841
▁lâche	-10842
▁nuire	-10843
▁parag	-10844
▁pomme	-10845
▁porcs	-10846
▁posés	-10847
▁prêté	-10848
▁subit	-10849
▁vague	-10850
▁vieil	-10851
iendrai	-10852
issaire	-10853
obation	-10854
▁acteur	-10855
▁altern	-10856
▁anéant	-10857
▁arabes	-10858
▁asserv	-10859
▁averti	-10860
▁boucle	-10861
▁brille	-10862
▁brûlée	-10863
▁confus	-10864
▁courut	-10865
▁dégout	-10866
▁déploy	-10867
▁engagé	-10868
▁fameux	-10869
▁fermée	-10870
▁listes	-10871
▁martin	-10872
▁normes	-10873
▁ombres	-10874
▁plonge	-10875
▁plumes	-10876
▁rebond	-10877
▁réside	-10878
▁séries	-10879
▁tombes	-10880
▁vignes	-10881
▁évoqué	-10882
adoption	-10883
améliore	-10884
argument	-10885
articles	-10886
entendis	-10887
ercevoir	-10888
inspirer	-10889
ustement	-10890
éléments	-10891
▁adeptes	-10892
▁adressa	-10893
▁brûlant	-10894
▁bêtises	-10895
▁caverne	-10896
▁clément	-10897
▁complet	-10898
▁consult	-10899
▁dixième	-10900
▁détendu	-10901
▁employé	-10902
▁figures	-10903
▁intelle	-10904
▁libérés	-10905
▁magasin	-10906
▁manteau	-10907
▁néhémie	-10908
▁oreille	-10909
▁perpétu	-10910
▁quittée	-10911
▁recevra	-10912
▁renvers	-10913
▁reçoive	-10914
▁salarié	-10915
▁sorties	-10916
▁établie	-10917
accrocher	-10918
idolâtrie	-10919
ustration	-10920
▁adressée	-10921
▁amérique	-10922
▁chantent	-10923
▁compatri	-10924
▁conjoint	-10925
▁déroulée	-10926
▁désirons	-10927
▁essaient	-10928
▁mangerez	-10929
▁passions	-10930
▁proclame	-10931
▁produite	-10932
▁profonde	-10933
▁prudents	-10934
▁périodes	-10935
▁reçurent	-10936
▁semblent	-10937
▁traduire	-10938
▁vocation	-10939
▁éloignée	-10940
▁ammonites	-10941
▁amoureuse	-10942
▁apparence	-10943
▁consacrer	-10944
▁opération	-10945
▁ordinaire	-10946
▁orphelins	-10947
▁parlement	-10948
▁policiers	-10949
▁pratiquer	-10950
▁terrifiés	-10951
▁éléphants	-10952
acceptation	-10953
incarnation	-10954
incrédulité	-10955
▁calendrier	-10956
▁classement	-10957
▁combattant	-10958
▁démocratie	-10959
▁fidèlement	-10960
▁glorifiant	-10961
▁génésareth	-10962
▁méditerran	-10963
▁permission	-10964
▁retirèrent	-10965
▁trompettes	-10966
▁économique	-10967
▁alimentaire	-10968
▁apparemment	-10969
▁contraintes	-10970
▁perspective	-10971
▁différemment	-10972
▁empressement	-10973
▁précédemment	-10974
▁présentèrent	-10975
▁divertissement	-10976
▁internationale	-10977
▁officiellement	-10978
-0	-10979
46	-10980
dy	-10981
fi	-10982
ht	-10983
oj	-10984
so	-10985
wh	-10986
/06	-10987
dée	-10988
dés	-10989
ips	-10990
ket	-10991
med	-10992
ood	-10993
pha	-10994
rah	-10995
rég	-10996
uki	-10997
▁"?	-10998
▁gn	-10999
ainé	-11000
anna	-11001
cons	-11002
dium	-11003
doce	-11004
entr	-11005
eute	-11006
hist	-11007
itha	-11008
lait	-11009
ogée	-11010
olém	-11011
omes	-11012
orch	-11013
ourd	-11014
plus	-11015
uait	-11016
vité	-11017
èdre	-11018
évit	-11019
▁189	-11020
▁22,	-11021
▁60.	-11022
▁arg	-11023
▁bad	-11024
▁gel	-11025
▁gém	-11026
▁let	-11027
▁lyc	-11028
▁ner	-11029
▁sev	-11030
▁tog	-11031
▁vil	-11032
▁véc	-11033
▁yan	-11034
▁you	-11035
▁élu	-11036
aigne	-11037
ancée	-11038
becca	-11039
endue	-11040
eneur	-11041
excès	-11042
isans	-11043
iteur	-11044
quait	-11045
rabbi	-11046
rance	-11047
seaux	-11048
ulent	-11049
écias	-11050
▁10:6	-11051
▁2006	-11052
▁3:10	-11053
▁airs	-11054
▁boue	-11055
▁carn	-11056
▁corp	-11057
▁deut	-11058
▁doté	-11059
▁laps	-11060
▁lier	-11061
▁luxe	-11062
▁noté	-11063
▁park	-11064
▁pein	-11065
▁pere	-11066
▁rabb	-11067
▁rétr	-11068
▁sûrs	-11069
▁volé	-11070
abbaye	-11071
agence	-11072
alerte	-11073
embles	-11074
imitié	-11075
inions	-11076
éniens	-11077
éthiop	-11078
▁1989.	-11079
▁banni	-11080
▁boite	-11081
▁bénév	-11082
▁cités	-11083
▁corde	-11084
▁dires	-11085
▁décap	-11086
▁délit	-11087
▁etant	-11088
▁immol	-11089
▁menti	-11090
▁messe	-11091
▁naiss	-11092
▁niger	-11093
▁noble	-11094
▁néant	-11095
▁parts	-11096
▁pleut	-11097
▁poète	-11098
▁rares	-11099
▁rebât	-11100
▁seign	-11101
▁sécur	-11102
▁tenus	-11103
▁voila	-11104
▁égorg	-11105
assiéra	-11106
emprise	-11107
entente	-11108
icieuse	-11109
regarde	-11110
▁accour	-11111
▁cathéd	-11112
▁chérie	-11113
▁dettes	-11114
▁diffus	-11115
▁dirigé	-11116
▁doigts	-11117
▁débute	-11118
▁façade	-11119
▁guadel	-11120
▁génial	-11121
▁habita	-11122
▁horrif	-11123
▁humeur	-11124
▁incons	-11125
▁incont	-11126
▁jouait	-11127
▁logici	-11128
▁louant	-11129
▁maitre	-11130
▁mortel	-11131
▁pascal	-11132
▁peines	-11133
▁ptolém	-11134
▁rayons	-11135
▁remett	-11136
▁soucie	-11137
▁souill	-11138
▁suivie	-11139
▁tentes	-11140
▁égards	-11141
▁étendu	-11142
agissent	-11143
antillon	-11144
déjeuner	-11145
embarras	-11146
ergement	-11147
extraord	-11148
iendrait	-11149
imbécile	-11150
septième	-11151
étudiant	-11152
▁agneaux	-11153
▁allumer	-11154
▁aperçut	-11155
▁blessés	-11156
▁choisit	-11157
▁cliquez	-11158
▁croître	-11159
▁drapeau	-11160
▁drogues	-11161
▁endurer	-11162
▁enquête	-11163
▁famines	-11164
▁fiction	-11165
▁malaise	-11166
▁mélange	-11167
▁origine	-11168
▁partagé	-11169
▁paysage	-11170
▁restant	-11171
▁sortait	-11172
▁sortira	-11173
▁souvenu	-11174
▁tiendra	-11175
▁torrent	-11176
▁trouvés	-11177
▁vigueur	-11178
▁voisine	-11179
▁voyager	-11180
▁épreuve	-11181
expriment	-11182
intégrité	-11183
ologiques	-11184
▁bienfais	-11185
▁chapelle	-11186
▁correcte	-11187
▁craintes	-11188
▁datation	-11189
▁exprimer	-11190
▁hospital	-11191
▁laissons	-11192
▁location	-11193
▁naturels	-11194
▁profitez	-11195
▁prêchait	-11196
▁punition	-11197
▁rapporté	-11198
▁rapproch	-11199
▁remarqua	-11200
▁récoltes	-11201
▁sensible	-11202
▁spéciale	-11203
▁survivre	-11204
▁tanières	-11205
▁terrasse	-11206
▁tourisme	-11207
▁vaudrait	-11208
identifier	-11209
occurrence	-11210
▁apportera	-11211
▁attristés	-11212
▁bénéfique	-11213
▁consacrés	-11214
▁conseille	-11215
▁démarches	-11216
▁enceintes	-11217
▁francisco	-11218
▁interrogé	-11219
▁maladroit	-11220
▁occasions	-11221
▁prétendre	-11222
▁répondait	-11223
▁sacerdoce	-11224
▁sexuelles	-11225
▁singapour	-11226
▁surprenne	-11227
▁sépulcres	-11228
▁tribunaux	-11229
affirmation	-11230
opportunité	-11231
édification	-11232
▁adolescent	-11233
▁amendement	-11234
▁approchons	-11235
▁concentrer	-11236
▁conclusion	-11237
▁contribuer	-11238
▁embarrassé	-11239
▁guadeloupe	-11240
▁précisions	-11241
▁pèlerinage	-11242
▁reviendras	-11243
▁références	-11244
▁samaritain	-11245
▁survivants	-11246
▁tranquille	-11247
▁témoignent	-11248
▁étrangères	-11249
▁montagneuse	-11250
▁médicaments	-11251
▁remarquable	-11252
▁reviendrons	-11253
▁réconciliés	-11254
▁compatriotes	-11255
▁déclarations	-11256
▁photographie	-11257
▁reconstruire	-11258
extraordinaire	-11259
▁circonstances	-11260
▁considération	-11261
▁naturellement	-11262
▁reconnaissants	-11263
▁fonctionnalités	-11264
44	-11265
ae	-11266
mo	-11267
ms	-11268
po	-11269
tt	-11270
aga	-11271
alé	-11272
asp	-11273
aüm	-11274
cet	-11275
orb	-11276
▁":	-11277
▁72	-11278
▁9:	-11279
▁dd	-11280
▁zo	-11281
▁œu	-11282
▁€.	-11283
acés	-11284
amer	-11285
anda	-11286
apit	-11287
arme	-11288
aude	-11289
encl	-11290
encé	-11291
eufs	-11292
exil	-11293
info	-11294
oiff	-11295
ommé	-11296
ueul	-11297
umin	-11298
étri	-11299
ônes	-11300
▁12,	-11301
▁17.	-11302
▁1:5	-11303
▁40.	-11304
▁bav	-11305
▁bol	-11306
▁bud	-11307
▁din	-11308
▁fol	-11309
▁gai	-11310
▁god	-11311
▁kur	-11312
▁nar	-11313
▁our	-11314
▁pav	-11315
▁pit	-11316
▁sas	-11317
▁vap	-11318
▁vel	-11319
▁vom	-11320
▁vét	-11321
▁île	-11322
déens	-11323
erger	-11324
euros	-11325
femme	-11326
héroï	-11327
isses	-11328
ouvez	-11329
quide	-11330
siers	-11331
uster	-11332
éries	-11333
étape	-11334
éveil	-11335
▁____	-11336
▁buff	-11337
▁curé	-11338
▁cycl	-11339
▁flux	-11340
▁fray	-11341
▁gris	-11342
▁jude	-11343
▁lisa	-11344
▁lyon	-11345
▁léon	-11346
▁matt	-11347
▁pais	-11348
▁rond	-11349
achève	-11350
aimiez	-11351
anéant	-11352
assied	-11353
efface	-11354
ernaüm	-11355
hammad	-11356
nèrent	-11357
orment	-11358
écorce	-11359
épargn	-11360
▁céder	-11361
▁degré	-11362
▁endur	-11363
▁faune	-11364
▁fixés	-11365
▁incar	-11366
▁jouet	-11367
▁lisez	-11368
▁livra	-11369
▁maire	-11370
▁manne	-11371
▁noter	-11372
▁paire	-11373
▁plume	-11374
▁pouce	-11375
▁privé	-11376
▁robes	-11377
▁roche	-11378
▁roule	-11379
▁serré	-11380
▁teint	-11381
▁union	-11382
▁égypt	-11383
empirer	-11384
envoler	-11385
habiter	-11386
heureux	-11387
lorsque	-11388
ouement	-11389
ounours	-11390
écraser	-11391
étudier	-11392
évangél	-11393
▁cercle	-11394
▁copies	-11395
▁drogue	-11396
▁débord	-11397
▁défunt	-11398
▁dépann	-11399
▁enferm	-11400
▁essaye	-11401
▁habits	-11402
▁inconn	-11403
▁jetant	-11404
▁marine	-11405
▁montra	-11406
▁méfiez	-11407
▁pertin	-11408
▁placée	-11409
▁placés	-11410
▁pouces	-11411
▁prévue	-11412
▁ruines	-11413
▁régler	-11414
▁siméon	-11415
▁tempor	-11416
▁verrai	-11417
▁victor	-11418
affranch	-11419
agrément	-11420
extermin	-11421
informer	-11422
élégance	-11423
▁accusés	-11424
▁actrice	-11425
▁athalie	-11426
▁aveuglé	-11427
▁camping	-11428
▁cellule	-11429
▁consist	-11430
▁corromp	-11431
▁décrire	-11432
▁effrayé	-11433
▁entrera	-11434
▁fatigue	-11435
▁gardent	-11436
▁liquide	-11437
▁montrez	-11438
▁obligés	-11439
▁offerte	-11440
▁prudent	-11441
▁publiés	-11442
▁quittés	-11443
▁rejetée	-11444
▁restées	-11445
▁revenue	-11446
▁réparer	-11447
▁répéter	-11448
▁révéler	-11449
▁sauvera	-11450
▁tromper	-11451
▁élevées	-11452
▁épaules	-11453
arriverai	-11454
criptions	-11455
emplaires	-11456
entendait	-11457
organiser	-11458
éclairage	-11459
émergence	-11460
▁acquérir	-11461
▁collines	-11462
▁consoler	-11463
▁contrées	-11464
▁critères	-11465
▁céréales	-11466
▁engendré	-11467
▁existait	-11468
▁facteurs	-11469
▁ivrognes	-11470
▁jetèrent	-11471
▁matières	-11472
▁officiel	-11473
▁original	-11474
▁posèrent	-11475
▁probable	-11476
▁rentrent	-11477
▁réchauff	-11478
▁répandre	-11479
▁salariés	-11480
▁sanction	-11481
▁scénario	-11482
▁serpents	-11483
▁sédécias	-11484
▁séparent	-11485
allégresse	-11486
approprier	-11487
atmosphère	-11488
imaginaire	-11489
ordonnance	-11490
▁allemagne	-11491
▁appellent	-11492
▁apportent	-11493
▁apprenant	-11494
▁arguments	-11495
▁baptisera	-11496
▁capernaüm	-11497
▁contacter	-11498
▁descendus	-11499
▁détention	-11500
▁gratitude	-11501
▁intercède	-11502
▁mariaient	-11503
▁mécréants	-11504
▁médailles	-11505
▁nettement	-11506
▁partisans	-11507
▁racontent	-11508
▁réception	-11509
▁récupérer	-11510
▁seigneurs	-11511
▁stupéfait	-11512
▁supportez	-11513
▁tourments	-11514
▁adversaire	-11515
▁apparaîtra	-11516
▁cathédrale	-11517
▁chroniques	-11518
▁délivrance	-11519
▁exterminer	-11520
▁incapables	-11521
▁instrument	-11522
▁renseigner	-11523
▁retournera	-11524
▁retournons	-11525
▁sauvegarde	-11526
▁supplément	-11527
indépendance	-11528
▁comparaître	-11529
▁constituent	-11530
▁contemplent	-11531
▁inférieures	-11532
▁nourrissons	-11533
environnement	-11534
▁connaissions	-11535
▁relativement	-11536
▁spiritualité	-11537
accompliraient	-11538
▁comportements	-11539
-6	-11540
-7	-11541
36	-11542
80	-11543
jo	-11544
uz	-11545
°1	-11546
-16	-11547
/08	-11548
aki	-11549
eph	-11550
hél	-11551
jan	-11552
vie	-11553
yat	-11554
ymb	-11555
yss	-11556
▁84	-11557
▁9,	-11558
▁99	-11559
▁ds	-11560
▁ga	-11561
▁hd	-11562
▁kg	-11563
arat	-11564
bapt	-11565
ceux	-11566
icol	-11567
ogue	-11568
olat	-11569
uité	-11570
ymes	-11571
▁12:	-11572
▁38.	-11573
▁arc	-11574
▁bél	-11575
▁due	-11576
▁fêt	-11577
▁jaï	-11578
▁joe	-11579
▁ken	-11580
▁mun	-11581
▁pir	-11582
▁rén	-11583
▁vid	-11584
▁wat	-11585
accél	-11586
affût	-11587
agées	-11588
alisé	-11589
athas	-11590
cevez	-11591
croît	-11592
embar	-11593
enues	-11594
hadad	-11595
heurs	-11596
idole	-11597
iméle	-11598
indon	-11599
iront	-11600
itter	-11601
nuque	-11602
optim	-11603
parce	-11604
▁!!!!	-11605
▁1:24	-11606
▁2004	-11607
▁astr	-11608
▁bœuf	-11609
▁cens	-11610
▁chim	-11611
▁chlo	-11612
▁clés	-11613
▁cédé	-11614
▁diab	-11615
▁grog	-11616
▁iran	-11617
▁jure	-11618
▁nerv	-11619
▁nier	-11620
▁oint	-11621
▁poil	-11622
▁ravi	-11623
▁sonn	-11624
▁thaï	-11625
▁tony	-11626
▁trép	-11627
▁vins	-11628
▁élég	-11629
▁émue	-11630
alisme	-11631
archie	-11632
attire	-11633
frères	-11634
iaient	-11635
ologue	-11636
outils	-11637
parole	-11638
prends	-11639
ulture	-11640
utilis	-11641
▁18...	-11642
▁biais	-11643
▁bijou	-11644
▁carré	-11645
▁chère	-11646
▁congé	-11647
▁creux	-11648
▁demie	-11649
▁doubl	-11650
▁gamin	-11651
▁gorge	-11652
▁grimp	-11653
▁haïti	-11654
▁impat	-11655
▁impur	-11656
▁inaug	-11657
▁infos	-11658
▁magaz	-11659
▁mette	-11660
▁mince	-11661
▁monts	-11662
▁métal	-11663
▁naomi	-11664
▁nicod	-11665
▁nuées	-11666
▁proté	-11667
▁roues	-11668
▁régné	-11669
▁sangl	-11670
▁taill	-11671
▁trace	-11672
▁tract	-11673
aisance	-11674
aperçut	-11675
homosex	-11676
ouilles	-11677
pection	-11678
édifice	-11679
étendit	-11680
▁abomin	-11681
▁amuser	-11682
▁autrui	-11683
▁bronze	-11684
▁crèche	-11685
▁dissim	-11686
▁durera	-11687
▁décenn	-11688
▁ecoute	-11689
▁emmène	-11690
▁expuls	-11691
▁hébron	-11692
▁irrité	-11693
▁lionne	-11694
▁panier	-11695
▁plongé	-11696
▁pronon	-11697
▁quoiqu	-11698
▁rançon	-11699
▁relais	-11700
▁salles	-11701
▁sortez	-11702
▁tenant	-11703
▁tonnes	-11704
▁tâches	-11705
▁vainqu	-11706
▁vibrer	-11707
▁vraies	-11708
admettre	-11709
enfuient	-11710
exemples	-11711
ignorais	-11712
interdit	-11713
▁agrippa	-11714
▁allions	-11715
▁appropr	-11716
▁arrivez	-11717
▁baptise	-11718
▁battent	-11719
▁charles	-11720
▁chassés	-11721
▁conclut	-11722
▁curieux	-11723
▁défaire	-11724
▁dégueul	-11725
▁détesté	-11726
▁envoyez	-11727
▁fournis	-11728
▁fussent	-11729
▁habitée	-11730
▁inventé	-11731
▁majeure	-11732
▁nicolas	-11733
▁options	-11734
▁oubliés	-11735
▁perdent	-11736
▁perplex	-11737
▁plaines	-11738
▁promise	-11739
▁précédé	-11740
▁prénoms	-11741
▁rentrés	-11742
▁sacrées	-11743
▁silvain	-11744
▁sombres	-11745
▁talitha	-11746
▁touchée	-11747
▁émotion	-11748
▁établir	-11749
alexandre	-11750
australie	-11751
entendais	-11752
nellement	-11753
uffisance	-11754
▁affligés	-11755
▁approuvé	-11756
▁barrière	-11757
▁biblioth	-11758
▁buvaient	-11759
▁ceinture	-11760
▁chanteur	-11761
▁collecte	-11762
▁comptent	-11763
▁conservé	-11764
▁désigner	-11765
▁embrassé	-11766
▁excitant	-11767
▁galaxies	-11768
▁honneurs	-11769
▁incendie	-11770
▁jonathas	-11771
▁ouvrages	-11772
▁parcouru	-11773
▁passages	-11774
▁suivront	-11775
▁supprimé	-11776
▁surcroît	-11777
▁tournant	-11778
▁traduits	-11779
▁traversé	-11780
▁variétés	-11781
▁éditions	-11782
adolescent	-11783
imposition	-11784
▁arrachait	-11785
▁bénévoles	-11786
▁cherchons	-11787
▁comporter	-11788
▁corneille	-11789
▁destinées	-11790
▁doctrines	-11791
▁doucement	-11792
▁enseignes	-11793
▁glorifier	-11794
▁guerriers	-11795
▁habitudes	-11796
▁interromp	-11797
▁mangèrent	-11798
▁modalités	-11799
▁négatives	-11800
▁positions	-11801
▁présentés	-11802
▁souvenirs	-11803
▁symptômes	-11804
▁titulaire	-11805
▁viendrait	-11806
▁évolution	-11807
ambassadeur	-11808
▁assemblées	-11809
▁contrainte	-11810
▁cotisation	-11811
▁décidèrent	-11812
▁malhonnête	-11813
▁perçoivent	-11814
▁rembourser	-11815
▁secrétaire	-11816
▁souhaitait	-11817
▁spécifique	-11818
▁supérieurs	-11819
▁trouveront	-11820
▁appartenant	-11821
▁autochtones	-11822
▁condoléance	-11823
▁consolation	-11824
▁célibataire	-11825
▁domestiques	-11826
▁fantastique	-11827
▁malfaiteurs	-11828
▁raisonnable	-11829
▁rencontrées	-11830
▁récompensés	-11831
▁technologie	-11832
▁utilisation	-11833
▁vulnérables	-11834
▁civilisation	-11835
▁pornographie	-11836
▁restrictions	-11837
▁accomplissant	-11838
▁compatissants	-11839
▁ressemblaient	-11840
'1	-11841
-9	-11842
:.	-11843
iy	-11844
ni	-11845
-19	-11846
alm	-11847
bat	-11848
dom	-11849
emn	-11850
ief	-11851
jah	-11852
oce	-11853
oka	-11854
olo	-11855
▁74	-11856
▁87	-11857
▁bâ	-11858
▁ti	-11859
▁to	-11860
ciel	-11861
dias	-11862
ghan	-11863
gène	-11864
ieus	-11865
iran	-11866
ompt	-11867
ourv	-11868
oués	-11869
oûte	-11870
veux	-11871
écéd	-11872
▁13:	-11873
▁17:	-11874
▁21.	-11875
▁bec	-11876
▁cis	-11877
▁ger	-11878
▁gré	-11879
▁hôt	-11880
▁idé	-11881
▁ign	-11882
▁jéz	-11883
▁los	-11884
▁naï	-11885
▁nia	-11886
▁pép	-11887
▁roc	-11888
▁tig	-11889
▁ult	-11890
▁vœu	-11891
▁écr	-11892
agnée	-11893
cette	-11894
espér	-11895
fille	-11896
ouche	-11897
ueuse	-11898
ènera	-11899
▁13:5	-11900
▁1:20	-11901
▁2014	-11902
▁3:18	-11903
▁asie	-11904
▁beer	-11905
▁bern	-11906
▁cain	-11907
▁cymb	-11908
▁dors	-11909
▁empr	-11910
▁ingr	-11911
▁kong	-11912
▁liqu	-11913
▁logo	-11914
▁mété	-11915
▁obsc	-11916
▁paie	-11917
▁sacs	-11918
▁tabl	-11919
▁tion	-11920
▁toul	-11921
▁tuez	-11922
▁vest	-11923
▁york	-11924
▁zeus	-11925
ageait	-11926
agrand	-11927
aimera	-11928
ajoute	-11929
armure	-11930
assist	-11931
assoit	-11932
aumône	-11933
exerce	-11934
illant	-11935
joseph	-11936
othèse	-11937
oucher	-11938
urrent	-11939
utérus	-11940
égayer	-11941
énigme	-11942
▁10:10	-11943
▁aidée	-11944
▁avion	-11945
▁baign	-11946
▁bases	-11947
▁coron	-11948
▁débar	-11949
▁excus	-11950
▁faill	-11951
▁farde	-11952
▁human	-11953
▁longs	-11954
▁micro	-11955
▁olymp	-11956
▁posez	-11957
▁recul	-11958
▁rende	-11959
▁ruben	-11960
▁régén	-11961
efforts	-11962
enflent	-11963
extrême	-11964
humains	-11965
italien	-11966
ulaires	-11967
ulgence	-11968
utilité	-11969
échange	-11970
éditeur	-11971
ériques	-11972
éronome	-11973
▁abordé	-11974
▁albums	-11975
▁berlin	-11976
▁billet	-11977
▁buvait	-11978
▁civile	-11979
▁comble	-11980
▁descri	-11981
▁débrou	-11982
▁envies	-11983
▁except	-11984
▁goûter	-11985
▁honoré	-11986
▁issues	-11987
▁jérôme	-11988
▁plaint	-11989
▁rassas	-11990
▁réagit	-11991
▁réfère	-11992
▁savoie	-11993
▁social	-11994
▁venais	-11995
▁vinaig	-11996
▁vivais	-11997
▁élevée	-11998
araignée	-11999
aventure	-12000
huitième	-12001
ouvriers	-12002
▁assisté	-12003
▁automat	-12004
▁cachées	-12005
▁cessent	-12006
▁chinois	-12007
▁diplôme	-12008
▁déconse	-12009
▁dégoûté	-12010
▁désobéi	-12011
▁détenus	-12012
▁détient	-12013
▁entouré	-12014
▁facteur	-12015
▁fausses	-12016
▁fermées	-12017
▁largeur	-12018
▁lecteur	-12019
▁livrais	-12020
▁majeurs	-12021
▁mariées	-12022
▁montage	-12023
▁onzième	-12024
▁peintre	-12025
▁portées	-12026
▁prévoir	-12027
▁retours	-12028
▁risques	-12029
▁sauront	-12030
▁sauvées	-12031
▁sembler	-12032
▁servait	-12033
▁signalé	-12034
▁stérile	-12035
▁trompée	-12036
autrefois	-12037
enveloppe	-12038
expiation	-12039
ieusement	-12040
omination	-12041
évocation	-12042
▁artisans	-12043
▁coureurs	-12044
▁demandai	-12045
▁envelopp	-12046
▁mangeant	-12047
▁marchera	-12048
▁missions	-12049
▁paisible	-12050
▁posséder	-12051
▁privilég	-12052
▁provoqué	-12053
▁rassurer	-12054
▁rassurez	-12055
▁remparts	-12056
▁repoussé	-12057
▁retranch	-12058
▁revenons	-12059
▁répondez	-12060
▁résident	-12061
▁sciences	-12062
▁sincères	-12063
▁écrivain	-12064
ancienneté	-12065
▁championn	-12066
▁cimetière	-12067
▁condamnée	-12068
▁conformer	-12069
▁pacifique	-12070
▁renforcer	-12071
▁retournez	-12072
▁retrouvés	-12073
▁régulière	-12074
▁répondant	-12075
▁répondent	-12076
▁thaïlande	-12077
▁véhicules	-12078
▁bisounours	-12079
▁chaussures	-12080
▁compliquée	-12081
▁continuant	-12082
▁distinguer	-12083
▁générosité	-12084
▁initiative	-12085
▁interprète	-12086
▁intéressés	-12087
▁naturelles	-12088
▁paraissent	-12089
▁patriarche	-12090
▁prestation	-12091
▁promouvoir	-12092
▁réjouirent	-12093
▁réparation	-12094
▁réveillent	-12095
▁souviendra	-12096
▁véritables	-12097
▁électrique	-12098
effondrement	-12099
▁combattants	-12100
▁demanderont	-12101
▁débarrasser	-12102
▁fonctionner	-12103
▁gouvernants	-12104
▁journaliste	-12105
▁puissamment	-12106
▁réjouissait	-12107
▁susceptible	-12108
▁particuliers	-12109
▁ressentiment	-12110
▁collaboration	-12111
▁disparaissent	-12112
▁environnement	-12113
▁caractéristique	-12114
$.	-12115
23	-12116
gt	-12117
ho	-12118
rs	-12119
°2	-12120
▁‹	-12121
.""	-12122
.12	-12123
.15	-12124
amé	-12125
aqu	-12126
azz	-12127
ban	-12128
bar	-12129
eme	-12130
erx	-12131
imi	-12132
rem	-12133
ége	-12134
▁0.	-12135
▁85	-12136
▁[4	-12137
▁gi	-12138
▁hs	-12139
▁ov	-12140
!...	-12141
'...	-12142
abre	-12143
abul	-12144
agon	-12145
anor	-12146
bien	-12147
bret	-12148
essa	-12149
iere	-12150
illa	-12151
iqua	-12152
land	-12153
lout	-12154
mail	-12155
oies	-12156
ourt	-12157
èges	-12158
▁188	-12159
▁2:5	-12160
▁2:8	-12161
▁5:4	-12162
▁bit	-12163
▁bru	-12164
▁dra	-12165
▁jav	-12166
▁jez	-12167
▁lil	-12168
▁lue	-12169
▁mam	-12170
▁max	-12171
▁més	-12172
▁nan	-12173
▁nor	-12174
▁rah	-12175
▁riz	-12176
▁tax	-12177
allum	-12178
allâh	-12179
anime	-12180
assez	-12181
aïsme	-12182
eller	-12183
encad	-12184
endez	-12185
errai	-12186
erxès	-12187
ients	-12188
ignés	-12189
odeur	-12190
▁5:14	-12191
▁abig	-12192
▁aigu	-12193
▁bran	-12194
▁coch	-12195
▁cote	-12196
▁exil	-12197
▁file	-12198
▁irai	-12199
▁jord	-12200
▁jsus	-12201
▁maig	-12202
▁myth	-12203
▁prél	-12204
▁raté	-12205
▁rech	-12206
▁requ	-12207
▁subi	-12208
▁vote	-12209
▁yens	-12210
▁élab	-12211
dition	-12212
efforc	-12213
enchaî	-12214
encore	-12215
expose	-12216
hydrat	-12217
ifiées	-12218
improv	-12219
invent	-12220
objets	-12221
onnées	-12222
ribles	-12223
yatire	-12224
écoule	-12225
érieux	-12226
▁adult	-12227
▁agric	-12228
▁andre	-12229
▁artif	-12230
▁barbe	-12231
▁berce	-12232
▁brisé	-12233
▁caraï	-12234
▁chloé	-12235
▁costu	-12236
▁dynam	-12237
▁dérob	-12238
▁essai	-12239
▁fixée	-12240
▁grêle	-12241
▁indig	-12242
▁jouir	-12243
▁jules	-12244
▁maill	-12245
▁nazar	-12246
▁plats	-12247
▁poème	-12248
▁pékin	-12249
▁sacre	-12250
▁scell	-12251
▁unité	-12252
aborder	-12253
achèter	-12254
affilée	-12255
algérie	-12256
ercices	-12257
eunuque	-12258
hommage	-12259
illette	-12260
inclina	-12261
▁actuel	-12262
▁allong	-12263
▁allées	-12264
▁ardent	-12265
▁briser	-12266
▁choqué	-12267
▁découp	-12268
▁décour	-12269
▁enchaî	-12270
▁entrez	-12271
▁exprim	-12272
▁fantas	-12273
▁farine	-12274
▁grains	-12275
▁hasard	-12276
▁impéri	-12277
▁invest	-12278
▁lisent	-12279
▁luttes	-12280
▁lèvent	-12281
▁marcha	-12282
▁paraly	-12283
▁perses	-12284
▁posant	-12285
▁pourvu	-12286
▁puiser	-12287
▁retomb	-12288
▁revêtu	-12289
▁romans	-12290
▁romant	-12291
▁rétabl	-12292
▁réunir	-12293
▁soumet	-12294
▁soupir	-12295
▁séduit	-12296
▁vanter	-12297
▁venger	-12298
▁voudra	-12299
▁évitez	-12300
▁évolué	-12301
acquérir	-12302
bretagne	-12303
emporter	-12304
empressa	-12305
habiller	-12306
invoquer	-12307
oppement	-12308
épidémie	-12309
▁attaqué	-12310
▁billets	-12311
▁bénisse	-12312
▁changés	-12313
▁chienne	-12314
▁comprit	-12315
▁comptés	-12316
▁disposé	-12317
▁déchets	-12318
▁dépense	-12319
▁dépourv	-12320
▁détaill	-12321
▁détente	-12322
▁excéder	-12323
▁grandit	-12324
▁grecque	-12325
▁grosses	-12326
▁impasse	-12327
▁jézabel	-12328
▁limitée	-12329
▁mensong	-12330
▁million	-12331
▁occuper	-12332
▁partent	-12333
▁pleurez	-12334
▁profite	-12335
▁redress	-12336
▁rentrez	-12337
▁révolta	-12338
▁statues	-12339
▁surmont	-12340
▁vivront	-12341
▁écrivez	-12342
▁égorgés	-12343
▁éprouvé	-12344
▁étroite	-12345
admirable	-12346
agenouill	-12347
agitation	-12348
effondrer	-12349
▁accourut	-12350
▁anglaise	-12351
▁asservis	-12352
▁assuérus	-12353
▁attribué	-12354
▁bénissez	-12355
▁cantique	-12356
▁comprise	-12357
▁confirme	-12358
▁constant	-12359
▁coquille	-12360
▁douloure	-12361
▁déclarés	-12362
▁employer	-12363
▁enterrer	-12364
▁entraîne	-12365
▁exhortez	-12366
▁ignorait	-12367
▁ignoriez	-12368
▁indiquer	-12369
▁lecteurs	-12370
▁marchait	-12371
▁marchant	-12372
▁maturité	-12373
▁montrant	-12374
▁nicodème	-12375
▁partirai	-12376
▁penserez	-12377
▁pleurent	-12378
▁priaient	-12379
▁périrent	-12380
▁renaître	-12381
▁retentit	-12382
▁réveilla	-12383
▁salamine	-12384
▁systèmes	-12385
▁terrains	-12386
▁transpar	-12387
▁traverse	-12388
▁vertueux	-12389
amendement	-12390
apocalypse	-12391
emparèrent	-12392
immobilier	-12393
instrument	-12394
invocation	-12395
étonnaient	-12396
▁anciennes	-12397
▁assassins	-12398
▁chaldéens	-12399
▁chevalier	-12400
▁ensembles	-12401
▁magiciens	-12402
▁maintient	-12403
▁obstacles	-12404
▁organisée	-12405
▁originale	-12406
▁paragraph	-12407
▁possédons	-12408
▁provenant	-12409
▁retournés	-12410
▁sensibles	-12411
▁signifier	-12412
▁stupidité	-12413
▁vieillard	-12414
▁accomplies	-12415
▁caractères	-12416
▁diagnostic	-12417
▁démoniaque	-12418
▁forteresse	-12419
▁intellectu	-12420
▁longuement	-12421
▁prospérité	-12422
▁présentées	-12423
▁puissantes	-12424
▁retournant	-12425
▁résolution	-12426
▁surveiller	-12427
▁volontiers	-12428
abandonnerai	-12429
erveillement	-12430
▁apportèrent	-12431
▁composition	-12432
▁deutéronome	-12433
▁enseignante	-12434
▁financières	-12435
▁gouverneurs	-12436
▁parviennent	-12437
▁proviennent	-12438
▁réjouissent	-12439
▁sauvegarder	-12440
▁convertissez	-12441
▁pratiquement	-12442
▁purification	-12443
▁stupéfaction	-12444
▁progressivement	-12445
&#	-12446
/8	-12447
33	-12448
34	-12449
];	-12450
bs	-12451
.19	-12452
/02	-12453
/11	-12454
aca	-12455
adh	-12456
hib	-12457
jud	-12458
las	-12459
oko	-12460
oly	-12461
rom	-12462
zél	-12463
égé	-12464
émi	-12465
ôts	-12466
œux	-12467
▁0,	-12468
▁2°	-12469
▁4)	-12470
▁8-	-12471
▁ip	-12472
▁ul	-12473
...)	-12474
abet	-12475
anes	-12476
atis	-12477
cela	-12478
dict	-12479
dras	-12480
hame	-12481
ihad	-12482
iler	-12483
mons	-12484
obus	-12485
outs	-12486
élix	-12487
ôles	-12488
▁19.	-12489
▁4:6	-12490
▁adj	-12491
▁bet	-12492
▁box	-12493
▁gil	-12494
▁han	-12495
▁hyd	-12496
▁jum	-12497
▁kim	-12498
▁laï	-12499
▁mme	-12500
▁myr	-12501
▁mys	-12502
alage	-12503
encre	-12504
enoch	-12505
eture	-12506
forme	-12507
ielle	-12508
itées	-12509
onvén	-12510
ourer	-12511
ousie	-12512
oyant	-12513
rirai	-12514
uaire	-12515
éléph	-12516
étang	-12517
▁17.3	-12518
▁attr	-12519
▁basé	-12520
▁bouc	-12521
▁bous	-12522
▁cale	-12523
▁camb	-12524
▁carb	-12525
▁cler	-12526
▁forn	-12527
▁gage	-12528
▁gonf	-12529
▁goth	-12530
▁gras	-12531
▁hiér	-12532
▁join	-12533
▁jung	-12534
▁phén	-12535
▁ranc	-12536
▁rêvé	-12537
▁siég	-12538
▁togo	-12539
▁tuée	-12540
▁vacc	-12541
▁vœux	-12542
▁yann	-12543
▁âges	-12544
▁émis	-12545
▁œufs	-12546
abouss	-12547
adapte	-12548
espèce	-12549
hésion	-12550
ifiant	-12551
illées	-12552
iquées	-12553
offres	-12554
petits	-12555
probre	-12556
propri	-12557
reinte	-12558
ursion	-12559
ustrie	-12560
évêque	-12561
▁2014.	-12562
▁98...	-12563
▁achab	-12564
▁alpha	-12565
▁banqu	-12566
▁bouch	-12567
▁calif	-12568
▁cassé	-12569
▁couch	-12570
▁covid	-12571
▁coûté	-12572
▁décis	-12573
▁délib	-12574
▁gourm	-12575
▁infir	-12576
▁islam	-12577
▁jason	-12578
▁joint	-12579
▁joues	-12580
▁kilos	-12581
▁koumi	-12582
▁lingu	-12583
▁moust	-12584
▁phare	-12585
▁phras	-12586
▁porno	-12587
▁prime	-12588
▁rayon	-12589
▁rompu	-12590
▁ronde	-12591
▁récla	-12592
▁tobie	-12593
▁tonne	-12594
▁trott	-12595
▁étinc	-12596
▁évite	-12597
agèrent	-12598
amusant	-12599
appuyer	-12600
ativité	-12601
atoires	-12602
enfonce	-12603
essayez	-12604
idation	-12605
inviter	-12606
izabeth	-12607
laissez	-12608
nements	-12609
échappa	-12610
êtement	-12611
▁700...	-12612
▁attrap	-12613
▁bandes	-12614
▁bourre	-12615
▁brosse	-12616
▁cardia	-12617
▁civils	-12618
▁compté	-12619
▁conven	-12620
▁criant	-12621
▁divise	-12622
▁décret	-12623
▁déform	-12624
▁effond	-12625
▁effort	-12626
▁emparé	-12627
▁fiable	-12628
▁fécond	-12629
▁gestes	-12630
▁gosses	-12631
▁imiter	-12632
▁joints	-12633
▁manusc	-12634
▁motifs	-12635
▁métrop	-12636
▁paître	-12637
▁pertes	-12638
▁prédit	-12639
▁pécher	-12640
▁recrut	-12641
▁renfer	-12642
▁reçois	-12643
▁robert	-12644
▁surnom	-12645
▁tueras	-12646
▁valent	-12647
▁éteint	-12648
abattoir	-12649
appelant	-12650
arrêtent	-12651
baptiste	-12652
empêchez	-12653
envisage	-12654
esclaves	-12655
idemment	-12656
indiquer	-12657
invasion	-12658
orations	-12659
ènements	-12660
épreuves	-12661
▁absolue	-12662
▁adaptés	-12663
▁aimions	-12664
▁angoiss	-12665
▁annales	-12666
▁barques	-12667
▁boiteux	-12668
▁brigand	-12669
▁brouill	-12670
▁central	-12671
▁changée	-12672
▁cigaret	-12673
▁espagne	-12674
▁galatie	-12675
▁gardera	-12676
▁inutile	-12677
▁menaces	-12678
▁méfaits	-12679
▁obtient	-12680
▁procure	-12681
▁quittez	-12682
▁recette	-12683
▁recevez	-12684
▁rupture	-12685
▁résiste	-12686
▁réussit	-12687
▁saluent	-12688
▁sentent	-12689
▁séduite	-12690
▁tension	-12691
▁terreur	-12692
▁trompés	-12693
▁écoutée	-12694
▁épargné	-12695
arisation	-12696
employeur	-12697
exclusion	-12698
intensité	-12699
▁attristé	-12700
▁bouclier	-12701
▁calculer	-12702
▁couverte	-12703
▁cultiver	-12704
▁desquels	-12705
▁dommages	-12706
▁découvre	-12707
▁détendre	-12708
▁entraîné	-12709
▁essayons	-12710
▁européen	-12711
▁facilité	-12712
▁françois	-12713
▁félicité	-12714
▁galiléen	-12715
▁garantir	-12716
▁inscrits	-12717
▁judaïsme	-12718
▁lectures	-12719
▁lointain	-12720
▁malheurs	-12721
▁montrait	-12722
▁nettoyer	-12723
▁négatifs	-12724
▁occident	-12725
▁opinions	-12726
▁poussent	-12727
▁regrette	-12728
▁remplace	-12729
▁revenait	-12730
▁réservée	-12731
▁sociétés	-12732
▁séjourné	-12733
▁taureaux	-12734
▁thyatire	-12735
▁viendras	-12736
▁voyageur	-12737
▁écoutait	-12738
▁écriture	-12739
▁électron	-12740
▁éléphant	-12741
auparavant	-12742
indulgence	-12743
▁adultères	-12744
▁annonçait	-12745
▁antiochus	-12746
▁attributs	-12747
▁battirent	-12748
▁camarades	-12749
▁constante	-12750
▁contribue	-12751
▁dimension	-12752
▁disposons	-12753
▁divinités	-12754
▁déception	-12755
▁enfantera	-12756
▁enseignez	-12757
▁exercices	-12758
▁fermeture	-12759
▁fruitiers	-12760
▁immédiate	-12761
▁israélien	-12762
▁maîtresse	-12763
▁maîtriser	-12764
▁obéissent	-12765
▁ouvrables	-12766
▁préserver	-12767
▁publicité	-12768
▁remboursé	-12769
▁remettrez	-12770
▁résistant	-12771
▁saisissez	-12772
▁servitude	-12773
▁tentative	-12774
▁treizième	-12775
▁violences	-12776
▁éducation	-12777
▁émerveill	-12778
achoppement	-12779
agriculture	-12780
approbation	-12781
▁accueillie	-12782
▁assistance	-12783
▁convaincus	-12784
▁crépuscule	-12785
▁déterminer	-12786
▁grandement	-12787
▁invitation	-12788
▁poursuivit	-12789
▁rassurante	-12790
▁reproduire	-12791
▁retournait	-12792
interdiction	-12793
▁application	-12794
▁conseillers	-12795
▁convoitises	-12796
▁célébration	-12797
▁description	-12798
▁dispositifs	-12799
▁déplacement	-12800
▁entendaient	-12801
▁obligations	-12802
▁officielles	-12803
▁précédentes	-12804
▁prédestinés	-12805
▁touristique	-12806
▁traitements	-12807
homosexualité	-12808
▁conservation	-12809
▁détermination	-12810
▁indispensable	-12811
▁inébranlables	-12812
▁représentants	-12813
▁référencement	-12814
▁fonctionnement	-12815
▁instantanément	-12816
,,	-12817
35	-12818
38	-12819
gy	-12820
ly	-12821
pp	-12822
▁ã	-12823
!."	-12824
.23	-12825
/05	-12826
bal	-12827
cit	-12828
eac	-12829
ene	-12830
hwh	-12831
iba	-12832
ica	-12833
iya	-12834
uet	-12835
van	-12836
ûte	-12837
▁#1	-12838
▁cs	-12839
▁dv	-12840
▁mr	-12841
▁ze	-12842
aaaa	-12843
abat	-12844
affe	-12845
agis	-12846
ampe	-12847
aris	-12848
atan	-12849
cœur	-12850
dres	-12851
euil	-12852
irus	-12853
ison	-12854
opie	-12855
opér	-12856
oram	-12857
ower	-12858
sour	-12859
souv	-12860
tits	-12861
▁11,	-12862
▁13,	-12863
▁22.	-12864
▁230	-12865
▁2:1	-12866
▁31.	-12867
▁[4]	-12868
▁asc	-12869
▁aug	-12870
▁coh	-12871
▁dal	-12872
▁duc	-12873
▁gol	-12874
▁kir	-12875
▁pok	-12876
▁sak	-12877
/2018	-12878
acher	-12879
aches	-12880
aillé	-12881
chose	-12882
dames	-12883
enter	-12884
iaste	-12885
icale	-12886
infid	-12887
ingén	-12888
isaïe	-12889
nesse	-12890
omnie	-12891
orial	-12892
range	-12893
salut	-12894
uctif	-12895
écume	-12896
érale	-12897
étage	-12898
▁19:1	-12899
▁2007	-12900
▁24:4	-12901
▁9:23	-12902
▁accr	-12903
▁aisé	-12904
▁arra	-12905
▁bomb	-12906
▁buts	-12907
▁caut	-12908
▁delà	-12909
▁enqu	-12910
▁fert	-12911
▁fins	-12912
▁flui	-12913
▁foss	-12914
▁hach	-12915
▁laur	-12916
▁luke	-12917
▁pond	-12918
▁rall	-12919
▁rené	-12920
▁ritu	-12921
▁régl	-12922
▁suse	-12923
allure	-12924
anteur	-12925
expert	-12926
humeur	-12927
oblige	-12928
oniens	-12929
option	-12930
âteaux	-12931
éclate	-12932
écrase	-12933
émique	-12934
épuisé	-12935
étrius	-12936
▁2013.	-12937
▁28:19	-12938
▁armés	-12939
▁boive	-12940
▁boucs	-12941
▁bénie	-12942
▁cèdre	-12943
▁dansé	-12944
▁dates	-12945
▁défav	-12946
▁déçus	-12947
▁fléau	-12948
▁forcé	-12949
▁félix	-12950
▁greff	-12951
▁illum	-12952
▁jambe	-12953
▁ligue	-12954
▁mages	-12955
▁malin	-12956
▁miles	-12957
▁noirs	-12958
▁percé	-12959
▁poing	-12960
▁punir	-12961
▁punis	-12962
▁périp	-12963
▁ruiss	-12964
▁rêver	-12965
▁saign	-12966
▁sceau	-12967
▁sourc	-12968
▁tapis	-12969
▁trucs	-12970
▁valor	-12971
▁vaste	-12972
▁virtu	-12973
achever	-12974
adultes	-12975
aissait	-12976
anéenne	-12977
apollos	-12978
aîtront	-12979
effacer	-12980
episode	-12981
horaire	-12982
hétique	-12983
ovation	-12984
▁agents	-12985
▁agress	-12986
▁amples	-12987
▁arrang	-12988
▁arrête	-12989
▁astres	-12990
▁aurons	-12991
▁autels	-12992
▁bouton	-12993
▁buvant	-12994
▁bénies	-12995
▁cathol	-12996
▁centen	-12997
▁climat	-12998
▁conclu	-12999
▁cousin	-13000
▁crayon	-13001
▁cuivre	-13002
▁design	-13003
▁déport	-13004
▁dérout	-13005
▁engage	-13006
▁forcer	-13007
▁géants	-13008
▁joshua	-13009
▁jouent	-13010
▁levait	-13011
▁lisait	-13012
▁madian	-13013
▁morale	-13014
▁paille	-13015
▁profil	-13016
▁prêtes	-13017
▁rétrib	-13018
▁sichem	-13019
▁traits	-13020
▁visant	-13021
▁édifie	-13022
effondre	-13023
éclairer	-13024
éthiopie	-13025
▁adopter	-13026
▁adoptée	-13027
▁affecté	-13028
▁banlieu	-13029
▁bâtirai	-13030
▁chèvres	-13031
▁confins	-13032
▁discuté	-13033
▁empêché	-13034
▁entrain	-13035
▁exposer	-13036
▁forfait	-13037
▁injuste	-13038
▁licence	-13039
▁locales	-13040
▁maintes	-13041
▁majesté	-13042
▁marques	-13043
▁montent	-13044
▁mourras	-13045
▁métiers	-13046
▁pensant	-13047
▁phrases	-13048
▁pigeons	-13049
▁planter	-13050
▁plongée	-13051
▁poignée	-13052
▁profité	-13053
▁proport	-13054
▁précept	-13055
▁pétrole	-13056
▁regrets	-13057
▁ressais	-13058
▁retenti	-13059
▁rumeurs	-13060
▁réseaux	-13061
▁savions	-13062
▁scandal	-13063
▁sexuels	-13064
▁sorcier	-13065
▁souriez	-13066
▁touchez	-13067
▁touchés	-13068
▁twitter	-13069
▁vincent	-13070
▁vivions	-13071
▁éclaire	-13072
▁éprouve	-13073
attendent	-13074
humanisme	-13075
▁abordées	-13076
▁appliqué	-13077
▁apportez	-13078
▁artifici	-13079
▁assemble	-13080
▁assister	-13081
▁attaquer	-13082
▁augmente	-13083
▁aventure	-13084
▁blanches	-13085
▁consacre	-13086
▁conserve	-13087
▁contenus	-13088
▁continua	-13089
▁courrier	-13090
▁dirigent	-13091
▁disparut	-13092
▁disposés	-13093
▁décédées	-13094
▁dédicace	-13095
▁favorise	-13096
▁figurent	-13097
▁humilité	-13098
▁imaginer	-13099
▁insectes	-13100
▁inspirée	-13101
▁mettront	-13102
▁meurtres	-13103
▁monument	-13104
▁morceaux	-13105
▁parlerai	-13106
▁positive	-13107
▁primaire	-13108
▁produira	-13109
▁rachetés	-13110
▁refusait	-13111
▁resplend	-13112
▁réalités	-13113
▁sacrifié	-13114
▁sandales	-13115
▁signific	-13116
▁sorcière	-13117
▁souligné	-13118
▁touchées	-13119
▁traduite	-13120
▁troublée	-13121
▁témoigné	-13122
▁veillons	-13123
▁visibles	-13124
adaptation	-13125
architecte	-13126
assassinat	-13127
enorgueill	-13128
excitation	-13129
▁abondante	-13130
▁affranchi	-13131
▁allemande	-13132
▁appellera	-13133
▁bethléhem	-13134
▁confronté	-13135
▁conneries	-13136
▁critiques	-13137
▁disposent	-13138
▁démétrius	-13139
▁développe	-13140
▁fondateur	-13141
▁invisible	-13142
▁juridique	-13143
▁logements	-13144
▁numérique	-13145
▁organisés	-13146
▁participe	-13147
▁poursuive	-13148
▁privilège	-13149
▁présentée	-13150
▁quasiment	-13151
▁recueilli	-13152
▁regretter	-13153
▁reprocher	-13154
▁sacrement	-13155
▁souriante	-13156
▁souvenons	-13157
▁stratégie	-13158
▁terminées	-13159
▁équitable	-13160
abandonnent	-13161
appartement	-13162
hébergement	-13163
▁américaine	-13164
▁blasphémer	-13165
▁cananéenne	-13166
▁catastroph	-13167
▁commencera	-13168
▁comprenais	-13169
▁conférence	-13170
▁continuité	-13171
▁dimensions	-13172
▁evidemment	-13173
▁jouissance	-13174
▁luminosité	-13175
▁mystérieux	-13176
▁obligation	-13177
▁pardonnant	-13178
▁poursuivra	-13179
▁quittèrent	-13180
▁rédempteur	-13181
▁semblerait	-13182
appréciation	-13183
intercession	-13184
▁accessibles	-13185
▁authentique	-13186
▁bénéficient	-13187
▁confortable	-13188
▁construisit	-13189
▁dégueulasse	-13190
▁persécution	-13191
▁recommander	-13192
▁ressuscités	-13193
▁souviendras	-13194
▁ressuscitera	-13195
endurcissement	-13196
▁collectivités	-13197
▁international	-13198
▁supplications	-13199
expérimentation	-13200
▁habituellement	-13201
▁transhumanisme	-13202
▁essentiellement	-13203
'"	-13204
*.	-13205
02	-13206
03	-13207
43	-13208
60	-13209
90	-13210
bé	-13211
nt	-13212
pd	-13213
ôm	-13214
▁°	-13215
-10	-13216
-18	-13217
/04	-13218
30;	-13219
???	-13220
ake	-13221
arn	-13222
but	-13223
dès	-13224
ety	-13225
haï	-13226
iko	-13227
ios	-13228
lan	-13229
ona	-13230
sol	-13231
ube	-13232
ush	-13233
vin	-13234
vol	-13235
wan	-13236
▁!)	-13237
▁";	-13238
▁1°	-13239
▁5)	-13240
▁76	-13241
▁ky	-13242
aibl	-13243
ases	-13244
blou	-13245
ceci	-13246
cter	-13247
ella	-13248
erné	-13249
ilie	-13250
inse	-13251
ling	-13252
mant	-13253
ouci	-13254
paul	-13255
rade	-13256
roid	-13257
sive	-13258
urge	-13259
▁10-	-13260
▁185	-13261
▁20,	-13262
▁24:	-13263
▁8:5	-13264
▁9:5	-13265
▁[5]	-13266
▁asi	-13267
▁bor	-13268
▁bro	-13269
▁bug	-13270
▁ecc	-13271
▁ete	-13272
▁gir	-13273
▁géh	-13274
▁hey	-13275
▁ier	-13276
▁iii	-13277
▁kev	-13278
▁lig	-13279
▁nev	-13280
▁ost	-13281
▁rio	-13282
▁sph	-13283
▁tai	-13284
▁xvi	-13285
8230;	-13286
achet	-13287
asaph	-13288
astre	-13289
autoc	-13290
berge	-13291
erine	-13292
ester	-13293
iales	-13294
iants	-13295
ilier	-13296
inaug	-13297
incap	-13298
inité	-13299
ivois	-13300
judas	-13301
levez	-13302
olive	-13303
ollon	-13304
osion	-13305
parle	-13306
riche	-13307
riste	-13308
sieur	-13309
égare	-13310
élanc	-13311
élite	-13312
▁1:27	-13313
▁arts	-13314
▁bert	-13315
▁clôt	-13316
▁coco	-13317
▁fiss	-13318
▁froi	-13319
▁gain	-13320
▁hais	-13321
▁hall	-13322
▁imit	-13323
▁insp	-13324
▁iras	-13325
▁lots	-13326
▁marg	-13327
▁micr	-13328
▁naît	-13329
▁pist	-13330
▁pére	-13331
▁revu	-13332
▁règn	-13333
▁sant	-13334
▁semé	-13335
▁vamp	-13336
▁égal	-13337
▁éloï	-13338
▁éner	-13339
ailler	-13340
apogée	-13341
assent	-13342
ceptez	-13343
eacute	-13344
emmena	-13345
enrich	-13346
envole	-13347
immort	-13348
ogance	-13349
orçant	-13350
ouffre	-13351
ressez	-13352
écroul	-13353
élysée	-13354
épines	-13355
▁2018:	-13356
▁achev	-13357
▁amies	-13358
▁audit	-13359
▁black	-13360
▁canon	-13361
▁cessa	-13362
▁codes	-13363
▁cuire	-13364
▁exode	-13365
▁fiche	-13366
▁figur	-13367
▁fixer	-13368
▁flots	-13369
▁griff	-13370
▁illég	-13371
▁impar	-13372
▁iront	-13373
▁issue	-13374
▁jurer	-13375
▁linge	-13376
▁lueur	-13377
▁manga	-13378
▁meule	-13379
▁métro	-13380
▁parut	-13381
▁poils	-13382
▁seins	-13383
▁siége	-13384
▁sueur	-13385
▁viole	-13386
▁vétér	-13387
▁vêtus	-13388
accéder	-13389
ampleur	-13390
artisan	-13391
corinth	-13392
héroïne	-13393
indique	-13394
offrent	-13395
ologues	-13396
oquence	-13397
raction	-13398
vitique	-13399
écarter	-13400
élèvent	-13401
éveille	-13402
évoquer	-13403
▁accomp	-13404
▁actifs	-13405
▁advenu	-13406
▁alliés	-13407
▁aurais	-13408
▁ballon	-13409
▁colomb	-13410
▁courag	-13411
▁domine	-13412
▁dragon	-13413
▁déconc	-13414
▁empire	-13415
▁endomm	-13416
▁enlève	-13417
▁faille	-13418
▁faîtes	-13419
▁infirm	-13420
▁lourde	-13421
▁menées	-13422
▁minuit	-13423
▁monast	-13424
▁moquer	-13425
▁mouche	-13426
▁nutrit	-13427
▁parall	-13428
▁partez	-13429
▁percer	-13430
▁présid	-13431
▁rivage	-13432
▁réprim	-13433
▁segond	-13434
▁signer	-13435
▁syrien	-13436
▁thérap	-13437
▁tortue	-13438
▁ventes	-13439
▁écrasé	-13440
abiliser	-13441
antioche	-13442
apparaît	-13443
appuyant	-13444
atteinte	-13445
attraper	-13446
exécuter	-13447
habitais	-13448
héritier	-13449
équation	-13450
évidence	-13451
▁abordés	-13452
▁acquies	-13453
▁adaptée	-13454
▁agressi	-13455
▁ananias	-13456
▁apollos	-13457
▁arrêtée	-13458
▁baisers	-13459
▁balayer	-13460
▁berceau	-13461
▁boucher	-13462
▁brûlées	-13463
▁circuit	-13464
▁commerç	-13465
▁diction	-13466
▁démenti	-13467
▁dérangé	-13468
▁désigné	-13469
▁enfermé	-13470
▁enjoign	-13471
▁enlever	-13472
▁georges	-13473
▁hériter	-13474
▁inquiet	-13475
▁insensé	-13476
▁jettent	-13477
▁mangera	-13478
▁modifié	-13479
▁mosquée	-13480
▁offrira	-13481
▁patrick	-13482
▁planche	-13483
▁possédé	-13484
▁prévenu	-13485
▁purifie	-13486
▁quoique	-13487
▁retiens	-13488
▁revivre	-13489
▁revêtez	-13490
▁rochers	-13491
▁récapit	-13492
▁révélée	-13493
▁samedis	-13494
▁secrète	-13495
▁suscité	-13496
▁séparée	-13497
▁triomph	-13498
▁édifiez	-13499
▁équilib	-13500
augmenter	-13501
efforçait	-13502
envisager	-13503
onnements	-13504
étudiants	-13505
▁apportée	-13506
▁autorisé	-13507
▁blasphém	-13508
▁chocolat	-13509
▁commenté	-13510
▁contacts	-13511
▁dialogue	-13512
▁douzaine	-13513
▁déclarer	-13514
▁déménagé	-13515
▁dépenser	-13516
▁déployés	-13517
▁désobéir	-13518
▁fabriqué	-13519
▁fatalité	-13520
▁feraient	-13521
▁japonais	-13522
▁jésuites	-13523
▁maintenu	-13524
▁maintien	-13525
▁mesdames	-13526
▁médaille	-13527
▁pénétrer	-13528
▁qualifié	-13529
▁restauré	-13530
▁robustes	-13531
▁survient	-13532
▁voyaient	-13533
▁véracité	-13534
▁époustou	-13535
inquiètent	-13536
occupation	-13537
▁atteintes	-13538
▁bénéficie	-13539
▁chauffeur	-13540
▁entrepris	-13541
▁entretien	-13542
▁hypocrite	-13543
▁immédiats	-13544
▁inférieur	-13545
▁innocents	-13546
▁installée	-13547
▁intérieur	-13548
▁manuscrit	-13549
▁permanent	-13550
▁produisit	-13551
▁prosterna	-13552
▁quartiers	-13553
▁racontait	-13554
▁réfléchis	-13555
▁réservoir	-13556
▁sortaient	-13557
▁soumettez	-13558
▁suivaient	-13559
▁supprimer	-13560
▁surmonter	-13561
▁terribles	-13562
▁versement	-13563
corinthiens	-13564
indignation	-13565
▁considérée	-13566
▁construits	-13567
▁distinctes	-13568
▁dépendance	-13569
▁enseignent	-13570
▁exposition	-13571
▁fraternité	-13572
▁gethsémani	-13573
▁gethsémané	-13574
▁officielle	-13575
▁parvenions	-13576
▁procédures	-13577
▁prétention	-13578
▁résistants	-13579
▁transgress	-13580
appréhension	-13581
assemblèrent	-13582
inauguration	-13583
▁accompagnée	-13584
▁annonçaient	-13585
▁compliments	-13586
▁considérait	-13587
▁considérées	-13588
▁disciplines	-13589
▁exemplaires	-13590
▁prestations	-13591
▁publication	-13592
▁ramassèrent	-13593
▁récompenses	-13594
▁travaillant	-13595
▁visiblement	-13596
▁exceptionnel	-13597
▁perspectives	-13598
▁organisations	-13599
▁prochainement	-13600
▁transformation	-13601
▁miraculeusement	-13602
01	-13603
04	-13604
31	-13605
42	-13606
hé	-13607
we	-13608
▁]	-13609
-11	-13610
/03	-13611
40.	-13612
ado	-13613
akh	-13614
arl	-13615
dal	-13616
ere	-13617
gal	-13618
igu	-13619
ika	-13620
ipe	-13621
kah	-13622
oah	-13623
ops	-13624
orp	-13625
osa	-13626
oum	-13627
rid	-13628
udi	-13629
uke	-13630
▁3/	-13631
▁==	-13632
▁[[	-13633
▁kr	-13634
▁pc	-13635
▁pd	-13636
▁rp	-13637
▁rs	-13638
▁ye	-13639
...,	-13640
aile	-13641
allé	-13642
amon	-13643
aque	-13644
arim	-13645
aste	-13646
ellé	-13647
glom	-13648
host	-13649
nera	-13650
otyp	-13651
ouée	-13652
phib	-13653
rand	-13654
rure	-13655
tour	-13656
écho	-13657
édez	-13658
énie	-13659
érez	-13660
▁15:	-13661
▁160	-13662
▁180	-13663
▁202	-13664
▁29.	-13665
▁360	-13666
▁46.	-13667
▁apt	-13668
▁céd	-13669
▁enr	-13670
▁ker	-13671
▁maï	-13672
▁meg	-13673
▁nex	-13674
▁pak	-13675
▁pam	-13676
▁rot	-13677
▁soc	-13678
▁sri	-13679
▁sul	-13680
▁suz	-13681
▁tun	-13682
acées	-13683
argne	-13684
avort	-13685
indou	-13686
itulé	-13687
marie	-13688
obéit	-13689
ojada	-13690
oyers	-13691
theos	-13692
uleux	-13693
ustri	-13694
usure	-13695
âtres	-13696
èques	-13697
éalog	-13698
écrie	-13699
▁13:4	-13700
▁1968	-13701
▁2:28	-13702
▁4:20	-13703
▁8:26	-13704
▁card	-13705
▁cerf	-13706
▁ethn	-13707
▁foul	-13708
▁féro	-13709
▁goog	-13710
▁goul	-13711
▁idol	-13712
▁inde	-13713
▁josé	-13714
▁jéhu	-13715
▁king	-13716
▁lant	-13717
▁mecs	-13718
▁mits	-13719
▁neph	-13720
▁norv	-13721
▁path	-13722
▁pois	-13723
▁puce	-13724
▁silo	-13725
▁soie	-13726
▁song	-13727
▁stri	-13728
▁tien	-13729
▁tord	-13730
▁traf	-13731
▁trag	-13732
▁vern	-13733
▁vise	-13734
▁voué	-13735
▁édit	-13736
anisme	-13737
demain	-13738
effray	-13739
indice	-13740
mières	-13741
naires	-13742
obiles	-13743
osheth	-13744
quelqu	-13745
▁!!!!!	-13746
▁10:24	-13747
▁14:16	-13748
▁1999.	-13749
▁19:24	-13750
▁besti	-13751
▁bilan	-13752
▁bouff	-13753
▁bénir	-13754
▁canal	-13755
▁charl	-13756
▁cible	-13757
▁comté	-13758
▁confr	-13759
▁dontl	-13760
▁dériv	-13761
▁envol	-13762
▁focal	-13763
▁jadis	-13764
▁lanka	-13765
▁marée	-13766
▁mobil	-13767
▁moiss	-13768
▁neutr	-13769
▁parcs	-13770
▁pince	-13771
▁pompe	-13772
▁prior	-13773
▁prédi	-13774
▁rapha	-13775
▁relax	-13776
▁saute	-13777
▁seuil	-13778
▁syndr	-13779
▁tabac	-13780
▁traum	-13781
▁watch	-13782
▁épuis	-13783
agirait	-13784
atricul	-13785
ciation	-13786
cidence	-13787
cidents	-13788
diments	-13789
effraie	-13790
estimer	-13791
iscient	-13792
liction	-13793
ouvrent	-13794
ovision	-13795
urrents	-13796
▁abords	-13797
▁agabus	-13798
▁aimiez	-13799
▁andrew	-13800
▁bouger	-13801
▁budget	-13802
▁bâtons	-13803
▁caisse	-13804
▁carmel	-13805
▁config	-13806
▁coucou	-13807
▁coupes	-13808
▁creuse	-13809
▁dégage	-13810
▁enfans	-13811
▁estimé	-13812
▁fabric	-13813
▁fascin	-13814
▁foutre	-13815
▁froide	-13816
▁fuyait	-13817
▁imprim	-13818
▁incréd	-13819
▁ismaël	-13820
▁julien	-13821
▁levant	-13822
▁métall	-13823
▁pommes	-13824
▁posait	-13825
▁pourch	-13826
▁pourri	-13827
▁reflet	-13828
▁reposa	-13829
▁résolu	-13830
▁sieste	-13831
▁single	-13832
▁sourds	-13833
▁tirage	-13834
▁unités	-13835
▁égarés	-13836
▁épître	-13837
▁étages	-13838
airement	-13839
attarder	-13840
ensibles	-13841
pitalité	-13842
portants	-13843
regardez	-13844
rication	-13845
échanger	-13846
écoutait	-13847
éteindre	-13848
étonnant	-13849
▁aimable	-13850
▁amusant	-13851
▁arrives	-13852
▁aurions	-13853
▁avertis	-13854
▁baisser	-13855
▁cachent	-13856
▁cadavre	-13857
▁chuchot	-13858
▁congrès	-13859
▁dangers	-13860
▁directe	-13861
▁dirigea	-13862
▁défaite	-13863
▁déposer	-13864
▁ecoutez	-13865
▁engagée	-13866
▁espérer	-13867
▁fiancée	-13868
▁géhenne	-13869
▁honorer	-13870
▁marchez	-13871
▁marchés	-13872
▁mourrai	-13873
▁nicanor	-13874
▁occupez	-13875
▁plainte	-13876
▁raconta	-13877
▁retenue	-13878
▁régnera	-13879
▁sachent	-13880
▁statuts	-13881
▁séances	-13882
▁utilité	-13883
▁vierges	-13884
▁visites	-13885
▁énervée	-13886
▁étonnée	-13887
acquitter	-13888
activités	-13889
gardismes	-13890
▁allusion	-13891
▁ateliers	-13892
▁attachée	-13893
▁attaques	-13894
▁attentes	-13895
▁caraïbes	-13896
▁changera	-13897
▁chantres	-13898
▁citation	-13899
▁combattu	-13900
▁converti	-13901
▁convoqua	-13902
▁courante	-13903
▁couverts	-13904
▁cuisiner	-13905
▁distrait	-13906
▁décroché	-13907
▁dépouill	-13908
▁désirait	-13909
▁désireux	-13910
▁enseveli	-13911
▁entourée	-13912
▁gardiens	-13913
▁généalog	-13914
▁honnêtes	-13915
▁horaires	-13916
▁immeuble	-13917
▁institut	-13918
▁jalousie	-13919
▁maternel	-13920
▁muhammad	-13921
▁mécréant	-13922
▁pakistan	-13923
▁prononce	-13924
▁prudence	-13925
▁préciser	-13926
▁publiées	-13927
▁pêcheurs	-13928
▁rentrant	-13929
▁revienne	-13930
▁réaliste	-13931
▁soutient	-13932
▁synonyme	-13933
▁tranches	-13934
▁végétaux	-13935
▁ébranlés	-13936
▁épargnés	-13937
incapacité	-13938
insistance	-13939
équipement	-13940
évacuation	-13941
▁affirment	-13942
▁affligiez	-13943
▁autorisés	-13944
▁baptisait	-13945
▁batailles	-13946
▁blancheur	-13947
▁blasphème	-13948
▁composent	-13949
▁diffèrent	-13950
▁diversité	-13951
▁donneront	-13952
▁défenseur	-13953
▁détresses	-13954
▁entendrez	-13955
▁extérieur	-13956
▁gardèrent	-13957
▁judicieux	-13958
▁livraison	-13959
▁mensonges	-13960
▁mécanique	-13961
▁passerait	-13962
▁perdition	-13963
▁portèrent	-13964
▁recouvert	-13965
▁reviennes	-13966
▁règlement	-13967
▁sanctifié	-13968
▁scolarité	-13969
▁servaient	-13970
▁souffrant	-13971
▁stabilité	-13972
▁succomber	-13973
▁symbolise	-13974
▁sympathie	-13975
▁vaisseaux	-13976
arrestation	-13977
ographiques	-13978
étaitépuisé	-13979
▁arriverait	-13980
▁avantageux	-13981
▁bouleversé	-13982
▁chercheurs	-13983
▁commençons	-13984
▁conversion	-13985
▁différenci	-13986
▁enregistré	-13987
▁entrailles	-13988
▁fortifiées	-13989
▁immobilier	-13990
▁judiciaire	-13991
▁leadership	-13992
▁ordinateur	-13993
▁organismes	-13994
▁raisonnais	-13995
▁simplicité	-13996
▁soumettent	-13997
▁symbolique	-13998
▁transformé	-13999
illustration	-14000
▁comparaison	-14001
▁contiennent	-14002
▁découvertes	-14003
▁intelligent	-14004
▁paralytique	-14005
▁participent	-14006
▁permettrait	-14007
▁représenter	-14008
▁salutations	-14009
▁traductions	-14010
▁universelle	-14011
▁abominations	-14012
▁agriculteurs	-14013
▁continuèrent	-14014
▁départements	-14015
▁impressionné	-14016
▁intervention	-14017
▁intéressants	-14018
▁pareillement	-14019
▁ressemblance	-14020
▁transgresser	-14021
▁transmission	-14022
▁utilisateurs	-14023
▁accomplissait	-14024
▁constructions	-14025
▁interventions	-14026
▁poursuivirent	-14027
▁établissement	-14028
▁correspondance	-14029
▁reconstruction	-14030
06	-14031
28	-14032
gh	-14033
kk	-14034
no	-14035
xx	-14036
}{	-14037
▁~	-14038
-17	-14039
-20	-14040
-28	-14041
.25	-14042
.26	-14043
:46	-14044
:50	-14045
aha	-14046
aja	-14047
als	-14048
bri	-14049
chi	-14050
col	-14051
enh	-14052
enz	-14053
hou	-14054
kok	-14055
lon	-14056
mis	-14057
oas	-14058
ory	-14059
oïs	-14060
rus	-14061
tan	-14062
uto	-14063
ycl	-14064
▁-"	-14065
▁4°	-14066
▁61	-14067
▁7)	-14068
▁77	-14069
▁câ	-14070
▁ms	-14071
▁nt	-14072
▁rm	-14073
▁râ	-14074
▁sd	-14075
-50.	-14076
2...	-14077
adou	-14078
akim	-14079
aram	-14080
aïde	-14081
berg	-14082
cier	-14083
croy	-14084
ctur	-14085
donc	-14086
itué	-14087
loge	-14088
oler	-14089
oliv	-14090
omri	-14091
outé	-14092
pent	-14093
reau	-14094
rien	-14095
xion	-14096
yrne	-14097
éduc	-14098
éman	-14099
évap	-14100
▁11-	-14101
▁11:	-14102
▁130	-14103
▁146	-14104
▁15,	-14105
▁16,	-14106
▁6:1	-14107
▁8:3	-14108
▁aïe	-14109
▁bir	-14110
▁bér	-14111
▁cah	-14112
▁cup	-14113
▁dau	-14114
▁duo	-14115
▁dut	-14116
▁ell	-14117
▁gog	-14118
▁lol	-14119
▁még	-14120
▁nig	-14121
▁rab	-14122
▁raf	-14123
▁sof	-14124
▁squ	-14125
▁œuv	-14126
about	-14127
aisie	-14128
andré	-14129
apais	-14130
argot	-14131
checs	-14132
expos	-14133
hamed	-14134
haïti	-14135
icopt	-14136
infos	-14137
ituer	-14138
▁000.	-14139
▁1:12	-14140
▁1:13	-14141
▁2:25	-14142
▁3:13	-14143
▁3:23	-14144
▁8:14	-14145
▁<3<3	-14146
▁abus	-14147
▁aima	-14148
▁amén	-14149
▁bart	-14150
▁bass	-14151
▁bast	-14152
▁cend	-14153
▁dram	-14154
▁durs	-14155
▁figé	-14156
▁gend	-14157
▁jazz	-14158
▁joug	-14159
▁jume	-14160
▁live	-14161
▁loué	-14162
▁mans	-14163
▁mark	-14164
▁merc	-14165
▁nana	-14166
▁narr	-14167
▁news	-14168
▁noun	-14169
▁pant	-14170
▁pavé	-14171
▁pluv	-14172
▁poll	-14173
▁pote	-14174
▁puni	-14175
▁rept	-14176
▁rong	-14177
▁roue	-14178
▁roug	-14179
▁rude	-14180
▁ruis	-14181
▁sony	-14182
▁subl	-14183
▁séir	-14184
▁taxi	-14185
▁trio	-14186
▁tréb	-14187
agonie	-14188
améric	-14189
ariste	-14190
arités	-14191
avirus	-14192
depuis	-14193
emmaüs	-14194
enclos	-14195
ergure	-14196
essais	-14197
inspir	-14198
itisme	-14199
onfort	-14200
oublia	-14201
prenez	-14202
rendez	-14203
traire	-14204
upport	-14205
ènerai	-14206
écouta	-14207
élever	-14208
élèves	-14209
ériade	-14210
▁100%.	-14211
▁14:14	-14212
▁1986.	-14213
▁19:18	-14214
▁achar	-14215
▁achaz	-14216
▁agréé	-14217
▁amant	-14218
▁azari	-14219
▁aînée	-14220
▁blogs	-14221
▁carol	-14222
▁chili	-14223
▁coinc	-14224
▁color	-14225
▁cuill	-14226
▁cyrus	-14227
▁debut	-14228
▁dotée	-14229
▁drôle	-14230
▁débit	-14231
▁empar	-14232
▁encad	-14233
▁famil	-14234
▁funér	-14235
▁gages	-14236
▁ghana	-14237
▁immig	-14238
▁ingén	-14239
▁judah	-14240
▁kevin	-14241
▁légal	-14242
▁moine	-14243
▁nahor	-14244
▁norme	-14245
▁noémi	-14246
▁perle	-14247
▁pénit	-14248
▁rangs	-14249
▁rosée	-14250
▁récip	-14251
▁récré	-14252
▁score	-14253
▁senti	-14254
▁serge	-14255
▁serve	-14256
▁smith	-14257
▁troph	-14258
▁villa	-14259
▁écran	-14260
▁étonn	-14261
accroup	-14262
ailloté	-14263
anciens	-14264
anticip	-14265
arrache	-14266
athènes	-14267
atteste	-14268
efforce	-14269
emprunt	-14270
ensuite	-14271
enterre	-14272
hygiène	-14273
ilation	-14274
incline	-14275
issions	-14276
ofondir	-14277
ordonne	-14278
versité	-14279
▁000...	-14280
▁albert	-14281
▁allure	-14282
▁analys	-14283
▁bijoux	-14284
▁consum	-14285
▁cornes	-14286
▁courbe	-14287
▁dynast	-14288
▁dégagé	-14289
▁dévast	-14290
▁eglise	-14291
▁emprun	-14292
▁enrich	-14293
▁esdras	-14294
▁exalté	-14295
▁exauce	-14296
▁fondre	-14297
▁formée	-14298
▁foyers	-14299
▁gamine	-14300
▁garage	-14301
▁idiote	-14302
▁impact	-14303
▁itinér	-14304
▁jaunes	-14305
▁jugera	-14306
▁karine	-14307
▁lapsus	-14308
▁lignée	-14309
▁mangea	-14310
▁matchs	-14311
▁mecque	-14312
▁mitspa	-14313
▁natale	-14314
▁nommer	-14315
▁nourri	-14316
▁oblige	-14317
▁plages	-14318
▁plutot	-14319
▁ponctu	-14320
▁poules	-14321
▁rebell	-14322
▁recens	-14323
▁rompre	-14324
▁résume	-14325
▁saines	-14326
▁séance	-14327
▁tendit	-14328
▁tissus	-14329
▁trahir	-14330
▁vertus	-14331
▁vivrai	-14332
▁éclate	-14333
▁épanou	-14334
▁éthiop	-14335
assembla	-14336
assister	-14337
entraide	-14338
iendrons	-14339
illumine	-14340
imposent	-14341
incliner	-14342
institut	-14343
intimité	-14344
opprobre	-14345
éléphant	-14346
▁achevée	-14347
▁antique	-14348
▁archite	-14349
▁bangkok	-14350
▁bouscul	-14351
▁commets	-14352
▁comptez	-14353
▁comédie	-14354
▁connues	-14355
▁courses	-14356
▁dangere	-14357
▁deniers	-14358
▁dispute	-14359
▁déchira	-14360
▁dédaign	-14361
▁excepté	-14362
▁fantôme	-14363
▁fermeté	-14364
▁fromage	-14365
▁insisté	-14366
▁inviter	-14367
▁laideur	-14368
▁lésions	-14369
▁maillot	-14370
▁mathieu	-14371
▁mohamed	-14372
▁montrée	-14373
▁mourons	-14374
▁notable	-14375
▁obtenez	-14376
▁offrait	-14377
▁opérait	-14378
▁organes	-14379
▁ouvrier	-14380
▁perdues	-14381
▁promett	-14382
▁prévoit	-14383
▁publier	-14384
▁rejeter	-14385
▁reproch	-14386
▁rébecca	-14387
▁régnait	-14388
▁savoirs	-14389
▁siégera	-14390
▁sociaux	-14391
▁succède	-14392
▁teintes	-14393
▁tremble	-14394
▁urgents	-14395
▁étrange	-14396
▁évoluer	-14397
attendrai	-14398
centriste	-14399
entourage	-14400
industrie	-14401
occuperai	-14402
quatrième	-14403
▁accorder	-14404
▁apprends	-14405
▁associés	-14406
▁avantage	-14407
▁bouillir	-14408
▁confiant	-14409
▁constate	-14410
▁convives	-14411
▁demandée	-14412
▁divorcée	-14413
▁dérouler	-14414
▁détendue	-14415
▁effrayée	-14416
▁entières	-14417
▁envoyant	-14418
▁exercent	-14419
▁extraits	-14420
▁fenêtres	-14421
▁fontaine	-14422
▁fragiles	-14423
▁félicite	-14424
▁harmonie	-14425
▁illustre	-14426
▁inimitié	-14427
▁langages	-14428
▁littoral	-14429
▁logiciel	-14430
▁méchante	-14431
▁obstacle	-14432
▁outrages	-14433
▁plaignez	-14434
▁policier	-14435
▁prendrai	-14436
▁priorité	-14437
▁prièrent	-14438
▁promener	-14439
▁proposés	-14440
▁précises	-14441
▁prétexte	-14442
▁ptolémée	-14443
▁rapporta	-14444
▁recevons	-14445
▁renvoyer	-14446
▁récupéré	-14447
▁souffler	-14448
▁souligne	-14449
▁sourcils	-14450
▁surabond	-14451
▁surnommé	-14452
▁survenue	-14453
▁syndrome	-14454
▁violente	-14455
▁écoulées	-14456
▁écrivait	-14457
▁écrivons	-14458
▁évidente	-14459
accusation	-14460
avancèrent	-14461
esquissais	-14462
inquiétait	-14463
écoulement	-14464
▁abandonne	-14465
▁attendons	-14466
▁attestait	-14467
▁bénéficié	-14468
▁cardiaque	-14469
▁cessèrent	-14470
▁chronique	-14471
▁collègues	-14472
▁commencez	-14473
▁conservez	-14474
▁continuez	-14475
▁criminels	-14476
▁créations	-14477
▁donnaient	-14478
▁dépouillé	-14479
▁entourage	-14480
▁entourent	-14481
▁esclavage	-14482
▁gentiment	-14483
▁graphique	-14484
▁indiquent	-14485
▁jerusalem	-14486
▁lancement	-14487
▁marchands	-14488
▁saisirent	-14489
▁sanctifie	-14490
▁scolaires	-14491
▁splendeur	-14492
▁subissent	-14493
▁suffisent	-14494
▁séduisent	-14495
▁transféré	-14496
▁utilisant	-14497
▁vaillants	-14498
▁vainqueur	-14499
▁éclabouss	-14500
▁économies	-14501
encadrement	-14502
échantillon	-14503
élimination	-14504
▁appréciées	-14505
▁compliment	-14506
▁confession	-14507
▁constituée	-14508
▁correction	-14509
▁creusèrent	-14510
▁décoration	-14511
▁délicieuse	-14512
▁emmailloté	-14513
▁expédition	-14514
▁expériment	-14515
▁formations	-14516
▁formulaire	-14517
▁imitateurs	-14518
▁intervient	-14519
▁manifester	-14520
▁obtiennent	-14521
▁passionnés	-14522
▁perception	-14523
▁provenance	-14524
▁précédente	-14525
▁ressentent	-14526
▁rédemption	-14527
▁souverains	-14528
▁surprendre	-14529
▁tentations	-14530
▁transition	-14531
▁transporté	-14532
▁évènements	-14533
accompagnent	-14534
▁brutalement	-14535
▁conclusions	-14536
▁coronavirus	-14537
▁développent	-14538
▁fabrication	-14539
▁fréquemment	-14540
▁gouvernance	-14541
▁précédèrent	-14542
▁suggestions	-14543
▁température	-14544
▁transformée	-14545
interrogèrent	-14546
▁autorisation	-14547
▁consultation	-14548
▁continuaient	-14549
▁dictionnaire	-14550
▁interrogeait	-14551
▁introduction	-14552
▁méditerranée	-14553
▁performances	-14554
▁scientifique	-14555
▁téléphonique	-14556
accompagnaient	-14557
émerveillement	-14558
▁concentration	-14559
▁prosternèrent	-14560
▁rassemblement	-14561
▁circonspection	-14562
▁supplémentaire	-14563
▁volontairement	-14564
▁chaleureusement	-14565
);	-14566
+.	-14567
[...]
