{
  "<unk>": 0,
  "<s>": 1,
  "</s>": 2,
  "\u2581k": 3,
  "an": 4,
  "\u2581d": 5,
  "\u2581n": 6,
  "\u2581l": 7,
  "\u2581b": 8,
  "\u2581s": 9,
  "\u2581t": 10,
  "en": 11,
  "es": 12,
  "ou": 13,
  "in": 14,
  "\u2581a": 15,
  "on": 16,
  "\u2581m": 17,
  "ra": 18,
  "\u2581y": 19,
  "\u2581ka": 20,
  "\u2581f": 21,
  "\u2581p": 22,
  "\u2581c": 23,
  "\u2581A": 24,
  "is": 25,
  "il": 26,
  "re": 27,
  "le": 28,
  "un": 29,
  "\u2581bi": 30,
  "it": 31,
  "\u2581de": 32,
  "ar": 33,
  "\u2581la": 34,
  "er": 35,
  "\u2581ye": 36,
  "ent": 37,
  "qu": 38,
  "est": 39,
  "\u2581le": 40,
  "\u2581ni": 41,
  "\u0254n": 42,
  "ma": 43,
  "el": 44,
  "\u2581v": 45,
  "\u2581L": 46,
  "\u2581j": 47,
  "\u2581N": 48,
  "\u2581I": 49,
  "ur": 50,
  "\u2581C": 51,
  "\u25810": 52,
  "\u2581M": 53,
  "al": 54,
  "as": 55,
  "te": 56,
  "\u025bn": 57,
  "ous": 58,
  "\u2581S": 59,
  "\u2581na": 60,
  "\u2581si": 61,
  "or": 62,
  "ti": 63,
  "\u2581w": 64,
  "\u2581?": 65,
  "\u2581g": 66,
  "\u2581ma": 67,
  "\u2581qu": 68,
  "et": 69,
  "ol": 70,
  "\u0254r": 71,
  "us": 72,
  "ri": 73,
  "om": 74,
  "\u2581J": 75,
  "\u2581ta": 76,
  "\u2581Il": 77,
  "\u2581\u00e0": 78,
  "\u2581se": 79,
  "am": 80,
  "\u2581est": 81,
  "ro": 82,
  "la": 83,
  "\u2581K": 84,
  "\u0254r\u0254": 85,
  "\u2581B": 86,
  "\u2581k\u025b": 87,
  "\u2581r": 88,
  "\u2581D": 89,
  "\u2581O": 90,
  "\u2581P": 91,
  "\u0254g": 92,
  "ga": 93,
  "\u2581un": 94,
  "..": 95,
  "eu": 96,
  "\u2581E": 97,
  "\u2581T": 98,
  "ch": 99,
  "\u2581lo": 100,
  "our": 101,
  "\u2581du": 102,
  "ue": 103,
  "si": 104,
  "\u2581di": 105,
  "\u025br": 106,
  "au": 107,
  "\u2581min": 108,
  "\u2581\u0272": 109,
  "ara": 110,
  "\u2581R": 111,
  "\u2581ko": 112,
  "\u2581an": 113,
  "oi": 114,
  "\u2581o": 115,
  "ait": 116,
  "\u0254g\u0254": 117,
  "\u2581sira": 118,
  "ab": 119,
  "\u2581tun": 120,
  "man": 121,
  "\u2581en": 122,
  "me": 123,
  "ne": 124,
  "\u2581V": 125,
  "ant": 126,
  "ment": 127,
  "\u2581!": 128,
  "ont": 129,
  "\u2581\u00e9": 130,
  "\u2581pas": 131,
  "ve": 132,
  "\u2581ne": 133,
  "se": 134,
  "ai": 135,
  "\u2581yi": 136,
  "\u2581nin": 137,
  "at": 138,
  "\u2581kan": 139,
  "ug": 140,
  "ila": 141,
  "ce": 142,
  "\u2581ra": 143,
  "\u2581F": 144,
  "gi": 145,
  "de": 146,
  "\u2581ch": 147,
  "\u2581ti": 148,
  "ya": 149,
  "\u2581Je": 150,
  "\u2581et": 151,
  "\u2581be": 152,
  "\u2581par": 153,
  "\u2581wa": 154,
  "di": 155,
  "ans": 156,
  "ana": 157,
  "ons": 158,
  "\u2581au": 159,
  "\u2581tou": 160,
  "ais": 161,
  "li": 162,
  "ani": 163,
  "ina": 164,
  "uma": 165,
  "\u2581An": 166,
  "\u2581f\u025b": 167,
  "\u2581les": 168,
  "\u2581des": 169,
  "\u2581i": 170,
  "yi": 171,
  "ci": 172,
  "tre": 173,
  "\u2581re": 174,
  "\u2581h": 175,
  "\u2581b\u025b": 176,
  "elle": 177,
  "\u025br\u025b": 178,
  "\u2581G": 179,
  "\u2581su": 180,
  "\u2581La": 181,
  "\u2581Q": 182,
  "lle": 183,
  "...": 184,
  "\u2581Le": 185,
  "\u2581ba": 186,
  "ran": 187,
  "ie": 188,
  "og": 189,
  "\u2581que": 190,
  "\u2581k\u0254n": 191,
  "\u2581com": 192,
  "\u025bl": 193,
  "\u00e9e": 194,
  "ille": 195,
  "ge": 196,
  "res": 197,
  "ni": 198,
  "ui": 199,
  "\u2581Nin": 200,
  "end": 201,
  "\u2581d\u00e9": 202,
  "ama": 203,
  "os": 204,
  "\u2581d\u0254": 205,
  "que": 206,
  "olo": 207,
  "\u2581vous": 208,
  "les": 209,
  "\u2581\u00e9t": 210,
  "em": 211,
  "\u2581k\u00e8": 212,
  "ini": 213,
  "\u2581y\u00e9": 214,
  "ba": 215,
  "\u2581kel": 216,
  "\u2581Rue": 217,
  "\u2581il": 218,
  "ili": 219,
  "r\u00e9": 220,
  "ul": 221,
  "\u2581une": 222,
  "\u2581sa": 223,
  "\u2581f\u0254": 224,
  "\u2581Qu": 225,
  "\u2581Elle": 226,
  "ari": 227,
  "\u00e8re": 228,
  "\u2581U": 229,
  "\u2581don": 230,
  "ux": 231,
  "bi": 232,
  "\u2581pl": 233,
  "int": 234,
  "ali": 235,
  "\u2581ai": 236,
  "aba": 237,
  "\u2581je": 238,
  "mi": 239,
  "r\u00e8": 240,
  "ine": 241,
  "m\u025b": 242,
  "lan": 243,
  "ta": 244,
  "k\u025b": 245,
  "\u2581kelen": 246,
  "\u2581Vous": 247,
  "\u2581m\u0254g\u0254": 248,
  "ka": 249,
  "ugu": 250,
  "ig": 251,
  "\u2581fil": 252,
  "eux": 253,
  "\u2581y\u0254r\u0254": 254,
  "ing": 255,
  "pp": 256,
  "\u2581bara": 257,
  "eur": 258,
  "\u2581bina": 259,
  "na": 260,
  "\u2581tu": 261,
  "\u2581ave": 262,
  "\u2581pour": 263,
  "\u2581Ko": 264,
  "tion": 265,
  "\u2581sont": 266,
  "ut": 267,
  "ogo": 268,
  "\u2581k\u0254n\u0254": 269,
  "\u2581mi": 270,
  "\u2581den": 271,
  "\u2581plus": 272,
  "\u2581li": 273,
  "\u2581son": 274,
  "ers": 275,
  "uru": 276,
  "uso": 277,
  "\u2581c\u025b": 278,
  "ante": 279,
  "\u025bl\u025b": 280,
  "\u2581b\u0254": 281,
  "\u2581k\u0254": 282,
  "\u2581dans": 283,
  "ois": 284,
  "\u2581Les": 285,
  "l\u00e9": 286,
  "m\u00e9": 287,
  "aman": 288,
  "\u2581tan": 289,
  "\u2581r\u00e9": 290,
  "\u2581man": 291,
  "unu": 292,
  "\u2581ce": 293,
  "\u2581e": 294,
  "\u2581fa": 295,
  "f\u025b": 296,
  "ort": 297,
  "\u2581s\u0254r\u0254": 298,
  "\u2581t\u025b": 299,
  "\u2581av": 300,
  "\u2581H": 301,
  "ite": 302,
  "ouv": 303,
  "ala": 304,
  "ff": 305,
  "ira": 306,
  "\u2581rue": 307,
  "\u2581fila": 308,
  "\u2581deux": 309,
  "\u2581pro": 310,
  "\u2581tr": 311,
  "\u2581bien": 312,
  "mp": 313,
  "\u2581Aw": 314,
  "\u2581san": 315,
  "rois": 316,
  "\u2581Y": 317,
  "ot": 318,
  "\u2581ya": 319,
  "\u2581bon": 320,
  "\u2581mon": 321,
  "\u2581taga": 322,
  "\u2581k\u025bra": 323,
  "b\u025b": 324,
  "\u2581Ch": 325,
  "\u2581Ni": 326,
  "\u2581lon": 327,
  "\u2581y\u025br\u025b": 328,
  "gu": 329,
  "\u2581fo": 330,
  "\u2581dj": 331,
  "ens": 332,
  "\u2581cent": 333,
  "vous": 334,
  "da": 335,
  "l\u00e8": 336,
  "che": 337,
  "ingt": 338,
  "lo": 339,
  "ze": 340,
  "tes": 341,
  "\u2581.": 342,
  "oli": 343,
  "\u2581kalan": 344,
  "oir": 345,
  "\u2581suis": 346,
  "ard": 347,
  "\u2581Tu": 348,
  "ir": 349,
  "uni": 350,
  "\u2581con": 351,
  "\u00e9t": 352,
  "\u2581ka\u0272": 353,
  "\u2581sur": 354,
  "ap": 355,
  "\u00e7a": 356,
  "iss": 357,
  "\u2581pr": 358,
  "\u2581vi": 359,
  "av": 360,
  "iti": 361,
  "\u2581On": 362,
  "\u2581kun": 363,
  "\u2581ale": 364,
  "\u2581te": 365,
  "\u2581nous": 366,
  "ak": 367,
  "ins": 368,
  "\u2581Al": 369,
  "\u2581\u00e7a": 370,
  "ag": 371,
  "\u2581ani": 372,
  "r\u00e8s": 373,
  "\u2581me": 374,
  "\u2581qui": 375,
  "\u2581W": 376,
  "\u0254ni": 377,
  "\u2581yan": 378,
  "ac": 379,
  "\u2581to": 380,
  "\u2581nan": 381,
  "\u2581es": 382,
  "aire": 383,
  "\u2581fait": 384,
  "\u2581nunu": 385,
  "\u2581kuma": 386,
  "\u2581Ne": 387,
  "\u2581do": 388,
  "ette": 389,
  "uman": 390,
  "tu": 391,
  "\u2581f\u00e8": 392,
  "and": 393,
  "\u2581al": 394,
  "\u2581avec": 395,
  "ise": 396,
  "urs": 397,
  "\u2581kon": 398,
  "\u2581vo": 399,
  "\u2581tra": 400,
  "gou": 401,
  "oute": 402,
  "\u2581lui": 403,
  "uit": 404,
  "\u2581Ma": 405,
  "\u2581Com": 406,
  "\u2581bolo": 407,
  "c\u025b": 408,
  "ente": 409,
  "kan": 410,
  "out": 411,
  "\u2581fan": 412,
  "pt": 413,
  "\u2581Ce": 414,
  "\u2581ar": 415,
  "rai": 416,
  "\u2581k\u0254r\u0254": 417,
  "vi": 418,
  "\u2581y\u025bl\u025b": 419,
  "ye": 420,
  "\u00e9s": 421,
  "une": 422,
  "\u2581Un": 423,
  "olon": 424,
  "\u2581Sa": 425,
  "\u2581da": 426,
  "aut": 427,
  "\u2581tch": 428,
  "\u2581tout": 429,
  "ble": 430,
  "ela": 431,
  "\u2581peu": 432,
  "ko": 433,
  "\u2581b\u00e2": 434,
  "\u2581s\u00fb": 435,
  "\u2581cin": 436,
  "\u2581sig": 437,
  "\u2581sera": 438,
  "\u2581ou": 439,
  "atre": 440,
  "\u2581Mar": 441,
  "\u2581on": 442,
  "\u2581kou": 443,
  "r\u00f4": 444,
  "\u2581nana": 445,
  "\u2581z": 446,
  "emp": 447,
  "\u2581so": 448,
  "\u0254g\u0254n": 449,
  "\u2581f\u025bn": 450,
  "\u2581comp": 451,
  "\u2581pr\u00e9": 452,
  "\u2581ca": 453,
  "ugan": 454,
  "\u2581ban": 455,
  "\u2581s\u00fbr": 456,
  "mes": 457,
  "\u025bni": 458,
  "\u2581as": 459,
  "\u2581ja": 460,
  "\u2581Ils": 461,
  "\u025bna": 462,
  "sieur": 463,
  "pe": 464,
  "\u2581mo": 465,
  "\u2581\u00e9tait": 466,
  "ph": 467,
  "ert": 468,
  "\u00f4r\u00f4": 469,
  "\u2581gran": 470,
  "co": 471,
  "so": 472,
  "\u2581bo": 473,
  "\u2581\u00ea": 474,
  "\u2581cogo": 475,
  "\u2581sigi": 476,
  "\u2581trois": 477,
  "g\u025b": 478,
  "va": 479,
  "ele": 480,
  "\u2581En": 481,
  "\u2581b\u00e8": 482,
  "\u2581s\u025b": 483,
  "\u2581pla": 484,
  "ier": 485,
  "ond": 486,
  "orte": 487,
  "\u2581Une": 488,
  "\u2581dugu": 489,
  "\u2581mais": 490,
  "\u2581dis": 491,
  "\u2581elle": 492,
  "\u2581ka\u0272i": 493,
  "\u2581toun": 494,
  "\u2581mugan": 495,
  "um": 496,
  "\u2581y\u00e8": 497,
  "\u2581dou": 498,
  "\u2581t\u0254g\u0254": 499,
  "uw": 500,
  "oro": 501,
  "ors": 502,
  "\u2581Ka": 503,
  "ants": 504,
  "gati": 505,
  "\u2581fana": 506,
  "ame": 507,
  "it\u00e9": 508,
  "ose": 509,
  "ure": 510,
  "ouve": 511,
  "n\u00e9": 512,
  "\u00eame": 513,
  "isan": 514,
  "m\u00e8": 515,
  "\u2581\u00e9t\u00e9": 516,
  "\u2581muso": 517,
  "\u2581\u0272\u0254g\u0254n": 518,
  "l\u0254": 519,
  "ile": 520,
  "g\u00f4": 521,
  "pi": 522,
  "asi": 523,
  "ras": 524,
  "\u2581gw": 525,
  "\u2581\u0272an": 526,
  "\u2581Nous": 527,
  "oix": 528,
  "\u2581Si": 529,
  "\u2581Son": 530,
  "\u2581bila": 531,
  "\u2581parti": 532,
  "ura": 533,
  "\u2581liv": 534,
  "\u2581Mais": 535,
  "\u2581comm": 536,
  "lement": 537,
  "\u2581in": 538,
  "\u2581Mon": 539,
  "\u2581dit": 540,
  "\u2581Sira": 541,
  "fila": 542,
  "ub": 543,
  "\u025bn\u025b": 544,
  "\u2581Di": 545,
  "\u2581\u0272a": 546,
  "ende": 547,
  "\u2581lab": 548,
  "\u2581nom": 549,
  "aient": 550,
  "elles": 551,
  "den": 552,
  "\u2581Et": 553,
  "\u2581ji": 554,
  "\u2581mar": 555,
  "\u2581avez": 556,
  "onn": 557,
  "\u2581De": 558,
  "\u2581ga": 559,
  "ques": 560,
  "\u2581Par": 561,
  "\u2581dix": 562,
  "\u2581vingt": 563,
  "aux": 564,
  "bre": 565,
  "\u2581nu": 566,
  "\u2581ent": 567,
  "\u025bt": 568,
  "isi": 569,
  "\u00f4g\u00f4": 570,
  "\u2581Ah": 571,
  "\u2581ex": 572,
  "\u2581ri": 573,
  "\u2581moi": 574,
  "\u2581k\u00e8ra": 575,
  "ay": 576,
  "ord": 577,
  "ours": 578,
  "\u2581saba": 579,
  "\u2581quatre": 580,
  "\u2581aw": 581,
  "\u2581l\u00e0": 582,
  "k\u0254": 583,
  "mer": 584,
  "rait": 585,
  "ki": 586,
  "\u2581b\u025b\u025b": 587,
  "\u2581pet": 588,
  "\u2581foyi": 589,
  "\u00e9c": 590,
  "euf": 591,
  "\u2581donc": 592,
  "\u2581fil\u025b": 593,
  "\u2581tara": 594,
  "\u2581Z": 595,
  "gni": 596,
  "\u0153ur": 597,
  "\u2581t\u025bm\u025b": 598,
  "ru": 599,
  "t\u00e9": 600,
  "zi": 601,
  "ale": 602,
  "\u2581d\u025b": 603,
  "ilan": 604,
  "ussi": 605,
  "y\u0254r\u0254": 606,
  "\u2581fam": 607,
  "\u2581l\u0254n": 608,
  "\u0272\u025b": 609,
  "ence": 610,
  "rent": 611,
  "\u2581beyi": 612,
  "\u2581temp": 613,
  "\u2581tuma": 614,
  "ez": 615,
  "fi": 616,
  "go": 617,
  "\u2581mou": 618,
  "\u2581fara": 619,
  "\u2581\u00c0": 620,
  "uis": 621,
  "\u00e9ro": 622,
  "\u2581wagati": 623,
  "ji": 624,
  "isa": 625,
  "vez": 626,
  "\u2581temps": 627,
  "ule": 628,
  "eure": 629,
  "\u2581aime": 630,
  "\u2581cont": 631,
  "\u2581kana": 632,
  "\u2581k\u025bm\u025b": 633,
  "\u2581grand": 634,
  "be": 635,
  "ass": 636,
  "enn": 637,
  "\u2581Bi": 638,
  "\u2581am": 639,
  "\u2581ter": 640,
  "uguni": 641,
  "\u2581!...": 642,
  "\u2581trente": 643,
  "cc": 644,
  "\u00e9ri": 645,
  "m\u00e9ro": 646,
  "\u2581Ayi": 647,
  "\u2581kom": 648,
  "ill": 649,
  "\u2581sou": 650,
  "\u2581s\u0254n": 651,
  "\u2581sisan": 652,
  "to": 653,
  "rez": 654,
  "\u2581r\u00e2": 655,
  "\u2581app": 656,
  "\u2581cou": 657,
  "\u2581num\u00e9ro": 658,
  "min": 659,
  "rou": 660,
  "dame": 661,
  "\u2581jan": 662,
  "egi": 663,
  "ong": 664,
  "sez": 665,
  "ven": 666,
  "rais": 667,
  "\u2581tr\u00e8s": 668,
  "\u2581yira": 669,
  "\u2581wolon": 670,
  "fa": 671,
  "\u2581jou": 672,
  "\u2581Quel": 673,
  "\u2581kadi": 674,
  "\u2581s\u0153ur": 675,
  "\u2581comme": 676,
  "\u2581tuguni": 677,
  "st": 678,
  "rop": 679,
  "enne": 680,
  "\u2581mes": 681,
  "ousso": 682,
  "\u2581b\u0254ra": 683,
  "tt": 684,
  "y\u00e9": 685,
  "\u2581,": 686,
  "eau": 687,
  "ret": 688,
  "\u2581gn": 689,
  "\u2581va": 690,
  "emin": 691,
  "\u2581soix": 692,
  "arante": 693,
  "\u2581Saint": 694,
  "\u2581k\u0254n\u0254n": 695,
  "\u2581naani": 696,
  "endement": 697,
  "use": 698,
  "\u2581Se": 699,
  "onne": 700,
  "\u2581kanu": 701,
  "\u2581lani": 702,
  "\u2581faire": 703,
  "\u2581Monsieur": 704,
  "\u2581soixante": 705,
  "\u2581Vi": 706,
  "\u2581Vo": 707,
  "ouma": 708,
  "teur": 709,
  "ourou": 710,
  "\u2581juma": 711,
  "\u2581m\u00eame": 712,
  "\u2581toum": 713,
  "\u2581w\u025br\u025b": 714,
  "\u2581z\u00e9ro": 715,
  "\u2581aussi": 716,
  "\u2581\u0272anaman": 717,
  "im": 718,
  "art": 719,
  "ole": 720,
  "\u2581Au": 721,
  "\u2581po": 722,
  "\u2581mal": 723,
  "\u2581Fran": 724,
  "\u2581Jean": 725,
  "\u2581M\u0254g\u0254": 726,
  "\u2581s\u025bb\u025b": 727,
  "ist": 728,
  "\u00eate": 729,
  "\u2581co": 730,
  "\u2581San": 731,
  "tions": 732,
  "\u2581Pour": 733,
  "\u2581cela": 734,
  "\u2581rest": 735,
  "\u2581\u00eates": 736,
  "du": 737,
  "d\u00e9": 738,
  "\u00e8me": 739,
  "\u2581O\u00f9": 740,
  "\u2581\u00e9c": 741,
  "kili": 742,
  "\u2581bal": 743,
  "\u2581\u00e9ga": 744,
  "\u2581min\u025b": 745,
  "\u2581duuru": 746,
  "l\u025b": 747,
  "ces": 748,
  "ils": 749,
  "il\u00e0": 750,
  "\u2581no": 751,
  "muso": 752,
  "\u2581fin": 753,
  "\u2581ses": 754,
  "\u2581ven": 755,
  "\u2581dire": 756,
  "\u2581miri": 757,
  "s\u0254": 758,
  "des": 759,
  "itu": 760,
  "\u2581KO": 761,
  "\u2581m\u025b": 762,
  "\u2581t\u00e8": 763,
  "\u2581dam": 764,
  "\u2581ret": 765,
  "alima": 766,
  "\u2581sans": 767,
  "\u2581kagni": 768,
  "\u2581m\u0254g\u0254w": 769,
  "\u2581\u00e9galement": 770,
  "p\u00e9": 771,
  "og\u00f4": 772,
  "ona": 773,
  "or\u00f4": 774,
  "\u2581Ti": 775,
  "\u2581b\u00e9": 776,
  "\u2581chi": 777,
  "\u2581ont": 778,
  "\u2581k\u0254f\u025b": 779,
  "\u2581petit": 780,
  "\u2581votre": 781,
  "ca": 782,
  "uv": 783,
  "gan": 784,
  "ig\u025b": 785,
  "oni": 786,
  "vers": 787,
  "\u2581dum": 788,
  "\u2581per": 789,
  "\u2581quel": 790,
  "\u2581trop": 791,
  "\u2581quarante": 792,
  "ob": 793,
  "mis": 794,
  "ora": 795,
  "pos": 796,
  "t\u0254n": 797,
  "\u00e9es": 798,
  "\u2581p\u00ea": 799,
  "sion": 800,
  "\u2581ben": 801,
  "\u2581bin": 802,
  "ougou": 803,
  "\u2581wolonfila": 804,
  "mb": 805,
  "nou": 806,
  "\u2581Ar": 807,
  "mani": 808,
  "\u2581hak": 809,
  "\u2581f\u0254l\u0254": 810,
  "\u2581jama": 811,
  "\u2581tugu": 812,
  "\u2581Route": 813,
  "\u2581mille": 814,
  "\u2581trava": 815,
  "age": 816,
  "ger": 817,
  "ges": 818,
  "ola": 819,
  "\u2581El": 820,
  "\u2581ki": 821,
  "core": 822,
  "\u2581fla": 823,
  "\u2581for": 824,
  "\u2581aim\u00e9": 825,
  "\u2581Cette": 826,
  "ris": 827,
  "ulu": 828,
  "\u2581f\u00f4": 829,
  "\u2581\u0272\u025b": 830,
  "\u2581fut": 831,
  "\u2581imp": 832,
  "\u2581mun": 833,
  "\u2581tous": 834,
  "\u2581deman": 835,
  "\u2581Comment": 836,
  "app": 837,
  "ance": 838,
  "\u2581Des": 839,
  "\u2581aux": 840,
  "\u2581peut": 841,
  "\u2581sais": 842,
  "\u2581tigi": 843,
  "\u2581porte": 844,
  "ss": 845,
  "rit": 846,
  "\u2581dan": 847,
  "\u2581dev": 848,
  "\u2581fem": 849,
  "\u2581fit": 850,
  "\u2581ten": 851,
  "\u2581vou": 852,
  "\u2581beau": 853,
  "oire": 854,
  "\u2581Que": 855,
  "\u2581d\u0254w": 856,
  "\u2581gar": 857,
  "\u2581ici": 858,
  "\u2581r\u00e9p": 859,
  "\u2581ser": 860,
  "\u2581cinq": 861,
  "\u2581kama": 862,
  "\u2581koni": 863,
  "\u2581sept": 864,
  "\u2581autre": 865,
  "\u2581caman": 866,
  "\u2581barak\u025b": 867,
  "iv": 868,
  "\u2581\u00c7": 869,
  "amp": 870,
  "eli": 871,
  "eni": 872,
  "roi": 873,
  "dent": 874,
  "\u2581Nne": 875,
  "\u2581nou": 876,
  "\u2581cette": 877,
  "\u2581juman": 878,
  "\u2581parle": 879,
  "\u2581encore": 880,
  "je": 881,
  "od": 882,
  "ori": 883,
  "\u2581s\u0254": 884,
  "\u2581\u00c7a": 885,
  "baga": 886,
  "bien": 887,
  "iste": 888,
  "ourd": 889,
  "remi": 890,
  "rend": 891,
  "\u2581?...": 892,
  "\u2581alle": 893,
  "\u2581arri": 894,
  "usu": 895,
  "\u2581ac": 896,
  "\u2581fi": 897,
  "jugu": 898,
  "pr\u00e8s": 899,
  "sept": 900,
  "\u2581baga": 901,
  "\u2581kel\u00e9": 902,
  "\u2581pers": 903,
  "\u2581chose": 904,
  "v\u00e9": 905,
  "\u00f4t": 906,
  "\u025bs": 907,
  "ch\u00e8": 908,
  "\u0254ng": 909,
  "\u2581Mi": 910,
  "\u2581pe": 911,
  "asse": 912,
  "cher": 913,
  "ulon": 914,
  "\u2581d\u00e9p": 915,
  "ction": 916,
  "ongon": 917,
  "ouver": 918,
  "\u2581y\u00e8l\u00e8": 919,
  "\u2581\u00eatre": 920,
  "\u2581laban": 921,
  "era": 922,
  "\u025bri": 923,
  "\u2581Ale": 924,
  "\u2581Oui": 925,
  "\u2581bis": 926,
  "\u2581dia": 927,
  "\u2581t\u025bm": 928,
  "\u00e9tait": 929,
  "\u2581tch\u00e8": 930,
  "\u2581cinqu": 931,
  "h\u00e9": 932,
  "l\u00e9e": 933,
  "y\u025bn": 934,
  "\u2581m\u00e9": 935,
  "erre": 936,
  "lait": 937,
  "\u2581ils": 938,
  "\u2581int": 939,
  "am\u0254g\u0254": 940,
  "\u2581conn": 941,
  "\u2581joli": 942,
  "\u2581komi": 943,
  "\u2581Paris": 944,
  "\u2581avait": 945,
  "\u2581damin": 946,
  "oc": 947,
  "ati": 948,
  "cin": 949,
  "k\u0254n": 950,
  "ula": 951,
  "\u2581pi": 952,
  "neuf": 953,
  "\u2581d\u00e9f": 954,
  "\u2581d\u0254n": 955,
  "\u2581pos": 956,
  "\u2581vie": 957,
  "\u2581k\u025bl\u025b": 958,
  "\u2581p\u00e8re": 959,
  "\u2581rien": 960,
  "\u2581kouma": 961,
  "\u2581seegi": 962,
  "\u2581mousso": 963,
  "\u2581monsieur": 964,
  "b\u00e9": 965,
  "\u2581\u00c9": 966,
  "aud": 967,
  "ren": 968,
  "\u2581fr": 969,
  "avez": 970,
  "erci": 971,
  "omme": 972,
  "\u2581Aka": 973,
  "\u2581Mou": 974,
  "\u2581att": 975,
  "\u2581enf": 976,
  "\u2581rep": 977,
  "\u2581sab": 978,
  "vingt": 979,
  "\u2581Cela": 980,
  "\u2581route": 981,
  "f\u0254": 982,
  "are": 983,
  "\u2581m\u00e8": 984,
  "aime": 985,
  "alon": 986,
  "huit": 987,
  "l\u00e9ph": 988,
  "main": 989,
  "\u2581Yan": 990,
  "\u2581cra": 991,
  "\u2581non": 992,
  "\u2581toi": 993,
  "\u2581Mont": 994,
  "\u2581d\u0254g\u0254": 995,
  "\u2581jig\u025b": 996,
  "\u2581kura": 997,
  "\u2581sara": 998,
  "endant": 999,
  "\u2581premi": 1000,
  "\u2581hakili": 1001,
  "\u2581jamais": 1002,
  "b\u00e8": 1003,
  "\u0254l": 1004,
  "ang": 1005,
  "el\u00e9": 1006,
  "usi": 1007,
  "yon": 1008,
  "\u2581fe": 1009,
  "\u2581\u0272i": 1010,
  "s\u0254b\u025b": 1011,
  "ubli": 1012,
  "\u2581Kal": 1013,
  "\u2581bou": 1014,
  "\u2581ces": 1015,
  "\u2581mat": 1016,
  "\u2581mis": 1017,
  "\u2581ple": 1018,
  "\u2581six": 1019,
  "\u2581som": 1020,
  "\u2581Quand": 1021,
  "ct": 1022,
  "f\u00e8": 1023,
  "sa": 1024,
  "hui": 1025,
  "jet": 1026,
  "\u2581Jo": 1027,
  "\u2581b\u00f4": 1028,
  "endu": 1029,
  "mana": 1030,
  "\u00eatre": 1031,
  "\u2581jigi": 1032,
  "\u2581mara": 1033,
  "\u2581\u0272ana": 1034,
  "\u2581alors": 1035,
  "\u2581konon": 1036,
  "\u2581saaba": 1037,
  "\u2581maison": 1038,
  "dj": 1039,
  "gn": 1040,
  "\u0272i": 1041,
  "aul": 1042,
  "ser": 1043,
  "una": 1044,
  "\u2581l\u00e9": 1045,
  "elen": 1046,
  "\u2581Bon": 1047,
  "\u2581Qui": 1048,
  "\u2581b\u025bn": 1049,
  "\u2581che": 1050,
  "\u2581ren": 1051,
  "\u2581diya": 1052,
  "\u2581dusu": 1053,
  "\u2581s\u00f4r\u00f4": 1054,
  "\u2581vais": 1055,
  "\u2581fanga": 1056,
  "\u2581livre": 1057,
  "\u2581bisaba": 1058,
  "\u2581kojugu": 1059,
  "\u2581\u0272am\u0254g\u0254": 1060,
  "\u2581amendement": 1061,
  "wa": 1062,
  "bat": 1063,
  "per": 1064,
  "yan": 1065,
  "\u2581t\u0254": 1066,
  "illa": 1067,
  "sent": 1068,
  "vent": 1069,
  "yara": 1070,
  "illes": 1071,
  "jourd": 1072,
  "\u2581deen": 1073,
  "\u2581Elles": 1074,
  "\u2581lanib": 1075,
  "lu": 1076,
  "mu": 1077,
  "cou": 1078,
  "ita": 1079,
  "ize": 1080,
  "uli": 1081,
  "\u2581d\u00e8": 1082,
  "\u2581ol": 1083,
  "inan": 1084,
  "\u00e8res": 1085,
  "\u2581...": 1086,
  "\u2581dro": 1087,
  "\u2581reg": 1088,
  "endre": 1089,
  "inten": 1090,
  "ition": 1091,
  "\u2581Dans": 1092,
  "\u2581aima": 1093,
  "\u2581d\u025bm\u025b": 1094,
  "\u2581k\u025bn\u025b": 1095,
  "\u2581part": 1096,
  "\u2581Voil\u00e0": 1097,
  "\u2581siran": 1098,
  "\u2581Madame": 1099,
  "bu": 1100,
  "do": 1101,
  "g\u00e9": 1102,
  "r\u00ea": 1103,
  "r\u025b": 1104,
  "abi": 1105,
  "ami": 1106,
  "der": 1107,
  "ilo": 1108,
  "ver": 1109,
  "\u2581Gu": 1110,
  "\u2581Ri": 1111,
  "\u2581eu": 1112,
  "\u2581fu": 1113,
  "\u2581ju": 1114,
  "k\u025bla": 1115,
  "ture": 1116,
  "\u0254\u0254r\u0254": 1117,
  "\u2581car": 1118,
  "\u2581si\u00e8": 1119,
  "\u2581ton": 1120,
  "\u2581bali": 1121,
  "\u2581cher": 1122,
  "\u2581jour": 1123,
  "\u2581jugu": 1124,
  "\u2581mari": 1125,
  "\u2581p\u00each": 1126,
  "\u2581sini": 1127,
  "\u2581situ": 1128,
  "\u2581teri": 1129,
  "\u2581tina": 1130,
  "\u2581y\u00e8r\u00e8": 1131,
  "\u2581dougou": 1132,
  "\u2581k\u0254s\u0254b\u025b": 1133,
  "\u2581tougou": 1134,
  "\u2581Combien": 1135,
  "\u2581cinquante": 1136,
  "c\u00e9": 1137,
  "ays": 1138,
  "cle": 1139,
  "uri": 1140,
  "vre": 1141,
  "\u2581Bo": 1142,
  "\u2581Lu": 1143,
  "\u2581Oh": 1144,
  "\u2581Ro": 1145,
  "\u2581l\u0254": 1146,
  "\u2581st": 1147,
  "ines": 1148,
  "i\u00e8me": 1149,
  "\u2581Non": 1150,
  "\u2581bam": 1151,
  "\u2581der": 1152,
  "\u2581fra": 1153,
  "\u2581lan": 1154,
  "\u2581tab": 1155,
  "ennes": 1156,
  "issan": 1157,
  "jours": 1158,
  "\u2581Tout": 1159,
  "\u2581cons": 1160,
  "\u2581fran": 1161,
  "\u2581wolo": 1162,
  "autres": 1163,
  "ex": 1164,
  "n\u00e8": 1165,
  "s\u00e9": 1166,
  "\u00eet": 1167,
  "cip": 1168,
  "emb": 1169,
  "gue": 1170,
  "jan": 1171,
  "lus": 1172,
  "ulo": 1173,
  "\u00e8r\u00e8": 1174,
  "\u2581Ca": 1175,
  "\u2581g\u00ea": 1176,
  "\u2581jo": 1177,
  "\u2581ob": 1178,
  "deux": 1179,
  "k\u0254r\u0254": 1180,
  "tigi": 1181,
  "\u025btri": 1182,
  "\u2581Aya": 1183,
  "\u2581Val": 1184,
  "\u2581aut": 1185,
  "\u2581jus": 1186,
  "\u2581rec": 1187,
  "\u2581res": 1188,
  "\u2581rou": 1189,
  "ville": 1190,
  "\u2581Kuma": 1191,
  "\u2581fils": 1192,
  "\u2581gens": 1193,
  "\u2581lara": 1194,
  "\u2581leur": 1195,
  "\u2581mont": 1196,
  "\u2581\u0272af\u025b": 1197,
  "\u2581assez": 1198,
  "\u2581femme": 1199,
  "\u2581ville": 1200,
  "\u2581madame": 1201,
  "\u2581parole": 1202,
  "intenant": 1203,
  "\u00e9p": 1204,
  "\u2581\u0186": 1205,
  "ane": 1206,
  "ion": 1207,
  "rer": 1208,
  "sur": 1209,
  "\u2581Dj": 1210,
  "\u2581Li": 1211,
  "\u2581No": 1212,
  "\u2581ci": 1213,
  "ches": 1214,
  "ense": 1215,
  "erta": 1216,
  "quoi": 1217,
  "unes": 1218,
  "\u2581Ala": 1219,
  "\u2581ans": 1220,
  "\u2581cap": 1221,
  "ments": 1222,
  "venue": 1223,
  "\u025bl\u025bya": 1224,
  "\u2581deni": 1225,
  "\u2581fac\u025b": 1226,
  "\u2581fais": 1227,
  "\u2581faut": 1228,
  "\u2581koun": 1229,
  "\u2581prin": 1230,
  "\u2581segi": 1231,
  "\u2581tig\u025b": 1232,
  "\u2581toumbi": 1233,
  "\u2581trouve": 1234,
  "\u2581walima": 1235,
  "f\u00e9": 1236,
  "su": 1237,
  "dre": 1238,
  "ern": 1239,
  "moi": 1240,
  "m\u00e9e": 1241,
  "rin": 1242,
  "\u00e8ne": 1243,
  "\u2581Wa": 1244,
  "\u2581g\u00e9": 1245,
  "\u2581lu": 1246,
  "cinq": 1247,
  "\u2581d\u00e9c": 1248,
  "\u2581far": 1249,
  "\u2581ver": 1250,
  "\u2581\u00e9tu": 1251,
  "tique": 1252,
  "\u2581fari": 1253,
  "\u2581kalo": 1254,
  "\u2581m\u00f4g\u00f4": 1255,
  "\u2581neuf": 1256,
  "\u2581t\u00e8m\u00e8": 1257,
  "\u2581Vingt": 1258,
  "\u2581heure": 1259,
  "\u2581mieux": 1260,
  "\u2581Chemin": 1261,
  "\u2581chemin": 1262,
  "\u2581grande": 1263,
  "\u2581miriya": 1264,
  "\u2581siraba": 1265,
  "\u2581tchama": 1266,
  "ch\u00e9": 1267,
  "ffi": 1268,
  "ign": 1269,
  "ler": 1270,
  "omp": 1271,
  "qui": 1272,
  "y\u0254n": 1273,
  "\u2581d\u00f4": 1274,
  "able": 1275,
  "arde": 1276,
  "cole": 1277,
  "ison": 1278,
  "\u2581Ani": 1279,
  "\u2581Ren": 1280,
  "\u2581S\u025bn": 1281,
  "\u2581bar": 1282,
  "\u2581biw": 1283,
  "\u2581fer": 1284,
  "\u2581sen": 1285,
  "amana": 1286,
  "ieurs": 1287,
  "\u0254ng\u0254n": 1288,
  "\u2581Sama": 1289,
  "\u2581boli": 1290,
  "\u2581disp": 1291,
  "\u2581film": 1292,
  "\u2581fois": 1293,
  "\u2581rapp": 1294,
  "\u2581teyi": 1295,
  "\u2581w\u0254r\u0254": 1296,
  "\u2581bonne": 1297,
  "\u2581chais": 1298,
  "\u2581diman": 1299,
  "\u2581fille": 1300,
  "\u2581plait": 1301,
  "aw": 1302,
  "ud": 1303,
  "abu": 1304,
  "ata": 1305,
  "g\u025bn": 1306,
  "ire": 1307,
  "mit": 1308,
  "ros": 1309,
  "\u2581Ji": 1310,
  "\u2581dr": 1311,
  "\u2581\u00e9p": 1312,
  "igne": 1313,
  "isse": 1314,
  "\u2581ang": 1315,
  "\u2581dur": 1316,
  "\u2581fen": 1317,
  "\u2581sin": 1318,
  "eures": 1319,
  "heure": 1320,
  "\u2581Char": 1321,
  "\u2581fama": 1322,
  "\u2581fati": 1323,
  "\u2581fort": 1324,
  "\u2581m\u00e8re": 1325,
  "\u2581nani": 1326,
  "\u2581pays": 1327,
  "\u2581prob": 1328,
  "\u2581wele": 1329,
  "\u2581wili": 1330,
  "\u2581yala": 1331,
  "\u2581avons": 1332,
  "\u2581derni": 1333,
  "\u2581sig\u025bn": 1334,
  "\u2581si\u00e8ge": 1335,
  "\u2581touma": 1336,
  "\u2581sommes": 1337,
  "\u2581toujours": 1338,
  "\u2581travaille": 1339,
  "\u00e8s": 1340,
  "\u025bk": 1341,
  "h\u0254n": 1342,
  "n\u00e9e": 1343,
  "rie": 1344,
  "tra": 1345,
  "\u2581C\u025b": 1346,
  "\u2581ad": 1347,
  "\u2581br": 1348,
  "anan": 1349,
  "deni": 1350,
  "\u2581Car": 1351,
  "\u2581ain": 1352,
  "\u2581bil": 1353,
  "\u2581col": 1354,
  "\u2581c\u025b\u0272": 1355,
  "\u2581esp": 1356,
  "\u2581m\u025bn": 1357,
  "\u2581pap": 1358,
  "\u2581veu": 1359,
  "\u0254g\u0254ma": 1360,
  "\u2581k\u0254ni": 1361,
  "\u2581quoi": 1362,
  "\u2581seul": 1363,
  "\u2581wari": 1364,
  "\u2581d\u0254\u0254ni": 1365,
  "\u2581elles": 1366,
  "\u2581nouve": 1367,
  "\u2581point": 1368,
  "\u2581publi": 1369,
  "\u2581tulon": 1370,
  "\u2581caaman": 1371,
  "\u2581nombre": 1372,
  "\u2581tagara": 1373,
  "\u2581demande": 1374,
  "\u2581maisons": 1375,
  "\u2581comprend": 1376,
  "hn": 1377,
  "k\u00e8": 1378,
  "tr": 1379,
  "t\u0254": 1380,
  "\u2581\u2014": 1381,
  "alo": 1382,
  "bas": 1383,
  "dix": 1384,
  "las": 1385,
  "nes": 1386,
  "oul": 1387,
  "ral": 1388,
  "six": 1389,
  "s\u0254n": 1390,
  "\u2581Eh": 1391,
  "\u2581Fo": 1392,
  "\u2581gu": 1393,
  "ange": 1394,
  "arti": 1395,
  "bili": 1396,
  "gent": 1397,
  "\u025bl\u025bn": 1398,
  "\u2581Bar": 1399,
  "\u2581anw": 1400,
  "\u2581Bara": 1401,
  "\u2581faga": 1402,
  "\u2581g\u025br\u025b": 1403,
  "\u2581n\u025br\u025b": 1404,
  "\u2581voir": 1405,
  "\u2581Alors": 1406,
  "\u2581Merci": 1407,
  "\u2581inter": 1408,
  "\u2581Avenue": 1409,
  "\u2581heures": 1410,
  "\u2581nounou": 1411,
  "ellement": 1412,
  "\u2581maintenant": 1413,
  "fe": 1414,
  "he": 1415,
  "l\u00e0": 1416,
  "gne": 1417,
  "kun": 1418,
  "lez": 1419,
  "yez": 1420,
  "\u2581Du": 1421,
  "\u2581Ph": 1422,
  "\u2581St": 1423,
  "\u2581o\u00f9": 1424,
  "coup": 1425,
  "tant": 1426,
  "\u2581Ces": 1427,
  "\u2581Pas": 1428,
  "\u2581Ses": 1429,
  "\u2581aka": 1430,
  "\u2581ami": 1431,
  "\u2581kil": 1432,
  "\u2581met": 1433,
  "\u2581mot": 1434,
  "\u2581ref": 1435,
  "\u2581\u0272in": 1436,
  "\u2581John": 1437,
  "\u2581c\u025bma": 1438,
  "\u2581doit": 1439,
  "\u2581huit": 1440,
  "\u2581kele": 1441,
  "\u2581n\u0254g\u0254": 1442,
  "\u2581prof": 1443,
  "\u2581sait": 1444,
  "\u2581y\u00f4r\u00f4": 1445,
  "\u2581\u0272ini": 1446,
  "tement": 1447,
  "\u2581avoir": 1448,
  "\u2581cents": 1449,
  "\u2581entre": 1450,
  "\u2581w\u0254\u0254r\u0254": 1451,
  "\u2581\u00e9l\u00e9ph": 1452,
  "\u2581\u0272uman": 1453,
  "\u2581damin\u025b": 1454,
  "\u2581demain": 1455,
  "\u2581dumuni": 1456,
  "\u2581yongon": 1457,
  "b\u0254": 1458,
  "j\u00e0": 1459,
  "ke": 1460,
  "oz": 1461,
  "acc": 1462,
  "enf": 1463,
  "oie": 1464,
  "ter": 1465,
  "\u00e8b\u00e8": 1466,
  "\u2581ah": 1467,
  "\u2581sc": 1468,
  "\u2581s\u00e9": 1469,
  "\u2581t\u00e9": 1470,
  "aria": 1471,
  "chet": 1472,
  "enue": 1473,
  "fois": 1474,
  "k\u0254ra": 1475,
  "oman": 1476,
  "\u2581Sal": 1477,
  "\u2581ali": 1478,
  "\u2581bas": 1479,
  "\u2581cas": 1480,
  "\u2581ins": 1481,
  "\u2581ouv": 1482,
  "\u2581rem": 1483,
  "trois": 1484,
  "\u2581Tous": 1485,
  "\u2581fani": 1486,
  "\u2581mort": 1487,
  "\u2581quat": 1488,
  "\u2581r\u00e9al": 1489,
  "\u2581sort": 1490,
  "\u2581tour": 1491,
  "\u2581t\u00eate": 1492,
  "\u2581voit": 1493,
  "isaaba": 1494,
  "\u2581Sisan": 1495,
  "\u2581fanf\u025b": 1496,
  "\u2581moins": 1497,
  "\u2581monde": 1498,
  "\u2581n\u025br\u025bm": 1499,
  "\u2581fitini": 1500,
  "\u2581k\u0254n\u0254na": 1501,
  "\u2581partir": 1502,
  "\u2581petite": 1503,
  "amendement": 1504,
  "\u2581\u00e9l\u00e9phants": 1505,
  "gl": 1506,
  "pl": 1507,
  "pu": 1508,
  "att": 1509,
  "dit": 1510,
  "for": 1511,
  "len": 1512,
  "ric": 1513,
  "\u00e8l\u00e8": 1514,
  "\u2581Tr": 1515,
  "\u2581go": 1516,
  "\u2581vu": 1517,
  "bert": 1518,
  "cien": 1519,
  "ends": 1520,
  "lace": 1521,
  "\u2581Est": 1522,
  "\u2581F\u025bn": 1523,
  "\u2581Moi": 1524,
  "\u2581dat": 1525,
  "\u2581lam": 1526,
  "\u2581m\u0254n": 1527,
  "\u2581pol": 1528,
  "\u2581vas": 1529,
  "ation": 1530,
  "olola": 1531,
  "umani": 1532,
  "\u2581Yoro": 1533,
  "\u2581cour": 1534,
  "\u2581dara": 1535,
  "\u2581famu": 1536,
  "\u2581kodj": 1537,
  "\u2581mini": 1538,
  "\u2581mois": 1539,
  "\u2581nouv": 1540,
  "\u2581pouv": 1541,
  "orable": 1542,
  "\u2581apr\u00e8s": 1543,
  "\u2581diara": 1544,
  "\u2581reste": 1545,
  "appelle": 1546,
  "\u2581France": 1547,
  "\u2581sissan": 1548,
  "\u2581bisaaba": 1549,
  "\u2581premier": 1550,
  "\u2581beaucoup": 1551,
  "\u2581plusieurs": 1552,
  "ad": 1553,
  "\u2581\u0190": 1554,
  "eri": 1555,
  "ner": 1556,
  "rir": 1557,
  "\u025bsi": 1558,
  "\u2581ab": 1559,
  "\u2581or": 1560,
  "cial": 1561,
  "ents": 1562,
  "leur": 1563,
  "orti": 1564,
  "orze": 1565,
  "ouss": 1566,
  "\u0254r\u0254n": 1567,
  "\u2581Ibi": 1568,
  "\u2581bug": 1569,
  "\u2581dep": 1570,
  "\u2581dug": 1571,
  "\u2581hab": 1572,
  "\u2581mas": 1573,
  "\u2581sal": 1574,
  "\u2581vit": 1575,
  "autre": 1576,
  "\u2581Muso": 1577,
  "\u2581Paul": 1578,
  "\u2581cama": 1579,
  "\u2581fili": 1580,
  "\u2581mule": 1581,
  "\u2581peux": 1582,
  "\u2581pres": 1583,
  "\u2581succ": 1584,
  "\u2581vrai": 1585,
  "\u2581ainsi": 1586,
  "\u2581aller": 1587,
  "\u2581homme": 1588,
  "\u2581train": 1589,
  "\u2581voil\u00e0": 1590,
  "\u2581bamuso": 1591,
  "\u2581propos": 1592,
  "\u2581serait": 1593,
  "\u2581\u0272\u0254ng\u0254n": 1594,
  "\u2581aujourd": 1595,
  "\u2581Pourquoi": 1596,
  "d\u0254": 1597,
  "ts": 1598,
  "ain": 1599,
  "con": 1600,
  "f\u025bn": 1601,
  "hon": 1602,
  "lin": 1603,
  "ton": 1604,
  "t\u025br": 1605,
  "val": 1606,
  "\u00e7on": 1607,
  "\u2581Ba": 1608,
  "\u2581cl": 1609,
  "aine": 1610,
  "k\u0254n\u0254": 1611,
  "lais": 1612,
  "ront": 1613,
  "sira": 1614,
  "tier": 1615,
  "\u2581Anw": 1616,
  "\u2581Kou": 1617,
  "\u2581fon": 1618,
  "\u2581j\u025bn": 1619,
  "\u2581kow": 1620,
  "\u2581pri": 1621,
  "\u2581tom": 1622,
  "ariya": 1623,
  "ierre": 1624,
  "ri\u00e8re": 1625,
  "roupe": 1626,
  "\u00e8rent": 1627,
  "\u2581Alle": 1628,
  "\u2581bena": 1629,
  "\u2581blan": 1630,
  "\u2581chef": 1631,
  "\u2581dimi": 1632,
  "\u2581fond": 1633,
  "\u2581furu": 1634,
  "\u2581f\u0254ra": 1635,
  "\u2581jati": 1636,
  "\u2581k\u00f4r\u00f4": 1637,
  "\u2581min\u00e8": 1638,
  "\u2581pris": 1639,
  "\u2581remp": 1640,
  "\u2581sous": 1641,
  "\u2581venu": 1642,
  "\u2581vers": 1643,
  "\u2581veux": 1644,
  "\u2581crois": 1645,
  "\u2581donne": 1646,
  "\u2581vient": 1647,
  "\u2581partie": 1648,
  "\u2581quelle": 1649,
  "\u2581r\u00e9pond": 1650,
  "\u2581t\u025bm\u025bni": 1651,
  "\u2581chaises": 1652,
  "\u2581k\u0254n\u0254t\u0254n": 1653,
  "\u2581princip": 1654,
  "\u2581\u00e9taient": 1655,
  "g\u00ea": 1656,
  "vo": 1657,
  "\u2581u": 1658,
  "ath": 1659,
  "dia": 1660,
  "gas": 1661,
  "hab": 1662,
  "iri": 1663,
  "\u0272an": 1664,
  "\u0272\u025bn": 1665,
  "\u2581Me": 1666,
  "\u2581Ta": 1667,
  "\u2581at": 1668,
  "\u2581n\u00e9": 1669,
  "\u2581ph": 1670,
  "\u2581\u0186n": 1671,
  "ansi": 1672,
  "bolo": 1673,
  "cont": 1674,
  "ions": 1675,
  "lant": 1676,
  "mble": 1677,
  "oum\u00e8": 1678,
  "vant": 1679,
  "voir": 1680,
  "\u2581Den": 1681,
  "\u2581J\u0254n": 1682,
  "\u2581Min": 1683,
  "\u2581Mun": 1684,
  "\u2581ala": 1685,
  "\u2581dab": 1686,
  "\u2581gra": 1687,
  "\u2581jeu": 1688,
  "\u2581lun": 1689,
  "\u2581pil": 1690,
  "\u2581sau": 1691,
  "\u2581wou": 1692,
  "manc\u025b": 1693,
  "rique": 1694,
  "vient": 1695,
  "\u2581Plus": 1696,
  "\u2581d\u00e9j\u00e0": 1697,
  "\u2581mala": 1698,
  "\u2581mogo": 1699,
  "\u2581puis": 1700,
  "\u2581tama": 1701,
  "\u2581tora": 1702,
  "\u2581Kalan": 1703,
  "\u2581anima": 1704,
  "\u2581jours": 1705,
  "\u2581livru": 1706,
  "\u2581quand": 1707,
  "\u2581table": 1708,
  "\u2581balima": 1709,
  "\u2581g\u025br\u025bf\u025b": 1710,
  "\u2581livres": 1711,
  "\u2581voulez": 1712,
  "\u2581y\u025bl\u025bma": 1713,
  "\u2581commune": 1714,
  "\u2581filanan": 1715,
  "\u2581rencont": 1716,
  "\u2581travail": 1717,
  "\u2581k\u0254n\u0254nt\u0254n": 1718,
  "\u2581n\u025br\u025bmugu": 1719,
  "\u2581kodjougou": 1720,
  "cs": 1721,
  "g\u0254": 1722,
  "ow": 1723,
  "\u00e9r": 1724,
  "ats": 1725,
  "b\u025br": 1726,
  "chi": 1727,
  "dou": 1728,
  "il\u025b": 1729,
  "non": 1730,
  "pes": 1731,
  "r\u00e9e": 1732,
  "tif": 1733,
  "tri": 1734,
  "vil": 1735,
  "vit": 1736,
  "\u2581Pi": 1737,
  "\u2581wo": 1738,
  "elui": 1739,
  "enir": 1740,
  "inte": 1741,
  "kolo": 1742,
  "temp": 1743,
  "\u2581Bou": 1744,
  "\u2581Cet": 1745,
  "\u2581acc": 1746,
  "\u2581auc": 1747,
  "\u2581cet": 1748,
  "\u2581cha": 1749,
  "\u2581co\u00fb": 1750,
  "\u2581cro": 1751,
  "\u2581d\u00e9b": 1752,
  "\u2581s\u025bn": 1753,
  "\u2581taa": 1754,
  "\u2581vos": 1755,
  "ilila": 1756,
  "istre": 1757,
  "\u2581Dieu": 1758,
  "\u2581Mog\u00f4": 1759,
  "\u2581Y\u0254r\u0254": 1760,
  "\u2581bele": 1761,
  "\u2581bug\u0254": 1762,
  "\u2581cham": 1763,
  "\u2581coup": 1764,
  "\u2581hier": 1765,
  "\u2581ka\u0272\u025b": 1766,
  "\u2581soir": 1767,
  "\u2581ti\u0272\u025b": 1768,
  "ennent": 1769,
  "nement": 1770,
  "\u2581mesie": 1771,
  "\u2581place": 1772,
  "\u2581viend": 1773,
  "\u2581commis": 1774,
  "\u2581compte": 1775,
  "\u2581contre": 1776,
  "\u2581groupe": 1777,
  "\u2581import": 1778,
  "\u2581jamana": 1779,
  "\u2581probl\u00e8": 1780,
  "\u2581s\u0254g\u0254ma": 1781,
  "\u2581enfants": 1782,
  "\u2581famille": 1783,
  "\u2581personn": 1784,
  "\u2581n\u025br\u025bmuguman": 1785,
  "hi": 1786,
  "\u00fbt": 1787,
  "\u2581:": 1788,
  "aro": 1789,
  "b\u025bn": 1790,
  "cie": 1791,
  "dam": 1792,
  "die": 1793,
  "els": 1794,
  "fin": 1795,
  "inc": 1796,
  "ino": 1797,
  "tan": 1798,
  "uss": 1799,
  "vin": 1800,
  "\u00e9ra": 1801,
  "\u2581As": 1802,
  "\u2581Na": 1803,
  "\u2581Po": 1804,
  "\u2581Re": 1805,
  "cile": 1806,
  "golo": 1807,
  "uits": 1808,
  "uses": 1809,
  "\u00e7ais": 1810,
  "\u2581Al\u00e9": 1811,
  "\u2581Lou": 1812,
  "\u2581Mal": 1813,
  "\u2581Zan": 1814,
  "\u2581b\u0254n": 1815,
  "\u2581cor": 1816,
  "\u2581dji": 1817,
  "\u2581eff": 1818,
  "\u2581eux": 1819,
  "\u2581mus": 1820,
  "\u2581pau": 1821,
  "antes": 1822,
  "suite": 1823,
  "uvais": 1824,
  "\u2581Omer": 1825,
  "\u2581d\u00e9ci": 1826,
  "\u2581fil\u00e8": 1827,
  "\u2581fini": 1828,
  "\u2581kala": 1829,
  "\u2581k\u0254g\u0254": 1830,
  "\u2581lieu": 1831,
  "\u2581mina": 1832,
  "\u2581r\u00e9gi": 1833,
  "\u2581sama": 1834,
  "\u2581sor\u00f4": 1835,
  "\u2581sout": 1836,
  "\u2581suiv": 1837,
  "\u2581Kouma": 1838,
  "\u2581certa": 1839,
  "\u2581douze": 1840,
  "\u2581famou": 1841,
  "\u2581fr\u00e8re": 1842,
  "\u2581joona": 1843,
  "\u2581pr\u00e9si": 1844,
  "\u2581savez": 1845,
  "\u2581situ\u00e9": 1846,
  "pendant": 1847,
  "\u2581Trente": 1848,
  "\u2581fatigu": 1849,
  "\u2581grands": 1850,
  "\u2581jouait": 1851,
  "\u2581k\u0254r\u0254si": 1852,
  "\u2581t\u025bm\u025bna": 1853,
  "\u2581\u0272anama": 1854,
  "\u2581mauvais": 1855,
  "\u2581nouveau": 1856,
  "\u2581quelque": 1857,
  "\u2581voiture": 1858,
  "An": 1859,
  "ey": 1860,
  "mo": 1861,
  "bon": 1862,
  "cep": 1863,
  "gal": 1864,
  "gie": 1865,
  "lev": 1866,
  "men": 1867,
  "nan": 1868,
  "ron": 1869,
  "\u2581Or": 1870,
  "\u2581So": 1871,
  "\u2581ha": 1872,
  "\u2581mu": 1873,
  "\u2581ro": 1874,
  "\u2581\u025bn": 1875,
  "bles": 1876,
  "esse": 1877,
  "illi": 1878,
  "ttre": 1879,
  "\u2581Aba": 1880,
  "\u2581Ber": 1881,
  "\u2581baw": 1882,
  "\u2581dor": 1883,
  "\u2581fal": 1884,
  "\u2581mer": 1885,
  "\u2581nim": 1886,
  "\u2581nun": 1887,
  "\u2581oui": 1888,
  "\u2581see": 1889,
  "\u2581sol": 1890,
  "\u2581tle": 1891,
  "\u2581\u0272ag": 1892,
  "endez": 1893,
  "\u00e9cole": 1894,
  "\u2581Deux": 1895,
  "\u2581Tuma": 1896,
  "\u2581char": 1897,
  "\u2581chez": 1898,
  "\u2581conc": 1899,
  "\u2581dira": 1900,
  "\u2581djan": 1901,
  "\u2581d\u0254ni": 1902,
  "\u2581jum\u025b": 1903,
  "\u2581long": 1904,
  "\u2581noir": 1905,
  "\u2581onze": 1906,
  "\u2581perd": 1907,
  "\u2581prop": 1908,
  "\u2581sogo": 1909,
  "\u2581souv": 1910,
  "\u2581s\u00e8b\u00e8": 1911,
  "\u2581tard": 1912,
  "\u2581vois": 1913,
  "raient": 1914,
  "\u2581frapp": 1915,
  "\u2581kolon": 1916,
  "\u2581moulo": 1917,
  "\u2581nunuw": 1918,
  "\u2581Quelle": 1919,
  "\u2581Wagati": 1920,
  "\u2581lettre": 1921,
  "\u2581pr\u00e9sent": 1922,
  "\u2581aimerait": 1923,
  "\u2581c\u025b\u0272umani": 1924,
  "\u2581quatorze": 1925,
  "bo": 1926,
  "hu": 1927,
  "nu": 1928,
  "ry": 1929,
  "yo": 1930,
  "\u2581\u019d": 1931,
  "ano": 1932,
  "bli": 1933,
  "ccu": 1934,
  "dan": 1935,
  "del": 1936,
  "imp": 1937,
  "son": 1938,
  "tin": 1939,
  "\u2581M\u00e9": 1940,
  "\u2581\u0254n": 1941,
  "ales": 1942,
  "bele": 1943,
  "este": 1944,
  "issa": 1945,
  "kati": 1946,
  "lieu": 1947,
  "min\u025b": 1948,
  "n\u00e9es": 1949,
  "rage": 1950,
  "rant": 1951,
  "tig\u025b": 1952,
  "ures": 1953,
  "\u2581Nga": 1954,
  "\u2581Sab": 1955,
  "\u2581al\u00e9": 1956,
  "\u2581bla": 1957,
  "\u2581dem": 1958,
  "\u2581fav": 1959,
  "\u2581jol": 1960,
  "\u2581kal": 1961,
  "\u2581nne": 1962,
  "\u2581\u0272\u025bn": 1963,
  "aires": 1964,
  "entre": 1965,
  "reton": 1966,
  "\u2581Gran": 1967,
  "\u2581bana": 1968,
  "\u2581conf": 1969,
  "\u2581esp\u00e8": 1970,
  "\u2581g\u00e9n\u00e9": 1971,
  "\u2581reti": 1972,
  "\u2581seka": 1973,
  "\u2581voix": 1974,
  "\u2581wula": 1975,
  "\u2581w\u00e8r\u00e8": 1976,
  "itions": 1977,
  "quatre": 1978,
  "\u2581Allez": 1979,
  "\u2581All\u00e9e": 1980,
  "\u2581Comme": 1981,
  "\u2581Notre": 1982,
  "\u2581leurs": 1983,
  "\u2581quest": 1984,
  "\u2581sanf\u025b": 1985,
  "\u2581contin": 1986,
  "\u2581keleen": 1987,
  "\u2581manger": 1988,
  "\u2581mankan": 1989,
  "\u2581travers": 1990,
  "\u2581fran\u00e7ais": 1991,
  "\u2581y\u025bl\u025bmani": 1992,
  "\u2581commission": 1993,
  "\u025bm": 1994,
  "asa": 1995,
  "ber": 1996,
  "don": 1997,
  "ffe": 1998,
  "ff\u00e9": 1999,
  "is\u00e9": 2000,
  "lou": 2001,
  "met": 2002,
  "mou": 2003,
  "mpe": 2004,
  "ol\u00e9": 2005,
  "rid": 2006,
  "rik": 2007,
  "vec": 2008,
  "ves": 2009,
  "vie": 2010,
  "vir": 2011,
  "\u0254n\u0254": 2012,
  "\u2581B\u025b": 2013,
  "\u2581D\u0254": 2014,
  "\u2581Ge": 2015,
  "\u2581Mo": 2016,
  "\u2581Su": 2017,
  "\u2581k\u00f4": 2018,
  "agne": 2019,
  "chel": 2020,
  "ilis": 2021,
  "ill\u00e9": 2022,
  "oses": 2023,
  "ourg": 2024,
  "rier": 2025,
  "teau": 2026,
  "\u00eetre": 2027,
  "\u2581Ang": 2028,
  "\u2581Per": 2029,
  "\u2581but": 2030,
  "\u2581fai": 2031,
  "\u2581jii": 2032,
  "\u2581j\u0254n": 2033,
  "\u2581kar": 2034,
  "\u2581kas": 2035,
  "\u2581kib": 2036,
  "\u2581nos": 2037,
  "\u2581olu": 2038,
  "\u2581pat": 2039,
  "\u2581sec": 2040,
  "avais": 2041,
  "mande": 2042,
  "mis\u025bn": 2043,
  "teurs": 2044,
  "\u00e9tais": 2045,
  "\u2581Mina": 2046,
  "\u2581avis": 2047,
  "\u2581balo": 2048,
  "\u2581bo\u0272\u025b": 2049,
  "\u2581dama": 2050,
  "\u2581deli": 2051,
  "\u2581dr\u0254n": 2052,
  "\u2581ense": 2053,
  "\u2581fisa": 2054,
  "\u2581juru": 2055,
  "\u2581kali": 2056,
  "\u2581kora": 2057,
  "\u2581kunu": 2058,
  "\u2581mana": 2059,
  "\u2581musi": 2060,
  "\u2581peur": 2061,
  "\u2581teli": 2062,
  "\u2581toyi": 2063,
  "\u2581veut": 2064,
  "\u2581yiri": 2065,
  "\u2581\u0272\u025bna": 2066,
  "mation": 2067,
  "\u2581Apr\u00e8s": 2068,
  "\u2581Place": 2069,
  "\u2581allez": 2070,
  "\u2581denc\u025b": 2071,
  "\u2581droit": 2072,
  "\u2581kuman": 2073,
  "\u2581lab\u025bn": 2074,
  "\u2581magni": 2075,
  "\u2581matin": 2076,
  "\u2581p\u00eache": 2077,
  "\u2581souff": 2078,
  "\u2581toute": 2079,
  "illeurs": 2080,
  "\u2581avenue": 2081,
  "\u2581choses": 2082,
  "\u2581droite": 2083,
  "\u2581faites": 2084,
  "\u2581g\u025bl\u025bya": 2085,
  "\u2581raison": 2086,
  "\u2581wolola": 2087,
  "\u2581y\u025bl\u025bla": 2088,
  "\u2581binaani": 2089,
  "\u2581comment": 2090,
  "\u2581connais": 2091,
  "\u2581donkili": 2092,
  "\u2581ensuite": 2093,
  "\u2581petites": 2094,
  "\u2581personnes": 2095,
  "Ar": 2096,
  "\u00eat": 2097,
  "ell": 2098,
  "gra": 2099,
  "ied": 2100,
  "jou": 2101,
  "los": 2102,
  "m\u025br": 2103,
  "olu": 2104,
  "ome": 2105,
  "one": 2106,
  "rat": 2107,
  "rel": 2108,
  "ria": 2109,
  "r\u00e9s": 2110,
  "tez": 2111,
  "uwa": 2112,
  "van": 2113,
  "\u025bti": 2114,
  "\u2581Ab": 2115,
  "\u2581Es": 2116,
  "\u2581Fl": 2117,
  "\u2581F\u0254": 2118,
  "\u2581Ob": 2119,
  "\u2581bu": 2120,
  "agit": 2121,
  "ique": 2122,
  "itre": 2123,
  "mina": 2124,
  "m\u00eame": 2125,
  "\u2581Del": 2126,
  "\u2581Gar": 2127,
  "\u2581Jac": 2128,
  "\u2581Kar": 2129,
  "\u2581Man": 2130,
  "\u2581Nou": 2131,
  "\u2581Sur": 2132,
  "\u2581bol": 2133,
  "\u2581dom": 2134,
  "\u2581ele": 2135,
  "\u2581emp": 2136,
  "\u2581fat": 2137,
  "\u2581foo": 2138,
  "\u2581gan": 2139,
  "\u2581tre": 2140,
  "ch\u00e8te": 2141,
  "gique": 2142,
  "oires": 2143,
  "sible": 2144,
  "temps": 2145,
  "\u0254g\u0254ni": 2146,
  "\u2581Avec": 2147,
  "\u2581Mari": 2148,
  "\u2581Nunu": 2149,
  "\u2581Pont": 2150,
  "\u2581Sara": 2151,
  "\u2581bise": 2152,
  "\u2581chap": 2153,
  "\u2581dogo": 2154,
  "\u2581gros": 2155,
  "\u2581lam\u025b": 2156,
  "\u2581minu": 2157,
  "\u2581nuit": 2158,
  "\u2581tien": 2159,
  "\u2581t\u00f4g\u00f4": 2160,
  "\u2581yeux": 2161,
  "\u2581yor\u00f4": 2162,
  "\u2581Votre": 2163,
  "\u2581caama": 2164,
  "\u2581chant": 2165,
  "\u2581jaune": 2166,
  "\u2581minuw": 2167,
  "\u2581notre": 2168,
  "\u2581seize": 2169,
  "\u2581sorti": 2170,
  "\u2581sujet": 2171,
  "\u2581trans": 2172,
  "matique": 2173,
  "usement": 2174,
  "\u2581autres": 2175,
  "\u2581barada": 2176,
  "\u2581binani": 2177,
  "\u2581djoum\u00e8": 2178,
  "\u2581dourou": 2179,
  "\u2581k\u0254n\u0254ni": 2180,
  "\u2581tabali": 2181,
  "\u2581y\u0254r\u0254la": 2182,
  "issement": 2183,
  "\u2581dernier": 2184,
  "\u2581d\u0254nkili": 2185,
  "\u2581trouver": 2186,
  "\u2581commence": 2187,
  "\u2581deuxi\u00e8me": 2188,
  "\u2581lanibala": 2189,
  "ouvernement": 2190,
  "ho": 2191,
  "jo": 2192,
  "ok": 2193,
  "op": 2194,
  "pa": 2195,
  "za": 2196,
  "\u0254m": 2197,
  "\u2581\u00e2": 2198,
  "air": 2199,
  "bur": 2200,
  "dal": 2201,
  "dio": 2202,
  "ess": 2203,
  "omb": 2204,
  "oux": 2205,
  "pec": 2206,
  "sie": 2207,
  "tis": 2208,
  "t\u025bn": 2209,
  "vis": 2210,
  "v\u025br": 2211,
  "\u00e8de": 2212,
  "\u00e9li": 2213,
  "\u0254na": 2214,
  "\u2581Br": 2215,
  "\u2581Ex": 2216,
  "\u2581Mu": 2217,
  "\u2581S\u025b": 2218,
  "\u2581c\u00f4": 2219,
  "\u2581ke": 2220,
  "\u2581pa": 2221,
  "cain": 2222,
  "eurt": 2223,
  "inze": 2224,
  "kulu": 2225,
  "lons": 2226,
  "manw": 2227,
  "miss": 2228,
  "mont": 2229,
  "olle": 2230,
  "rale": 2231,
  "y\u025br\u025b": 2232,
  "\u00e9rie": 2233,
  "\u2581Ay\u00e9": 2234,
  "\u2581Don": 2235,
  "\u2581Fil": 2236,
  "\u2581Sin": 2237,
  "\u2581Tan": 2238,
  "\u2581Tur": 2239,
  "\u2581cal": 2240,
  "\u2581cr\u00e9": 2241,
  "\u2581c\u025bn": 2242,
  "\u2581dow": 2243,
  "\u2581feu": 2244,
  "\u2581lis": 2245,
  "\u2581lou": 2246,
  "\u2581maj": 2247,
  "\u2581mod": 2248,
  "\u2581mom": 2249,
  "\u2581naf": 2250,
  "ansan": 2251,
  "ara\u00eet": 2252,
  "duuru": 2253,
  "ettes": 2254,
  "glise": 2255,
  "illon": 2256,
  "ti\u00e8re": 2257,
  "\u2581Dugu": 2258,
  "\u2581Foyi": 2259,
  "\u2581Puis": 2260,
  "\u2581Tch\u00e8": 2261,
  "\u2581actu": 2262,
  "\u2581bale": 2263,
  "\u2581bois": 2264,
  "\u2581bras": 2265,
  "\u2581b\u00f4ra": 2266,
  "\u2581demi": 2267,
  "\u2581dois": 2268,
  "\u2581dumu": 2269,
  "\u2581gnan": 2270,
  "\u2581h\u025br\u025b": 2271,
  "\u2581joue": 2272,
  "\u2581kari": 2273,
  "\u2581kogo": 2274,
  "\u2581kolo": 2275,
  "\u2581k\u025bla": 2276,
  "\u2581l\u0254g\u0254": 2277,
  "\u2581mani": 2278,
  "\u2581mog\u00f4": 2279,
  "\u2581mulo": 2280,
  "\u2581m\u025bna": 2281,
  "\u2581semb": 2282,
  "\u2581s\u025bk\u0254": 2283,
  "\u2581tile": 2284,
  "argent": 2285,
  "itique": 2286,
  "\u2581Champ": 2287,
  "\u2581akili": 2288,
  "\u2581b\u025bg\u025bn": 2289,
  "\u2581capit": 2290,
  "\u2581jusqu": 2291,
  "\u2581servi": 2292,
  "\u2581viens": 2293,
  "\u2581\u0186nh\u0254n": 2294,
  "\u2581aimera": 2295,
  "\u2581breton": 2296,
  "\u2581depuis": 2297,
  "\u2581djouma": 2298,
  "\u2581m\u00e9tier": 2299,
  "\u2581sababu": 2300,
  "avorable": 2301,
  "\u2581fatigu\u00e9": 2302,
  "\u2581kumakan": 2303,
  "\u2581d\u0254g\u0254muso": 2304,
  "\u2581nouvelle": 2305,
  "\u2581question": 2306,
  "\u2581rencontre": 2307,
  "ck": 2308,
  "ps": 2309,
  "wi": 2310,
  "\u2581;": 2311,
  "\u2581\u00ab": 2312,
  "\u2581\u0254": 2313,
  "agn": 2314,
  "amu": 2315,
  "aur": 2316,
  "ban": 2317,
  "ero": 2318,
  "ets": 2319,
  "iez": 2320,
  "lai": 2321,
  "l\u025bn": 2322,
  "rot": 2323,
  "sus": 2324,
  "v\u025bn": 2325,
  "y\u025br": 2326,
  "\u00e9t\u00e9": 2327,
  "\u025brn": 2328,
  "\u2581Do": 2329,
  "\u2581Fa": 2330,
  "\u2581R\u00e9": 2331,
  "\u2581Va": 2332,
  "\u2581ag": 2333,
  "\u2581b\u00ea": 2334,
  "\u2581m\u0254": 2335,
  "erce": 2336,
  "fait": 2337,
  "iti\u00e9": 2338,
  "kura": 2339,
  "lent": 2340,
  "mero": 2341,
  "pide": 2342,
  "port": 2343,
  "roid": 2344,
  "t\u0254r\u0254": 2345,
  "\u0272\u025bna": 2346,
  "\u2581Bel": 2347,
  "\u2581Con": 2348,
  "\u2581Hen": 2349,
  "\u2581Pet": 2350,
  "\u2581Peu": 2351,
  "\u2581R\u00e9p": 2352,
  "\u2581Sar": 2353,
  "\u2581Ser": 2354,
  "\u2581Sig": 2355,
  "\u2581Tou": 2356,
  "\u2581exp": 2357,
  "\u2581inc": 2358,
  "\u2581jaa": 2359,
  "\u2581lit": 2360,
  "\u2581re\u00e7": 2361,
  "\u2581tes": 2362,
  "bagaw": 2363,
  "omani": 2364,
  "ouvez": 2365,
  "toine": 2366,
  "\u0254r\u0254ni": 2367,
  "\u2581Bali": 2368,
  "\u2581Kana": 2369,
  "\u2581Sini": 2370,
  "\u2581Tina": 2371,
  "\u2581bout": 2372,
  "\u2581degi": 2373,
  "\u2581dipl": 2374,
  "\u2581doni": 2375,
  "\u2581f\u025bnw": 2376,
  "\u2581gars": 2377,
  "\u2581lafi": 2378,
  "\u2581lett": 2379,
  "\u2581lors": 2380,
  "\u2581pens": 2381,
  "\u2581prom": 2382,
  "\u2581pr\u00e8s": 2383,
  "\u2581retr": 2384,
  "\u2581soit": 2385,
  "\u2581suff": 2386,
  "\u2581tchi": 2387,
  "\u2581t\u0254r\u0254": 2388,
  "\u2581\u00e9cri": 2389,
  "k\u0254r\u0254ba": 2390,
  "\u2581Kelen": 2391,
  "\u2581Touma": 2392,
  "\u2581Trois": 2393,
  "\u2581aimer": 2394,
  "\u2581baara": 2395,
  "\u2581belle": 2396,
  "\u2581celui": 2397,
  "\u2581chien": 2398,
  "\u2581const": 2399,
  "\u2581diff\u00e9": 2400,
  "\u2581gilan": 2401,
  "\u2581gw\u025bl\u025b": 2402,
  "\u2581habit": 2403,
  "\u2581juste": 2404,
  "\u2581mains": 2405,
  "\u2581mange": 2406,
  "\u2581miniw": 2407,
  "\u2581peine": 2408,
  "\u2581rouge": 2409,
  "\u2581suite": 2410,
  "\u2581s\u0254ng\u0254": 2411,
  "\u2581vieux": 2412,
  "article": 2413,
  "isation": 2414,
  "\u2581Albert": 2415,
  "\u2581Dougou": 2416,
  "\u2581arrive": 2417,
  "\u2581damin\u00e8": 2418,
  "\u2581femmes": 2419,
  "\u2581fourou": 2420,
  "\u2581k\u0254r\u0254ta": 2421,
  "\u2581k\u025bl\u025bk\u025b": 2422,
  "\u2581manque": 2423,
  "\u2581parlez": 2424,
  "\u2581petits": 2425,
  "\u2581projet": 2426,
  "\u2581public": 2427,
  "\u2581s\u0254k\u0254ra": 2428,
  "\u2581tununa": 2429,
  "aimerais": 2430,
  "\u2581pendant": 2431,
  "\u2581souvent": 2432,
  "\u2581ministre": 2433,
  "\u2581personne": 2434,
  "\u2581probl\u00e8me": 2435,
  "\u2581soutenir": 2436,
  "\u2581wolofila": 2437,
  "dr": 2438,
  "sc": 2439,
  "ena": 2440,
  "gna": 2441,
  "hou": 2442,
  "ici": 2443,
  "in\u00e9": 2444,
  "is\u025b": 2445,
  "its": 2446,
  "lon": 2447,
  "phe": 2448,
  "san": 2449,
  "tal": 2450,
  "\u00eele": 2451,
  "\u2581Bu": 2452,
  "\u2581DE": 2453,
  "\u2581FO": 2454,
  "\u2581Fi": 2455,
  "\u2581Lo": 2456,
  "\u2581Te": 2457,
  "\u2581gr": 2458,
  "\u2581im": 2459,
  "\u2581k\u00e9": 2460,
  "\u2581n\u025b": 2461,
  "\u2581r\u00ea": 2462,
  "ande": 2463,
  "cept": 2464,
  "eurs": 2465,
  "f\u0254l\u0254": 2466,
  "gala": 2467,
  "iles": 2468,
  "land": 2469,
  "ourt": 2470,
  "semb": 2471,
  "tive": 2472,
  "vaux": 2473,
  "venu": 2474,
  "yons": 2475,
  "y\u025bl\u025b": 2476,
  "\u2581Bre": 2477,
  "\u2581Cor": 2478,
  "\u2581Doc": 2479,
  "\u2581Jon": 2480,
  "\u2581Kam": 2481,
  "\u2581Mbi": 2482,
  "\u2581Mes": 2483,
  "\u2581Obi": 2484,
  "\u2581Pol": 2485,
  "\u2581dra": 2486,
  "\u2581eut": 2487,
  "\u2581gen": 2488,
  "\u2581kin": 2489,
  "\u2581mur": 2490,
  "\u2581not": 2491,
  "\u2581nuw": 2492,
  "\u2581r\u00e9c": 2493,
  "\u2581taw": 2494,
  "\u2581th\u00e9": 2495,
  "\u2581tri": 2496,
  "avait": 2497,
  "cteur": 2498,
  "iques": 2499,
  "orges": 2500,
  "quare": 2501,
  "sions": 2502,
  "\u2581Alou": 2503,
  "\u2581Bana": 2504,
  "\u2581Marc": 2505,
  "\u2581Sega": 2506,
  "\u2581Sigi": 2507,
  "\u2581Tour": 2508,
  "\u2581Wari": 2509,
  "\u2581Yiri": 2510,
  "\u2581arr\u00ea": 2511,
  "\u2581baba": 2512,
  "\u2581caf\u00e9": 2513,
  "\u2581camp": 2514,
  "\u2581c\u0153ur": 2515,
  "\u2581c\u025bka": 2516,
  "\u2581d\u00e9ni": 2517,
  "\u2581faim": 2518,
  "\u2581faud": 2519,
  "\u2581fere": 2520,
  "\u2581jona": 2521,
  "\u2581kini": 2522,
  "\u2581main": 2523,
  "\u2581mako": 2524,
  "\u2581minw": 2525,
  "\u2581pr\u00e9c": 2526,
  "\u2581supp": 2527,
  "amment": 2528,
  "\u2581Sanji": 2529,
  "\u2581ann\u00e9e": 2530,
  "\u2581arriv": 2531,
  "\u2581aucun": 2532,
  "\u2581cours": 2533,
  "\u2581fiman": 2534,
  "\u2581froid": 2535,
  "\u2581galon": 2536,
  "\u2581hakil": 2537,
  "\u2581kanou": 2538,
  "\u2581kongo": 2539,
  "\u2581passe": 2540,
  "\u2581plais": 2541,
  "\u2581prend": 2542,
  "\u2581super": 2543,
  "\u2581villa": 2544,
  "istoire": 2545,
  "versit\u00e9": 2546,
  "\u2581Mousso": 2547,
  "\u2581Pierre": 2548,
  "\u2581Quatre": 2549,
  "\u2581Siraba": 2550,
  "\u2581angil\u025b": 2551,
  "\u2581arriv\u00e9": 2552,
  "\u2581aurait": 2553,
  "\u2581combat": 2554,
  "\u2581dabila": 2555,
  "\u2581dumini": 2556,
  "\u2581d\u0254g\u0254ni": 2557,
  "\u2581gw\u025bl\u025bn": 2558,
  "\u2581jaunes": 2559,
  "\u2581kumana": 2560,
  "\u2581moment": 2561,
  "\u2581pauvre": 2562,
  "\u2581regard": 2563,
  "\u2581retard": 2564,
  "\u2581retour": 2565,
  "\u2581situ\u00e9e": 2566,
  "\u2581tables": 2567,
  "\u2581\u00e9tudes": 2568,
  "\u2581Aujourd": 2569,
  "\u2581chambre": 2570,
  "\u2581couleur": 2571,
  "\u2581lettres": 2572,
  "\u2581peuvent": 2573,
  "\u2581dimanche": 2574,
  "\u2581y\u025br\u025by\u025br\u025b": 2575,
  "\u2581longtemps": 2576,
  "\u2581d\u00e9favorable": 2577,
  "IS": 2578,
  "ha": 2579,
  "ly": 2580,
  "xi": 2581,
  "yn": 2582,
  "\u00e9n": 2583,
  "\u0254s": 2584,
  "\u025bz": 2585,
  "\u2581\u0153": 2586,
  "\u2581\u025b": 2587,
  "amb": 2588,
  "dem": 2589,
  "elo": 2590,
  "enu": 2591,
  "exp": 2592,
  "mar": 2593,
  "oin": 2594,
  "par": 2595,
  "pin": 2596,
  "ut\u00e9": 2597,
  "xim": 2598,
  "\u00e8le": 2599,
  "\u00e9tu": 2600,
  "\u0254ri": 2601,
  "\u2581Co": 2602,
  "\u2581Gi": 2603,
  "\u2581In": 2604,
  "\u2581Ju": 2605,
  "\u2581L\u00e0": 2606,
  "\u2581M\u025b": 2607,
  "\u2581Pa": 2608,
  "\u2581Pu": 2609,
  "\u2581cr": 2610,
  "\u2581c\u00e9": 2611,
  "\u2581f\u00e9": 2612,
  "\u2581it": 2613,
  "\u2581j\u0254": 2614,
  "\u2581m\u00ea": 2615,
  "\u2581r\u00e8": 2616,
  "anda": 2617,
  "anis": 2618,
  "avis": 2619,
  "denw": 2620,
  "dier": 2621,
  "elon": 2622,
  "fort": 2623,
  "irai": 2624,
  "liqu": 2625,
  "nous": 2626,
  "rila": 2627,
  "sigi": 2628,
  "vit\u00e9": 2629,
  "yala": 2630,
  "\u025br\u025bn": 2631,
  "\u2581Bis": 2632,
  "\u2581Dji": 2633,
  "\u2581Mas": 2634,
  "\u2581Mer": 2635,
  "\u2581M\u0254n": 2636,
  "\u2581abi": 2637,
  "\u2581aim": 2638,
  "\u2581am\u00e9": 2639,
  "\u2581bra": 2640,
  "\u2581deg": 2641,
  "\u2581d\u00e9s": 2642,
  "\u2581epi": 2643,
  "\u2581fau": 2644,
  "\u2581fou": 2645,
  "\u2581kad": 2646,
  "\u2581kur": 2647,
  "\u2581l\u00e9g": 2648,
  "\u2581mor": 2649,
  "\u2581plu": 2650,
  "\u2581pur": 2651,
  "\u2581sar": 2652,
  "\u2581sat": 2653,
  "\u2581sit": 2654,
  "\u2581sp\u00e9": 2655,
  "\u2581tas": 2656,
  "\u2581\u00e9le": 2657,
  "antan": 2658,
  "asira": 2659,
  "homme": 2660,
  "kelen": 2661,
  "leurs": 2662,
  "maine": 2663,
  "\u2581Lond": 2664,
  "\u2581Pers": 2665,
  "\u2581Ren\u00e9": 2666,
  "\u2581Wulu": 2667,
  "\u2581bons": 2668,
  "\u2581b\u0254ni": 2669,
  "\u2581b\u025bra": 2670,
  "\u2581diri": 2671,
  "\u2581di\u0272\u025b": 2672,
  "\u2581gare": 2673,
  "\u2581haut": 2674,
  "\u2581kule": 2675,
  "\u2581kuru": 2676,
  "\u2581k\u00e8m\u00e8": 2677,
  "\u2581k\u00e8n\u00e8": 2678,
  "\u2581loin": 2679,
  "\u2581pied": 2680,
  "\u2581plan": 2681,
  "\u2581port": 2682,
  "\u2581soro": 2683,
  "\u2581tcha": 2684,
  "\u2581vite": 2685,
  "\u2581wel\u00e9": 2686,
  "\u2581\u0272af\u0254": 2687,
  "ctions": 2688,
  "endait": 2689,
  "issaba": 2690,
  "itaine": 2691,
  "oussou": 2692,
  "\u2581Louis": 2693,
  "\u2581Moulo": 2694,
  "\u2581avant": 2695,
  "\u2581connu": 2696,
  "\u2581co\u00fbt\u00e9": 2697,
  "\u2581djoli": 2698,
  "\u2581effet": 2699,
  "\u2581ident": 2700,
  "\u2581jeune": 2701,
  "\u2581k\u0254s\u0254n": 2702,
  "\u2581madam": 2703,
  "\u2581mandi": 2704,
  "\u2581merci": 2705,
  "\u2581meurt": 2706,
  "\u2581paire": 2707,
  "\u2581tuman": 2708,
  "\u2581venir": 2709,
  "\u00e8rement": 2710,
  "\u2581connus": 2711,
  "\u2581crayon": 2712,
  "\u2581devant": 2713,
  "\u2581dispos": 2714,
  "\u2581duguma": 2715,
  "\u2581facile": 2716,
  "\u2581finman": 2717,
  "\u2581kalans": 2718,
  "\u2581mobili": 2719,
  "\u2581mougan": 2720,
  "\u2581mounou": 2721,
  "\u2581nature": 2722,
  "\u2581nimero": 2723,
  "\u2581pilasi": 2724,
  "\u2581r\u00e9gion": 2725,
  "\u2581sariya": 2726,
  "\u2581sin\u0254g\u0254": 2727,
  "\u2581t\u00e9l\u00e9ph": 2728,
  "\u2581y\u025bl\u025bko": 2729,
  "olonfila": 2730,
  "\u2581Antoine": 2731,
  "\u2581Charles": 2732,
  "\u2581biseegi": 2733,
  "\u2581combien": 2734,
  "\u2581demanda": 2735,
  "\u2581kibaria": 2736,
  "\u2581capitale": 2737,
  "\u2581carri\u00e8re": 2738,
  "\u2581k\u0254r\u0254muso": 2739,
  "\u2581lanibara": 2740,
  "\u2581nombreux": 2741,
  "\u2581cependant": 2742,
  "\u2581balimamuso": 2743,
  "\u2581principale": 2744,
  "cu": 2745,
  "gw": 2746,
  "id": 2747,
  "ku": 2748,
  "l\u00ea": 2749,
  "po": 2750,
  "s\u025b": 2751,
  "ys": 2752,
  "\u0272a": 2753,
  "anc": 2754,
  "aru": 2755,
  "aso": 2756,
  "cul": 2757,
  "enw": 2758,
  "eul": 2759,
  "fie": 2760,
  "gin": 2761,
  "iye": 2762,
  "jol": 2763,
  "kar": 2764,
  "ksi": 2765,
  "k\u025bn": 2766,
  "lut": 2767,
  "nom": 2768,
  "ode": 2769,
  "ots": 2770,
  "ple": 2771,
  "reg": 2772,
  "tie": 2773,
  "\u00e8ni": 2774,
  "\u00e9cu": 2775,
  "\u0272\u0254n": 2776,
  "\u2581D\u00e9": 2777,
  "\u2581Ha": 2778,
  "\u2581Ki": 2779,
  "\u2581N\u00e9": 2780,
  "\u2581ty": 2781,
  "\u2581t\u00f4": 2782,
  "ards": 2783,
  "assa": 2784,
  "assi": 2785,
  "bala": 2786,
  "cier": 2787,
  "elin": 2788,
  "gali": 2789,
  "jeun": 2790,
  "lara": 2791,
  "mage": 2792,
  "meri": 2793,
  "occu": 2794,
  "ogra": 2795,
  "oles": 2796,
  "onte": 2797,
  "orig": 2798,
  "ouse": 2799,
  "reur": 2800,
  "\u00e7ons": 2801,
  "\u2581Ali": 2802,
  "\u2581Alu": 2803,
  "\u2581BIS": 2804,
  "\u2581Bab": 2805,
  "\u2581Bal": 2806,
  "\u2581Bor": 2807,
  "\u2581Cin": 2808,
  "\u2581Col": 2809,
  "\u2581Fan": 2810,
  "\u2581Fen": 2811,
  "\u2581Fin": 2812,
  "\u2581Gen": 2813,
  "\u2581Kom": 2814,
  "\u2581Kun": 2815,
  "\u2581Lon": 2816,
  "\u2581Oyi": 2817,
  "\u2581Sou": 2818,
  "\u2581Tab": 2819,
  "\u2581Ubu": 2820,
  "\u2581Ver": 2821,
  "\u2581aff": 2822,
  "\u2581alu": 2823,
  "\u2581avi": 2824,
  "\u2581ayi": 2825,
  "\u2581bat": 2826,
  "\u2581bes": 2827,
  "\u2581b\u025br": 2828,
  "\u2581cul": 2829,
  "\u2581d\u0254k": 2830,
  "\u2581gau": 2831,
  "\u2581gni": 2832,
  "\u2581gri": 2833,
  "\u2581jig": 2834,
  "\u2581lak": 2835,
  "\u2581lar": 2836,
  "\u2581loi": 2837,
  "\u2581men": 2838,
  "\u2581off": 2839,
  "\u2581ord": 2840,
  "\u2581pan": 2841,
  "\u2581roi": 2842,
  "\u2581sav": 2843,
  "\u2581sii": 2844,
  "\u2581sil": 2845,
  "\u2581sir": 2846,
  "\u2581soi": 2847,
  "\u2581tub": 2848,
  "\u2581yam": 2849,
  "aliya": 2850,
  "amour": 2851,
  "avant": 2852,
  "iller": 2853,
  "oussi": 2854,
  "rance": 2855,
  "resse": 2856,
  "tr\u00eame": 2857,
  "urent": 2858,
  "\u2581Bois": 2859,
  "\u2581Ceci": 2860,
  "\u2581Jama": 2861,
  "\u2581Juli": 2862,
  "\u2581Kera": 2863,
  "\u2581M\u00f4g\u00f4": 2864,
  "\u2581Pari": 2865,
  "\u2581Port": 2866,
  "\u2581Rien": 2867,
  "\u2581Tr\u00e8s": 2868,
  "\u2581c\u00f4t\u00e9": 2869,
  "\u2581dari": 2870,
  "\u2581d\u00e8m\u00e8": 2871,
  "\u2581d\u0254ra": 2872,
  "\u2581fora": 2873,
  "\u2581foro": 2874,
  "\u2581gwan": 2875,
  "\u2581kaba": 2876,
  "\u2581lire": 2877,
  "\u2581mili": 2878,
  "\u2581nive": 2879,
  "\u2581nord": 2880,
  "\u2581pant": 2881,
  "\u2581pr\u00eat": 2882,
  "\u2581rejo": 2883,
  "\u2581siga": 2884,
  "\u2581simp": 2885,
  "\u2581suma": 2886,
  "\u2581tig\u00ea": 2887,
  "\u2581tran": 2888,
  "\u2581tulo": 2889,
  "\u2581tunu": 2890,
  "\u2581vaut": 2891,
  "\u2581waga": 2892,
  "\u2581wule": 2893,
  "\u2581yoro": 2894,
  "accord": 2895,
  "beleba": 2896,
  "enfant": 2897,
  "levard": 2898,
  "onnais": 2899,
  "\u0254r\u0254nan": 2900,
  "\u2581Ayiwa": 2901,
  "\u2581Certa": 2902,
  "\u2581Enfin": 2903,
  "\u2581Henri": 2904,
  "\u2581bagaw": 2905,
  "\u2581d\u00e9but": 2906,
  "\u2581d\u00e9par": 2907,
  "\u2581g\u025bl\u025bn": 2908,
  "\u2581jouer": 2909,
  "\u2581kulon": 2910,
  "\u2581lundi": 2911,
  "\u2581noirs": 2912,
  "\u2581pleut": 2913,
  "\u2581sc\u00e8ne": 2914,
  "\u2581seule": 2915,
  "\u2581w\u025br\u025bw": 2916,
  "\u2581Demain": 2917,
  "\u2581Michel": 2918,
  "\u2581aimait": 2919,
  "\u2581aiment": 2920,
  "\u2581besoin": 2921,
  "\u2581danser": 2922,
  "\u2581divers": 2923,
  "\u2581diyara": 2924,
  "\u2581duguba": 2925,
  "\u2581esp\u00e8ce": 2926,
  "\u2581guerre": 2927,
  "\u2581jigira": 2928,
  "\u2581longue": 2929,
  "\u2581malade": 2930,
  "\u2581meille": 2931,
  "\u2581nafolo": 2932,
  "\u2581noires": 2933,
  "\u2581n\u0254g\u0254ya": 2934,
  "\u2581parler": 2935,
  "\u2581pouvez": 2936,
  "\u2581quelqu": 2937,
  "\u2581sigini": 2938,
  "\u2581s\u025bb\u025bri": 2939,
  "\u2581tounbi": 2940,
  "\u2581tumana": 2941,
  "\u2581wakati": 2942,
  "\u2581Docteur": 2943,
  "\u2581Londres": 2944,
  "\u2581animaux": 2945,
  "\u2581grandes": 2946,
  "\u2581impasse": 2947,
  "\u2581j\u025bnkulu": 2948,
  "\u2581parents": 2949,
  "\u2581regarde": 2950,
  "\u2581sigilan": 2951,
  "\u2581Personne": 2952,
  "\u2581continue": 2953,
  "\u2581premi\u00e8re": 2954,
  "\u2581y\u025bl\u025bmana": 2955,
  "\u2581diff\u00e9rent": 2956,
  "\u2581formation": 2957,
  "\u2581important": 2958,
  "\u2581politique": 2959,
  "\u2581pr\u00e9sident": 2960,
  "\u2581nombreuses": 2961,
  "\u2581amendements": 2962,
  "\u2581biwolonfila": 2963,
  "\u2581Gouvernement": 2964,
  "\u2581actuellement": 2965,
  "Al": 2966,
  "b\u00ea": 2967,
  "g\u00e8": 2968,
  "ks": 2969,
  "uf": 2970,
  "v\u00ea": 2971,
  "yp": 2972,
  "zu": 2973,
  "\u2581-": 2974,
  "aff": 2975,
  "bum": 2976,
  "cal": 2977,
  "car": 2978,
  "chy": 2979,
  "cof": 2980,
  "dr\u00e9": 2981,
  "dus": 2982,
  "d\u025bn": 2983,
  "enc": 2984,
  "ig\u00ea": 2985,
  "kal": 2986,
  "kur": 2987,
  "law": 2988,
  "let": 2989,
  "mas": 2990,
  "mir": 2991,
  "m\u0254n": 2992,
  "ore": 2993,
  "pit": 2994,
  "taw": 2995,
  "tik": 2996,
  "tir": 2997,
  "uge": 2998,
  "yer": 2999,
  "\u00e8se": 3000,
  "\u00e8te": 3001,
  "\u00e9ch": 3002,
  "\u025bne": 3003,
  "\u025bnw": 3004,
  "\u2581Aa": 3005,
  "\u2581Be": 3006,
  "\u2581B\u00e2": 3007,
  "\u2581Em": 3008,
  "\u2581Um": 3009,
  "\u2581fl": 3010,
  "\u2581ir": 3011,
  "\u2581n\u0254": 3012,
  "\u2581ru": 3013,
  "\u2581ut": 3014,
  "abri": 3015,
  "alen": 3016,
  "aris": 3017,
  "burg": 3018,
  "culi": 3019,
  "duit": 3020,
  "elli": 3021,
  "erie": 3022,
  "f\u00e8re": 3023,
  "gage": 3024,
  "hors": 3025,
  "it\u00e9s": 3026,
  "k\u025bra": 3027,
  "mini": 3028,
  "mith": 3029,
  "m\u0254g\u0254": 3030,
  "nier": 3031,
  "onna": 3032,
  "pent": 3033,
  "rain": 3034,
  "rans": 3035,
  "ross": 3036,
  "s\u0254r\u0254": 3037,
  "ti\u0254n": 3038,
  "usse": 3039,
  "\u00e7ois": 3040,
  "\u2581Ami": 3041,
  "\u2581Ann": 3042,
  "\u2581Bro": 3043,
  "\u2581Dan": 3044,
  "\u2581Eug": 3045,
  "\u2581Eux": 3046,
  "\u2581Fer": 3047,
  "\u2581Hun": 3048,
  "\u2581Jus": 3049,
  "\u2581Lim": 3050,
  "\u2581Lui": 3051,
  "\u2581Mad": 3052,
  "\u2581Mus": 3053,
  "\u2581Nap": 3054,
  "\u2581Oli": 3055,
  "\u2581Pap": 3056,
  "\u2581Pri": 3057,
  "\u2581ass": 3058,
  "\u2581bid": 3059,
  "\u2581cee": 3060,
  "\u2581cla": 3061,
  "\u2581ek\u0254": 3062,
  "\u2581gag": 3063,
  "\u2581ibi": 3064,
  "\u2581lor": 3065,
  "\u2581low": 3066,
  "\u2581mil": 3067,
  "\u2581m\u00e9t": 3068,
  "\u2581p\u0254r": 3069,
  "\u2581p\u025bn": 3070,
  "\u2581ris": 3071,
  "\u2581sac": 3072,
  "\u2581sta": 3073,
  "\u2581sud": 3074,
  "\u2581sus": 3075,
  "\u2581tin": 3076,
  "\u2581vot": 3077,
  "\u2581yen": 3078,
  "asser": 3079,
  "ent\u00f4t": 3080,
  "ill\u00e9e": 3081,
  "k\u025blaw": 3082,
  "magne": 3083,
  "outez": 3084,
  "quipe": 3085,
  "venir": 3086,
  "\u2581Bart": 3087,
  "\u2581Bert": 3088,
  "\u2581Bour": 3089,
  "\u2581Dami": 3090,
  "\u2581Fama": 3091,
  "\u2581Kunu": 3092,
  "\u2581Lara": 3093,
  "\u2581Mara": 3094,
  "\u2581Mogo": 3095,
  "\u2581Quoi": 3096,
  "\u2581Saba": 3097,
  "\u2581Tile": 3098,
  "\u2581Toul": 3099,
  "\u2581bais": 3100,
  "\u2581ceux": 3101,
  "\u2581cin\u00e9": 3102,
  "\u2581cira": 3103,
  "\u2581cous": 3104,
  "\u2581dani": 3105,
  "\u2581denn": 3106,
  "\u2581denw": 3107,
  "\u2581desc": 3108,
  "\u2581d\u00e9li": 3109,
  "\u2581face": 3110,
  "\u2581glan": 3111,
  "\u2581kara": 3112,
  "\u2581k\u025bni": 3113,
  "\u2581mots": 3114,
  "\u2581m\u00e9de": 3115,
  "\u2581orig": 3116,
  "\u2581parc": 3117,
  "\u2581pass": 3118,
  "\u2581pr\u00e9s": 3119,
  "\u2581quit": 3120,
  "\u2581reli": 3121,
  "\u2581sant": 3122,
  "\u2581saya": 3123,
  "\u2581sent": 3124,
  "\u2581s\u0254k\u0254": 3125,
  "\u2581s\u025bn\u025b": 3126,
  "\u2581tani": 3127,
  "\u2581trou": 3128,
  "\u2581voya": 3129,
  "\u2581yana": 3130,
  "\u2581\u0272\u0254g\u0254": 3131,
  "ach\u00e8te": 3132,
  "ension": 3133,
  "issant": 3134,
  "\u2581Bonne": 3135,
  "\u2581Grand": 3136,
  "\u2581Koura": 3137,
  "\u2581Smith": 3138,
  "\u2581alugu": 3139,
  "\u2581chans": 3140,
  "\u2581c\u025bman": 3141,
  "\u2581diffi": 3142,
  "\u2581donna": 3143,
  "\u2581exemp": 3144,
  "\u2581garde": 3145,
  "\u2581jolie": 3146,
  "\u2581liste": 3147,
  "\u2581march": 3148,
  "\u2581nomm\u00e9": 3149,
  "\u2581poste": 3150,
  "\u2581saara": 3151,
  "\u2581signi": 3152,
  "\u2581sonne": 3153,
  "\u2581s\u0254nna": 3154,
  "\u2581\u00e9cout": 3155,
  "\u2581\u00e9tudi": 3156,
  "\u2581Eug\u00e8ne": 3157,
  "\u2581animal": 3158,
  "\u2581chiens": 3159,
  "\u2581datugu": 3160,
  "\u2581d\u00e9cid\u00e9": 3161,
  "\u2581d\u0254g\u0254c\u025b": 3162,
  "\u2581enfant": 3163,
  "\u2581entend": 3164,
  "\u2581farala": 3165,
  "\u2581gauche": 3166,
  "\u2581kalama": 3167,
  "\u2581k\u0254g\u0254ji": 3168,
  "\u2581mirila": 3169,
  "\u2581ouvert": 3170,
  "\u2581rapide": 3171,
  "\u2581savoir": 3172,
  "\u2581succ\u00e8s": 3173,
  "\u2581tasuma": 3174,
  "\u2581tchogo": 3175,
  "\u2581baleman": 3176,
  "\u2581biduuru": 3177,
  "\u2581devient": 3178,
  "\u2581fen\u00eatre": 3179,
  "\u2581gnongon": 3180,
  "\u2581gw\u025bl\u025bya": 3181,
  "\u2581mariage": 3182,
  "\u2581pouvoir": 3183,
  "\u2581prendre": 3184,
  "\u2581sp\u00e9cial": 3185,
  "\u2581vieille": 3186,
  "tr\u00eamement": 3187,
  "\u2581Fran\u00e7ois": 3188,
  "\u2581fonction": 3189,
  "\u2581possible": 3190,
  "\u2581rapporte": 3191,
  "\u2581r\u00e9pondit": 3192,
  "universit\u00e9": 3193,
  "\u2581balimanc\u025b": 3194,
  "\u2581favorable": 3195,
  "\u2581particuli": 3196,
  "AN": 3197,
  "Ch": 3198,
  "af": 3199,
  "fu": 3200,
  "h\u0254": 3201,
  "ja": 3202,
  "ju": 3203,
  "pr": 3204,
  "th": 3205,
  "xe": 3206,
  "yr": 3207,
  "\u0254t": 3208,
  "\u2581'": 3209,
  "ast": 3210,
  "bie": 3211,
  "c\u00e9e": 3212,
  "dor": 3213,
  "f\u0254r": 3214,
  "gon": 3215,
  "lar": 3216,
  "l\u0254n": 3217,
  "mon": 3218,
  "nac": 3219,
  "nin": 3220,
  "ony": 3221,
  "ppe": 3222,
  "red": 3223,
  "run": 3224,
  "vat": 3225,
  "yen": 3226,
  "zan": 3227,
  "zin": 3228,
  "\u00e8n\u00e8": 3229,
  "\u00e8ve": 3230,
  "\u025bm\u025b": 3231,
  "\u2581Af": 3232,
  "\u2581B\u00e9": 3233,
  "\u2581Er": 3234,
  "\u2581Hi": 3235,
  "\u2581L\u00e9": 3236,
  "\u2581Ra": 3237,
  "\u2581ap": 3238,
  "\u2581f\u00ea": 3239,
  "\u2581gl": 3240,
  "\u2581sy": 3241,
  "\u2581v\u00e9": 3242,
  "\u2581\u025br": 3243,
  "Dame": 3244,
  "alaw": 3245,
  "cipe": 3246,
  "cogo": 3247,
  "crit": 3248,
  "dait": 3249,
  "euve": 3250,
  "fara": 3251,
  "gani": 3252,
  "hait": 3253,
  "irin": 3254,
  "isez": 3255,
  "isme": 3256,
  "issi": 3257,
  "iss\u00e9": 3258,
  "neur": 3259,
  "oure": 3260,
  "ppos": 3261,
  "quis": 3262,
  "rass": 3263,
  "tout": 3264,
  "tres": 3265,
  "ulan": 3266,
  "urne": 3267,
  "\u2581Am\u00e9": 3268,
  "\u2581Bri": 3269,
  "\u2581Bur": 3270,
  "\u2581Cha": 3271,
  "\u2581Dep": 3272,
  "\u2581D\u0254n": 3273,
  "\u2581Gra": 3274,
  "\u2581Imp": 3275,
  "\u2581Kan": 3276,
  "\u2581Kon": 3277,
  "\u2581Lab": 3278,
  "\u2581Rob": 3279,
  "\u2581Sch": 3280,
  "\u2581Sta": 3281,
  "\u2581Wal": 3282,
  "\u2581ara": 3283,
  "\u2581caa": 3284,
  "\u2581can": 3285,
  "\u2581ch\u00e2": 3286,
  "\u2581cli": 3287,
  "\u2581dak": 3288,
  "\u2581div": 3289,
  "\u2581dja": 3290,
  "\u2581d\u00e9v": 3291,
  "\u2581emb": 3292,
  "\u2581fl\u00e8": 3293,
  "\u2581gou": 3294,
  "\u2581hom": 3295,
  "\u2581hum": 3296,
  "\u2581ina": 3297,
  "\u2581inf": 3298,
  "\u2581jon": 3299,
  "\u2581jue": 3300,
  "\u2581miw": 3301,
  "\u2581pra": 3302,
  "\u2581sug": 3303,
  "\u2581vis": 3304,
  "abord": 3305,
  "anaya": 3306,
  "ardin": 3307,
  "ci\u00e9t\u00e9": 3308,
  "eline": 3309,
  "entin": 3310,
  "honne": 3311,
  "inter": 3312,
  "itude": 3313,
  "mions": 3314,
  "oulou": 3315,
  "outer": 3316,
  "rasse": 3317,
  "renez": 3318,
  "roche": 3319,
  "teint": 3320,
  "urice": 3321,
  "\u2581Beau": 3322,
  "\u2581Bien": 3323,
  "\u2581Clos": 3324,
  "\u2581F\u0254l\u0254": 3325,
  "\u2581Hier": 3326,
  "\u2581Jose": 3327,
  "\u2581Mart": 3328,
  "\u2581Om\u025br": 3329,
  "\u2581Para": 3330,
  "\u2581Sand": 3331,
  "\u2581bles": 3332,
  "\u2581cass": 3333,
  "\u2581dist": 3334,
  "\u2581d\u00f4g\u00f4": 3335,
  "\u2581font": 3336,
  "\u2581g\u025bl\u025b": 3337,
  "\u2581indi": 3338,
  "\u2581koro": 3339,
  "\u2581lait": 3340,
  "\u2581lama": 3341,
  "\u2581l\u0254ni": 3342,
  "\u2581maga": 3343,
  "\u2581ma\u0272i": 3344,
  "\u2581mese": 3345,
  "\u2581n\u025bn\u025b": 3346,
  "\u2581obje": 3347,
  "\u2581offi": 3348,
  "\u2581pari": 3349,
  "\u2581rend": 3350,
  "\u2581revi": 3351,
  "\u2581sanu": 3352,
  "\u2581sega": 3353,
  "\u2581sora": 3354,
  "\u2581s\u0254b\u025b": 3355,
  "\u2581toga": 3356,
  "\u2581toka": 3357,
  "\u2581t\u00e9l\u00e9": 3358,
  "\u2581yani": 3359,
  "action": 3360,
  "cident": 3361,
  "iliser": 3362,
  "ricain": 3363,
  "tional": 3364,
  "\u00e9glise": 3365,
  "\u2581Andre": 3366,
  "\u2581Belle": 3367,
  "\u2581Franc": 3368,
  "\u2581Garde": 3369,
  "\u2581Tiens": 3370,
  "\u2581Toute": 3371,
  "\u2581Viens": 3372,
  "\u2581aim\u00e9s": 3373,
  "\u2581banna": 3374,
  "\u2581celle": 3375,
  "\u2581chaud": 3376,
  "\u2581corps": 3377,
  "\u2581co\u00fbte": 3378,
  "\u2581dilan": 3379,
  "\u2581dipl\u00f4": 3380,
  "\u2581doute": 3381,
  "\u2581dur\u0254n": 3382,
  "\u2581gw\u025br\u025b": 3383,
  "\u2581itali": 3384,
  "\u2581jaati": 3385,
  "\u2581mang\u00e9": 3386,
  "\u2581match": 3387,
  "\u2581mis\u025bn": 3388,
  "\u2581mouve": 3389,
  "\u2581parmi": 3390,
  "\u2581peint": 3391,
  "\u2581plein": 3392,
  "\u2581proch": 3393,
  "\u2581produ": 3394,
  "\u2581satis": 3395,
  "\u2581sigin": 3396,
  "\u2581talon": 3397,
  "\u2581titre": 3398,
  "\u2581trouv": 3399,
  "avaient": 3400,
  "enfants": 3401,
  "honneur": 3402,
  "oiselle": 3403,
  "origine": 3404,
  "ression": 3405,
  "\u2581Marcof": 3406,
  "\u2581Sissan": 3407,
  "\u2581biw\u0254r\u0254": 3408,
  "\u2581change": 3409,
  "\u2581chaque": 3410,
  "\u2581cin\u00e9ma": 3411,
  "\u2581c\u025bka\u0272i": 3412,
  "\u2581doumou": 3413,
  "\u2581d\u0254t\u0254r\u0254": 3414,
  "\u2581faudra": 3415,
  "\u2581filles": 3416,
  "\u2581jeunes": 3417,
  "\u2581konnon": 3418,
  "\u2581kunb\u025bn": 3419,
  "\u2581lamin\u025b": 3420,
  "\u2581marque": 3421,
  "\u2581nim\u0254r\u0254": 3422,
  "\u2581para\u00eet": 3423,
  "\u2581permet": 3424,
  "\u2581quinze": 3425,
  "\u2581semble": 3426,
  "\u2581sigira": 3427,
  "\u2581termin": 3428,
  "\u2581treize": 3429,
  "\u2581vivant": 3430,
  "\u2581\u00e9tions": 3431,
  "\u2581Georges": 3432,
  "\u2581aimions": 3433,
  "\u2581djougou": 3434,
  "\u2581doussou": 3435,
  "\u2581faransi": 3436,
  "\u2581g\u00e9n\u00e9ral": 3437,
  "\u2581kuntigi": 3438,
  "\u2581rejoint": 3439,
  "\u2581service": 3440,
  "\u2581souhait": 3441,
  "\u2581wuleman": 3442,
  "\u2581Quarante": 3443,
  "\u2581bamousso": 3444,
  "\u2581ensemble": 3445,
  "\u2581pantalon": 3446,
  "\u2581pourquoi": 3447,
  "\u2581quelques": 3448,
  "\u2581vraiment": 3449,
  "\u2581capitaine": 3450,
  "\u2581nouvelles": 3451,
  "\u2581belebeleba": 3452,
  "Qu": 3453,
  "cy": 3454,
  "l\u00f4": 3455,
  "no": 3456,
  "ny": 3457,
  "sy": 3458,
  "vu": 3459,
  "zo": 3460,
  "\u00ebl": 3461,
  "\u2581X": 3462,
  "all": 3463,
  "ben": 3464,
  "d\u00e9e": 3465,
  "ene": 3466,
  "gam": 3467,
  "gle": 3468,
  "g\u0254n": 3469,
  "her": 3470,
  "kow": 3471,
  "lui": 3472,
  "oss": 3473,
  "oto": 3474,
  "o\u00fbt": 3475,
  "pr\u00e9": 3476,
  "p\u0254r": 3477,
  "uel": 3478,
  "uro": 3479,
  "uve": 3480,
  "vet": 3481,
  "zac": 3482,
  "z\u025bn": 3483,
  "\u0254ra": 3484,
  "\u2581Ad": 3485,
  "\u2581Am": 3486,
  "\u2581Da": 3487,
  "\u2581Fe": 3488,
  "\u2581Gn": 3489,
  "\u2581Gw": 3490,
  "\u2581G\u00e9": 3491,
  "\u2581Mr": 3492,
  "\u2581Ou": 3493,
  "\u2581em": 3494,
  "\u2581gi": 3495,
  "\u2581g\u025b": 3496,
  "\u2581ku": 3497,
  "\u2581oh": 3498,
  "\u2581pu": 3499,
  "\u2581s\u00f4": 3500,
  "\u2581s\u0153": 3501,
  "\u2581tc": 3502,
  "\u2581we": 3503,
  "\u2581\u00e9v": 3504,
  "acun": 3505,
  "ages": 3506,
  "anmo": 3507,
  "anne": 3508,
  "anto": 3509,
  "aut\u00e9": 3510,
  "bina": 3511,
  "chon": 3512,
  "ctif": 3513,
  "dats": 3514,
  "diya": 3515,
  "dore": 3516,
  "endi": 3517,
  "enez": 3518,
  "gues": 3519,
  "heur": 3520,
  "ient": 3521,
  "ilen": 3522,
  "is\u0254n": 3523,
  "ites": 3524,
  "jour": 3525,
  "kani": 3526,
  "ocat": 3527,
  "oges": 3528,
  "ogne": 3529,
  "oici": 3530,
  "onde": 3531,
  "otre": 3532,
  "ress": 3533,
  "r\u00eate": 3534,
  "tiez": 3535,
  "uire": 3536,
  "unan": 3537,
  "veux": 3538,
  "vire": 3539,
  "v\u025brs": 3540,
  "w\u025br\u025b": 3541,
  "\u00e9cri": 3542,
  "\u0272ini": 3543,
  "\u2581App": 3544,
  "\u2581Aur": 3545,
  "\u2581Aut": 3546,
  "\u2581Aye": 3547,
  "\u2581Bes": 3548,
  "\u2581Can": 3549,
  "\u2581Chi": 3550,
  "\u2581Cra": 3551,
  "\u2581Dem": 3552,
  "\u2581Dou": 3553,
  "\u2581Dum": 3554,
  "\u2581Gui": 3555,
  "\u2581Hak": 3556,
  "\u2581Hum": 3557,
  "\u2581Jan": 3558,
  "\u2581Jos": 3559,
  "\u2581Nic": 3560,
  "\u2581Oka": 3561,
  "\u2581Oya": 3562,
  "\u2581art": 3563,
  "\u2581ay\u00e9": 3564,
  "\u2581baa": 3565,
  "\u2581ber": 3566,
  "\u2581cer": 3567,
  "\u2581del": 3568,
  "\u2581dog": 3569,
  "\u2581doi": 3570,
  "\u2581duc": 3571,
  "\u2581d\u025bn": 3572,
  "\u2581eur": 3573,
  "\u2581fas": 3574,
  "\u2581fr\u00e9": 3575,
  "\u2581gna": 3576,
  "\u2581gn\u00e8": 3577,
  "\u2581jab": 3578,
  "\u2581kul": 3579,
  "\u2581k\u0254m": 3580,
  "\u2581lad": 3581,
  "\u2581lim": 3582,
  "\u2581lot": 3583,
  "\u2581nal": 3584,
  "\u2581nga": 3585,
  "\u2581ora": 3586,
  "\u2581ore": 3587,
  "\u2581pai": 3588,
  "\u2581pen": 3589,
  "\u2581pop": 3590,
  "\u2581stu": 3591,
  "\u2581vol": 3592,
  "\u2581wal": 3593,
  "\u2581\u00e2ge": 3594,
  "\u2581\u0153uv": 3595,
  "aburu": 3596,
  "aisse": 3597,
  "andre": 3598,
  "illac": 3599,
  "indre": 3600,
  "inema": 3601,
  "itigi": 3602,
  "k\u0254n\u0254n": 3603,
  "obili": 3604,
  "onton": 3605,
  "ordre": 3606,
  "ouman": 3607,
  "rence": 3608,
  "sionn": 3609,
  "tiens": 3610,
  "ti\u00e8me": 3611,
  "\u00e9cile": 3612,
  "\u0272\u0254g\u0254n": 3613,
  "\u2581Alex": 3614,
  "\u2581Bern": 3615,
  "\u2581Boon": 3616,
  "\u2581Bret": 3617,
  "\u2581Cour": 3618,
  "\u2581Fila": 3619,
  "\u2581K\u00e8l\u00e8": 3620,
  "\u2581Olou": 3621,
  "\u2581Yann": 3622,
  "\u2581aide": 3623,
  "\u2581anci": 3624,
  "\u2581aura": 3625,
  "\u2581bata": 3626,
  "\u2581b\u00e2ti": 3627,
  "\u2581b\u00eate": 3628,
  "\u2581b\u025bna": 3629,
  "\u2581couv": 3630,
  "\u2581depi": 3631,
  "\u2581disc": 3632,
  "\u2581dona": 3633,
  "\u2581dure": 3634,
  "\u2581enti": 3635,
  "\u2581f\u00e8ga": 3636,
  "\u2581f\u0254li": 3637,
  "\u2581irez": 3638,
  "\u2581kafe": 3639,
  "\u2581kare": 3640,
  "\u2581kil\u00e9": 3641,
  "\u2581kof\u00e8": 3642,
  "\u2581k\u00e8r\u00e8": 3643,
  "\u2581lala": 3644,
  "\u2581lase": 3645,
  "\u2581m\u00e8na": 3646,
  "\u2581nig\u025b": 3647,
  "\u2581n\u025bg\u025b": 3648,
  "\u2581oise": 3649,
  "\u2581prix": 3650,
  "\u2581p\u00e9ri": 3651,
  "\u2581rare": 3652,
  "\u2581re\u00e7u": 3653,
  "\u2581seen": 3654,
  "\u2581s\u00fbre": 3655,
  "\u2581s\u0254g\u0254": 3656,
  "\u2581vila": 3657,
  "\u2581voud": 3658,
  "\u2581yera": 3659,
  "accomp": 3660,
  "cation": 3661,
  "igneur": 3662,
  "inaire": 3663,
  "incent": 3664,
  "ingali": 3665,
  "tiques": 3666,
  "\u00e9rieur": 3667,
  "\u2581Djama": 3668,
  "\u2581Fanga": 3669,
  "\u2581Marie": 3670,
  "\u2581Obama": 3671,
  "\u2581Ville": 3672,
  "\u2581all\u00e9e": 3673,
  "\u2581appel": 3674,
  "\u2581beaux": 3675,
  "\u2581bissa": 3676,
  "\u2581comt\u00e9": 3677,
  "\u2581djona": 3678,
  "\u2581donn\u00e9": 3679,
  "\u2581ferme": 3680,
  "\u2581forme": 3681,
  "\u2581inqui": 3682,
  "\u2581kilan": 3683,
  "\u2581koulo": 3684,
  "\u2581kuraw": 3685,
  "\u2581le\u00e7on": 3686,
  "\u2581l\u025btri": 3687,
  "\u2581magas": 3688,
  "\u2581major": 3689,
  "\u2581onhon": 3690,
  "\u2581pass\u00e9": 3691,
  "\u2581pense": 3692,
  "\u2581refus": 3693,
  "\u2581remar": 3694,
  "\u2581remer": 3695,
  "\u2581riche": 3696,
  "\u2581salle": 3697,
  "\u2581s\u0153urs": 3698,
  "\u2581yanan": 3699,
  "\u2581\u0272inin": 3700,
  "anglais": 3701,
  "anmoins": 3702,
  "ditions": 3703,
  "ignants": 3704,
  "importe": 3705,
  "lection": 3706,
  "ublique": 3707,
  "\u2581Kourou": 3708,
  "\u2581Tabali": 3709,
  "\u2581attend": 3710,
  "\u2581aucune": 3711,
  "\u2581biduru": 3712,
  "\u2581bilara": 3713,
  "\u2581chaise": 3714,
  "\u2581cogodi": 3715,
  "\u2581comple": 3716,
  "\u2581compos": 3717,
  "\u2581denmis": 3718,
  "\u2581disait": 3719,
  "\u2581domini": 3720,
  "\u2581doudou": 3721,
  "\u2581fleurs": 3722,
  "\u2581kalifa": 3723,
  "\u2581larala": 3724,
  "\u2581ma\u00eetre": 3725,
  "\u2581mettre": 3726,
  "\u2581moiti\u00e9": 3727,
  "\u2581montre": 3728,
  "\u2581nunugu": 3729,
  "\u2581papier": 3730,
  "\u2581passer": 3731,
  "\u2581prends": 3732,
  "\u2581provin": 3733,
  "\u2581rempla": 3734,
  "\u2581respec": 3735,
  "\u2581r\u00e9gime": 3736,
  "\u2581sek\u0254ra": 3737,
  "\u2581sienne": 3738,
  "\u2581sortir": 3739,
  "\u2581suguru": 3740,
  "\u2581sumani": 3741,
  "\u2581tubabu": 3742,
  "\u2581tugura": 3743,
  "\u2581\u0272agami": 3744,
  "histoire": 3745,
  "\u2581Impasse": 3746,
  "\u2581Jacques": 3747,
  "\u2581anglais": 3748,
  "\u2581baliman": 3749,
  "\u2581courage": 3750,
  "\u2581denmuso": 3751,
  "\u2581entendu": 3752,
  "\u2581gwansan": 3753,
  "\u2581kungolo": 3754,
  "\u2581logique": 3755,
  "\u2581marquis": 3756,
  "\u2581parlait": 3757,
  "\u2581pouvait": 3758,
  "\u2581propose": 3759,
  "\u2581reprend": 3760,
  "\u2581restaur": 3761,
  "\u2581silence": 3762,
  "\u2581viendra": 3763,
  "\u2581voulait": 3764,
  "\u2581w\u0254r\u0254nan": 3765,
  "\u2581Keraotre": 3766,
  "\u2581ailleurs": 3767,
  "\u2581bilasira": 3768,
  "\u2581chapelle": 3769,
  "\u2581chiennes": 3770,
  "\u2581derni\u00e8re": 3771,
  "\u2581nouveaux": 3772,
  "\u2581personna": 3773,
  "\u2581p\u00eachions": 3774,
  "\u2581\u0272inigali": 3775,
  "demoiselle": 3776,
  "\u2581autrefois": 3777,
  "\u2581difficile": 3778,
  "\u2581habitants": 3779,
  "\u2581satisfait": 3780,
  "\u2581R\u00e9publique": 3781,
  "\u2581identiques": 3782,
  "'.": 3783,
  "As": 3784,
  "Ma": 3785,
  "ee": 3786,
  "my": 3787,
  "nt": 3788,
  "sh": 3789,
  "y\u00e8": 3790,
  "\u2581(": 3791,
  "\u2581\u00bb": 3792,
  "\u2581\u00ca": 3793,
  "ase": 3794,
  "baw": 3795,
  "bil": 3796,
  "cer": 3797,
  "chu": 3798,
  "ctu": 3799,
  "dat": 3800,
  "dis": 3801,
  "eff": 3802,
  "fan": 3803,
  "fel": 3804,
  "fi\u00e9": 3805,
  "gar": 3806,
  "ilh": 3807,
  "il\u00e9": 3808,
  "it\u025b": 3809,
  "kon": 3810,
  "lis": 3811,
  "l\u00e9s": 3812,
  "mie": 3813,
  "nie": 3814,
  "nor": 3815,
  "ork": 3816,
  "or\u00e9": 3817,
  "oso": 3818,
  "oya": 3819,
  "pel": 3820,
  "pir": 3821,
  "qu\u00e9": 3822,
  "r\u025bn": 3823,
  "s\u025bn": 3824,
  "tat": 3825,
  "tru": 3826,
  "ur\u00e9": 3827,
  "uwe": 3828,
  "xte": 3829,
  "yal": 3830,
  "yau": 3831,
  "y\u025bl": 3832,
  "zak": 3833,
  "\u00e2ce": 3834,
  "\u00e2ge": 3835,
  "\u00e9v\u00ea": 3836,
  "\u0254rk": 3837,
  "\u025bru": 3838,
  "\u2581Av": 3839,
  "\u2581Dr": 3840,
  "\u2581Nn": 3841,
  "\u2581Pe": 3842,
  "\u2581S\u00e9": 3843,
  "\u2581Th": 3844,
  "\u2581V\u00e9": 3845,
  "\u2581Zi": 3846,
  "\u2581r\u00f4": 3847,
  "\u2581t\u00ea": 3848,
  "\u2581ur": 3849,
  "\u2581yo": 3850,
  "\u2581\u0254r": 3851,
  "\u2581\u025bs": 3852,
  "abet": 3853,
  "aise": 3854,
  "al\u0254n": 3855,
  "amin": 3856,
  "anie": 3857,
  "anta": 3858,
  "arra": 3859,
  "atta": 3860,
  "auff": 3861,
  "ault": 3862,
  "baya": 3863,
  "cles": 3864,
  "dara": 3865,
  "dien": 3866,
  "erne": 3867,
  "fani": 3868,
  "fond": 3869,
  "gant": 3870,
  "gili": 3871,
  "guru": 3872,
  "heim": 3873,
  "inge": 3874,
  "juma": 3875,
  "l\u00e8ve": 3876,
  "mand": 3877,
  "maya": 3878,
  "mbre": 3879,
  "mele": 3880,
  "mper": 3881,
  "m\u00e8re": 3882,
  "m\u00e9na": 3883,
  "oign": 3884,
  "onom": 3885,
  "onse": 3886,
  "oque": 3887,
  "oris": 3888,
  "pira": 3889,
  "p\u00e8re": 3890,
  "quet": 3891,
  "ribu": 3892,
  "rice": 3893,
  "rons": 3894,
  "saba": 3895,
  "sid\u00e9": 3896,
  "solu": 3897,
  "tien": 3898,
  "trie": 3899,
  "ub\u025bn": 3900,
  "utes": 3901,
  "uv\u025br": 3902,
  "yant": 3903,
  "\u0254ng\u0254": 3904,
  "\u2581Abe": 3905,
  "\u2581Abi": 3906,
  "\u2581Att": 3907,
  "\u2581Bos": 3908,
  "\u2581Cal": 3909,
  "\u2581Dal": 3910,
  "\u2581D\u00e8s": 3911,
  "\u2581Fra": 3912,
  "\u2581Jam": 3913,
  "\u2581Kul": 3914,
  "\u2581K\u0254n": 3915,
  "\u2581L\u0254n": 3916,
  "\u2581Mag": 3917,
  "\u2581Nan": 3918,
  "\u2581Pit": 3919,
  "\u2581P\u0254r": 3920,
  "\u2581Sap": 3921,
  "\u2581Sau": 3922,
  "\u2581Sit": 3923,
  "\u2581Th\u00e9": 3924,
  "\u2581Vos": 3925,
  "\u2581ble": 3926,
  "\u2581bus": 3927,
  "\u2581cri": 3928,
  "\u2581din": 3929,
  "\u2581ess": 3930,
  "\u2581exc": 3931,
  "\u2581fig": 3932,
  "\u2581fl\u025b": 3933,
  "\u2581fr\u00e8": 3934,
  "\u2581f\u0254n": 3935,
  "\u2581gn\u00e9": 3936,
  "\u2581g\u025bn": 3937,
  "\u2581jur": 3938,
  "\u2581kit": 3939,
  "\u2581kor": 3940,
  "\u2581k\u025bw": 3941,
  "\u2581len": 3942,
  "\u2581nus": 3943,
  "\u2581n\u00e9c": 3944,
  "\u2581ob\u00e9": 3945,
  "\u2581pal": 3946,
  "\u2581pom": 3947,
  "\u2581p\u025br": 3948,
  "\u2581r\u00e9s": 3949,
  "\u2581seu": 3950,
  "\u2581sty": 3951,
  "\u2581sui": 3952,
  "\u2581ubi": 3953,
  "\u2581val": 3954,
  "\u2581\u0272ak": 3955,
  "abaga": 3956,
  "ables": 3957,
  "alier": 3958,
  "amina": 3959,
  "anier": 3960,
  "apr\u00e8s": 3961,
  "conde": 3962,
  "ement": 3963,
  "enses": 3964,
  "gence": 3965,
  "illet": 3966,
  "inait": 3967,
  "ision": 3968,
  "istes": 3969,
  "itig\u025b": 3970,
  "kolon": 3971,
  "lassi": 3972,
  "mique": 3973,
  "ouvre": 3974,
  "phine": 3975,
  "quent": 3976,
  "raire": 3977,
  "ricul": 3978,
  "tient": 3979,
  "\u2581Anga": 3980,
  "\u2581Avez": 3981,
  "\u2581Bina": 3982,
  "\u2581Bise": 3983,
  "\u2581Cana": 3984,
  "\u2581Cogo": 3985,
  "\u2581Faut": 3986,
  "\u2581Juma": 3987,
  "\u2581K\u0254r\u0254": 3988,
  "\u2581K\u025bl\u025b": 3989,
  "\u2581Laur": 3990,
  "\u2581Leur": 3991,
  "\u2581Lyon": 3992,
  "\u2581Maxi": 3993,
  "\u2581N\u025bn\u025b": 3994,
  "\u2581Roch": 3995,
  "\u2581Rome": 3996,
  "\u2581Ti\u0272\u025b": 3997,
  "\u2581Voir": 3998,
  "\u2581aim\u00e8": 3999,
  "\u2581aman": 4000,
  "\u2581bari": 4001,
  "\u2581bord": 4002,
  "\u2581b\u025br\u025b": 4003,
  "\u2581ciel": 4004,
  "\u2581club": 4005,
  "\u2581croi": 4006,
  "\u2581dale": 4007,
  "\u2581dess": 4008,
  "\u2581disi": 4009,
  "\u2581djon": 4010,
  "\u2581dont": 4011,
  "\u2581duru": 4012,
  "\u2581d\u0254nk": 4013,
  "\u2581ek\u0254l": 4014,
  "\u2581foli": 4015,
  "\u2581gard": 4016,
  "\u2581golo": 4017,
  "\u2581gosi": 4018,
  "\u2581g\u00e8l\u00e8": 4019,
  "\u2581jaga": 4020,
  "\u2581joie": 4021,
  "\u2581klan": 4022,
  "\u2581k\u00e8l\u00e8": 4023,
  "\u2581lal\u0254": 4024,
  "\u2581memb": 4025,
  "\u2581ment": 4026,
  "\u2581midi": 4027,
  "\u2581munu": 4028,
  "\u2581nafa": 4029,
  "\u2581occu": 4030,
  "\u2581page": 4031,
  "\u2581plut": 4032,
  "\u2581rent": 4033,
  "\u2581salu": 4034,
  "\u2581sani": 4035,
  "\u2581seli": 4036,
  "\u2581site": 4037,
  "\u2581sour": 4038,
  "\u2581suit": 4039,
  "\u2581susp": 4040,
  "\u2581s\u0254s\u0254": 4041,
  "\u2581tant": 4042,
  "\u2581tog\u00f4": 4043,
  "\u2581trad": 4044,
  "\u2581t\u025bn\u025b": 4045,
  "\u2581vari": 4046,
  "\u2581wali": 4047,
  "amanan": 4048,
  "aurais": 4049,
  "change": 4050,
  "habite": 4051,
  "itaire": 4052,
  "jeuner": 4053,
  "k\u025by\u0254r\u0254": 4054,
  "y\u0254r\u0254la": 4055,
  "\u2581Alb\u025br": 4056,
  "\u2581Aussi": 4057,
  "\u2581Breta": 4058,
  "\u2581Celui": 4059,
  "\u2581Frans": 4060,
  "\u2581Gabri": 4061,
  "\u2581Julie": 4062,
  "\u2581Laval": 4063,
  "\u2581M\u0254g\u0254w": 4064,
  "\u2581Petit": 4065,
  "\u2581Vidal": 4066,
  "\u2581boyan": 4067,
  "\u2581chegi": 4068,
  "\u2581colon": 4069,
  "\u2581compt": 4070,
  "\u2581conte": 4071,
  "\u2581djig\u00ea": 4072,
  "\u2581d\u00e9bat": 4073,
  "\u2581falen": 4074,
  "\u2581faute": 4075,
  "\u2581films": 4076,
  "\u2581forte": 4077,
  "\u2581genre": 4078,
  "\u2581jaabi": 4079,
  "\u2581kakan": 4080,
  "\u2581k\u0254r\u0254s": 4081,
  "\u2581lam\u025bn": 4082,
  "\u2581lonni": 4083,
  "\u2581m\u00eames": 4084,
  "\u2581naiss": 4085,
  "\u2581organ": 4086,
  "\u2581perdu": 4087,
  "\u2581p\u0254rti": 4088,
  "\u2581r\u00e9ser": 4089,
  "\u2581sanji": 4090,
  "\u2581sant\u00e9": 4091,
  "\u2581souma": 4092,
  "\u2581terre": 4093,
  "\u2581ti\u0272\u025bn": 4094,
  "\u2581venus": 4095,
  "\u2581verre": 4096,
  "\u2581yelen": 4097,
  "\u2581Arr\u00eate": 4098,
  "\u2581Combat": 4099,
  "\u2581Depuis": 4100,
  "\u2581Guerre": 4101,
  "\u2581Joseph": 4102,
  "\u2581Madrid": 4103,
  "\u2581Mobili": 4104,
  "\u2581Rennes": 4105,
  "\u2581Robert": 4106,
  "\u2581S\u0254g\u0254ma": 4107,
  "\u2581accept": 4108,
  "\u2581ann\u00e9es": 4109,
  "\u2581avions": 4110,
  "\u2581binana": 4111,
  "\u2581bolila": 4112,
  "\u2581bolora": 4113,
  "\u2581cogoya": 4114,
  "\u2581compl\u00e8": 4115,
  "\u2581croyez": 4116,
  "\u2581damani": 4117,
  "\u2581dehors": 4118,
  "\u2581devons": 4119,
  "\u2581dimina": 4120,
  "\u2581dogoni": 4121,
  "\u2581donner": 4122,
  "\u2581dormir": 4123,
  "\u2581d\u00e9m\u00e9na": 4124,
  "\u2581d\u00e9put\u00e9": 4125,
  "\u2581d\u0254kt\u025br": 4126,
  "\u2581fantan": 4127,
  "\u2581fil\u025bri": 4128,
  "\u2581fr\u00e8res": 4129,
  "\u2581grosse": 4130,
  "\u2581habite": 4131,
  "\u2581kabako": 4132,
  "\u2581kamele": 4133,
  "\u2581kilara": 4134,
  "\u2581lanib\u025b": 4135,
  "\u2581mesure": 4136,
  "\u2581milieu": 4137,
  "\u2581min\u025bna": 4138,
  "\u2581niveau": 4139,
  "\u2581pensez": 4140,
  "\u2581pleure": 4141,
  "\u2581press\u00e9": 4142,
  "\u2581regret": 4143,
  "\u2581religi": 4144,
  "\u2581rester": 4145,
  "\u2581retire": 4146,
  "\u2581r\u00e9alis": 4147,
  "\u2581saison": 4148,
  "\u2581second": 4149,
  "\u2581sinema": 4150,
  "\u2581teric\u025b": 4151,
  "\u2581tounou": 4152,
  "\u2581toutes": 4153,
  "\u2581viande": 4154,
  "\u2581vienne": 4155,
  "\u2581wilila": 4156,
  "\u2581\u00e9tudie": 4157,
  "\u2581\u0272iniga": 4158,
  "\u2581\u0272\u0254g\u0254nw": 4159,
  "ignement": 4160,
  "k\u0254n\u0254nt\u0254n": 4161,
  "\u2581Bernard": 4162,
  "\u2581Kumakan": 4163,
  "\u2581Quimper": 4164,
  "\u2581Sigilan": 4165,
  "\u2581Vincent": 4166,
  "\u2581aimeras": 4167,
  "\u2581apparti": 4168,
  "\u2581apprend": 4169,
  "\u2581bient\u00f4t": 4170,
  "\u2581bissaba": 4171,
  "\u2581biw\u0254\u0254r\u0254": 4172,
  "\u2581blanche": 4173,
  "\u2581chanson": 4174,
  "\u2581c\u025bmanc\u025b": 4175,
  "\u2581demeure": 4176,
  "\u2581descend": 4177,
  "\u2581dusukun": 4178,
  "\u2581d\u00e9fendu": 4179,
  "\u2581esp\u00e8ces": 4180,
  "\u2581faisait": 4181,
  "\u2581journ\u00e9e": 4182,
  "\u2581magasin": 4183,
  "\u2581membres": 4184,
  "\u2581minutes": 4185,
  "\u2581pr\u00e9f\u00e8re": 4186,
  "\u2581p\u00eachait": 4187,
  "\u2581rapport": 4188,
  "\u2581restait": 4189,
  "\u2581r\u00e9alit\u00e9": 4190,
  "\u2581siranya": 4191,
  "\u2581village": 4192,
  "issements": 4193,
  "\u2581Certains": 4194,
  "\u2581Laurence": 4195,
  "\u2581accident": 4196,
  "\u2581aim\u00e8rent": 4197,
  "\u2581attendre": 4198,
  "\u2581bataille": 4199,
  "\u2581communes": 4200,
  "\u2581diverses": 4201,
  "\u2581kinibolo": 4202,
  "\u2581musomani": 4203,
  "\u2581remercie": 4204,
  "\u2581remporte": 4205,
  "\u2581retrouve": 4206,
  "\u2581sigiy\u0254r\u0254": 4207,
  "\u2581t\u025bm\u025bsira": 4208,
  "\u2581viendrai": 4209,
  "\u2581viennent": 4210,
  "\u2581Cependant": 4211,
  "\u2581certaines": 4212,
  "\u2581cinqui\u00e8me": 4213,
  "\u2581comprends": 4214,
  "\u2581notamment": 4215,
  "\u2581probl\u00e8mes": 4216,
  "\u2581troisi\u00e8me": 4217,
  "\u2581bik\u0254n\u0254nt\u0254n": 4218,
  "\u2581rapidement": 4219,
  "\u2581travailler": 4220,
  "\u2581d\u00e9partement": 4221,
  "\u2581extr\u00eamement": 4222,
  "\u2581proposition": 4223,
  "RI": 4224,
  "br": 4225,
  "dy": 4226,
  "kt": 4227,
  "o\u00f9": 4228,
  "zy": 4229,
  "\u0254d": 4230,
  "\u0272\u0254": 4231,
  "Uni": 4232,
  "ab\u0254": 4233,
  "ac\u025b": 4234,
  "aki": 4235,
  "ako": 4236,
  "anw": 4237,
  "bel": 4238,
  "bit": 4239,
  "bru": 4240,
  "bus": 4241,
  "b\u0254n": 4242,
  "ct\u00e9": 4243,
  "din": 4244,
  "di\u00e9": 4245,
  "dro": 4246,
  "d\u0254r": 4247,
  "ean": 4248,
  "esi": 4249,
  "far": 4250,
  "fis": 4251,
  "fle": 4252,
  "gen": 4253,
  "gn\u00e9": 4254,
  "gol": 4255,
  "gr\u00e9": 4256,
  "gw\u025b": 4257,
  "iel": 4258,
  "ink": 4259,
  "isc": 4260,
  "iya": 4261,
  "jon": 4262,
  "j\u0254n": 4263,
  "kas": 4264,
  "kle": 4265,
  "kol": 4266,
  "lam": 4267,
  "mal": 4268,
  "nal": 4269,
  "olf": 4270,
  "oly": 4271,
  "omm": 4272,
  "oun": 4273,
  "pan": 4274,
  "pon": 4275,
  "p\u025bl": 4276,
  "qua": 4277,
  "rac": 4278,
  "rag": 4279,
  "ray": 4280,
  "riw": 4281,
  "r\u025bd": 4282,
  "siw": 4283,
  "toi": 4284,
  "ute": 4285,
  "v\u00e9e": 4286,
  "yak": 4287,
  "zie": 4288,
  "\u00e8b\u00ea": 4289,
  "\u00e8m\u00e8": 4290,
  "\u00e9r\u00e9": 4291,
  "\u025bb\u025b": 4292,
  "\u025bst": 4293,
  "\u0272\u0254l": 4294,
  "\u2581B\u00e8": 4295,
  "\u2581C\u00f4": 4296,
  "\u2581DA": 4297,
  "\u2581It": 4298,
  "\u2581Ke": 4299,
  "\u2581LA": 4300,
  "\u2581Ly": 4301,
  "\u2581Ol": 4302,
  "\u2581Pd": 4303,
  "\u2581P\u00e9": 4304,
  "\u2581Ru": 4305,
  "\u2581Sh": 4306,
  "\u2581Ur": 4307,
  "\u2581af": 4308,
  "\u2581aj": 4309,
  "\u2581g\u00e8": 4310,
  "\u2581is": 4311,
  "\u2581l\u00e2": 4312,
  "\u2581l\u00e8": 4313,
  "\u2581l\u00f4": 4314,
  "\u2581l\u025b": 4315,
  "\u2581om": 4316,
  "\u2581pp": 4317,
  "\u2581w\u025b": 4318,
  "\u2581\u00c9t": 4319,
  "\u2581\u0190l": 4320,
  "Baro": 4321,
  "abou": 4322,
  "arr\u00ea": 4323,
  "aule": 4324,
  "ayer": 4325,
  "bres": 4326,
  "ceau": 4327,
  "d\u0254ni": 4328,
  "ella": 4329,
  "fil\u025b": 4330,
  "fina": 4331,
  "gier": 4332,
  "gram": 4333,
  "ilde": 4334,
  "ings": 4335,
  "int\u00e9": 4336,
  "ires": 4337,
  "iris": 4338,
  "itif": 4339,
  "jigi": 4340,
  "kari": 4341,
  "k\u025bn\u025b": 4342,
  "k\u025bto": 4343,
  "masi": 4344,
  "mura": 4345,
  "m\u025bni": 4346,
  "oiss": 4347,
  "onio": 4348,
  "onn\u00e9": 4349,
  "otte": 4350,
  "para": 4351,
  "phie": 4352,
  "quel": 4353,
  "rade": 4354,
  "rand": 4355,
  "r\u00f4le": 4356,
  "taga": 4357,
  "tent": 4358,
  "t\u00e9ri": 4359,
  "uret": 4360,
  "user": 4361,
  "vage": 4362,
  "vier": 4363,
  "voie": 4364,
  "yasi": 4365,
  "\u025bksi": 4366,
  "\u2581Ant": 4367,
  "\u2581Ari": 4368,
  "\u2581Auc": 4369,
  "\u2581Ban": 4370,
  "\u2581Ben": 4371,
  "\u2581Bra": 4372,
  "\u2581Cap": 4373,
  "\u2581Cla": 4374,
  "\u2581Cou": 4375,
  "\u2581Dar": 4376,
  "\u2581Dav": 4377,
  "\u2581Dix": 4378,
  "\u2581Dom": 4379,
  "\u2581Dow": 4380,
  "\u2581Dub": 4381,
  "\u2581Ele": 4382,
  "\u2581Far": 4383,
  "\u2581For": 4384,
  "\u2581Fou": 4385,
  "\u2581Han": 4386,
  "\u2581Ika": 4387,
  "\u2581Jii": 4388,
  "\u2581Kat": 4389,
  "\u2581Kol": 4390,
  "\u2581Lot": 4391,
  "\u2581Mah": 4392,
  "\u2581Mam": 4393,
  "\u2581Met": 4394,
  "\u2581Mis": 4395,
  "\u2581Mor": 4396,
  "\u2581New": 4397,
  "\u2581Ora": 4398,
  "\u2581Ouv": 4399,
  "\u2581Pat": 4400,
  "\u2581Pey": 4401,
  "\u2581Pro": 4402,
  "\u2581Ras": 4403,
  "\u2581Ros": 4404,
  "\u2581Seu": 4405,
  "\u2581Sud": 4406,
  "\u2581Sus": 4407,
  "\u2581Tr\u00e9": 4408,
  "\u2581aba": 4409,
  "\u2581alf": 4410,
  "\u2581anu": 4411,
  "\u2581bru": 4412,
  "\u2581cat": 4413,
  "\u2581cl\u00e9": 4414,
  "\u2581cre": 4415,
  "\u2581dol": 4416,
  "\u2581eki": 4417,
  "\u2581faa": 4418,
  "\u2581fur": 4419,
  "\u2581f\u0254r": 4420,
  "\u2581ing": 4421,
  "\u2581ini": 4422,
  "\u2581jag": 4423,
  "\u2581jal": 4424,
  "\u2581jat": 4425,
  "\u2581jet": 4426,
  "\u2581laj": 4427,
  "\u2581niw": 4428,
  "\u2581obi": 4429,
  "\u2581oli": 4430,
  "\u2581olo": 4431,
  "\u2581pi\u00e8": 4432,
  "\u2581rub": 4433,
  "\u2581sep": 4434,
  "\u2581ski": 4435,
  "\u2581sod": 4436,
  "\u2581sun": 4437,
  "\u2581s\u00e9e": 4438,
  "\u2581tag": 4439,
  "\u2581tap": 4440,
  "\u2581tcj": 4441,
  "\u2581tit": 4442,
  "\u2581tlo": 4443,
  "\u2581tru": 4444,
  "\u2581vac": 4445,
  "\u2581voi": 4446,
  "\u2581yal": 4447,
  "\u2581y\u025bn": 4448,
  "\u2581zen": 4449,
  "aider": 4450,
  "aller": 4451,
  "ameau": 4452,
  "ances": 4453,
  "angue": 4454,
  "areil": 4455,
  "arm\u00e9e": 4456,
  "asion": 4457,
  "chine": 4458,
  "dence": 4459,
  "dente": 4460,
  "diale": 4461,
  "drale": 4462,
  "embre": 4463,
  "ffres": 4464,
  "filan": 4465,
  "ilani": 4466,
  "indus": 4467,
  "istra": 4468,
  "lique": 4469,
  "li\u00e8re": 4470,
  "ni\u00e8re": 4471,
  "ochet": 4472,
  "ognac": 4473,
  "pionn": 4474,
  "rirez": 4475,
  "teman": 4476,
  "urope": 4477,
  "zaine": 4478,
  "\u025bsig\u025b": 4479,
  "\u2581Cent": 4480,
  "\u2581Chau": 4481,
  "\u2581Deen": 4482,
  "\u2581Flor": 4483,
  "\u2581Gren": 4484,
  "\u2581Joli": 4485,
  "\u2581Land": 4486,
  "\u2581Long": 4487,
  "\u2581L\u00e9on": 4488,
  "\u2581Malo": 4489,
  "\u2581M\u00eame": 4490,
  "\u2581Nord": 4491,
  "\u2581P\u00e8re": 4492,
  "\u2581Vive": 4493,
  "\u2581York": 4494,
  "\u2581Y\u00e8l\u00e8": 4495,
  "\u2581amis": 4496,
  "\u2581anni": 4497,
  "\u2581arti": 4498,
  "\u2581baro": 4499,
  "\u2581basi": 4500,
  "\u2581bora": 4501,
  "\u2581boro": 4502,
  "\u2581buru": 4503,
  "\u2581b\u00e8yi": 4504,
  "\u2581cana": 4505,
  "\u2581chat": 4506,
  "\u2581dafa": 4507,
  "\u2581dala": 4508,
  "\u2581dian": 4509,
  "\u2581dron": 4510,
  "\u2581envo": 4511,
  "\u2581erre": 4512,
  "\u2581fak\u025b": 4513,
  "\u2581fer\u00e9": 4514,
  "\u2581four": 4515,
  "\u2581frag": 4516,
  "\u2581f\u00e8ka": 4517,
  "\u2581f\u00f4ra": 4518,
  "\u2581gama": 4519,
  "\u2581jala": 4520,
  "\u2581juge": 4521,
  "\u2581j\u0254r\u0254": 4522,
  "\u2581kasa": 4523,
  "\u2581kasi": 4524,
  "\u2581kili": 4525,
  "\u2581kilo": 4526,
  "\u2581kiun": 4527,
  "\u2581koum": 4528,
  "\u2581kuna": 4529,
  "\u2581k\u025bta": 4530,
  "\u2581lab\u0254": 4531,
  "\u2581loni": 4532,
  "\u2581lugu": 4533,
  "\u2581l\u0254ra": 4534,
  "\u2581masa": 4535,
  "\u2581ma\u00eet": 4536,
  "\u2581mine": 4537,
  "\u2581misi": 4538,
  "\u2581mour": 4539,
  "\u2581m\u025bn\u025b": 4540,
  "\u2581n\u00f4g\u00f4": 4541,
  "\u2581n\u0254n\u0254": 4542,
  "\u2581n\u0254r\u0254": 4543,
  "\u2581para": 4544,
  "\u2581phot": 4545,
  "\u2581poli": 4546,
  "\u2581prie": 4547,
  "\u2581rais": 4548,
  "\u2581rang": 4549,
  "\u2581rass": 4550,
  "\u2581r\u00e9si": 4551,
  "\u2581r\u00e9ve": 4552,
  "\u2581r\u00eave": 4553,
  "\u2581sala": 4554,
  "\u2581sek\u0254": 4555,
  "\u2581soli": 4556,
  "\u2581sugu": 4557,
  "\u2581tele": 4558,
  "\u2581tort": 4559,
  "\u2581voie": 4560,
  "\u2581vont": 4561,
  "\u2581wulu": 4562,
  "\u2581w\u00f4r\u00f4": 4563,
  "\u2581y\u00e8na": 4564,
  "\u2581\u00cates": 4565,
  "\u2581\u00e9nor": 4566,
  "\u2581\u00e9qui": 4567,
  "\u2581\u0272uma": 4568,
  "andale": 4569,
  "dessus": 4570,
  "esseur": 4571,
  "issait": 4572,
  "latig\u025b": 4573,
  "l\u00e8rent": 4574,
  "missin": 4575,
  "ologie": 4576,
  "relles": 4577,
  "r\u00e9sent": 4578,
  "treize": 4579,
  "ugandi": 4580,
  "urieux": 4581,
  "vement": 4582,
  "\u00e9quipe": 4583,
  "\u2581Andr\u00e9": 4584,
  "\u2581B\u025bg\u025bn": 4585,
  "\u2581Cinqu": 4586,
  "\u2581Mouna": 4587,
  "\u2581Onhon": 4588,
  "\u2581Phili": 4589,
  "\u2581Puits": 4590,
  "\u2581Roman": 4591,
  "\u2581Voici": 4592,
  "\u2581admin": 4593,
  "\u2581aim\u00e9e": 4594,
  "\u2581album": 4595,
  "\u2581ameri": 4596,
  "\u2581artis": 4597,
  "\u2581baden": 4598,
  "\u2581bal\u0254n": 4599,
  "\u2581benna": 4600,
  "\u2581blanc": 4601,
  "\u2581boute": 4602,
  "\u2581brave": 4603,
  "\u2581coll\u00e8": 4604,
  "\u2581confi": 4605,
  "\u2581conse": 4606,
  "\u2581court": 4607,
  "\u2581djati": 4608,
  "\u2581djigi": 4609,
  "\u2581d\u00e9rou": 4610,
  "\u2581entra": 4611,
  "\u2581envie": 4612,
  "\u2581ferez": 4613,
  "\u2581filmu": 4614,
  "\u2581fissa": 4615,
  "\u2581force": 4616,
  "\u2581front": 4617,
  "\u2581gr\u00e2ce": 4618,
  "\u2581infor": 4619,
  "\u2581jaama": 4620,
  "\u2581janfa": 4621,
  "\u2581kalen": 4622,
  "\u2581kapit": 4623,
  "\u2581komin": 4624,
  "\u2581kunko": 4625,
  "\u2581ladon": 4626,
  "\u2581lamin": 4627,
  "\u2581lever": 4628,
  "\u2581libre": 4629,
  "\u2581mari\u00e9": 4630,
  "\u2581maxim": 4631,
  "\u2581min\u025bn": 4632,
  "\u2581mod\u025bl": 4633,
  "\u2581musow": 4634,
  "\u2581noire": 4635,
  "\u2581nus\u0254n": 4636,
  "\u2581olugu": 4637,
  "\u2581papie": 4638,
  "\u2581plasi": 4639,
  "\u2581pours": 4640,
  "\u2581prise": 4641,
  "\u2581pr\u00e9f\u00e9": 4642,
  "\u2581radio": 4643,
  "\u2581saint": 4644,
  "\u2581siy\u025bn": 4645,
  "\u2581s\u00e9rie": 4646,
  "\u2581teriw": 4647,
  "\u2581tiens": 4648,
  "\u2581tombe": 4649,
  "\u2581vrais": 4650,
  "\u2581youma": 4651,
  "\u2581\u00e9cole": 4652,
  "\u2581\u00e9pous": 4653,
  "\u2581\u00e9tiez": 4654,
  "\u2581\u0254nh\u0254n": 4655,
  "Baroeul": 4656,
  "attends": 4657,
  "entends": 4658,
  "filanan": 4659,
  "f\u00e9rence": 4660,
  "itation": 4661,
  "itution": 4662,
  "olution": 4663,
  "\u00e9riment": 4664,
  "\u00e9roport": 4665,
  "\u00e9taient": 4666,
  "\u2581Allons": 4667,
  "\u2581Berlin": 4668,
  "\u2581Bisaba": 4669,
  "\u2581Chaque": 4670,
  "\u2581Kalans": 4671,
  "\u2581Kamele": 4672,
  "\u2581Lucien": 4673,
  "\u2581Maxime": 4674,
  "\u2581Quelqu": 4675,
  "\u2581Square": 4676,
  "\u2581accomp": 4677,
  "\u2581amande": 4678,
  "\u2581amoure": 4679,
  "\u2581ancien": 4680,
  "\u2581appris": 4681,
  "\u2581aviy\u0254n": 4682,
  "\u2581chasse": 4683,
  "\u2581confir": 4684,
  "\u2581contra": 4685,
  "\u2581day\u025bl\u025b": 4686,
  "\u2581double": 4687,
  "\u2581d\u00e9cide": 4688,
  "\u2581erreur": 4689,
  "\u2581existe": 4690,
  "\u2581frappa": 4691,
  "\u2581gouver": 4692,
  "\u2581jardin": 4693,
  "\u2581juk\u0254r\u0254": 4694,
  "\u2581kuntan": 4695,
  "\u2581laiss\u00e9": 4696,
  "\u2581lanilo": 4697,
  "\u2581latig\u025b": 4698,
  "\u2581marala": 4699,
  "\u2581marche": 4700,
  "\u2581minisi": 4701,
  "\u2581miniti": 4702,
  "\u2581nimoro": 4703,
  "\u2581ordres": 4704,
  "\u2581plut\u00f4t": 4705,
  "\u2581popula": 4706,
  "\u2581pourra": 4707,
  "\u2581prison": 4708,
  "\u2581propri": 4709,
  "\u2581refroi": 4710,
  "\u2581refuse": 4711,
  "\u2581r\u00e9ussi": 4712,
  "\u2581sabari": 4713,
  "\u2581serons": 4714,
  "\u2581servir": 4715,
  "\u2581sigida": 4716,
  "\u2581sigila": 4717,
  "\u2581sig\u025bna": 4718,
  "\u2581simple": 4719,
  "\u2581sirana": 4720,
  "\u2581suffis": 4721,
  "\u2581suffit": 4722,
  "\u2581s\u025bb\u025bra": 4723,
  "\u2581tamana": 4724,
  "\u2581tch\u00e8ma": 4725,
  "\u2581tourn\u00e9": 4726,
  "\u2581tumad\u0254": 4727,
  "\u2581venait": 4728,
  "\u2581wulaf\u025b": 4729,
  "\u2581yirala": 4730,
  "\u2581y\u0254r\u0254ni": 4731,
  "ailleurs": 4732,
  "solument": 4733,
  "\u2581Pauline": 4734,
  "\u2581Quelque": 4735,
  "\u2581aimerez": 4736,
  "\u2581apporte": 4737,
  "\u2581attendu": 4738,
  "\u2581certain": 4739,
  "\u2581chevaux": 4740,
  "\u2581ch\u00e2teau": 4741,
  "\u2581compren": 4742,
  "\u2581disparu": 4743,
  "\u2581djourou": 4744,
  "\u2581d\u00e9clara": 4745,
  "\u2581exemple": 4746,
  "\u2581gar\u00e7ons": 4747,
  "\u2581grandit": 4748,
  "\u2581joueurs": 4749,
  "\u2581marcher": 4750,
  "\u2581murmura": 4751,
  "\u2581musique": 4752,
  "\u2581m\u00e9decin": 4753,
  "\u2581parfois": 4754,
  "\u2581produit": 4755,
  "\u2581pr\u00e9occu": 4756,
  "\u2581remonte": 4757,
  "\u2581semaine": 4758,
  "\u2581soci\u00e9t\u00e9": 4759,
  "\u2581soldats": 4760,
  "\u2581sortent": 4761,
  "\u2581succ\u00e8de": 4762,
  "\u2581sugandi": 4763,
  "\u2581veulent": 4764,
  "\u2581\u00e9coutez": 4765,
  "\u2581\u00e9crivit": 4766,
  "\u2581\u0272ininga": 4767,
  "pposition": 4768,
  "\u2581Aurillac": 4769,
  "\u2581Babochet": 4770,
  "\u2581Quelques": 4771,
  "\u2581aimerais": 4772,
  "\u2581b\u00e2timent": 4773,
  "\u2581chiffres": 4774,
  "\u2581dugukolo": 4775,
  "\u2581lunettes": 4776,
  "\u2581mondiale": 4777,
  "\u2581objectif": 4778,
  "\u2581pourtant": 4779,
  "\u2581publique": 4780,
  "\u2581remplac\u00e9": 4781,
  "\u2581scandale": 4782,
  "\u2581signifie": 4783,
  "\u2581sig\u025bsig\u025b": 4784,
  "\u2581sin\u0254g\u0254ra": 4785,
  "\u2581tougouni": 4786,
  "\u2581t\u00e9l\u00e9phon": 4787,
  "\u2581y\u025br\u025bs\u0254r\u0254": 4788,
  "\u2581\u0272anamanw": 4789,
  "\u2581\u0272anamaya": 4790,
  "accompagne": 4791,
  "\u2581Boulevard": 4792,
  "\u2581Keraotred": 4793,
  "\u2581Plusieurs": 4794,
  "\u2581amandeman": 4795,
  "\u2581am\u00e9ricain": 4796,
  "\u2581bouteille": 4797,
  "\u2581direction": 4798,
  "\u2581fran\u00e7aise": 4799,
  "\u2581maintiens": 4800,
  "\u2581meilleure": 4801,
  "\u2581naissance": 4802,
  "\u2581reconnais": 4803,
  "\u2581t\u00e9l\u00e9phone": 4804,
  "\u2581administra": 4805,
  "\u2581appartient": 4806,
  "\u2581changement": 4807,
  "\u2581dispositif": 4808,
  "\u2581importante": 4809,
  "\u2581originaire": 4810,
  "\u2581pr\u00e9sidente": 4811,
  "\u2581rapporteur": 4812,
  "\u2581restaurant": 4813,
  "?!": 4814,
  "Af": 4815,
  "En": 4816,
  "In": 4817,
  "Mi": 4818,
  "az": 4819,
  "a\u00ef": 4820,
  "b\u00f4": 4821,
  "ds": 4822,
  "gr": 4823,
  "iz": 4824,
  "m\u00ea": 4825,
  "oy": 4826,
  "ty": 4827,
  "y\u025b": 4828,
  "z\u025b": 4829,
  "\u025bf": 4830,
  "EAN": 4831,
  "at\u0254": 4832,
  "ava": 4833,
  "cor": 4834,
  "cre": 4835,
  "c\u025bn": 4836,
  "esc": 4837,
  "fon": 4838,
  "f\u0254n": 4839,
  "gap": 4840,
  "gis": 4841,
  "got": 4842,
  "his": 4843,
  "hum": 4844,
  "itt": 4845,
  "ket": 4846,
  "kir": 4847,
  "k\u0254r": 4848,
  "lab": 4849,
  "ley": 4850,
  "lie": 4851,
  "lit": 4852,
  "l\u00e8s": 4853,
  "mez": 4854,
  "mpi": 4855,
  "m\u00e9s": 4856,
  "m\u025bn": 4857,
  "net": 4858,
  "nez": 4859,
  "nis": 4860,
  "oit": 4861,
  "old": 4862,
  "oru": 4863,
  "oud": 4864,
  "pie": 4865,
  "pol": 4866,
  "p\u025bn": 4867,
  "p\u025br": 4868,
  "rad": 4869,
  "rem": 4870,
  "rip": 4871,
  "rol": 4872,
  "sit": 4873,
  "ssa": 4874,
  "ss\u00e9": 4875,
  "ube": 4876,
  "uil": 4877,
  "ult": 4878,
  "ul\u00e9": 4879,
  "upp": 4880,
  "usa": 4881,
  "vra": 4882,
  "v\u025bl": 4883,
  "wan": 4884,
  "war": 4885,
  "yar": 4886,
  "z\u025br": 4887,
  "\u00e2me": 4888,
  "\u00e9l\u00e8": 4889,
  "\u00e9qu": 4890,
  "\u00eene": 4891,
  "\u00f4ne": 4892,
  "\u0254mp": 4893,
  "\u0254pu": 4894,
  "\u025btr": 4895,
  "\u0272ak": 4896,
  "\u2581At": 4897,
  "\u2581Cr": 4898,
  "\u2581Ed": 4899,
  "\u2581Kr": 4900,
  "\u2581Ku": 4901,
  "\u2581Ya": 4902,
  "\u2581Ze": 4903,
  "\u2581cu": 4904,
  "\u2581cy": 4905,
  "\u2581c\u0254": 4906,
  "\u2581el": 4907,
  "\u2581h\u025b": 4908,
  "\u2581j\u025b": 4909,
  "\u2581k\u00ea": 4910,
  "\u2581py": 4911,
  "\u2581\u00c9m": 4912,
  "\u2581\u0186r": 4913,
  "\u2581\u0190s": 4914,
  "Jean": 4915,
  "Paul": 4916,
  "abre": 4917,
  "aima": 4918,
  "apon": 4919,
  "arch": 4920,
  "arda": 4921,
  "ardi": 4922,
  "bali": 4923,
  "bara": 4924,
  "bout": 4925,
  "b\u025bni": 4926,
  "chez": 4927,
  "cifi": 4928,
  "ctor": 4929,
  "eaux": 4930,
  "elez": 4931,
  "ens\u00e9": 4932,
  "enti": 4933,
  "eral": 4934,
  "erts": 4935,
  "euil": 4936,
  "fine": 4937,
  "fred": 4938,
  "gers": 4939,
  "gnan": 4940,
  "gnes": 4941,
  "illy": 4942,
  "inec": 4943,
  "in\u00e9e": 4944,
  "iras": 4945,
  "ista": 4946,
  "iter": 4947,
  "ivru": 4948,
  "kali": 4949,
  "kis\u025b": 4950,
  "k\u025bri": 4951,
  "lard": 4952,
  "leil": 4953,
  "lure": 4954,
  "mine": 4955,
  "nest": 4956,
  "oirs": 4957,
  "oise": 4958,
  "ort\u00e9": 4959,
  "ossi": 4960,
  "otal": 4961,
  "riez": 4962,
  "rist": 4963,
  "rite": 4964,
  "rive": 4965,
  "rond": 4966,
  "roux": 4967,
  "rupu": 4968,
  "sila": 4969,
  "susc": 4970,
  "tage": 4971,
  "tera": 4972,
  "timi": 4973,
  "ugou": 4974,
  "ugun": 4975,
  "ulen": 4976,
  "ulte": 4977,
  "unal": 4978,
  "ut\u00e9s": 4979,
  "uwar": 4980,
  "veur": 4981,
  "vons": 4982,
  "vres": 4983,
  "yais": 4984,
  "yait": 4985,
  "\u00c9tat": 4986,
  "\u00e2tes": 4987,
  "\u00e7ait": 4988,
  "\u00e8mes": 4989,
  "\u00e9sus": 4990,
  "\u00e9tat": 4991,
  "\u00eache": 4992,
  "\u00f4tel": 4993,
  "\u025bniw": 4994,
  "\u2581Ab\u00e9": 4995,
  "\u2581Ain": 4996,
  "\u2581Ast": 4997,
  "\u2581Avi": 4998,
  "\u2581Bas": 4999,
  "\u2581Bid": 5000,
  "\u2581B\u025br": 5001,
  "\u2581Cos": 5002,
  "\u2581Dit": 5003,
  "\u2581Exc": 5004,
  "\u2581Exp": 5005,
  "\u2581Fau": 5006,
  "\u2581Fre": 5007,
  "\u2581Gal": 5008,
  "\u2581God": 5009,
  "\u2581Gre": 5010,
  "\u2581Guy": 5011,
  "\u2581Gu\u00e9": 5012,
  "\u2581Hon": 5013,
  "\u2581Iyi": 5014,
  "\u2581Jim": 5015,
  "\u2581J\u025bn": 5016,
  "\u2581Lac": 5017,
  "\u2581Lan": 5018,
  "\u2581Lar": 5019,
  "\u2581Lun": 5020,
  "\u2581Mak": 5021,
  "\u2581Mol": 5022,
  "\u2581Pal": 5023,
  "\u2581Pau": 5024,
  "\u2581Pla": 5025,
  "\u2581P\u0254n": 5026,
  "\u2581Rol": 5027,
  "\u2581R\u025bn": 5028,
  "\u2581Six": 5029,
  "\u2581Ten": 5030,
  "\u2581Ter": 5031,
  "\u2581Tho": 5032,
  "\u2581Ven": 5033,
  "\u2581V\u025bn": 5034,
  "\u2581Wul": 5035,
  "\u2581Yin": 5036,
  "\u2581Zak": 5037,
  "\u2581Z\u0254r": 5038,
  "\u2581ahh": 5039,
  "\u2581ama": 5040,
  "\u2581ari": 5041,
  "\u2581aug": 5042,
  "\u2581aya": 5043,
  "\u2581b\u025bl": 5044,
  "\u2581cam": 5045,
  "\u2581cho": 5046,
  "\u2581dag": 5047,
  "\u2581ded": 5048,
  "\u2581def": 5049,
  "\u2581dun": 5050,
  "\u2581ero": 5051,
  "\u2581fac": 5052,
  "\u2581fli": 5053,
  "\u2581fum": 5054,
  "\u2581f\u0254\u0254": 5055,
  "\u2581gob": 5056,
  "\u2581gon": 5057,
  "\u2581gw\u025b": 5058,
  "\u2581hau": 5059,
  "\u2581jak": 5060,
  "\u2581j\u025bk": 5061,
  "\u2581kab": 5062,
  "\u2581kam": 5063,
  "\u2581kol": 5064,
  "\u2581law": 5065,
  "\u2581lay": 5066,
  "\u2581lut": 5067,
  "\u2581meu": 5068,
  "\u2581mic": 5069,
  "\u2581moy": 5070,
  "\u2581n\u0254n": 5071,
  "\u2581n\u0254r": 5072,
  "\u2581pes": 5073,
  "\u2581pou": 5074,
  "\u2581pre": 5075,
  "\u2581pr\u00ea": 5076,
  "\u2581p\u00e9r": 5077,
  "\u2581ras": 5078,
  "\u2581r\u00e9v": 5079,
  "\u2581saa": 5080,
  "\u2581sup": 5081,
  "\u2581s\u00e9p": 5082,
  "\u2581tel": 5083,
  "\u2581tig": 5084,
  "\u2581t\u00f4t": 5085,
  "\u2581t\u0254w": 5086,
  "\u2581vig": 5087,
  "\u2581vin": 5088,
  "\u2581vue": 5089,
  "\u2581v\u025bn": 5090,
  "\u2581war": 5091,
  "\u2581wol": 5092,
  "\u2581\u00e2me": 5093,
  "\u2581\u00e9li": 5094,
  "\u2581\u0254h\u0254": 5095,
  "\u2581\u025bri": 5096,
  "\u2581\u025bsi": 5097,
  "achet": 5098,
  "anden": 5099,
  "ardon": 5100,
  "ataga": 5101,
  "ature": 5102,
  "audin": 5103,
  "caine": 5104,
  "cales": 5105,
  "court": 5106,
  "crits": 5107,
  "cture": 5108,
  "dagas": 5109,
  "entez": 5110,
  "erine": 5111,
  "ffect": 5112,
  "forme": 5113,
  "gumes": 5114,
  "g\u00e9rie": 5115,
  "huiti": 5116,
  "ierge": 5117,
  "igini": 5118,
  "ilara": 5119,
  "illir": 5120,
  "ilote": 5121,
  "irent": 5122,
  "isigi": 5123,
  "isira": 5124,
  "itent": 5125,
  "mante": 5126,
  "minin": 5127,
  "moire": 5128,
  "m\u00e9dia": 5129,
  "neman": 5130,
  "oc\u00e8se": 5131,
  "odore": 5132,
  "ol\u00e9on": 5133,
  "ouest": 5134,
  "ph\u00e8re": 5135,
  "prise": 5136,
  "quels": 5137,
  "ressi": 5138,
  "seize": 5139,
  "truit": 5140,
  "ument": 5141,
  "yaume": 5142,
  "\u00e9cria": 5143,
  "\u00e9rit\u00e9": 5144,
  "\u0272uman": 5145,
  "\u2581Blan": 5146,
  "\u2581Boli": 5147,
  "\u2581Bran": 5148,
  "\u2581Chou": 5149,
  "\u2581Comb": 5150,
  "\u2581Comm": 5151,
  "\u2581Croi": 5152,
  "\u2581Donc": 5153,
  "\u2581Film": 5154,
  "\u2581Font": 5155,
  "\u2581Haut": 5156,
  "\u2581JEAN": 5157,
  "\u2581Kalo": 5158,
  "\u2581Komi": 5159,
  "\u2581Koni": 5160,
  "\u2581Mark": 5161,
  "\u2581Mary": 5162,
  "\u2581Mire": 5163,
  "\u2581M\u00e8re": 5164,
  "\u2581Neuf": 5165,
  "\u2581Nouv": 5166,
  "\u2581Saya": 5167,
  "\u2581Sous": 5168,
  "\u2581S\u00e8b\u00e8": 5169,
  "\u2581Taga": 5170,
  "\u2581Tony": 5171,
  "\u2581Vert": 5172,
  "\u2581Veux": 5173,
  "\u2581Voix": 5174,
  "\u2581Y\u00f4r\u00f4": 5175,
  "\u2581Y\u025bl\u025b": 5176,
  "\u2581alli": 5177,
  "\u2581arro": 5178,
  "\u2581atta": 5179,
  "\u2581auto": 5180,
  "\u2581bapt": 5181,
  "\u2581bure": 5182,
  "\u2581cara": 5183,
  "\u2581coh\u00e9": 5184,
  "\u2581cond": 5185,
  "\u2581cuis": 5186,
  "\u2581dame": 5187,
  "\u2581date": 5188,
  "\u2581dest": 5189,
  "\u2581dibi": 5190,
  "\u2581digi": 5191,
  "\u2581dir\u025b": 5192,
  "\u2581donn": 5193,
  "\u2581duur": 5194,
  "\u2581d\u00e9ta": 5195,
  "\u2581end\u00e9": 5196,
  "\u2581fank": 5197,
  "\u2581fat\u0254": 5198,
  "\u2581fera": 5199,
  "\u2581folo": 5200,
  "\u2581f\u00eate": 5201,
  "\u2581f\u00f4l\u00f4": 5202,
  "\u2581f\u0254la": 5203,
  "\u2581f\u025br\u025b": 5204,
  "\u2581go\u00fbt": 5205,
  "\u2581gw\u025bn": 5206,
  "\u2581g\u00eal\u00ea": 5207,
  "\u2581huma": 5208,
  "\u2581id\u00e9e": 5209,
  "\u2581jabi": 5210,
  "\u2581jara": 5211,
  "\u2581jura": 5212,
  "\u2581j\u025bni": 5213,
  "\u2581kabi": 5214,
  "\u2581koss": 5215,
  "\u2581kulu": 5216,
  "\u2581k\u00e8la": 5217,
  "\u2581k\u0254mi": 5218,
  "\u2581k\u025br\u025b": 5219,
  "\u2581ladi": 5220,
  "\u2581lali": 5221,
  "\u2581lam\u00e8": 5222,
  "\u2581mail": 5223,
  "\u2581mets": 5224,
  "\u2581murs": 5225,
  "\u2581naan": 5226,
  "\u2581na\u00eet": 5227,
  "\u2581nig\u00ea": 5228,
  "\u2581ninw": 5229,
  "\u2581nour": 5230,
  "\u2581pira": 5231,
  "\u2581radi": 5232,
  "\u2581rela": 5233,
  "\u2581reni": 5234,
  "\u2581sago": 5235,
  "\u2581saut": 5236,
  "\u2581sens": 5237,
  "\u2581siya": 5238,
  "\u2581soif": 5239,
  "\u2581stab": 5240,
  "\u2581stru": 5241,
  "\u2581sura": 5242,
  "\u2581s\u00e9ri": 5243,
  "\u2581s\u00f4g\u00f4": 5244,
  "\u2581tend": 5245,
  "\u2581tig\u00e8": 5246,
  "\u2581togo": 5247,
  "\u2581trom": 5248,
  "\u2581vent": 5249,
  "\u2581wale": 5250,
  "\u2581yafa": 5251,
  "\u2581yini": 5252,
  "\u2581zero": 5253,
  "\u2581\u00e9tat": 5254,
  "Michel": 5255,
  "Pierre": 5256,
  "atorze": 5257,
  "avance": 5258,
  "avenir": 5259,
  "avocat": 5260,
  "cevoir": 5261,
  "enseur": 5262,
  "entr\u00e9e": 5263,
  "gasira": 5264,
  "gation": 5265,
  "gramme": 5266,
  "instal": 5267,
  "iseman": 5268,
  "issage": 5269,
  "k\u0254n\u0254na": 5270,
  "k\u025bbaga": 5271,
  "laient": 5272,
  "langer": 5273,
  "oiseau": 5274,
  "onique": 5275,
  "orreur": 5276,
  "raison": 5277,
  "ranger": 5278,
  "r\u00e9ment": 5279,
  "sibles": 5280,
  "sieurs": 5281,
  "tation": 5282,
  "traite": 5283,
  "venait": 5284,
  "ximit\u00e9": 5285,
  "\u00e9v\u00eaque": 5286,
  "\u2581Assez": 5287,
  "\u2581Bichu": 5288,
  "\u2581David": 5289,
  "\u2581Fleur": 5290,
  "\u2581Flori": 5291,
  "\u2581Jusqu": 5292,
  "\u2581J\u00e9sus": 5293,
  "\u2581Leurs": 5294,
  "\u2581Livru": 5295,
  "\u2581L\u025btri": 5296,
  "\u2581Marve": 5297,
  "\u2581Parti": 5298,
  "\u2581Piy\u025br": 5299,
  "\u2581Premi": 5300,
  "\u2581Sinon": 5301,
  "\u2581Turin": 5302,
  "\u2581Villa": 5303,
  "\u2581adama": 5304,
  "\u2581aimez": 5305,
  "\u2581annon": 5306,
  "\u2581avais": 5307,
  "\u2581babaw": 5308,
  "\u2581balon": 5309,
  "\u2581bibli": 5310,
  "\u2581bo\u0272\u025bn": 5311,
  "\u2581b\u0254\u0254ra": 5312,
  "\u2581cause": 5313,
  "\u2581chois": 5314,
  "\u2581comte": 5315,
  "\u2581conna": 5316,
  "\u2581deeni": 5317,
  "\u2581direc": 5318,
  "\u2581donni": 5319,
  "\u2581doron": 5320,
  "\u2581d\u00e9cor": 5321,
  "\u2581d\u0254nk\u025b": 5322,
  "\u2581enreg": 5323,
  "\u2581expos": 5324,
  "\u2581faite": 5325,
  "\u2581faran": 5326,
  "\u2581forts": 5327,
  "\u2581frais": 5328,
  "\u2581gagn\u00e9": 5329,
  "\u2581geste": 5330,
  "\u2581gnini": 5331,
  "\u2581grave": 5332,
  "\u2581gross": 5333,
  "\u2581guv\u025br": 5334,
  "\u2581gwili": 5335,
  "\u2581jaman": 5336,
  "\u2581jeudi": 5337,
  "\u2581kan\u0272i": 5338,
  "\u2581karti": 5339,
  "\u2581kassi": 5340,
  "\u2581linge": 5341,
  "\u2581lonb\u025b": 5342,
  "\u2581l\u0254ndr": 5343,
  "\u2581marfa": 5344,
  "\u2581milli": 5345,
  "\u2581munum": 5346,
  "\u2581mus\u00e9e": 5347,
  "\u2581nank\u0254": 5348,
  "\u2581nis\u0254n": 5349,
  "\u2581nomme": 5350,
  "\u2581obser": 5351,
  "\u2581oubli": 5352,
  "\u2581parl\u00e9": 5353,
  "\u2581pieds": 5354,
  "\u2581prot\u00e9": 5355,
  "\u2581purke": 5356,
  "\u2581p\u00eacha": 5357,
  "\u2581p\u025bnti": 5358,
  "\u2581p\u025br\u025bn": 5359,
  "\u2581repos": 5360,
  "\u2581retra": 5361,
  "\u2581r\u00e9uss": 5362,
  "\u2581secou": 5363,
  "\u2581selon": 5364,
  "\u2581seuls": 5365,
  "\u2581sutra": 5366,
  "\u2581s\u0254nni": 5367,
  "\u2581taara": 5368,
  "\u2581tenir": 5369,
  "\u2581tilan": 5370,
  "\u2581tromp": 5371,
  "\u2581voter": 5372,
  "\u2581y\u0254r\u0254w": 5373,
  "\u2581\u00e9crit": 5374,
  "\u2581\u00e9lect": 5375,
  "\u2581\u025bnt\u025br": 5376,
  "Quentin": 5377,
  "agricul": 5378,
  "ception": 5379,
  "chement": 5380,
  "ciences": 5381,
  "ouilles": 5382,
  "p\u00e9rance": 5383,
  "sembl\u00e9e": 5384,
  "tionale": 5385,
  "v\u025brsite": 5386,
  "\u2581Champs": 5387,
  "\u2581Cognac": 5388,
  "\u2581Dumuni": 5389,
  "\u2581Elvire": 5390,
  "\u2581Ernest": 5391,
  "\u2581Fransi": 5392,
  "\u2581Gardez": 5393,
  "\u2581Hakili": 5394,
  "\u2581Kamel\u00e9": 5395,
  "\u2581Marius": 5396,
  "\u2581M\u0254g\u0254si": 5397,
  "\u2581Nounou": 5398,
  "\u2581Sabari": 5399,
  "\u2581Samara": 5400,
  "\u2581Sariya": 5401,
  "\u2581Sin\u0254g\u0254": 5402,
  "\u2581Thomas": 5403,
  "\u2581Toulon": 5404,
  "\u2581Vierge": 5405,
  "\u2581Voyons": 5406,
  "\u2581aimons": 5407,
  "\u2581allait": 5408,
  "\u2581arr\u00eat\u00e9": 5409,
  "\u2581aupr\u00e8s": 5410,
  "\u2581autant": 5411,
  "\u2581baraka": 5412,
  "\u2581barila": 5413,
  "\u2581belles": 5414,
  "\u2581bo\u0272\u025bna": 5415,
  "\u2581b\u0254y\u0254r\u0254": 5416,
  "\u2581cacher": 5417,
  "\u2581cass\u00e9e": 5418,
  "\u2581celles": 5419,
  "\u2581centre": 5420,
  "\u2581chacun": 5421,
  "\u2581chante": 5422,
  "\u2581chauss": 5423,
  "\u2581compl\u00e9": 5424,
  "\u2581couple": 5425,
  "\u2581cousin": 5426,
  "\u2581croire": 5427,
  "\u2581debout": 5428,
  "\u2581devait": 5429,
  "\u2581devenu": 5430,
  "\u2581dirige": 5431,
  "\u2581durant": 5432,
  "\u2581d\u00e9fend": 5433,
  "\u2581d\u00e9velo": 5434,
  "\u2581d\u0254w\u025br\u025b": 5435,
  "\u2581exerce": 5436,
  "\u2581farani": 5437,
  "\u2581filila": 5438,
  "\u2581filimu": 5439,
  "\u2581frapp\u00e9": 5440,
  "\u2581gansan": 5441,
  "\u2581g\u00e9n\u00e9ra": 5442,
  "\u2581invit\u00e9": 5443,
  "\u2581jabili": 5444,
  "\u2581jagab\u0254": 5445,
  "\u2581jurumu": 5446,
  "\u2581j\u025bkulu": 5447,
  "\u2581kasira": 5448,
  "\u2581klanc\u025b": 5449,
  "\u2581komini": 5450,
  "\u2581kongon": 5451,
  "\u2581kos\u0254b\u025b": 5452,
  "\u2581k\u0254r\u0254ni": 5453,
  "\u2581k\u025bl\u025bla": 5454,
  "\u2581k\u025bn\u025bma": 5455,
  "\u2581lalaga": 5456,
  "\u2581lanaya": 5457,
  "\u2581lanino": 5458,
  "\u2581la\u0272ini": 5459,
  "\u2581livrou": 5460,
  "\u2581luk\u0254n\u0254": 5461,
  "\u2581mienne": 5462,
  "\u2581m\u0254bili": 5463,
  "\u2581n\u00e9cess": 5464,
  "\u2581panier": 5465,
  "\u2581papiye": 5466,
  "\u2581patron": 5467,
  "\u2581peuple": 5468,
  "\u2581plaira": 5469,
  "\u2581points": 5470,
  "\u2581presse": 5471,
  "\u2581proche": 5472,
  "\u2581profes": 5473,
  "\u2581repose": 5474,
  "\u2581social": 5475,
  "\u2581soleil": 5476,
  "\u2581sombre": 5477,
  "\u2581sortie": 5478,
  "\u2581sourou": 5479,
  "\u2581square": 5480,
  "\u2581suguya": 5481,
  "\u2581suivre": 5482,
  "\u2581sumana": 5483,
  "\u2581s\u025bb\u025bli": 5484,
  "\u2581tagala": 5485,
  "\u2581taille": 5486,
  "\u2581territ": 5487,
  "\u2581tig\u025bra": 5488,
  "\u2581tugula": 5489,
  "\u2581t\u0254g\u0254ko": 5490,
  "\u2581unique": 5491,
  "\u2581utilis": 5492,
  "\u2581voyage": 5493,
  "\u2581yam\u00f4g\u00f4": 5494,
  "\u2581y\u00e8l\u00e8ma": 5495,
  "\u2581y\u025br\u025bk\u025b": 5496,
  "\u2581y\u025br\u025bla": 5497,
  "\u2581\u00e9crire": 5498,
  "\u2581\u00e9teint": 5499,
  "huiti\u00e8me": 5500,
  "versaire": 5501,
  "\u2581Annette": 5502,
  "\u2581Bissaba": 5503,
  "\u2581Gnongon": 5504,
  "\u2581Maurice": 5505,
  "\u2581Pendant": 5506,
  "\u2581appelle": 5507,
  "\u2581arriv\u00e9e": 5508,
  "\u2581arr\u00eater": 5509,
  "\u2581bonheur": 5510,
  "\u2581cheveux": 5511,
  "\u2581commiss": 5512,
  "\u2581compagn": 5513,
  "\u2581compris": 5514,
  "\u2581consid\u00e9": 5515,
  "\u2581continu": 5516,
  "\u2581crainte": 5517,
  "\u2581croyais": 5518,
  "\u2581demand\u00e9": 5519,
  "\u2581denbaya": 5520,
  "\u2581dispers": 5521,
  "\u2581domaine": 5522,
  "\u2581d\u00e9roule": 5523,
  "\u2581fallait": 5524,
  "\u2581fariman": 5525,
  "\u2581fin\u025btri": 5526,
  "\u2581interna": 5527,
  "\u2581kalank\u025b": 5528,
  "\u2581kalanso": 5529,
  "\u2581l\u00e9gumes": 5530,
  "\u2581mandimi": 5531,
  "\u2581marrant": 5532,
  "\u2581maximum": 5533,
  "\u2581m\u0254nbili": 5534,
  "\u2581naloman": 5535,
  "\u2581num\u00e9ros": 5536,
  "\u2581plaisir": 5537,
  "\u2581poursui": 5538,
  "\u2581presque": 5539,
  "\u2581profond": 5540,
  "\u2581pr\u00e9f\u00e9r\u00e9": 5541,
  "\u2581ressusc": 5542,
  "\u2581r\u00e9alise": 5543,
  "\u2581sangolo": 5544,
  "\u2581siginin": 5545,
  "\u2581sirakan": 5546,
  "\u2581souffre": 5547,
  "\u2581superbe": 5548,
  "\u2581termin\u00e9": 5549,
  "\u2581terrain": 5550,
  "industrie": 5551,
  "\u2581Am\u00e9rique": 5552,
  "\u2581Malheure": 5553,
  "\u2581Napol\u00e9on": 5554,
  "\u2581Pourtant": 5555,
  "\u2581Rochelle": 5556,
  "\u2581Th\u00e9odore": 5557,
  "\u2581Toujours": 5558,
  "\u2581affaires": 5559,
  "\u2581aimaient": 5560,
  "\u2581aimeriez": 5561,
  "\u2581aimeront": 5562,
  "\u2581blanches": 5563,
  "\u2581campagne": 5564,
  "\u2581cogoyasi": 5565,
  "\u2581dalebala": 5566,
  "\u2581demander": 5567,
  "\u2581denmis\u025bn": 5568,
  "\u2581derniers": 5569,
  "\u2581derri\u00e8re": 5570,
  "\u2581doumouni": 5571,
  "\u2581duminik\u025b": 5572,
  "\u2581farafina": 5573,
  "\u2581fatigant": 5574,
  "\u2581interdit": 5575,
  "\u2581k\u0254n\u0254nik\u025b": 5576,
  "\u2581k\u025bm\u025bfila": 5577,
  "\u2581minisiri": 5578,
  "\u2581naaninan": 5579,
  "\u2581officier": 5580,
  "\u2581oreilles": 5581,
  "\u2581parvient": 5582,
  "\u2581principe": 5583,
  "\u2581prochain": 5584,
  "\u2581province": 5585,
  "\u2581pr\u00e9sence": 5586,
  "\u2581pr\u00e9sente": 5587,
  "\u2581semblant": 5588,
  "\u2581seraient": 5589,
  "\u2581souhaite": 5590,
  "\u2581voudrais": 5591,
  "\u2581\u00e9ditions": 5592,
  "\u2581\u0272am\u0254g\u0254ya": 5593,
  "opposition": 5594,
  "\u2581Cinquante": 5595,
  "\u2581N\u00e9anmoins": 5596,
  "\u2581boulevard": 5597,
  "\u2581championn": 5598,
  "\u2581directeur": 5599,
  "\u2581dispara\u00eet": 5600,
  "\u2581programme": 5601,
  "\u2581proximit\u00e9": 5602,
  "\u2581pr\u00e9cision": 5603,
  "\u2581refroidit": 5604,
  "\u2581repr\u00e9sent": 5605,
  "\u2581Maintenant": 5606,
  "\u2581aimeraient": 5607,
  "\u2581comprenait": 5608,
  "\u2581comprendre": 5609,
  "\u2581connaissez": 5610,
  "\u2581di\u0272\u025blatig\u025b": 5611,
  "\u2581gouverneur": 5612,
  "\u2581guv\u025brneman": 5613,
  "\u2581mouvements": 5614,
  "\u2581production": 5615,
  "\u2581scandaleux": 5616,
  "\u2581stabiliser": 5617,
  "\u2581y\u025br\u025by\u025br\u025bla": 5618,
  "enseignement": 5619,
  "\u2581Lotissement": 5620,
  "\u2581enti\u00e8rement": 5621,
  "\u2581lotissement": 5622,
  "\u2581personnages": 5623,
  "\u2581anniversaire": 5624,
  "\u2581compl\u00e8tement": 5625,
  "\u2581gouvernement": 5626,
  "\u2581mademoiselle": 5627,
  "\u2581suffisamment": 5628,
  "\u2581wolonfilanan": 5629,
  ").": 5630,
  ".,": 5631,
  "AG": 5632,
  "Ba": 5633,
  "EN": 5634,
  "IX": 5635,
  "MP": 5636,
  "OU": 5637,
  "Or": 5638,
  "SA": 5639,
  "Sa": 5640,
  "UE": 5641,
  "Vi": 5642,
  "by": 5643,
  "d\u025b": 5644,
  "fo": 5645,
  "fs": 5646,
  "f\u00f4": 5647,
  "hr": 5648,
  "k\u00f4": 5649,
  "t\u00e8": 5650,
  "we": 5651,
  "wn": 5652,
  "w\u025b": 5653,
  "yl": 5654,
  "y\u00f4": 5655,
  "\u00e9g": 5656,
  "\u00f1a": 5657,
  "\u0254k": 5658,
  "\u0254v": 5659,
  "\u0272e": 5660,
  "Am\u00e9": 5661,
  "Bap": 5662,
  "Esc": 5663,
  "Mar": 5664,
  "OIX": 5665,
  "Rou": 5666,
  "ab\u00f4": 5667,
  "act": 5668,
  "amo": 5669,
  "ark": 5670,
  "avi": 5671,
  "bal": 5672,
  "bec": 5673,
  "bet": 5674,
  "br\u00e9": 5675,
  "cen": 5676,
  "cia": 5677,
  "diy": 5678,
  "dom": 5679,
  "d\u025bl": 5680,
  "esp": 5681,
  "fen": 5682,
  "fer": 5683,
  "gea": 5684,
  "gez": 5685,
  "gir": 5686,
  "gli": 5687,
  "g\u00e9s": 5688,
  "ham": 5689,
  "hni": 5690,
  "hun": 5691,
  "ig\u00e9": 5692,
  "iso": 5693,
  "itr": 5694,
  "it\u0254": 5695,
  "jus": 5696,
  "kel": 5697,
  "ker": 5698,
  "k\u025bt": 5699,
  "lum": 5700,
  "mor": 5701,
  "mos": 5702,
  "nai": 5703,
  "ney": 5704,
  "obs": 5705,
  "occ": 5706,
  "oka": 5707,
  "oma": 5708,
  "osi": 5709,
  "oth": 5710,
  "oti": 5711,
  "ott": 5712,
  "oue": 5713,
  "ou\u00e9": 5714,
  "pik": 5715,
  "pri": 5716,
  "p\u00e9e": 5717,
  "ram": 5718,
  "ril": 5719,
  "roy": 5720,
  "sey": 5721,
  "sim": 5722,
  "str": 5723,
  "s\u025bl": 5724,
  "t\u0254w": 5725,
  "ufs": 5726,
  "uir": 5727,
  "umu": 5728,
  "ymp": 5729,
  "zen": 5730,
  "zer": 5731,
  "\u00e7ay": 5732,
  "\u0254mu": 5733,
  "\u0254nb": 5734,
  "\u0254rg": 5735,
  "\u025bra": 5736,
  "\u2581Aj": 5737,
  "\u2581Cy": 5738,
  "\u2581Fu": 5739,
  "\u2581F\u00e8": 5740,
  "\u2581Go": 5741,
  "\u2581K\u0254": 5742,
  "\u2581L\u0254": 5743,
  "\u2581Nu": 5744,
  "\u2581Py": 5745,
  "\u2581bl": 5746,
  "\u2581d\u00fb": 5747,
  "\u2581f\u00e2": 5748,
  "\u2581hu": 5749,
  "\u2581hy": 5750,
  "\u2581jy": 5751,
  "\u2581m\u00e2": 5752,
  "\u2581m\u00f4": 5753,
  "\u2581nb": 5754,
  "\u2581nn": 5755,
  "\u2581n\u00e8": 5756,
  "\u2581n\u00f4": 5757,
  "\u2581op": 5758,
  "\u2581ow": 5759,
  "\u2581p\u00e9": 5760,
  "\u2581sp": 5761,
  "\u2581s\u00e8": 5762,
  "\u2581ue": 5763,
  "\u2581us": 5764,
  "\u2581w\u00e8": 5765,
  "\u2581\u0190n": 5766,
  "Alle": 5767,
  "Bapt": 5768,
  "ENRI": 5769,
  "abli": 5770,
  "anci": 5771,
  "ao\u00fbt": 5772,
  "as\u0254n": 5773,
  "aura": 5774,
  "bain": 5775,
  "ball": 5776,
  "bier": 5777,
  "bons": 5778,
  "daga": 5779,
  "dani": 5780,
  "difi": 5781,
  "di\u00e9e": 5782,
  "djan": 5783,
  "dout": 5784,
  "dugu": 5785,
  "el\u025bn": 5786,
  "embs": 5787,
  "erto": 5788,
  "esp\u00e9": 5789,
  "fert": 5790,
  "fier": 5791,
  "fi\u00e9e": 5792,
  "f\u025bnw": 5793,
  "gale": 5794,
  "gnac": 5795,
  "guer": 5796,
  "g\u025bra": 5797,
  "ides": 5798,
  "iers": 5799,
  "igan": 5800,
  "igny": 5801,
  "ilie": 5802,
  "ilil": 5803,
  "iner": 5804,
  "isko": 5805,
  "kala": 5806,
  "k\u025bti": 5807,
  "laud": 5808,
  "line": 5809,
  "l\u00e8ya": 5810,
  "l\u00e9es": 5811,
  "mala": 5812,
  "mide": 5813,
  "mis\u025b": 5814,
  "mmes": 5815,
  "muru": 5816,
  "olas": 5817,
  "onnu": 5818,
  "ont\u00e9": 5819,
  "ords": 5820,
  "ores": 5821,
  "orie": 5822,
  "orta": 5823,
  "orts": 5824,
  "oz\u025bf": 5825,
  "part": 5826,
  "pion": 5827,
  "pire": 5828,
  "pris": 5829,
  "p\u00e9ta": 5830,
  "quer": 5831,
  "qu\u00e9e": 5832,
  "raie": 5833,
  "reau": 5834,
  "rets": 5835,
  "rian": 5836,
  "riya": 5837,
  "roch": 5838,
  "rose": 5839,
  "r\u00e9al": 5840,
  "sied": 5841,
  "ston": 5842,
  "s\u0254g\u0254": 5843,
  "s\u025bb\u025b": 5844,
  "tara": 5845,
  "tein": 5846,
  "ties": 5847,
  "ubet": 5848,
  "ugra": 5849,
  "ulup": 5850,
  "vati": 5851,
  "wena": 5852,
  "w\u0254r\u0254": 5853,
  "yiri": 5854,
  "y\u00e8r\u00e8": 5855,
  "\u00e2tre": 5856,
  "\u00e8vre": 5857,
  "\u00e9cou": 5858,
  "\u00e9lie": 5859,
  "\u00e9nie": 5860,
  "\u00e9rar": 5861,
  "\u00e9sie": 5862,
  "\u00eates": 5863,
  "\u0254l\u0254n": 5864,
  "\u0254nin": 5865,
  "\u2581Alo": 5866,
  "\u2581Ara": 5867,
  "\u2581Arm": 5868,
  "\u2581Aw\u0254": 5869,
  "\u2581Azi": 5870,
  "\u2581Bah": 5871,
  "\u2581Bat": 5872,
  "\u2581Bin": 5873,
  "\u2581Bla": 5874,
  "\u2581Bob": 5875,
  "\u2581B\u00e9c": 5876,
  "\u2581B\u0254n": 5877,
  "\u2581Cav": 5878,
  "\u2581Che": 5879,
  "\u2581Ch\u00e2": 5880,
  "\u2581C\u025bn": 5881,
  "\u2581D\u0254k": 5882,
  "\u2581D\u0254w": 5883,
  "\u2581Fav": 5884,
  "\u2581Fla": 5885,
  "\u2581Flo": 5886,
  "\u2581Gap": 5887,
  "\u2581Gas": 5888,
  "\u2581Gay": 5889,
  "\u2581Ger": 5890,
  "\u2581Gou": 5891,
  "\u2581Her": 5892,
  "\u2581Hol": 5893,
  "\u2581H\u025br": 5894,
  "\u2581Jer": 5895,
  "\u2581Jud": 5896,
  "\u2581Kib": 5897,
  "\u2581Kit": 5898,
  "\u2581Let": 5899,
  "\u2581Lil": 5900,
  "\u2581Lor": 5901,
  "\u2581Loz": 5902,
  "\u2581Luw": 5903,
  "\u2581Mac": 5904,
  "\u2581Mel": 5905,
  "\u2581Mod": 5906,
  "\u2581M\u0254r": 5907,
  "\u2581M\u025br": 5908,
  "\u2581Nar": 5909,
  "\u2581Nos": 5910,
  "\u2581Olu": 5911,
  "\u2581Ori": 5912,
  "\u2581Oyo": 5913,
  "\u2581Pin": 5914,
  "\u2581Pl\u00e9": 5915,
  "\u2581Pr\u00e9": 5916,
  "\u2581Puw": 5917,
  "\u2581Rem": 5918,
  "\u2581Riv": 5919,
  "\u2581Sat": 5920,
  "\u2581Sen": 5921,
  "\u2581Sod": 5922,
  "\u2581Sun": 5923,
  "\u2581S\u025br": 5924,
  "\u2581Tal": 5925,
  "\u2581Tex": 5926,
  "\u2581Thi": 5927,
  "\u2581Tra": 5928,
  "\u2581Tro": 5929,
  "\u2581Uni": 5930,
  "\u2581Vik": 5931,
  "\u2581Vou": 5932,
  "\u2581V\u025br": 5933,
  "\u2581Wil": 5934,
  "\u2581am\u025b": 5935,
  "\u2581ana": 5936,
  "\u2581ata": 5937,
  "\u2581aur": 5938,
  "\u2581bel": 5939,
  "\u2581bow": 5940,
  "\u2581br\u00fb": 5941,
  "\u2581bud": 5942,
  "\u2581cii": 5943,
  "\u2581civ": 5944,
  "\u2581cru": 5945,
  "\u2581cr\u00ea": 5946,
  "\u2581c\u025bj": 5947,
  "\u2581dal": 5948,
  "\u2581dus": 5949,
  "\u2581d\u00e9t": 5950,
  "\u2581esc": 5951,
  "\u2581e\u00fbt": 5952,
  "\u2581gil": 5953,
  "\u2581gla": 5954,
  "\u2581gor": 5955,
  "\u2581gwa": 5956,
  "\u2581has": 5957,
  "\u2581hee": 5958,
  "\u2581h\u00e9s": 5959,
  "\u2581ika": 5960,
  "\u2581imb": 5961,
  "\u2581ira": 5962,
  "\u2581jam": 5963,
  "\u2581kat": 5964,
  "\u2581kir": 5965,
  "\u2581koo": 5966,
  "\u2581k\u0254r": 5967,
  "\u2581k\u025bn": 5968,
  "\u2581lag": 5969,
  "\u2581mai": 5970,
  "\u2581ma\u0272": 5971,
  "\u2581ny\u00e9": 5972,
  "\u2581obt": 5973,
  "\u2581occ": 5974,
  "\u2581ori": 5975,
  "\u2581oyi": 5976,
  "\u2581poi": 5977,
  "\u2581pon": 5978,
  "\u2581pot": 5979,
  "\u2581put": 5980,
  "\u2581rev": 5981,
  "\u2581rit": 5982,
  "\u2581ros": 5983,
  "\u2581r\u00e9f": 5984,
  "\u2581sia": 5985,
  "\u2581sid": 5986,
  "\u2581sub": 5987,
  "\u2581s\u0254s": 5988,
  "\u2581s\u025br": 5989,
  "\u2581tam": 5990,
  "\u2581tor": 5991,
  "\u2581tur": 5992,
  "\u2581t\u025bn": 5993,
  "\u2581uni": 5994,
  "\u2581van": 5995,
  "\u2581vil": 5996,
  "\u2581viv": 5997,
  "\u2581v\u025br": 5998,
  "\u2581was": 5999,
  "\u2581\u019din": 6000,
  "\u2581\u0272aa": 6001,
  "Andr\u00e9": 6002,
  "Bains": 6003,
  "Bourg": 6004,
  "Loire": 6005,
  "Neuve": 6006,
  "abara": 6007,
  "agnes": 6008,
  "agnol": 6009,
  "aites": 6010,
  "album": 6011,
  "amini": 6012,
  "ann\u00e9e": 6013,
  "ati\u0254n": 6014,
  "aur\u00e8s": 6015,
  "avons": 6016,
  "bourg": 6017,
  "cepte": 6018,
  "chant": 6019,
  "cieux": 6020,
  "cules": 6021,
  "diens": 6022,
  "diter": 6023,
  "eleni": 6024,
  "elman": 6025,
  "ences": 6026,
  "enden": 6027,
  "explo": 6028,
  "ganin": 6029,
  "h\u00f4tel": 6030,
  "ignez": 6031,
  "ill\u00e9s": 6032,
  "ingon": 6033,
  "ingta": 6034,
  "itait": 6035,
  "kalan": 6036,
  "kuraw": 6037,
  "lande": 6038,
  "luent": 6039,
  "l\u00e9ans": 6040,
  "menez": 6041,
  "mi\u00e8re": 6042,
  "niers": 6043,
  "odeur": 6044,
  "olles": 6045,
  "olyte": 6046,
  "onsin": 6047,
  "ordes": 6048,
  "ousse": 6049,
  "outon": 6050,
  "outte": 6051,
  "quili": 6052,
  "qu\u00eate": 6053,
  "rable": 6054,
  "ridge": 6055,
  "rik\u025bn": 6056,
  "ri\u00e8me": 6057,
  "rotte": 6058,
  "r\u00e9sil": 6059,
  "seyez": 6060,
  "sures": 6061,
  "tiers": 6062,
  "tueux": 6063,
  "umaya": 6064,
  "usque": 6065,
  "ution": 6066,
  "uvoir": 6067,
  "vages": 6068,
  "verse": 6069,
  "viend": 6070,
  "viron": 6071,
  "viter": 6072,
  "vi\u00e8re": 6073,
  "\u00e8dent": 6074,
  "\u00e9cris": 6075,
  "\u00e9crou": 6076,
  "\u00e9rign": 6077,
  "\u00e9tude": 6078,
  "\u025bnib\u025b": 6079,
  "\u025bnik\u025b": 6080,
  "\u2581Abb\u00e9": 6081,
  "\u2581Adel": 6082,
  "\u2581Alen": 6083,
  "\u2581Annu": 6084,
  "\u2581Anri": 6085,
  "\u2581Asun": 6086,
  "\u2581Bibi": 6087,
  "\u2581Bolo": 6088,
  "\u2581Boni": 6089,
  "\u2581Bose": 6090,
  "\u2581Bres": 6091,
  "\u2581Brik": 6092,
  "\u2581Cali": 6093,
  "\u2581Ceux": 6094,
  "\u2581Cons": 6095,
  "\u2581Cont": 6096,
  "\u2581Djon": 6097,
  "\u2581Dusu": 6098,
  "\u2581D\u00e9j\u00e0": 6099,
  "\u2581D\u0254ni": 6100,
  "\u2581Fais": 6101,
  "\u2581Fole": 6102,
  "\u2581Fras": 6103,
  "\u2581Gali": 6104,
  "\u2581Gari": 6105,
  "\u2581Hipp": 6106,
  "\u2581Jack": 6107,
  "\u2581Jos\u00e9": 6108,
  "\u2581Kabi": 6109,
  "\u2581Koun": 6110,
  "\u2581K\u0254ni": 6111,
  "\u2581Lang": 6112,
  "\u2581Lant": 6113,
  "\u2581Lisi": 6114,
  "\u2581Mans": 6115,
  "\u2581Mura": 6116,
  "\u2581Nice": 6117,
  "\u2581N\u0254n\u0254": 6118,
  "\u2581Pasi": 6119,
  "\u2581Pays": 6120,
  "\u2581Peru": 6121,
  "\u2581Poli": 6122,
  "\u2581Prin": 6123,
  "\u2581Rene": 6124,
  "\u2581Rose": 6125,
  "\u2581Sans": 6126,
  "\u2581Siam": 6127,
  "\u2581Sine": 6128,
  "\u2581S\u025bb\u025b": 6129,
  "\u2581S\u025bzi": 6130,
  "\u2581VOIX": 6131,
  "\u2581Vrai": 6132,
  "\u2581Wala": 6133,
  "\u2581Yala": 6134,
  "\u2581Yor\u00f4": 6135,
  "\u2581Y\u0254rk": 6136,
  "\u2581Y\u025br\u025b": 6137,
  "\u2581Zizi": 6138,
  "\u2581Z\u0254rz": 6139,
  "\u2581ain\u00e9": 6140,
  "\u2581alah": 6141,
  "\u2581albi": 6142,
  "\u2581all\u00e9": 6143,
  "\u2581alou": 6144,
  "\u2581amie": 6145,
  "\u2581anga": 6146,
  "\u2581annu": 6147,
  "\u2581a\u00e9ri": 6148,
  "\u2581bini": 6149,
  "\u2581blas": 6150,
  "\u2581boon": 6151,
  "\u2581boyi": 6152,
  "\u2581bris": 6153,
  "\u2581brou": 6154,
  "\u2581bule": 6155,
  "\u2581b\u025bg\u025b": 6156,
  "\u2581cant": 6157,
  "\u2581capt": 6158,
  "\u2581cath": 6159,
  "\u2581ceci": 6160,
  "\u2581choc": 6161,
  "\u2581cit\u00e9": 6162,
  "\u2581code": 6163,
  "\u2581cria": 6164,
  "\u2581c\u00e9l\u00e9": 6165,
  "\u2581c\u00e9r\u00e9": 6166,
  "\u2581daga": 6167,
  "\u2581dasi": 6168,
  "\u2581deri": 6169,
  "\u2581dina": 6170,
  "\u2581dog\u00f4": 6171,
  "\u2581doig": 6172,
  "\u2581do\u00f1a": 6173,
  "\u2581d\u00f4ni": 6174,
  "\u2581d\u0254r\u0254": 6175,
  "\u2581effi": 6176,
  "\u2581enne": 6177,
  "\u2581feen": 6178,
  "\u2581feyi": 6179,
  "\u2581fina": 6180,
  "\u2581f\u0254ta": 6181,
  "\u2581f\u025bti": 6182,
  "\u2581gren": 6183,
  "\u2581gris": 6184,
  "\u2581g\u00eane": 6185,
  "\u2581hist": 6186,
  "\u2581honn": 6187,
  "\u2581jaab": 6188,
  "\u2581kila": 6189,
  "\u2581kok\u025b": 6190,
  "\u2581k\u0254se": 6191,
  "\u2581lab\u00e8": 6192,
  "\u2581lade": 6193,
  "\u2581lati": 6194,
  "\u2581lave": 6195,
  "\u2581lev\u00e9": 6196,
  "\u2581mab\u0254": 6197,
  "\u2581mali": 6198,
  "\u2581meda": 6199,
  "\u2581mens": 6200,
  "\u2581mett": 6201,
  "\u2581mira": 6202,
  "\u2581m\u00e8ne": 6203,
  "\u2581m\u00e9di": 6204,
  "\u2581nalo": 6205,
  "\u2581nata": 6206,
  "\u2581nugu": 6207,
  "\u2581om\u025br": 6208,
  "\u2581paix": 6209,
  "\u2581pare": 6210,
  "\u2581park": 6211,
  "\u2581pein": 6212,
  "\u2581pi\u00e9t": 6213,
  "\u2581pont": 6214,
  "\u2581posa": 6215,
  "\u2581poss": 6216,
  "\u2581prog": 6217,
  "\u2581pr\u00e9t": 6218,
  "\u2581quin": 6219,
  "\u2581rele": 6220,
  "\u2581ress": 6221,
  "\u2581r\u00e9gu": 6222,
  "\u2581r\u00f4le": 6223,
  "\u2581sang": 6224,
  "\u2581seba": 6225,
  "\u2581sert": 6226,
  "\u2581sign": 6227,
  "\u2581siko": 6228,
  "\u2581siti": 6229,
  "\u2581solo": 6230,
  "\u2581tais": 6231,
  "\u2581tass": 6232,
  "\u2581tay\u00e9": 6233,
  "\u2581tena": 6234,
  "\u2581tila": 6235,
  "\u2581toil": 6236,
  "\u2581tolo": 6237,
  "\u2581tomb": 6238,
  "\u2581toro": 6239,
  "\u2581t\u00e8n\u00e8": 6240,
  "\u2581t\u0254n\u0254": 6241,
  "\u2581ub\u025bn": 6242,
  "\u2581vali": 6243,
  "\u2581vice": 6244,
  "\u2581vid\u00e9": 6245,
  "\u2581vote": 6246,
  "\u2581wile": 6247,
  "\u2581yele": 6248,
  "\u2581yeli": 6249,
  "\u2581y\u00e9l\u00e8": 6250,
  "\u2581\u00e9tap": 6251,
  "\u2581\u0186n\u0254n": 6252,
  "\u2581\u0272ama": 6253,
  "\u2581\u0272ani": 6254,
  "\u2581\u0272\u025bf\u025b": 6255,
  "Europe": 6256,
  "ancent": 6257,
  "antais": 6258,
  "arrass": 6259,
  "arrive": 6260,
  "arrond": 6261,
  "arr\u00eata": 6262,
  "artres": 6263,
  "ations": 6264,
  "conque": 6265,
  "ctures": 6266,
  "c\u00e9dent": 6267,
  "di\u00e8res": 6268,
  "ellier": 6269,
  "endais": 6270,
  "engage": 6271,
  "ention": 6272,
  "fargue": 6273,
  "iladel": 6274,
  "illons": 6275,
  "ill\u00e8re": 6276,
  "isible": 6277,
  "isions": 6278,
  "isiyon": 6279,
  "itiers": 6280,
  "karit\u0254": 6281,
  "ksiyon": 6282,
  "lables": 6283,
  "luence": 6284,
  "mandez": 6285,
  "olonel": 6286,
  "om\u025btri": 6287,
  "onomie": 6288,
  "oriser": 6289,
  "phabet": 6290,
  "quelle": 6291,
  "queurs": 6292,
  "quinze": 6293,
  "tivit\u00e9": 6294,
  "ugulan": 6295,
  "viseur": 6296,
  "y\u025bl\u025bma": 6297,
  "\u00e9crire": 6298,
  "\u0272\u0254ng\u0254n": 6299,
  "\u2581Ainsi": 6300,
  "\u2581Angel": 6301,
  "\u2581Aucun": 6302,
  "\u2581Autre": 6303,
  "\u2581B\u00e2tie": 6304,
  "\u2581Celle": 6305,
  "\u2581Chili": 6306,
  "\u2581Djolo": 6307,
  "\u2581Donne": 6308,
  "\u2581Enjol": 6309,
  "\u2581Entre": 6310,
  "\u2581Folle": 6311,
  "\u2581Gubet": 6312,
  "\u2581HENRI": 6313,
  "\u2581Hanri": 6314,
  "\u2581James": 6315,
  "\u2581Jules": 6316,
  "\u2581Kongo": 6317,
  "\u2581Laban": 6318,
  "\u2581Marit": 6319,
  "\u2581Marko": 6320,
  "\u2581Marma": 6321,
  "\u2581Marot": 6322,
  "\u2581Massa": 6323,
  "\u2581Miami": 6324,
  "\u2581Milan": 6325,
  "\u2581Musow": 6326,
  "\u2581M\u00e9dor": 6327,
  "\u2581Porto": 6328,
  "\u2581Prend": 6329,
  "\u2581P\u00e9rou": 6330,
  "\u2581Quels": 6331,
  "\u2581Sap\u025bl": 6332,
  "\u2581Selon": 6333,
  "\u2581Sim\u0254n": 6334,
  "\u2581Valen": 6335,
  "\u2581accue": 6336,
  "\u2581achet": 6337,
  "\u2581actes": 6338,
  "\u2581alb\u025br": 6339,
  "\u2581amant": 6340,
  "\u2581amour": 6341,
  "\u2581artik": 6342,
  "\u2581auras": 6343,
  "\u2581avion": 6344,
  "\u2581bange": 6345,
  "\u2581belen": 6346,
  "\u2581bless": 6347,
  "\u2581bleus": 6348,
  "\u2581boire": 6349,
  "\u2581boug\u00f4": 6350,
  "\u2581b\u025bnna": 6351,
  "\u2581cath\u00e9": 6352,
  "\u2581chaus": 6353,
  "\u2581choix": 6354,
  "\u2581ch\u00e8re": 6355,
  "\u2581clair": 6356,
  "\u2581c\u025bka\u0272": 6357,
  "\u2581degun": 6358,
  "\u2581deniw": 6359,
  "\u2581diala": 6360,
  "\u2581diana": 6361,
  "\u2581dirai": 6362,
  "\u2581divor": 6363,
  "\u2581djama": 6364,
  "\u2581donda": 6365,
  "\u2581dugus": 6366,
  "\u2581durer": 6367,
  "\u2581d\u0254r\u0254n": 6368,
  "\u2581endro": 6369,
  "\u2581enfin": 6370,
  "\u2581enter": 6371,
  "\u2581essay": 6372,
  "\u2581exist": 6373,
  "\u2581explo": 6374,
  "\u2581faamu": 6375,
  "\u2581fallu": 6376,
  "\u2581fanan": 6377,
  "\u2581ferai": 6378,
  "\u2581fl\u025bru": 6379,
  "\u2581frans": 6380,
  "\u2581f\u0254\u0272\u0254n": 6381,
  "\u2581gagne": 6382,
  "\u2581honte": 6383,
  "\u2581janto": 6384,
  "\u2581janya": 6385,
  "\u2581koura": 6386,
  "\u2581lafis": 6387,
  "\u2581lampe": 6388,
  "\u2581lance": 6389,
  "\u2581large": 6390,
  "\u2581lass\u00e9": 6391,
  "\u2581limit": 6392,
  "\u2581louer": 6393,
  "\u2581lourd": 6394,
  "\u2581lutte": 6395,
  "\u2581maire": 6396,
  "\u2581marie": 6397,
  "\u2581marki": 6398,
  "\u2581massa": 6399,
  "\u2581minan": 6400,
  "\u2581minnu": 6401,
  "\u2581morte": 6402,
  "\u2581musso": 6403,
  "\u2581m\u00e9dec": 6404,
  "\u2581m\u00e9tho": 6405,
  "\u2581niche": 6406,
  "\u2581ouver": 6407,
  "\u2581patri": 6408,
  "\u2581pause": 6409,
  "\u2581piano": 6410,
  "\u2581plans": 6411,
  "\u2581pla\u00eet": 6412,
  "\u2581poiss": 6413,
  "\u2581press": 6414,
  "\u2581quant": 6415,
  "\u2581rangs": 6416,
  "\u2581resta": 6417,
  "\u2581riait": 6418,
  "\u2581roman": 6419,
  "\u2581r\u00e8gle": 6420,
  "\u2581r\u00e8gne": 6421,
  "\u2581r\u00eaver": 6422,
  "\u2581saisi": 6423,
  "\u2581sanf\u00e8": 6424,
  "\u2581sanga": 6425,
  "\u2581seg\u0254n": 6426,
  "\u2581serr\u00e9": 6427,
  "\u2581sonna": 6428,
  "\u2581sourd": 6429,
  "\u2581souri": 6430,
  "\u2581stade": 6431,
  "\u2581style": 6432,
  "\u2581suivi": 6433,
  "\u2581s\u025bb\u025bn": 6434,
  "\u2581telia": 6435,
  "\u2581tient": 6436,
  "\u2581tigiw": 6437,
  "\u2581tiy\u025bn": 6438,
  "\u2581tomb\u00e9": 6439,
  "\u2581total": 6440,
  "\u2581tourn": 6441,
  "\u2581tremb": 6442,
  "\u2581trent": 6443,
  "\u2581triom": 6444,
  "\u2581troub": 6445,
  "\u2581tugun": 6446,
  "\u2581turne": 6447,
  "\u2581types": 6448,
  "\u2581vendu": 6449,
  "\u2581verra": 6450,
  "\u2581veuve": 6451,
  "\u2581vraie": 6452,
  "\u2581weele": 6453,
  "\u2581welee": 6454,
  "\u2581yagam": 6455,
  "\u2581\u00c9mile": 6456,
  "\u2581\u00c9tats": 6457,
  "\u2581\u00e9tage": 6458,
  "\u2581\u00e9tais": 6459,
  "\u2581\u00e9tran": 6460,
  "\u2581\u0153uvre": 6461,
  "Afrique": 6462,
  "Maurice": 6463,
  "affaire": 6464,
  "alement": 6465,
  "cations": 6466,
  "cherche": 6467,
  "elmanay": 6468,
  "endrier": 6469,
  "inement": 6470,
  "mations": 6471,
  "ongrois": 6472,
  "quelles": 6473,
  "saillir": 6474,
  "tements": 6475,
  "ugraben": 6476,
  "vention": 6477,
  "\u00e9coutez": 6478,
  "\u00e9tition": 6479,
  "\u0272anaman": 6480,
  "\u2581Amiens": 6481,
  "\u2581Astron": 6482,
  "\u2581Boston": 6483,
  "\u2581Brande": 6484,
  "\u2581Bret\u0254n": 6485,
  "\u2581Br\u00e9sil": 6486,
  "\u2581Canada": 6487,
  "\u2581Cannes": 6488,
  "\u2581Djoum\u00e8": 6489,
  "\u2581Duguba": 6490,
  "\u2581Envoie": 6491,
  "\u2581Faites": 6492,
  "\u2581Gayral": 6493,
  "\u2581Guichy": 6494,
  "\u2581Hameau": 6495,
  "\u2581Jamais": 6496,
  "\u2581Jaur\u00e8s": 6497,
  "\u2581Justin": 6498,
  "\u2581Kul\u025bri": 6499,
  "\u2581Mankan": 6500,
  "\u2581Martin": 6501,
  "\u2581Miniti": 6502,
  "\u2581Nantes": 6503,
  "\u2581Olivet": 6504,
  "\u2581Poussi": 6505,
  "\u2581Prenez": 6506,
  "\u2581Renard": 6507,
  "\u2581Sainte": 6508,
  "\u2581Salvat": 6509,
  "\u2581Sandra": 6510,
  "\u2581Stella": 6511,
  "\u2581Ti\u0272\u025bna": 6512,
  "\u2581Vienne": 6513,
  "\u2581Woulou": 6514,
  "\u2581ach\u00e8te": 6515,
  "\u2581aimais": 6516,
  "\u2581allons": 6517,
  "\u2581appara": 6518,
  "\u2581aurais": 6519,
  "\u2581autour": 6520,
  "\u2581balora": 6521,
  "\u2581banque": 6522,
  "\u2581bless\u00e9": 6523,
  "\u2581bolola": 6524,
  "\u2581caisse": 6525,
  "\u2581canap\u00e9": 6526,
  "\u2581cartes": 6527,
  "\u2581cercle": 6528,
  "\u2581charge": 6529,
  "\u2581classi": 6530,
  "\u2581comman": 6531,
  "\u2581commen": 6532,
  "\u2581commun": 6533,
  "\u2581conser": 6534,
  "\u2581coup\u00e9s": 6535,
  "\u2581courir": 6536,
  "\u2581course": 6537,
  "\u2581cr\u00eapes": 6538,
  "\u2581danilo": 6539,
  "\u2581davant": 6540,
  "\u2581dedans": 6541,
  "\u2581diplom": 6542,
  "\u2581dirig\u00e9": 6543,
  "\u2581dispar": 6544,
  "\u2581distri": 6545,
  "\u2581dollar": 6546,
  "\u2581d\u00e9part": 6547,
  "\u2581d\u025bm\u025bni": 6548,
  "\u2581esprit": 6549,
  "\u2581essent": 6550,
  "\u2581famaya": 6551,
  "\u2581fangan": 6552,
  "\u2581fatch\u00e8": 6553,
  "\u2581filets": 6554,
  "\u2581fil\u025bni": 6555,
  "\u2581fi\u00e8vre": 6556,
  "\u2581francs": 6557,
  "\u2581furent": 6558,
  "\u2581gar\u00e7on": 6559,
  "\u2581gnouma": 6560,
  "\u2581gobele": 6561,
  "\u2581g\u00eal\u00e8ya": 6562,
  "\u2581hommes": 6563,
  "\u2581instal": 6564,
  "\u2581intern": 6565,
  "\u2581jigila": 6566,
  "\u2581jolile": 6567,
  "\u2581j\u0254y\u0254r\u0254": 6568,
  "\u2581kankan": 6569,
  "\u2581karila": 6570,
  "\u2581kounou": 6571,
  "\u2581k\u0254r\u0254c\u025b": 6572,
  "\u2581k\u0254r\u0254ko": 6573,
  "\u2581ladili": 6574,
  "\u2581laisse": 6575,
  "\u2581lamini": 6576,
  "\u2581lamin\u00e8": 6577,
  "\u2581lam\u025bna": 6578,
  "\u2581langue": 6579,
  "\u2581limit\u00e9": 6580,
  "\u2581lisait": 6581,
  "\u2581l\u00e9gers": 6582,
  "\u2581makari": 6583,
  "\u2581manges": 6584,
  "\u2581march\u00e9": 6585,
  "\u2581masac\u025b": 6586,
  "\u2581matigi": 6587,
  "\u2581membre": 6588,
  "\u2581mentir": 6589,
  "\u2581minute": 6590,
  "\u2581mourir": 6591,
  "\u2581m\u00e8tres": 6592,
  "\u2581nomm\u00e9e": 6593,
  "\u2581occupe": 6594,
  "\u2581oiseau": 6595,
  "\u2581penses": 6596,
  "\u2581perdue": 6597,
  "\u2581pierre": 6598,
  "\u2581pilote": 6599,
  "\u2581pi\u00e8ces": 6600,
  "\u2581plaint": 6601,
  "\u2581polici": 6602,
  "\u2581pr\u00eatre": 6603,
  "\u2581recons": 6604,
  "\u2581rentre": 6605,
  "\u2581repris": 6606,
  "\u2581reprit": 6607,
  "\u2581retenu": 6608,
  "\u2581retir\u00e9": 6609,
  "\u2581re\u00e7oit": 6610,
  "\u2581risque": 6611,
  "\u2581rouges": 6612,
  "\u2581roussi": 6613,
  "\u2581r\u00e9p\u00e9ta": 6614,
  "\u2581sabl\u00e9s": 6615,
  "\u2581saluer": 6616,
  "\u2581savait": 6617,
  "\u2581sentez": 6618,
  "\u2581sig\u025bni": 6619,
  "\u2581soupir": 6620,
  "\u2581suppri": 6621,
  "\u2581s\u025bb\u025bni": 6622,
  "\u2581tagama": 6623,
  "\u2581tchien": 6624,
  "\u2581teliya": 6625,
  "\u2581tienne": 6626,
  "\u2581tilara": 6627,
  "\u2581toussa": 6628,
  "\u2581traite": 6629,
  "\u2581tumab\u025b": 6630,
  "\u2581t\u0254g\u0254ra": 6631,
  "\u2581verrai": 6632,
  "\u2581vingta": 6633,
  "\u2581vivent": 6634,
  "\u2581voulut": 6635,
  "\u2581voyais": 6636,
  "\u2581v\u00e9rit\u00e9": 6637,
  "\u2581y\u025br\u025bma": 6638,
  "\u2581\u00e9cout\u00e9": 6639,
  "\u2581\u00e9norme": 6640,
  "\u2581\u00e9poque": 6641,
  "\u2581\u00e9quipe": 6642,
  "\u2581\u0153uvres": 6643,
  "\u2581\u0272anab\u0254": 6644,
  "\u2581\u0272inana": 6645,
  "\u2581\u0272inina": 6646,
  "Am\u00e9rique": 6647,
  "Baptiste": 6648,
  "ablement": 6649,
  "appelles": 6650,
  "atherine": 6651,
  "attendre": 6652,
  "a\u00e9roport": 6653,
  "inations": 6654,
  "mination": 6655,
  "mosph\u00e8re": 6656,
  "paravant": 6657,
  "seigneur": 6658,
  "semblait": 6659,
  "ublicain": 6660,
  "viennent": 6661,
  "\u00e9conomie": 6662,
  "\u2581Adeline": 6663,
  "\u2581Alg\u00e9rie": 6664,
  "\u2581Arr\u00eatez": 6665,
  "\u2581Binaani": 6666,
  "\u2581Champel": 6667,
  "\u2581Chouans": 6668,
  "\u2581Emmenez": 6669,
  "\u2581Folevil": 6670,
  "\u2581Gabriel": 6671,
  "\u2581Gw\u025bl\u025bya": 6672,
  "\u2581Limoges": 6673,
  "\u2581Nicolas": 6674,
  "\u2581Puisque": 6675,
  "\u2581Royaume": 6676,
  "\u2581Surtout": 6677,
  "\u2581Tourner": 6678,
  "\u2581accept\u00e9": 6679,
  "\u2581aimable": 6680,
  "\u2581ameriki": 6681,
  "\u2581appel\u00e9s": 6682,
  "\u2581augment": 6683,
  "\u2581auteurs": 6684,
  "\u2581bink\u025bn\u025b": 6685,
  "\u2581bonk\u0254n\u0254": 6686,
  "\u2581brusque": 6687,
  "\u2581catholi": 6688,
  "\u2581commenc": 6689,
  "\u2581complex": 6690,
  "\u2581cons\u00e9qu": 6691,
  "\u2581contemp": 6692,
  "\u2581content": 6693,
  "\u2581courant": 6694,
  "\u2581cousine": 6695,
  "\u2581crayons": 6696,
  "\u2581culture": 6697,
  "\u2581c\u025b\u0272uman": 6698,
  "\u2581dimansi": 6699,
  "\u2581dioc\u00e8se": 6700,
  "\u2581dipl\u00f4m\u00e9": 6701,
  "\u2581dispose": 6702,
  "\u2581doivent": 6703,
  "\u2581donn\u00e9es": 6704,
  "\u2581envoyer": 6705,
  "\u2581farakan": 6706,
  "\u2581forment": 6707,
  "\u2581heureux": 6708,
  "\u2581imm\u00e9dia": 6709,
  "\u2581inqui\u00e9t": 6710,
  "\u2581juguman": 6711,
  "\u2581lumi\u00e8re": 6712,
  "\u2581machine": 6713,
  "\u2581malades": 6714,
  "\u2581maladie": 6715,
  "\u2581mission": 6716,
  "\u2581montrer": 6717,
  "\u2581morceau": 6718,
  "\u2581nafaman": 6719,
  "\u2581naturel": 6720,
  "\u2581niveaux": 6721,
  "\u2581nousson": 6722,
  "\u2581n\u0254g\u0254man": 6723,
  "\u2581n\u025br\u025bmug": 6724,
  "\u2581oiseaux": 6725,
  "\u2581organis": 6726,
  "\u2581parfait": 6727,
  "\u2581parlent": 6728,
  "\u2581parties": 6729,
  "\u2581pauvres": 6730,
  "\u2581plantes": 6731,
  "\u2581plupart": 6732,
  "\u2581pouvons": 6733,
  "\u2581projets": 6734,
  "\u2581raisons": 6735,
  "\u2581respire": 6736,
  "\u2581revenir": 6737,
  "\u2581revient": 6738,
  "\u2581r\u00e9ponse": 6739,
  "\u2581signifi": 6740,
  "\u2581siranna": 6741,
  "\u2581si\u00e8cles": 6742,
  "\u2581sortant": 6743,
  "\u2581s\u00e9rieux": 6744,
  "\u2581tapissi": 6745,
  "\u2581th\u00e9orie": 6746,
  "\u2581travaux": 6747,
  "\u2581vitesse": 6748,
  "\u2581\u00e9quipes": 6749,
  "\u2581\u0272\u0254g\u0254nc\u025b": 6750,
  "Allemagne": 6751,
  "attendait": 6752,
  "\u2581Bretagne": 6753,
  "\u2581Chartres": 6754,
  "\u2581Florence": 6755,
  "\u2581F\u0254l\u0254f\u0254l\u0254": 6756,
  "\u2581Lafargue": 6757,
  "\u2581Marvejol": 6758,
  "\u2581Philadel": 6759,
  "\u2581Philippe": 6760,
  "\u2581Toulouse": 6761,
  "\u2581Vraiment": 6762,
  "\u2581allemand": 6763,
  "\u2581amoureux": 6764,
  "\u2581ancienne": 6765,
  "\u2581artistes": 6766,
  "\u2581chercher": 6767,
  "\u2581commerce": 6768,
  "\u2581conclure": 6769,
  "\u2581connaiss": 6770,
  "\u2581contente": 6771,
  "\u2581contribu": 6772,
  "\u2581couleurs": 6773,
  "\u2581cr\u00e9ation": 6774,
  "\u2581c\u025bjuguni": 6775,
  "\u2581demandez": 6776,
  "\u2581distance": 6777,
  "\u2581dugutigi": 6778,
  "\u2581d\u00e9jeuner": 6779,
  "\u2581d\u00e9penses": 6780,
  "\u2581d\u0254g\u0254yara": 6781,
  "\u2581familles": 6782,
  "\u2581faudrait": 6783,
  "\u2581filaburu": 6784,
  "\u2581g\u025bl\u025byara": 6785,
  "\u2581imb\u00e9cile": 6786,
  "\u2581interpr\u00e9": 6787,
  "\u2581kononton": 6788,
  "\u2581k\u025bm\u025bsaba": 6789,
  "\u2581majigini": 6790,
  "\u2581makarit\u0254": 6791,
  "\u2581monument": 6792,
  "\u2581munumunu": 6793,
  "\u2581national": 6794,
  "\u2581plaisent": 6795,
  "\u2581poissons": 6796,
  "\u2581position": 6797,
  "\u2581pratique": 6798,
  "\u2581profonde": 6799,
  "\u2581propri\u00e9t": 6800,
  "\u2581regrette": 6801,
  "\u2581relation": 6802,
  "\u2581religion": 6803,
  "\u2581revenait": 6804,
  "\u2581routi\u00e8re": 6805,
  "\u2581r\u00e9pondre": 6806,
  "\u2581septi\u00e8me": 6807,
  "\u2581s\u0254g\u0254mada": 6808,
  "\u2581s\u0254g\u0254s\u0254g\u0254": 6809,
  "\u2581tagamana": 6810,
  "\u2581tumajuma": 6811,
  "\u2581t\u025bm\u025by\u0254r\u0254": 6812,
  "\u2581vacances": 6813,
  "\u2581villages": 6814,
  "\u2581waritigi": 6815,
  "\u2581yananman": 6816,
  "\u2581\u0272agamina": 6817,
  "exp\u00e9riment": 6818,
  "rentissage": 6819,
  "\u2581Autrefois": 6820,
  "\u2581Francfort": 6821,
  "\u2581Hippolyte": 6822,
  "\u2581Poussi\u00e8re": 6823,
  "\u2581Seulement": 6824,
  "\u2581Vielmanay": 6825,
  "\u2581autrement": 6826,
  "\u2581conna\u00eetre": 6827,
  "\u2581contraire": 6828,
  "\u2581davantage": 6829,
  "\u2581d\u0254nkilila": 6830,
  "\u2581end\u00e9mique": 6831,
  "\u2581fonctions": 6832,
  "\u2581militaire": 6833,
  "\u2581mouvement": 6834,
  "\u2581nationale": 6835,
  "\u2581parlement": 6836,
  "\u2581participe": 6837,
  "\u2581pi\u00e9tinait": 6838,
  "\u2581prochaine": 6839,
  "\u2581pr\u00e9c\u00e9dent": 6840,
  "\u2581pr\u00e9occup\u00e9": 6841,
  "\u2581publicit\u00e9": 6842,
  "\u2581publiques": 6843,
  "\u2581p\u00eachaient": 6844,
  "\u2581quatri\u00e8me": 6845,
  "\u2581quinzaine": 6846,
  "\u2581rapproche": 6847,
  "\u2581r\u00e9f\u00e9rence": 6848,
  "\u2581seulement": 6849,
  "\u2581sup\u00e9rieur": 6850,
  "\u2581s\u00e9lection": 6851,
  "\u2581trentaine": 6852,
  "\u2581vingtaine": 6853,
  "\u2581\u019diningali": 6854,
  "\u2581\u0272iningali": 6855,
  "agriculture": 6856,
  "enseignants": 6857,
  "\u2581Folleville": 6858,
  "\u2581absolument": 6859,
  "\u2581barak\u025by\u0254r\u0254": 6860,
  "\u2581cath\u00e9drale": 6861,
  "\u2581collection": 6862,
  "\u2581diff\u00e9rents": 6863,
  "\u2581dugumakolo": 6864,
  "\u2581enregistre": 6865,
  "\u2581hakilisigi": 6866,
  "\u2581iniv\u025brsite": 6867,
  "\u2581principaux": 6868,
  "\u2581quelconque": 6869,
  "\u2581territoire": 6870,
  "\u2581traversant": 6871,
  "\u2581t\u00e9l\u00e9viseur": 6872,
  "\u2581automatique": 6873,
  "\u2581championnat": 6874,
  "\u2581directement": 6875,
  "\u2581dominicaine": 6876,
  "\u2581enseignants": 6877,
  "\u2581grenouilles": 6878,
  "\u2581respectueux": 6879,
  "\u2581ressemblait": 6880,
  "\u2581r\u00e9publicain": 6881,
  "\u2581dispositions": 6882,
  "\u2581d\u00e9partements": 6883,
  "\u2581g\u00e9n\u00e9ralement": 6884,
  "arrondissement": 6885,
  "\u2581imm\u00e9diatement": 6886,
  "exp\u00e9rimentation": 6887,
  "\u2581Malheureusement": 6888,
  ".=": 6889,
  "AR": 6890,
  "Er": 6891,
  "Ge": 6892,
  "II": 6893,
  "ME": 6894,
  "OR": 6895,
  "OT": 6896,
  "dd": 6897,
  "h\u00f4": 6898,
  "m\u0254": 6899,
  "nd": 6900,
  "oo": 6901,
  "rs": 6902,
  "r\u0254": 6903,
  "t\u00f4": 6904,
  "t\u025b": 6905,
  "uc": 6906,
  "wu": 6907,
  "xh": 6908,
  "xy": 6909,
  "yz": 6910,
  "z\u00e9": 6911,
  "\u00e9l": 6912,
  "\u00eda": 6913,
  "\u00f3n": 6914,
  "\u0254p": 6915,
  "\u2581=": 6916,
  "\u2581\u00d4": 6917,
  "Ang": 6918,
  "Aus": 6919,
  "Her": 6920,
  "Jac": 6921,
  "Sim": 6922,
  "Val": 6923,
  "abo": 6924,
  "ach": 6925,
  "aga": 6926,
  "alm": 6927,
  "aly": 6928,
  "anu": 6929,
  "ars": 6930,
  "asc": 6931,
  "ate": 6932,
  "a\u00efs": 6933,
  "bla": 6934,
  "bl\u00e9": 6935,
  "bou": 6936,
  "can": 6937,
  "cas": 6938,
  "cho": 6939,
  "cht": 6940,
  "cio": 6941,
  "cit": 6942,
  "c\u00e9n": 6943,
  "dai": 6944,
  "dar": 6945,
  "d\u0254n": 6946,
  "ein": 6947,
  "fil": 6948,
  "gad": 6949,
  "gor": 6950,
  "g\u025br": 6951,
  "hai": 6952,
  "har": 6953,
  "hes": 6954,
  "hic": 6955,
  "hod": 6956,
  "ies": 6957,
  "ims": 6958,
  "inv": 6959,
  "in\u025b": 6960,
  "irc": 6961,
  "isu": 6962,
  "ito": 6963,
  "kam": 6964,
  "kil": 6965,
  "kin": 6966,
  "kla": 6967,
  "kou": 6968,
  "log": 6969,
  "mac": 6970,
  "ma\u0272": 6971,
  "mbi": 6972,
  "mid": 6973,
  "m\u0254r": 6974,
  "nit": 6975,
  "now": 6976,
  "noy": 6977,
  "nus": 6978,
  "ok\u00f4": 6979,
  "ols": 6980,
  "omi": 6981,
  "om\u00e8": 6982,
  "op\u00e9": 6983,
  "osc": 6984,
  "pas": 6985,
  "pla": 6986,
  "p\u0254l": 6987,
  "rec": 6988,
  "row": 6989,
  "r\u00e9h": 6990,
  "r\u00eat": 6991,
  "sif": 6992,
  "sil": 6993,
  "tek": 6994,
  "tr\u025b": 6995,
  "tte": 6996,
  "t\u00e9e": 6997,
  "t\u025bl": 6998,
  "t\u025bm": 6999,
  "ugi": 7000,
  "ysi": 7001,
  "y\u00e9e": 7002,
  "eg": 7003,
  "Emp": 7004,
  "ago": 7005,
  "cot": 7006,
  "daw": 7007,
  "day": 7008,
  "fag": 7009,
  "low": 7010,
  "off": 7011,
  "ssi": 7012,
  "zam": 7013,
  "zey": 7014,
  "ziw": 7015,
  "zou": 7016,
  "\u00e2te": 7017,
  "\u00e8ge": 7018,
  "\u00e9le": 7019,
  "\u00e9l\u00e9": 7020,
  "\u00een\u00e9": 7021,
  "\u00eete": 7022,
  "\u00f4ts": 7023,
  "\u0254ro": 7024,
  "\u025bms": 7025,
  "\u025brs": 7026,
  "\u0272\u025bs": 7027,
  "\u2581Ag": 7028,
  "\u2581Ai": 7029,
  "\u2581B\u0254": 7030,
  "\u2581Ci": 7031,
  "\u2581Cu": 7032,
  "\u2581DU": 7033,
  "\u2581D\u00e8": 7034,
  "\u2581Eg": 7035,
  "\u2581Hy": 7036,
  "\u2581Ir": 7037,
  "\u2581MA": 7038,
  "\u2581Mb": 7039,
  "\u2581M\u0254": 7040,
  "\u2581N\u00ee": 7041,
  "\u2581Od": 7042,
  "\u2581Oo": 7043,
  "\u2581P\u00e2": 7044,
  "\u2581Sy": 7045,
  "\u2581S\u00e8": 7046,
  "\u2581To": 7047,
  "\u2581UN": 7048,
  "\u2581Ve": 7049,
  "\u2581Zo": 7050,
  "\u2581d\u00ea": 7051,
  "\u2581d\u00ee": 7052,
  "\u2581eh": 7053,
  "\u2581er": 7054,
  "\u2581g\u0254": 7055,
  "\u2581he": 7056,
  "\u2581ly": 7057,
  "\u2581l\u00fb": 7058,
  "\u2581oc": 7059,
  "\u2581os": 7060,
  "\u2581p\u0254": 7061,
  "\u2581th": 7062,
  "\u2581t\u00e0": 7063,
  "\u2581t\u00e2": 7064,
  "\u2581w\u0254": 7065,
  "\u2581y\u00ea": 7066,
  "\u2581\u025bl": 7067,
  "Aube": 7068,
  "Empe": 7069,
  "Unis": 7070,
  "Vous": 7071,
  "abb\u00e9": 7072,
  "acc\u00e9": 7073,
  "admi": 7074,
  "aide": 7075,
  "aiss": 7076,
  "alas": 7077,
  "alle": 7078,
  "amou": 7079,
  "amps": 7080,
  "and\u025b": 7081,
  "ang\u00e9": 7082,
  "anse": 7083,
  "apit": 7084,
  "arer": 7085,
  "atar": 7086,
  "at\u0254w": 7087,
  "baba": 7088,
  "bato": 7089,
  "berc": 7090,
  "berg": 7091,
  "biri": 7092,
  "blik": 7093,
  "boni": 7094,
  "buti": 7095,
  "b\u0254mu": 7096,
  "cace": 7097,
  "cale": 7098,
  "cama": 7099,
  "cati": 7100,
  "cent": 7101,
  "ceur": 7102,
  "Es": 7103,
  "ay\u00e9": 7104,
  "cac": 7105,
  "dum": 7106,
  "ett": 7107,
  "get": 7108,
  "h\u00e9s": 7109,
  "yre": 7110,
  "\u0254mb": 7111,
  "\u2581Bl": 7112,
  "\u2581um": 7113,
  "acre": 7114,
  "bleu": 7115,
  "chec": 7116,
  "ch\u00e9s": 7117,
  "crip": 7118,
  "c\u00e9an": 7119,
  "dace": 7120,
  "dala": 7121,
  "dana": 7122,
  "deau": 7123,
  "deen": 7124,
  "dial": 7125,
  "dias": 7126,
  "dima": 7127,
  "dios": 7128,
  "dite": 7129,
  "dit\u00e9": 7130,
  "donn": 7131,
  "el\u00e9e": 7132,
  "endo": 7133,
  "end\u00e9": 7134,
  "end\u00f4": 7135,
  "ener": 7136,
  "eres": 7137,
  "erth": 7138,
  "fais": 7139,
  "feld": 7140,
  "fest": 7141,
  "f\u0254la": 7142,
  "gana": 7143,
  "gara": 7144,
  "geac": 7145,
  "gins": 7146,
  "goul": 7147,
  "guet": 7148,
  "g\u00e8re": 7149,
  "hara": 7150,
  "hier": 7151,
  "id\u00e9e": 7152,
  "iens": 7153,
  "iger": 7154,
  "igre": 7155,
  "igui": 7156,
  "ig\u025bn": 7157,
  "inet": 7158,
  "iniw": 7159,
  "iril": 7160,
  "ises": 7161,
  "isiw": 7162,
  "isla": 7163,
  "itte": 7164,
  "ival": 7165,
  "iver": 7166,
  "ives": 7167,
  "jean": 7168,
  "jets": 7169,
  "jona": 7170,
  "kadi": 7171,
  "karo": 7172,
  "kini": 7173,
  "kiri": 7174,
  "koro": 7175,
  "ksid": 7176,
  "kuru": 7177,
  "k\u00e8ra": 7178,
  "lani": 7179,
  "lasi": 7180,
  "lier": 7181,
  "lik\u025b": 7182,
  "mard": 7183,
  "meur": 7184,
  "mier": 7185,
  "mois": 7186,
  "mond": 7187,
  "m\u00e9es": 7188,
  "nik\u025b": 7189,
  "niya": 7190,
  "od\u0254r": 7191,
  "od\u025bn": 7192,
  "oger": 7193,
  "olar": 7194,
  "olue": 7195,
  "omba": 7196,
  "omte": 7197,
  "once": 7198,
  "onds": 7199,
  "ons\u00e8": 7200,
  "onze": 7201,
  "orde": 7202,
  ",\u00bb": 7203,
  "\u2581\u201c": 7204,
  "Est": 7205,
  "dji": 7206,
  "faw": 7207,
  "ub\u0254": 7208,
  "ust": 7209,
  "zik": 7210,
  "\u2581ze": 7211,
  "abon": 7212,
  "ar\u025bt": 7213,
  "assy": 7214,
  "ast\u00e9": 7215,
  "beuf": 7216,
  "b\u00e9ri": 7217,
  "ctes": 7218,
  "goya": 7219,
  "ir\u025bn": 7220,
  "orth": 7221,
  "osse": 7222,
  "osso": 7223,
  "ostu": 7224,
  "oupe": 7225,
  "ouso": 7226,
  "pect": 7227,
  "pera": 7228,
  "pied": 7229,
  "pign": 7230,
  "poix": 7231,
  "pons": 7232,
  "rali": 7233,
  "rase": 7234,
  "reux": 7235,
  "rien": 7236,
  "ries": 7237,
  "roge": 7238,
  "rouv": 7239,
  "r\u00e8te": 7240,
  "r\u00e8ve": 7241,
  "r\u00e9es": 7242,
  "sant": 7243,
  "si\u0254n": 7244,
  "tale": 7245,
  "tani": 7246,
  "tave": 7247,
  "tavi": 7248,
  "teli": 7249,
  "thur": 7250,
  "ti\u025bn": 7251,
  "toin": 7252,
  "tran": 7253,
  "trel": 7254,
  "tues": 7255,
  "t\u025bm\u025b": 7256,
  "t\u025bri": 7257,
  "uber": 7258,
  "uchi": 7259,
  "ueur": 7260,
  "ugur": 7261,
  "uira": 7262,
  "ulal": 7263,
  "um\u025bn": 7264,
  "unba": 7265,
  "undo": 7266,
  "unia": 7267,
  "urez": 7268,
  "urou": 7269,
  "usez": 7270,
  "utar": 7271,
  "util": 7272,
  "vale": 7273,
  "vali": 7274,
  "vate": 7275,
  "veau": 7276,
  "vile": 7277,
  "wali": 7278,
  "ward": 7279,
  "wari": 7280,
  "wick": 7281,
  "wula": 7282,
  "yela": 7283,
  "yila": 7284,
  "yira": 7285,
  "zaro": 7286,
  "zi\u0254n": 7287,
  "\u00e8bre": 7288,
  "\u00e9bec": 7289,
  "\u00e9dit": 7290,
  "\u00e9gal": 7291,
  "\u00e9qui": 7292,
  "\u00e9ros": 7293,
  "\u00e9tou": 7294,
  "\u00e9tr\u00e9": 7295,
  "\u0254g\u0254w": 7296,
  "\u0254riw": 7297,
  "\u025bnin": 7298,
  "\u0272asi": 7299,
  "\u2581Ab\u00e8": 7300,
  "\u2581Ama": 7301,
  "\u2581Ane": 7302,
  "\u2581Aux": 7303,
  "\u2581Avr": 7304,
  "\u2581Bak": 7305,
  "\u2581Bow": 7306,
  "\u2581Bru": 7307,
  "\u2581But": 7308,
  "\u2581Cam": 7309,
  "\u2581Cas": 7310,
  "\u2581Cau": 7311,
  "\u2581Caz": 7312,
  "\u2581Cli": 7313,
  "\u2581Cru": 7314,
  "\u2581Cyp": 7315,
  "\u2581C\u025bw": 7316,
  "\u2581C\u025b\u025b": 7317,
  "\u2581Dau": 7318,
  "\u2581Day": 7319,
  "\u2581Dia": 7320,
  "\u2581Din": 7321,
  "\u2581Dis": 7322,
  "\u2581Dut": 7323,
  "\u2581D\u025bl": 7324,
  "\u2581Edi": 7325,
  "\u2581El\u00e9": 7326,
  "\u2581Ema": 7327,
  "\u2581Eme": 7328,
  "\u2581Ent": 7329,
  "\u2581Esp": 7330,
  "\u2581Fey": 7331,
  "\u2581Fis": 7332,
  "\u2581Fri": 7333,
  "\u2581Fr\u00e9": 7334,
  "\u2581Ful": 7335,
  "\u2581Fun": 7336,
  "\u2581F\u0254n": 7337,
  "\u2581Gor": 7338,
  "\u2581Got": 7339,
  "\u2581Gri": 7340,
  "\u2581Gus": 7341,
  "\u2581Hal": 7342,
  "\u2581Hil": 7343,
  "\u2581Hom": 7344,
  "\u2581Iba": 7345,
  "\u2581Ini": 7346,
  "\u2581Isa": 7347,
  "\u2581Jak": 7348,
  "\u2581Kin": 7349,
  "\u2581Koo": 7350,
  "\u2581Koz": 7351,
  "\u2581Kur": 7352,
  "\u2581K\u0254r": 7353,
  "\u2581K\u025bn": 7354,
  "\u2581Lam": 7355,
  "\u2581Loi": 7356,
  "\u2581Lum": 7357,
  "\u2581L\u025bn": 7358,
  "\u2581Mat": 7359,
  "\u2581Mau": 7360,
  "\u2581May": 7361,
  "\u2581Moh": 7362,
  "\u2581Mul": 7363,
  "\u2581M\u0254t": 7364,
  "\u2581M\u025bn": 7365,
  "\u2581Olo": 7366,
  "\u2581Oly": 7367,
  "\u2581Pac": 7368,
  "\u2581Pan": 7369,
  "\u2581Paz": 7370,
  "\u2581Pod": 7371,
  "\u2581Poi": 7372,
  "\u2581Pom": 7373,
  "\u2581Pre": 7374,
  "\u2581P\u00e9t": 7375,
  "\u2581RUE": 7376,
  "\u2581Rav": 7377,
  "\u2581Reg": 7378,
  "\u2581Rod": 7379,
  "\u2581Rou": 7380,
  "\u2581R\u00e9m": 7381,
  "\u2581R\u00e9v": 7382,
  "\u2581R\u0254n": 7383,
  "\u2581Sec": 7384,
  "\u2581Sel": 7385,
  "\u2581Sil": 7386,
  "\u2581Sis": 7387,
  "\u2581Som": 7388,
  "\u2581Stu": 7389,
  "\u2581Tap": 7390,
  "\u2581Tch": 7391,
  "\u2581Tel": 7392,
  "\u2581Tig": 7393,
  "\u2581USA": 7394,
  "\u2581Vas": 7395,
  "\u2581Wak": 7396,
  "\u2581Yon": 7397,
  "\u2581air": 7398,
  "\u2581apl": 7399,
  "\u2581aye": 7400,
  "\u2581bot": 7401,
  "\u2581bri": 7402,
  "\u2581bur": 7403,
  "\u2581buw": 7404,
  "\u2581cab": 7405,
  "\u2581cad": 7406,
  "\u2581cit": 7407,
  "\u2581clo": 7408,
  "\u2581coc": 7409,
  "\u2581day": 7410,
  "\u2581dig": 7411,
  "\u2581d\u00e9m": 7412,
  "\u2581ext": 7413,
  "\u2581faw": 7414,
  "\u2581fee": 7415,
  "\u2581fis": 7416,
  "\u2581fun": 7417,
  "\u2581fus": 7418,
  "\u2581f\u00e8n": 7419,
  "\u2581gai": 7420,
  "\u2581gal": 7421,
  "\u2581g\u025br": 7422,
  "\u2581han": 7423,
  "\u2581her": 7424,
  "\u2581hou": 7425,
  "\u2581hun": 7426,
  "\u2581id\u00e9": 7427,
  "\u2581imm": 7428,
  "\u2581inv": 7429,
  "\u2581jen": 7430,
  "\u2581kle": 7431,
  "\u2581kos": 7432,
  "\u2581kre": 7433,
  "\u2581kum": 7434,
  "\u2581kut": 7435,
  "\u2581k\u025br": 7436,
  "\u2581lav": 7437,
  "\u2581lig": 7438,
  "\u2581l\u025bt": 7439,
  "\u2581mad": 7440,
  "\u2581mix": 7441,
  "\u2581m\u00e9c": 7442,
  "\u2581m\u025br": 7443,
  "\u2581ohh": 7444,
  "\u2581oni": 7445,
  "\u2581opi": 7446,
  "\u2581ph\u00e9": 7447,
  "\u2581pis": 7448,
  "\u2581psy": 7449,
  "\u2581rau": 7450,
  "\u2581reb": 7451,
  "\u2581riz": 7452,
  "\u2581r\u00e8g": 7453,
  "\u2581r\u025bn": 7454,
  "\u2581sam": 7455,
  "\u2581sex": 7456,
  "\u2581sis": 7457,
  "\u2581soo": 7458,
  "\u2581sor": 7459,
  "\u2581sto": 7460,
  "\u2581suu": 7461,
  "\u2581tal": 7462,
  "\u2581tog": 7463,
  "\u2581tul": 7464,
  "\u2581vel": 7465,
  "\u2581vic": 7466,
  "\u2581waa": 7467,
  "\u2581wat": 7468,
  "\u2581ye\u00e9": 7469,
  "\u2581yin": 7470,
  "\u2581yir": 7471,
  "\u2581y\u025bl": 7472,
  "\u2581zon": 7473,
  "\u2581\u00e9ch": 7474,
  "\u2581\u00e9pi": 7475,
  "\u2581\u00e9to": 7476,
  "\u2581\u00e9vo": 7477,
  "\u2581\u00e9v\u00e9": 7478,
  "Marie": 7479,
  "Simon": 7480,
  "abeth": 7481,
  "afoli": 7482,
  "aimai": 7483,
  "aines": 7484,
  "alala": 7485,
  "amine": 7486,
  "am\u00f4g\u00f4": 7487,
  "and\u025br": 7488,
  "anime": 7489,
  "ans\u0254n": 7490,
  "an\u00e7on": 7491,
  "arane": 7492,
  "archi": 7493,
  "ardoz": 7494,
  "auffa": 7495,
  "aules": 7496,
  "avoir": 7497,
  "avou\u00e9": 7498,
  "berge": 7499,
  "bikan": 7500,
  "board": 7501,
  "burgh": 7502,
  "ceaux": 7503,
  "cenci": 7504,
  "cesse": 7505,
  "chard": 7506,
  "chonn": 7507,
  "chose": 7508,
  "conie": 7509,
  "conte": 7510,
  "culin": 7511,
  "cult\u00e9": 7512,
  "duite": 7513,
  "emple": 7514,
  "enait": 7515,
  "enfer": 7516,
  "ennis": 7517,
  "entou": 7518,
  "erson": 7519,
  "expos": 7520,
  "ex\u00e9cu": 7521,
  "f\u00e8res": 7522,
  "garet": 7523,
  "gesse": 7524,
  "glots": 7525,
  "habit": 7526,
  "herbe": 7527,
  "ident": 7528,
  "ieuse": 7529,
  "ilasi": 7530,
  "illan": 7531,
  "illau": 7532,
  "illum": 7533,
  "impos": 7534,
  "incre": 7535,
  "inier": 7536,
  "inion": 7537,
  "inqui": 7538,
  "instr": 7539,
  "irant": 7540,
  "isage": 7541,
  "issin": 7542,
  "iteur": 7543,
  "itiki": 7544,
  "itime": 7545,
  "itini": 7546,
  "iti\u0254n": 7547,
  "jeun\u00e9": 7548,
  "jouta": 7549,
  "juman": 7550,
  "lanta": 7551,
  "leyan": 7552,
  "liers": 7553,
  "liqu\u00e9": 7554,
  "liver": 7555,
  "l\u00e8bre": 7556,
  "maire": 7557,
  "manin": 7558,
  "mises": 7559,
  "monie": 7560,
  "onges": 7561,
  "ontan": 7562,
  "onyme": 7563,
  "ordus": 7564,
  "orgie": 7565,
  "orian": 7566,
  "ossen": 7567,
  "ouhou": 7568,
  "ource": 7569,
  "ourde": 7570,
  "ousou": 7571,
  "oussa": 7572,
  "pains": 7573,
  "pa\u0272\u0254l": 7574,
  "quant": 7575,
  "range": 7576,
  "ran\u00e9e": 7577,
  "raste": 7578,
  "rents": 7579,
  "rirai": 7580,
  "risti": 7581,
  "risto": 7582,
  "roch\u00e9": 7583,
  "ropol": 7584,
  "siy\u0254n": 7585,
  "st\u00e8me": 7586,
  "telle": 7587,
  "tives": 7588,
  "triel": 7589,
  "uisse": 7590,
  "ultes": 7591,
  "ult\u00e9s": 7592,
  "unich": 7593,
  "uniya": 7594,
  "usara": 7595,
  "usiri": 7596,
  "ustin": 7597,
  "utile": 7598,
  "vates": 7599,
  "vigne": 7600,
  "vit\u00e9s": 7601,
  "vradi": 7602,
  "vreux": 7603,
  "v\u025bnsi": 7604,
  "\u00c9cole": 7605,
  "\u00e9l\u00e8ne": 7606,
  "\u00e9poux": 7607,
  "\u00e9rard": 7608,
  "\u00e9tend": 7609,
  "\u00e9tudi": 7610,
  "\u025bnpik": 7611,
  "\u025brnar": 7612,
  "\u2581Albi": 7613,
  "\u2581Ande": 7614,
  "\u2581Ando": 7615,
  "\u2581Anne": 7616,
  "\u2581Avis": 7617,
  "\u2581Bonn": 7618,
  "\u2581Boot": 7619,
  "\u2581Broc": 7620,
  "\u2581B\u025bg\u025b": 7621,
  "\u2581Cant": 7622,
  "\u2581Cara": 7623,
  "\u2581Cass": 7624,
  "\u2581Chab": 7625,
  "\u2581Chai": 7626,
  "\u2581Cham": 7627,
  "\u2581Chap": 7628,
  "\u2581Chey": 7629,
  "\u2581Cinq": 7630,
  "\u2581Comp": 7631,
  "\u2581Conc": 7632,
  "\u2581Coqu": 7633,
  "\u2581Cria": 7634,
  "\u2581Dame": 7635,
  "\u2581Dani": 7636,
  "\u2581Deni": 7637,
  "\u2581Dipl": 7638,
  "\u2581Dole": 7639,
  "\u2581Dond": 7640,
  "\u2581Dran": 7641,
  "\u2581Drou": 7642,
  "\u2581Emma": 7643,
  "\u2581Erik": 7644,
  "\u2581Fani": 7645,
  "\u2581Fara": 7646,
  "\u2581Fari": 7647,
  "\u2581Feli": 7648,
  "\u2581Fern": 7649,
  "\u2581Fint": 7650,
  "\u2581Fler": 7651,
  "\u2581Four": 7652,
  "\u2581Furi": 7653,
  "\u2581Gala": 7654,
  "\u2581Gand": 7655,
  "\u2581Gest": 7656,
  "\u2581Gian": 7657,
  "\u2581Gour": 7658,
  "\u2581G\u00e9n\u00e9": 7659,
  "\u2581Hist": 7660,
  "\u2581Humm": 7661,
  "\u2581Jona": 7662,
  "\u2581Juan": 7663,
  "\u2581Kaba": 7664,
  "\u2581Kari": 7665,
  "\u2581Kart": 7666,
  "\u2581Kel\u00e9": 7667,
  "\u2581Kile": 7668,
  "\u2581Koro": 7669,
  "\u2581Kurs": 7670,
  "\u2581Kuru": 7671,
  "\u2581K\u00e8m\u00e8": 7672,
  "\u2581K\u025bn\u025b": 7673,
  "\u2581Lafi": 7674,
  "\u2581Lisa": 7675,
  "\u2581Liza": 7676,
  "\u2581Lomb": 7677,
  "\u2581Lumi": 7678,
  "\u2581Luwi": 7679,
  "\u2581Mali": 7680,
  "\u2581Mich": 7681,
  "\u2581Moli": 7682,
  "\u2581Mons": 7683,
  "\u2581Moul": 7684,
  "\u2581Moun": 7685,
  "\u2581Muna": 7686,
  "\u2581No\u00ebl": 7687,
  "\u2581Page": 7688,
  "\u2581Pant": 7689,
  "\u2581Papa": 7690,
  "\u2581Peuh": 7691,
  "\u2581Prat": 7692,
  "\u2581Prop": 7693,
  "\u2581Pyr\u00e9": 7694,
  "\u2581P\u00e9cu": 7695,
  "\u2581Rire": 7696,
  "\u2581Rusi": 7697,
  "\u2581Sabu": 7698,
  "\u2581Sami": 7699,
  "\u2581Samu": 7700,
  "\u2581Sanp": 7701,
  "\u2581Sanu": 7702,
  "\u2581Segi": 7703,
  "\u2581Sign": 7704,
  "\u2581Sili": 7705,
  "\u2581Sogo": 7706,
  "\u2581Soli": 7707,
  "\u2581Stal": 7708,
  "\u2581Tama": 7709,
  "\u2581Tant": 7710,
  "\u2581Tera": 7711,
  "\u2581Teri": 7712,
  "\u2581Ting": 7713,
  "\u2581Toni": 7714,
  "\u2581Tres": 7715,
  "\u2581Tulo": 7716,
  "\u2581Tulu": 7717,
  "\u2581T\u00e8m\u00e8": 7718,
  "\u2581T\u025bm\u025b": 7719,
  "\u2581Vers": 7720,
  "\u2581Vill": 7721,
  "\u2581Vitt": 7722,
  "\u2581Vivi": 7723,
  "\u2581Wisc": 7724,
  "\u2581Wula": 7725,
  "\u2581ache": 7726,
  "\u2581aid\u00e9": 7727,
  "\u2581akan": 7728,
  "\u2581ao\u00fbt": 7729,
  "\u2581argu": 7730,
  "\u2581aris": 7731,
  "\u2581assu": 7732,
  "\u2581a\u00een\u00e9": 7733,
  "\u2581base": 7734,
  "\u2581bas\u00e9": 7735,
  "\u2581bira": 7736,
  "\u2581boit": 7737,
  "\u2581bour": 7738,
  "\u2581boy\u00e8": 7739,
  "\u2581bret": 7740,
  "\u2581brit": 7741,
  "\u2581b\u00e8na": 7742,
  "\u2581b\u00e8ra": 7743,
  "\u2581b\u00e8y\u00e9": 7744,
  "\u2581b\u00e9n\u00e9": 7745,
  "\u2581b\u0254r\u0254": 7746,
  "\u2581b\u025bk\u025b": 7747,
  "\u2581calc": 7748,
  "\u2581cand": 7749,
  "\u2581caya": 7750,
  "\u2581chan": 7751,
  "\u2581chas": 7752,
  "\u2581chau": 7753,
  "\u2581chic": 7754,
  "\u2581cime": 7755,
  "\u2581circ": 7756,
  "\u2581clos": 7757,
  "\u2581coin": 7758,
  "\u2581coul": 7759,
  "\u2581crat": 7760,
  "\u2581crit": 7761,
  "\u2581cr\u00e9e": 7762,
  "\u2581c\u00f4te": 7763,
  "\u2581c\u025bg\u025b": 7764,
  "\u2581c\u025bna": 7765,
  "\u2581daje": 7766,
  "\u2581dami": 7767,
  "\u2581diff": 7768,
  "\u2581dima": 7769,
  "\u2581din\u025b": 7770,
  "\u2581djen": 7771,
  "\u2581dort": 7772,
  "\u2581doum": 7773,
  "\u2581dura": 7774,
  "\u2581d\u00e9fi": 7775,
  "\u2581d\u00e9si": 7776,
  "\u2581d\u025bs\u025b": 7777,
  "\u2581essa": 7778,
  "\u2581exp\u00e9": 7779,
  "\u2581fak\u00e8": 7780,
  "\u2581fami": 7781,
  "\u2581fasa": 7782,
  "\u2581faux": 7783,
  "\u2581fest": 7784,
  "\u2581fig\u025b": 7785,
  "\u2581file": 7786,
  "\u2581flan": 7787,
  "\u2581foie": 7788,
  "\u2581fous": 7789,
  "\u2581f\u0254\u0272\u0254": 7790,
  "\u2581galo": 7791,
  "\u2581gans": 7792,
  "\u2581gel\u00e9": 7793,
  "\u2581gnon": 7794,
  "\u2581golf": 7795,
  "\u2581grec": 7796,
  "\u2581grel": 7797,
  "\u2581guet": 7798,
  "\u2581guli": 7799,
  "\u2581g\u00e8r\u00e8": 7800,
  "\u2581g\u025bri": 7801,
  "\u2581h\u025bk\u025b": 7802,
  "\u2581idio": 7803,
  "\u2581irai": 7804,
  "\u2581iras": 7805,
  "\u2581jagw": 7806,
  "\u2581jeni": 7807,
  "\u2581jeux": 7808,
  "\u2581jira": 7809,
  "\u2581j\u0254si": 7810,
  "\u2581kako": 7811,
  "\u2581kant": 7812,
  "\u2581kanw": 7813,
  "\u2581kan\u0272": 7814,
  "\u2581karo": 7815,
  "\u2581kaso": 7816,
  "\u2581kate": 7817,
  "\u2581kiri": 7818,
  "\u2581kiss": 7819,
  "\u2581kis\u025b": 7820,
  "\u2581kodi": 7821,
  "\u2581kok\u00e8": 7822,
  "\u2581koyi": 7823,
  "\u2581kuwa": 7824,
  "\u2581k\u00e8di": 7825,
  "\u2581k\u00e9ra": 7826,
  "\u2581k\u0254nt": 7827,
  "\u2581k\u0254s\u0254": 7828,
  "\u2581k\u025bdi": 7829,
  "\u2581k\u025bto": 7830,
  "\u2581ladj": 7831,
  "\u2581lasi": 7832,
  "\u2581lent": 7833,
  "\u2581lolo": 7834,
  "\u2581loru": 7835,
  "\u2581l\u00e8ve": 7836,
  "\u2581maci": 7837,
  "\u2581malo": 7838,
  "\u2581mama": 7839,
  "\u2581mant": 7840,
  "\u2581meri": 7841,
  "\u2581mien": 7842,
  "\u2581mod\u00e9": 7843,
  "\u2581moli": 7844,
  "\u2581mugu": 7845,
  "\u2581muni": 7846,
  "\u2581m\u00e9da": 7847,
  "\u2581m\u00e9na": 7848,
  "\u2581nog\u00f4": 7849,
  "\u2581noy\u00e9": 7850,
  "\u2581n\u00e8ni": 7851,
  "\u2581n\u00e8r\u00e8": 7852,
  "\u2581n\u025bni": 7853,
  "\u2581pain": 7854,
  "\u2581pako": 7855,
  "\u2581pans": 7856,
  "\u2581pase": 7857,
  "\u2581pati": 7858,
  "\u2581pere": 7859,
  "\u2581pes\u00e9": 7860,
  "\u2581peup": 7861,
  "\u2581plat": 7862,
  "\u2581pose": 7863,
  "\u2581prod": 7864,
  "\u2581rama": 7865,
  "\u2581repi": 7866,
  "\u2581rigo": 7867,
  "\u2581robe": 7868,
  "\u2581rose": 7869,
  "\u2581rura": 7870,
  "\u2581r\u00e9v\u00e9": 7871,
  "\u2581sage": 7872,
  "\u2581sali": 7873,
  "\u2581salo": 7874,
  "\u2581sami": 7875,
  "\u2581sarl": 7876,
  "\u2581sc\u00e9n": 7877,
  "\u2581sien": 7878,
  "\u2581sig\u00ea": 7879,
  "\u2581sig\u025b": 7880,
  "\u2581sing": 7881,
  "\u2581siri": 7882,
  "\u2581sons": 7883,
  "\u2581spec": 7884,
  "\u2581stat": 7885,
  "\u2581stra": 7886,
  "\u2581subi": 7887,
  "\u2581suf\u025b": 7888,
  "\u2581s\u025bzi": 7889,
  "\u2581taba": 7890,
  "\u2581tala": 7891,
  "\u2581tana": 7892,
  "\u2581tapi": 7893,
  "\u2581tch\u00e9": 7894,
  "\u2581teen": 7895,
  "\u2581tent": 7896,
  "\u2581test": 7897,
  "\u2581tire": 7898,
  "\u2581tir\u00e9": 7899,
  "\u2581toit": 7900,
  "\u2581toug": 7901,
  "\u2581tulu": 7902,
  "\u2581t\u00f4r\u00f4": 7903,
  "\u2581vend": 7904,
  "\u2581vict": 7905,
  "\u2581vint": 7906,
  "\u2581vise": 7907,
  "\u2581vive": 7908,
  "\u2581vot\u00e9": 7909,
  "\u2581v\u00e9ri": 7910,
  "\u2581woro": 7911,
  "\u2581wor\u00f4": 7912,
  "\u2581yaf\u00e8": 7913,
  "\u2581ziri": 7914,
  "\u2581\u00c9ric": 7915,
  "\u2581\u00e9cou": 7916,
  "\u2581\u00e9tab": 7917,
  "\u2581\u0153ufs": 7918,
  "\u2581\u0272imi": 7919,
  "\u2581\u0272ina": 7920,
  "\u2581\u0272\u025bl\u025b": 7921,
  "\u2581\u0272\u025bn\u025b": 7922,
  "France": 7923,
  "acteur": 7924,
  "alit\u00e9s": 7925,
  "amande": 7926,
  "ancien": 7927,
  "anisme": 7928,
  "bagat\u0254": 7929,
  "baliya": 7930,
  "cadier": 7931,
  "ctrice": 7932,
  "dalise": 7933,
  "dation": 7934,
  "dirent": 7935,
  "dition": 7936,
  "effect": 7937,
  "endrai": 7938,
  "espion": 7939,
  "etteur": 7940,
  "euille": 7941,
  "gilizi": 7942,
  "illant": 7943,
  "illeur": 7944,
  "illier": 7945,
  "import": 7946,
  "ingamp": 7947,
  "ingrad": 7948,
  "ington": 7949,
  "ini\u00e8re": 7950,
  "intain": 7951,
  "iscine": 7952,
  "iseaux": 7953,
  "issent": 7954,
  "iti\u00e8re": 7955,
  "itrine": 7956,
  "janjan": 7957,
  "k\u0254r\u0254ta": 7958,
  "levait": 7959,
  "liquer": 7960,
  "liquet": 7961,
  "martre": 7962,
  "mbours": 7963,
  "mement": 7964,
  "mitage": 7965,
  "nom\u00e8ne": 7966,
  "ograph": 7967,
  "ources": 7968,
  "ouveau": 7969,
  "pignan": 7970,
  "pi\u00e8res": 7971,
  "quille": 7972,
  "ranges": 7973,
  "rences": 7974,
  "retenu": 7975,
  "r\u00e9able": 7976,
  "sident": 7977,
  "tantin": 7978,
  "ti\u0254nal": 7979,
  "ulaman": 7980,
  "vanche": 7981,
  "veille": 7982,
  "vingts": 7983,
  "ysique": 7984,
  "\u00e9chapp": 7985,
  "\u00e9nieur": 7986,
  "\u00e9poque": 7987,
  "\u00e9tudes": 7988,
  "\u2581Abina": 7989,
  "\u2581Ameri": 7990,
  "\u2581Ana\u00efs": 7991,
  "\u2581Barbe": 7992,
  "\u2581Barth": 7993,
  "\u2581Bercy": 7994,
  "\u2581Borde": 7995,
  "\u2581Borgo": 7996,
  "\u2581Bourg": 7997,
  "\u2581Brass": 7998,
  "\u2581Braun": 7999,
  "\u2581Brest": 8000,
  "\u2581B\u00e9rin": 8001,
  "\u2581Cardi": 8002,
  "\u2581Cesse": 8003,
  "\u2581Colle": 8004,
  "\u2581Conse": 8005,
  "\u2581Cours": 8006,
  "\u2581Court": 8007,
  "\u2581Croix": 8008,
  "\u2581Digne": 8009,
  "\u2581Dites": 8010,
  "\u2581Faire": 8011,
  "\u2581Fives": 8012,
  "\u2581Fons\u00e8": 8013,
  "\u2581Fulup": 8014,
  "\u2581Genat": 8015,
  "\u2581Gradi": 8016,
  "\u2581Guate": 8017,
  "\u2581Helle": 8018,
  "\u2581Henry": 8019,
  "\u2581Itali": 8020,
  "\u2581Judas": 8021,
  "\u2581Juman": 8022,
  "\u2581Karl\u0254": 8023,
  "\u2581Kembs": 8024,
  "\u2581Konon": 8025,
  "\u2581Li\u00e8ge": 8026,
  "\u2581Mardi": 8027,
  "\u2581Maroc": 8028,
  "\u2581Mende": 8029,
  "\u2581Mesie": 8030,
  "\u2581Morte": 8031,
  "\u2581Musso": 8032,
  "\u2581M\u00e9zin": 8033,
  "\u2581M\u025btri": 8034,
  "\u2581Nicey": 8035,
  "\u2581Nunuw": 8036,
  "\u2581Outar": 8037,
  "\u2581Pachy": 8038,
  "\u2581Pek\u025bn": 8039,
  "\u2581Pitts": 8040,
  "\u2581Porte": 8041,
  "\u2581Prier": 8042,
  "\u2581Reims": 8043,
  "\u2581Reven": 8044,
  "\u2581Roche": 8045,
  "\u2581Roger": 8046,
  "\u2581Rouss": 8047,
  "\u2581Russe": 8048,
  "\u2581Salle": 8049,
  "\u2581Sanga": 8050,
  "\u2581Sanni": 8051,
  "\u2581Santa": 8052,
  "\u2581Sarah": 8053,
  "\u2581Sicar": 8054,
  "\u2581Simon": 8055,
  "\u2581Siran": 8056,
  "\u2581Soyez": 8057,
  "\u2581Sugur": 8058,
  "\u2581Telle": 8059,
  "\u2581Tenay": 8060,
  "\u2581Terre": 8061,
  "\u2581Tiy\u025bn": 8062,
  "\u2581Tours": 8063,
  "\u2581Venez": 8064,
  "\u2581Wulum": 8065,
  "\u2581Zoz\u025bf": 8066,
  "\u2581aider": 8067,
  "\u2581aimas": 8068,
  "\u2581aimes": 8069,
  "\u2581alibi": 8070,
  "\u2581amont": 8071,
  "\u2581apais": 8072,
  "\u2581appar": 8073,
  "\u2581armoi": 8074,
  "\u2581attra": 8075,
  "\u2581aurez": 8076,
  "\u2581autor": 8077,
  "\u2581avi\u0254n": 8078,
  "\u2581baana": 8079,
  "\u2581bagen": 8080,
  "\u2581balle": 8081,
  "\u2581bancs": 8082,
  "\u2581bandi": 8083,
  "\u2581baron": 8084,
  "\u2581berce": 8085,
  "\u2581bilan": 8086,
  "\u2581bonba": 8087,
  "\u2581bonda": 8088,
  "\u2581bouff": 8089,
  "\u2581bo\u00eete": 8090,
  "\u2581bruit": 8091,
  "\u2581cass\u00e9": 8092,
  "\u2581champ": 8093,
  "\u2581chok\u00f4": 8094,
  "\u2581chute": 8095,
  "\u2581civil": 8096,
  "\u2581clari": 8097,
  "\u2581coeur": 8098,
  "\u2581cong\u00e9": 8099,
  "\u2581costu": 8100,
  "\u2581crier": 8101,
  "\u2581croit": 8102,
  "\u2581cr\u00e9\u00e9e": 8103,
  "\u2581c\u00e9l\u00e9b": 8104,
  "\u2581dabla": 8105,
  "\u2581dakun": 8106,
  "\u2581danse": 8107,
  "\u2581datou": 8108,
  "\u2581diy\u025bn": 8109,
  "\u2581djabi": 8110,
  "\u2581donk\u025b": 8111,
  "\u2581dormi": 8112,
  "\u2581drame": 8113,
  "\u2581dr\u00f4le": 8114,
  "\u2581d\u00e9mis": 8115,
  "\u2581d\u00e9ter": 8116,
  "\u2581d\u0254nna": 8117,
  "\u2581ek\u0254li": 8118,
  "\u2581er\u0254pu": 8119,
  "\u2581euros": 8120,
  "\u2581faman": 8121,
  "\u2581fanf\u00e8": 8122,
  "\u2581farat": 8123,
  "\u2581ferm\u00e9": 8124,
  "\u2581fiche": 8125,
  "\u2581filaw": 8126,
  "\u2581finit": 8127,
  "\u2581finma": 8128,
  "\u2581fonda": 8129,
  "\u2581foule": 8130,
  "\u2581friss": 8131,
  "\u2581futur": 8132,
  "\u2581glasi": 8133,
  "\u2581gnaf\u00e8": 8134,
  "\u2581gnor\u00f4": 8135,
  "\u2581gorge": 8136,
  "\u2581grond": 8137,
  "\u2581grupu": 8138,
  "\u2581gundo": 8139,
  "\u2581gu\u00e9ri": 8140,
  "\u2581gw\u025bma": 8141,
  "\u2581h\u00e9ros": 8142,
  "\u2581illus": 8143,
  "\u2581impri": 8144,
  "\u2581jambe": 8145,
  "\u2581jayan": 8146,
  "\u2581kaman": 8147,
  "\u2581karan": 8148,
  "\u2581kasso": 8149,
  "\u2581kilen": 8150,
  "\u2581kiuma": 8151,
  "\u2581klant": 8152,
  "\u2581kol\u0254n": 8153,
  "\u2581koul\u00e9": 8154,
  "\u2581kouna": 8155,
  "\u2581kub\u025bn": 8156,
  "\u2581kunna": 8157,
  "\u2581kuran": 8158,
  "\u2581kurun": 8159,
  "\u2581k\u0254l\u0254n": 8160,
  "\u2581k\u0254r\u0254w": 8161,
  "\u2581lieux": 8162,
  "\u2581lisez": 8163,
  "\u2581logis": 8164,
  "\u2581manus": 8165,
  "\u2581mardi": 8166,
  "\u2581masse": 8167,
  "\u2581menac": 8168,
  "\u2581mener": 8169,
  "\u2581micro": 8170,
  "\u2581mince": 8171,
  "\u2581muf\u025bn": 8172,
  "\u2581munlo": 8173,
  "\u2581m\u025bnna": 8174,
  "\u2581m\u025btri": 8175,
  "\u2581nanan": 8176,
  "\u2581neig\u00e9": 8177,
  "\u2581neuve": 8178,
  "\u2581notes": 8179,
  "\u2581nuire": 8180,
  "\u2581nuits": 8181,
  "\u2581numan": 8182,
  "\u2581n\u00f4tre": 8183,
  "\u2581offre": 8184,
  "\u2581olymp": 8185,
  "\u2581oncle": 8186,
  "\u2581panna": 8187,
  "\u2581parce": 8188,
  "\u2581parut": 8189,
  "\u2581payer": 8190,
  "\u2581perds": 8191,
  "\u2581phare": 8192,
  "\u2581piles": 8193,
  "\u2581poids": 8194,
  "\u2581porti": 8195,
  "\u2581poss\u00e9": 8196,
  "\u2581prati": 8197,
  "\u2581proph": 8198,
  "\u2581prote": 8199,
  "\u2581pr\u00eate": 8200,
  "\u2581p\u00e9ril": 8201,
  "\u2581quart": 8202,
  "\u2581ramen": 8203,
  "\u2581range": 8204,
  "\u2581rap\u0254r": 8205,
  "\u2581recom": 8206,
  "\u2581remet": 8207,
  "\u2581roses": 8208,
  "\u2581sacr\u00e9": 8209,
  "\u2581salon": 8210,
  "\u2581sanpi": 8211,
  "\u2581sap\u025bl": 8212,
  "\u2581saria": 8213,
  "\u2581sauv\u00e9": 8214,
  "\u2581serai": 8215,
  "\u2581signe": 8216,
  "\u2581siraw": 8217,
  "\u2581sound": 8218,
  "\u2581soyez": 8219,
  "\u2581stand": 8220,
  "\u2581succ\u00e9": 8221,
  "\u2581sucre": 8222,
  "\u2581s\u025bng\u0254": 8223,
  "\u2581taire": 8224,
  "\u2581tanni": 8225,
  "\u2581tchi\u00e9": 8226,
  "\u2581tente": 8227,
  "\u2581terme": 8228,
  "\u2581tilen": 8229,
  "\u2581tires": 8230,
  "\u2581tyran": 8231,
  "\u2581t\u00eates": 8232,
  "\u2581t\u0254riw": 8233,
  "\u2581ubi\u025bn": 8234,
  "\u2581vache": 8235,
  "\u2581venez": 8236,
  "\u2581venge": 8237,
  "\u2581verti": 8238,
  "\u2581veste": 8239,
  "\u2581vid\u00e9o": 8240,
  "\u2581voulu": 8241,
  "\u2581waati": 8242,
  "\u2581wagat": 8243,
  "\u2581walaw": 8244,
  "\u2581woula": 8245,
  "\u2581woul\u00e9": 8246,
  "\u2581wulen": 8247,
  "\u2581y\u0254g\u0254n": 8248,
  "\u2581\u00e9chec": 8249,
  "\u2581\u00e9lev\u00e9": 8250,
  "\u2581\u00e9l\u00e8ve": 8251,
  "\u2581\u00e9poux": 8252,
  "\u2581\u0272inan": 8253,
  "Escanis": 8254,
  "Georges": 8255,
  "Jacques": 8256,
  "abagat\u0254": 8257,
  "acheter": 8258,
  "aimerai": 8259,
  "aisseur": 8260,
  "anislas": 8261,
  "anti\u00e8me": 8262,
  "archite": 8263,
  "arrache": 8264,
  "athilde": 8265,
  "cepteur": 8266,
  "chonnet": 8267,
  "dernier": 8268,
  "ducteur": 8269,
  "embourg": 8270,
  "entines": 8271,
  "esp\u00e9rez": 8272,
  "esseurs": 8273,
  "guerite": 8274,
  "heureux": 8275,
  "horreur": 8276,
  "illerie": 8277,
  "isateur": 8278,
  "k\u0254r\u0254baw": 8279,
  "landais": 8280,
  "llement": 8281,
  "manbolo": 8282,
  "occuper": 8283,
  "ographe": 8284,
  "oration": 8285,
  "ortable": 8286,
  "ramment": 8287,
  "rations": 8288,
  "ruction": 8289,
  "uberlus": 8290,
  "urumani": 8291,
  "\u2581Alfred": 8292,
  "\u2581Al\u025bksi": 8293,
  "\u2581Arthur": 8294,
  "\u2581Babose": 8295,
  "\u2581Balzac": 8296,
  "\u2581Boeres": 8297,
  "\u2581Bonjou": 8298,
  "\u2581Botrel": 8299,
  "\u2581Cadore": 8300,
  "\u2581Carlos": 8301,
  "\u2581Chacun": 8302,
  "\u2581Charny": 8303,
  "\u2581Cogodi": 8304,
  "\u2581Colomb": 8305,
  "\u2581C\u025bnc\u025bn": 8306,
  "\u2581Denmis": 8307,
  "\u2581Didier": 8308,
  "\u2581Dofine": 8309,
  "\u2581Dossen": 8310,
  "\u2581D\u0254kt\u025br": 8311,
  "\u2581Encore": 8312,
  "\u2581Fantan": 8313,
  "\u2581Figeac": 8314,
  "\u2581Fleury": 8315,
  "\u2581Franci": 8316,
  "\u2581Freder": 8317,
  "\u2581Gaudin": 8318,
  "\u2581Gordes": 8319,
  "\u2581Goutte": 8320,
  "\u2581Grande": 8321,
  "\u2581Honor\u00e9": 8322,
  "\u2581Jeanne": 8323,
  "\u2581Keinec": 8324,
  "\u2581Kounou": 8325,
  "\u2581K\u0254n\u0254na": 8326,
  "\u2581Lequel": 8327,
  "\u2581Lozano": 8328,
  "\u2581Mackle": 8329,
  "\u2581Malgr\u00e9": 8330,
  "\u2581Maloya": 8331,
  "\u2581Marthe": 8332,
  "\u2581Marvez": 8333,
  "\u2581Mougan": 8334,
  "\u2581Munich": 8335,
  "\u2581Napole": 8336,
  "\u2581Nevers": 8337,
  "\u2581Olympe": 8338,
  "\u2581Parrot": 8339,
  "\u2581Passer": 8340,
  "\u2581Petits": 8341,
  "\u2581Pl\u00e9rin": 8342,
  "\u2581Potier": 8343,
  "\u2581Pourvu": 8344,
  "\u2581Pouvez": 8345,
  "\u2581Pr\u00e9nom": 8346,
  "\u2581P\u00e2ques": 8347,
  "\u2581P\u00e9rign": 8348,
  "\u2581Qu\u00e9bec": 8349,
  "\u2581Rendez": 8350,
  "\u2581R\u00e9p\u00e8te": 8351,
  "\u2581Sabana": 8352,
  "\u2581Sabina": 8353,
  "\u2581Sandji": 8354,
  "\u2581Saurat": 8355,
  "\u2581Serres": 8356,
  "\u2581Suisse": 8357,
  "\u2581Urbain": 8358,
  "\u2581Victor": 8359,
  "\u2581V\u025bnsan": 8360,
  "\u2581Wakati": 8361,
  "\u2581Walima": 8362,
  "\u2581abrite": 8363,
  "\u2581achet\u00e9": 8364,
  "\u2581ajouta": 8365,
  "\u2581alfr\u025bd": 8366,
  "\u2581arm\u00e9es": 8367,
  "\u2581arriva": 8368,
  "\u2581aspira": 8369,
  "\u2581assass": 8370,
  "\u2581auront": 8371,
  "\u2581avocat": 8372,
  "\u2581baiser": 8373,
  "\u2581ballon": 8374,
  "\u2581bataki": 8375,
  "\u2581bateau": 8376,
  "\u2581blague": 8377,
  "\u2581blancs": 8378,
  "\u2581bolira": 8379,
  "\u2581bonjou": 8380,
  "\u2581bonnes": 8381,
  "\u2581bonnet": 8382,
  "\u2581boules": 8383,
  "\u2581bourou": 8384,
  "\u2581budget": 8385,
  "\u2581bureau": 8386,
  "\u2581buruju": 8387,
  "\u2581cadeau": 8388,
  "\u2581canton": 8389,
  "\u2581carafe": 8390,
  "\u2581chant\u00e9": 8391,
  "\u2581charg\u00e9": 8392,
  "\u2581chauff": 8393,
  "\u2581classe": 8394,
  "\u2581client": 8395,
  "\u2581cloche": 8396,
  "\u2581cogora": 8397,
  "\u2581collab": 8398,
  "\u2581col\u00e8re": 8399,
  "\u2581connue": 8400,
  "\u2581couch\u00e9": 8401,
  "\u2581courts": 8402,
  "\u2581criait": 8403,
  "\u2581c\u025bjugu": 8404,
  "\u2581dafani": 8405,
  "\u2581dankan": 8406,
  "\u2581daraka": 8407,
  "\u2581depite": 8408,
  "\u2581devint": 8409,
  "\u2581devoir": 8410,
  "\u2581disque": 8411,
  "\u2581doubl\u00e9": 8412,
  "\u2581douhou": 8413,
  "\u2581dousou": 8414,
  "\u2581d\u00e9di\u00e9e": 8415,
  "\u2581d\u00e9faut": 8416,
  "\u2581d\u00e9fini": 8417,
  "\u2581d\u00e9pend": 8418,
  "\u2581d\u0254\u0254nin": 8419,
  "\u2581emprun": 8420,
  "\u2581entour": 8421,
  "\u2581entrer": 8422,
  "\u2581fagala": 8423,
  "\u2581faible": 8424,
  "\u2581famiya": 8425,
  "\u2581famuna": 8426,
  "\u2581famuya": 8427,
  "\u2581fasugu": 8428,
  "\u2581ferela": 8429,
  "\u2581figure": 8430,
  "\u2581flibus": 8431,
  "\u2581forces": 8432,
  "\u2581fraise": 8433,
  "\u2581frappe": 8434,
  "\u2581fruits": 8435,
  "\u2581furula": 8436,
  "\u2581gagner": 8437,
  "\u2581garder": 8438,
  "\u2581grimpe": 8439,
  "\u2581grotte": 8440,
  "\u2581g\u00e9ants": 8441,
  "\u2581hak\u025bto": 8442,
  "\u2581hamina": 8443,
  "\u2581hasard": 8444,
  "\u2581h\u025br\u025bk\u025b": 8445,
  "\u2581inclus": 8446,
  "\u2581jalaki": 8447,
  "\u2581jarabi": 8448,
  "\u2581jik\u0254n\u0254": 8449,
  "\u2581jouets": 8450,
  "\u2581justif": 8451,
  "\u2581kalanw": 8452,
  "\u2581kisira": 8453,
  "\u2581koulou": 8454,
  "\u2581kouman": 8455,
  "\u2581kulela": 8456,
  "\u2581kulera": 8457,
  "\u2581kununa": 8458,
  "\u2581k\u00e8wali": 8459,
  "\u2581k\u0254r\u0254ba": 8460,
  "\u2581k\u0254r\u0254t\u0254": 8461,
  "\u2581k\u0254segi": 8462,
  "\u2581k\u025bcogo": 8463,
  "\u2581k\u025bn\u025bya": 8464,
  "\u2581k\u025bwale": 8465,
  "\u2581labila": 8466,
  "\u2581laides": 8467,
  "\u2581lakisi": 8468,
  "\u2581lamusa": 8469,
  "\u2581larara": 8470,
  "\u2581lasigi": 8471,
  "\u2581latig\u00ea": 8472,
  "\u2581layuru": 8473,
  "\u2581lay\u0254r\u0254": 8474,
  "\u2581lemuru": 8475,
  "\u2581le\u00e7ons": 8476,
  "\u2581lourde": 8477,
  "\u2581l\u0254g\u0254ra": 8478,
  "\u2581l\u0254y\u0254r\u0254": 8479,
  "\u2581madamu": 8480,
  "\u2581majigi": 8481,
  "\u2581makoya": 8482,
  "\u2581malgr\u00e9": 8483,
  "\u2581maliya": 8484,
  "\u2581maloya": 8485,
  "\u2581marier": 8486,
  "\u2581matins": 8487,
  "\u2581medayi": 8488,
  "\u2581mesiye": 8489,
  "\u2581minuit": 8490,
  "\u2581monter": 8491,
  "\u2581moteur": 8492,
  "\u2581mourut": 8493,
  "\u2581moyens": 8494,
  "\u2581m\u0254g\u0254d\u0254": 8495,
  "\u2581m\u0254g\u0254si": 8496,
  "\u2581m\u025bn\u025bna": 8497,
  "\u2581nins\u0254n": 8498,
  "\u2581offici": 8499,
  "\u2581olivie": 8500,
  "\u2581orient": 8501,
  "\u2581ouvrez": 8502,
  "\u2581palais": 8503,
  "\u2581parent": 8504,
  "\u2581parisi": 8505,
  "\u2581partis": 8506,
  "\u2581peines": 8507,
  "\u2581photos": 8508,
  "\u2581plassi": 8509,
  "\u2581pleine": 8510,
  "\u2581portes": 8511,
  "\u2581po\u00e9sie": 8512,
  "\u2581prenez": 8513,
  "\u2581prises": 8514,
  "\u2581probl\u00e9": 8515,
  "\u2581promis": 8516,
  "\u2581pr\u00e9cis": 8517,
  "\u2581pr\u025btri": 8518,
  "\u2581puisqu": 8519,
  "\u2581quitta": 8520,
  "\u2581redout": 8521,
  "\u2581refait": 8522,
  "\u2581refus\u00e9": 8523,
  "\u2581remets": 8524,
  "\u2581rendez": 8525,
  "\u2581renouv": 8526,
  "\u2581r\u00e9comp": 8527,
  "\u2581r\u00e9put\u00e9": 8528,
  "\u2581savons": 8529,
  "\u2581seront": 8530,
  "\u2581sigara": 8531,
  "\u2581songon": 8532,
  "\u2581soumis": 8533,
  "\u2581sporti": 8534,
  "\u2581subaga": 8535,
  "\u2581suivit": 8536,
  "\u2581s\u00e9cher": 8537,
  "\u2581s\u0254r\u0254li": 8538,
  "\u2581s\u0254r\u0254mi": 8539,
  "\u2581s\u0254r\u0254ra": 8540,
  "\u2581s\u025bk\u0254ra": 8541,
  "\u2581tamoul": 8542,
  "\u2581tchira": 8543,
  "\u2581tenait": 8544,
  "\u2581termes": 8545,
  "\u2581titres": 8546,
  "\u2581ti\u0272\u025bna": 8547,
  "\u2581tordus": 8548,
  "\u2581tounti": 8549,
  "\u2581tourte": 8550,
  "\u2581trains": 8551,
  "\u2581tulok\u025b": 8552,
  "\u2581t\u0254g\u0254la": 8553,
  "\u2581t\u0254r\u0254la": 8554,
  "\u2581valise": 8555,
  "\u2581vendez": 8556,
  "\u2581vendre": 8557,
  "\u2581venons": 8558,
  "\u2581villes": 8559,
  "\u2581visage": 8560,
  "\u2581visite": 8561,
  "\u2581voient": 8562,
  "\u2581voyant": 8563,
  "\u2581wariko": 8564,
  "\u2581wulada": 8565,
  "\u2581yalala": 8566,
  "\u2581yamog\u00f4": 8567,
  "\u2581yingon": 8568,
  "\u2581yinika": 8569,
  "\u2581y\u0254r\u0254b\u025b": 8570,
  "\u2581y\u0254r\u0254ra": 8571,
  "\u2581y\u025bl\u025bra": 8572,
  "\u2581\u00e9conom": 8573,
  "\u2581\u00e9glise": 8574,
  "\u2581\u00e9limin": 8575,
  "\u2581\u00e9pouse": 8576,
  "\u2581\u00e9tapes": 8577,
  "\u2581\u00e9tudi\u00e9": 8578,
  "\u2581\u0272af\u0254ra": 8579,
  "\u2581\u0272akili": 8580,
  "\u2581\u0272amal\u0254": 8581,
  "\u2581\u0272ataga": 8582,
  "\u2581\u0272ining": 8583,
  "\u2581\u0272umana": 8584,
  "Empereur": 8585,
  "ceptionn": 8586,
  "dagascar": 8587,
  "d\u00e9jeuner": 8588,
  "effectue": 8589,
  "entendez": 8590,
  "habiller": 8591,
  "habitude": 8592,
  "inkoulou": 8593,
  "installe": 8594,
  "langerie": 8595,
  "nowboard": 8596,
  "occasion": 8597,
  "ographie": 8598,
  "piration": 8599,
  "quatorze": 8600,
  "quilibre": 8601,
  "ristophe": 8602,
  "tivement": 8603,
  "\u2581Afrique": 8604,
  "\u2581Alen\u00e7on": 8605,
  "\u2581Antonio": 8606,
  "\u2581Asseyez": 8607,
  "\u2581Belfort": 8608,
  "\u2581Biduuru": 8609,
  "\u2581Bient\u00f4t": 8610,
  "\u2581Cavrois": 8611,
  "\u2581Colonel": 8612,
  "\u2581Connais": 8613,
  "\u2581Cosette": 8614,
  "\u2581Damiens": 8615,
  "\u2581Donkili": 8616,
  "\u2581Doussou": 8617,
  "\u2581Dusukun": 8618,
  "\u2581D\u0254nkili": 8619,
  "\u2581Excusez": 8620,
  "\u2581Forfert": 8621,
  "\u2581Francis": 8622,
  "\u2581Furiani": 8623,
  "\u2581Gustave": 8624,
  "\u2581G\u00e9orgie": 8625,
  "\u2581Kalanso": 8626,
  "\u2581Lavradi": 8627,
  "\u2581M\u00e9diter": 8628,
  "\u2581Nouveau": 8629,
  "\u2581Olivier": 8630,
  "\u2581Orl\u00e9ans": 8631,
  "\u2581Parlons": 8632,
  "\u2581Pasim\u025br": 8633,
  "\u2581Quelles": 8634,
  "\u2581R\u00e9muret": 8635,
  "\u2581Salaise": 8636,
  "\u2581Seconde": 8637,
  "\u2581Siginan": 8638,
  "\u2581Soci\u00e9t\u00e9": 8639,
  "\u2581Valence": 8640,
  "\u2581Vidalat": 8641,
  "\u2581Vikings": 8642,
  "\u2581adresse": 8643,
  "\u2581agressi": 8644,
  "\u2581aim\u00e2tes": 8645,
  "\u2581ajouter": 8646,
  "\u2581allions": 8647,
  "\u2581appelez": 8648,
  "\u2581arriver": 8649,
  "\u2581arriv\u00e9s": 8650,
  "\u2581attaque": 8651,
  "\u2581atteint": 8652,
  "\u2581attribu": 8653,
  "\u2581baisser": 8654,
  "\u2581balbuti": 8655,
  "\u2581barinan": 8656,
  "\u2581bolokan": 8657,
  "\u2581captur\u00e9": 8658,
  "\u2581chanter": 8659,
  "\u2581chienne": 8660,
  "\u2581coll\u00e8ge": 8661,
  "\u2581communi": 8662,
  "\u2581compter": 8663,
  "\u2581constat": 8664,
  "\u2581copains": 8665,
  "\u2581coucher": 8666,
  "\u2581couvert": 8667,
  "\u2581crit\u00e8re": 8668,
  "\u2581curieux": 8669,
  "\u2581c\u00e9l\u00e8bre": 8670,
  "\u2581devrais": 8671,
  "\u2581dispute": 8672,
  "\u2581divorce": 8673,
  "\u2581dollars": 8674,
  "\u2581dommage": 8675,
  "\u2581dongili": 8676,
  "\u2581donnant": 8677,
  "\u2581durunan": 8678,
  "\u2581d\u00e9fense": 8679,
  "\u2581d\u00e9jeun\u00e9": 8680,
  "\u2581d\u00e9passe": 8681,
  "\u2581d\u00e9put\u00e9s": 8682,
  "\u2581d\u00e9vast\u00e9": 8683,
  "\u2581endroit": 8684,
  "\u2581enfance": 8685,
  "\u2581ennemis": 8686,
  "\u2581entends": 8687,
  "\u2581enterre": 8688,
  "\u2581enterr\u00e9": 8689,
  "\u2581enti\u00e8re": 8690,
  "\u2581environ": 8691,
  "\u2581fangara": 8692,
  "\u2581fankele": 8693,
  "\u2581fatigue": 8694,
  "\u2581femelle": 8695,
  "\u2581feuille": 8696,
  "\u2581finirai": 8697,
  "\u2581flannan": 8698,
  "\u2581fortune": 8699,
  "\u2581fraises": 8700,
  "\u2581furieux": 8701,
  "\u2581gilanan": 8702,
  "\u2581gnam\u00f4g\u00f4": 8703,
  "\u2581gnanab\u00f4": 8704,
  "\u2581grosses": 8705,
  "\u2581habitez": 8706,
  "\u2581hauteur": 8707,
  "\u2581hommage": 8708,
  "\u2581honn\u00eate": 8709,
  "\u2581importe": 8710,
  "\u2581indique": 8711,
  "\u2581inutile": 8712,
  "\u2581inviter": 8713,
  "\u2581jaatig\u025b": 8714,
  "\u2581kalanfa": 8715,
  "\u2581kunsigi": 8716,
  "\u2581kuntanw": 8717,
  "\u2581longues": 8718,
  "\u2581lorsque": 8719,
  "\u2581l\u0254g\u0254kun": 8720,
  "\u2581mainten": 8721,
  "\u2581manquez": 8722,
  "\u2581meubles": 8723,
  "\u2581miennes": 8724,
  "\u2581miracle": 8725,
  "\u2581moindre": 8726,
  "\u2581montait": 8727,
  "\u2581musoman": 8728,
  "\u2581m\u00e9thode": 8729,
  "\u2581m\u0254g\u0254fag": 8730,
  "\u2581m\u0254g\u0254min": 8731,
  "\u2581m\u0254ndial": 8732,
  "\u2581niny\u0254r\u0254": 8733,
  "\u2581observa": 8734,
  "\u2581ol\u025bnpik": 8735,
  "\u2581pardonn": 8736,
  "\u2581parrain": 8737,
  "\u2581partage": 8738,
  "\u2581partent": 8739,
  "\u2581partici": 8740,
  "\u2581partout": 8741,
  "\u2581passage": 8742,
  "\u2581peintre": 8743,
  "\u2581premiye": 8744,
  "\u2581puisque": 8745,
  "\u2581p\u00e9riode": 8746,
  "\u2581p\u00eachent": 8747,
  "\u2581p\u00eachera": 8748,
  "\u2581p\u025bntiri": 8749,
  "\u2581raconte": 8750,
  "\u2581radical": 8751,
  "\u2581rassure": 8752,
  "\u2581regarda": 8753,
  "\u2581rentrer": 8754,
  "\u2581restera": 8755,
  "\u2581retrait": 8756,
  "\u2581retrouv": 8757,
  "\u2581reviens": 8758,
  "\u2581rivi\u00e8re": 8759,
  "\u2581r\u00e9alis\u00e9": 8760,
  "\u2581r\u00e9pondu": 8761,
  "\u2581r\u00e9ussit": 8762,
  "\u2581sagesse": 8763,
  "\u2581sauvage": 8764,
  "\u2581seconde": 8765,
  "\u2581sentait": 8766,
  "\u2581serpent": 8767,
  "\u2581siennes": 8768,
  "\u2581sirayan": 8769,
  "\u2581sodassi": 8770,
  "\u2581souffri": 8771,
  "\u2581station": 8772,
  "\u2581stupide": 8773,
  "\u2581sunguru": 8774,
  "\u2581support": 8775,
  "\u2581surtout": 8776,
  "\u2581tchaman": 8777,
  "\u2581termine": 8778,
  "\u2581troupes": 8779,
  "\u2581verrons": 8780,
  "\u2581visible": 8781,
  "\u2581volont\u00e9": 8782,
  "\u2581voulais": 8783,
  "\u2581voulant": 8784,
  "\u2581yagamou": 8785,
  "\u2581y\u0254r\u0254jan": 8786,
  "\u2581\u00e9change": 8787,
  "\u2581\u00e9paules": 8788,
  "\u2581\u0272am\u0254g\u0254w": 8789,
  "\u2581\u0272any\u0254r\u0254": 8790,
  "Assembl\u00e9e": 8791,
  "ach\u00e8terai": 8792,
  "entendais": 8793,
  "entourais": 8794,
  "ililabaga": 8795,
  "instruire": 8796,
  "\u00e9croulait": 8797,
  "\u00e9tudiants": 8798,
  "\u2581Attendez": 8799,
  "\u2581Belgique": 8800,
  "\u2581Bertrand": 8801,
  "\u2581Besan\u00e7on": 8802,
  "\u2581Centrale": 8803,
  "\u2581Chaumont": 8804,
  "\u2581Cheylard": 8805,
  "\u2581Cydalise": 8806,
  "\u2581D\u00e8missin": 8807,
  "\u2581Enjolras": 8808,
  "\u2581Fernande": 8809,
  "\u2581Filaburu": 8810,
  "\u2581Flamande": 8811,
  "\u2581Fons\u00e8gue": 8812,
  "\u2581Frascati": 8813,
  "\u2581Galimard": 8814,
  "\u2581Guingamp": 8815,
  "\u2581J\u025bn\u0272\u0254g\u0254n": 8816,
  "\u2581Laquelle": 8817,
  "\u2581Marmadou": 8818,
  "\u2581Mirepoix": 8819,
  "\u2581Montr\u00e9al": 8820,
  "\u2581Nouvelle": 8821,
  "\u2581Ouvrirez": 8822,
  "\u2581Poitiers": 8823,
  "\u2581Prendrez": 8824,
  "\u2581Pyr\u00e9n\u00e9es": 8825,
  "\u2581P\u00e9cuchet": 8826,
  "\u2581Y\u025bl\u025bmani": 8827,
  "\u2581adamaden": 8828,
  "\u2581alphabet": 8829,
  "\u2581am\u025brik\u025bn": 8830,
  "\u2581articles": 8831,
  "\u2581attitude": 8832,
  "\u2581avancent": 8833,
  "\u2581balimac\u025b": 8834,
  "\u2581bal\u0254ntan": 8835,
  "\u2581certaine": 8836,
  "\u2581certains": 8837,
  "\u2581chansons": 8838,
  "\u2581chantait": 8839,
  "\u2581chapeaux": 8840,
  "\u2581chemin\u00e9e": 8841,
  "\u2581coh\u00e9rent": 8842,
  "\u2581commande": 8843,
  "\u2581complexe": 8844,
  "\u2581comporte": 8845,
  "\u2581concerne": 8846,
  "\u2581confirme": 8847,
  "\u2581contenue": 8848,
  "\u2581contexte": 8849,
  "\u2581craindre": 8850,
  "\u2581cravates": 8851,
  "\u2581critique": 8852,
  "\u2581cuill\u00e8re": 8853,
  "\u2581c\u025bk\u0254r\u0254ba": 8854,
  "\u2581datougou": 8855,
  "\u2581deenmis\u025b": 8856,
  "\u2581denmisen": 8857,
  "\u2581disparut": 8858,
  "\u2581district": 8859,
  "\u2581djamanan": 8860,
  "\u2581dougouma": 8861,
  "\u2581dusudiya": 8862,
  "\u2581d\u00e9ranger": 8863,
  "\u2581d\u00e9velopp": 8864,
  "\u2581d\u0254t\u0254r\u0254so": 8865,
  "\u2581efficace": 8866,
  "\u2581fatigu\u00e9e": 8867,
  "\u2581festival": 8868,
  "\u2581feuilles": 8869,
  "\u2581fr\u00e9quent": 8870,
  "\u2581f\u0254l\u0254f\u0254l\u0254": 8871,
  "\u2581heureuse": 8872,
  "\u2581histoire": 8873,
  "\u2581humaines": 8874,
  "\u2581idioties": 8875,
  "\u2581inscrits": 8876,
  "\u2581insult\u00e9s": 8877,
  "\u2581jamanjan": 8878,
  "\u2581jatimin\u025b": 8879,
  "\u2581kalanbon": 8880,
  "\u2581kibariya": 8881,
  "\u2581kiritig\u025b": 8882,
  "\u2581kititig\u025b": 8883,
  "\u2581klantch\u00e8": 8884,
  "\u2581kunafoli": 8885,
  "\u2581k\u0254r\u0254sini": 8886,
  "\u2581lesquels": 8887,
  "\u2581lisaient": 8888,
  "\u2581lointain": 8889,
  "\u2581manifest": 8890,
  "\u2581marchait": 8891,
  "\u2581masculin": 8892,
  "\u2581mauvaise": 8893,
  "\u2581meilleur": 8894,
  "\u2581musicien": 8895,
  "\u2581m\u00e9decins": 8896,
  "\u2581nalomaya": 8897,
  "\u2581nus\u0254ndia": 8898,
  "\u2581n\u025bn\u025bkiri": 8899,
  "\u2581ouvrirez": 8900,
  "\u2581pareille": 8901,
  "\u2581particip": 8902,
  "\u2581passionn": 8903,
  "\u2581peinture": 8904,
  "\u2581physique": 8905,
  "\u2581pilasira": 8906,
  "\u2581poitrine": 8907,
  "\u2581prennent": 8908,
  "\u2581prov\u025bnsi": 8909,
  "\u2581pr\u00e9sents": 8910,
  "\u2581pr\u00e9tendu": 8911,
  "\u2581quantit\u00e9": 8912,
  "\u2581rappelle": 8913,
  "\u2581recevoir": 8914,
  "\u2581remplace": 8915,
  "\u2581reproche": 8916,
  "\u2581retraite": 8917,
  "\u2581revanche": 8918,
  "\u2581r\u00e9pondis": 8919,
  "\u2581sababuya": 8920,
  "\u2581sanglots": 8921,
  "\u2581sauvages": 8922,
  "\u2581sciences": 8923,
  "\u2581seigneur": 8924,
  "\u2581semblent": 8925,
  "\u2581sirabada": 8926,
  "\u2581sonneurs": 8927,
  "\u2581souviens": 8928,
  "\u2581s\u00fbrement": 8929,
  "\u2581tagasira": 8930,
  "\u2581transfor": 8931,
  "\u2581traverse": 8932,
  "\u2581triomphe": 8933,
  "\u2581trouvait": 8934,
  "\u2581vieilles": 8935,
  "\u2581walawala": 8936,
  "\u2581wolomani": 8937,
  "\u2581y\u0254r\u0254w\u025br\u025b": 8938,
  "\u2581y\u025br\u025bmin\u025b": 8939,
  "\u2581\u0272inikali": 8940,
  "\u2581\u0272\u0254g\u0254nkan": 8941,
  "Universit\u00e9": 8942,
  "atmosph\u00e8re": 8943,
  "\u2581Allemagne": 8944,
  "\u2581Astronome": 8945,
  "\u2581Attention": 8946,
  "\u2581B\u00e9ringier": 8947,
  "\u2581Capitaine": 8948,
  "\u2581Catherine": 8949,
  "\u2581Charri\u00e8re": 8950,
  "\u2581Guatemala": 8951,
  "\u2581Hellemmes": 8952,
  "\u2581Jos\u00e9phine": 8953,
  "\u2581Longtemps": 8954,
  "\u2581Mercadier": 8955,
  "\u2581Micheline": 8956,
  "\u2581Montardon": 8957,
  "\u2581Pachym\u00e8re": 8958,
  "\u2581Perpignan": 8959,
  "\u2581Sap\u025bldeni": 8960,
  "\u2581Stanislas": 8961,
  "\u2581Vachonnet": 8962,
  "\u2581Wisconsin": 8963,
  "\u2581allemande": 8964,
  "\u2581anciennes": 8965,
  "\u2581angil\u025bkan": 8966,
  "\u2581attendait": 8967,
  "\u2581centaines": 8968,
  "\u2581chantasse": 8969,
  "\u2581chaussons": 8970,
  "\u2581classique": 8971,
  "\u2581demandait": 8972,
  "\u2581denmisenw": 8973,
  "\u2581d\u00e9butants": 8974,
  "\u2581d\u00e9cisions": 8975,
  "\u2581d\u00e9m\u00e9nager": 8976,
  "\u2581entretenu": 8977,
  "\u2581fortement": 8978,
  "\u2581influence": 8979,
  "\u2581ing\u00e9nieur": 8980,
  "\u2581kalansora": 8981,
  "\u2581kalans\u025bb\u025b": 8982,
  "\u2581kodjouhou": 8983,
  "\u2581kunk\u0254r\u0254ta": 8984,
  "\u2581maltraite": 8985,
  "\u2581meilleurs": 8986,
  "\u2581mensonges": 8987,
  "\u2581messieurs": 8988,
  "\u2581musicales": 8989,
  "\u2581numanbolo": 8990,
  "\u2581n\u00e9anmoins": 8991,
  "\u2581objectifs": 8992,
  "\u2581paupi\u00e8res": 8993,
  "\u2581ph\u00e9nom\u00e8ne": 8994,
  "\u2581pr\u00e9senter": 8995,
  "\u2581pr\u00e9sent\u00e9s": 8996,
  "\u2581recherche": 8997,
  "\u2581religieux": 8998,
  "\u2581retourner": 8999,
  "\u2581retrouver": 9000,
  "\u2581r\u00e9alis\u00e9es": 9001,
  "\u2581sensibles": 9002,
  "\u2581structure": 9003,
  "\u2581s\u025bn\u025bk\u025blaw": 9004,
  "\u2581tapissier": 9005,
  "\u2581toutefois": 9006,
  "\u2581tradition": 9007,
  "\u2581transport": 9008,
  "\u2581travaill\u00e9": 9009,
  "\u2581traverser": 9010,
  "\u2581t\u00e9l\u00e9phon\u00e9": 9011,
  "\u2581viendront": 9012,
  "\u2581\u00e9tudiants": 9013,
  "\u2581\u0272am\u0254g\u0254den": 9014,
  "arrassaient": 9015,
  "\u2581Expression": 9016,
  "\u2581Faventines": 9017,
  "\u2581Lesquelles": 9018,
  "\u2581Madagascar": 9019,
  "\u2581Marguerite": 9020,
  "\u2581Montmartre": 9021,
  "\u2581Outarville": 9022,
  "\u2581Pittsburgh": 9023,
  "\u2581R\u00e9volution": 9024,
  "\u2581appara\u00eetre": 9025,
  "\u2581appellerai": 9026,
  "\u2581bagenbagaw": 9027,
  "\u2581banabagat\u0254": 9028,
  "\u2581bink\u025bn\u025bman": 9029,
  "\u2581calendrier": 9030,
  "\u2581chaussures": 9031,
  "\u2581communaut\u00e9": 9032,
  "\u2581compagnons": 9033,
  "\u2581complexit\u00e9": 9034,
  "\u2581compl\u00e9ment": 9035,
  "\u2581contrainte": 9036,
  "\u2581couramment": 9037,
  "\u2581exceptionn": 9038,
  "\u2581fonctionne": 9039,
  "\u2581imprimante": 9040,
  "\u2581n\u00e9cessaire": 9041,
  "\u2581personnage": 9042,
  "\u2581population": 9043,
  "\u2581professeur": 9044,
  "\u2581profession": 9045,
  "\u2581reprendras": 9046,
  "\u2581ressuscita": 9047,
  "\u2581reviendrai": 9048,
  "\u2581satisfaits": 9049,
  "\u2581signifiait": 9050,
  "\u2581simplement": 9051,
  "\u2581sp\u00e9cialit\u00e9": 9052,
  "\u2581suspension": 9053,
  "\u2581s\u025bb\u025brik\u025bla": 9054,
  "\u2581t\u00e9l\u00e9phoner": 9055,
  "\u2581Extr\u00eamement": 9056,
  "\u2581Monseigneur": 9057,
  "\u2581Sicardi\u00e8res": 9058,
  "\u2581boulangerie": 9059,
  "\u2581commissaire": 9060,
  "\u2581comp\u00e9tition": 9061,
  "\u2581d\u00e9claration": 9062,
  "\u2581expositions": 9063,
  "\u2581flibustiers": 9064,
  "\u2581particulier": 9065,
  "\u2581recommandez": 9066,
  "\u2581regardaient": 9067,
  "\u2581suppression": 9068,
  "\u2581Mademoiselle": 9069,
  "\u2581M\u00e9diterran\u00e9e": 9070,
  "\u2581Philadelphie": 9071,
  "\u2581constitution": 9072,
  "\u2581construction": 9073,
  "\u2581parfaitement": 9074,
  "\u2581probablement": 9075,
  "\u2581propri\u00e9taire": 9076,
  "\u2581tourterelles": 9077,
  "\u2581international": 9078,
  "\u2581probl\u00e9matique": 9079,
  "\u2581administrateur": 9080,
  "\u2581principalement": 9081,
  "ARD": 9082,
  "GAN": 9083,
  "HOR": 9084,
  "boz": 9085,
  "cuq": 9086,
  "djo": 9087,
  "dj\u00e9": 9088,
  "exc": 9089,
  "fee": 9090,
  "flu": 9091,
  "had": 9092,
  "poz": 9093,
  "v\u025bk": 9094,
  "xh\u00e9": 9095,
  "\u00eab\u00ea": 9096,
  "\u00f4k\u00f4": 9097,
  "\u00f4l\u00f4": 9098,
  "\u2581\u0190r": 9099,
  "\u2581\u019da": 9100,
  "Auge": 9101,
  "Brun": 9102,
  "AGN": 9103,
  "p\u00f4t": 9104,
  "AGNA": 9105,
  "HORS": 9106,
  "Inst": 9107,
  "ably": 9108,
  "adel": 9109,
  "agir": 9110,
  "alys": 9111,
  "anc\u00e9": 9112,
  "awne": 9113,
  "azon": 9114,
  "balo": 9115,
  "beri": 9116,
  "b\u0254ra": 9117,
  "cane": 9118,
  "chop": 9119,
  "ci\u00f3n": 9120,
  "del\u00e0": 9121,
  "depu": 9122,
  "drin": 9123,
  "ectu": 9124,
[...]
